#version: 0.2
s t
e n
p o
r o
n e
o v
t o</w>
r a
t e
c h
n í</w>
s e</w>
c h</w>
j e</w>
l e
p ř
n a</w>
o d
l a
i n
e m</w>
a n
j s
ž e</w>
k o
h o</w>
d o
a l
j e
n o
n a
p r
t a
t o
í m</w>
s k
en í</w>
l i
p ro
z a
c e</w>
n i
o b
ř e
b y
k y</w>
v e
l a</w>
l e</w>
t e</w>
m o
d ě
p a
n ě</w>
o t
m e</w>
n ě
v ě
v y
n á
d e
m ě
l o
m i</w>
a k
r á
n í
o u</w>
l á
v á
k a
js em</w>
l i</w>
s i</w>
ý ch</w>
o r
ř í
v i
př e
t i
c i</w>
k u</w>
b y</w>
. .
n é</w>
v a
st a
d y</w>
s t</w>
te r
př í
b u
e r
v o
m a
d o</w>
s e
.. .</w>
p ra
c o</w>
v ý
l u
é ho</w>
N e
q u
m i
qu ot
quot ;</w>
& quot;</w>
d e</w>
po d
a k</w>
j í
k u
j í</w>
r e
o u
c e
ž i
pr o</w>
k ter
l o</w>
m u</w>
t ě
z á
h od
t y</w>
š e
d i
c í</w>
d u</w>
d a
m á
j i
r u
ro z
st i</w>
k a</w>
d n
t u</w>
ne b
t ě</w>
ov a
2 0
m u
př i
m í
v í
d á
z e
m ě</w>
r i
h o
j ak
c k
š í</w>
m e
n o</w>
P o
pr á
s po
neb o</w>
T o</w>
č e
t i</w>
m ů
d y
ov á
s a
t u
p i
z e</w>
ž e
s l
p e
n y</w>
ta k</w>
ko n
v e</w>
P ro
pra v
do b
a r
st á
l y</w>
k á
j i</w>
z a</w>
n á</w>
z ení</w>
le d
s ou
c i
st e</w>
ý m</w>
v í</w>
l en
t í</w>
n e</w>
s í
b o
b e
č i
s i
js ou</w>
ř e</w>
c í
b ý
@ -
@- @</w>
C o</w>
js i</w>
u je</w>
n ý</w>
m en
h le</w>
al e</w>
J e</w>
ní ch</w>
k ov
é m</w>
jak o</w>
ř i
20 0
st u
t r
J e
no u</w>
m y
ro v
bý t</w>
lo u
s v
z i
l í
d en
ova t</w>
n u
v z
prá v
pře d
st an
n i</w>
a s
ří zení</w>
je d
ová ní</w>
dy ž</w>
t a</w>
st i
N e</w>
le č
t á
k la
no sti</w>
d í
n ov
po u
t ře
C h
p la
z na
b i
kter é</w>
js me</w>
j ste</w>
j ak</w>
al a</w>
t v
K o
d a</w>
te l
n ím</w>
mo h
sk é</w>
p l
ž en
v še
P ře
no st</w>
t ro
A le</w>
dě la
l ní</w>
po s
t ř
a by</w>
o h
ku d</w>
p á
jí cí</w>
n u</w>
& #
&# 9
p ů
ní ho</w>
c en
s o
o d</w>
š i
by ch</w>
by l</w>
l ov
s ob
ko u</w>
st e
ž í
t ím</w>
l é
r y</w>
g i
je n</w>
ne j
bu de</w>
č í
f or
d u
vá m</w>
p ě
pa d
š e</w>
ve l
m a</w>
ro p
d ů
t í
k dyž</w>
st ví</w>
á d
m á</w>
č ní</w>
f i
D ob
j á</w>
s em</w>
n ých</w>
t ra
p u
J o</w>
t ní</w>
v od
ch o
t é
v rop
b a
J á</w>
stan ov
p í
st ra
d ov
k dy</w>
l u</w>
st í</w>
r u</w>
á m</w>
p o</w>
j in
vě t
e j</w>
v a</w>
st ře
k ů</w>
ne ž</w>
s u
ta k
ve den
k do</w>
r a</w>
N a
m y</w>
n ení</w>
t y
v ím</w>
j te</w>
s ím</w>
h la
s lu
u ž</w>
b ě
Z a
r y
to m</w>
m lu
to ho</w>
by la</w>
by lo</w>
na řízení</w>
T ak</w>
š í
ch á
T o
ko u
č a
s í</w>
v y</w>
h a
li d
my sl
m in
v ní</w>
spo leč
h ra
s y
š tě</w>
h u</w>
u t</w>
ck é</w>
T e
č in
ře k
al i</w>
t ý
ta m</w>
ně co</w>
m é
E vrop
j a
mo ž
cí ch</w>
vše ch
al i
u r
T a
ta dy</w>
20 1
Ko mi
an e</w>
D o
de n</w>
ov é</w>
z ná
ro b
d r
M o
stu p
v á</w>
d ní</w>
č á
u veden
ne k</w>
A no</w>
dn e</w>
me z
b í
ch od
č len
je ho</w>
ý mi</w>
N o</w>
sk u
n ého</w>
or g
o pa
sta v
t ů</w>
0 0</w>
en é</w>
J ak</w>
vá s</w>
z d
š tě
č .</w>
č er
ž á
k rá
ř í</w>
ra n
s led
b a</w>
ž í</w>
R a
T ak
V y
le m</w>
M u
jí t</w>
ů m</w>
do u</w>
E S</w>
pra c
M y
b e</w>
mů že
an é</w>
mů že</w>
roz hod
t é</w>
a u
st ě</w>
va t</w>
po ř
má m</w>
o n
te č
in y</w>
te n</w>
B A
s le
d í</w>
B u
ce l
N i
pod le</w>
M a
to že</w>
v lá
po tře
dě lá
k á</w>
Dob ře</w>
kter ý</w>
s m
í š</w>
v la
B y
v ů
e l
ch y
al o</w>
é mu</w>
p en
k o</w>
j u</w>
an i
v en
b ra
u děla
BA R</w>
k em</w>
g ra
vi t</w>
ji ch</w>
z í
k te
in for
bu de
Komi se</w>
te ď</w>
j de</w>
Pře d</w>
no ut</w>
s mě
ž d
st o
nu tí</w>
ž u</w>
t en
1 9
e k
s vě
M ů
ne ch
od po
o z
d ru
ř a
mo c</w>
le p
3 ;</w>
&#9 3;</w>
1 ;</w>
&#9 1;</w>
o n</w>
š ení</w>
ře j
ř i</w>
c t</w>
a m
v š
mu sí</w>
Pro č</w>
č en
č í</w>
d al
v r
t ky</w>
mě l</w>
ni c</w>
ve d
sk ého</w>
še l</w>
st o</w>
kter á</w>
po z
f in
dě l
e x
N a</w>
u jí</w>
d ne
be z
a ž</w>
po kud</w>
lá nek</w>
pa r
ná m</w>
jed no
ná s</w>
j en
e z
ch u</w>
pla t
prav du</w>
ně ní</w>
K a
d ě</w>
ze m
vý rob
g en
b or
P od
j mé
pře d</w>
sk ých</w>
led em</w>
do sta
infor ma
ni ce</w>
vi dě
J sem</w>
je jich</w>
tř ení</w>
t ov
vá ní</w>
sk y
ko li
u n
S po
Tak že</w>
v ě</w>
vě dě
pou ži
P a
pod po
k ro
h le
mě sí
př i</w>
m o</w>
st li</w>
od st</w>
T y</w>
s y</w>
pů sob
k ra
h y</w>
My sl
z í</w>
an i</w>
ne s
je dn
ova l</w>
ž a
M i
pod á
le t</w>
D ě
dob r
č i</w>
by s</w>
j ší</w>
ž ení</w>
M á
je ště</w>
k de</w>
ni e</w>
to mu</w>
š i</w>
st ro
te l</w>
z en
h á
N ě
vla st
m al
č ení</w>
ni t</w>
k e
ži v
ka žd
c o
to hle</w>
č l</w>
hod no
č as
1 0</w>
pro stře
lá n
v in
k r
l í</w>
V i
k ý</w>
t vo
zá kla
č e</w>
ro u</w>
po li
z mě
m to</w>
ka z
k e</w>
Č lánek</w>
s na
je k
h u
m no
s á
mez i</w>
ch tě
Po kud</w>
sy st
ta kov
vi d
h y
vá dě
h e
pe č
to ho
k é</w>
pří pad
vo l
M ě
sk ý</w>
ob la
ch la
E U</w>
ov á</w>
p er
pa k</w>
m ů</w>
l in
t ně</w>
ch ce
pro du
š en
po sky
r o</w>
v u</w>
l é</w>
h em</w>
sv é</w>
B o
c ky</w>
U ž</w>
r ů
s a</w>
pro tože</w>
by ly</w>
mů žu</w>
dob ře</w>
te k</w>
o ch
m an
mě la</w>
mí t</w>
té to</w>
le ži
toho to</w>
h a</w>
en ství</w>
má š</w>
J ak
v é</w>
C o
K dyž</w>
č ky</w>
ž ně</w>
i st
č lán
s pě
s ch
i l
ne u
mu sí
fin an
de me</w>
pr ů
cho m</w>
z ku
by chom</w>
P ři
ně jak
mů j</w>
n ým</w>
a pos
apos ;</w>
& apos;</w>
ne m</w>
la du</w>
s u</w>
smě r
ov an
sk á</w>
Je n</w>
org á
sk a</w>
p ane</w>
pou ží
poř ád
f e
b u</w>
b ou</w>
p lá
ste j
ů j</w>
da t</w>
1 0
o te
ř en
l y
všech ny</w>
sta r
z působ
To hle</w>
á lní</w>
ho j</w>
s la
všech no</w>
tak é</w>
ch a
or i
rozhod nutí</w>
te be</w>
ck ých</w>
i n</w>
M ám</w>
st a</w>
od e
v ky</w>
dru h
v ra
h rá
slu š
j o</w>
á d</w>
sou ladu</w>
á l
I n
opa tření</w>
Ř ek
ko m
ří ct</w>
tv r
produ k
sku teč
ve řej
vo z
š ím</w>
V ý
ú če
m r
ví c</w>
pří lo
či t</w>
ch ni</w>
ne z
ž ná</w>
in á
k li
jí cích</w>
ma jí</w>
A hoj</w>
d lou
in u</w>
k y
po č
by ste</w>
ví š</w>
po mo
D í
m lou
lep ší</w>
Spo leč
h ov
h r
S e
dal ší</w>
kon tro
v rá
ob sa
o sob
ta ky</w>
pro b
moh l</w>
g a
do u
d od
i t</w>
ši chni</w>
s vět
d i</w>
za ji
S a
A n
k to
pro č</w>
řek l</w>
t rá
c ů</w>
no stí</w>
g e
pořád ku</w>
živ ot
d á</w>
u m
b li
v ni
k dy
ř ení</w>
bu du</w>
z vlá
H o
t né</w>
je me</w>
je š</w>
ro d
be z</w>
s práv
ni kdy</w>
b ě</w>
l ý</w>
potře bu
al o
R oz
h or
b á
do st</w>
případ ě</w>
posky t
Mysl ím</w>
bu dou</w>
Ra dy</w>
f un
te m</w>
ry ch
L i
zna men
Mo žná</w>
má me</w>
ve r
s lo
j ů</w>
J a
R e
z o
n ky</w>
ví ce</w>
J s
s pe
ři t</w>
pří sluš
sk y</w>
sk o</w>
ka l</w>
po ža
V á
ob chod
je stli</w>
bez peč
š ko
s .</w>
k lá
ž ád
st ru
J si</w>
my sle
Mu sí
ch ci</w>
er i
ho s
O d
vel mi</w>
p u</w>
ka t</w>
ji st
z práv
po dob
D e
ú da
jmé na</w>
prá ce</w>
ti t</w>
ča s</w>
sl y
an o</w>
u jící</w>
le j</w>
a t</w>
moh ou</w>
mu se
pod ni
m é</w>
t ku</w>
kte ří</w>
pod í
děla t</w>
stanov en
š ť
m ně</w>
vš ak</w>
stá ty</w>
Dob r
c ím</w>
l ky</w>
st alo</w>
f o
lo gi
pod mí
prá ci</w>
ko ne
E H
prostře d
ži vo
ni c
da l</w>
í te</w>
x i
pro gra
Po j
P ří
D a
mo je</w>
pro to</w>
ve j</w>
vě st</w>
le k
K do</w>
tě ch
Společ enství</w>
pro vádě
1 2
obla sti</w>
ú čin
pa ci
k ej</w>
ck ý</w>
Ř í
Ta dy</w>
. .</w>
t ý</w>
l ka</w>
K de</w>
t ri
m nou</w>
ní mi</w>
podá ř
pro ti</w>
Te ď</w>
ní k</w>
h lá
de k</w>
to u</w>
sl ov
t á</w>
vel ký</w>
oh ledem</w>
těch to</w>
z u
ji m</w>
mysl ím</w>
te le</w>
19 9
di t</w>
tro chu</w>
ř .</w>
z y</w>
Ú ř.</w>
vz ta
L e
b an
j as
pro sím</w>
Dí ky</w>
o m</w>
r ů</w>
dn ý</w>
prac ov
N ení</w>
má te</w>
a bych</w>
b od
t h
informa ce</w>
mlu vit</w>
po ru
te ch
n en
za mě
s ně</w>
Evrop ské</w>
P ot
dá v
člán ku</w>
J i
Mů že
d va</w>
ší ch</w>
hos podář
je jí</w>
v ž
Z a</w>
rá m
u ží
mě li</w>
uděla t</w>
z ů
vy š
H ej</w>
z ra
vů li</w>
V íš</w>
poli ti
ze jména</w>
pou ze</w>
pří prav
koli v</w>
vše ch</w>
Dě ku
d la</w>
nov é</w>
al y</w>
lo u</w>
vě ci</w>
na bí
ti v
k re
do hod
ně kdo</w>
pr e
l ení</w>
ně jší</w>
z kou
H e
ka m
ma ti
la ce</w>
va l</w>
r e</w>
ko ho</w>
č ka</w>
ko li</w>
u ži
g u
b lí
t ka</w>
pr vní</w>
no st
st u</w>
pad á</w>
zd ra
va jí</w>
ck á</w>
zí sk
va ž
je m
směr nice</w>
2 0</w>
ob dob
ti vní</w>
V ě
ot á
mí sto</w>
n ém</w>
s ní
h ledem</w>
s kou</w>
č ních</w>
je den</w>
za bi
in g
Ch ci</w>
ro dní</w>
rá d</w>
P ro</w>
pě t</w>
li t</w>
d lo</w>
Pro tože</w>
cí ho</w>
B e
E N
j em</w>
o sta
vědě t</w>
tře ba</w>
N á
může š</w>
ň te</w>
v an
st rá
po d</w>
ně te</w>
č ku</w>
Pro mi
chá ze
ka pi
dá m</w>
k an
1 2</w>
V še
b rá
d an
kov é</w>
chce š</w>
sti t</w>
z ji
sk u</w>
Pod í
re gi
k lu
200 6</w>
čí s
1 .</w>
po ko
ď te</w>
R o
d ra
žen y</w>
dn y</w>
pá r</w>
de š</w>
By l</w>
i l</w>
org ani
te ch</w>
by li</w>
M ar
I I</w>
š pa
s lou
ov ý</w>
zem í</w>
zná m
zákla dě</w>
č ně</w>
odpo vě
j ení</w>
b í</w>
ov ých</w>
ty to</w>
z ni
si l
ne d</w>
la men
Ch ce
kte rou</w>
j du</w>
tr a</w>
li v
mo c
tý ka
st ě
T u
5 0</w>
b er
př á
jin é</w>
pos led
pa d</w>
dá ní</w>
dů vod
R O
ká m</w>
sv ou</w>
cho p
může te</w>
a j
a l</w>
To to</w>
te le
st ou
š la</w>
ur či
vo la
tě ž
l ů</w>
bude š</w>
d ří
lov ě
stu p</w>
vi de
v če
vi l</w>
s r
s ko
svě d
živo t</w>
vy so
Vše ch
stru k
va z
a si</w>
su b
ná kla
ro ku</w>
ti l</w>
h i
ro ce</w>
c ení</w>
poža da
š li</w>
P ane</w>
ne vy
be c</w>
slu ž
dě je</w>
O h</w>
Pro sím</w>
uveden é</w>
spo lu
dělá š</w>
h ot
ve če
ro k</w>
obdob í</w>
může me</w>
před pi
ště ní</w>
ne za
vá š</w>
dů leži
měsí ci</w>
je te</w>
ku r
V a
za ce</w>
S T
rám ci</w>
vi dí
p an
ch e
M oh
V e
3 0</w>
ten to</w>
v šichni</w>
mo z
1 .
v ou</w>
jed nou</w>
kter ým</w>
me t
zvlá š
š k
vče tně</w>
P O
1 1</w>
mož ná</w>
v al
200 5</w>
ter i
1 5</w>
uděla l</w>
k ri
chtě l</w>
bude me</w>
paci en
ná sled
te bou</w>
Te n</w>
se s</w>
1 8</w>
c u
če t</w>
man že
tak že</w>
m od
p le
moh la</w>
T y
stan e</w>
é st</w>
m ý
ch rá
t re
jed in
chla p
při j
sk vě
k vůli</w>
za řízení</w>
ro ky</w>
mysl íš</w>
tř i</w>
má lní</w>
Evrop ského</w>
200 4</w>
c em</w>
ak ra</w>
F ran
u nie</w>
d ů</w>
č lově
o pravdu</w>
ži t</w>
ná ní</w>
t ních</w>
ob ra
ve n</w>
V y</w>
t an
l ze</w>
pr sa</w>
k v
ote v
ně j</w>
dov o
Po č
min u
v o</w>
0 00</w>
ne do
bor u</w>
e n</w>
mé ně</w>
P ra
t la
b r
va še</w>
hod ně</w>
J as
tel né</w>
společ nosti</w>
ne po
d ro
st y</w>
n ými</w>
na še</w>
mi li
h lí
ú ča
gi e</w>
h uje</w>
Z á
a le
na d</w>
znamen á</w>
lid i</w>
J o
Ne vím</w>
e c
rů z
lo ž
stanov í</w>
l á</w>
dobr ý</w>
ří zen
d ce</w>
Pot ře
stá t</w>
Je stli</w>
z i</w>
vý m</w>
ro di
dne s</w>
dě ji</w>
pl ň
poř ád</w>
ne vím</w>
pá tky</w>
ri zi
ov i</w>
e lek
P á
č em</w>
b al
de j</w>
t in
otá z
f ak
za v
dá le</w>
och ra
po stup
O b
člen ských</w>
ne j</w>
tr hu</w>
sou vi
kla d</w>
in ter
sku p
ste r</w>
vel ká</w>
so b</w>
l ém</w>
ze mě
ví te</w>
ob ě
žen a</w>
n an
h ro
chá zí</w>
to mto</w>
sv ého</w>
tv ůj</w>
a n</w>
no r
do m
P Ř
ne jsou</w>
t ví</w>
da r
s ů</w>
za č
řej mě</w>
au to
pro voz
T en
ve k</w>
stanov ení</w>
li k</w>
z nov
p li
dn á</w>
r ní</w>
vě c</w>
la d
sm r
vá žně</w>
s chop
Je d
bě hem</w>
mo u</w>
mo t
ká ch</w>
ně ž</w>
l ně</w>
zamě st
200 7</w>
mož né</w>
ž i</w>
vo d</w>
S ta
B a
pří mo</w>
ve li
en er
či l</w>
R u
Ni c</w>
a st
d vo
EH S</w>
in a
V ím</w>
par lamen
ni ch</w>
se be</w>
za l</w>
D o</w>
pl ně</w>
mě ní</w>
mě r
při po
vidě l</w>
D á
dov oz
ži l</w>
l ku</w>
li e</w>
mu sím</w>
ck ého</w>
z ví
jedno t
í ze</w>
te dy</w>
če k</w>
n ů</w>
z pátky</w>
Js ou</w>
S ou
o ko
po čí
ši t</w>
žád né</w>
Potře bu
P e
Má š</w>
vidě t</w>
Mu sím</w>
od stav
sv ůj</w>
spo lu</w>
dlou ho</w>
pr v
z vý
r ky</w>
1 8
my s
lid í</w>
do kon
Jak o</w>
ov o
bo r</w>
dy cky</w>
se d
ji ž</w>
ná vr
čá sti</w>
bude te</w>
á l</w>
pr y
Ch tě
la n
pra vid
přílo ze</w>
ze mě</w>
pro stě</w>
každ ý</w>
s in
sk ým</w>
u ni
krá t</w>
dn ím</w>
vý zna
stá le</w>
odpo ví
u mí
š lo</w>
in ve
z da</w>
ni l</w>
ov ala</w>
fun g
ov ané</w>
kter ých</w>
U nie</w>
vět ší</w>
b o</w>
vo je</w>
dr že
spe ci
syst ému</w>
C a
vů bec</w>
ka z</w>
c er
vz hledem</w>
j deme</w>
z ní</w>
h ry</w>
koli k</w>
o ná
sk ém</w>
dr ž
pen íze</w>
S mlou
st ří
ch ví
h nout</w>
č ím</w>
sti tu
t ř</w>
ch ce</w>
do mů</w>
H am
po zi
nej lepší</w>
ká z
dá l</w>
vlast ní</w>
za po
e vrop
d ý
jen om</w>
děl á</w>
ví me</w>
ka ce</w>
f er
spo ň</w>
ve jte</w>
Ni kdy</w>
1 3
pu bli
tra n
Děku ji</w>
ní ku</w>
ch y</w>
potře b
1 4</w>
ná š</w>
jí ma
in g</w>
1 3</w>
h ned</w>
dosta t</w>
M e
prob lé
s ám</w>
c k</w>
ov ou</w>
č ního</w>
ne š</w>
p al
o r</w>
ov ého</w>
řek la</w>
z er
Musí me</w>
sch vá
1 5
pr de
le s
1 7
a d
S u
tech ni
použi tí</w>
V z
tě ch</w>
o pe
dá t</w>
a gen
200 8</w>
z bra
pry č</w>
n y
S te
práv ě</w>
ne bude</w>
tu a
no c</w>
rá da</w>
ce la</w>
ova cí</w>
mě lo</w>
to to</w>
b ar
do prav
kra č
před lo
E U
p y</w>
po j
po r
v hod
- -
By la</w>
dob u</w>
200 9</w>
před stav
Mě l</w>
zd ro
k ry
b lo
posled ní</w>
dě ti</w>
mí st
po hod
ka m</w>
kapi tá
ob ec
d vě</w>
vo zi
ne moc
Bo že</w>
pře s</w>
ci e</w>
vo lá
l od
za hr
to m
u vě
ú rov
d em</w>
R i
Mů j</w>
stá tů</w>
to bě</w>
1 6
se zna
prob lém</w>
č an
t ří
ni ci</w>
ka r
a ť</w>
200 3</w>
ch ž</w>
musí me</w>
1 4
pí sm
prav en
moh li</w>
tel é</w>
tř í</w>
zá sa
pří pa
u m</w>
l h
k ce</w>
R A
J ste</w>
a bys</w>
z la
ž ství</w>
dělá m</w>
si tua
lid é</w>
ma tu
po vin
D i
p e</w>
V e</w>
k i
Komi si</w>
M á</w>
ve z
Poj ď</w>
z y
vy tvo
do t
leži to
K dy
mlou vám</w>
nějak é</w>
D r
stej ně</w>
ch a</w>
tvo je</w>
moz řejmě</w>
Z e
orgá ny</w>
ne me</w>
p tá
znov u</w>
ká ní</w>
f ek
pl y
V í
pro jek
O n</w>
co ž</w>
ch u
ř á
t vá
My sle
k ala</w>
By lo</w>
Ham ster</w>
stá tní</w>
struk tu
x Hamster</w>
lé č
pen i
vy k
w e
Ne j
ste ch</w>
v stup
ex ist
z alo
en e
u mož
písm .</w>
od vět
aj n</w>
musí š</w>
ta to</w>
s kon
o zna
m ž</w>
1 6</w>
P o</w>
sub jek
2 5</w>
.. ..
veče r</w>
nez by
a t
or u</w>
V ž
L u
uveden ých</w>
tí mto</w>
vý še</w>
dí tě</w>
syst é
úča st
Je ště</w>
ne s</w>
m ého</w>
T i
č ty
ob je
B ě
Jas ně</w>
fi l
vědě l</w>
h er
ší ho</w>
mě ly</w>
ů h</w>
po važ
Má me</w>
Pře d
tak hle</w>
min i
0 0
mu ž</w>
Co že</w>
ra ce</w>
vid ím</w>
z u</w>
za se</w>
j men
oh led
do kto
v še</w>
z uje</w>
dn i</w>
ní ků</w>
vod u</w>
ři l</w>
stu di
a g
zů sta
tí m
k ým</w>
hlá šení</w>
2 .
h á</w>
zá vi
še ho</w>
od u
s en
čá st</w>
t ru
si s</w>
an g
P rá
z bo
par t
t ých</w>
da jí</w>
odvět ví</w>
podpo ry</w>
a ma
při ja
star ší</w>
O pravdu</w>
před se
Ne bo</w>
de te</w>
práv a</w>
an ých</w>
sm lou
A l
vy uží
ved ení</w>
c kou</w>
ch od</w>
kv ali
mý š
pi s</w>
rá no</w>
b en
finan ční</w>
slu že
za čí
zá vaz
te g
ová ny</w>
B oh
h roz
Js me</w>
He le</w>
P ar
vý sled
í t</w>
pro sin
de ch</w>
Č e
so ci
š ky</w>
gen e
mu ni
r em</w>
ze mi</w>
sv ob
týka jící</w>
neb o
ně né</w>
parlamen tu</w>
in ě</w>
chce te</w>
bo j
ří kal</w>
dobr é</w>
ně kdy</w>
va jící</w>
z de</w>
J en
A ni</w>
je ž</w>
kdy by</w>
jmé no</w>
Ta to</w>
rov něž</w>
sou čas
čer ven
do sa
nabí d
ra zi
S K
Ne můžu</w>
ní ky</w>
te li</w>
Dobr á</w>
m p
mi lu
o na</w>
na jít</w>
po vě
v ý</w>
mr tv
na t</w>
po moc</w>
an al
su d</w>
ň uje</w>
úda je</w>
jí cím</w>
u s
A r
b ře
osta tní</w>
sta vit</w>
informa cí</w>
k ó
dne m</w>
ne byl</w>
an ý</w>
země děl
B ůh</w>
ku men
mysle l</w>
ch i
pi t</w>
na hra
Promi ň</w>
stá tu</w>
3 0
pře sně</w>
Vá žně</w>
ně koho</w>
po tra
uveden ého</w>
se x
1 00</w>
pr i
Na řízení</w>
vž dy</w>
ž ím</w>
k lí
to r</w>
ze k</w>
chví li</w>
stanov i
f on
čís lo</w>
kone c</w>
201 3</w>
ur čen
za ci</w>
Bu de</w>
ti fi
k ům</w>
mno žství</w>
za bí
V šichni</w>
ra z
Chce š</w>
fer en
Pro to</w>
re ži
p s
Pod le</w>
Podí vej</w>
ní mu</w>
pos le
žá dný</w>
ob i
ni ž
dě l</w>
zví řa
ni kdo</w>
S i
li š</w>
in stitu
kam ži
EU R</w>
sv ých</w>
ro st
vni tro
P r
ne r
v ést</w>
lé ka
ne te</w>
V el
ová n</w>
žen é</w>
o s
s akra</w>
služ by</w>
ama té
e ko
pa ní</w>
m m</w>
po čet</w>
2 4</w>
st é</w>
N Í</w>
u li
T O
řízen ím</w>
A si</w>
Ko n
jedno ho</w>
ří ká</w>
i t
b ní</w>
ve de</w>
ne můžu</w>
di l</w>
dí ky</w>
p sa
k ti
cel ý</w>
nějak ý</w>
podmí nky</w>
ra t</w>
stra ny</w>
pohod ě</w>
v u
do kumen
zaměst nan
K O
plat nost</w>
mez iná
í ch</w>
vš em</w>
u plat
p ení</w>
hrá t</w>
sob ě</w>
h mot
ná stro
d é
o k
požada vky</w>
zá vě
st ala</w>
prosin ce</w>
c ku</w>
čer v
podpo ru</w>
dod a
děl ení</w>
201 1</w>
jedn odu
vyš ší</w>
při šel</w>
ma teri
m lad
č né</w>
rá t</w>
c y
při je
rov na</w>
1 7</w>
T a</w>
d ně</w>
do by</w>
do kud</w>
cen y</w>
sta ň</w>
vz or
do ká
f e</w>
pří klad</w>
ště stí</w>
jin ých</w>
k ni
f a
pravid la</w>
min ut</w>
ov ě
dá š</w>
re publi
zvláš tní</w>
p lo
r en
úda jů</w>
Mů žu</w>
a bychom</w>
syst ém</w>
v ně</w>
mi mo</w>
Všech no</w>
pos lou
tel ů</w>
ka ma
amaté rky</w>
I S
pě k
roz um
da jící</w>
m em</w>
pro ce
L a
tu to</w>
ová na</w>
st í
le h
nic tv
S ly
způsob em</w>
poz ději</w>
4 0</w>
V íte</w>
bo d</w>
l ob
A L
Ka žd
do má
- -</w>
prav da</w>
po de
pacien tů</w>
jed na</w>
Ně co</w>
p y
ří t</w>
dob ě</w>
st ři
an á</w>
u z
inve sti
l ních</w>
P ak</w>
bu dou
jedn u</w>
H a
o l
vra ž
X X
š em</w>
sta l</w>
m g</w>
poz or
vy pa
ú plně</w>
f ot
bě ž
d ve
pů j
za t</w>
jedn o</w>
spo tře
prostře dí</w>
nov ý</w>
muse t</w>
d ím</w>
mo ř
ú řa
pří liš</w>
krá s
3 .
na d
vz ít</w>
ne pře
a byste</w>
s va
I N
ak ti
D al
počí ta
společ nost</w>
Ten to</w>
t ům</w>
ka mi</w>
mu s</w>
dří v</w>
ko lem</w>
čer a</w>
t ování</w>
si t</w>
201 0</w>
děla l</w>
mo ci</w>
R y
mal é</w>
Řek l</w>
přílo hy</w>
P ou
z ru
če ká
di spo
s pí
le ty</w>
ote c</w>
ov ali</w>
lo sti</w>
le n</w>
s pá
n ému</w>
hod in</w>
rych le</w>
len é</w>
čá st
e u
chtě la</w>
ý ho</w>
se l
C ar
in ou</w>
jin ého</w>
te r</w>
Má te</w>
v ka</w>
C el
2 1</w>
zbo ží</w>
a b
za dek</w>
ce lá
ní ci</w>
e t
M y</w>
mí stě</w>
u stanovení</w>
člově k</w>
ř ím</w>
cel é</w>
člen ské</w>
z tra
o kamži
za há
D ou
J oh
špa t
ši ch</w>
s mí
EN Í</w>
vo j</w>
li l</w>
c ou
A m
práv ní</w>
ba v
pomo ci</w>
ně j
mysl u</w>
ne jsem</w>
š ku</w>
1 9</w>
Ž á
ne má</w>
hod y</w>
ne vě
Promi ňte</w>
po krač
b lá
t ým</w>
k va
ja ko
z lo
ka ž
200 2</w>
ja kou</w>
to u
am eri
zá j
vž dycky</w>
ž as
au to</w>
hle d</w>
spo u
za hra
zpráv y</w>
ti cké</w>
k al
pen ě
d ního</w>
f ám</w>
še tření</w>
ně m</w>
c a
sk ými</w>
slo sti</w>
v zá
t ovat</w>
L O
vý voz
šť ast
vy svět
S tá
poč tu</w>
před po
neb ez
T O</w>
0 1</w>
o prav
jí cího</w>
se t
čin nosti</w>
de l</w>
ce lou</w>
E C
ak ce</w>
lí to</w>
dohod y</w>
vy padá</w>
Mo je</w>
mo to
dě podob
201 2</w>
po sta
ze n</w>
ž ní</w>
nictv ím</w>
H od
ní ka</w>
li st
K ou
E u
pe r</w>
na vr
no logi
ná hra
od y</w>
sna d</w>
tran s
O mlouvám</w>
4 .
svě tě</w>
gra fi
stra ně</w>
Mysl íš</w>
cí lem</w>
s vým</w>
sou hla
pro st
mo n
s li
hodno ty</w>
lin e</w>
dosta l</w>
čá stí</w>
vidí me</w>
ro u
Ž e</w>
pr vé</w>
d lu
ti la</w>
mys l</w>
2 9
no mi
ř ád</w>
do poru
p ta
o mez
ro ve
je t</w>
každ é</w>
pů sob</w>
finan c
do ma</w>
druh é</w>
progra mu</w>
vi la</w>
po lo
vá mi</w>
bu ď</w>
úče lem</w>
nech at</w>
mož nost</w>
pa pí
sá h
a pli
je jí
z pět</w>
in e</w>
krá lov
vod y</w>
e l</w>
ne byla</w>
B ar
ď me</w>
Bu du</w>
te ra
Poč kej</w>
roz dí
s pod
vý ji
A u
201 4</w>
dispo zi
Dobr ý</w>
dů m</w>
šk er
kaz y</w>
ja zy
h lu
dě lej</w>
u ji</w>
služe b</w>
teg ori
P i
se bou</w>
život a</w>
po tom</w>
nov á</w>
čas u</w>
sv ém</w>
sti l</w>
b l
so n</w>
u zav
ne mám</w>
kon tak
sta ve
st y
ko muni
úče ly</w>
po hy
ne bylo</w>
po mí
o me
ne může</w>
b ou
po tvr
in f
hro ma
rove ň</w>
N A
p í</w>
u ká
e mi
ov i
produk tů</w>
st ri
O d</w>
po ci
ř ené</w>
H ar
no ci</w>
dispozi ci</w>
ni la</w>
š an
E V
le g
ob rá
B ra
do la
le ží</w>
úrov ni</w>
Č len
pomo ct</w>
produk ty</w>
žá do
pří stup</w>
ří ká
vá dí</w>
t ního</w>
na ší</w>
dn u</w>
tr h</w>
rov é</w>
ko mi
pro de
sa z
s er
rá lní</w>
pra vide
moh lo</w>
S o
nen a
ne chá
j ím</w>
kro mě</w>
kov á</w>
po ra
k vět
roz sa
zdra v
Ni kdo</w>
ne c</w>
prostřed nictvím</w>
V la
C H</w>
200 1</w>
u mě
C í
men t</w>
A ž</w>
kov ých</w>
na řízením</w>
pře s
zi den
ce st
č lánek</w>
o sti</w>
h ou</w>
L E
z prac
prá v</w>
vi li</w>
vol ení</w>
w a
kan celá
jin ak</w>
v né</w>
D ej</w>
skup iny</w>
dod á
Va še</w>
me tr
vlast ně</w>
2 2</w>
vý zku
vi n</w>
fak t</w>
v ala</w>
č ené</w>
dn ů</w>
ná mi</w>
200 0</w>
moh u</w>
hla vní</w>
Může te</w>
blí z
t ové</w>
j á
tí ch</w>
sly še
ob y
en a</w>
při praven
t ého</w>
bi li
PŘ Í
sa ma</w>
Pro stě</w>
B ri
2 3</w>
ži la</w>
nic tví</w>
se st
dí š</w>
še tř
lin i
0 ,
h ar
z trá
do stup
H al
t ním</w>
tě mto</w>
2 5
len ý</w>
vý ro
ny ní</w>
zná m</w>
k le
Č í
d ních</w>
z by
sta v</w>
Roz hod
zpráv u</w>
ch ej</w>
tv é</w>
červ na</w>
h ů</w>
či la</w>
ko mu</w>
nech ci</w>
hodno cení</w>
po ku
si l</w>
agen tu
st li
Je ho</w>
P ů
do plň
Musí š</w>
an ti
č ním</w>
dot čen
č ko</w>
š a
G e
r ý
Ty to</w>
r ba
f ri
F ajn</w>
musí te</w>
ma xi
te x
0 8</w>
d vou</w>
h led
lov é</w>
dá vá</w>
Ne chci</w>
de fin
in i
společ enství</w>
od bor
ně kterých</w>
O D
dal ších</w>
stav ení</w>
té ri
ob vyk
ží t</w>
mo ni
vý boru</w>
ob li
e r</w>
ja po
L o
za tím
6 0</w>
pi l</w>
ú č
Č a
pos la
da le
tý dny</w>
lí bí</w>
Dal ší</w>
ú žas
měsí ců</w>
anal ý
vy j
z působ</w>
zdra ví</w>
to lik</w>
tech nologi
b ri
stav u</w>
za pla
elek tro
de r
k ovat</w>
kam er
důleži té</w>
bezpeč nost
0 5</w>
2 8
ka tegori
ovan ých</w>
ne ch</w>
s per
provádě ní</w>
t h</w>
sr dce</w>
J deme</w>
B ru
vi z</w>
v ak
ře l</w>
ck ým</w>
Mě la</w>
z veřej
ná v
ta ce</w>
ke jte</w>
prac ovat</w>
ma stu
S k
D nes</w>
f y
zá ko
zá zna
ex i
ky ně</w>
po žá
vě cí</w>
ú vě
že n</w>
ali z
S A</w>
mysl íte</w>
stli že</w>
zla to</w>
dě len
takov é</w>
š tí</w>
P ři</w>
h ez
Ch ar
n ce</w>
d le</w>
ku l
dosta teč
de se
jin ý</w>
le k</w>
mu že</w>
ved l</w>
t r</w>
s pl
on ů</w>
pod sta
sa mo
po vo
ka jí</w>
e k</w>
tře tí</w>
A ť</w>
nákla dy</w>
sou kro
mastu rba
kov ý</w>
spo r
2 7
vá me</w>
w ar
bez pe
EH P</w>
výrob ky</w>
kama rá
Prá vě</w>
M lu
příprav ku</w>
i ce</w>
S na
hu jící</w>
RO P
ně kolik</w>
ú to
I II</w>
Chtě l</w>
pra vo
mno ho</w>
0 6</w>
ve šker
ová ním</w>
problé my</w>
Po řád</w>
pře de
masturba ce</w>
ná z
z lep
ty pu</w>
stá tech</w>
ře šení</w>
o pu
prav děpodob
kr é
W il
lo st</w>
B er
V o
ma r
ope ra
ň ování</w>
U r
d ala</w>
vrá tit</w>
podmí nek</w>
t ná</w>
l ního</w>
j ně</w>
Může š</w>
po h
me n</w>
obli če
ri e</w>
je j</w>
ne pro
Ka m</w>
zo r</w>
d cer
vni tř
vidě la</w>
si g
plá n</w>
stra te
vni tř</w>
j ené</w>
za chrá
exist uje</w>
kri téri
ro vat</w>
ně které</w>
ne pří
P or
drže t</w>
kom b
Řek ni</w>
H la
ž ky</w>
roz to
dří ve</w>
jak ý</w>
Ne ch</w>
jed nání</w>
0 7</w>
dů sled
o ni</w>
Všech ny</w>
od e</w>
souvi se
po volení</w>
Sa mozřejmě</w>
nu l</w>
le jte</w>
lí bi
l ce</w>
še k</w>
1 ,
ú spě
Vy padá</w>
va ší</w>
na l</w>
eko nomi
bo le
s c
lá tky</w>
re zer
v ku</w>
jak é
dělá te</w>
or y</w>
Am eri
t k
zabí t</w>
na příklad</w>
č ný</w>
ží š</w>
uděla la</w>
EV ROP
dělá me</w>
inter ne
č tvr
vz ni
Mysle l</w>
roz en
jed né</w>
Ne ch
ko sti</w>
mí sta</w>
jas ně</w>
Ji stě</w>
s o</w>
J u
pří stup
Ne jsem</w>
u j</w>
l ých</w>
ří j
dá me</w>
sta ro
jak é</w>
na u
tu je</w>
l ovat</w>
rov á</w>
oná lní</w>
EVROP SK
i r
l ého</w>
speci fi
i den
fe lace</w>
vel ké</w>
6 .
sm í</w>
de l
vý mi</w>
po ji
ú zemí</w>
m ně
h ist
D u
3 1</w>
h lou
s pa
Vla st
š é
mu ž
po sou
zabi l</w>
vy bra
an ál</w>
t lu
použí t</w>
di e</w>
dod r
stanov ené</w>
červen ce</w>
nezby tné</w>
l ím</w>
fun k
vo ji</w>
tá h
význa m
by d
z na</w>
předpi sy</w>
n ku</w>
zá stup
ovan ý</w>
ná pad</w>
ka ci</w>
cen trá
z mi
ce mi</w>
am p
z rovna</w>
če mu</w>
C e
vy z
Chce te</w>
Ne mám</w>
199 9</w>
dů vod</w>
dě ku
U ni
ni mi</w>
odpově d
lh ů
zá ří</w>
če ho</w>
ot i
o čeká
při jde</w>
st ali</w>
pomo cí</w>
mí t
vo sti</w>
O na</w>
g e</w>
kon ce</w>
led na</w>
opa k</w>
f á
práv o</w>
chla p</w>
vy ža
j deš</w>
zd ě</w>
ú ko
V ez
ten hle</w>
ck o</w>
ne měl</w>
Může me</w>
sezna m</w>
za ch
dy ť</w>
k ů
to ry</w>
te k
S y
takov ý</w>
Pře sně</w>
u s</w>
le ti
Vy pa
nech tě
š ka</w>
in di
mě sta</w>
s rov
ma n</w>
odstav ci</w>
le ta
m l</w>
P la
s h
z ky</w>
ob čan
ob a</w>
mysl í</w>
C E</w>
Každ ý</w>
Po slou
pří po
k ování</w>
ří kám</w>
pi s
ma tka</w>
ce n</w>
zdrav ot
vy pl
zí tra</w>
g o
ot y</w>
tí š</w>
bezpeč nosti</w>
ho ž</w>
pa matu
ener gie</w>
pů vod
s ť
nu tné</w>
ni tř</w>
C la
b ro
sou tě
pan ě
ale spoň</w>
nov ých</w>
dou cí</w>
ě ní</w>
lá sky</w>
ohled ně</w>
ad re
Mě li</w>
h ra</w>
skuteč nosti</w>
urči tě</w>
ha t</w>
tý den</w>
dvo ji
blo n
f t
návr h</w>
k lid
slov a</w>
mno hem</w>
souvi slosti</w>
Děku ju</w>
th e</w>
cí mi</w>
žá dost</w>
jist ý</w>
čty ři</w>
my š
M an
stan dar
pa tří</w>
dobr á</w>
2 3
li cen
dě ní</w>
zra lé</w>
cel ém</w>
ti sí
vý da
u jících</w>
ru ce</w>
pro mluvit</w>
mo ut</w>
kon kré
po ly
sti cké</w>
jí má</w>
S akra</w>
ů vod
ak tu
le tí</w>
Jen om</w>
vy uži
vola t</w>
n ské</w>
č uje</w>
O pa
pro ti
8 0</w>
bi čky</w>
vz dělá
o st</w>
na posle
9 0</w>
2 8</w>
e s</w>
budou c
t ko</w>
2 4
říj na</w>
A R
te lem</w>
zí ch</w>
Mo c</w>
před tím</w>
bod ě</w>
201 5</w>
A le
ov a</w>
vědě la</w>
o znám
žen u</w>
př .</w>
u čin
g u</w>
ře di
d l</w>
dale ko</w>
h ou
kur va</w>
dě te</w>
vo st</w>
le z
politi ky</w>
sk em</w>
ně ny</w>
T E
vz du
E x
PŘ I
Z vlá
dola rů</w>
dý na</w>
ce p
poci t</w>
šk od
h ují</w>
ú no
p lu
svob od
od stra
p sá
se k</w>
peni sy</w>
růz né</w>
c vi
ni chž</w>
li n</w>
ová no</w>
má ma</w>
fo to
ti on</w>
201 6</w>
bu r
svě t</w>
rozsa hu</w>
ro kem</w>
re gu
vý bě
Smlou vu</w>
ně jakou</w>
mi e</w>
o svěd
fy zi
K ro
změ ny</w>
vý kon
ji chž</w>
po lož
vý ši</w>
vě st
dov nitř</w>
ch o</w>
Ně kdo</w>
pře ce</w>
po chy
výrob ků</w>
vě z
vš ím</w>
we b
ně jak</w>
progra m</w>
ry bo
Člen ské</w>
řek nu</w>
pří spě
pí š</w>
z mí
pří ležito
od ůvod
2 7</w>
cu k
u kon
získ á
zůsta t</w>
pří pad</w>
N O
smr ti</w>
u ju</w>
i na</w>
lé pe</w>
mlu v
za čá
smlou vy</w>
obchod ní</w>
list opa
li k
pro veden
k ři
poskyt nu
kaz uje</w>
H u
z ne
spo jen
sl í
pí s
á ch</w>
prostřed ky</w>
té ž</w>
st rov
Ý CH</w>
stu den
o ce
je st</w>
mysle la</w>
ti li</w>
stan u</w>
O sta
sou bor
sku pi
bod u</w>
Ur či
men tá
to n</w>
s ra
orgá n</w>
ž al
li vé</w>
Mi lu
k do
člen ského</w>
v ali</w>
h ovat</w>
sk a
od sud</w>
na př.</w>
pa n</w>
n alo
u jeme</w>
do spě
vyj ád
2 6</w>
s s</w>
obsa huje</w>
pra ved
de jte</w>
bi o
5 .
vnitro stá
2 9</w>
to ko
te pl
li ko
zvířa t</w>
přípa dech</w>
B i
jmé nem</w>
tí t</w>
ně na</w>
pla tí</w>
po má
zá kaz
se l</w>
va cí</w>
j me</w>
Tu be</w>
če n</w>
dve ře</w>
pře kva
t va
pro fe
po l
m ých</w>
bě hu</w>
v zal</w>
muse l</w>
ven ku</w>
3 5</w>
výji m
sto jí</w>
vy ko
ká mo</w>
dů vě
pře svěd
pre ziden
ne smí</w>
bo j</w>
0 4</w>
či li</w>
or d
an a
čís la</w>
R E
Ma mi</w>
důvod ům</w>
d vě
Ně me
stře dní</w>
Ž i
ochra nu</w>
zaji štění</w>
en y</w>
du b
pra vit</w>
dar ma</w>
ř ád
po ste
t ;</w>
každ ého</w>
u ješ</w>
ci i</w>
stro je</w>
ce stu</w>
Hal ó</w>
uži va
vhod né</w>
osob y</w>
r á</w>
spe k
kov ého</w>
pu n
pře mýš
ro vání</w>
L A
h ru
Ko lik</w>
po zdě</w>
ce stě</w>
pří j
Ú ře
vět š
pře prav
amp ;</w>
& amp;</w>
těž ké</w>
předpi sů</w>
vozi dla</w>
Urči tě</w>
žádo sti</w>
be r</w>
tra ce</w>
ál ně</w>
12 .
stá vá</w>
pří rodní</w>
Rozhod nutí</w>
Sk vě
PŘI J
fi ci
tu m</w>
růz ných</w>
K u
vz dá
stej né</w>
n al
k ru
ch vi
2 6
Smlou vy</w>
po sí
in jek
n ka</w>
kapi to
ha j
před mě
Ch y
za řa
skuteč ně</w>
le ch</w>
Podí vejte</w>
ov ým</w>
na šich</w>
ú prav
po té</w>
3 4</w>
pří jem
s ran
ch ová
nu tím</w>
f a</w>
žá dná</w>
přísluš né</w>
Osta tní</w>
náv ště
ch ani
le te
do cela</w>
slov o</w>
vzta huje</w>
listopa du</w>
2 .</w>
po ví
Ří kal</w>
dom í</w>
Ta ky</w>
z darma</w>
ta bu
stave c</w>
ze len
mu ži</w>
k lo
do mu</w>
do lů</w>
dr ži
m ým</w>
s é
nebez peč
va ši</w>
le s</w>
Vlast ně</w>
nov ou</w>
sní žení</w>
i la</w>
poz mě
či st
požada v
hla v
pe l
Moh l</w>
M í
ce t</w>
T ě
organi zace</w>
financ ování</w>
i m
f ran
ři li</w>
in te
tak to</w>
3 2</w>
ou t</w>
k g</w>
dne ska</w>
d ši</w>
f u
o sob</w>
f on</w>
zá ležito
tře tích</w>
ob nov
G a
o zná
le tech</w>
u vnitř</w>
m í</w>
pe v
hod iny</w>
sou bor</w>
společ ností</w>
za jíma
pa ra
Ra da</w>
m ne</w>
.... ....
svě ta</w>
s k</w>
cha t</w>
d ku</w>
d é</w>
podá ní</w>
sou částí</w>
tel ný</w>
Dě lá
l s</w>
pod rob
o f</w>
tě lo</w>
roz ší
j ní</w>
zaji stit</w>
re k</w>
c a</w>
ři la</w>
potřebu ju</w>
tra cen
ta ci</w>
k ých</w>
bře zna</w>
s lá
d uje</w>
p é
4 5</w>
hor u</w>
jednot liv
po š
ta jem
e c</w>
hist ori
Poj ďme</w>
d ali</w>
obchod u</w>
zku šen
i s</w>
dá te</w>
vě řit</w>
ú ře
pracov ní</w>
o pi
ze v</w>
zahr nu
dov é</w>
ně koli
ro n
s voje</w>
blon dýna</w>
an ou</w>
3 3</w>
vy vá
naposle dy</w>
Ch á
ní z
Dou fám</w>
lá tek</w>
g a</w>
š né</w>
H ned</w>
vý stři
poj ď</w>
z cela</w>
d ané</w>
pří tel
květ na</w>
P ě
u dá
špa tně</w>
ča sto</w>
h é</w>
sly šel</w>
nákla dů</w>
te da</w>
mi le</w>
g y</w>
pro hlášení</w>
PŘIJ AL
sta ti
společ né</w>
Be z</w>
M in
G ra
u či
cen a</w>
da m</w>
kter ého</w>
re j</w>
ku n
g h
domá cí</w>
sy n</w>
pe k
W e
získ at</w>
tu hle</w>
hla vy</w>
W i
n uje</w>
tá ta</w>
na ši</w>
je jichž</w>
na šel</w>
sper ma</w>
M ez
hospodář ské</w>
lé či
po prvé</w>
st r
plá nu</w>
oh le
situa ce</w>
-- --
vá te</w>
va hu</w>
R ád</w>
mlu vil</w>
va šeho</w>
h lé
zbra ň</w>
důvod u</w>
č ů</w>
o nu</w>
situa ci</w>
žen ých</w>
ů v</w>
schvá lení</w>
ří dit</w>
K e
výsled ky</w>
nej méně</w>
mysle t</w>
7 0</w>
N or
G u
po pu
s or
u jte</w>
je z
s leč
K dy</w>
m ani
a si
př en
potřebu je</w>
mo u
kul tu
iden tifi
T ro
oko lí</w>
tý ká</w>
ho l
žen o</w>
paně l
h dy</w>
í me</w>
pí se
že l</w>
ne při
nahra zuje</w>
oh ro
x i</w>
F i
N A</w>
ž ou</w>
lu je</w>
hodno ta</w>
práv ních</w>
hla s
p ali
reži mu</w>
s myslu</w>
ne budu</w>
C i
Z ů
po t
ži li</w>
ovan á</w>
ty p</w>
tu d</w>
z vo
TO TO</w>
er e</w>
vidí š</w>
k nout</w>
j di</w>
h ý</w>
kon zu
sex y</w>
M al
c ka</w>
hod a</w>
mal ý</w>
t al
nov ého</w>
ov lá
3 6</w>
při jít</w>
me chani
sna d
7 5</w>
na šeho</w>
kla du</w>
léka ř
od stavec</w>
jed ná
Z ku
m hle</w>
le y</w>
připo mí
s plň
ří kala</w>
F a
Vž dycky</w>
ka paci
d ky</w>
o práv
ji t</w>
spolu práci</w>
PŘIJAL A</w>
p a</w>
niž ší</w>
Kro mě</w>
ani ž</w>
O te
sa mozřejmě</w>
jí dlo</w>
o či</w>
nech ce
di n</w>
š ené</w>
pra vek</w>
A ch</w>
podí vat</w>
prde lka</w>
ze pta
Do kto
od dí
u lo
z nění</w>
po ky
dokon ce</w>
de r</w>
žen ý</w>
hor ší</w>
kom pi
vstup uje</w>
klu k</w>
prv ním</w>
odstav ce</w>
ch tít</w>
B en
ho lka</w>
A by</w>
ji stě</w>
met od
K ri
or e
dě la</w>
V ám</w>
mi l</w>
co koliv</w>
gi i</w>
o to
I C
dub na</w>
le j
změ nit</w>
di la</w>
ň ují</w>
ni ční</w>
Pa ní</w>
Ta ti</w>
bě h</w>
finan čních</w>
měsí ce</w>
f en
v ti
hla vu</w>
du mp
ál ních</w>
ž né</w>
věst níku</w>
Vá š</w>
Mu sí</w>
ho lky</w>
A T
že k</w>
zá leží</w>
XX X</w>
kla dy</w>
fung ování</w>
ško ly</w>
kompi lace</w>
N o
7 .
á lu</w>
ru ku</w>
kov i</w>
klá dá</w>
J di</w>
min ist
m ém</w>
ni cké</w>
2 ,
J de</w>
vů či</w>
život ě</w>
pů vodu</w>
kdy bych</w>
do z
ov ě</w>
zpráv a</w>
k ni</w>
Ne w</w>
Ž ád
otáz ky</w>
rybo lov
pří ro
ty hle</w>
prostřed ků</w>
prde le</w>
c y</w>
hle du</w>
Potřebu ju</w>
ča l</w>
p ti
T XXX</w>
pad lo</w>
vý mě
bo že</w>
f ar
osob a</w>
s mysl</w>
do ty
for má
vy šetř
N E
meziná rodní</w>
Pa matu
rov i</w>
star ý</w>
H A</w>
zdro jů</w>
rá ž
ma mi</w>
sko ro</w>
S to
na š
Kdy by</w>
so ft
ke r</w>
mili onů</w>
zákla dní</w>
ši na</w>
vi dí</w>
dě t
cou z
nebo ť</w>
4 3</w>
záj mu</w>
br zy</w>
pun č
S an
s p
Ka pi
kone č
O r
spo jení</w>
Evrop ská</w>
bu dov
l ním</w>
vola l</w>
f é
ně no</w>
moh ly</w>
nu t
J in
0 2</w>
v em</w>
společ ného</w>
st ní</w>
dump ing
di o
k lini
K rá
psa l</w>
zá pa
ot a</w>
che mi
s ví
roz voj</w>
u l
ně kde</w>
společ ně</w>
spo ko
sta t</w>
če t
ná rodní</w>
pu st
do šlo</w>
R á
zji stit</w>
fun kce</w>
k ře
cen u</w>
Z dra
kon kur
F in
š ně</w>
šan ci</w>
poko j</w>
prů běhu</w>
ra l</w>
di ska</w>
na z
W al
ří kat</w>
spotře bi
KO M
mě sto</w>
Je den</w>
ně n</w>
3 1.</w>
tele vi
bezpečnost ní</w>
re feren
před sta
zatím co</w>
au ta</w>
před cho
tro j
stanov it</w>
mlu víš</w>
potřeb ovat</w>
pa t
ob chod</w>
P R
dn u
kontro ly</w>
ved la</w>
tel ná</w>
W in
c ti
f an
O K</w>
lo ha</w>
začí t</w>
kaž dou</w>
ku chy
ban ky</w>
s mu</w>
k ali</w>
č ce</w>
tom hle</w>
te j</w>
mrtv ý</w>
sch ů
pro sto</w>
Pá ni</w>
Bru se
4 8</w>
dr ží</w>
L í
bi l</w>
ochra ny</w>
bli ž
men ší</w>
Bruse lu</w>
pří tel</w>
dn o</w>
S t
fi r
mě r</w>
ch lo
a však</w>
a mi</w>
i li</w>
š ti</w>
0 3</w>
In ter
z účast
infor m
O R
za se
rá m</w>
exi stu
m ení</w>
jedin ý</w>
tv ou</w>
oznám ení</w>
zvý šení</w>
Ste jně</w>
de mo
ál ního</w>
sta u
řek ni</w>
maxi mální</w>
u h
čer nov
v ané</w>
orgá nů</w>
R ob
obvyk le</w>
v or
ši l</w>
j u
mí ch</w>
zalo žení</w>
černov lásky</w>
J du</w>
ná ro
9 6</w>
jist á</w>
ne dosta
st ů</w>
ne můžeš</w>
hrá l</w>
kamer y</w>
Z ENÍ</w>
Ta m</w>
kli en
š ní</w>
IS E</w>
Vi děl</w>
veřej nosti</w>
m la
Ry ch
chvi lku</w>
Da vi
lo ď</w>
ot ce</w>
jas né</w>
h ů
ra to
po cho
sti la</w>
ha l</w>
roz e
stra ch</w>
mi t</w>
B el
Jak ý</w>
K ur
přípo nou</w>
elek tri
potře by</w>
tr é
po ten
k ého</w>
ce sty</w>
v i</w>
chá pu</w>
bo ha
v čera</w>
ho tel
Tak hle</w>
postup y</w>
vě zení</w>
metr ů</w>
chtě jí</w>
Ho tel</w>
há ní</w>
ch ování</w>
ne závi
vypl ý
mi l
myš len
účin ky</w>
podpo ra</w>
dá vky</w>
P au
Ř Í
při šla</w>
ez en
veřej né</w>
dě tí</w>
má ní</w>
Pře staň</w>
ener ge
dáv no</w>
3 7</w>
m ní</w>
pů l</w>
Vz hledem</w>
sou boru</w>
t ními</w>
KOM ISE</w>
kla si
vidě li</w>
V ra
Poj ďte</w>
I V</w>
pro je
spod ní</w>
kter ém</w>
z ím</w>
PŘÍ LO
prá dlo</w>
tele fo
m ý</w>
z ba
důsled ku</w>
t ce</w>
ko ho
ni lo</w>
och ran
z ohled
použi je</w>
soci ální</w>
9 5</w>
Vž dyť</w>
m ali
m ra
f re
S h
be k</w>
C on
peně z</w>
přije tí</w>
Řek la</w>
poř á
spolu práce</w>
c tví</w>
chod u</w>
po vr
vo z</w>
nech al</w>
Eu ro
me k</w>
m b
Bě ž</w>
u zná
sk ému</w>
bezpeč nost</w>
ž te</w>
mlu v</w>
ú pl
rod ních</w>
lid em</w>
pozi ce</w>
ne jsi</w>
Bu deme</w>
život ní</w>
roz poč
že t</w>
otev řen
ch ov
19 8
poz o
čan ky</w>
O k</w>
pl nění</w>
st er
čen o</w>
20 0</w>
á k</w>
několi ka</w>
Z la
m l
an d</w>
an ého</w>
člen skými</w>
g lob
st vím</w>
ova tel</w>
mě stě</w>
způsob i
jednodu ch
for ma
E S
rizi ka</w>
PŘÍLO HA</w>
rá ní</w>
tě te</w>
ob lí
ob ě</w>
T ře
mě ř</w>
9 8</w>
pla vid
ci t
skvě lý</w>
pro sto
M A
na víc</w>
po cháze
ta b
rozum í</w>
kone čně</w>
ne js
sta čí</w>
K A
h e</w>
použi telné</w>
di v
c ar
s lo</w>
I T
jedn ím</w>
na šli</w>
sezna mu</w>
zd á</w>
o k</w>
3 9</w>
do mě</w>
říká š</w>
na j
S lov
si lí</w>
člen ský</w>
na horu</w>
systé my</w>
kom ple
vy ře
ži je</w>
vy tvá
podni ky</w>
d ře
s pi
dá vat</w>
po kro
mlu ví</w>
J men
vz pomí
C H
od ha
vě t</w>
výrob ce</w>
e fek
Boh a</w>
še st</w>
cí le</w>
za tím</w>
u vádě
za sta
ck ými</w>
te jte</w>
podob né</w>
K i
čin nost</w>
I V
ža da
ně ných</w>
člán kem</w>
tele fon</w>
osta tních</w>
skvě lé</w>
v li
osvěd čení</w>
druh ý</w>
Z í
s ó
zna l</w>
no u
jas ný</w>
pode z
vy pad
part ne
w i
Po li
králov ství</w>
st vo</w>
ma te
m obi
to mu
poz or</w>
ne měla</w>
při mě
potřebu jeme</w>
poko je</w>
K y
konzu l
ne lze</w>
O S
dob ro
Mi cha
dodr ž
cí tím</w>
vě de
tin ě</w>
pro cen
Dobr é</w>
U vidíme</w>
rov ých</w>
použí vání</w>
ta ti</w>
ur čení</w>
Do hody</w>
se x</w>
rozdí l</w>
ome zení</w>
r ně</w>
liko ž</w>
Bu deš</w>
úno ra</w>
člen ským</w>
ck ém</w>
p lán
vů j</w>
for mě</w>
u by
va dí</w>
br z
v é
ohle du</w>
r ty</w>
u jete</w>
se š</w>
Vi díš</w>
správ ně</w>
ter iná
u de</w>
ko n</w>
sti li</w>
ná d
sk á
M c
ni li</w>
kv ó
pro toko
orgá nu</w>
ne byly</w>
Spo jen
dvě ma</w>
Dr .</w>
Mo n
podni ku</w>
stanoven ých</w>
ot u</w>
nej větší</w>
m ale</w>
f ajn</w>
sta bili
tě z
veli ce</w>
k ří
takov ého</w>
ra li
Ch ri
ov ém</w>
pos uz
přá telé</w>
ov aly</w>
bo rato
g o</w>
Mysle la</w>
hla vě</w>
nád her
d re
s praved
G re
5 5</w>
for my</w>
dan ě</w>
chy ba</w>
organi za
tě hot
je l</w>
js ka</w>
mi mo
žá dn
Ča u</w>
opa tr
ov liv
pa na</w>
9 1</w>
pro spě
opa tř
kon ci</w>
s an
hy dro
c ům</w>
ovan ého</w>
ode jít</w>
děla la</w>
dí te</w>
Č er
z vu
přij mout</w>
člově ka</w>
u t
di a
Vel mi</w>
tě la</w>
zaji šť
pr in
H an
do n</w>
v ši
zi t</w>
násled ující</w>
případ ně</w>
představ uje</w>
4 9</w>
konkur en
in ky</w>
pr ve</w>
ta j
h ám</w>
ŘÍ ZENÍ</w>
mys li</w>
zá važ
děl í</w>
osob ní</w>
ň ovat</w>
v l
h ej</w>
n é
če mž</w>
9 2</w>
P re
zahá jení</w>
se n</w>
rizi ko</w>
4 2</w>
st en
ak t</w>
na dále</w>
evrop ské</w>
fung uje</w>
nej de</w>
vla sy</w>
po lov
Pr vní</w>
Na še</w>
sá hnout</w>
H OD
pr ezen
institu ce</w>
vnitro státní</w>
podni ků</w>
E R
d rá
Za jíma
mi lov
š ný</w>
li la</w>
RO Z
vrá tí</w>
sy na</w>
nen á
stou pení</w>
volá m</w>
znám ky</w>
obsa hující</w>
dovoz ní</w>
rodi na</w>
obliče ji</w>
st em</w>
špa tné</w>
s me</w>
T á
S PO
Q u
o sla
chlap e</w>
pů jdu</w>
to ri
dr ž</w>
P er
ob leč
um ím</w>
5 9</w>
jako ž</w>
la ci</w>
takov á</w>
rodi če</w>
je hož</w>
stra n</w>
kon cen
vy rov
za stavit</w>
vo j
ma tu</w>
och y</w>
te hdy</w>
P u
Chtě la</w>
U SA</w>
čin ností</w>
z r
se be
posou zení</w>
A b
prů měr
9 .
ro vá
m ode
pá nové</w>
Mů že</w>
dá vání</w>
T vůj</w>
manže l</w>
z po
ze mích</w>
ce lní</w>
žen ou</w>
má lně</w>
tru m</w>
E l
e t</w>
zá ch
poko ji</w>
L A</w>
s h</w>
kre v</w>
kov ou</w>
sk len
jednotliv ých</w>
vide a</w>
tov ý</w>
v ých</w>
Musí te</w>
o no</w>
bav ení</w>
pla te
m ak
ch lá
cha l</w>
in o</w>
po zná
bli žně</w>
provoz u</w>
mo jí</w>
ší š</w>
S tra
ží me</w>
s ho
m er
ř ka</w>
pokrač ovat</w>
že le
tv á</w>
vel kou</w>
ru kou</w>
ce lo
při pra
r ka</w>
kon struk
ang li
tí me</w>
ú roveň</w>
j .</w>
druh ou</w>
centrá lní</w>
da ň
les bičky</w>
spou stu</w>
jí cími</w>
G i
obla st</w>
punč ochy</w>
ve teriná
žen á</w>
s mus</w>
mi n</w>
tv ého</w>
ře la</w>
rod iny</w>
sta ňte</w>
při čemž</w>
zprac ování</w>
EC B</w>
re ali
le l</w>
přede vším</w>
ma min
B la
d ovat</w>
použí vat</w>
ť te</w>
práv ně</w>
sa mi</w>
Úře dním</w>
S tře
F e
m bo
re ch</w>
ho d</w>
na chází</w>
zepta t</w>
ná hod
psa t</w>
vy lou
pů jde</w>
re stau
ov alo</w>
ko tě</w>
ko ord
10 .
N y
s ová</w>
za čal</w>
posled ních</w>
m lé
ge r</w>
od mít
na konec</w>
prost oru</w>
zji ště
9 3</w>
nástro je</w>
n ská</w>
sex u
B il
va jících</w>
demo kra
týka jících</w>
pří pravek</w>
u skuteč
zna t</w>
z ku</w>
T ra
B ro
se kun
poten ci
st va</w>
kou pit</w>
volá ní</w>
bý vá</w>
m lá
ved le</w>
š uje</w>
závaz né</w>
mo ji</w>
stro j</w>
Y or
p sy
C O
ne žá
ak tiv
V čera</w>
předse dající</w>
per i
s si
3 8</w>
veče ři</w>
H en
te ro
vý bor
ni cí</w>
n g</w>
Pa n</w>
ní kem</w>
systé mů</w>
potra vin
oko l
ku p
h al
čer no
Po sled
sna ží</w>
bo ha</w>
Ma ri
za brá
podmí n
obsa h</w>
n ovat</w>
z ené</w>
ně ná</w>
ob rov
pří běh</w>
0 9</w>
sled ování</w>
s hod
ar má
d ka</w>
t s</w>
odpově ď</w>
přítel kyně</w>
l né</w>
vak rát</w>
Hod ně</w>
tě jší</w>
té měř</w>
foto grafi
jin á</w>
e d
pro hlí
spá t</w>
5 8</w>
š te</w>
pě tí</w>
ně mu</w>
5 1</w>
S ha
den ně</w>
5 4</w>
4 7</w>
žád nou</w>
kontro lu</w>
pa t</w>
od a
dru h</w>
D an
Spo jené</w>
bezpe čí</w>
vod ní</w>
z z
u dělám</w>
rů st</w>
8 .
u pří
org as
japo nky</w>
d ci</w>
mi lý</w>
H le
ší mi</w>
tě m</w>
Žád né</w>
V Á
jak ý
Vá s</w>
vy sí
De jte</w>
rod inu</w>
zaji stí</w>
u kra
otev řít</w>
.. ..</w>
1 1.
hle diska</w>
mod er
zá sob
pod a
S tan
gene rá
výstři ky</w>
nor mální</w>
ko st</w>
čá ste
6 5</w>
h ru</w>
uvě do
sí tě</w>
kategori e</w>
zmi ze
pr u
ní že</w>
cháze t</w>
la borato
D ru
dlou hod
výrob ku</w>
le jší</w>
ti n</w>
me ch</w>
od mě
mi kro
pro mi
na prosto</w>
G ar
vidí te</w>
nov i</w>
děku ji</w>
fran couz
smr t</w>
při bližně</w>
š tní</w>
dosa žení</w>
dovoz u</w>
sc é
techni cké</w>
oby va
só lo</w>
Je stliže</w>
u vol
při prav
ne řekl</w>
ak ci</w>
z obra
odůvod nění</w>
d nout</w>
povo len
da r</w>
měsí c</w>
hospodář ství</w>
A N
Bu ď</w>
Par lamen
pu stit</w>
Zdra vím</w>
V Í</w>
auto mati
e š</w>
lí p</w>
neu vě
kdo ž</w>
Ne můžeš</w>
čí st</w>
příprav ky</w>
u mění</w>
m my</w>
S er
opatř en
prac uje</w>
míst ní</w>
o či
S he
mlu vím</w>
n ala</w>
tel ům</w>
hotel u</w>
NA ŘÍZENÍ</w>
pi la</w>
do sáh
okamži tě</w>
S ch
pravide l</w>
ší len
zdro je</w>
dovo z</w>
E d
povin nosti</w>
ti na</w>
doda teč
4 4</w>
druh ů</w>
komb ina
léč by</w>
potra vin</w>
od tud</w>
s voji</w>
bra tr</w>
a d</w>
poskyt ování</w>
zna č
tov ých</w>
ob jek
Poslou chej</w>
h věz
čer st
vzdá len
po me
mal á</w>
tra di
vyso ké</w>
a spoň</w>
zá jem</w>
plat nosti</w>
chce me</w>
umí š</w>
Evrop ský</w>
v stou
hla s</w>
kritéri a</w>
Jed na</w>
s he
šen ím</w>
be j
d va
přísluš ných</w>
pochy b
poža dov
vrá til</w>
uveden y</w>
S tu
h ří
stra n
pro ká
uděla li</w>
C A
ne můžeme</w>
ver zi
jen ž</w>
ta l</w>
výro by</w>
rá di</w>
ne máš</w>
for mu
stati sti
či lo</w>
h ý
podpo ru
vě ku</w>
podí l</w>
met hy
dese t</w>
orgas mus</w>
schvá len
hmot nost
haj z
tr u</w>
pře zku
u káz
lov ých</w>
děla jí</w>
a fri
ci a
po ško
ško le</w>
Po l
mně l</w>
každ ém</w>
Co ž</w>
za volat</w>
pří tom
sva t
pro bí
Nech te</w>
T i</w>
v ého</w>
Ř e
měsí cem</w>
nej lep
tá m</w>
z ó
ně ný</w>
P en
K vůli</w>
kr ý
Evrop ě</w>
K en
mno ha</w>
soubor ů</w>
tov á</w>
au di
Poč kat</w>
do le</w>
výjim kou</w>
e ch</w>
di sku
nal é
g y
dokto r</w>
ar d</w>
s pr
zá ru
omez en
C en
B an
Ko ne
pra kti
í mi</w>
poli cie</w>
ří kají</w>
pal u
ne viděl</w>
jin ou</w>
hod inu</w>
o ny</w>
pe jska</w>
úřa d</w>
pe n</w>
va šem</w>
tov i</w>
vy rá
Ote v
vešker é</w>
mo ře</w>
zá ba
Uni i</w>
J er
vo jen
F re
skupi na</w>
r ku</w>
w s</w>
r né</w>
vo já
je stliže</w>
o nemoc
E n
ři lo</w>
ob a
inf ra
odpoví da
za du</w>
život ního</w>
rozhod nutím</w>
T A
le r</w>
do stane</w>
O B
hla d
č ování</w>
An al
ma sá
apli kace</w>
kal hot
4 6</w>
stu po
r ních</w>
komi se</w>
na ru
schop nost</w>
B ez
Z dá</w>
mlad ý</w>
jedn á</w>
poč kej</w>
ve r</w>
ka cí</w>
Dob rou</w>
tě mi</w>
subjek ty</w>
ú z
šen ý</w>
Jak é</w>
hra čky</w>
ě jší</w>
ST VÍ</w>
vzdělá vání</w>
30 .</w>
po dě
fil m</w>
zbra ně</w>
5 00</w>
ob ou</w>
co m</w>
tr o</w>
Mysl íte</w>
k m</w>
regi stra
se kto
ma je
ban kov
Sly šel</w>
min a
slyše t</w>
G o
le je</w>
po n
By li</w>
ven kov
moni to
ál ů</w>
I r
o mlouvám</w>
jin ým</w>
chá zení</w>
po tí
uveden á</w>
ne mohl</w>
kov ané</w>
di li</w>
hu d
8 7</w>
pou ště
š le
dob a</w>
sv ému</w>
Ho l
správ né</w>
š tí
z ovat</w>
sig ná
sled ovat</w>
ra dši</w>
T ím</w>
da ta</w>
de sá
er a</w>
otáz ka</w>
ne od
po kry
ope race</w>
pře zkou
živ u</w>
zahr nuje</w>
zástup ce</w>
lá rní</w>
Žá dný</w>
vý bor</w>
Ge org
manže l
tajem ství</w>
dě t</w>
ne máme</w>
ř ské</w>
republi ky</w>
vý hra
š ť</w>
cel kem</w>
LE Č
S ko
t ný</w>
do stala</w>
stan ou</w>
hov or</w>
U T
N en
5 2</w>
pod lé
x y
ovo ce</w>
Vý rob
souvise jící</w>
C E
stanoven á</w>
předpo klá
vy hlášení</w>
Ny ní</w>
5 6</w>
Pra v
Č l</w>
po stup</w>
ch lu
ná moř
ber e</w>
te p
P ov
D ne
č ná</w>
odpoví dající</w>
mě ru</w>
vozi del</w>
jedin á</w>
zákla dního</w>
s ní</w>
po čá
SPO LEČ
vě ří
ho ře</w>
pe š</w>
Posled ní</w>
H er
che jte</w>
6 8</w>
pozor nost</w>
proce su</w>
ná ch</w>
vý raz
la s</w>
použí vá</w>
projek tu</w>
uvě řit</w>
sy n
C opak</w>
umí stě
vzta hu</w>
s ně
logi cké</w>
sa mot
Z mě
re j
obla stech</w>
vý hod
Pří loha</w>
u ka
ta hle</w>
kó d</w>
mini mální</w>
pěk ně</w>
t t
stá tům</w>
urči té</w>
že š</w>
vzni k
Chá pu</w>
K ar
K Y</w>
la ska
L on
samo sta
bý val
lov á</w>
Opa tření</w>
la p
no hy</w>
a m</w>
j děte</w>
C I
sle dek</w>
no ční</w>
201 7</w>
lod i</w>
al koho
V ů
kvali fi
nes l</w>
cha ra
za ru
ni koho</w>
vi di
t ali
doprav y</w>
5 7</w>
dom ní
s mu
milu ju</w>
jí ž
provádě cí</w>
3 ,
ní ž</w>
le gi
Milu ju</w>
L in
me ta
pá rty</w>
za znamen
ov o</w>
ob tí
doporu čení</w>
vě řím</w>
he r</w>
5 3</w>
hle dat</w>
u blí
sto j
pro dlou
ma t</w>
t kou</w>
mů žou</w>
I tá
informa ční</w>
Ten hle</w>
B r
v nější</w>
ně ním</w>
T voje</w>
blíz ko</w>
ka y</w>
pe k</w>
S c
otáz ku</w>
le ji</w>
č u
part ner
chod em</w>
L Á
F akt</w>
leti ště</w>
A ha</w>
ne mají</w>
to sti</w>
důvod ů</w>
vý z
d vakrát</w>
cen trum</w>
Je ží
hlou p
ča se</w>
pla ne
t iny</w>
zí me</w>
ša ty</w>
pravo moci</w>
pi e</w>
4 1</w>
součas né</w>
té hle</w>
stra na</w>
výbě r</w>
če kat</w>
začá tku</w>
strá nky</w>
D ra
te kti
kapitá lu</w>
společ en
z vyš
me zi
10 10</w>
men o</w>
cí l</w>
bod y</w>
su per</w>
ka ční</w>
me c</w>
čí me</w>
tá lní</w>
vy rob
pri ori
studi e</w>
pro vedení</w>
9 4</w>
L I
P I
on line</w>
ab so
M r
prů mysl
dů kazy</w>
při šli</w>
ú vahu</w>
sk lad
po zem
tiv ních</w>
dovo len
F or
stá tě</w>
m ob
navr h
správ ní</w>
Poč kejte</w>
li li</w>
ka ma</w>
v iny</w>
uplat ňování</w>
tel ných</w>
v alo</w>
ná sob
Kapi tá
doda va
forma ce</w>
ná zev</w>
á t</w>
S li
web kamery</w>
ta i
vyko ná
Wi en</w>
vy ho
hmot nosti</w>
tí te</w>
ko la</w>
c la</w>
Zvlá štní</w>
pracov ních</w>
sr p
pro u
akti vi
Sta r
hlu bo
pro dej</w>
i ci</w>
naš tv
za tracen
o pět</w>
Bu n
bě h
mož nosti</w>
dcer a</w>
zase dání</w>
inve st
S měr
poč kat</w>
ta t</w>
od i
D E
rybolov u</w>
roz počtu</w>
pravděpodob ně</w>
Vě t
tomu to</w>
Pě k
nabí zí</w>
po pla
chtě li</w>
komb in
nějak á</w>
ne budou</w>
á ly</w>
takov ou</w>
Vý bor
k en
ce stu
přístup u</w>
pi su</w>
tel nosti</w>
mí st</w>
vý chod
Rych le</w>
řek li</w>
cháze jí</w>
ří kej</w>
infra struktu
hodno tu</w>
tu ry</w>
hroma dy</w>
č kou</w>
řa dě</w>
Kur va</w>
ři di
L é
ži tí</w>
odpoví dá</w>
nedo ká
- To</w>
la h
ká mo
H y
muse la</w>
chod it</w>
jin ými</w>
A li
auto bu
zná š</w>
ta bá
bo m
nen e
vli v</w>
lí š</w>
h nu
z pě
vy ba
zvířa ta</w>
by t</w>
si la</w>
c on
pos u
Moh u</w>
z prav
dou fám</w>
W o
Boh u</w>
g re
hra je</w>
od li
čin u</w>
in zu
sk r
z pí
ve smí
uveden o</w>
plat né</w>
prv ního</w>
Zajíma vosti</w>
Za bi
vy bavení</w>
šen á</w>
schop nosti</w>
en o</w>
rod in
T r
uni i</w>
ra dy</w>
in fek
a h</w>
S A
sla n
je jím</w>
Za č
má lo</w>
vý voj</w>
směr nici</w>
rov ý</w>
b re
cí lů</w>
do čas
z em</w>
cuk ru</w>
S ku
ozna čení</w>
Tak é</w>
g ly
existu jí</w>
příro dě</w>
nechce š</w>
vá ž
běž né</w>
9 9</w>
vlá dy</w>
sta vy</w>
EN STVÍ</w>
na mi</w>
en i
cel kové</w>
ti ckých</w>
tu jí</w>
zby tek</w>
kro k</w>
by sme</w>
potře ba</w>
pe c</w>
do sáhnout</w>
st al
před stavit</w>
dě v
sk ry
úče tní</w>
jak á</w>
ne jen</w>
Jed in
jedno tky</w>
jí st</w>
m ky</w>
sou du</w>
te ční</w>
vzta h</w>
7 2</w>
zen o</w>
regi onální</w>
čí š</w>
ro ční</w>
lá ní</w>
tý dnů</w>
ci vi
zlep šení</w>
u ji
hot ovo
j dou</w>
řek ne</w>
začí ná</w>
Zla to</w>
S právně</w>
stanovi sko</w>
Ch i
př ene
o strov
směr em</w>
ova cích</w>
- Co</w>
li d</w>
Je jí</w>
3 00</w>
dob rou</w>
SPOLEČ ENSTVÍ</w>
razi t</w>
mi to</w>
rezer va
pl od
z ují</w>
vš tí
sch val
g al
boj ovat</w>
Potřebu jeme</w>
le dne</w>
D ů
k něte</w>
V Ý
tisí c</w>
u ve
D A
špat ný</w>
M no
O ni</w>
Ně kdy</w>
čen a</w>
7 1</w>
star á</w>
c á
předse da</w>
muž ů</w>
s niž
T ri
pě ti</w>
S O
re n</w>
potřebu ješ</w>
po men
všech na</w>
liv ý</w>
zku še
S T</w>
vá n</w>
dru žení</w>
ob vin
č te</w>
ROZ HOD
zem řel</w>
to krát</w>
ne se</w>
z ka</w>
Směr nice</w>
posky tuje</w>
zá kon
u dě
A fri
ner v
u drži
8 5</w>
ven ce</w>
využi tí</w>
do stali</w>
pen e
elektro ni
manže lky</w>
oblí ben
T he</w>
uká zat</w>
mlu víme</w>
stej ný</w>
sest ra</w>
dů kaz</w>
dě li</w>
návr hu</w>
na le
t kem</w>
ne t</w>
po sti
peni s</w>
ra z</w>
ó zní</w>
č t
do mo
li na</w>
tý dnem</w>
zen y</w>
postup em</w>
hod it</w>
pa mě
pří sa
organi zaci</w>
i g
ne ví</w>
M er
ma g
T er
tr pě
podni k</w>
za bezpe
če ká</w>
Moh la</w>
Ch ce</w>
ne musí</w>
th i
g t;</w>
& gt;</w>
P RA
y i</w>
řa du</w>
9 7</w>
20 .</w>
zá roveň</w>
ně mž</w>
rozum ím</w>
nech ce</w>
vz ala</w>
jedno m</w>
ce sta</w>
och rá
c in
N I
pa l</w>
V š
nebez pe
část ky</w>
odpověd nost</w>
iná ch</w>
skvě le</w>
mě st
ši la</w>
dn ého</w>
Li dé</w>
podí vej</w>
zaji ště
licen ce</w>
prav a</w>
ál ním</w>
do hromady</w>
požadav ků</w>
re akce</w>
nechtě l</w>
prosto r</w>
c ov
ran de</w>
ho nění</w>
Š paněl
z nalo
ra da</w>
sk lá
u drž
B al
sran du</w>
U h</w>
F o
g li
ha jí</w>
st ov
vnitř ní</w>
Char lie</w>
anal y
prode je</w>
l l</w>
met ody</w>
Dě lej</w>
pa ti
žen ím</w>
pře su
stu pu
V rá
ko r
vá z
hmotnost ních</w>
l ot
tero ri
ky se
S lu
svět la</w>
d lem</w>
Tře ba</w>
agentu ry</w>
vš ude</w>
lid ské</w>
fot ky</w>
ch em</w>
cel á</w>
t j.</w>
po va
za ká
cí tit</w>
ni m</w>
úřa du</w>
řen á</w>
od a</w>
ro n</w>
tel ně</w>
s dí
z dů
obec né</w>
ú mlu
blá zni
dvoji tá</w>
Ja me
š u
bi lní</w>
Po tom</w>
při jí
ře te</w>
podá vání</w>
dal šího</w>
vědě li</w>
vi du
D ovo
to st</w>
vě domí</w>
bal í
za slou
Li di</w>
Co m
poji štění</w>
o s</w>
6 6</w>
za jímá</w>
výrob ní</w>
C or
ná zor</w>
vzta hují</w>
spí š</w>
V E
ní kům</w>
progra mů</w>
vá ny</w>
strate gie</w>
potřebu jete</w>
tě mito</w>
řek neš</w>
si ce</w>
d vor
re struktu
něj ších</w>
ra sy</w>
poskyt nout</w>
D va</w>
pro vést</w>
obla stí</w>
pa du</w>
T u</w>
d ri
vše ho</w>
výrob u</w>
přísluš ný</w>
tre st
ch á</w>
j a</w>
K ter
rozhod ně</w>
Dr ž</w>
dohod u</w>
čen ých</w>
V I
H ra
děla li</w>
Ná š</w>
razi l</w>
prospě ch</w>
ří ci</w>
příležito st</w>
u na
Na víc</w>
ak cí</w>
jaké koli</w>
S e</w>
ch ro
pozi ci</w>
pene trace</w>
me di
i de
Jed nou</w>
t ři
z é
c u</w>
veřej ných</w>
ved lo</w>
přá tel
masá ž</w>
její ho</w>
ně kým</w>
chod í</w>
kr ve</w>
lid mi</w>
ó n</w>
pro vádí</w>
i r</w>
S E</w>
Mu se
zna ky</w>
o ne</w>
vy dá
jed na
y l</w>
N UT
Sly še
s vými</w>
na rozen
J E</w>
cen é</w>
ne o
di stri
vyso ko
b ru
ů l</w>
Ve li
Vů bec</w>
va šich</w>
D A</w>
na jednou</w>
Ho spod
vi ce</w>
kaz ují</w>
Tro chu</w>
Ne u
š tině</w>
ti ka</w>
vlast nosti</w>
rů stu</w>
c né</w>
u prav
Ne můžeme</w>
od dělení</w>
krá t
sou stře
W a
po tě
dě j
EVROPSK ÝCH</w>
B ob
w o
vyža duje</w>
Kdy bych</w>
Z rovna</w>
S led
člán ky</w>
tou to</w>
ně ho</w>
s né</w>
G ene
to rů</w>
B ý
M E
z t</w>
zachrá nit</w>
N Á
H O</w>
en t</w>
vi na</w>
na živu</w>
dí vka</w>
vo lej</w>
postup ů</w>
dlouhod ob
Ří ká</w>
S am
ú ro
tr en
potřebu ji</w>
re cep
i zo
restruktu rali
klu ci</w>
náhod ou</w>
S leč
Ne máš</w>
to ti
hr d
Mez iná
vz bu
mo cí</w>
dů stoj
li vě</w>
Te x
dí me</w>
r ny</w>
ku s</w>
di na</w>
7 7</w>
še t</w>
od chy
chy tr
šan ce</w>
distri bu
ta n</w>
ř ů</w>
s al
lož ky</w>
b ních</w>
f lu
vstup u</w>
to xi
Jed no
na roz
E ri
provoz ova
s ové</w>
Ty s</w>
kli du</w>
jí š</w>
Ch a
za káz
tý mu</w>
d li</w>
m né</w>
skuteč nost</w>
15 .</w>
rov no
Pro vádě
ď á
konkré tní</w>
Něme cko</w>
S I
investi ce</w>
Te l</w>
ň ky</w>
T ři</w>
vše mi</w>
Komi sí</w>
ši ro
pro pu
řen ý</w>
ur čené</w>
vy prac
ná rod
ka p
blí ž</w>
umož ňuje</w>
zahra ni
po může</w>
svět lo</w>
kdy bys</w>
j ou</w>
hro má
ne jste</w>
nes mí
kon feren
le c</w>
ak a
toti ž</w>
zaměstnan ců</w>
ma dam</w>
she male</w>
klí č
st in
Bě hem</w>
kou pel
zen a</w>
sta tu
nebezpe čí</w>
republi ka</w>
fon du</w>
výda jů</w>
š pi
srp na</w>
Kon tro
sa mé</w>
při způsob
finan čního</w>
Ja ck
st vo
Ne myslím</w>
K á
dohod a</w>
k ali
la t</w>
nebo že</w>
Č á
troj ka</w>
é ž</w>
pří š
od pad
ry bá
na hoře</w>
2 2.</w>
poli cii</w>
se da
8 4</w>
význa m</w>
an g</w>
na vští
pl né</w>
vzdu chu</w>
č těte</w>
dov á</w>
ter na
jed nat</w>
po rov
prostře d</w>
la l</w>
re spek
8 8</w>
bole st</w>
v lo
přípa du</w>
hi bi
dru hu</w>
stá vající</w>
jmen uje</w>
či ní</w>
f ra
ř te</w>
cy k
to r
N u
nost mi</w>
ne roz
hy po
výda je</w>
u vidíme</w>
i e</w>
Jo se
jem né</w>
kri ze</w>
ri é
bl b
bi e</w>
vět šina</w>
stra nu</w>
posla l</w>
tr hů</w>
Roz umím</w>
Po z
Evrop y</w>
do ta
vrá tím</w>
vyvá že
Mi l
d ce
ne r</w>
dru hy</w>
vti p
ko leg
staro sti</w>
ne budeš</w>
O de
ť á
je deme</w>
část ka</w>
L É
Dne ska</w>
. com</w>
kaz u</w>
za č</w>
zbra ní</w>
T V</w>
ne měli</w>
uli ci</w>
v ení</w>
do ws</w>
nemoc nice</w>
ra ci</w>
řen ých</w>
na šla</w>
l t;</w>
& lt;</w>
Fran cie</w>
bo hem</w>
míst nosti</w>
podez ře
Při šel</w>
lan d</w>
progra my</w>
Za tím</w>
ně me</w>
tiv ně</w>
ko p
zvlá ště</w>
vývoz ní</w>
sto letí</w>
dá my</w>
ží te</w>
te tování</w>
fek tní</w>
bá t</w>
bal ení</w>
obsa hu</w>
chlap i</w>
mu n
pad l</w>
evrop ských</w>
kter ými</w>
- Ne</w>
záko na</w>
Anal din</w>
roz voje</w>
kancelá ř</w>
P A
Vý boru</w>
si e</w>
le gra
E li
Zí tra</w>
projek t</w>
d né</w>
emi sí</w>
mlu vní</w>
by tu</w>
tu ra</w>
zása dy</w>
vyso ce</w>
ti cký</w>
nezávi sl
subjek tů</w>
n ům</w>
OS N</w>
plat by</w>
6 7</w>
ka men
ko ste
využí t</w>
lo stí</w>
Potřebu ji</w>
hodno t</w>
vnitrostá tních</w>
saz by</w>
materi álů</w>
D O
ba l</w>
Do konce</w>
spo j
Su per</w>
z ování</w>
se ch</w>
Kone čně</w>
regu la
Or g
čin y</w>
rizi k</w>
t vým</w>
ter e</w>
pla tit</w>
za stře
p t
z je
S E
ně kam</w>
ja der
spor tov
tla k</w>
ma sa</w>
ne máte</w>
ň á
mo no
do pro
při spě
mati cké</w>
dokon al
obchod ních</w>
černo ši</w>
e j
Ri ch
produk tu</w>
ná bo
ve j
vlá da</w>
dr žení</w>
uby tování</w>
sle ch
Ne měl</w>
8 2</w>
po klá
6 1</w>
O kay</w>
kr mi
s od
kvali ty</w>
o pti
sleč no</w>
blá zen</w>
N as
člen ů</w>
k t</w>
z mr
úče t</w>
Po sly
M O
mal u</w>
D ám</w>
nej výše</w>
U dělal</w>
ak u
ne hod
z ma
In formace</w>
že h
Po krač
použi jí</w>
hla vně</w>
Ří kala</w>
n ová
ti sk
Por u
ode šel</w>
výzku mu</w>
člen ském</w>
sí ly</w>
P ri
ra ději</w>
ma so</w>
a na</w>
P í
ko lo
kon i</w>
do pl
po ně
tu r
ú h
tá ch</w>
vytvo řit</w>
do hledu</w>
An ge
rov ou</w>
po le</w>
ke n</w>
7 8</w>
li mi
za d
překva pení</w>
p ů</w>
účin né</w>
úrov ně</w>
cia ti
ka jící</w>
či nek</w>
i i</w>
spo leh
stanoven y</w>
Pa nebože</w>
vytvo ření</w>
bej t</w>
dn ých</w>
ch ám</w>
ně me
teri e</w>
znamen at</w>
sla d
Ne boj</w>
kontro lu
výkon u</w>
žele zni
Lí bí</w>
st ý
technologi e</w>
ne vadí</w>
pro te
Win dows</w>
PO D
K N</w>
Da tum</w>
uži teč
te ori
har moni
2 1.</w>
u děláme</w>
p ni</w>
l há
hromá ž
skuteč né</w>
o xi
do sud</w>
te d</w>
z vá
ber te</w>
zkou šky</w>
o fici
c m</w>
proce s</w>
b i</w>
z vě
re ag
do pad</w>
U Ž
veli kosti</w>
tel ka</w>
t ing
vy ch
p s</w>
ve s
u pozor
při jíma
čí ch</w>
zeměděl ství</w>
y ho</w>
sed m</w>
di sk
tr ž
V al
ha n</w>
zdravot ní</w>
č ními</w>
pře stat</w>
vod a</w>
bě ž</w>
L ou
brá t</w>
Cí tím</w>
pro pa
produk t</w>
fe de
Z o
Ří kám</w>
Řek něte</w>
17 .</w>
Ni c
B I</w>
mluv te</w>
cer tifi
ti cká</w>
f t</w>
Ta hle</w>
urči tých</w>
rov ané</w>
mě ření</w>
mrtv á</w>
kou z
dvo j
ameri cké</w>
že s</w>
ú lo
to ru</w>
či n</w>
slo ži
sna dno</w>
pro fi
srov nání</w>
povin nost</w>
ší te</w>
je du</w>
Vi dím</w>
Joh n
ho tel</w>
druh ého</w>
A gen
hle dá
vé d
pi sy</w>
kli d</w>
zapo men
Jo e</w>
NUT Í</w>
strate gi
kom pli
da tum</w>
čen ím</w>
pře kro
krá sky</w>
P us
Bun ker</w>
in ova
ká me</w>
no s</w>
vez mu</w>
ni ly</w>
vol á</w>
or e</w>
vez me
tel nost</w>
stanoven a</w>
pře ru
ne víš</w>
rá mec</w>
referen ční</w>
ně ji</w>
U kra
v dě
pra chy</w>
ch ou</w>
rozhod l</w>
an ým</w>
změ n</w>
nej vyšší</w>
6 9</w>
poslou chej</w>
tov ané</w>
závaz ky</w>
zá va
soutě že</w>
G I
ne ga
Jak á</w>
vo lu
chara kter
ú silí</w>
Ji zz
směr nicí</w>
Jizz Bunker</w>
t le
pl ný</w>
ne můžete</w>
pro zatím
cel ého</w>
pa dy</w>
ji ho
poli ce
indi vidu
tří dy</w>
o l</w>
exist en
vě jší</w>
vy hra
lá m</w>
výsled ků</w>
star é</w>
6 4</w>
působ nosti</w>
hroz ně</w>
ka be
ří dí</w>
h an
soft wa
---- ----
ď ar
P RO
a tky</w>
ká š</w>
dí ž</w>
chy bě
pře du</w>
kon čí</w>
u vádí</w>
re zi
ší mu</w>
ne udělal</w>
analý zy</w>
reži m</w>
f f
war e</w>
ma i
komi sa
stanovi skem</w>
6 2</w>
di a</w>
ak ci
D ani
B ur
čen ý</w>
ta ri
Ja cku</w>
N É</w>
ř ování</w>
uni verzi
chlap a</w>
zna mení</w>
S M
w w
rozhod nout</w>
t te</w>
od bě
čí n
K ó
A k
dan ý</w>
zač ala</w>
vzor ku</w>
Ch u
cest ov
problé mů</w>
přílo ha</w>
po stavení</w>
l ým</w>
au tě</w>
ne myslím</w>
dostateč ně</w>
ně komu</w>
po ch
poř a
pe s</w>
Vypa dáš</w>
Mu sel</w>
s vo
výzku m</w>
budouc nost</w>
ba re
4 ,
t nost</w>
vola la</w>
sna žím</w>
produ cen
výrob ců</w>
k l</w>
7 3</w>
po plat
bu ju</w>
se t</w>
e pi
B P</w>
zru šení</w>
tv or
aktu aliz
den ní</w>
kra bi
bra t</w>
postup u</w>
odpově di</w>
změ ně</w>
j dete</w>
šťast ný</w>
3 .</w>
roz su
ž ku</w>
ř uje</w>
zná te</w>
jí z
je de</w>
š ná</w>
na r
Da n</w>
vyšetř ování</w>
Bu dete</w>
b ali
tvr dí</w>
lé ky</w>
it al
hů ru</w>
V in
tvo ří</w>
t oval</w>
zku sit</w>
jak mile</w>
vý kon</w>
informa ci</w>
ne vin
en ý</w>
po sto
ne y</w>
s chod
obleč ení</w>
Nic méně</w>
ře n</w>
hospodář ského</w>
mo n</w>
zá pad
Evrop skou</w>
u dělá</w>
mamin y</w>
slyše la</w>
ní š</w>
Ma jí</w>
su l
plá nov
živo či
mi se</w>
po hled</w>
úžas né</w>
pro mě
........ ........
lid ských</w>
ví ken
8 9</w>
hu bu</w>
logi e</w>
ví těz
ini ciati
PR O</w>
vá ch</w>
set kání</w>
pá ní</w>
do r
podob ě</w>
jí m
uveden ý</w>
V še</w>
tvá ř</w>
M ě</w>
v te
sí lu</w>
profe si
podsta tě</w>
o čí</w>
tr val
so li
re kla
ra jí</w>
drže l</w>
al terna
ten zi
7 9</w>
pře chod
ak tivní</w>
produk ce</w>
l ům</w>
Z kou
případ ů</w>
te ly</w>
len ě</w>
S al
lov i</w>
vá lky</w>
0 000</w>
Stá le</w>
ved li</w>
Š e
bod ů</w>
mal ou</w>
7 6</w>
M ně</w>
změ ní</w>
důleži tější</w>
Pro boha</w>
P rů
pod odstavec</w>
slu či
199 8</w>
Micha e
ti vi
projek tů</w>
Jak mile</w>
týka jí</w>
ti cky</w>
Ně které</w>
takov ých</w>
Rá da</w>
J uli
o svob
7 4</w>
lí me</w>
ředi tel</w>
na šem</w>
P odpo
tr h
ROZHOD NUTÍ</w>
ová ni</w>
I zra
pří tele</w>
řen a</w>
stře l
C I</w>
x e</w>
D ne</w>
Ne s
Nej lepší</w>
za člen
d .</w>
pí še</w>
ti tu
interne tu</w>
Vě děl</w>
sk rý
da va
něj ším</w>
kr vá
jí ch</w>
ta m
st re
použí van
uka za
za bý
29 .</w>
předpi su</w>
plá ny</w>
men a</w>
nech te</w>
se kre
změ nu</w>
ý ma</w>
dne ch</w>
Vý bor</w>
dáv ka</w>
náhra dy</w>
zázna my</w>
nástro jů</w>
doty č
nes ná
přísluš ným</w>
vz hůru</w>
I I
z ná</w>
prac oval</w>
uveden ým</w>
mlu vila</w>
dobro vol
chrá nit</w>
b oty</w>
lod ě
ba zé
le van
19 .</w>
16 .</w>
vyba ven
Vi děla</w>
cest ou</w>
vy hov
ší me</w>
sla b
vy p
f al
ří š</w>
hod il</w>
re prezen
O ba</w>
po za
předpo kladu</w>
nor my</w>
s hromáž
Ne budu</w>
re ál
lá ska</w>
se h
protoko lu</w>
slov y</w>
subjek t</w>
sk ří
in teg
zji stil</w>
h ně
tr vá</w>
stav te</w>
len a</w>
8 1</w>
Te ch
Výbor ně</w>
L R</w>
asi atky</w>
vin u
je likož</w>
ka ž</w>
me r</w>
tá ní</w>
tu díž</w>
ná vra
vý car
cí mu</w>
hra nice</w>
t ské</w>
krás né</w>
cháze jící</w>
ši li</w>
jedin é</w>
požá dat</w>
ú j
papí ry</w>
L y
L an
de s</w>
tu gal
pí t</w>
sla v
fe ti
předsta vi
počíta č</w>
větš inou</w>
součas ně</w>
měr ně</w>
Na z
ki lo
zeměděl ských</w>
u š
pi li</w>
z hor
pi i</w>
ni komu</w>
ú drž
ku je</w>
vy mez
kancelá ře</w>
zo zem
th er
nej dřív</w>
soutě ž</w>
provádě t</w>
poskyt nutí</w>
ukon čení</w>
ná te</w>
pozmě něné</w>
lí te</w>
ve dou</w>
í k</w>
bra tra</w>
mlu vili</w>
Joh n</w>
účin nosti</w>
rov ého</w>
výrob ního</w>
di lo</w>
p ci</w>
T re
ž an
závě ru</w>
f ale
minu losti</w>
koord ina
s ak
nej později</w>
Ú če
násled ujících</w>
Da l</w>
par en
stej nou</w>
7 .</w>
lo v</w>
ba t</w>
vyrá bě
kov aných</w>
skupi n</w>
l le</w>
při řa
říká te</w>
O t
st ky</w>
považ uje</w>
nut no</w>
hlá šen
ochra ně</w>
st aly</w>
klá dání</w>
zač ne</w>
le tu</w>
pře ká
chy bí</w>
prů myslu</w>
prá z
ro čně</w>
ar chi
Ka ž
Vi z</w>
Slov en
H á
S va
spou sta</w>
č len</w>
obec ně</w>
no stech</w>
z ované</w>
Mí sto</w>
po ro
F BI</w>
I M
do stanu</w>
S nad</w>
gra m</w>
dov i</w>
zi e</w>
ko ru
Řek nu</w>
je di
vybra t</w>
Po zor</w>
kli dni</w>
c aj
rost lin</w>
u jícím</w>
r gi
milu je</w>
tu ri
se k
h m</w>
tr y</w>
zpráv ě</w>
sly ším</w>
mí ru</w>
bra l</w>
institu cí</w>
mod u
bá ch</w>
ne m
Yor ku</w>
so ne</w>
za vedení</w>
t nou</w>
budouc nosti</w>
- Jo</w>
é mie</w>
dí vat</w>
výrob ci</w>
nes ení</w>
vysvět lit</w>
po mohl</w>
u snad
akti v</w>
zkušen osti</w>
st ování</w>
pří ští</w>
ne se
. 12.
vě do
kontro lovat</w>
mlu víte</w>
Moh li</w>
z práv</w>
te st</w>
analý zu</w>
part má
do jde</w>
ne znamená</w>
obě ti</w>
nezby tná</w>
stá vají</w>
po bře
okol ností</w>
přá tele</w>
naz ý
dan á</w>
m ný</w>
bu d
dan ého</w>
h ni</w>
materi álu</w>
P ho
Na bí
Je dná</w>
využí vání</w>
pad la</w>
x y</w>
š ování</w>
správ y</w>
záko n</w>
ce le
Meziná rodní</w>
ty py</w>
roz li
r ního</w>
1 50</w>
před em</w>
d rob
Bo ží</w>
nost em</w>
ch ů</w>
chví le</w>
kou sek</w>
ov ými</w>
o sa
jednoduch é</w>
re la
umož ní</w>
po ho
tr vat</w>
ta mi</w>
g lu
b le</w>
výrob ě</w>
poky ny</w>
vy mě
dovo lit</w>
u praven
tí čko</w>
z kla
vlast ním</w>
PI TO
ne budeme</w>
de tekti
líbi t</w>
J ane</w>
KA PITO
úře d
injek ční</w>
řen y</w>
Po čet</w>
6 3</w>
teč ně</w>
hov o
ali zace</w>
oko lo</w>
sna žil</w>
ener gii</w>
per so
ro va
dí l
spraved l
neuvě ři
lov ý</w>
ro li</w>
rozto milý</w>
Provádě cí</w>
z in
vy sky
skon čí</w>
dosta neme</w>
ó ny</w>
ří z
za veden
o ni
Pře mýš
pod la
ina mi</w>
S pe
é r</w>
připra ven</w>
z te</w>
Společ nost</w>
feti š</w>
by tek</w>
4 .</w>
chlu pa
KAPITO LA</w>
tel nou</w>
tov ého</w>
sou hr
u h</w>
v ali
meziná rod
li gen
partner ství</w>
D ar
stá tem</w>
uží vání</w>
ro val</w>
te j
na mi
tex ti
ho tely</w>
roz voj
b ři
n kách</w>
dvor a</w>
ka ta
š á
Ne ž</w>
příprav ků</w>
pře sto</w>
m .</w>
onemoc nění</w>
Pamatu ješ</w>
služe b
návr hy</w>
u chová
nej více</w>
V Ě
u prostřed</w>
ma ji
za s</w>
F ar
organiza cí</w>
in spe
Z as
znám ka</w>
pomo c
ch ů
o svět
V er
Ze mě</w>
D NA</w>
Pů jdu</w>
před sed
ků že</w>
krás ná</w>
os m</w>
Mez i</w>
př in
n ali</w>
pi tí</w>
pů jdeme</w>
dal ším</w>
u tek
dá rek</w>
sví ti
politi ku</w>
čen á</w>
N ene
tro u
re levan
formu lá
sy mbo
ven ý</w>
dne šní</w>
ri sk
p lí
b la
žen ého</w>
d ani</w>
při rozen
zeměděl ské</w>
k ém</w>
P an
ve doucí</w>
ne řekla</w>
š paněl
hla d</w>
ře li</w>
ma z
okamži ku</w>
sto py</w>
nepře sa
še sti</w>
vá ním</w>
polož ky</w>
dcer u</w>
S Z
ver ní</w>
k ova
dě lejte</w>
Po sla
cí tíš</w>
s bí
otá zek</w>
A h</w>
H D
Z de</w>
Mar y</w>
š ce</w>
koncen trace</w>
ob jem</w>
18 .</w>
před stí
představ ují</w>
abso lu
z jist
vývoz u</w>
stro jů</w>
Te dy</w>
Joh ne</w>
na ši
rozší ření</w>
l d</w>
r t
adre su</w>
pohy bu</w>
snad né</w>
klasi fi
Pa ří
vraž du</w>
nabíd ky</w>
telefo nu</w>
Do st</w>
svo jí</w>
Itá lie</w>
plavid la</w>
dokto re</w>
ma tku</w>
l iny</w>
vyho lený</w>
původ ní</w>
u ply
vr cho
28 .</w>
- Ne
e ro
použí vají</w>
C al
záležito sti</w>
Po moc</w>
vy bí
dom ov
nes práv
kapito ly</w>
je zd
mož no</w>
lin u</w>
201 8</w>
jiho ameri
závaz ků</w>
se r</w>
anti dumping
pří stroje</w>
s vi
potí že</w>
poly kání</w>
oby če
nic kou</w>
přene s
Dělá š</w>
šťast ná</w>
ga re
s mluvní</w>
m ové</w>
in k</w>
inzu lí
p h
spo čí
předmě tem</w>
Ra dě</w>
jednot livé</w>
infor mu
do pis</w>
di vo
odpověd nosti</w>
změ na</w>
še n</w>
per o</w>
Y e
vá l
vy dání</w>
h ře
da tabá
ra di
du še</w>
d s</w>
v ce</w>
pr vky</w>
za cházení</w>
prá zd
po kle
Dokto re</w>
pome ň</w>
přísluš nými</w>
12 .</w>
tím hle</w>
pořád ně</w>
Rob er
lhů tě</w>
sa t</w>
pro dá
Vš ak</w>
ti e</w>
od pu
ma l</w>
S vět
8 6</w>
a ro
ne existuje</w>
ň ující</w>
u tí
zprav oda
ná ku
g ru
o lej</w>
su n
od kaz</w>
In di
sekto ru</w>
fotografi e</w>
du jí</w>
ne jsme</w>
men e</w>
g in
Pří sa
mr zí</w>
t z
sa dím</w>
J děte</w>
píse mně</w>
zákla dních</w>
trans paren
vypa dat</w>
technologi í</w>
zvý šit</w>
s dělení</w>
jihoameri čanky</w>
tra k
naroz ení</w>
e ho</w>
pri má
obi lov
vi den
odpovída jícím</w>
tiv ního</w>
t ků</w>
vši m
f f</w>
10 00</w>
S trá
ori en
odpo ledne</w>
osob ně</w>
si li</w>
en ých</w>
zabezpe čení</w>
nov ým</w>
po ta
Evrop ským</w>
x a
veřej ného</w>
ch an
jin de</w>
1 1.</w>
j ších</w>
dvo u
orgá nům</w>
cen tra</w>
K la
náz oru</w>
or ů</w>
příspě vek</w>
jist é</w>
gh t</w>
V I</w>
poste le</w>
na jí</w>
kov i
mini stra
obra z
be n</w>
hospodář skou</w>
lá čku</w>
P S</w>
š ného</w>
obsa hovat</w>
g ang
úprav y</w>
N ov
tv ém</w>
pa dne</w>
ře čeno</w>
st á</w>
zdů raz
t ných</w>
léč bě</w>
Hen ry</w>
23 .</w>
čer ný</w>
oce li</w>
mal ých</w>
hle dám</w>
techni ckých</w>
n ýho</w>
s ný</w>
vyso kou</w>
ce l</w>
za ví
sekun d</w>
přij me</w>
ge n</w>
Z nám</w>
Ne js
lod í</w>
i d</w>
w n</w>
úko l</w>
o cen
ple t
sv á</w>
léka ře</w>
poli ci
výji me
v ze
le tě
řád ně</w>
za sra
bo li
oh e
de ri
ST RA
souvise jících</w>
Ne chceš</w>
tvo ji</w>
H i
ří me</w>
vý sky
mo r
g an
v ního</w>
M or
dě lit</w>
tý če</w>
R od
li i</w>
25 .</w>
tu n</w>
mí ry</w>
T ho
F lo
příprav kem</w>
dáv ku</w>
sa r
pra v</w>
posla t</w>
nech ala</w>
dostup né</w>
vi ze</w>
předlo ží</w>
kuchy ně</w>
8 3</w>
na vi
V O
br ý
rych leji</w>
á n</w>
pr ch
popu lace</w>
5 .</w>
Ví tejte</w>
u spo
u držet</w>
stra šně</w>
sko čit</w>
t ém</w>
druh á</w>
a s</w>
ř in
n ý
zaji sté</w>
pro jít</w>
K el
skup ině</w>
M od
va ším</w>
ná leži
hlav ních</w>
Po sta
spo n
Tu ri
zá ní</w>
st ý</w>
hy per
kan di
Ne jsi</w>
ra kov
še mu</w>
vra h</w>
ne č
F OR
tla čí
stan ice</w>
Žá dná</w>
vý ho</w>
ne mohla</w>
ru š
N Í
tv ých</w>
apli kaci</w>
kla dů</w>
O be
mate mati
přípa dy</w>
H ou
Spojen ých</w>
člán ků</w>
po pis</w>
muse li</w>
ci ty</w>
dov ý</w>
s cho
c ové</w>
e me</w>
Vý sled
kamer a</w>
li vost</w>
k i</w>
po žád
u kazuje</w>
8 .</w>
zázna m</w>
R I
dvoji tý</w>
skuteč ný</w>
ps ala</w>
ne mohu</w>
chu ť</w>
PŘÍ PRA
opera ci</w>
investi ční</w>
Do stal</w>
tla ku</w>
subjek tu</w>
vlast ního</w>
ztrá ty</w>
je mně</w>
vod ě</w>
et hy
nemoc nici</w>
zaměst na
ní me</w>
ex pozice</w>
t t</w>
ur o</w>
Fin an
se dět</w>
E m
Sna žím</w>
bi t</w>
mé mu</w>
ote ví
E T
ka rié
řen o</w>
ra dost</w>
cen né</w>
C y
při spí
na hrá
přísluš ného</w>
kalhot ky</w>
Ra dši</w>
ve ďte</w>
ne věděl</w>
na lez
14 .</w>
Vi díte</w>
rych lost</w>
n ní</w>
6 .</w>
e m
je la</w>
ka pe
Do ká
5 ,
Z e</w>
zi sk
D en
sou drž
tvo jí</w>
bole sti</w>
jednodu še</w>
ů ž
ver ze</w>
A s
van á
za m
poru chy</w>
fung ovat</w>
LÉ Č
obje mu</w>
hla va</w>
h ové</w>
V A
Pře čtěte</w>
u spoko
Re gi
slu nce</w>
ra ke
je h
tla n
připo jení</w>
tele fon
roz po
nej dříve</w>
fo s
poj ďme</w>
potřebu jí</w>
E M
4 00</w>
po jist
leta dla</w>
Ma g
M exi
S r
ck ému</w>
bá ní</w>
da je</w>
Wil li
bo ji</w>
mi lé</w>
sil ný</w>
R an
pohy b</w>
per fektní</w>
a nebo</w>
B O
Dá le</w>
k oval</w>
speci ální</w>
Mi mo
Ob sa
káz ala</w>
L au
z ou</w>
výro bek</w>
co s</w>
LÉČ IV
dokumen ty</w>
pracov níků</w>
Š výcar
kni hy</w>
di vné</w>
skvě lá</w>
vla j
ob al
na stavení</w>
jak ým</w>
sti h
u c
důvod y</w>
Ci ty</w>
poky nů</w>
Z na
regi onu</w>
le la</w>
zapo me
povin ností</w>
st rý
st r</w>
poslou chat</w>
hol či
Evrop a</w>
vý bu
ča ta</w>
její ch</w>
ji sti</w>
ra h</w>
perso ná
inte ligen
účin nost</w>
y e</w>
k ní
f le
Pá na</w>
Ne byl</w>
A ni
Ne máme</w>
Sc ot
tu lu
hra ni
26 .</w>
přij ala</w>
b em</w>
chy bu</w>
účin ků</w>
projek ty</w>
sk la
ve ch</w>
bu ji</w>
vy dě
zahá jen
rod ině</w>
ča sté</w>
t nosti</w>
dodrž ování</w>
Vž dy</w>
O n
ovan ou</w>
e y</w>
vzor ků</w>
u klid
získ al</w>
vraž dy</w>
tvr zení</w>
Vez mi</w>
ra cí</w>
kdy bychom</w>
že te</w>
S un
Pou ze</w>
kte m</w>
ně k</w>
klid ně</w>
ho lku</w>
spo jené</w>
pře staň</w>
l te</w>
o kra
význam né</w>
Za se</w>
legi sla
lá sku</w>
Za čí
řá du</w>
js ké</w>
fre k
oba vy</w>
klu bu</w>
cí til</w>
Je jich</w>
šé fe</w>
nalé ha
K lí
b ky</w>
tr žní</w>
parlamen t</w>
kaz ů</w>
ztra til</w>
en á</w>
in tenzi
u sa
te s</w>
ot ě</w>
disk ri
či sté</w>
nem ovi
mu ze
Pod ob
K ru
L á
Z tra
H ez
za t
s fé
řa d</w>
vide o</w>
doká že</w>
krá l</w>
sho w</w>
C as
vz ali</w>
standar dní</w>
poskyt ova
u stanoven
di va
dé le</w>
soci álního</w>
Sleč no</w>
klí č</w>
člen y</w>
dob ou</w>
řen ím</w>
toho hle</w>
p neu
Ty hle</w>
veli kost</w>
mně la</w>
kou pil</w>
vy ni
jazy k</w>
Ježí ši</w>
man a
ing u</w>
vo lejte</w>
ra d</w>
ov y</w>
při tom</w>
plu s</w>
bar u</w>
osob ních</w>
nu to</w>
XX X
pé če</w>
Dělá m</w>
vý sledek</w>
politi cké</w>
ri i</w>
U dělej</w>
schů zku</w>
př iná
nábo žen
sou d</w>
mno ho
Zů staň</w>
ban ka</w>
elek tř
x u</w>
scho pen</w>
en ím</w>
m 2</w>
zku r
ko s
úča sti</w>
sou dní</w>
ban k</w>
z ně
pa ma
D vě</w>
dosa ženo</w>
Za tracen
ve čí
vy stav
ří dil</w>
bezpeč né</w>
o stí</w>
Pří sluš
ž nost</w>
O li
Kó d</w>
nej vět
dob rej</w>
ova cího</w>
podpo rovat</w>
potře bí</w>
RE GI
vů r</w>
Bě žte</w>
sexu ální</w>
ply nu</w>
ov šem</w>
S tre
Vz pomí
signá l</w>
materi ál</w>
mi la</w>
U dělám</w>
To mu</w>
S bohem</w>
Bu dou</w>
po m
zen ých</w>
úžas ný</w>
ú činek</w>
Pou ži
zelen iny</w>
z o</w>
pi vo</w>
té ma</w>
d leně</w>
mo ct</w>
u děláš</w>
K an
p ina
z ve
nejs píš</w>
Te da</w>
obě d</w>
š am
stě h
jedno tek</w>
L ot
B lí
z vyk
kritéri í</w>
e d</w>
p ka</w>
umí te</w>
p sa</w>
nástro j</w>
By ly</w>
t ře</w>
Vá no
če kal</w>
st ru</w>
mož ností</w>
vý voje</w>
šé f
K ra
provoz ní</w>
hez ké</w>
pra cí</w>
10 .</w>
Nej dřív</w>
zvláš ť</w>
r ce</w>
di gi
13 .</w>
w el
st ůl</w>
žal ob
zni čit</w>
lhů ty</w>
použi tím</w>
ž lu
evrop ského</w>
tr vání</w>
Ji žní</w>
podpo ře</w>
g er
manžel ství</w>
kter ému</w>
U kaž</w>
země mi</w>
vzá jem</w>
zach ování</w>
prů zku
Je likož</w>
Z práva</w>
V en
ní te</w>
charakter i
g ar
Na šel</w>
z řejmě</w>
meziná rodních</w>
Posly š</w>
nej horší</w>
pravide lně</w>
politi ka</w>
hod í</w>
k de
te m
6 ,
znov a</w>
materi ály</w>
vysoko ško
stá ní</w>
ste n</w>
část ku</w>
zá bav
drže la</w>
vz do
tiv ním</w>
en dá
Pa ci
poh ř
ba vit</w>
F er
potřeb né</w>
vě ří</w>
nej men
199 6</w>
s la</w>
lh ar
za potřebí</w>
sou část</w>
zařa zení</w>
vž dyť</w>
l ly</w>
každ á</w>
ob á
ob e
ne byli</w>
závi slosti</w>
or va
rov nová
poli caj
Če ské</w>
ten tokrát</w>
prde l</w>
Ne jsou</w>
m ó
hle dání</w>
zna m</w>
pu l
mi lovat</w>
země pis
pro bu
půj deš</w>
Do hod
in stal
zapo mněl</w>
Ne chtěl</w>
k les
zem řít</w>
jedno tka</w>
199 4</w>
P E
ps ané</w>
b ů</w>
po malu</w>
di ag
d vůr</w>
o stro
h ře</w>
W hi
z neu
de tai
ozná men
dě di
pře vod
nežá doucí</w>
Cel ý</w>
199 7</w>
zji štění</w>
rost lin
s ovi</w>
fil mu</w>
as h
9 .</w>
g é
za tí
investi c</w>
ri s</w>
dr ů
y ou</w>
ku po
ma tky</w>
stup te</w>
í ku</w>
do nu
dá l
poh ře
ad ministra
ma le
Š T
z odpově
kapaci ty</w>
Kou kni</w>
šé f</w>
XXX Dan</w>
na psal</w>
poji šť
ptá m</w>
spí še</w>
kter ý
pocho pit</w>
klá dat</w>
S mí
dě vka</w>
6 00</w>
ba bi
Roz hodně</w>
rá ch</w>
Ví ce</w>
H or
klu ka</w>
T an
připomí nky</w>
ne n</w>
on g</w>
bo je</w>
šen a</w>
la n</w>
zů stane</w>
tě les
obje ví</w>
us nesení</w>
F un
dou cích</w>
funk cí</w>
defin ice</w>
a c
kapitá ne</w>
ne mohou</w>
nost ní</w>
27 .</w>
lov ou</w>
pro voz</w>
zapla tit</w>
dou f
li vá</w>
správ nou</w>
k lou
R ov
ti o
bo lí</w>
D E</w>
Ex ist
pro vin
posuz ování</w>
Vypa dni</w>
n ó
zvláš tních</w>
co koli</w>
čin i
s ý
obě ť</w>
působ í</w>
Parlamen tu</w>
hospodář ský</w>
vytvo řil</w>
Od pově
chlupa te</w>
Do n
š ly</w>
nor má
dohod ě</w>
vá leč
Do kud</w>
děku ju</w>
n né</w>
ven á</w>
sí me</w>
mil oval</w>
opatřen ích</w>
le z</w>
tře tí
ly m
B re
na vzájem</w>
m ím</w>
druh ém</w>
spl něny</w>
ch ovat</w>
ba bičky</w>
C li
to nu</w>
A spoň</w>
závě r</w>
rá di
mo ři</w>
Ma xi
rá na</w>
infrastruktu ry</w>
Turi stické</w>
Ja pon
doda tku</w>
v aly</w>
s ť</w>
vlast nictví</w>
pří teli</w>
dáv kování</w>
určen a</w>
palu bě</w>
mo ti
tro šku</w>
kli mati
neb e</w>
ob čas</w>
mod r
ty s</w>
z ou
i re</w>
ř u</w>
za ní</w>
smlou vu</w>
mi ly</w>
ob o
spoko jen
registra ci</w>
pozi tivní</w>
se y</w>
p ce</w>
k od
ot ra
cen ý</w>
ze t</w>
dro g
K lu
brý le</w>
opera cí</w>
chlap če</w>
sou části</w>
sou se
poda řilo</w>
japo nská</w>
u bo
Org ani
pali va</w>
ver né
vhod ná</w>
rov ná</w>
n ést</w>
Hla vní</w>
L ar
F I
roz pětí</w>
Ča s</w>
lah vi
Re d
kto r</w>
budov y</w>
léč bu</w>
Skvě lé</w>
odbor né</w>
metr y</w>
U NI
do hled</w>
ne stalo</w>
sí tí</w>
ví na</w>
fo li
čer tu</w>
pod ně
nebezpeč né</w>
brz o</w>
je li</w>
pu stil</w>
A .
mi lo
Eu ra
čen y</w>
způsob y</w>
U S
hra niční</w>
vid ně</w>
kone čné</w>
vyře šit</w>
zne či
to s</w>
ště né</w>
dostateč né</w>
ba mi</w>
Do poru
vy šetření</w>
mysle li</w>
pod i
ob těž
ž em</w>
pěk ný</w>
hra ní</w>
ou n
na pl
Vět šina</w>
spojen ých</w>
Min u
považ ovat</w>
ste k</w>
k la</w>
199 5</w>
prav é</w>
na jdeme</w>
určen ých</w>
chá zím</w>
te sty</w>
zabi je</w>
vy pla
hod ný</w>
ra la</w>
rá k</w>
ž er
stou pit</w>
afri čanky</w>
tel ství</w>
um í</w>
rov nou</w>
ko lo</w>
úko ly</w>
dí cí</w>
Co l
úča st</w>
vy kaz
rozhod la</w>
f u</w>
za u
přá ní</w>
Har ry</w>
z on
vzta hy</w>
la r
ni koli</w>
kombina ci</w>
řa dy</w>
tel ného</w>
as pek
e u</w>
Sa n</w>
ne musíš</w>
manže la</w>
od kud</w>
moto ru</w>
cen tru</w>
televi zi</w>
stanoven o</w>
Po sa
kro ky</w>
zách ra
SZ BP</w>
tre st</w>
pro po
h ali
kdy byste</w>
tá mhle</w>
jin ém</w>
chla pec</w>
W or
men tu</w>
P lá
připraven i</w>
d ová
p ty
vez me</w>
A da
skon čil</w>
nech ám</w>
i dio
domá c
M as
šen ého</w>
mo zek</w>
b rou
mu l
ni i</w>
asi sten
stu pe
par ku</w>
tin g</w>
kontro lou</w>
zá zra
chá š</w>
k ý
pi sem</w>
moz ku</w>
na jdu</w>
i muni
po ptá
ce ch</w>
te li
diskri mina
g ran
poru šení</w>
Te le
tel ské</w>
hrá li</w>
Za volám</w>
stra nou</w>
zen ím</w>
kr vi</w>
mr t
strá nkách</w>
agentu ra</w>
kar ty</w>
Pra c
ur čit</w>
Ná zev</w>
an tní</w>
Ji mmy</w>
ně kteří</w>
o pě
an y</w>
- Ano</w>
nau čit</w>
vol ba</w>
c ti</w>
vý stup
pěk né</w>
o š
du ši</w>
vyplý vá</w>
s mluv
při chází</w>
Ne musíš</w>
učin ě
nes la</w>
vi ron
příj mů</w>
to to
ru s</w>
sní žit</w>
nějak ého</w>
mno ž
čty ř
jím alo</w>
z jednodu
st mi</w>
sa n</w>
za vraž
d vaná
součas nosti</w>
Ně kteří</w>
za p
in t</w>
pří znaky</w>
osta tními</w>
Vě řím</w>
Ra kou
podě kovat</w>
N Ě
mez í</w>
Pá n</w>
Ch e
kni hu</w>
po kou
š u</w>
m léč
lí k</w>
ta tivní</w>
krá tk
drž te</w>
laska vost</w>
žen ě</w>
poste li</w>
ky sel
lod ě</w>
úmlu vy</w>
kre a
ar gu
ven ci</w>
uzav ření</w>
kon stru
vlá ken</w>
regi oná
police jní</w>
funk ci</w>
va r
in ové</w>
v ní
be l
Ne bylo</w>
un g</w>
T ran
s rá
veden é</w>
republi ce</w>
r é
gene rální</w>
M obi
ti ckou</w>
Jin ak</w>
Ch la
kategori i</w>
o leje</w>
ko re
che l</w>
bo st</w>
ti s</w>
drů be
še t
mob il</w>
podni ka
vel ko
osta tním</w>
kontro l</w>
hos pod
ch i</w>
Sta čí</w>
ko lá
si vní</w>
C u
da mi</w>
zákla d</w>
mí ře</w>
zabi la</w>
ví no</w>
dan ých</w>
prav y</w>
doká žu</w>
při zná
To ho</w>
Ne má</w>
C an
Au to
oprav dy</w>
sr dci</w>
ne d
změ nil</w>
K re
nechtě la</w>
ga n</w>
Š véd
H mm</w>
Ko ho</w>
při stoupení</w>
pos ád
zahra niční</w>
produk ci</w>
poskyt ovat</w>
te prve</w>
ra n</w>
krás ný</w>
dro gy</w>
řek něte</w>
promi ň</w>
u dělen
hospodář ských</w>
potřeb oval</w>
restau race</w>
obec ných</w>
vy hrát</w>
do ru
za cí</w>
sa ze
obsa hují</w>
kli matu</w>
EVROPSK Á</w>
tá hnout</w>
ba r</w>
N ový</w>
men u</w>
o g
od o
o h</w>
Za v
en e</w>
Georg e</w>
ne stane</w>
minist er
e li</w>
r na</w>
tu šení</w>
tr hy</w>
b le
ča stě
p ky</w>
CA S</w>
Dan ny</w>
vol ný</w>
ší ření</w>
S I</w>
Dě ti</w>
Č ím</w>
da ní</w>
čí te</w>
D P
sel hání</w>
začá tek</w>
s ce</w>
pokry tí</w>
ná do
lá ch</w>
ra mi
m te</w>
dosta nete</w>
rá nu</w>
budou cí</w>
zdro j</w>
Ne dělej</w>
zí ho</w>
P lu
be lky</w>
kov ě</w>
vy prá
mentá lní</w>
Vě ř</w>
odstra nění</w>
důleži tý</w>
V K
vod ou</w>
lá tka</w>
E N</w>
zač ali</w>
přija ta</w>
blí ží</w>
ma ko
ka fe</w>
e li
tlu sť
léka ř</w>
ko ně</w>
ká lní</w>
ň a
hla vou</w>
ob slu
dosta neš</w>
srov na
div ný</w>
mě te</w>
pla n
naj dete</w>
č ané</w>
kr ku</w>
zaměstnan osti</w>
život y</w>
slo žky</w>
chlá pek</w>
Nejs píš</w>
U mí
krát ké</w>
Por tugal
domo v</w>
zad ků</w>
vý voz</w>
kon zer
G ran
studi ích</w>
určen y</w>
dese ti</w>
an u</w>
vy táh
kancelá ři</w>
osob u</w>
di s
ně ného</w>
pá č</w>
nes u</w>
Kapitá ne</w>
Ji hlavě</w>
o č
ri ty</w>
be j</w>
A bych</w>
minu ty</w>
fo r</w>
zu by</w>
použí vané</w>
na rodi
bě žně</w>
venkov a</w>
Ví me</w>
fá zi</w>
mag ne
Sou hla
zvu k</w>
ta cí</w>
t ká
ch ra
cí tí</w>
zveřej nění</w>
ter mí
Min ist
do stá
Boh u
i hned</w>
REGI STRA
skup inu</w>
Ta bu
bou belky</w>
bu je</w>
získá ní</w>
vě cech</w>
fir my</w>
il l</w>
hmot nost</w>
vi lo</w>
strá ž
pro hlá
f ó
Hod no
zba vit</w>
podporu je</w>
kon f
roz u
S L
práv ními</w>
dne š</w>
žádo stí</w>
L t
blíz kosti</w>
kvó ty</w>
20 20</w>
D y
vý počtu</w>
a hoj</w>
Sa rah</w>
meta boli
d ž
obyče j
potvr zení</w>
nov ě</w>
konkuren ce
s ou</w>
posle ch
fan ta
n ů
předcho zí</w>
tov ou</w>
ž ď
pe te</w>
za chy
Vy pad
od rá
Slyše la</w>
ru ka</w>
dov ed
zabi li</w>
vá na</w>
vi ly</w>
nabíd ku</w>
Ne můžete</w>
ří kali</w>
C ra
V ol
len á</w>
il la</w>
Ná sled
příprav u</w>
eu roz
Ja ck</w>
pos lan
vo y
poru čí
ř ských</w>
kre vní</w>
dra há</w>
psy cho
osvět lení</w>
p hi
w or
vypa dáš</w>
Sko ro</w>
k in
S ex
Ni zozem
PO UŽ
chy b
uží vat</w>
ste ro
regi onů</w>
vy pořá
vá lce</w>
orgá nem</w>
Pro voz
sle p
sta ví</w>
poško zení</w>
An dre
Za po
o t</w>
h mo
d nou</w>
Z V
vý cvi
služ bu</w>
mlé ka</w>
poj ďte</w>
ž nosti</w>
Pra cu
Před poklá
do chází</w>
obra z</w>
á tu</w>
kon cep
hru b
o m
s vá
e s
v ovat</w>
sy nu</w>
že me</w>
tá tu</w>
sv al
S mi
re s</w>
Ru mun
rozhod ne</w>
sna žit</w>
chi ru
c ování</w>
zába va</w>
akti va</w>
roz ví
sa bo
ča ro
dokto ra</w>
g h</w>
tr ně</w>
T ur
z bý
hod nosti</w>
sou sed
zajíma vé</w>
za mít
h ád
vesmí ru</w>
Pou ží
Každ á</w>
jazy ce</w>
Dá my</w>
Č ty
A D
RA DA</w>
stě hov
úč tu</w>
zaznamen á
na vždy</w>
podni kání</w>
pro pi
A K
vá žné</w>
u hlí
schop ni</w>
Ne bude</w>
přimě řen
Ne bo
mili ar
P hi
Chce me</w>
lí zaní</w>
7 ,
ne záleží</w>
kov ým</w>
fá ze</w>
Ze mi</w>
ve jme</w>
ne líbí</w>
záležito st</w>
30 .
vý ta
ku f
p ím</w>
V A</w>
závi sl
u jícího</w>
záru ky</w>
vti p</w>
Tex t</w>
Š é
t ová
vrá tila</w>
vel kým</w>
po si
sr de
na pětí</w>
y a</w>
ro man
scé ná
dá vají</w>
gen i
za ční</w>
tex tu</w>
Sa m</w>
- A</w>
za stá
A f
v čas</w>
Do sta
va n</w>
orva t
24 .</w>
Vra ť</w>
kysel iny</w>
L or
van ý</w>
kon ver
rej stří
sil né</w>
zá no</w>
spolu prac
s mluv</w>
C ro
znám ý</w>
spl nění</w>
ot va</w>
lu jí</w>
Č LR</w>
Sa me</w>
Cel kem</w>
ex ter
va mi</w>
tlusť o
ráž ka</w>
vyrov ná
va ri
ná silí</w>
kata stro
způsobi losti</w>
z lé</w>
Výsled ky</w>
zahrnu jí</w>
ma j
bio logi
podí vejte</w>
Bri tá
bra da
mi i</w>
studi í</w>
p p
zem řela</w>
č ných</w>
del ší</w>
Poli cie</w>
to rem</w>
ni ckých</w>
Ví c</w>
rezerva ce</w>
S il
děl ování</w>
da ce</w>
V Á</w>
kontro lov
pneu mati
čí sel</w>
moř ád
pe ro
skry tá</w>
ře šit</w>
systé mem</w>
B í
zla tíčko</w>
ti ckého</w>
Evrop ském</w>
uspo řá
A d
ST A
ná mi
sí š</w>
stup ně</w>
obec ného</w>
pla z
Dá n
pomá há</w>
veteriná rní</w>
sí la</w>
sí ť</w>
histori i</w>
Ca ro
Bohu žel</w>
och ot
di alo
Vez mu</w>
Dokto r</w>
ma il</w>
P A</w>
opu stit</w>
vy čer
kal endá
ved nout</w>
preziden t</w>
při pravit</w>
hlav ním</w>
čís lem</w>
neu stále</w>
Ne chápu</w>
H ra</w>
Fran ku</w>
podá vá</w>
Má ma</w>
TE L
kou le</w>
vý no
pří bal
Přísa hám</w>
K ore
voy eu
be l</w>
Po pis</w>
řa da</w>
M A</w>
3 1.
inte gra
slo st</w>
ne říkej</w>
Ne mohl</w>
vlá k
požá dal</w>
G ri
uká zal</w>
těž ký</w>
lé ká
Č lově
S .
tře tím</w>
vo le</w>
ste l</w>
svět ové</w>
stá tních</w>
Ca fe</w>
ni kam</w>
hroma žď
ča j</w>
dn ým</w>
r ním</w>
pře číst</w>
obchod ování</w>
la cí</w>
ře tě
x ní</w>
P h
č koli</w>
pravděpodob né</w>
he mo
W ar
ve du</w>
adre sa</w>
Exist uje</w>
r ný</w>
Z náš</w>
s se</w>
pís ni
mo ment</w>
kre di
LE D</w>
hrá la</w>
nu s</w>
eu ro
zí te</w>
u vedení</w>
přemýš let</w>
vzá c
ta ční</w>
nerv ózní</w>
Eura tom</w>
rozsa h</w>
d alo</w>
dal šími</w>
ja l</w>
tab lety</w>
ok na</w>
4 0
při hlé
ry b</w>
pamatu ju</w>
qu e</w>
o si
T ha
en viron
gu verné
cuk r</w>
voyeu ři</w>
ži ly</w>
chu t
ř em</w>
slou ží</w>
fé r</w>
Ne máte</w>
zen ý</w>
výhra dně</w>
určen o</w>
to k</w>
nej víc</w>
cel kového</w>
sch ová
ublí žit</w>
O bá
ní kovi</w>
s bě
ku ři
svob ody</w>
š t
hlad iny</w>
politi k</w>
tabu lce</w>
sti cký</w>
vel kých</w>
vý hody</w>
oddí lu</w>
zachrá nil</w>
zása dní</w>
to ra</w>
li vosti</w>
A my</w>
tisí ce</w>
uvádě ní</w>
ber u</w>
udá losti</w>
Se d
Na šli</w>
vy ví
an ými</w>
Čí slo</w>
žal u
obrá zky</w>
lé ta</w>
u pí
mi ž</w>
zabrá nit</w>
bar vy</w>
pod vod
monito rování</w>
zů stává</w>
ci a</w>
občan ů</w>
ne budete</w>
příležito sti</w>
oz bro
do jít</w>
po u</w>
od dělen
lo n</w>
hot ov
ne l
kontro lní</w>
ško lu</w>
D Ě
doprav a</w>
To ny</w>
společ ná</w>
prv ních</w>
zá lo
sh i</w>
té ct</w>
připraven á</w>
a da
vlast ních</w>
při dělen
š pina
č ov
Na příklad</w>
splň uje</w>
ne viděla</w>
leta dlo</w>
ni cká</w>
Če ská</w>
zd i</w>
UNI E</w>
uli ce</w>
É HO</w>
le va</w>
K A</w>
zabi ju</w>
poskyt ne</w>
h vě
nu la</w>
mů m</w>
EVROPSK É</w>
přenes ené</w>
K ni
Váno ce</w>
po nen
t ty</w>
den ství</w>
kla dem</w>
d in
V O</w>
ž to</w>
elektri cké</w>
Zku s</w>
Davi d</w>
Jmen uje</w>
She male
10 7</w>
s le</w>
pří bu
r i</w>
ohe ň</w>
čt ení</w>
zahr novat</w>
líbi l</w>
U ži
Ná rodní</w>
moder ní</w>
hajz lu</w>
dá ch</w>
od hal
práv ního</w>
nov u</w>
t he
uveden ými</w>
za tk
hez ký</w>
ově ření</w>
chlo ri
Lt d</w>
s pal
pokro ku</w>
hlas ování</w>
Poslou chejte</w>
společ ný</w>
se zó
e x</w>
stan ici</w>
ú c
co m
živ ý</w>
rá z
námoř ní</w>
p ani
Ne měla</w>
ž ka</w>
ki ne
z vra
de vět</w>
za volám</w>
roz počet</w>
při hlá
M I
nepro dleně</w>
e te</w>
v lh
mož ný</w>
přílo hou</w>
oko lá
su per
prav dě</w>
ko rát</w>
P C
ko zy</w>
v .</w>
cho zí</w>
víken d</w>
zvláš tního</w>
za sa
s ny</w>
pan u</w>
jí dla</w>
zji stí</w>
vá lka</w>
připo jen
m bur
mar ke
tý mi</w>
Se x</w>
z řízen
požada vek</w>
posky tují</w>
vy počí
l ný</w>
pamatu ješ</w>
doprav ní</w>
U ká
s má
k men
Br zy</w>
for mu</w>
Od kud</w>
chod i
ne dáv
vy ro
plá ž</w>
vy sla
gru páč</w>
A l</w>
po sa
energe tické</w>
o zení</w>
An gli
ná rodních</w>
na padlo</w>
mod i
vě ru</w>
ne l</w>
chlap ci</w>
slo v</w>
peni sem</w>
dob í</w>
Po hy
kama rád</w>
V í</w>
pří ště</w>
zůsta l</w>
papí r</w>
da ří</w>
od í
ode šla</w>
stupo vat</w>
k lob
e fici
u vést</w>
uplat ň
s družení</w>
ne dávno</w>
těhot ná</w>
tori s</w>
in de
vyni kající</w>
mili onu</w>
min á
zna čně</w>
li du</w>
ko l</w>
bo ží</w>
Ste ve</w>
K éž</w>
posí lení</w>
u ta
čet l</w>
p ě</w>
do hod</w>
te ku
nez vlá
zem ní</w>
s pu
ne dá</w>
mode l</w>
de sti
kontro le</w>
O sob
doká zal</w>
g as
provádě cího</w>
H D</w>
zra nění</w>
jaké ho
mani pu
koupel na</w>
ni čemu</w>
připraven ý</w>
za dní</w>
potra viny</w>
dokumen t</w>
ven ční</w>
otev řené</w>
do pá
mí stech</w>
mi mořád
zaměstnan ce</w>
Spe ci
Skvě lý</w>
obrá zek</w>
ch e</w>
D I
vý stav
vzdu ch</w>
čá sti
Pr ý</w>
K ana
pta l</w>
O mluvte</w>
u čit</w>
u prch
líbi lo</w>
mr tví</w>
jí me</w>
k ými</w>
v ný</w>
X Cafe</w>
P ově
Tu re
Z A
jí te</w>
ně čem</w>
s nou
v ních</w>
M é</w>
splň ují</w>
Bu lhar
pobře ží</w>
z lodě
dí l</w>
nor em</w>
doprav u</w>
c le
klí če</w>
dve ří</w>
š ují</w>
Z ji
v stup</w>
por t
prode j
ně čeho</w>
Po ložky</w>
lí bání</w>
ko leje</w>
Na konec</w>
ry by</w>
D ov
způsob it</w>
dáv ení</w>
ak e
vysvět lení</w>
dovoz ních</w>
pé či</w>
ků ži</w>
něj šího</w>
Je žíš</w>
X o
záj my</w>
in sta
mon tá
ze ň</w>
ne dělej</w>
roz umě
led vin</w>
k ně
kon cer
ky ni</w>
ne mělo</w>
j ád
PŘÍPRA VK
zná me</w>
příj my</w>
p em</w>
Ma ďar
tabu lky</w>
od sou
V em</w>
ru sky</w>
vr st
ně čím</w>
kapito le</w>
at d.</w>
špat ného</w>
kov ém</w>
zne poko
přen os
ex peri
He y</w>
stra nami</w>
c ast
dr o</w>
Ka te</w>
h ala</w>
w e</w>
stře di
do opravdy</w>
význa mem</w>
s prav
fon dů</w>
po měr</w>
ni a</w>
li t
l ními</w>
5 0
ch ové</w>
použi ty</w>
deri vá
poví dat</w>
koncen tra
služ ba</w>
pe ra
h něte</w>
199 3</w>
skon čila</w>
obě tí</w>
mě ry</w>
po hle
2 50</w>
ná ct</w>
na pa
K or
ci onální</w>
zen i</w>
su r
IS O</w>
zná t</w>
hov no</w>
ot ní</w>
vádě ní</w>
ra do
nejmen ším</w>
er u</w>
dí těte</w>
a jí</w>
Par don</w>
stá vej</w>
d ý</w>
ot cem</w>
stě ž
pá tek</w>
ti ky</w>
dlou hé</w>
se dí</w>
vz kaz</w>
dodá vky</w>
on s</w>
s hi
men ty</w>
vo le
léč ba</w>
- Je</w>
Se š</w>
dlu ž
g ri
mo sfé
dopá dně</w>
porov nání</w>
e mo
D lou
Tabu lka</w>
dobr ého</w>
e jte</w>
Gra tulu
D R
E lek
so na</w>
doplň uje</w>
Pro b
če st</w>
čas em</w>
lo me
tera pie</w>
pi sto
T vr
částe čně</w>
milu ješ</w>
o my
Micha el</w>
uni formy</w>
úspě ch</w>
hodno tě</w>
- Já</w>
tov ala</w>
c ovat</w>
vítěz ství</w>
přij dou</w>
me to
Bra vo
ško la</w>
pracov ané</w>
č ník</w>
Při prav
tlusťo šky</w>
ot ci</w>
methy l</w>
z or
náz vem</w>
nes s</w>
nechá pu</w>
zpo ž
obraz ov
dá vám</w>
Ne mohu</w>
ra zí</w>
Vel ká</w>
Bravo Tube</w>
blá z
pře de</w>
tu jte</w>
infek ce</w>
e di
P C</w>
kou ze
nega tivní</w>
len o</w>
má mu</w>
zná mé</w>
ra du</w>
ř ství</w>
vych rt
prů měru</w>
hod né</w>
Tá ta</w>
aktivi ty</w>
K ry
pozo rová
kla da
zápa s</w>
pe l</w>
mlé ko</w>
p tý
ří te</w>
to li
Ra chel</w>
pod odstavci</w>
ho sti
bo hu
Podpo ra</w>
for mou</w>
i lo</w>
dot čené</w>
dotčen ého</w>
dí vky</w>
lo žit</w>
ved ly</w>
zví ře</w>
Lon dý
v ním</w>
pu se</w>
du še
narozen iny</w>
Pot é</w>
sto lu</w>
čas í</w>
přezku mu</w>
pří slu
ne víme</w>
9 0
čty ř</w>
199 2</w>
považ ují</w>
do min
Sy st
sto že</w>
roz mezí</w>
tex t</w>
Z E
z ře
ST I</w>
rych losti</w>
kni hov
z ka
S en
lete cké</w>
vr h
ov u</w>
bo ž
L a</w>
požadov ané</w>
Parlamen t</w>
jedin ou</w>
u važ
ru ko
soukro mí</w>
Pě t</w>
ne dovo
la la</w>
Za tím
od ě
Obá vám</w>
na opak</w>
úto k</w>
ži lo</w>
přá tel</w>
muse jí</w>
kon tin
Pro du
po znat</w>
Z obra
vozi dlo</w>
tu dy</w>
ko t
va jí
chá ní</w>
P al
vešker á</w>
ku li
nau čil</w>
preziden ta</w>
způsob il
vyso ký</w>
s hromažď
p .
u téct</w>
jako sti</w>
stří ka
Zatím co</w>
E gy
příjem ce</w>
po blíž</w>
kli kněte</w>
klini ckých</w>
obsa hem</w>
hu de
emi se</w>
Naz dar</w>
zvlá dnu</w>
J mé
ří cí</w>
na f
U stanovení</w>
myšlen ky</w>
maje tku</w>
ply n</w>
obliče j</w>
seh nat</w>
Ne chá
S pi
vyz ý
bohu žel</w>
lé čených</w>
S tro
vysí lání</w>
pří mé</w>
dostup nost</w>
s ma
doká zat</w>
kro u
Zatracen ě</w>
cen ných</w>
m ane</w>
T I
před ní</w>
b ak
Li sabo
smlou va</w>
uveden ou</w>
výbě ru</w>
roz dělení</w>
mentá lně</w>
I slan
če b
pojišť ov
lik vi
la čky</w>
povr chu</w>
polož ka</w>
ve ru</w>
ovan ým</w>
žádn ém</w>
v zadu</w>
soft ware</w>
funk ční</w>
rych lé</w>
Prav děpodob
se stři
Pr in
Z illa</w>
pra sat</w>
strate gii</w>
Kapi to
vě novat</w>
pro vě
bu ďte</w>
kli toris</w>
zlep šit</w>
vrá cení</w>
n ský</w>
oš kli
rá š</w>
společ ných</w>
Za volej</w>
po stavit</w>
h ých</w>
grafi e</w>
pů l
for ma</w>
poně tí</w>
zaměstnan ci</w>
uve den</w>
S ar
roz sáh
důleži tá</w>
Xo Zilla</w>
krá le</w>
Fran ci
z prostřed
in hibi
problé mu</w>
správ ný</w>
nad měr
poch vě</w>
slyše li</w>
vol ně</w>
Bez peč
ko mo
klá dají</w>
t lou
jedno tné</w>
stej ná</w>
vstup ní</w>
získ ané</w>
doplň kové</w>
m ná</w>
vu d</w>
ja ter</w>
Mr zí</w>
pacien ta</w>
Ale x</w>
k s</w>
Nes ná
Vi vud</w>
vychrt lý</w>
lé k</w>
Maxi mální</w>
T é
teori e</w>
níz ké</w>
stanoven ými</w>
na sa
chy by</w>
ó zy</w>
vel kého</w>
pl nou</w>
le vné</w>
Pře staňte</w>
Tak ový</w>
a ra
Ch orvat
dlou hou</w>
člově če</w>
vy hrál</w>
bor y</w>
vide l</w>
učin it</w>
psy chi
jaké koliv</w>
rozto k</w>
nej lépe</w>
g á
ch vá
spolu pracovat</w>
potře bu</w>
ň ů</w>
cen ě</w>
w it
studi i</w>
9 ,
a partmá
Ot če</w>
a min
ná mě
přij mou</w>
tra p
ží ch</w>
podmín kách</w>
S á
8 00</w>
zá vod
F oto
agen t</w>
To me</w>
w a</w>
hla ví</w>
domní vá</w>
umě lí</w>
výstři k</w>
z krá
ou r
ká te</w>
dá n</w>
cel ních</w>
Tho ma
z moc
ko stí</w>
vě dí</w>
f la
Ne jste</w>
rezi du
kter é
skr z</w>
tré n
at mosfé
S hi
an ce</w>
ma ce
Ye ah</w>
pacien ti</w>
mili ony</w>
čen i</w>
využí vá</w>
zkuše bní</w>
B on
ná rok</w>
fot ku</w>
lov ého</w>
po bo
dobr o</w>
progra m
Skvě le</w>
12 0</w>
šť á
U klidni</w>
s eri
práv em</w>
ja kou
zaměst nání</w>
men á</w>
předpi s</w>
pro ve
pro dat</w>
stanovi ska</w>
mi lá</w>
tě le</w>
ná po
K U
ko efici
al l</w>
Mimo chodem</w>
ně t</w>
trans akce</w>
pi sů</w>
o sud</w>
pře sa
Inter ne
de pre
py t
po bytu</w>
stá vajících</w>
do pad
pamě ti</w>
ši lo</w>
srov ná
slo žení</w>
g há
pozná vám</w>
kapitá l</w>
ch é</w>
Se znam</w>
d cem</w>
č nost</w>
o ku</w>
kó du</w>
ag re
předlo žit</w>
ptá ků</w>
prodlou žení</w>
takov ém</w>
Pa tri
po há
nejlep ších</w>
Mysl í</w>
ni čeho</w>
tio nal</w>
mili ard</w>
brada vky</w>
závaž né</w>
b ního</w>
sest ru</w>
Tu dy</w>
Jas ný</w>
pa s</w>
m ské</w>
hled á</w>
tr hem</w>
záva zek</w>
kategori í</w>
. 11.
vý počet</w>
od padu</w>
odpo čin
závě ry</w>
zá da</w>
vo u
po hledu</w>
r tu
vzdo ry</w>
osob ě</w>
účin ku</w>
smě ru</w>
ji l</w>
g t</w>
vytvá ření</w>
dí tě
di plo
vol ného</w>
minu lý</w>
staro st</w>
metod a</w>
bí lé</w>
ko lek
relevan tní</w>
po znal</w>
za milov
í cí</w>
příprav y</w>
Tak ová</w>
S kla
o šetř
O s
ť ák</w>
z lob
Do hoda</w>
mal o
Vy drž</w>
navští vit</w>
stanoven ým</w>
ekonomi cké</w>
chy stá
oznám í</w>
IC K
ne změ
bo hu</w>
da cí</w>
S ní
E D
regi strov
pocháze jící</w>
š kr
se zná
v le
hou šku</w>
P l
vy chází</w>
st ou</w>
VÁ NÍ</w>
počá tku</w>
dět mi</w>
uveden ém</w>
ri n</w>
zahrani čí</w>
hor ní</w>
výrob a</w>
Ne byla</w>
pod at</w>
řek nete</w>
č ují</w>
hru ba</w>
u vidí</w>
takov ým</w>
š ší</w>
li ce</w>
Rich ar
B E
cen ou</w>
Ne buď</w>
z dá
tva ru</w>
zkušen ostí</w>
výraz ně</w>
tře mi</w>
ší lený</w>
A však</w>
rozdí ly</w>
fon d</w>
mob il
cestov ní</w>
psá no</w>
sran da</w>
k ne</w>
To lik</w>
je zer
ře z
větš inu</w>
Vě děla</w>
žen ská</w>
st ra</w>
boj ím</w>
Hla vně</w>
čist ý</w>
E F
dě si
tr zích</w>
Ze m
pří s
od en
násled ně</w>
káz ali</w>
histori e</w>
plate b</w>
um řít</w>
V sadím</w>
y e
pí šu</w>
posto j</w>
cí tila</w>
ig no
Finan ční</w>
příš er
vyso ká</w>
M ur
er s</w>
u dělej</w>
dan ou</w>
pu su</w>
pr ý</w>
ú tě
dan ém</w>
zač alo</w>
po no
Ra ději</w>
ře š</w>
ry ho</w>
neb e
k ovací</w>
uči telka</w>
je mu</w>
pře vyš
vy zkou
ob y</w>
i di
as o
pad ky</w>
finan čním</w>
In die</w>
val en
je deš</w>
st on
popla tky</w>
komuni kace</w>
k nutí</w>
G ol
sť te</w>
ru šení</w>
razi li</w>
E r
cel kový</w>
la ční</w>
prav ý</w>
mlad ší</w>
rozto ku</w>
stá l</w>
žád á</w>
vla k</w>
smě jí</w>
pl ní</w>
Při šla</w>
pe u
o logi
dotčen ých</w>
roz bi
počíta če</w>
oddí l</w>
otev ře</w>
z přístup
zem ře</w>
l ny</w>
klu b</w>
f í
přeprav u</w>
š eri
ova č</w>
ž ra
jez du</w>
W ash
sty l</w>
Hospod in</w>
rá ku</w>
Ú plně</w>
ci gare
papí rů</w>
speci álně</w>
bod em</w>
d la
využí vat</w>
pla videl</w>
hov ě
přítom nost</w>
fe r</w>
o má
dnu tí</w>
kombin ované</w>
mla dá</w>
v uje</w>
po stav
obvin ění</w>
při dat</w>
plu kov
tá rní</w>
kapitá lových</w>
pří no
nabíd nout</w>
dne me</w>
Ma x</w>
pravid ly</w>
Ko nec</w>
he v</w>
zen á</w>
ne možné</w>
stá nu</w>
ne vztahuje</w>
ti ly</w>
h tt
ne víte</w>
Ch lo
prin ci
roz kaz</w>
p tej</w>
automati cky</w>
CH O
pracov ala</w>
ZV LÁ
F an
T ru
kontak tní</w>
poku s</w>
vý raz</w>
S lo
Z kontrolu
sest ry</w>
de sig
ú ni
ran ce</w>
teč né</w>
fi el
an ém</w>
ur čí</w>
na ším</w>
interne t</w>
Vy so
en s</w>
dá ny</w>
d dy</w>
ZVLÁ ŠT
ne tu
ká vu</w>
struk ce</w>
prav o</w>
uji stit</w>
ná sil
kalhot y</w>
vi s</w>
naštv aná</w>
roz voji</w>
na psat</w>
žen ým</w>
sv ý</w>
O tá
ne sta
ko nat</w>
ru ky</w>
mí ra</w>
tý dně</w>
hospod y
příspě v
je ď</w>
nic méně</w>
použí vající</w>
tr valo</w>
Ne říkej</w>
vzá jem
po chází</w>
S mr
Kapito la</w>
te st
Do m
k no
A S</w>
an ě</w>
men kla
soukro mé</w>
Co koliv</w>
Milu ji</w>
in spi
J seš</w>
vra cí</w>
ná prav
hle dal</w>
to le
ni tro
B O</w>
bá je
Ja kou</w>
vy stri
van ých</w>
no sti
z řej
les k</w>
roz hovor</w>
M au
ga ce</w>
dov e
úz ké</w>
při jdu</w>
ce s</w>
K lid</w>
To m</w>
glob ální</w>
tí cí</w>
t ho
Mi t
hroz né</w>
ex tré
č ující</w>
alkoho lu</w>
pře vážně</w>
kontro la</w>
d lu</w>
tr em</w>
ori zon
o ko</w>
vyplý vající</w>
zo l</w>
úko lů</w>
po bí
že lez
12 34</w>
nabí ze
ne hoda</w>
brá cho</w>
ki e</w>
S tr
8 ,
re di
Ne může</w>
pří čin
há ch</w>
od ol
na pá
Wash ing
M ini
pro saz
kon sta
začlen ě
podí lu</w>
p ó
ch el
vraž da</w>
t ma
z lý</w>
Ani ž</w>
me tri
manže lka</w>
Ale spoň</w>
ste j</w>
Mobi lní</w>
ne vz
Otev ři</w>
závi sí</w>
kdy si</w>
brá nit</w>
pre mi
vzor ek</w>
T he
angli cky</w>
ně nou</w>
na děje</w>
kandi dá
ply nů</w>
opa kov
minu tu</w>
do č
ova ní</w>
F i</w>
za řízen
nej prve</w>
stro j
pá s
methy l
C D</w>
ZVLÁŠT NÍ</w>
zji šť
ka u
detai ly</w>
č okolá
H m</w>
sk lo</w>
společ nou</w>
or a</w>
in tera
g ol
cen á</w>
ře t</w>
po měrně</w>
za mýš
D ot
ho ř
dokumen tů</w>
N ové</w>
ti lo</w>
společen stvím</w>
obje vil</w>
č nou</w>
vá lku</w>
he l</w>
D od
zji stila</w>
no menkla
t ného</w>
U pří
roz lou
zása d</w>
ty pi
míst ních</w>
sta rat</w>
dostup ných</w>
Vi c
Děku jeme</w>
pa má
návště va</w>
u p</w>
dy nami
stře d
saz ba</w>
cel ková</w>
vy klá
bezpečnost ních</w>
fu k</w>
Prav da</w>
kontak t</w>
desá t</w>
rá me</w>
děv če</w>
kom pen
cestu jících</w>
K r
rám ce</w>
zru šuje</w>
hospodář ském</w>
stří let</w>
stře du</w>
z ce</w>
a r</w>
ře těz
po časí</w>
uveden a</w>
mi láčku</w>
vi ď</w>
há dat</w>
Ma rie</w>
skon čit</w>
lá t
ma tce</w>
V II</w>
T ou
Mlu vil</w>
ře č</w>
tře ch</w>
za volal</w>
stá n</w>
lí ch</w>
Ko m
při ta
mo l</w>
mod el
před ví
por t</w>
do jem</w>
č ného</w>
podpo řit</w>
S la
R S</w>
ak tu</w>
ku kuři
Bil ly</w>
podni kům</w>
ma to
prin ce
fi gu
roz dě
le t
U m</w>
uživa telů</w>
vr h</w>
postup ně</w>
dota z
dosta tek</w>
dí vku</w>
kontro l
zna čky</w>
proveden a</w>
Evrop ských</w>
E mily</w>
kře sť
osvob ození</w>
sti mu
e viden
pomá hat</w>
pla ce
na to
du ch</w>
č koliv</w>
muž em</w>
vý let</w>
člen ové</w>
Při j
M é
z íš</w>
ku pu
h ři
z ří
železni ční</w>
Muse la</w>
s my</w>
specifi cké</w>
kyse lina</w>
vy vinu
mi d</w>
pů dy</w>
ck rát</w>
PO Z
nechce te</w>
so n
vy hodno
a tý</w>
y ová</w>
hlu pá
ší ř
pocháze jících</w>
konzul taci</w>
To mmy</w>
d oval</w>
sta vě
po v
Po moz
pro násled
cí sa
Y P
pod .</w>
mě k
chy tit</w>
Red Tube</w>
s dělí</w>
h lin
m ného</w>
eko logi
zá si
uži tí</w>
rozpo ru</w>
připo men
po e
vě tv
použi l</w>
naštv aný</w>
vi e</w>
I F
dě tem</w>
le ž</w>
úč ty</w>
lá tku</w>
kdy koliv</w>
prode ji</w>
Ži vo
pi š</w>
počíta č
idio t</w>
cen ých</w>
Vel ký</w>
zji stili</w>
počíta t</w>
par chan
D un
angli č
ova cím</w>
z le</w>
tel ným</w>
no hou</w>
vystri ky</w>
strá nce</w>
re volu
soudrž nosti</w>
spotřebi tele</w>
A la
mí ň</w>
pří pust
ky slí
me s</w>
ty pů</w>
Fran cii</w>
š ovat</w>
dovolen ou</w>
Mě j</w>
ó z
zapome ň</w>
spotře by</w>
b ám</w>
b ode
konf lik
jist otu</w>
Z mi
Jame s</w>
chod ní</w>
u přes
mobi li
a pod.</w>
Wo w</w>
N ová</w>
fi e</w>
posta rat</w>
poskytnu ta</w>
z ko
pří zni
di e
tu s</w>
ne souhla
Le e</w>
rá ny</w>
U dělala</w>
I U</w>
Š el</w>
umož nit</w>
Pomoz te</w>
počíta či</w>
s plá
ná jem</w>
po krý
pro vede</w>
ka š
oddí le</w>
ně ným</w>
pravide l
li ší</w>
uživa tele</w>
S U
met r</w>
zapomen out</w>
Cí lem</w>
am an
spo l
hotovo sti</w>
Č Í
bu něk</w>
DP H</w>
vra ť</w>
M m</w>
čaro děj
vy jedná
port foli
lu jící</w>
bí š</w>
ře ky</w>
Ch lap
aka de
Pá r</w>
ví ch</w>
bu n
o su</w>
ES VO</w>
ha m</w>
přija tých</w>
kontak tu</w>
tv a</w>
ne v
ra ting
ok ru
zá n</w>
u dělení</w>
ser žan
ob lé
n ci</w>
papí ru</w>
ku cha
dodateč né</w>
kamará dka</w>
y lo
správ u</w>
dru ž
T or
sekre tá
pi to
V zal</w>
modi fi
umístě ní</w>
plat ná</w>
Pus ť</w>
rych lo
vzdělá ní</w>
individu ální</w>
ci oni
Ká mo</w>
západ ní</w>
ti ku</w>
c ro
b ran
F on
vzdálen osti</w>
ne vidím</w>
Je f
š tá
přá teli</w>
B lo
plate bní</w>
o sm
výmě ny</w>
inform ovat</w>
dá no</w>
Z i
Roz umíš</w>
speci ali
kultu rní</w>
CO 2</w>
milu ji</w>
Od chy
hez ky</w>
An y
za r
p in
sou dce</w>
co l
ne če
lid ská</w>
ži jí</w>
ň ské</w>
kla dní</w>
obal u</w>
gene race</w>
osob ám</w>
konstruk ce</w>
jaký ch
sk la</w>
S kon
ni jak</w>
ú mr
sl y</w>
příspě vku</w>
boha t
zpož dění</w>
Potřebu ješ</w>
poskytnu té</w>
Paci en
tov ali</w>
rá lních</w>
meto d</w>
ci zí</w>
stanoven ého</w>
zmí r
Pohy b</w>
zav ést</w>
stře lil</w>
přija l</w>
bo jí</w>
ve dou
hov ory</w>
nepří zni
mr tvo
2 4.
T í
no sit</w>
B ran
restrukturali zace</w>
a ne
Evrop skému</w>
otáz ce</w>
er y
C le
opu stil</w>
komple tní</w>
u si
st ka</w>
nu té</w>
Su b
psá t</w>
prv ků</w>
ostro v</w>
káz alo</w>
ta x
Tak ové</w>
G ab
vnitř ního</w>
mi si</w>
lin g
bode ch</w>
leg ální</w>
poplat ků</w>
L en
ta r
po každé</w>
obyva tel</w>
veče ře</w>
O kamži
zlo čin
r ko</w>
ztra tit</w>
vů le</w>
roz mani
l li
po známky</w>
Z náte</w>
sli b</w>
předsed nictví</w>
pu stí</w>
pracov ního</w>
Sly šíš</w>
lin g</w>
kuchy ni</w>
fan ou
S V</w>
vý šení</w>
šen ství</w>
Za bil</w>
čí mž</w>
ter a</w>
vysokoško lačky</w>
ta jí</w>
a u</w>
na jde</w>
úlo hu</w>
chemi cké</w>
kni ha</w>
D el
zá chod</w>
vol by</w>
sou stavy</w>
br ž</w>
wa y</w>
restau raci</w>
pl ná</w>
bí t</w>
č tí</w>
sklad ování</w>
ob u
znalo sti</w>
boj ov
dlou hý</w>
D re
nežá doucích</w>
léká r
Stre et</w>
Ale x
ne znám</w>
dva cet</w>
vy hle
dáv ce</w>
nej bliž
lož ka</w>
Yor k</w>
těž ko</w>
tep la</w>
pa to
od hali
mo kr
ne slyšel</w>
T vá</w>
těhot enství</w>
urči tou</w>
Tě ž
le se</w>
so r</w>
Ná stroj</w>
klob ou
Bý t</w>
chlap ce</w>
Jmen uji</w>
se j
roz ši
par kovi
návště v
vý slov
kom er
od mí
dvo ká
vzá jemně</w>
ví ce
zná mo</w>
c or
so nová</w>
H ot
C hod
zmize l</w>
prů mysl</w>
htt p</w>
Jen že</w>
HD P</w>
vě řil</w>
kar bo
Ne věděl</w>
le d</w>
Při praven
pí še
u tr
neza jímá</w>
ru ka
kaž te</w>
ří dím</w>
ri s
příspě vky</w>
Po čí
ma tkou</w>
len ím</w>
re akci</w>
ochra na</w>
ver zi</w>
vojen ské</w>
smě si</w>
čas y</w>
rá l</w>
l la</w>
s hody</w>
nevě řím</w>
z vy
I T</w>
přimě řené</w>
pod padky</w>
2 1.
ne ční</w>
Z novu</w>
Vel ké</w>
sly šíš</w>
mimo zem
m s</w>
Ne chal</w>
chytr ý</w>
S ám</w>
svobod u</w>
Z Á
ř ský</w>
Dob a</w>
zna čné</w>
vin e</w>
ká zal</w>
Ne vy
výmě nu</w>
su s
li í</w>
c lo</w>
o su
tov aných</w>
sní dani</w>
mul ti
b ené</w>
záj mů</w>
Pů jdeme</w>
Posla l</w>
vnitř ním</w>
organi z
Poru chy</w>
otev ření</w>
soci álních</w>
ra li</w>
kov ů</w>
m ov
pe vně</w>
r ná</w>
předcho zích</w>
na pad
Ra du</w>
00 000</w>
Pá nové</w>
fak tory</w>
hro ž
naru šení</w>
stří kání</w>
prů vod
dov ých</w>
Man u
tepl oty</w>
profesi oná
j ším</w>
la da
kapitá n</w>
z hruba</w>
zástup ci</w>
Dr žte</w>
dnu tím</w>
dokumen tace</w>
podez ření</w>
c la
va jícího</w>
vý pově
přije l</w>
John ny</w>
hu jících</w>
ó za</w>
o po
fyzi cké</w>
Mi ke</w>
pr sty</w>
u rych
mě nit</w>
Ote c</w>
m ými</w>
hr dina</w>
ř ou</w>
Za pomeň</w>
če l</w>
ved lejší</w>
kov aný</w>
U chová
la te
ú myslu</w>
od ob
Bu ďte</w>
ukra dl</w>
c ag
ř ská</w>
Pro fe
Pravděpodob ně</w>
zná sil
pra vil</w>
Pří mo</w>
van á</w>
spa l</w>
předlo žení</w>
bo n
za va
pí ch
ná me</w>
Vě k</w>
S í
va ši
tz v.</w>
Ameri ce</w>
nabíd ka</w>
úpl né</w>
vyváže jící</w>
s pla
dva cá
člen em</w>
sta va</w>
pu sť</w>
mý ho</w>
pot kal</w>
K e</w>
hodno tou</w>
Čty ři</w>
vej ce</w>
re aliz
da n</w>
existen ci</w>
brá ní</w>
- Tak</w>
pod é
častě ji</w>
okamži k</w>
dá vek</w>
při družení</w>
kom ponen
u n</w>
o proti</w>
spr cha</w>
Ne měli</w>
tr v
in tra
J or
tan u</w>
dí v
po sed
po mohla</w>
prode jní</w>
IN FOR
ww w
kte ch</w>
každ ému</w>
vo zí
stej ného</w>
me j
ny ho</w>
Nen a
b ovat</w>
souhr n
Ně jaký</w>
náhra d</w>
js eš</w>
podob ně</w>
nes li</w>
úvě rů</w>
ně která</w>
Afri ce</w>
cho ro
kre sl
elektro nické</w>
ne měly</w>
Ú daje</w>
y s</w>
sil nější</w>
Pro toko
splň ovat</w>
Bo ok
ze l</w>
vlá dní</w>
lin ky</w>
krá st</w>
ř ovat</w>
mí r</w>
f lo
sti lo</w>
Mo ment</w>
va je
b lou
škod a</w>
A ra
pří da
Ti cho</w>
m ku</w>
tvr dě</w>
vy slech
profe sor
zách ran
nech ali</w>
O to
pra xi</w>
ši r
s pí</w>
Je ži
že b
strá nka</w>
mini má
po žeh
neza hr
kvali tu</w>
význam ný</w>
ko m</w>
h rob
odpoví dají</w>
moto ry</w>
kombina ce</w>
koord in
do předu</w>
B ren
nej důležitější</w>
má mě</w>
tu ji</w>
la jí</w>
odstra nit</w>
za dku</w>
ro stou
D B</w>
konferen ce</w>
dů chod
š ných</w>
stá h
má č
set kat</w>
opě tov
správ ce</w>
lo ž</w>
š ar
ozna m
hor e
zi ma</w>
ží cí</w>
předse dy</w>
c an</w>
CI A</w>
plán ování</w>
me zení</w>
neu ro
oči ma</w>
NO ST</w>
pře mí
úvě rové</w>
přijí mání</w>
čerst vé</w>
přesvěd čit</w>
slou pci</w>
ri a</w>
su šen
její ž</w>
soli da
v ené</w>
H el
sly ší</w>
vzni ku</w>
so li</w>
ci den
C Í</w>
pova hy</w>
zúčast něné</w>
hud bu</w>
al fa</w>
od pad</w>
An g
pro běh
poslou chejte</w>
ode slá
dokon čit</w>
st rop
ný brž</w>
ško lní</w>
čer né</w>
kamará de</w>
ú lov
nov a</w>
ztrá ta</w>
nabíd kového</w>
sto p</w>
bí lý</w>
z řízení</w>
to ne</w>
obě ma</w>
pr sten</w>
pokro k</w>
kvó t</w>
DA JE</w>
Fran z</w>
obě hu</w>
nů ž</w>
ři ly</w>
zajišť uje</w>
pra ven</w>
poko jů</w>
civi li
h ř
Ne tu
Af ghá
zi sku</w>
přin ést</w>
dve ř
di um</w>
S tří
Ne w
drže li</w>
Opa trně</w>
INFOR MA
d r</w>
dá na</w>
ce mbur
rám c
Španěl sko</w>
vy lé
ob ý
B lu
klini cké</w>
po hlaví</w>
pod odstavce</w>
K am
u vidím</w>
o p
G or
Be e
Po mo
lep šího</w>
před běž
ban ce</w>
hemo glob
červ ené</w>
dia be
přij deš</w>
dokumen tu</w>
uzná ní</w>
V III</w>
mi zer
dov ané</w>
ti sk</w>
hy gi
razi la</w>
i s
sa teli
re vi
M org
di k
Něme cku</w>
dne š
sti cká</w>
cen ím</w>
6 0
šle te</w>
um řel</w>
d ni
Se verní</w>
spravedl nosti</w>
z kontrolovat</w>
člán cích</w>
kdo koliv</w>
ale rgi
de ch
ne h
pro vedl</w>
kri min
G al
Sou dního</w>
Dí k</w>
zač neme</w>
sí ch</w>
efek tivní</w>
od rů
sil ná</w>
Ne smí
po měru</w>
a tri
st ný</w>
opa kovat</w>
náhra du</w>
to stí</w>
pří kaz</w>
ze ch</w>
daň ové</w>
Kaž dopádně</w>
vy hnout</w>
Vez měte</w>
zá sob</w>
polo žek</w>
uvě domí</w>
tradi ční</w>
A tlan
při šlo</w>
ka ra
tří dě</w>
Mo j
Any Sex</w>
O u</w>
pama tovat</w>
bra li</w>
8 0
u vede</w>
ti to</w>
pi z
for em</w>
pacien t</w>
nech á</w>
podpo r</w>
cí r
zvě da
ustanoven ími</w>
bazé n</w>
za řízením</w>
svat bu</w>
nej nov
mp to
zá ha
u vidíš</w>
li b
chá zíme</w>
č kách</w>
zpí vat</w>
požadav kům</w>
ná dra
návr hů</w>
Davi de</w>
tlačí tko</w>
při znat</w>
a ce
Organi zace</w>
te bní</w>
nov iny</w>
dov ou</w>
přijíma t</w>
míst nost</w>
ru je</w>
K lid
pi lot
Cla ire</w>
Ten tokrát</w>
lo kali
lhá t</w>
doporu čuje</w>
ve l</w>
ZE V</w>
Živo t</w>
be th</w>
te pel
ú spo
ochran né</w>
c ca</w>
nějak ým</w>
Bel gie</w>
sou těž
opráv nění</w>
každ ým</w>
Egy p
Georg i</w>
východ ní</w>
199 0</w>
odpo čí
Z ní</w>
NÁ ZEV</w>
H il
pra š
li st</w>
chodi dla</w>
mi len
Pho ne</w>
vzpomí nám</w>
c al</w>
k é
příj mu</w>
An nie</w>
ho mo
využí vají</w>
Ne za
muse lo</w>
hvěz dy</w>
Po d</w>
ři n</w>
pan en
před ná
krvá cení</w>
for m
z bývá</w>
roz umění</w>
růz nými</w>
vy lu
ga y</w>
dcer y</w>
v nu
I .
Chtě jí</w>
H un
komuni ka
Shemale Tube</w>
A ShemaleTube</w>
tá pě
po li</w>
l la
ta nec</w>
ze c</w>
sk i</w>
d lí</w>
archi tek
Krá lov
dí cího</w>
ur čen</w>
mini málně</w>
ina ce</w>
úče l</w>
ter é
j o
Pra ha</w>
C ho
ú va
vy ma
tera pii</w>
ja d
v ště
ptá t</w>
Řek li</w>
st né</w>
pt ala</w>
zkou šek</w>
vy hlá
zru šit</w>
pravo moc</w>
metod i
sti ckých</w>
Pla t
lož te</w>
Sna žil</w>
Bo j
o st
Nen á
pře v
f ur
Ma dam</w>
připomí ná</w>
Ne vadí</w>
strá nek</w>
sob otu</w>
ch ý
u ví
Be n</w>
spotřebi telů</w>
vy poč
D ala</w>
po vi
nov iná
U tí
vola li</w>
tab let</w>
maxi má
na tá
maje tek</w>
stej ném</w>
Z pátky</w>
Sh el
ni cký</w>
jin y</w>
vý voji</w>
pro ro
počá teční</w>
re ziden
Podob né</w>
licen cí</w>
ozna mu
hled anou</w>
žá r
pře skočit</w>
sto n</w>
le té</w>
povolen o</w>
pe vné</w>
R T
účast ní</w>
cele bri
y š
ne funguje</w>
ukáz alo</w>
Po ku
protoko l</w>
chod il</w>
Lou i
obnov i
rejstří ku</w>
ar e</w>
vyjád řit</w>
u zaví
Vez me
Pe tere</w>
zatí žení</w>
spo ji
Tá mhle</w>
su k
ohro ž
O všem</w>
Ju lie</w>
K li
cu s</w>
On line</w>
N an
M už</w>
ne obvyk
fil my</w>
a dvoká
od u</w>
kr k</w>
ob jas
vybra l</w>
vy řa
ná t</w>
H roz
způsobi lé</w>
hospody ňky</w>
úto ku</w>
k vě
O P
s ná</w>
le že
struktu ry</w>
kry tí</w>
vak u
Kdy bys</w>
nen aj
NE BO</w>
Po sky
vzá jemné</w>
provádě jí</w>
ší lené</w>
vz pomen
vů dce</w>
d ing</w>
Z ni
Dom ní
těž ší</w>
oti sky</w>
Chi cag
žá dal</w>
Čá st</w>
učin il</w>
ofici ální</w>
souvi sí</w>
u kaz
za jít</w>
ci oná
zmr z
gra f
cast ing</w>
fi kace</w>
ch ala</w>
vin u</w>
ulo žení</w>
přihlé dnutím</w>
býval ý</w>
San ta</w>
pacien ty</w>
ci on
zaslou ží</w>
ovan ém</w>
do klady</w>
informu je</w>
cvi čení</w>
M Í
10 0
ve le
ná ma</w>
nějak ej</w>
u de
tvá ře</w>
kre s
d vi
ře me</w>
-------- --------
zů stala</w>
tepl otě</w>
auto mobi
Ben e</w>
strá nku</w>
mo st</w>
elektroni ckých</w>
existen ce</w>
vysky t
důvě ru</w>
ř ského</w>
zalo žena</w>
ro dním</w>
rezerva ci</w>
Ste j
rost liny</w>
ozbro jen
Ž e
me xi
provádě cích</w>
pod pů
zlo men
pa rá
dra hý</w>
jist ě
výsky tu</w>
nor málně</w>
di ce</w>
špat ná</w>
u kazují</w>
soustře dit</w>
199 1</w>
J deš</w>
Moh lo</w>
W el
kri zi</w>
ne věděla</w>
úprav a</w>
Ví tej</w>
Jmé no</w>
r .</w>
živ é</w>
spor t</w>
souhla s</w>
vši ml</w>
p tejte</w>
no uz
formá ty</w>
t ha
d ge</w>
ne moci</w>
Výrob a</w>
va č</w>
sta vi
byd lí</w>
rozpoč tový</w>
mako kine
Afghá ni
Á L
brá ny</w>
rovno cen
de tek
gas se</w>
proká zat</w>
b la</w>
tvá ří</w>
žen ý
návště vu</w>
en ce</w>
stu jí</w>
obtí žné</w>
ho sty</w>
Ob čas</w>
ra j
Č NÍ</w>
tlu stý</w>
pře lo
j ar
z ti
vrá tíš</w>
pi n</w>
Klid ně</w>
pon dělí</w>
I TEL
M S</w>
Jedin ý</w>
C am
zlo čin</w>
v liv
Ne jde</w>
ná sle
Je deme</w>
dře va</w>
F la
ide ální</w>
4 14</w>
be ze</w>
ali zaci</w>
stou pil</w>
o le
ově řování</w>
Pe ter</w>
č ům</w>
stá r
nahra zují</w>
posla li</w>
Bob by</w>
še la</w>
od kazy</w>
eu r</w>
vod ách</w>
po st</w>
kou s
d nice</w>
Ne chtěla</w>
žada tel</w>
vyža dují</w>
vez mi</w>
pří stavu</w>
ra dio
ga le
pro stitu
lí cí</w>
utek l</w>
f ron
Dá me</w>
producen tů</w>
úře dní</w>
přeprav y</w>
D er
ali for
vy h
šen ou</w>
kdy koli</w>
probí há</w>
lu m
evrop ský</w>
Ma y
p sy</w>
nevě ra</w>
mi gra
le te</w>
Ed die</w>
po ps
rod inou</w>
Ne jsme</w>
naši m</w>
na zna
o c
je tí</w>
T obě</w>
Mu l
ob jedná
inzulí nu</w>
občan y</w>
Sou dní</w>
mlad é</w>
důsled ky</w>
y l
Ú žas
práv ník</w>
E I
poč kejte</w>
pravid lo</w>
he le</w>
posled ního</w>
stej ným</w>
po vzbu
Ně jaké</w>
Čí na</w>
mal ého</w>
zvá žit</w>
O ch</w>
národ ů</w>
zma ten
z al
lov odí
2 -</w>
. 6.
dě de
as y</w>
par ty</w>
10 8</w>
způsob u</w>
nádra ží</w>
Há dám</w>
Do kon
zjiště no</w>
hod ná</w>
specifi kace</w>
Ho stel</w>
šk ody</w>
vypad nout</w>
obec ná</w>
du ší</w>
E B
An dy</w>
ch ý</w>
pí te</w>
a ch</w>
proveden y</w>
zá kaz</w>
star ých</w>
před nost</w>
Jo na
Ir sko</w>
v čer
gra mů</w>
stou pen
použi té</w>
In stan
politi ce</w>
h el
mlad ých</w>
za úto
stri pty
opa ku
integ rov
příbu z
elektř iny</w>
stripty z</w>
smr tí</w>
zna k</w>
Fran couz
ves nice</w>
prav ou</w>
cho ď</w>
Uchová vejte</w>
vrá tíme</w>
T ar
web ové</w>
su ng</w>
7 0
l ování</w>
do hlí
propi chování</w>
Mě sí
sk vr
rů ž
prů měr</w>
ha jící</w>
vzor ky</w>
hypo gly
Minist er
no n</w>
zi sk</w>
ok no</w>
m ných</w>
Ob la
hud ba</w>
vnitrostá tními</w>
minu lost</w>
Je ď</w>
vrá tili</w>
tov ní</w>
úda j
ne mohli</w>
při nesl</w>
ve se
t ský</w>
dů kla
dlou há</w>
Chtě li</w>
ma na</w>
ví tě
vý sle
Ho s
při blí
E X
techni ky</w>
kon tra
hov ané</w>
prohlí že
rych lejší</w>
obnov ení</w>
cha ri
Pří pravek</w>
pá n</w>
Nesná ším</w>
Na u
ta h</w>
profesi onální</w>
a do
ti sku</w>
bankov ní</w>
Pau l</w>
vě ř</w>
sna žila</w>
pou š
nemoc ný</w>
vnitrostá tním</w>
zaká zek</w>
H z</w>
ji st</w>
s otva</w>
per a</w>
Lu cembur
ho ši</w>
R en
sled uje</w>
pře žití</w>
sm ů</w>
h ování</w>
kur z</w>
Ž E</w>
Stan dar
o li
na je</w>
U vědo
hra nici</w>
hotovo st</w>
Š ť
fran cou
vhod ný</w>
u tí</w>
po le
požadav cích</w>
Člově k</w>
új my</w>
qu i
In ve
poste l</w>
po znám
vra ha</w>
8 5
dro g</w>
š tina</w>
l hal</w>
Člen ský</w>
z ující</w>
kaž do
regula ční</w>
Britá nie</w>
bi la</w>
lu x
Zá vě
plat ných</w>
náleži tě</w>
Ma c
č ten
zása dě</w>
očeká vá</w>
et na
sí te</w>
uká že</w>
ne t
kvali tní</w>
V ši
u vidíte</w>
ck em</w>
Dá š</w>
mimo řá
l ník</w>
u pravit</w>
dov ě
e la</w>
vz dát</w>
vol no</w>
Le p
Kter ý</w>
ú hra
ó nu</w>
dobr ých</w>
vývoz ních</w>
nejlep ším</w>
dá r
výhod u</w>
pořa dí</w>
il li
do stanou</w>
b b
představ ení</w>
hvě zda</w>
dostup ná</w>
dé lka</w>
jednot li
bá zi</w>
večí rek</w>
rozhod ování</w>
ga s</w>
cí títe</w>
či ly</w>
ben zí
získ ala</w>
pla v
ov lada
podsta tné</w>
kar tu</w>
dra houšku</w>
St alo</w>
vstou pit</w>
oteví rat</w>
euro pa
Od po
č ovat</w>
dese ti
vra že
zázna mů</w>
sen á
prob le
výsled kem</w>
Ve šker
telefon ní</w>
sus pen
roz lo
cí li</w>
Předpoklá dám</w>
ex hibi
au tem</w>
K al
zvyš uje</w>
politi ckých</w>
Nov inky</w>
v ná</w>
p i</w>
překva pen
vypa dají</w>
vy lep
tam tud</w>
di ly</w>
vysí la
finan cí</w>
bili ty</w>
kó dů</w>
dopro vá
cen o</w>
Upří mně</w>
z kra
c z</w>
sta neš</w>
soubor y</w>
vyš ším</w>
A ri
mod lit
mo tor</w>
ko mentá
Prá vní</w>
t l</w>
Vy tvo
T ý
na stav
am bi
U děláme</w>
Za pla
T A</w>
léči vé</w>
in ciden
Hle dám</w>
sta vní</w>
procen t</w>
iniciati vy</w>
gen ní</w>
ha ma</w>
elek trá
In stitu
š ke
zprac ová
s .
lékař ské</w>
zd rá
mal ým</w>
dlu ho
ch ar
pro zkou
zna jí</w>
T R
mezinárod ního</w>
sé rie</w>
pek la</w>
me d</w>
trans akcí</w>
abso l
t inu</w>
sniž ování</w>
18 0</w>
regi stru</w>
z lo</w>
při nejmenším</w>
změ nila</w>
ob le
lhů ta</w>
S píš</w>
16 0</w>
ot ro
ch ová</w>
umě le
blázni l</w>
Mi ke
zásob y</w>
Vy svět
přezku m</w>
bud ování</w>
Chá peš</w>
3 5
no hu</w>
drž ím</w>
uplat nění</w>
obchod ě</w>
ku tá
Č i
přiná ší</w>
p. m.</w>
sch rá
Sli buju</w>
jí címu</w>
Obsa h</w>
Ban k</w>
pravo mocí</w>
na ději</w>
sly šení</w>
uh lovodí
kre té
G er
s my
ta tí
od větv
pokle s</w>
Všech na</w>
Zna mená</w>
tr ů</w>
pra xe</w>
odpoví dat</w>
rybo lov</w>
ex per
plo chy</w>
tra li
mě j</w>
ener gi
vy hod
ti da</w>
o mluvit</w>
m ová</w>
po hovor</w>
B á
úh el
vy volá
e mi</w>
pozmě ň
posle dním</w>
u vedl</w>
O bě
po chop
leta del</w>
peč livě</w>
pa uš
ova tel
ná ra
Ra y
stře dních</w>
prac ují</w>
i c</w>
zá tě
konkré tně</w>
podob ných</w>
komuni kační</w>
i le</w>
Vi děli</w>
F u
ve ď</w>
Pus ťte</w>
bu m</w>
zaměstna va
stupe ň</w>
vy plá
Po ko
kou ření</w>
ova če</w>
Souhla sím</w>
skr ze</w>
U R
ko st
roz pouště
přísluš ná</w>
cit li
č tu</w>
očeká vat</w>
vi zi
televi ze</w>
Mno ho</w>
pa u
vy bu
pří bě
přátel ství</w>
l kov
ovan ými</w>
- Jak</w>
z prá
v ů</w>
ro ste</w>
dá val</w>
š nou</w>
a korát</w>
šen o</w>
sku tku</w>
polož ce</w>
iden ti
Za chrá
stanoven ou</w>
udá lostí</w>
ká men</w>
kaz em</w>
ci n</w>
bra la</w>
ovliv nit</w>
injek ci</w>
P řá
č lu
mě ři
ast é</w>
strá vit</w>
pro chá
Potře b
ob jed
stá lo</w>
ka pal
smě s</w>
Ho nem</w>
čty ři
A si
šam pi
vi ru</w>
ří ch</w>
pro to
le jí</w>
tera peu
při dě
ci r
vě c
ne rozumím</w>
cti on
G race</w>
D ří
tva r</w>
Go og
přezkou mání</w>
tu ku</w>
rozsu dek</w>
pří jem</w>
pěk ná</w>
dnu l</w>
zi l</w>
zd vi
V lá
le li</w>
zaměstnan ost</w>
tv ý</w>
mi ne
úžas ná</w>
va rování</w>
potřeb ovala</w>
Au strá
mo r</w>
in spek
občan ské</w>
Ru s
F il
l ži</w>
injek ce</w>
van ou</w>
samo tě</w>
obliče je</w>
vý lu
pro py
o mlu
ně mky</w>
samosta tně</w>
Pře sto</w>
Pod mí
Obe c
pos lu
dr ink</w>
Se dni</w>
Na šla</w>
sa mý</w>
pou ští</w>
podrob nosti</w>
j ó
sportov ní</w>
hroz ný</w>
en zy
moř ské</w>
mě ří
slo žek</w>
H T
Sou čas
příspěv ků</w>
krátk odob
BA L
miliar dy</w>
ředi tele</w>
sed mi</w>
zapo jen
pi šte</w>
d na</w>
Pe te</w>
kra t
pu sťte</w>
charakteri sti
rov ala</w>
Vý še</w>
a .</w>
A .</w>
auto ri
poza dí</w>
Ali ce</w>
kilo metrů</w>
doč kat</w>
prav di
SL O</w>
Je dn
cyk lu</w>
ov ej</w>
u čení</w>
min u</w>
v ší</w>
Syst ém</w>
přísa hám</w>
Š pa
De tekti
ter ý</w>
omez ené</w>
stou pí</w>
vy či
vezme š</w>
O či
C ana
tři krát</w>
ž ší</w>
ban g</w>
měsí ční</w>
popla tek</w>
I sa
tu ře</w>
en gen
ž ních</w>
či na</w>
S ho
ne moc</w>
mrtv é</w>
vý chod</w>
exhibi cioni
upří mný</w>
restrukturali zaci</w>
po vede</w>
dlouhodob é</w>
zepta l</w>
ovlá dání</w>
lov ané</w>
le c
zřej mé</w>
H a</w>
sklá dá</w>
ek vi
Provoz ovatel</w>
je den
Mi ku</w>
J í
Hos podář
vak cí
podmín kami</w>
me dvě
Ki m</w>
ne myslíš</w>
lá hev</w>
hist or
potravin á
po c
Žá dost</w>
propu ště
po byt</w>
částe k</w>
poda ří</w>
g au
zr zky</w>
umož ňují</w>
ře či</w>
obchod ním</w>
uká žu</w>
dospě lých</w>
na mí
zůsta ň</w>
přítom nosti</w>
pracov ali</w>
b ním</w>
na znač
nahra dit</w>
ab sor
a trak
kultu ry</w>
ali ty</w>
d ra</w>
Dě lá</w>
slí bil</w>
le ku
Ú řad</w>
autobu s</w>
doty čné</w>
Ni cku</w>
kó dy</w>
ob vi
skuteč ná</w>
vzta hů</w>
vol né</w>
san kce</w>
příslu šenství</w>
dů chodu</w>
tý dne</w>
osa mě
L .
nov ém</w>
INFORMA CE</w>
dodá vek</w>
cel kovou</w>
kapito la</w>
chá peš</w>
nedosta tek</w>
jak á
vy jad
tomu hle</w>
ma pu</w>
čas opi
A u</w>
Fran k</w>
C re
souhla sím</w>
rov a</w>
oprav y</w>
Mě lo</w>
tá tou</w>
13 6</w>
kom promi
do my</w>
inspe kto
rozhod li</w>
lo g
Ta ylo
Zů staňte</w>
M en
ča n</w>
vzdálen ost</w>
ma ri
rá n</w>
poč tem</w>
Šť ast
zd an
Ja c
vy dava
vý hled</w>
J ist
d ly</w>
cháze l</w>
ven ti
schop ný</w>
S C
zá vod</w>
n ko</w>
m koli</w>
s s
1 10</w>
hlav ního</w>
pa ro
con stru
zna ků</w>
vytvá ří</w>
slo ž
li be
Te be</w>
ob lo
chla pí
obrov ské</w>
úprav ě</w>
znamen alo</w>
Zí sk
De n</w>
detekti v</w>
interne tových</w>
půj čky</w>
ver si
t ala</w>
k nu</w>
in ám</w>
Val en
slou čen
mati cká</w>
pá na</w>
případ né</w>
po zdra
Kontro lní</w>
používan ých</w>
n ných</w>
I D
pode ps
vlast ností</w>
obra ny</w>
nes chop
šet řit</w>
podlé hají</w>
syn te
se stav
obyva tel
h orizon
vaz ky</w>
pravid lech</w>
chlá pka</w>
ameri ckých</w>
interne tové</w>
jek t</w>
Cli ps</w>
ne dává</w>
sta čit</w>
E L
čí ho</w>
st ím</w>
d d
š vi
reag ovat</w>
Řek něme</w>
pří ru
ně hož</w>
jedin ým</w>
ve čer
ho telů</w>
ČÍ SLO</w>
ne udělala</w>
nabí dek</w>
jmen ování</w>
Ji me</w>
upří mně</w>
jin dy</w>
milo sr
legra ci</w>
š ká
Č ist
zavraž dě
zatracen ě</w>
er y</w>
G ru
e le</w>
zakáz ky</w>
ot če</w>
vy pu
přítel kyni</w>
be rou</w>
získ ali</w>
stí me</w>
dosa h</w>
leti šti</w>
Ky le</w>
mysl íme</w>
vy dal</w>
z ovaných</w>
pa ne
koordina ci</w>
uplat ňovat</w>
mo ne</w>
SK O</w>
m raz
tě ší</w>
úvě ry</w>
pi na</w>
zem ím</w>
od hod
mrt vej</w>
přípo nu</w>
pře mě
oh roz
do sti</w>
ak ční</w>
Lu cy</w>
dal y</w>
D V
za jí
ro hu</w>
in žený
ova tele</w>
v lou
zvláš tním</w>
na je
jedin ě</w>
mb H</w>
Hla s
tu ru</w>
pen zi
francou zky</w>
dokon čení</w>
Ru ce</w>
ozna čování</w>
japo nské</w>
vte řin</w>
konzul tace</w>
za volej</w>
společ ným</w>
dů kazů</w>
veteriná rních</w>
uni í</w>
rezidu í</w>
poz nala</w>
tab le
Pou žití</w>
Pomo z</w>
zvý hod
myš lení</w>
bě r</w>
Ce lou</w>
ge o
dře vě
di aman
osob ou</w>
Par k</w>
jin ému</w>
hlé dnout</w>
prakti cky</w>
hemoglob inu</w>
Pokrač uj</w>
žá dat</w>
moder ni
pl ý
doká žeš</w>
Za hra
vla ku</w>
stup ňů</w>
b ot
výrob ních</w>
do padu</w>
á ny</w>
druh ým</w>
W ol
ztra tila</w>
jin ýho</w>
pro jedná
J Í
ji ní</w>
vod o
de sky</w>
de te
ji la</w>
mu m</w>
ná kup
mimo chodem</w>
b ení</w>
žele za</w>
pře stal</w>
Sku teč
Co s</w>
kov aná</w>
ome zit</w>
účin kem</w>
jednodu šší</w>
Su san</w>
Sam sung</w>
sta bilní</w>
muze um</w>
cho rob
sta čilo</w>
vla sů</w>
a zi
S ti
diag nosti
M el
vě k</w>
přes né</w>
ň uji</w>
čtvr ti</w>
věde cké</w>
exhibicioni sti</w>
Pěk ný</w>
měsí cích</w>
e ta
Cel á</w>
z ové</w>
líbi la</w>
náku p</w>
aktu ální</w>
su ro
sto po
bar vu</w>
Skla pni</w>
posla la</w>
sleč na</w>
roz va
a re
le si</w>
stře l</w>
pol da</w>
po tre
Me t
zou fal
constru ction
cestu jící</w>
N ád
čen ou</w>
ú mysl
construction .com</w>
pre feren
přispě t</w>
ce lej</w>
považ ovány</w>
Rov něž</w>
N Á</w>
Bee g</w>
pi í</w>
ná ladu</w>
ba bek</w>
dědi ctví</w>
še st
mou dr
G la
Vět š
záchra nu</w>
liv ých</w>
Před se
ru kama</w>
odstav cem</w>
Stá tní</w>
euroz óny</w>
Cel ková</w>
ve ro
úřa dy</w>
změ něna</w>
průmysl ové</w>
pi tom
živoči šného</w>
Š k
rov né</w>
h no
přemýš lel</w>
š rou
la li</w>
roz ru
při jímá</w>
by tě</w>
u e</w>
D C</w>
do stalo</w>
Ob vyk
se zení</w>
prav á</w>
o ka</w>
Z řejmě</w>
Ve liko
ví ru</w>
k van
žá dám</w>
Ro se</w>
ou r</w>
á š</w>
chiru r
jist oty</w>
An to
úprav u</w>
plavid ly</w>
mu čení</w>
chemi ckých</w>
A L</w>
Slov in
s me
dokumen taci</w>
zen ého</w>
průměr né</w>
Ber u</w>
se verní</w>
slov en
ocen ění</w>
va dilo</w>
poža dovat</w>
N KY</w>
20 .
Čí ny</w>
léka ři</w>
B l
polov inu</w>
řetě zec</w>
sko tu</w>
poh ád
odmě nu</w>
z odpovědnost</w>
ží vání</w>
J E
p té
mobi lní</w>
Za volejte</w>
S t</w>
veli tel</w>
ně mi</w>
plá ži</w>
re t</w>
ce ti</w>
zá dy</w>
sex u</w>
Ne věřím</w>
zkou ška</w>
připraven a</w>
kri ti
vzta hující</w>
vz ruš
t han</w>
licen ci</w>
tr pí</w>
ozná meno</w>
ko pie</w>
běž te</w>
Cel é</w>
zu ji</w>
ú smě
Č asté</w>
Mo ji</w>
jmen uješ</w>
Veli čen
Ty p</w>
S pou
so l
námě stí</w>
závaz ku</w>
vyjád ření</w>
přá t</w>
pracov níky</w>
bu ňky</w>
3 2
or em</w>
práv ním</w>
Ra dou</w>
trv ale</w>
správ ních</w>
zach ovat</w>
potenci ál</w>
působ ení</w>
G mbH</w>
exist ovat</w>
1, 5</w>
význa mně</w>
Michae le</w>
bou ch
Le o
přija té</w>
limi ty</w>
f fi
suk ně</w>
obchod ního</w>
Dou f
píse ň</w>
S mě
Itá lii</w>
s hr
ho ď</w>
Pau š
zúčast něných</w>
republi kou</w>
ved lej
ško lení</w>
ku jí</w>
bi li</w>
z rych
tá tovi</w>
do v</w>
PR Á
va jícím</w>
mo mentálně</w>
Potřebu je</w>
taj né</w>
od tamtud</w>
Prob lém</w>
spo jit</w>
uh lí</w>
sled oval</w>
vo li
bali t</w>
vy hodit</w>
Pauš ální</w>
mu zi
in du
zalo žené</w>
chlo r
Ú DAJE</w>
nádher né</w>
sto le</w>
původ ně</w>
Jen ny</w>
................ ................
vy berte</w>
ká vy</w>
8 4
úč tů</w>
l ůž
Lep ší</w>
spl nit</w>
na pravit</w>
ther ine</w>
sk ů</w>
Z ak
c é
Úče tní</w>
zač nou</w>
zasta vil</w>
odpo vědět</w>
bez platné</w>
soukro mého</w>
Po žada
rost l</w>
li s
le hnout</w>
n skou</w>
kámo š</w>
oči vidně</w>
na cházejí</w>
sty ku</w>
sklen ě
cel ního</w>
Mé ně</w>
I den
ukon čit</w>
jí dlu</w>
dá ma</w>
výbor em</w>
vy stra
g g
statu s</w>
pře tr
Ru sko</w>
kontak tujte</w>
c vo
výsled ku</w>
řen ou</w>
th an
sty lu</w>
roz kazy</w>
pře stá
podá vat</w>
p ala</w>
un g
ne myslel</w>
sé ri
bar va</w>
použi ta</w>
oh lá
m aliz
da y</w>
cest ování</w>
vi ta
or gie</w>
Po spě
to ku</w>
ra mi</w>
kalendá ř
jako žto</w>
Dovo lte</w>
lí ky</w>
d ců</w>
slou žit</w>
analý za</w>
Ab by</w>
posky tu
p h</w>
lym pi
Z O
formá tu</w>
ch le
ce st</w>
s ve
hloup ý</w>
při padá</w>
di vně</w>
Pacien ti</w>
uvědo mil</w>
Odchy lně</w>
certifi ká
Stá lého</w>
sí ti</w>
vlá du</w>
posta rám</w>
neza pomen
ko le</w>
cel ku</w>
žá doucí</w>
spravedl nost</w>
ga rá
D oda
spo lé
š kou</w>
vezme me</w>
vypad alo</w>
2 2.
kon soli
Ameri ky</w>
stra nám</w>
prozatím ního</w>
ma x</w>
bi tv
plá nu
bri tky</w>
Po známka</w>
práv u</w>
pa tří
ně čemu</w>
le r
letě t</w>
j šího</w>
roz dělen
rodi čů</w>
la k
C N
mode lu</w>
hle dáme</w>
inova ce</w>
dá ním</w>
pa nem</w>
to ale
opatr ný</w>
Zku ste</w>
stov ky</w>
z mra
předpo kládá</w>
e uro</w>
a zy
ni n</w>
3 9
roz hraní</w>
ma py</w>
ma ďar
w al
armá dy</w>
bra m
pozo rova
hy dra
Da ve</w>
li ber</w>
tlou šť
obrov ský</w>
byd li
P y
kapaci ta</w>
U by
vy nalo
se miná
I m
rý že</w>
šen y</w>
kon ta
Je ssi
ma lej</w>
pora denství</w>
předlo žila</w>
zapo mněla</w>
skuteč ností</w>
Evrop u</w>
Š í
va ce</w>
s ani
pal á
a tom
nu tý</w>
jistě te</w>
k vá
sekretá řka</w>
mechani smus</w>
J an
w an
na prost
ptá š</w>
nej te</w>
Ne mohla</w>
N E</w>
An dro
Pěk ně</w>
ba star
akci í</w>
zav řít</w>
pro vá
t ského</w>
spotře bě</w>
psá na</w>
žádn ého</w>
vý ko
uvě řili</w>
o nech</w>
P L
uply nutí</w>
v sa
te stů</w>
C ri
ak ty</w>
H O
ci ální</w>
dveř mi</w>
ni koliv</w>
dru žství</w>
řád né</w>
Fe de
pře hled</w>
W ho
k ř
i dní</w>
změ nilo</w>
hod inky</w>
fot bal
sy mpto
oh ni
por tá
ově řit</w>
od jet</w>
pís men
l kou</w>
tře jší</w>
gi cké</w>
len ých</w>
má lem</w>
d ské</w>
poža duje</w>
gu a
Su per
lid ského</w>
Je dno</w>
tran zi
le gen
řidi če</w>
y er</w>
ob dr
zákaz níky</w>
přísluš nému</w>
le v
K ir
Pe ro
mili on</w>
demokra cie</w>
3 8
sk i
o ře
má mou</w>
re produk
ob držela</w>
lé mu</w>
Re be
nedo šlo</w>
ku rá
ó nů</w>
d ními</w>
st ře</w>
hod in
obchod y</w>
Nebo jte</w>
č nímu</w>
ru m</w>
roz ko
pře h
Nech ám</w>
třetí mi</w>
odpově dný</w>
Ma xi</w>
hor y</w>
dce řin
F ot
vi ci</w>
povo lit</w>
m ka</w>
lu s</w>
S v
u rá
úrov ní</w>
de le
odbor níků</w>
nu tná</w>
lou pe
léči vých</w>
sna žíš</w>
p á</w>
Te hdy</w>
dov a</w>
na jdeš</w>
dě cka</w>
A U
S ty
získ aných</w>
Mlu vím</w>
T AR
t ská</w>
n ského</w>
O brá
stra ce</w>
té ma
pust ím</w>
Zá kladní</w>
Kel ly</w>
řek nou</w>
zá pis</w>
Jedin é</w>
ter min
sed nout</w>
p nout</w>
S em</w>
mlad ýma</w>
sti n</w>
t alo
mé di
maxi málně</w>
ov í</w>
n .</w>
Na prosto</w>
y m</w>
u děláte</w>
lov a</w>
en ou</w>
vě ři
ov li
ne stačí</w>
Pře ce</w>
to též</w>
ko pii</w>
K do
ří ž</w>
va g
důleži tou</w>
z bli
och ut
ne viděli</w>
od aj
re tro</w>
Lot yš
o čích</w>
vyz vednout</w>
veřej nost</w>
ti va</w>
p sů</w>
neb i</w>
Bra zí
PŘÍPRAVK U</w>
dí k</w>
I P</w>
posou dit</w>
po tru
ne smějí</w>
nepřesa hující</w>
mo leku
iná l</w>
standar dy</w>
původ ním</w>
gang bang</w>
věří š</w>
Zkontrolu jte</w>
Pro gram</w>
2 3.
19 .
pokrač uje</w>
nákla dní</w>
ří kejte</w>
Jedno ho</w>
mrtv ých</w>
dn ém</w>
administra tivní</w>
z pochyb
ukáz ala</w>
5 000</w>
za sla
Va ši</w>
st vu</w>
da ň</w>
s dě
en i</w>
E xi
rych lý</w>
para metry</w>
B I
zbli zka</w>
při ví
poci ty</w>
leh ké</w>
s děl
ši ly</w>
risk ovat</w>
dvacá tým</w>
R ci</w>
zkou šku</w>
koneč ného</w>
při sti
osvob oz
ez ře
b .</w>
vzpomí nky</w>
dé mo
komisa ři</w>
h mm</w>
Pau le</w>
tk ali</w>
stě ní</w>
pochyb nosti</w>
lik vidi
če lit</w>
ne štěstí</w>
h l</w>
dé lce</w>
klasi cké</w>
z rá
pře vodu</w>
ome tri
Jin ými</w>
- Ale</w>
od dě
kouz lo</w>
stro m</w>
st eri
Lo s</w>
špat nou</w>
stran ných</w>
nes kon
ý t</w>
zabi já
vě ky</w>
lh ala</w>
záko ny</w>
to ři</w>
stup uje</w>
war d</w>
t hy</w>
kamará di</w>
je sky
ex pozi
www .
výhra dou</w>
ak e</w>
Něme cka</w>
fir ma</w>
stanoven ý</w>
2 6.
míst em</w>
požád ala</w>
ov ce</w>
dotčen a</w>
Okamži tě</w>
skuteč nou</w>
S P
x o
vypa dal</w>
u ši</w>
za sí
D lu
W i</w>
A man
ú kolem</w>
Eli za
šle ch
her e
Z E</w>
jazy ka</w>
ro le</w>
posí lit</w>
nedoká žu</w>
informa čních</w>
Vin cen
smluv ních</w>
te stu</w>
narodi l</w>
ra zni
prá šek</w>
ně ném</w>
zahrnu jící</w>
sil nici</w>
lá sko</w>
le to
pis uje</w>
Stu die</w>
snou ben
doz oru</w>
databá ze</w>
ne dostateč
prozatím ní</w>
závě re
jakých koli</w>
uprav ené</w>
El li
u hra
smě ř
hra nic</w>
vý š</w>
oce á
jak ém</w>
R U
lé čeb
povin né</w>
ko čky</w>
Mar tin
zákaz níků</w>
kom pati
de mon
va šemu</w>
b né</w>
Ře cko</w>
s ení</w>
Šk oda</w>
vy slov
na šemu</w>
či štění</w>
Tu ber</w>
rozsu dku</w>
Bla ck
M I</w>
sklen i
dom ova</w>
Jer ry</w>
Dr Tuber</w>
ostrov ě</w>
Inter net</w>
za sáh
zje vně</w>
sta vil</w>
přá l</w>
na klá
důvě r
b ůh</w>
obilov in</w>
lo terie</w>
Za stavte</w>
vy razit</w>
pří rodních</w>
očeká vání</w>
nechá me</w>
E ar
Podí vejme</w>
připo jit</w>
oh a
Me zi
vzta hovat</w>
B ou
registra ce</w>
har d
Pra vid
po můžu</w>
v za
sl ý
ochrá nce</w>
použi t</w>
ne děli</w>
náz ory</w>
vy jde</w>
o ku
pro sté</w>
tý dnu</w>
s bur
ň uju</w>
d rát</w>
k ován</w>
K č</w>
Jose fa</w>
1. 1</w>
za pá
iná rní</w>
ku la
zapo jení</w>
T ren
R N</w>
zá ži
fe ro
St ůj</w>
Chlo e</w>
vše mu</w>
hra ješ</w>
dotčen y</w>
chybě t</w>
Úře dního</w>
S V
zmize t</w>
su rov
Qu in
F ri
přija tá</w>
ne poslou
i lu
o kre
Hou se</w>
sto r</w>
Pod rob
pamě ť</w>
bu dov</w>
použi telnosti</w>
n g
vzá cné</w>
ob drží</w>
Za řízení</w>
hu mani
di čky</w>
bra zi
P ovo
navi ga
cy klo
C C
Bý val
z nu</w>
i so
ukaza tele</w>
ci zin
správ ná</w>
sp ala</w>
milov ala</w>
he slo</w>
w hi
s výho</w>
ze lené</w>
rizi ku</w>
pro zra
sv r
re cen
naši mi</w>
sod ný</w>
f ou
hrá vá</w>
Sa ma</w>
tě ma</w>
zra ni
pře žít</w>
podpo rou</w>
zti cha</w>
ná hoda</w>
hu jícím</w>
k li</w>
Bez va</w>
pí na
ne musíte</w>
ICK É</w>
Euro pe
le vnější</w>
nej menší</w>
f ú
Z NA
1 1
obvin ě
zpo mal
vy dávání</w>
byd let</w>
š pe
poskytnu ty</w>
ře cí</w>
souhla sí</w>
for d</w>
úče t
cel ním</w>
E ner
za vě
propo jení</w>
vyrob ené</w>
vy dat</w>
ko čka</w>
člen a</w>
vy sa
du cha</w>
n ná</w>
D .
krá de
živo tem</w>
syn dro
prosin ci</w>
po vahu</w>
chy t
Přísluš né</w>
hlubo ko</w>
V ar
vá no</w>
zbo ž
cen i</w>
Tí mto</w>
s ovou</w>
znalo stí</w>
pracov níci</w>
lo cvi
S P</w>
ha t
urči tý</w>
par k</w>
bě žná</w>
F F
se jít</w>
ne musím</w>
lo r
dí lech</w>
chlori d</w>
Po má
prá šky</w>
len e</w>
Qu e
2. 1</w>
za ne
Dá vej</w>
strá vil</w>
Klu ci</w>
ná jem
k lep
výjim ky</w>
dí ly</w>
aspek ty</w>
partne ry</w>
bu dem</w>
půj čit</w>
udá lost</w>
to re</w>
da ci</w>
ple men
o mlou
sak ru</w>
babi čka</w>
lé to</w>
skvě lou</w>
Mlu v</w>
mě nové</w>
no si
Tě ší</w>
Dru h</w>
čin ky</w>
há č</w>
š paně
š ň
zahá jit</w>
spočí vá</w>
odchy lky</w>
řen ého</w>
H Clips</w>
Pře s</w>
předstí rat</w>
sekre tari
u vá
fon dy</w>
Připrav te</w>
4 4
dar mo</w>
kon tej
vr tu
chu d
č kem</w>
vl ny</w>
zá na</w>
tu ju</w>
NO V
meziná rodním</w>
star ších</w>
l nímu</w>
Cla r
roz mě
De fin
pořá dek</w>
k cí</w>
Pří ště</w>
záležito stí</w>
potě šením</w>
opatr ně</w>
balí ček</w>
bě ží</w>
e w</w>
vez l</w>
sk lo
Po ra
spe kti
f as
z ovaný</w>
roz ené</w>
glu kó
reprezen tativní</w>
Pra ze</w>
prav í</w>
služ bě</w>
sk en
jedno ráz
Ber lí
stře diska</w>
příjem né</w>
Sku pina</w>
Do cela</w>
regi stro
do klad</w>
Ma t
stu pi
star ého</w>
su dek</w>
informa cím</w>
da tu</w>
bo t</w>
y ne</w>
ře k</w>
pří vě
provoz ních</w>
představ u</w>
Pi er
čas .</w>
květ iny</w>
pro vedla</w>
nebezpeč ný</w>
kon figu
laborato ře</w>
nábožen ství</w>
ro l
práv níka</w>
mě st</w>
tra l</w>
Pokrač ujte</w>
tr y
ovlá dat</w>
medi cí
10 3</w>
odbě ru</w>
č ným</w>
lov u</w>
li sty</w>
stře do
přezkou má
t kové</w>
okol nosti</w>
od jíž
fe sti
žen atý</w>
zprav odaj
propu štění</w>
R ů
výslov ně</w>
h la</w>
Ř ENÍ</w>
lo g</w>
jmé nu</w>
nená vi
ne přišel</w>
Pol sko</w>
Po známky</w>
ova telé</w>
di o</w>
Ro s
Iden tifi
AK T</w>
12 5</w>
sestři čky</w>
podí val</w>
de ba
Kapitá n</w>
srde ční</w>
kov ala</w>
rop y</w>
ja ter
se ver
Goog le</w>
va řit</w>
Gab ri
ná stup
E l</w>
p ý
Inter na
pl nit</w>
10 4</w>
stej ných</w>
speci aliz
náhra dní</w>
působ i
mo č
studi a</w>
sil niční</w>
od lo
sen dvi
Sku tečně</w>
Y ou
ztrá tu</w>
Po š
Pa t
vy hý
n ané</w>
l oti
hla dina</w>
Na d
ve c</w>
ni ma</w>
pě st
H IV</w>
dodrž ovat</w>
Te d</w>
Pov í
ne půjde</w>
T vé</w>
a ce</w>
po tla
způsob uje</w>
u jednání</w>
komuni kaci</w>
Šé fe</w>
va cích</w>
zbý vající</w>
Z lo
Spo lu
A i
komple xní</w>
t ských</w>
no sí</w>
na instal
Z dro
T la
2, 5</w>
kter ej</w>
celebri ty</w>
ško l
sva tební</w>
společ nostmi</w>
z dr
ne dělá</w>
zapla til</w>
otáz kách</w>
la d</w>
podsta t
len ou</w>
T h
plán ů</w>
an ů</w>
proble mati
k W</w>
če kají</w>
S au
Li ly</w>
do slova</w>
vhod ných</w>
řa dí</w>
po vím</w>
po ka
fen yl</w>
určen á</w>
blí že</w>
mali č
ú chy
Pu bli
stabili ty</w>
Ne víš</w>
zneči šť
Ř ec
zobra zí</w>
vý pla
me č</w>
c tion</w>
Rá no</w>
význa mnou</w>
regi ony</w>
Vi etna
K alifor
části c</w>
jedi ne
ck er</w>
cha jí</w>
če la</w>
tr ži
změ něno</w>
ve re
odha d</w>
za vá
předmě ty</w>
ob haj
vyža dovat</w>
saze b</w>
LO V
de ta
D é
vyprá vě
vzruš ující</w>
lékař em</w>
lete ctví</w>
ofici álně</w>
hlu b
Eliza beth</w>
Mar tin</w>
v oru</w>
ber eš</w>
zvý šené</w>
us mí
si mu
ne ste</w>
přen os</w>
plate bních</w>
poskyt la</w>
ne zabil</w>
hla sy</w>
armá da</w>
tě locvi
sk ej</w>
schop ná</w>
ur čování</w>
dovoz y</w>
P L</w>
dopro vod
násled ky</w>
ro vým</w>
pa dá
ma r</w>
potenci ální</w>
Mag gie</w>
Otev řete</w>
vý u
za š
pří telem</w>
j ové</w>
čist á</w>
Kri ste</w>
hle dají</w>
fos for
bu s</w>
při vedl</w>
kupo vat</w>
Bob e</w>
bo ku</w>
zů stanu</w>
ruka vice</w>
So phi
Po šlete</w>
te mno
Za jímalo</w>
vyš lo</w>
tu ne
Změ na</w>
Re publi
opráv ně
jednoduch ý</w>
bal l</w>
tv ému</w>
pře ci</w>
naje vo</w>
P a</w>
předse do</w>
obec ný</w>
ú střední</w>
krmi va</w>
ni čem</w>
O čeká
l ými</w>
si lou</w>
násled ovat</w>
nou cí</w>
nes ou</w>
Ne uvě
zveřej ní</w>
sk ó
hle dáte</w>
L U
vy dělá
předcho zího</w>
kte r</w>
vo n</w>
podlé há</w>
lož nice</w>
Le o</w>
soutěž i</w>
shromáž dění</w>
ře č
ž u
účast níků</w>
ví tr</w>
Ma ji
Jame si</w>
zvlá dnout</w>
nemoc ná</w>
uspoko ji
j mu</w>
vi rus</w>
statisti ky</w>
plane ty</w>
nez ů
vy stoupení</w>
bě lo
zabý vat</w>
stati stické</w>
T E</w>
Čí ně</w>
hlas ovat</w>
B or
tý kat</w>
ch ní</w>
la mi</w>
ta xi</w>
mlá de
s pis
tá me</w>
mai lem</w>
dob ří</w>
ca s</w>
Č R</w>
S S</w>
Kla si
f i</w>
V stup</w>
pi su
hrá č</w>
at d</w>
sniž uje</w>
Zá leží</w>
. 1</w>
ruko j
ot ře
k émie</w>
ná pady</w>
R on
ze ď</w>
prostře dek</w>
k nul</w>
aktu alizace</w>
kni h</w>
u kli
poz val</w>
R ez
Při šli</w>
jakého koli</w>
MÍ NKY</w>
dý chat</w>
bom ba</w>
akci oná
sil nice</w>
před nost
hroz í</w>
na by
budouc nu</w>
é ru</w>
zni čil</w>
Š tě
cy kli
Boh em</w>
ko na
Ji ž</w>
jader né</w>
A dre
tepl ota</w>
krat ší</w>
val u</w>
potvr zuje</w>
Jack ie</w>
ň oval</w>
stave bní</w>
pek lo</w>
e leg
Ne chcete</w>
odpověd né</w>
nech u
nechá š</w>
ná růst</w>
p r</w>
nes rov
vtip né</w>
plane tě</w>
pa si
bi n</w>
Co o
tabu lka</w>
C YP
takov ej</w>
dět ství</w>
mi li</w>
Pero rální</w>
svět lome
stě hovat</w>
á rní</w>
doprav ě</w>
chy stá</w>
ži ješ</w>
ří zené</w>
lo t</w>
koordina ce</w>
An ti
proveden o</w>
Slu ž
ko l
hov oru</w>
stá vat</w>
ge t</w>
bí lkov
I R
sil ně</w>
peně žen
za řídit</w>
li dové</w>
hla si
O bě</w>
Ameri ka</w>
ob klo
leh ce</w>
zná má</w>
tv ů
for mální</w>
de ví
budov ě</w>
b lu
ob jem
ko ň
O ri
veřej ně</w>
provozova tele</w>
poně kud</w>
ak redi
Zav ři</w>
st ine</w>
z ně</w>
č ků</w>
schop na</w>
Vo lal</w>
slo žku</w>
pome ňte</w>
ero tika</w>
Ne věděla</w>
Poru čí
Ka ren</w>
M P</w>
rezer vy</w>
- Ahoj</w>
z bro
ka vá
na vzdory</w>
Fran ce</w>
Ne do
I X</w>
A B
Š i
jedno tku</w>
zázra k</w>
k iny</w>
vý ži
hled ali</w>
prac uju</w>
klien t</w>
těles né</w>
se g
regioná lních</w>
svět le</w>
Á NÍ</w>
vi lle</w>
tov aný</w>
Spo r
sta žení</w>
Výrob ce</w>
skup inou</w>
skon čení</w>
W y
dotčen ý</w>
Ú mlu
jin am</w>
od vahu</w>
subjek tům</w>
dy ho</w>
ob lek</w>
vlá dou</w>
otáz kou</w>
přes hraniční</w>
J á
rod ního</w>
ba se
do zadu</w>
tre stu</w>
dí vej</w>
10 1</w>
chov u</w>
uží t</w>
á le</w>
ov ka</w>
Ne pro
přesvěd čen</w>
dočas ně</w>
ú na
m ala</w>
přisti žení</w>
ha m
po ti
hov ých</w>
Zas lou
grafi cké</w>
10 6</w>
veřej nou</w>
roz umíš</w>
minu lých</w>
ško l</w>
stvo ření</w>
nes praved
por no</w>
úspě šně</w>
moc ný</w>
Do stala</w>
žada tele</w>
ti k</w>
sk lep
oxi du</w>
Rich ard</w>
De set</w>
IM O</w>
z odpovědnosti</w>
utr pení</w>
Nád her
povr ch</w>
k alo</w>
nesná ším</w>
bra tře</w>
sdí lení</w>
přizpůsob ení</w>
podrob né</w>
objek tu</w>
vtip ný</w>
urči tá</w>
pře klad</w>
environ mentální</w>
sk li
s vaz
Na ši</w>
sklen í
identifi kaci</w>
Londý ně</w>
zba bě
vylou čit</w>
složi té</w>
Tře tí</w>
š t</w>
doporu č
zába vu</w>
zá vodu</w>
a stro
Zobra zit</w>
war u</w>
si lo
dí rky</w>
Izra el
tori a</w>
půj dete</w>
lí stky</w>
smě šné</w>
kov y</w>
tel ských</w>
nes plň
nes mysl
běž ných</w>
we r</w>
tří da</w>
ma t
ku ri
člově kem</w>
vel kej</w>
tivi ty</w>
psá n</w>
he n</w>
č te
nov ými</w>
profi l</w>
e ti
civi lní</w>
tal en
identifi kační</w>
R O</w>
Tu hle</w>
váž ný</w>
p šen
i a</w>
vlák na</w>
příležito stí</w>
krý t</w>
souhla sit</w>
mak ro
přin u
nádher ný</w>
lá sce</w>
há je</w>
francouz ské</w>
Ve če
bio logické</w>
pi lo</w>
Pře kva
stanov en</w>
sou pe
hra jí</w>
ž ný</w>
Z ve
g i</w>
V stávej</w>
Alex an
vte ř
ob ran
nebo j</w>
nalé zt</w>
po sil
kou sky</w>
příprav ě</w>
při lo
s vedené</w>
Ar chi
ne zákon
ob čané</w>
dumping u</w>
vě n
prou du</w>
I L</w>
ch ali</w>
celo svět
Kon tak
Fo to</w>
th ro
španě lky</w>
připomen out</w>
mechani smu</w>
m koliv</w>
zdů razni
po lé
suro vin</w>
opera ční</w>
hor mo
procen tní</w>
f y</w>
účin nou</w>
al s</w>
M ak
ne koneč
Pa ráda</w>
p uje</w>
E ston
vyrov nání</w>
TE R
karié ru</w>
a ut</w>
U dělejte</w>
Zá vazky</w>
Bo ží
rov ali</w>
studen tů</w>
považ ována</w>
vylou čení</w>
m 3</w>
Mo lly</w>
zd vo
technologi i</w>
rych lostí</w>
ch t</w>
Jedn odu
konferen ci</w>
h ova
pře ji</w>
A ven
svat ba</w>
Posa ďte</w>
úspě chu</w>
provoz ovatel</w>
dí val</w>
vě r
jaký koli</w>
T SI</w>
sku teční</w>
i dy</w>
NĚ NÍ</w>
univerzi tě</w>
S vět</w>
před běžné</w>
NO STI</w>
lá t</w>
ing s</w>
Vš ude</w>
ztra tili</w>
ti cho</w>
vešker ých</w>
ochran ných</w>
vra ce
s nu</w>
re du
konkré tních</w>
ji mž</w>
va rovat</w>
dře vo</w>
SO U
Har ri
Obla st</w>
Bel gi
organiza cemi</w>
způsob ené</w>
urči tého</w>
posád ky</w>
web ových</w>
rozumě t</w>
una vená</w>
zástup ců</w>
koefici en
institu cemi</w>
Oči vidně</w>
Ří dícího</w>
pře hlí
z la</w>
lov ě</w>
kni ze</w>
pře vod</w>
nevy padá</w>
Každ é</w>
A h
úmr tí</w>
h rů
3 6
zahra dy</w>
tov aná</w>
význam ných</w>
Za stav</w>
Ježi ši</w>
zá chod
byd lení</w>
ekonomi ky</w>
požada vku</w>
dotyč ného</w>
hor a</w>
čí nské</w>
nejbliž ší</w>
uči tel</w>
s ná
metr u</w>
Ná vrh</w>
A partmá
předlo ženy</w>
Z působ</w>
zajiště no</w>
n ali
Se t
fen o
zdá lo</w>
ži ju</w>
pode psat</w>
VÝ RO
k ému</w>
vět ším</w>
poj men
Ch an
i m</w>
dne šek</w>
Prů měr
in ka</w>
POUŽ IT
vypa dám</w>
ak cie</w>
alterna tivní</w>
re formy</w>
Před tím</w>
zaměst ná
to na</w>
jedno mu</w>
klasifi kace</w>
Ně jak</w>
F R</w>
Cana di
TE K</w>
n iny</w>
hospodář ská</w>
Ve gas</w>
poručí ku</w>
sly šíte</w>
skon čili</w>
tá bor
tá t</w>
Ra yi</w>
A dri
mati ckých</w>
V zá
tká ně</w>
Vrá tím</w>
Še st</w>
moto rů</w>
kou kání</w>
dobr ým</w>
ve den</w>
jez dit</w>
ne dě
digi tální</w>
Eu rop
vyš ších</w>
kte říž</w>
důvě ry
zázna mu</w>
potře b</w>
tě sně</w>
me da
In sta
rozší řit</w>
če kala</w>
kon textu</w>
Paří ži</w>
bezpeč ně</w>
jed em</w>
výro čí</w>
A bra
15 .
u vedla</w>
pad nout</w>
zapo mí
Za ji
te stování</w>
inf ar
Stá t</w>
zahrnu ty</w>
ka me
vádě t</w>
tu ální</w>
en ého</w>
služ bách</w>
po razit</w>
Ne rozumím</w>
zodpově dný</w>
fi l</w>
chů ze</w>
má slo</w>
televi z
předlo žené</w>
zna čka</w>
třetí ho</w>
0, 5</w>
pro boha</w>
du chov
sk ladu</w>
Dě lejte</w>
le tní</w>
frek vence</w>
formulá ře</w>
ba vi
terori smu</w>
Pů j
tri k</w>
sa my</w>
rozpoč tové</w>
Ob je
š la
po stře
n d</w>
Bo jím</w>
inf o</w>
Podmí nky</w>
Sex u</w>
přija telné</w>
při pa
jedin ého</w>
Exi stují</w>
C O</w>
aktualiz ovat</w>
sní mek</w>
ú terý</w>
vnitř ních</w>
p tá</w>
kre vního</w>
C ti
vá noční</w>
žd ě</w>
Z u
po to
Š Í</w>
ne pod
3 4
le pen
přemýš lím</w>
le sa</w>
kou pila</w>
C ena</w>
h nutí</w>
sy m
ď ák</w>
Při jde</w>
Gar y</w>
uzav řít</w>
Pá ki
vlaj kou</w>
Pen íze</w>
punč o
fle xi
úda jně</w>
prou d</w>
ka de
di cí</w>
Muse li</w>
moř ských</w>
le žet</w>
S i</w>
16 .
vod ních</w>
dobro družství</w>
ne řeknu</w>
schop né</w>
ne ode
Bě lo
ne existují</w>
li či
příjem ci</w>
hez ká</w>
3 7
da tem</w>
sub ven
rezer v</w>
H it
náhra da</w>
ni kde</w>
ver zá
ji žní</w>
fi lo
f ru
alkoho l</w>
spá nku</w>
chrá ní</w>
uspořá dání</w>
výkon nosti</w>
to bo
re ak
00 1</w>
volá š</w>
Mini mální</w>
A ir
p lou
dlu h</w>
vá ma</w>
u to
soukro mý</w>
minist r</w>
ov ému</w>
vysvět luje</w>
k ována</w>
užiteč né</w>
partne r</w>
dor t</w>
po volání</w>
pla st
Dán sko</w>
táh l</w>
hla š
z me
takov é
G en
určen ý</w>
podé l</w>
zmí něné</w>
proveden é</w>
14 .
předlo žil</w>
una vený</w>
dlu hu</w>
Pre ziden
ro vací</w>
pro dáv
opatřen ím</w>
Sou d</w>
zá ření</w>
zkou šce</w>
g on</w>
sou čet</w>
v ře
ma s
vy jas
so sti</w>
ch ři
Spojen ého</w>
zohled ní</w>
m my
Pra cov
Lé č
sti ly</w>
Kou kej</w>
DR Ž
be sar
vykoná vat</w>
ni kým</w>
domá cím</w>
Ko mu</w>
podí váme</w>
os mi</w>
bra tři</w>
zava za
Ro ad</w>
Ne řekl</w>
A čkoli</w>
vod í
směr nic</w>
rou p</w>
A p
1 -</w>
zákla dním</w>
zobra zení</w>
ode sí
minu tku</w>
P ek
Ko s
th ane</w>
tal í
posky tované</w>
formulá ř</w>
Nizozem sko</w>
ne řekneš</w>
tla kem</w>
po pí
obra zu</w>
dodá ní</w>
výrob cem</w>
o liv
představ ovat</w>
nalez nete</w>
ta r</w>
ná dobí</w>
U n
dě né</w>
jíz dy</w>
Ru ska</w>
přen á
Kdy byste</w>
Interna tional</w>
čet la</w>
opu stila</w>
z ři
sta teč
k aly</w>
digi tá
Euro systému</w>
ot ě
ná sledek</w>
cy to
zasta ví</w>
T ří
roz ptý
ohro žení</w>
sy ste
ro du</w>
té mu</w>
kama ráda</w>
Č ek
dovo lené</w>
výcvi k</w>
čtvr tek</w>
v te</w>
ko lena</w>
r ům</w>
as u</w>
rost la</w>
ra fin
há ním</w>
per e</w>
fe jme</w>
A dam</w>
tech nickou</w>
společ ném</w>
Do stali</w>
tal ent</w>
odmít nout</w>
náz vu</w>
Char lot
S tri
N í
zohled nit</w>
trval é</w>
Ze jména</w>
nov inky</w>
pís meno</w>
h ým</w>
E R</w>
poskytnu tých</w>
modr é</w>
dé lky</w>
S in
vol ném</w>
úče lu</w>
prac uješ</w>
stra š
před pl
Va n</w>
Smí šeného</w>
zby teč
1 12</w>
vyso kým</w>
v pravo</w>
sna žíme</w>
pro ni
kur zu</w>
č níky</w>
ná dr
po známka</w>
každ oden
pa pr
stav by</w>
podí vám</w>
do hledem</w>
z de
Dů leži
bá l</w>
na po
chá zíte</w>
jez d</w>
sku tky</w>
šílen ství</w>
integra ce</w>
sti ka</w>
pamatu ji</w>
k lo</w>
vo stí</w>
naposle d</w>
l ci</w>
jako by</w>
odpo věděl</w>
Ra m
Bo b</w>
Wil le</w>
telefo ny</w>
Cel kové</w>
věde ckých</w>
pravide lné</w>
výro ční</w>
troj úhel
jí dlem</w>
28 .
18 .
vý sa
psá ny</w>
pro dávat</w>
RA N
vy pr
ná le
A C
zamě řit</w>
sm o</w>
kamará dy</w>
ber t</w>
V Y
podob ný</w>
Ni kam</w>
šen ých</w>
vy hrož
který ž</w>
li nek</w>
ke t</w>
há č
pí me</w>
U N
svěd ky</w>
sa m
F al
pře veden
hov i</w>
tren é
Europe an</w>
Plat by</w>
ko v</w>
překro čit</w>
in ku</w>
ha si
t le</w>
po ma
ne re
Jo s
Di e
účet nictví</w>
fotografi í</w>
Š la</w>
průmysl ových</w>
ke c
H ist
Mo ni
ara b
účin ně</w>
sko k</w>
prost ory</w>
mo ru</w>
ko ber
a čkoli</w>
v kládá</w>
stra chu</w>
c uje</w>
Ma tka</w>
ra dě</w>
jednot ného</w>
o svobod
bl bost</w>
Ne viděl</w>
k ci</w>
ži jeme</w>
za dava
stře dně</w>
zd né</w>
Jer e
Ch udá
vaz by</w>
apli kací</w>
svě tu</w>
paro háč</w>
k ty</w>
ál ními</w>
osla vu</w>
nena padlo</w>
živo ta
při vést</w>
vidě ní</w>
m z
wo od</w>
I C</w>
po zna
ne můžou</w>
Char les</w>
návra t</w>
Vě řte</w>
před čas
na h</w>
nevě ří</w>
Veličen stvo</w>
hloup é</w>
schval ování</w>
Ne musíte</w>
po n</w>
Rakou sko</w>
Domní vám</w>
uzav řené</w>
ta mhle</w>
S pen
zmize la</w>
vi zu
hod inách</w>
t nímu</w>
pří strojů</w>
pre ven
če kám</w>
zač nete</w>
potě šení</w>
personá l</w>
je dete</w>
Ve řej
re zo
gin ální</w>
V r
A men</w>
před klá
inter venční</w>
uděla jí</w>
nemovi tosti</w>
S her
ně který</w>
w er
po ledne</w>
kou pe
A bychom</w>
lan d
cha ze
ko řen
fak tor</w>
198 9</w>
ok ně</w>
č kami</w>
g la
ch oval</w>
pa tr
h ex
původ ního</w>
0 .
smě r</w>
pokro či
minu s</w>
zku s</w>
smlou vě</w>
polov ině</w>
větš ině</w>
d ží
klien ta</w>
há š</w>
sub je
pot kala</w>
Ang lie</w>
zí ská</w>
pracov i
Potřebu jete</w>
vé zt</w>
Rober t</w>
hra ju</w>
zdůraz ňuje</w>
myšlen ka</w>
mož ných</w>
pod zi
198 7</w>
ti hle</w>
stupu jí</w>
p si</w>
onemoc něním</w>
samo tné</w>
b ka</w>
stvo řil</w>
regu lace</w>
ba ví</w>
návra tu</w>
hydro xy
Ztra til</w>
10 5</w>
2. 2</w>
ě jších</w>
pr vek</w>
sti ci
důstoj ník</w>
králov na</w>
g ori
ž vý
w y
uc tí
práv y</w>
odstav cích</w>
titu l</w>
nu ta</w>
de sí
W en
a st</w>
tápě ní</w>
rov aný</w>
ni čka</w>
Vzpomí náš</w>
no min
Portugal sko</w>
pro kle
oh ně</w>
do pisy</w>
Gene rá
sní daně</w>
pat ře</w>
od ez
zveřej něno</w>
nesrov nalo
- Dobře</w>
přen osu</w>
ni us</w>
Ve n</w>
pře ju</w>
parkovi ště</w>
nabíze jí</w>
anglič tině</w>
lo ži
tě s
l d
H on
stá tního</w>
vyhle dávání</w>
pra ch</w>
obchod ů</w>
investi čních</w>
Ně m
P Ů
pří mý</w>
pr stů</w>
neu dělám</w>
Ž en
mě ří</w>
chod ím</w>
řek něme</w>
stra nách</w>
spo třeba</w>
pu stili</w>
do m</w>
tep lo</w>
koste la</w>
Obvyk le</w>
G ro
vari an
uhlovodí ků</w>
vě ta</w>
dov ého</w>
ř ují</w>
zahrani čních</w>
o pravit</w>
priori ty</w>
ti ce</w>
správ ě</w>
vi zi</w>
lik vid
hloup á</w>
ce r</w>
7 00</w>
u klí
ani e</w>
al é
ne musel</w>
č nosti</w>
tá bo
je mnou</w>
mů žem</w>
Předse da</w>
Nas hle</w>
dí ry</w>
čin ě</w>
Ří kají</w>
v ují</w>
Ně koho</w>
připrav ené</w>
bydli ště</w>
p něte</w>
de re</w>
hygi eni
krás nější</w>
fot bal</w>
energi í</w>
c s</w>
zkou še
o kouz
Bo lí</w>
sta rej</w>
při bliž
doprav ce</w>
poskyt l</w>
lux us
odpovída jících</w>
ště m</w>
ti dy</w>
fung ovalo</w>
sto pu</w>
po kla
zahr nov
sou řa
zná my</w>
skon čilo</w>
podá ván</w>
kamen y</w>
zvlá dneš</w>
ov cí</w>
r nou</w>
veřej ný</w>
fur t</w>
Ho tel
ú tva
takov ý
klien tů</w>
Ž ada
potravin ách</w>
s nu
krá sně</w>
kaž dej</w>
Do plň
vnitrostá tního</w>
ob oru</w>
Canadi ens</w>
napa den
chu dá
Va ší</w>
tel ského</w>
Je an</w>
legra ce</w>
inte ro
M Ě
úda ji</w>
posta vil</w>
ex tra
e mb
vy hlí
generá lního</w>
t la</w>
pe če
káz aly</w>
hude bní</w>
m mol</w>
Moh ou</w>
příbě hy</w>
násled ujícího</w>
3 D</w>
podá na</w>
chro ni
We st
P H
účin ná</w>
znamen á
vy dané</w>
nomenkla tury</w>
S ně
Na horu</w>
pro šel</w>
vi brá
intero pera
u pev
Pod á
výsky t</w>
tr e</w>
te ta</w>
kov anou</w>
Lar ry</w>
ve s</w>
národ ního</w>
man u
ob držení</w>
ne kou
vel kém</w>
zdan ění</w>
vy hledá
vle vo</w>
ni miž</w>
ga la
bi kiny</w>
Pří liš</w>
Požada vky</w>
Ni koho</w>
ti vy</w>
klu ky</w>
Ne hý
st ro</w>
Ne o
ne přijde</w>
š lap
hov ala</w>
Le a
v ování</w>
věří te</w>
vstou pí</w>
ne šlo</w>
K LA
stří br
popu lární</w>
moto rových</w>
nedo stane</w>
li tovat</w>
kov ými</w>
Dě lal</w>
teré nu</w>
bohat ství</w>
Ma j
13 .
he j
cháze lo</w>
Ji m</w>
F li
stá hnout</w>
ste in</w>
ke rami
dí lo</w>
re l</w>
ochrá nit</w>
derivá ty</w>
mé dia</w>
práz dn
an ne</w>
U CHO
schval uje</w>
C ou
největ ších</w>
databá zi</w>
Z trá
T U
Ange les</w>
vů z</w>
t ovány</w>
su s</w>
soused ství</w>
život u</w>
obsa hujících</w>
ka b
bí lá</w>
Jin é</w>
CE ST
vyprac ování</w>
s li</w>
obje vit</w>
Hez ký</w>
se lek
o šetření</w>
daň ových</w>
vy dává</w>
promi ňte</w>
z ory</w>
chytr á</w>
Chri sti
úč tování</w>
spotře bu</w>
polo hy</w>
le tý</w>
li ne
kapi tali
D oh
ku m</w>
intra ven
L E</w>
D ý
ple ten
vyzý vá</w>
čer ná</w>
le vé</w>
ke v</w>
S ý
Ro y
Pa ra
ob zvláště</w>
s mů
- Proč</w>
T ali
Ří kali</w>
vra ždě</w>
prav dy</w>
opatřen ími</w>
g ur
prů kaz</w>
fi re
kolá č</w>
VE J</w>
ve př
van ého</w>
le u
P T</w>
In du
či stě</w>
tě l</w>
se děl</w>
výz vy</w>
š véd
hři ště</w>
zach ra
le tové</w>
dovoz ů</w>
žád ala</w>
pá ry</w>
pomo z</w>
vý poč
pre venci</w>
ku sy</w>
B ir
na vá
zvyš ování</w>
T S</w>
dočas né</w>
Vě ci</w>
hlášen y</w>
svě domí</w>
použi tých</w>
u ti
zkou šení</w>
si n</w>
pře stože</w>
návště vy</w>
dítě ti</w>
Na me</w>
neu mí
l ů
Pou žije</w>
sí ť
UCHO VÁ
punčo chá
pocho pil</w>
st ně</w>
zlo či
ran ž
při dělení</w>
chá zíš</w>
Ale xi</w>
odli šné</w>
F O
obrá z
1 15
při z
Ra y</w>
Při pomí
Do mů</w>
ve y</w>
Sr b
vi a</w>
doprav ních</w>
Prá ce</w>
Plu kov
ž ha
Zapo mněl</w>
m po
dě jí</w>
člově ku</w>
pla vat</w>
dot čen</w>
v daná</w>
pu stila</w>
do lí</w>
Ve mte</w>
Po sí
z ny
vz hled</w>
účast nit</w>
le re</w>
bu ň
zá por
zapla tí</w>
trá lní</w>
hrá či</w>
sy nem</w>
sk e
te ore
pokrač ování</w>
Ja n</w>
zákaz u</w>
lo w</w>
Fe li
in o
rezo lu
lov ým</w>
ti p</w>
lé ků</w>
T al
chop te</w>
. cz</w>
na hlas</w>
tvr d
sl é</w>
překá žky</w>
T od
Přísluš ný</w>
A M
5 43</w>
vz or</w>
marke ting
ekvi valen
B od</w>
hroma dě</w>
ň ák</w>
rov aných</w>
ne dostal</w>
hlí dat</w>
chy b</w>
Rez er
Na štěstí</w>
E i
ž ního</w>
vy kou
Neuvě ři
za darmo</w>
vli vu</w>
Sleč na</w>
Me di
sa mo</w>
uka ž</w>
pau zu</w>
Ne myslíš</w>
roz um</w>
rostou cí</w>
Za měst
L ov
dodr žení</w>
ch ten
S S
Ja ko
shod ě</w>
rov ě</w>
la dy</w>
zá pad</w>
podsta tně</w>
plavid lo</w>
hno ji
zjist íme</w>
zabrá nilo</w>
du jící</w>
ber g</w>
mí č</w>
kar cin
naj dou</w>
Lu ci
zdvo ři
her e</w>
legi ti
zabí jet</w>
ot rá
li lo</w>
S el
Mon tre
ly n</w>
k rov
P har
Jedin á</w>
vál c
mrtv ého</w>
vyso kých</w>
dal šímu</w>
Dani el</w>
mno hé</w>
V AN
v nějších</w>
sta rou</w>
nabí dce</w>
Re d</w>
27 .
le tos</w>
budov a</w>
p ku</w>
ná h
s jedno
vyzkou šet</w>
umož ňující</w>
za jímalo</w>
příro dy</w>
Y a
chara kter</w>
Leo nar
pi l
Ne pře
ředi telství</w>
on y
CE L
ja b
Ře di
vz oru</w>
uvol nění</w>
Mar ku</w>
bak teri
te tra
pi ce</w>
choro by</w>
říká me</w>
po če
agentu r</w>
Za jisté</w>
zač nu</w>
soukro mých</w>
úvě ru</w>
svě de
přizpůsob it</w>
přetr vá
hů ř</w>
televi zní</w>
Ma la
pro dal</w>
ne dělám</w>
Pot vr
spa t</w>
nádher ná</w>
ni k</w>
che mo
Klí dek</w>
zmi zí</w>
pás ma</w>
p .</w>
W C</w>
mi cké</w>
zajíma t</w>
konzer va
Ti to</w>
pro brat</w>
Vra ťte</w>
uvědo mu
u tra
sí dlo</w>
odeslá ní</w>
ji miž</w>
Ž eny</w>
europa .
d s
C A</w>
schválen ých</w>
kov ali</w>
těhot né</w>
LÉČIV ÝCH</w>
u jícími</w>
by tku</w>
POZ OR
d ování</w>
kon á</w>
in strukce</w>
chod ila</w>
Ne vidím</w>
nevy hnu
kto ry</w>
3 -</w>
va cího</w>
ra ční</w>
odpově dí</w>
mí ří</w>
police j
na místo</w>
Vypad něte</w>
Ježí še</w>
ně ni</w>
nu t</w>
an gi
chlap y</w>
ko no
ST U
rodin né</w>
neuvěři telné</w>
kapaci tu</w>
Mě jte</w>
upozor nění</w>
smá t</w>
ode x</w>
do spí
Násled ující</w>
život ů</w>
si ro
29 .
pl ném</w>
audi tu</w>
Krá l</w>
ti ons</w>
Dělá te</w>
v ské</w>
proveden ých</w>
pa ten
uchová vání</w>
gene ticky</w>
zi n</w>
h as
cel kových</w>
stá la</w>
personá lu</w>
nes na
Změ ny</w>
uh liči
při nese</w>
údrž bu</w>
sti sk
S práv
termí n</w>
S F
Ch emi
rost ou</w>
no hama</w>
vý ška</w>
vi m</w>
schvá lené</w>
zá pisu</w>
ukra den
pravděpodob nost</w>
silo nky</w>
mezinárod ními</w>
de ko
lid skou</w>
dovoz ce</w>
bu b
ž ování</w>
ná vaz
i ly</w>
hajz le</w>
křesť an
doplň kových</w>
sv é
S tru
u chaze
předpi sech</w>
zabi t</w>
tr ů
pohod lí</w>
rychlo stní</w>
kod ex
EH SV</w>
že l
o lej
zr ca
uži l</w>
kontak tovat</w>
k er
D or
hy bri
Tu to</w>
pochy by</w>
l l
hod ila</w>
uby tov
lini e</w>
hu má
u spě
na ka
voz u</w>
tá ty</w>
pře dávání</w>
defin i
cháze jících</w>
M ou
zi i</w>
kouze l
na n</w>
po tkali</w>
js ký</w>
tá k</w>
potvr dit</w>
kur zy</w>
kapitá lové</w>
G il
tý hle</w>
t ha</w>
Ka tegori
vy kazují</w>
vojá ci</w>
do b</w>
- No</w>
s ůl</w>
Sly šíte</w>
za ned
ří k</w>
použi telná</w>
jakou koli</w>
žen skou</w>
žen i</w>
a to
způsob ů</w>
V šem</w>
Uvědo mu
L ist
js ká</w>
Po malu</w>
Kru ci</w>
při dru
Za prvé</w>
kamer u</w>
Ni co
z važ
jezer a</w>
schop ností</w>
otev řel</w>
Cti hodnosti</w>
U klid
r nu</w>
problé mem</w>
nedo tk
js kých</w>
Ni komu</w>
Ž ena</w>
Cel kový</w>
A čkoliv</w>
výko nem</w>
několi krát</w>
ne vrátí</w>
ča je</w>
li dech</w>
dodateč ných</w>
žen ými</w>
pře hrá
Slyše li</w>
u trpě
nebezpeč ných</w>
trž ním</w>
předví da
za hrát</w>
E L</w>
pře ko
potru bí</w>
přija to</w>
ov z
fi sk
In do
Bil le</w>
va r</w>
vze tí</w>
zamě řené</w>
ji mi</w>
pů vod</w>
Mo to
D Y</w>
dá vej</w>
Cen tral</w>
Léč ba</w>
mokr á</w>
ří dící</w>
hu ji</w>
Ta mhle</w>
nejnov ější</w>
in ů</w>
Austrá lie</w>
Ti hle</w>
Bar celo
vy zna
oblí bené</w>
Lu x
punčochá če</w>
J A
lo ni</w>
uplat ňuje</w>
trá pí</w>
moto rem</w>
sra čky</w>
odbě ra
vyrovná vací</w>
stěh oval</w>
identifi kovat</w>
Ně kde</w>
klobou k</w>
vyváže jících</w>
hro u
vy má
osob ami</w>
a lar
ši f
od chodu</w>
17 .
tou hle</w>
samot ného</w>
ma pa</w>
P P
O zna
Fun g
ra zíme</w>
ot i</w>
Veliko st</w>
k ovány</w>
Re g
ti ská
techni ckého</w>
námi tky</w>
ku ře</w>
vy cházet</w>
Chy stá
sti ckého</w>
ten den
působ it</w>
oprav dový</w>
P ř
širo ké</w>
Ti me</w>
un d</w>
obsa žené</w>
š tej
v pi
předcho zím</w>
reprezen ta
psa ní</w>
ber eme</w>
dá váš</w>
Gratulu ji</w>
zna čku</w>
regi onech</w>
fak torů</w>
Obe cné</w>
stro my</w>
za dávání</w>
ne patří</w>
me j</w>
ery tro
Ka tie</w>
obnovi telných</w>
Maji tel</w>
tan covat</w>
stra šné</w>
pe j</w>
Gi bb
plánov ané</w>
bě žet</w>
D e</w>
U S</w>
Před cházející</w>
D á</w>
n ských</w>
c tí</w>
Posly šte</w>
1. 2</w>
šťast ní</w>
mla dí</w>
lan du</w>
inteligen ce</w>
guverné rů</w>
za bra
bo jíš</w>
bazé nu</w>
O h
u klidni</w>
lov ala</w>
drůbe že</w>
stro u</w>
Dru hý</w>
PO KU
rá te</w>
nej rychleji</w>
do pady</w>
tu ňá
lu en
krabi ci</w>
Richar de</w>
peně žní</w>
obje vila</w>
dialo g</w>
zdro jem</w>
vě dy</w>
Ne chce</w>
Lu st</w>
vývoz ce</w>
Instan t</w>
Stan ovi
Mi láčku</w>
k ing</w>
oxi d</w>
C ast
za stoupení</w>
situa cí</w>
ostrov y</w>
Elek tro
vě řte</w>
stře dním</w>
min o</w>
Ne líbí</w>
ře lo</w>
začlen ění</w>
Chy bí</w>
ky ní</w>
veden ím</w>
analý zou</w>
zása dami</w>
vy volat</w>
mí sto
letě l</w>
Vý daje</w>
význa mu</w>
t z</w>
kontro lních</w>
ške rou</w>
způsob il</w>
vytvá řet</w>
pol štá
li ly</w>
sub kutá
lo hy</w>
ekonomi ckých</w>
čtvr t
z kontrolu
ner vy</w>
emb ry
svat bě</w>
k len
Sal ly</w>
Roz umíte</w>
ře ší</w>
zvý ší</w>
N T
průměr ná</w>
detekti ve</w>
zdůraz nit</w>
vý hod</w>
každo ročně</w>
man dá
31. 12.
stabili tu</w>
koneč ném</w>
vy dělat</w>
N er
H LA
S ek
krabi ce</w>
do leva</w>
bu ty
bu ná
ú hel</w>
ztrá t</w>
ovi na</w>
n ing</w>
S har
vy vola
pří běhu</w>
stě ny</w>
Blí zko
dialo gu</w>
bez plat
he jte</w>
V od
sou lad</w>
k si
We st</w>
všech nu</w>
sti ce</w>
institu cionální</w>
sch e</w>
je d</w>
hlad inu</w>
teori i</w>
poz děj
Se ver
uzná vání</w>
bom bu</w>
stupe ch</w>
kro ků</w>
Vešker é</w>
zů stávají</w>
sti hru</w>
chlá p
Blízko stihru</w>
úro kové</w>
wel l</w>
plo cha</w>
POKU D</w>
Lá ska</w>
E C</w>
sluči telné</w>
pro mluvíme</w>
hrd ý</w>
trans plan
bu jí</w>
ráž ku</w>
ku sů</w>
tlu mení</w>
Po každé</w>
va dit</w>
ho st
lá š</w>
dis ci
Dá te</w>
pohře b</w>
holči čka</w>
Foto grafie</w>
W at
zahájen ím</w>
zau j
chlo ro
Ga la
ÁL NÍ</w>
tisk nout</w>
sta di
sto ck</w>
nabíd kové</w>
mimořád ně</w>
O ce
kon cem</w>
sa y</w>
ý mu</w>
tu jeme</w>
se ver</w>
provádě ny</w>
defin ici</w>
C B</w>
gale rie</w>
t hu
sekun dá
2 2
sty d
Posta rám</w>
disku se</w>
chy til</w>
nor mali
nedosta tky</w>
techni cká</w>
table ta</w>
uplat nit</w>
Bri ane</w>
va z</w>
ply nu
dne y</w>
milu jí</w>
řidi č</w>
svíti dla</w>
přizná ní</w>
do kola</w>
C er
re v
pa sti</w>
ne děje</w>
minu lou</w>
he pati
záko nem</w>
pod r
nepo může</w>
kontej ne
dra hé</w>
S vě
Andro id</w>
vak ul
trž ních</w>
Pře stože</w>
kone čný</w>
do kladu</w>
Na padlo</w>
ves nici</w>
poptá vky</w>
neb a
sul fo
ba terie</w>
ak vakul
T Y</w>
Sha w
Va šeho</w>
účin ných</w>
na hlá
zi vní</w>
C ru
šé fa</w>
Na vr
kry t</w>
Ma tt
fir mu</w>
ri bavi
ho st</w>
roz vinu
lá skou</w>
kukuři ce</w>
do ne</w>
g os
vytvo ří</w>
s bliž
4 5
vy u
re jte</w>
Flo ri
C ur
jak ého</w>
bl bec</w>
absolu tní</w>
qu e
kvali ta</w>
doved nosti</w>
Re stau
go t</w>
S D</w>
každ ých</w>
SI S</w>
výpově ď</w>
vá ží</w>
diskrimina ce</w>
lan ce</w>
bi oti
Adre sa</w>
úče tních</w>
úvě rových</w>
lid ský</w>
ch ran
Kdy si</w>
Kategori e</w>
K de
zane prázd
výbu š
po mohlo</w>
Ry ane</w>
š per
ukaza telů</w>
zisk ovo
vyso ko</w>
O w
Ve ro
poza stavení</w>
akti vit</w>
Book ing</w>
su m
Mlu vila</w>
KO V
š iny</w>
odpu štění</w>
in ovací</w>
ví cele
t ován</w>
inspe kce</w>
efek tiv
OB SA
pacien tům</w>
a p
POD MÍNKY</w>
Po prvé</w>
polov ina</w>
ci t</w>
ro má
du sí
Posa ď</w>
na tý</w>
ji stí</w>
i Phone</w>
va ření</w>
pře krač
mimozem šť
zku m</w>
Re volu
In su
E M</w>
prohlíže če</w>
Ná klady</w>
va d
nechá peš</w>
zni čí</w>
náku pu</w>
jed l</w>
Fi li
U kázalo</w>
po pisu</w>
ně m
Dru há</w>
průzku m</w>
ne b</w>
provádě né</w>
ne ko
na kládání</w>
Mar k</w>
Hist ori
ne potřebuju</w>
Pově z</w>
Je dnu</w>
far makokine
odpočin out</w>
zprá vách</w>
rozvoj ových</w>
Ni ck</w>
ve škerou</w>
ni čí</w>
ni mž</w>
U kažte</w>
Š a
zajiště na</w>
cháze la</w>
centrá lních</w>
le tou
exter ní</w>
Změ nit</w>
zkušen ost</w>
Pov in
če lí</w>
vy rů
rakov inu</w>
3 50</w>
žen ský</w>
přije de</w>
Tak to</w>
spo ru</w>
poví dá</w>
Slu nce</w>
Do stanu</w>
Mo l
Gu i
nu tně</w>
jazy ků</w>
ro d</w>
t nější</w>
hodno tit</w>
jaký koliv</w>
teč e</w>
za slá
poz vat</w>
po děla
nezby tných</w>
tvr dil</w>
sy nku</w>
c as
ů jte</w>
rov ky</w>
pe stici
nech ť</w>
na p
A ir</w>
zása dou</w>
ne stojí</w>
3, 5</w>
F A
b s</w>
Jo ey</w>
vyz ve
Bo y
symbo l</w>
h oval</w>
rov ná
pa st</w>
Lisabo nské</w>
ve čera</w>
dohod ou</w>
Společ en
O chra
vyš šího</w>
ameri cký</w>
A g
primá rní</w>
opi lý</w>
ko pá
úře dním</w>
vibrá tory</w>
tov ě</w>
poku sil</w>
hypo té
standar dních</w>
ak tů</w>
Pla tí</w>
Do má
uta jení</w>
lé tě</w>
ná pad
bla ho
usnad nění</w>
pora dce</w>
žen ám</w>
ú zemní</w>
u čí</w>
konstru ované</w>
Dohod u</w>
zá sil
vod i
sch é
do razí</w>
d lech</w>
de st
to p</w>
důleži tě
a de
že jí</w>
začleně no</w>
nu jí</w>
ša blo
Caro l</w>
dá rky</w>
K ing
D ali</w>
pali vo</w>
14 0</w>
pocháze jí</w>
ml kni</w>
lí stek</w>
ka talo
evrop skou</w>
sko čil</w>
új mu</w>
sto nu</w>
ma gi
St ane</w>
b á</w>
Sli buji</w>
skuteč ného</w>
na stavit</w>
Be th</w>
za stav
po tom
nepo cho
tu re</w>
te v</w>
kde koliv</w>
přispí vá</w>
Stře do
dvaná ct</w>
13 8</w>
úřa dem</w>
v před</w>
pě šky</w>
nepře trži
k ční</w>
Ne l
smu tný</w>
ki na</w>
b ím</w>
H lí
jeden á
inteligen tní</w>
brá na</w>
srovna telné</w>
pra se</w>
vel ení</w>
t ným</w>
plet l</w>
an alo
tov a</w>
P ry
P .
vojá k</w>
oblíben ý</w>
Chri s</w>
si on</w>
naš t
in ová</w>
Kri sta</w>
Č Á
zkur ven
provin cie</w>
A c
- Ty</w>
způsobil ých</w>
obá vám</w>
Jas né</w>
hud by</w>
regu lov
O l
stanov uje</w>
tra u
gra f</w>
Re e
O u
Mno žství</w>
ovz duší</w>
ze r</w>
od rážka</w>
met ho
ba to
Tran s
REGISTRA CI</w>
Ne víme</w>
přijí mají</w>
ově ř
ně nými</w>
U m
za pal
u znat</w>
sli buju</w>
pod ané</w>
Má lem</w>
Bil l</w>
argu men
mi í</w>
de kla
člen skému</w>
té hož</w>
předpoklá dám</w>
0 9.
přezku mného</w>
liv ou</w>
ži dov
ob ál
dokonal ý</w>
liv ého</w>
ce g
Defin ice</w>
vz dání</w>
vy stře
Hot ovo</w>
úda j</w>
odpad ů</w>
O z
t roze
sil ni
ně kterým</w>
kři ž
hol kou</w>
Do n</w>
z oval</w>
považ ován</w>
mez ní</w>
29 9</w>
sa u
Y u
Ha y
zmí nil</w>
hydro gen
ex tra</w>
Na jděte</w>
sto p
lí ků</w>
Kou kněte</w>
la ne</w>
3 000</w>
Sta r</w>
zveřej něna</w>
U M</w>
že r</w>
I ráku</w>
Š AR
partne ra</w>
Poz ději</w>
umí rá</w>
kon ce
zem ního</w>
kos me
pou štění</w>
je dou</w>
hrá če</w>
ST O
děde ček</w>
Skvě lá</w>
nej oblíben
min e</w>
ku řá
di men
S on
Po lož</w>
x em</w>
prosaz ování</w>
ostrov a</w>
tran spor
o fi
důvod em</w>
vy č
násled ujícím</w>
stá lé</w>
le ra</w>
aku mu
ta ť
oč kování</w>
kri zí</w>
a nem</w>
Ry an</w>
mí rně</w>
3. 1</w>
mati cký</w>
Mu ži</w>
dě cko</w>
š ti
předpoklá dat</w>
ní t</w>
b ku</w>
ka za
Lon dýna</w>
č ném</w>
dodava tele</w>
dne te</w>
počí tá
rybá řské</w>
Chri si</w>
cen ami</w>
propa ga
mě ny</w>
vše obecné</w>
ne leg
p py</w>
Větš inou</w>
de ale
Nech ala</w>
ur čuje</w>
opa t
mou dro
pře je</w>
otevřen ý</w>
adre sy</w>
příš tích</w>
Na te</w>
Her ceg
Č tvr
D AL
1 30</w>
nej du</w>
b aby</w>
přeru šení</w>
desig n</w>
fung ují</w>
pos ra
pa ň</w>
vy hotov
stra ši
a .
t .</w>
má my</w>
krás nou</w>
Ser žan
žád nej</w>
ku mu
at her</w>
Ste ph
ně kterého</w>
h ne</w>
Matt he
tř á
sy novi</w>
m ový</w>
suspen ze</w>
pos pí
4 -</w>
ethy l</w>
že la</w>
zvo lit</w>
rov ému</w>
ve ry</w>
BO R</w>
py ri
di vá
C oun
set ká
p len
li a</w>
bare v
Rus sel
Joh na</w>
š krá
zby tky</w>
qu is</w>
potravin ový</w>
len ého</w>
dvoj násob
S ky
ka ze
dí vá</w>
vyrá bí</w>
Ne z
kontin en
Uni versi
nemovi tostí</w>
krá li</w>
zá mek</w>
vý fu
sen i
ne změní</w>
chle ba</w>
Začí ná</w>
fi rem</w>
lá tor</w>
lete ckých</w>
hled ala</w>
za mí
u čil</w>
Po cho
By d
nechtě jí</w>
ce k</w>
přesvěd či
legra ční</w>
Wor ld</w>
Opa ku
Ří zení</w>
vlá d</w>
Bar ry</w>
poža d
Na jdi</w>
žen ami</w>
zařízen ích</w>
u krást</w>
rozvoj ové</w>
po mněl</w>
mina ce</w>
lékař ský</w>
in fi
studen ty</w>
pozor nosti</w>
mp a</w>
Ze mě
podně tu</w>
Těž ko</w>
praved l
pan á
B .
zdra vé</w>
pozo rování</w>
domní vám</w>
L ex
En ter
chten štej
žen ské</w>
tro n</w>
sý r</w>
sed m
in stin
navr huje</w>
ce bo
F it
se vero
dod ě
bý val</w>
Minu lý</w>
vrcho lu</w>
Mar sh
Jist ě
Švéd sko</w>
na proti</w>
Ne zapomeň</w>
pa cha
elektri ckých</w>
Uká žu</w>
společ nostem</w>
tu re
použí vány</w>
Uby tování</w>
š ou</w>
za volá</w>
znám ení</w>
podmín kou</w>
dě lo</w>
Ří káš</w>
jmé ně</w>
za bývá</w>
rukoj mí</w>
kuri ti
ce lek</w>
zá kuli
za volala</w>
sa l</w>
no cí</w>
Cí tíš</w>
tov ým</w>
sch engen
bl bej</w>
be ta</w>
ál nímu</w>
ur e</w>
kři čet</w>
ja cí</w>
polo žit</w>
ode šli</w>
metod u</w>
ozná mit</w>
d ing
zajíma vý</w>
vaši m</w>
ps ali</w>
P as
P AR
N B</w>
Jose f</w>
toxi city</w>
nejlep šího</w>
k g
hle dáš</w>
montá ž</w>
žra lo
ser vi
chiru rgi
ko pí
K in
J .
ti er</w>
sto jím</w>
li mit</w>
komi si</w>
TA K
klíč ových</w>
existu jící</w>
čá k</w>
Tu be
uhlí ku</w>
obrá zku</w>
ke cy</w>
ri p
Willi am
I g
úspě š
zla ta</w>
v ani
tepl otu</w>
fede race</w>
Veli ce</w>
boha tý</w>
G roup</w>
mo tiv
ra men
chel le</w>
zvu ku</w>
těž ká</w>
ch ty</w>
R ád
podob ná</w>
M EN
ky ta
bez prostřed
Pol ska</w>
tvr dé</w>
sou d
stu dovat</w>
kou kat</w>
D il
vě nov
m ří
bur g</w>
fyzi ckých</w>
zd í</w>
xi d</w>
pro vo
ne přátel
d ník</w>
zo ta
sti ckou</w>
na jal</w>
O kej</w>
ko lej
reál né</w>
podrob ně</w>
Ne po
tru bky</w>
na tolik</w>
d ry</w>
zdro ji</w>
ti m</w>
konkurence schopnost</w>
Insta lace</w>
He len</w>
Lin d
Ko li
za stavení</w>
h ek
I tal
4. 2004</w>
Ste ven
za vádí</w>
Pravid la</w>
za vádě
chod íš</w>
Ukra jin
Re gu
dět ské</w>
G lo
Cí l</w>
úpl ný</w>
struktu ra</w>
hospodář ským</w>
f ro
v kou</w>
ní cí</w>
armá du</w>
níz kou</w>
bý vají</w>
tur na
příbal ovou</w>
ov ny</w>
Bi ble</w>
za vádění</w>
by zny
10 2</w>
z men
léči vými</w>
její mž</w>
doty čný</w>
tle ská
nepří tel</w>
kro kem</w>
Moj ží
mechani smy</w>
na psala</w>
chlapí k</w>
sklení kových</w>
zá li
největ ším</w>
ra l
nesmí š</w>
R al
že ň</w>
ve deme</w>
sní ží</w>
prac ujeme</w>
pomá hají</w>
vy ta
proce du
řek neme</w>
slu ší</w>
pod pis</w>
podmín kám</w>
prac ování</w>
plá že</w>
kvalifi kace</w>
vy jít</w>
pali v</w>
ob držel</w>
lep ším</w>
P O</w>
Ne dovo
D ům</w>
ple s</w>
specifi ckých</w>
pa le
Jistě že</w>
scéná ř</w>
matemati ky</w>
manže lku</w>
inf luen
Po ly
vypa dni</w>
ov ky</w>
F en
DV D</w>
st rej
zach ová
ji h</w>
Islan d</w>
útě ku</w>
nov inách</w>
Wo od
M L</w>
ví ře</w>
chá te</w>
od jel</w>
na vště
na před</w>
uve ďte</w>
K le
příbal ové</w>
jmen ován</w>
v čas
r ské</w>
p ø
nedosta tku</w>
chá me</w>
bu l
an děl
Je dním</w>
rych lej
recep t</w>
Sna ží</w>
10 ,
svíti lny</w>
o lan
na r</w>
od lov
dosáh l</w>
t kách</w>
finan čními</w>
čin il</w>
vyso kého</w>
tvá ři</w>
spolu byd
pře dat</w>
f loti
občan ům</w>
ř skou</w>
umí me</w>
s hledanou</w>
podporu jí</w>
par ťá
ne hody</w>
set kal</w>
P ru
zabi tí</w>
τ η
doz vědět</w>
Čí nské</w>
s ních</w>
pů dě</w>
š ci</w>
toto žnosti</w>
st ry</w>
kte j
Protoko lu</w>
vlá dě</w>
mili ónů</w>
da že</w>
Nej prve</w>
H ry</w>
udrž ovat</w>
t hat</w>
ptá ci</w>
smu tné</w>
9 9
roz dělit</w>
svěd ka</w>
f fe
zlo činu</w>
Mě ly</w>
potřeb ovali</w>
plat bu</w>
in ový</w>
Na posle
učin ili</w>
U ru
Nená vidím</w>
náz vy</w>
P in
Ně kolik</w>
2 10</w>
sí d
r g
R R</w>
zá ny</w>
zjišť ování</w>
sr dcem</w>
sk an
Ob chodní</w>
Agen tura</w>
zábav né</w>
pi ly</w>
na bi
Jak e</w>
š pí
vez li</w>
uve dou</w>
d vá
Pa tří</w>
zatracen ý</w>
Per fektní</w>
nedoká že</w>
Lé ka
vaje c</w>
rodi čům</w>
ná kazy</w>
ji stej</w>
Thoma s</w>
omezen ý</w>
Ta nec</w>
nehod ě</w>
má sla</w>
v leč
Stra ny</w>
vesmí r</w>
mléč né</w>
ac quis</w>
zem řeli</w>
o .</w>
Stře dní</w>
10 9</w>
Ne budeme</w>
minist ra</w>
metod ou</w>
Zá sa
přísluš nou</w>
zneči štění</w>
zhor šení</w>
transparen tnosti</w>
pře chodu</w>
ze ptám</w>
I AS</w>
s dělen
S pr
OP AT
utek la</w>
Paří že</w>
sch ovat</w>
ko žní</w>
inter ven
dáv kách</w>
ban ku</w>
Charlot te</w>
pra chu</w>
konsta tuje</w>
š ou
Úře dní</w>
s volení</w>
neu blí
N Y</w>
rozhod nu
plo chu</w>
léči vého</w>
in teri
něme cké</w>
zákaz níka</w>
z máč
f li
Dani eli</w>
člen ství</w>
slu neční</w>
rado stí</w>
An na</w>
struktu ru</w>
Ro k</w>
sdí let</w>
lát kami</w>
kan ál</w>
cí me</w>
o plá
Car lo
ka ret</w>
H rá
s ha
Sch vá
včer ej
sna žili</w>
Před mě
Po stup</w>
H ote
z ni</w>
ovliv ňuje</w>
od volání</w>
S lou
Hu d
uží vá</w>
reži my</w>
Chla pe</w>
tá lně</w>
i ii</w>
do stává</w>
Je du</w>
vypořá dat</w>
dce rou</w>
H led
zá su
Chorvat sko</w>
obilov iny</w>
lhů tu</w>
hu st
Spou sta</w>
u p
Strá ž
Bo le
tan čit</w>
důvě ry</w>
Bu da
pa dají</w>
infar kt</w>
se kce</w>
nená vidí</w>
Ú ča
tý my</w>
intera kce</w>
č níku</w>
Indi i</w>
výz vu</w>
sm em</w>
nepří jem
po vi</w>
do pi
ch te</w>
.12. 2006</w>
zač aly</w>
h ali</w>
dí vám</w>
t ó
rovnová hy</w>
N ak
lo n
lo aj
vybra la</w>
t cích</w>
si ru
Ada me</w>
m ních</w>
bezpeč ný</w>
O prav
fiel d</w>
K R
úřed níků</w>
zprostřed kova
k men</w>
B au
sto ne</w>
palu bu</w>
komponen t</w>
O BAL
vyj ma</w>
um řela</w>
sp p</w>
še jí</w>
čtvrt letí</w>
zákuli sí</w>
po věst</w>
seda dla</w>
pří stupo
na jící</w>
Mi mo</w>
c an
obrá tit</w>
uvědo mit</w>
sna ze</w>
po škod
posuz ovaného</w>
regu laci</w>
cest ovat</w>
té matu</w>
la m
Za čal</w>
é ry</w>
V oda</w>
zů stali</w>
vý chozí</w>
poly mer
m bie</w>
ga mi</w>
vni troze
stě hu
sní st</w>
po vý
pl no</w>
Zač neme</w>
I L
uči ní</w>
t ována</w>
mode ly</w>
epi z
u k</w>
preziden te</w>
thi azi
sebe vraždu</w>
por té
Ter ry</w>
Ir ska</w>
zalo žen</w>
pad li</w>
Mal ý</w>
pohy buje</w>
živ ých</w>
pě ti
dospě la</w>
Mě sto</w>
H S</w>
vymě nit</w>
u my
úče lům</w>
hod inou</w>
dale ka</w>
VÝRO B
konstruk ci</w>
vá hu</w>
vdě čný</w>
úsmě v</w>
trest né</w>
při nesla</w>
písni čku</w>
ot ví
obnov it</w>
mon d</w>
Ir sku</w>
zá bě
pří nos</w>
bo x
šílen á</w>
při cházejí</w>
kapaci t</w>
Le s
výrob ním</w>
po st
ck s</w>
ká tor</w>
reali zaci</w>
zů stanou</w>
začí nají</w>
správ a</w>
ná cti</w>
provoz ování</w>
Nu že</w>
v ové</w>
pokle su</w>
o kay</w>
ně tí</w>
ne vidi
dí ru</w>
Standar dní</w>
zvra cení</w>
přesu ňte</w>
pla tek</w>
násled uje</w>
e hm</w>
Jer uz
h i</w>
ú dolí</w>
če šky</w>
OBSA H</w>
Dí vej</w>
ná bytek</w>
U K</w>
py šný</w>
S or
Vz ala</w>
Ra z</w>
sou dního</w>
samosta tné</w>
píse mné</w>
pr d</w>
Zá stup
jedno značně</w>
dov ě</w>
Bo ot
pat ři
o str
na slou
gos lá
struktu rální</w>
V ni
ži jící</w>
svěde ctví</w>
Jmen uju</w>
vě čně</w>
služ bám</w>
li tera
sk al
udrži telného</w>
se kuriti
pos vá
drá hy</w>
šir ší</w>
sm ím</w>
od su
m ových</w>
jmen ovi
ge ometri
ště ný</w>
T Ř
Li chtenštej
do kladů</w>
nevy ža
identifi kace</w>
čas ů</w>
čas ové</w>
ten krát</w>
pan ě</w>
S líbil</w>
Netu ším</w>
nepří tele</w>
jeh ly</w>
de lní</w>
ck ej</w>
ho j
brazi lky</w>
přirozen ě</w>
j dem</w>
V an
smr dí</w>
mr z
Phi li
táh ne</w>
koncer t</w>
ko ní</w>
gu e</w>
zákla dnu</w>
k ve</w>
soft waru</w>
ob ezře
kom pe
ko ší
OBAL U</w>
LÁ TEK</w>
člen ka</w>
oceá nu</w>
ko z</w>
klíč ové</w>
ex pozici</w>
B C</w>
pi j</w>
od pá
ing o</w>
europa. eu</w>
domác nosti</w>
předmě tů</w>
Dá vám</w>
rozví jet</w>
ne dal</w>
pro chází</w>
vez u</w>
te -</w>
da ž</w>
vý klad</w>
vo jem</w>
nech ut
kr ví</w>
il ly</w>
l oval</w>
kon gre
Sta ti
v skutku</w>
mě stem</w>
H lu
Rumun sko</w>
O bra
řin ku</w>
zapome ňte</w>
kg m</w>
Od díl</w>
Ne budeš</w>
5 5
Pl nění</w>
D U
po psané</w>
O oh</w>
nehod u</w>
je ví</w>
Gratulu ju</w>
s ům</w>
m lí
le du</w>
do by
Ca therine</w>
zó ny</w>
le dnu</w>
efek t</w>
doplň ují</w>
Ča sto</w>
vi r</w>
no ha</w>
drži tele</w>
Podí vám</w>
tradi ce</w>
sně mov
větš iny</w>
l ý
ká zat</w>
jmen ovat</w>
Hla va</w>
zni čení</w>
od ve
Pří ští</w>
aktiv ně</w>
vy hodnocení</w>
s co</w>
Ne existuje</w>
Mari a</w>
ní cích</w>
červ nu</w>
zen u</w>
za h
polo ze</w>
pa tro</w>
t ali</w>
příčin ou</w>
mí nus</w>
ru čně</w>
po hromadě</w>
analy zuje</w>
vy ha
komunika čních</w>
há ně
Uru gua
Ne potřebuju</w>
Ha w
si den
F ra
dý cha
Ja mie</w>
E E
Do prava</w>
při rozené</w>
dr žíš</w>
čá stech</w>
středi sko</w>
mnoho krát</w>
její mu</w>
A 4</w>
rádi o</w>
poskyt nou</w>
nu li</w>
di ka
Tha js
Hote ly</w>
re kor
nevin ný</w>
kur z
b l</w>
kří ž
jist ota</w>
G lob
vy pá
prde li</w>
Sna žila</w>
Ne byly</w>
Bo x</w>
pohle dávky</w>
techni cky</w>
stran né</w>
konstruk ční</w>
mó dní</w>
jednotli vými</w>
Ameri čan
n sko</w>
S H
zi sten
pneumati ky</w>
Brazí lie</w>
č kové</w>
informa cemi</w>
M ý
Ú Č
ne přímo</w>
dola r</w>
Smlou vě</w>
Li z</w>
pero rá
Pů jdeš</w>
Fran k
prac ujete</w>
podí vejme</w>
Ne víte</w>
20 1</w>
rov nání</w>
použi la</w>
la r</w>
di vu
vy držet</w>
slad ké</w>
sa mi
podob ného</w>
od kazuje</w>
Chlap i</w>
skó re</w>
ni čím</w>
Kter á</w>
ο υ</w>
ak cep
VÁ DĚ
Tele fon</w>
ví ry</w>
sal át</w>
jaká koli</w>
b ene
laborato ř</w>
regi on</w>
ku řa
My Lust</w>
s ním</w>
jader ných</w>
Dov oz
pozem ku</w>
nej deš</w>
zaru čit</w>
vy lo
tla čit</w>
An no</w>
rov nice</w>
LÉČIV ÉHO</w>
E hm</w>
Ce sta</w>
soubor em</w>
nazna čuje</w>
U dělali</w>
kro ku</w>
di ž</w>
kam paň</w>
U l
Gene rální</w>
pří jezdu</w>
H um
vedou cího</w>
pře vzít</w>
hla sů</w>
so lu
rov ně</w>
Bla ho
plane tu</w>
T U</w>
považ ováno</w>
ne platí</w>
za hu
Sophi e</w>
vyrov nat</w>
F IN
čas ování</w>
rov nosti</w>
diva dlo</w>
to ky</w>
po jem</w>
pisto li</w>
ná lní</w>
strategi í</w>
kr va
ve změ
navr hnout</w>
g em</w>
OPAT ŘENÍ</w>
úře dních</w>
ru ční</w>
pro dává</w>
ko ři
ne dělal</w>
le an
Přemýš lel</w>
se sla
U vol
vide o
ko ši
O ba
dodá vku</w>
ab sur
subje ktem</w>
dotaz ník</w>
Ve se
procen to</w>
mně li</w>
kontak ty</w>
gé nius</w>
sob e
cel ých</w>
de pozi
tal y
pracov ním</w>
Bu dd
zjednodu šení</w>
nej nižší</w>
ků ň</w>
ú se
Ma n</w>
omez ena</w>
krá tce</w>
zá dech</w>
výlu čně</w>
armá dě</w>
řád ku</w>
Mi ami</w>
La dy</w>
do l
POD ÁNÍ</w>
Do šlo</w>
k ováno</w>
čen ého</w>
Zá roveň</w>
ov ně</w>
moti v</w>
alo st</w>
ri tu
ck e
sé rii</w>
čí cí</w>
E Z
sti na</w>
rybolov ných</w>
pro ná
pi rá
9 00</w>
všech en</w>
rozhod ující</w>
podezře lý</w>
i mi
bar vi
po mohli</w>
Po můžu</w>
práv nické</w>
červen á</w>
uveden ému</w>
ser ví
politi ckou</w>
la ri
di ště</w>
d le
C lu
věc mi</w>
plat ností</w>
dotyč ných</w>
Angli i</w>
STA NOV
vy myslet</w>
nesmí rně</w>
poly e
TAK TO</w>
návaz nosti</w>
le pi
šam pa
organi smů</w>
bo x</w>
R A</w>
vhod nější</w>
ná če
Buda pe
Dosta neme</w>
b ové</w>
nezávisl é</w>
vykoná vá</w>
pova ze</w>
partne ři</w>
1 11</w>
šíř ce</w>
za volejte</w>
vol ná</w>
ne g
tel u</w>
opu stí</w>
an ony
přechod né</w>
nástro jem</w>
Andre w</w>
vpi chu</w>
en u</w>
ban kou</w>
ry tí
bole sti
absolu tně</w>
vo r</w>
techni ka</w>
pozor ně</w>
podni kem</w>
po vedlo</w>
emi ten
drži tel</w>
mezi tím</w>
jakého koliv</w>
červen ý</w>
od bo
měr em</w>
ká tní</w>
hvěz di
š ovi</w>
Je sse</w>
pamatu j</w>
Pro to
Po ker</w>
pl no
přija t</w>
o f
ko pat</w>
zra k</w>
zasra ný</w>
Nan cy</w>
Dr ži
le tého</w>
udě lit</w>
léč bou</w>
Smi th
čí sl
poz nali</w>
pouš tím</w>
e le
A G
u re
sáh ne</w>
Otá zka</w>
zat čen</w>
vypoč ten
te plo
prá vech</w>
změ nám</w>
ni zozem
intenzi vní</w>
NÍ HO</w>
den ík</w>
Plu s</w>
Španěl sku</w>
uplat ňují</w>
po stupech</w>
od pady</w>
neuvěři telně</w>
D ane</w>
karcin o
Ze ptej</w>
p ho
nut nosti</w>
hot ové</w>
dá m
pře z
filo zo
Li mi
w in
1, 3</w>
studen ti</w>
klu s</w>
ho ďte</w>
Te ra
por tugal
mo rá
ce stá
Zo e</w>
Smlou va</w>
pozor u
dítě tem</w>
Od stra
en a
cel kově</w>
Z ra
M mm</w>
zalo ženo</w>
ná c
domá cích</w>
4. 2.
svě dek</w>
Pro jekt</w>
vyp nout</w>
K U</w>
z ovaného</w>
přílo hách</w>
ko ktej
ko jen
st é
ry t
její mi</w>
Na jdeme</w>
EI B</w>
vá k</w>
vy hla
Be tty</w>
ko ka
Če ká</w>
vin out</w>
doplň ující</w>
cle a
Prin ce
t s
environ mentá
Zdro j</w>
Washing tonu</w>
zákaz níkům</w>
peně zi</w>
ná hle</w>
lo we
ve ge
fil mů</w>
Interne tové</w>
svět lem</w>
Te de</w>
souhla sil</w>
li s</w>
M ov
počí tá</w>
B B</w>
Sly ším</w>
ži vá</w>
po vé</w>
nechce me</w>
Plá n</w>
vlá dních</w>
přij aly</w>
pro sit</w>
pro mí
fot ka</w>
Vy berte</w>
pí nám</w>
plat ný</w>
hot ová</w>
Z nění</w>
š at
Smr t</w>
Re ži
Minister stvo</w>
An der
propo jen
benzí n</w>
ba rié
e a</w>
Mar ty</w>
účast níky</w>
la na</w>
Rád i</w>
žádn ým</w>
z vět
i ro
Při praven</w>
za váz
všim la</w>
situa cích</w>
cigare ty</w>
Ru sku</w>
rozu mi
ra tifi
půj dou</w>
pauš ální</w>
pře jít</w>
DAL ŠÍ</w>
se dni</w>
na stane</w>
hmo ty</w>
fin ále</w>
citli vě
zbra němi</w>
ze ň
věří cí</w>
nau čila</w>
ob žal
place bem</w>
Ken ne
zelen ina</w>
pro šla</w>
Mo sk
pro sa
použí vejte</w>
hajz l</w>
mys lem</w>
fosfor e
sbliž ování</w>
ulo žit</w>
Vypa dáte</w>
při stěhov
Str ý
dot knout</w>
y o</w>
va če</w>
nedáv né</w>
mati cky</w>
In jek
vě řila</w>
služ ka</w>
lá me</w>
Fran kie</w>
Dí tě</w>
měst ské</w>
Sv ob
3. 2</w>
o lympi
U POZOR
no r</w>
M U</w>
I n</w>
táh ni</w>
takov ýho</w>
níz ká</w>
mi strov
kapitá na</w>
ú st</w>
bo sti</w>
Stro je</w>
vý hledem</w>
průměr ný</w>
min ce</w>
len y</w>
struktu rálních</w>
předmě t</w>
Nech ť</w>
uživa tel</w>
přije la</w>
pohy bovat</w>
ko mu
Ho lky</w>
Žada tel</w>
jezd í</w>
ethy len
souhla su</w>
chu tná</w>
V ál
sti ky</w>
po rozumění</w>
obleč ené</w>
de va
smě sí</w>
b inární</w>
a bysme</w>
č nan
působ í
pří znaků</w>
ne vidí</w>
K L
oblíben á</w>
nástro ji</w>
d voru</w>
xi e</w>
pá te
Vzpomí nám</w>
Sou stře
ří m
pro mluvil</w>
pocho pi
lož nici</w>
V NÍ</w>
L e</w>
zási lky</w>
si ness</w>
Stanovi sko</w>
užiteč ných</w>
doká žeme</w>
C S</w>
Rob in</w>
Do nal
u chopte</w>
otev ři</w>
za vaz
chy třejší</w>
vz dal</w>
použi to</w>
jmen oval</w>
flu or
bom by</w>
opráv něné</w>
rekla my</w>
25 .
li čku</w>
cí š</w>
odmě na</w>
jí del
k odex</w>
Na vi
statisti ckých</w>
přeprav ě</w>
dom em</w>
Willi am</w>
pro tiv
neu mím</w>
Po su
Odpově ď</w>
4 50</w>
ne mluví</w>
Afri ky</w>
veli tele</w>
17 84</w>
tra gé
ge l</w>
doz věděl</w>
objek t</w>
Mezi tím</w>
kredi tní</w>
ře z</w>
Ca me
stá tním</w>
pra sk
bi s</w>
Su e</w>
vý šky</w>
při stání</w>
Caro line</w>
o ff</w>
vypad ala</w>
profe sor</w>
len ce</w>
Hol ly
Sled uj</w>
Afgháni stánu</w>
stěh ova
vyhov uje</w>
antidumping ových</w>
premi é
odmít nutí</w>
S M</w>
mi ssi
bez va</w>
š o
pr st</w>
ka te
neza č
kap se</w>
Ne chceme</w>
A li</w>
do r</w>
ul ůž
tel nými</w>
K lik
Stra te
NÍ CH</w>
Ne jméně</w>
o ke</w>
hmot ností</w>
pr émie</w>
hovo ří</w>
ar a</w>
Pracov ní</w>
pá ni</w>
ně kterými</w>
kov aného</w>
vět šího</w>
kru hu</w>
koste l</w>
ji z
po ní
ne použije</w>
likvidi ty</w>
a me</w>
P U
zná ní</w>
půl noci</w>
o ro
do lo
tov ém</w>
shromažď ování</w>
samot ných</w>
ne mění</w>
ME A</w>
zaká záno</w>
ob jednat</w>
nov y</w>
krmi v</w>
Han nah</w>
Au to</w>
ff y</w>
ch ova
pů m</w>
o pí
j uje</w>
účin ný</w>
proká záno</w>
ďá ku</w>
sol ven
prav u</w>
ot y
mimořád né</w>
pani ka
hrá čů</w>
hez čí</w>
w n
poskytova tele</w>
odrá ží</w>
komo ry</w>
zví ře
proce sů</w>
ochran ná</w>
kdo koli</w>
za ta
východ ě</w>
W TO</w>
minimá lních</w>
hodno tící</w>
L ze</w>
J uni
výzku mné</w>
vzpomen out</w>
před cházení</w>
va ci</w>
pr é
list ů</w>
budov u</w>
nezahr nuje</w>
doz or
komuni kací</w>
glukó zy</w>
dov ým</w>
tělocvi č
člen ění</w>
Pamatu jete</w>
ji na</w>
fa zo
Ne rad</w>
Elek tri
b níku</w>
vše cko</w>
sl in
mar k</w>
Vy držte</w>
to x
ci o</w>
poku sit</w>
cháze li</w>
che r</w>
cen ého</w>
če sky</w>
texti lních</w>
obra nu</w>
blb ý</w>
tý dnech</w>
komer ční</w>
Ho me</w>
Cla rku</w>
sá l</w>
ko jení</w>
A bys</w>
vydava tele</w>
čeká š</w>
slov níku</w>
Z po
ne cítím</w>
cí lové</w>
statu tu</w>
dá vejte</w>
li te
chlap ů</w>
E s
G O
ptá ka</w>
ju dika
Ma tko</w>
IF RS</w>
uzav řených</w>
pan y</w>
Do mini
vi tro</w>
sv in
mno zí</w>
E T</w>
Bělo ru
cen ách</w>
ří dila</w>
ptá te</w>
pochop ení</w>
omy l</w>
g he
h ého</w>
zkou š
mě jte</w>
sportov kyně</w>
vznik lé</w>
prv ot
posu d</w>
dů raz
získá te</w>
roz tleská
no s
zvý šil</w>
pů lku</w>
odbor nou</w>
Ro ze
H ig
způsob í</w>
m ovi</w>
extré mní</w>
při hlí
prázd né</w>
Ven ku</w>
záru k</w>
polov iny</w>
nale zení</w>
Zku sím</w>
a gu
vyjedná vání</w>
vez mou</w>
pla til</w>
ko tv
O pti
mě na</w>
apartmá ny</w>
Lo is</w>
s bohem</w>
pů du</w>
budou cích</w>
seržan te</w>
toxi ci
para metrů</w>
oznamu jí</w>
o žen
z l</w>
agen ta</w>
T P</w>
P V
po lí
přij deme</w>
maji tele</w>
ň ujeme</w>
čtvr té</w>
saz bu</w>
kompe ten
bo let</w>
lo so
agentu ře</w>
u držení</w>
Vý kon
Jere my</w>
Bro ok
man n</w>
laborato ři</w>
univerzi ty</w>
surov iny</w>
předlo žených</w>
men ts</w>
vezmě te</w>
při vádí</w>
na čase</w>
mobil ů</w>
logi ckých</w>
Ob jem</w>
za blo
maji tel</w>
kodex u</w>
kap sy</w>
t skou</w>
konkurence schopnosti</w>
prac ující</w>
nedo poru
nepo važ
i se</w>
UPOZOR NĚNÍ</w>
vý ch
indi kace</w>
dovo lte</w>
uživa telé</w>
ra si
pra sa
kamará dky</w>
Svět ové</w>
Den ni
rovno cenné</w>
o cho
ji li</w>
bou r
Europ e</w>
t výho</w>
střed ně
při dané</w>
S um
pru ž
ope rá
mnoho stranných</w>
An ne</w>
A pp
f lá
sekto r</w>
poš lu</w>
b as
Po ložka</w>
začí nám</w>
zahra dě</w>
reži mů</w>
C .
ne myslela</w>
mla di
Mi chelle</w>
ú tu
vy ři
Z bytek</w>
údrž by</w>
de bi
κ α
u skuteční</w>
ne musíme</w>
Vezme me</w>
Scot t</w>
D vo
t ník</w>
el le</w>
Ri cky</w>
A t
zi sky</w>
y a
o slov
ne znáš</w>
inde x</w>
hra jeme</w>
do kázala</w>
Domá cí</w>
nej hor
cestá ch</w>
EN Ý</w>
tak z
ode jdu</w>
4 8
pod pisu</w>
le tá</w>
ck ey</w>
Al li
zd voj
zapo jit</w>
pře konat</w>
pr il</w>
obdob ím</w>
me l</w>
Pří spě
nena šli</w>
demokra tické</w>
Who a</w>
škr t
Úče tního</w>
usnad nit</w>
hra d</w>
Kter é</w>
uni verzá
g el
Revolu ční</w>
vz ne
mě ně</w>
sil nou</w>
cel ým</w>
dokto rka</w>
ne smr
adre sá
se zeni</w>
představ oval</w>
slab ý</w>
Jen ni
A G</w>
ča rou</w>
vý mlu
mysle te</w>
hlu ku</w>
Pre ss</w>
čin nostech</w>
uvědo mila</w>
dobrovol ně</w>
vy dí
nu tá</w>
nu ty</w>
konstruk cí</w>
dosáh li</w>
z ovaná</w>
D Í
pi lu
p ali</w>
změ nou</w>
za o
vra cet</w>
ni čky</w>
integra ci</w>
hra du</w>
fale šné</w>
rela tivně</w>
odmít l</w>
ně muž</w>
bav ené</w>
kámo ši</w>
kon ců</w>
ži va</w>
pomoc ných</w>
g ové</w>
Na opak</w>
Bra vo</w>
P ova
mraz ené</w>
bezprostřed ně</w>
K er
vi ew</w>
popu laci</w>
dod at</w>
stav ů</w>
Sto jí</w>
sou dem</w>
B U
přije t</w>
domin y</w>
Taylo r</w>
stu doval</w>
přá telům</w>
Bezpeč nostní</w>
zaji stilo</w>
vyhov ě
nazý vá</w>
míst ního</w>
Mal á</w>
zása h</w>
plet ené</w>
zachrá nila</w>
nedoká zal</w>
ma tko</w>
šťast né</w>
ro čních</w>
ná řadí</w>
Y ou</w>
rov nat</w>
předse dou</w>
ple te
dokon ale</w>
B lá
před kládá</w>
Vši m
P ali
H o</w>
trá vu</w>
hod nost</w>
zatk nout</w>
t ma</w>
sla bost</w>
an děl</w>
tři cet</w>
ro čního</w>
pří stroj</w>
pro g
pora dit</w>
v otní</w>
prac uji</w>
Restau race</w>
z drž
Před stav
Enter pri
Da i
nádr že</w>
T ě</w>
u če
poz ná</w>
po t</w>
piz zu</w>
far má
dospě lé</w>
Na jednou</w>
inter fero
s platnosti</w>
lek ce</w>
M ake
par kování</w>
T H
vytvá ře
plý t
Bar ro
u dělování</w>
kar ta</w>
hově zí</w>
J I
tř ím</w>
ry ba</w>
ne mocí</w>
hor ko</w>
Ba y</w>
tri čko</w>
pá trá
C PA</w>
zákla du</w>
u veřej
Zabi ju</w>
S ur
vě řili</w>
nechá vá</w>
Mar gare
chytr é</w>
Vy z
S N
pod kla
e vaku
obvyk lé</w>
jíž dí</w>
hlu k</w>
vypa dáte</w>
nějak ém</w>
lek ci</w>
děv čata</w>
Vě c</w>
se strou</w>
ital ské</w>
Pro mluvíme</w>
plukov níku</w>
a z
čt vere
it h</w>
zůsta neš</w>
sna dný</w>
ráž ce</w>
roz měry</w>
spon den
ro dí</w>
promě n
kou kni</w>
STANOV ENÍ</w>
hu h</w>
prosto rách</w>
do kázali</w>
rovnová hu</w>
per fek
Pamatu ju</w>
Bri an</w>
18 2</w>
o živ
c co</w>
b ra</w>
řek nutí</w>
partne rů</w>
a mi
P řen
č o
studen t</w>
rozhod nuto</w>
pe ch</w>
ni ckého</w>
Ne dokážu</w>
vy hraje</w>
neu mí</w>
d kou</w>
dí lů</w>
dce ři</w>
Č in
vy táhnout</w>
vy spat</w>
kam paně</w>
va ti</w>
provádě ných</w>
min y</w>
domá cího</w>
závě rky</w>
z rů
vy spě
pře stala</w>
Je ss</w>
Č as
1, 4</w>
jezd em</w>
bři cha</w>
Dě je</w>
studi u</w>
samot nou</w>
preziden tem</w>
le ten
důleži tých</w>
AU C</w>
ŠAR ŽE</w>
vstup ních</w>
přes hrani
laborato rní</w>
á lem</w>
jedna cího</w>
ti ckým</w>
manže lem</w>
pá sy</w>
uvádě t</w>
mo re</w>
to ků</w>
popu lací</w>
plat z</w>
sezná mit</w>
Hospod in
27 0</w>
přij ali</w>
pře vzetí</w>
bo y</w>
pře dání</w>
oddělen ě</w>
rozpoč tového</w>
pli c</w>
J a</w>
krov l
Dlou ho</w>
to navi
rozhod uje</w>
ho t</w>
chla zení</w>
výcvi ku</w>
odchy lka</w>
t ta</w>
nespráv nou</w>
bra trem</w>
M M
porov ná
je vi
Preziden t</w>
po rá
0, 1</w>
proce sy</w>
koefici ent</w>
anti bioti
vy tápění</w>
Kdy bychom</w>
vě tru</w>
šň ů
sta neme</w>
ju ris
doplň ky</w>
tiv ními</w>
vod it</w>
spě ch</w>
nepřesa hujícím</w>
konkré tním</w>
Sa mu
vy šel</w>
leže lo</w>
chlap em</w>
EN É</w>
sto pa</w>
pre vence</w>
ko lí
Dal ším</w>
přes ný</w>
m p</w>
analý ze</w>
Posky t
t ovací</w>
fi al
C in
zasra nej</w>
kan iny</w>
Chy bě
skří ň
svět ovém</w>
likvi daci</w>
za hrá
st ku</w>
di son</w>
by tosti</w>
as y
boj oval</w>
As hle
ve deš</w>
Sloven sku</w>
volá me</w>
prostřed ku</w>
kov a</w>
jednot ce</w>
dosáh ne</w>
mandá tu</w>
uvol nit</w>
Pol sku</w>
KO VÁ</w>
zdra vý</w>
stup né</w>
spá nek</w>
s met
ra zí
ná pla
bio ci
p Tube</w>
kvalifi kaci</w>
ej ch</w>
pod vod</w>
- Na</w>
t hy
klien ty</w>
t ón</w>
raz ím</w>
techni cký</w>
VÝ BOR</w>
vyrob eny</w>
c lo
Sun dej</w>
O pe
sušen ky</w>
měr né</w>
tvů r
fas cin
201 9</w>
rozhod ovat</w>
rov y</w>
kon stan
bav lny</w>
Před volba</w>
bare v</w>
a čkoliv</w>
Char li
kámo še</w>
Sou kro
koneč nou</w>
demokra cii</w>
zastře lit</w>
komple x
ce j</w>
r kou</w>
dosáh la</w>
bi čka</w>
agentu rou</w>
Z bláznil</w>
P il
ště ná</w>
využi tím</w>
to v</w>
fen y
clea rance</w>
B ry
ci bu
pla ká
Sed m</w>
Pe ter
čt ver
zákla dem</w>
vá žná</w>
s váz
po případě</w>
pla tu</w>
řetěz ce</w>
za kazuje</w>
nezávi sle</w>
0 4
pře stane</w>
nepo čí
lékár níka</w>
l t</w>
an ovi</w>
Re i
ta go
pro si
B LI
čin it</w>
léči vý</w>
kou řit</w>
Ar gen
vy dá</w>
pře žil</w>
pod ru
nez ná</w>
koncentra ci</w>
žá k</w>
Z ru
In spe
zohled nění</w>
t ter
lo ď
ce lu
ka bát</w>
M IN
sy nov
politi cký</w>
Ně jaká</w>
par ti
Podob ně</w>
v ém</w>
sh e</w>
přita ž
pero rální</w>
m ere</w>
deví ti</w>
aso ci
Pe g
ze j</w>
vybra nou</w>
po stupovat</w>
ma sk
koleg y</w>
Vá žený</w>
kou pel</w>
fede rální</w>
cti hodnosti</w>
J ar
vlaj ky</w>
B as
výzku mných</w>
přij dete</w>
Kli mati
Tech nické</w>
JÍ CÍ</w>
eu ra</w>
Vi ra
Ne znám</w>
Na tali
tvr dá</w>
čist ou</w>
ta šku</w>
mo rální</w>
jas ná</w>
Jenni fer</w>
Gre en
ná ru
mal í
kří dla</w>
stro ji</w>
ko šili</w>
průvod ce</w>
evrop ská</w>
strý c</w>
sní mky</w>
odmě ny</w>
leti š
ště n</w>
vý dě
spa dají</w>
náro d</w>
život ním</w>
u va
pří kladem</w>
Vypa dám</w>
Me ga
zu bů</w>
psy ch
Pře de
softwa rových</w>
s mo
Nene chám</w>
úspě šný</w>
vá pen
pos lá
a f
Fa ra
udě lejte</w>
skup ení</w>
na plán
práz dný</w>
Z mlkni</w>
Si mone</w>
zá měr</w>
s ád
Ce lní</w>
před á</w>
jedi neč
há dám</w>
vy pracovat</w>
prav dou</w>
kno f
hroz ná</w>
defin ované</w>
ci li
D U</w>
tivi tu</w>
Če tl</w>
dr s
roz pu
po znamenat</w>
l že</w>
fak ta</w>
Pří prav
veřej ném</w>
poru šování</w>
part má</w>
jí mají</w>
Ke vin</w>
bou ře</w>
su šené</w>
studi um</w>
dvaná cti</w>
če s
A 00
pro por
Pospě š</w>
HLA VA</w>
skleni čku</w>
rodi la</w>
r ných</w>
doda tek</w>
tvr dý</w>
podezře lého</w>
jí ce</w>
D AT
tel ní</w>
so novi</w>
pla men
j ce</w>
ple ť</w>
š ů</w>
úvě r</w>
sta rost
s se
Z vo
Hu h</w>
ře ch</w>
rozsáh lé</w>
dospě l</w>
oprav dové</w>
vojá ků</w>
sr d
z kou</w>
bi lo</w>
po klad</w>
adre se</w>
uveden ím</w>
udělen o</w>
re krea
fede rá
aku tní</w>
PŘÍPRAVK Ů</w>
Ko muni
svěd čí</w>
Universi ty</w>
vy myslel</w>
zi la</w>
zeměpis né</w>
DE M</w>
1 107</w>
o sy</w>
Ne žádoucí</w>
tábor a</w>
skvě lej</w>
ne rad</w>
pohře š
otevřen á</w>
mi lost</w>
kyslí ku</w>
inhibi tory</w>
energe tických</w>
alkoho li
C Í
uvě z
při pev
cy kla
ali bi</w>
Wil l</w>
se veru</w>
be zdrá
Zajíma vé</w>
zastře lil</w>
tvor bu</w>
Indu stri
zdravot nictví</w>
schválen a</w>
rodi či</w>
vají čka</w>
sp .</w>
pa dám</w>
Ma x
zkou mání</w>
minister stva</w>
děv ko</w>
tu ješ</w>
ni na</w>
et inu</w>
e se
Kou pel
od škod
kau ču
kar di
Z bra
Jed em</w>
z lého</w>
u sil
Izra el</w>
če te</w>
stru m</w>
přemýš lela</w>
leta dle</w>
diag nó
w an</w>
sun dat</w>
Sou du</w>
G PS</w>
jed nal</w>
he dvá
di sk</w>
Chudá k</w>
zví tě
distribu ci</w>
E MEA</w>
vý chodu</w>
vypočí tá</w>
pou hých</w>
krát ký</w>
Sto p</w>
důleži tého</w>
Ture cko</w>
čtyř mi</w>
na vrácení</w>
Na jdu</w>
vojá ky</w>
reali zace</w>
zat čení</w>
r .
cy klus</w>
he ro
E .
hod ina</w>
du m</w>
vhod nou</w>
těž kou</w>
disku tovat</w>
bá la</w>
expozi c</w>
vy hodil</w>
logi i</w>
Rod in
dáv ali</w>
žalu dku</w>
vole b</w>
Pře klad</w>
Pa i
ba vili</w>
Ne jen</w>
profi lu</w>
vo lní</w>
uvádě jí</w>
stou pila</w>
od raz
Vě de
Vo lala</w>
Klí č
za ja
vrá títe</w>
prostitu tky</w>
Se ba
tá š</w>
z pravidla</w>
vy kazuje</w>
cha j</w>
ambi ci
K ři
3 18</w>
Žá dám</w>
li ví</w>
ko stní</w>
č ů
l ná</w>
Ly n
G r
jak ej</w>
dí ře</w>
Pro cházet</w>
H ur
respek tovat</w>
histori cké</w>
Vz dá
H C
význam ným</w>
rozmani tosti</w>
organi smu</w>
dé lku</w>
provozova telé</w>
ov na</w>
h aly</w>
Koli krát</w>
č ci</w>
Roz poč
obrov skou</w>
dží ny</w>
M .
pro gre
vý ba
ne pravo
na pří
modu l</w>
VE K</w>
M E</w>
frek ven
F I</w>
zů stá
vstou pil</w>
n cem</w>
i slan
bra t
Ko lo
D F</w>
sní ma
přiřa zování</w>
odpo r</w>
dáv kou</w>
ber ete</w>
S we
generá l</w>
K it
krá lem</w>
chi e</w>
um ře</w>
mu sli
pře bí
vz ru
uklid nit</w>
Zo om</w>
povi nen</w>
lin ku</w>
stanovi ště</w>
Mysl íme</w>
softwa rový</w>
schvá len</w>
jmen ujete</w>
je ďte</w>
feren ce</w>
spo rů</w>
veli teli</w>
chod ili</w>
U veden
úspě šné</w>
tivi ta</w>
sk ro
ovli vni
Mysle li</w>
M la
Ca sey</w>
spoleh livé</w>
Stra šně</w>
Pá nu</w>
úče tního</w>
s dělit</w>
pře staňte</w>
pr vo
nepři mě
kom for
před kládání</w>
per spekti
jas no</w>
chyb ně</w>
K ře
scé nu</w>
k še
Ma tte</w>
Jas on</w>
D ve
ver e</w>
ste v</w>
opi ce</w>
du chu</w>
dodateč ná</w>
z ovány</w>
kontin u
w in</w>
povr ch
dan ým</w>
spl něna</w>
hyper ten
hlupá k</w>
nov in</w>
TA IL</w>
nu kle
nesmí me</w>
dopad ů</w>
do pisem</w>
pře čtěte</w>
ň u
Hodno ta</w>
F le
F C</w>
zmír nění</w>
va čky</w>
ra zu</w>
ko man
imuni tu</w>
Fa cebo
ρ ο
úh lu</w>
ne choď</w>
dáv ala</w>
distribu ce</w>
naznač ují</w>
mi tu</w>
dá lo</w>
tvor by</w>
spa t
cestov ního</w>
použi tý</w>
policaj t</w>
Mlu víš</w>
Dob ro
z daleka</w>
tloušť ce</w>
obyvatel stva</w>
Utí kej</w>
I N</w>
du si
ži ví</w>
Car rie</w>
koste le</w>
L od
3 00
z dě
rozli šení</w>
odpad ních</w>
inter ní</w>
ho nem</w>
S .</w>
za bere</w>
do padne</w>
soci álním</w>
okru hu</w>
těž ce</w>
tá n</w>
s sa
po hledá
sod ného</w>
půj ček</w>
zku sil</w>
opi lá</w>
L ang
to nová</w>
L am
zen ým</w>
vě ž</w>
j mění</w>
Poručí ku</w>
Gre en</w>
zůsta ňte</w>
pi va</w>
F lu
ta neč
systé mech</w>
pří li
ova ti</w>
10 000</w>
lov y</w>
hra j</w>
jedna k</w>
dokonal é</w>
y ského</w>
tá ř</w>
dn ému</w>
t ném</w>
R N
EF SA</w>
zbo žím</w>
z pro
transparen tnost</w>
kra va
cer e
Zá pad
Zla tíčko</w>
zátě ž</w>
zru šují</w>
za haj
pamatu jete</w>
náro dním</w>
leč ení</w>
5 9
Če kám</w>
zabí jení</w>
vybra ných</w>
inter pre
po povídat</w>
ori g
opatr ní</w>
n in
mace cha</w>
Mí stní</w>
K lini
Hroz ně</w>
uživa telům</w>
Vý hled</w>
sle y</w>
návště vě</w>
mo či</w>
c ra
Mal col
wit h</w>
parlamen tem</w>
f el
převyš ující</w>
po niž
stěhov ala</w>
pozorová ny</w>
hří ch</w>
Začí nám</w>
obyčej ný</w>
la no</w>
ho chu</w>
ck et
stro mu</w>
slad ký</w>
pla stů</w>
čty řech</w>
zá ruku</w>
na má
Prac oval</w>
F O</w>
in s</w>
hot ový</w>
e be</w>
zvý šila</w>
kra ji</w>
c ní</w>
po l</w>
k neš</w>
Zve dni</w>
o kr
por tré
pohy bli
vedlej ších</w>
sest ře</w>
s so</w>
pu ls</w>
o logie</w>
Pamatu j</w>
P P</w>
odstav ců</w>
ne vztahují</w>
dí la</w>
Počí ta
De ane</w>
z nala</w>
lé čení</w>
ká va</w>
li stu</w>
ul tra
ptá k</w>
jí mž</w>
Pod ě
re akcí</w>
Zas ra
17 8</w>
dě j</w>
Z daž</w>
antidumping ového</w>
získá vání</w>
c re
přija ty</w>
mí le</w>
in vali
Služ by</w>
pře jete</w>
Ka te
set kali</w>
respek t</w>
bez prostře
zeměděl ského</w>
vi rtu
ko la
hos poda
nevě říš</w>
Tu ni
Pry č</w>
Dou fejme</w>
bezpečnost ního</w>
texti lie</w>
schů zky</w>
násled né</w>
poskyt ovány</w>
nabíd l</w>
zabí jí</w>
u měl</w>
po ke
ba cha</w>
vě čnost</w>
VA T</w>
Kou pil</w>
de zer
poskyt ly</w>
ochra nou</w>
hovo řit</w>
vyplý vajících</w>
sti e</w>
poz vá
čí sel
t ter</w>
humani tární</w>
běž ný</w>
Do staň</w>
roz měr</w>
ná roky</w>
dé l
Prac uje</w>
tr pět</w>
pě stí</w>
mi str</w>
skrý vá</w>
pří to
přeprav ní</w>
M l
kuf ru</w>
působ ící</w>
ne škod
na mon
atrak tivní</w>
znám ých</w>
ozna čením</w>
květ nu</w>
a ven
vra ťte</w>
v oval</w>
pla tní</w>
nezávi slost</w>
O známení</w>
Č ENÍ</w>
to čí</w>
rov aná</w>
ně kterou</w>
milosr denství</w>
jakou koliv</w>
h l
bre čet</w>
zabi ješ</w>
brá nu</w>
ta ma</w>
rizi kem</w>
poh l
po psat</w>
kr m</w>
i mu
Pod ej</w>
Ba i
dostateč ný</w>
Po n
úz ce</w>
měří tku</w>
jedn ala</w>
Po ky
nespráv nému</w>
fir mě</w>
Si g
M LR</w>
vy drž</w>
prodlou žit</w>
ni cky</w>
h ům</w>
gra mu</w>
da jících</w>
Indo né
me th
smí ch</w>
koli krát</w>
U STANOVENÍ</w>
ha d</w>
svěd kem</w>
ru jí</w>
progra mem</w>
p to
vý šce</w>
vy násob
osob ního</w>
nákla d</w>
nene chám</w>
ozna č
pís menu</w>
řá dného</w>
S tě
Z é
zalo žený</w>
něj ž</w>
douf al</w>
Roz sudek</w>
s padl</w>
pla cení</w>
chá pete</w>
sta vět</w>
prakti cké</w>
Vi rg
Montre al</w>
Španěl ska</w>
standar dů</w>
příprav a</w>
potřeb ná</w>
mamin ka</w>
B S</w>
šá lek</w>
lid stvo</w>
S otva</w>
Ochra na</w>
poste lí</w>
ak ry
přístup em</w>
pě stování</w>
ko či
akvakul tury</w>
uči tele</w>
s dru
posto je</w>
píše š</w>
o x
ne ž
Vý sosti</w>
Švýcar sko</w>
úpl ná</w>
zá ně
sta ven</w>
vě dom
Tě hot
F ir
zlodě j</w>
vypořá dání</w>
ně čí</w>
dru ži
Po mocí</w>
o pra
aktiv ního</w>
Ed war
1 15</w>
insta laci</w>
Na vzdory</w>
Maďar sko</w>
O chran
učině n</w>
Úžas né</w>
cir ku
U pozor
Di a
vi ren
ran t</w>
nejoblíben ější</w>
čin ění</w>
Če mu</w>
zkur vy
výz va</w>
upří mná</w>
po stará</w>
automati cké</w>
vy mýš
hř bi
hor ké</w>
h my
Š eri
u kry
obra tu</w>
Slovin sko</w>
še li</w>
sken uje</w>
život ních</w>
zá lož
po jedeme</w>
na de
Vni tř
předsta vil</w>
Ken ny</w>
solida rity</w>
ne zaměstnanosti</w>
bí lého</w>
rozpoč tových</w>
hří chy</w>
Ta m
Ne záleží</w>
mal ém</w>
Sy n
vysokoško l
infek cí</w>
věst ník</w>
ti c</w>
st vích</w>
podla ze</w>
na dří
lhá ř</w>
ne vidíš</w>
R odi
Bla ck</w>
limi tů</w>
kter éž</w>
Vý ji
Pří stup</w>
ž lá
vzor ec</w>
slou žil</w>
se stávající</w>
ren ce</w>
poko j
S C</w>
tu nu</w>
Uklid něte</w>
ta hu</w>
straši del
d něte</w>
kli knout</w>
Pa ris</w>
Mau ri
A pril</w>
- Kdo</w>
ne myslíte</w>
Gran d</w>
. europa.eu</w>
cen ti
Ky se
chy tí</w>
V če
I S</w>
Dří v</w>
ra r
T ot
Bar bie</w>
koncentra cí</w>
Na jít</w>
ř ům</w>
vybu ch
o mi</w>
k vi
Rumun ska</w>
Pěk ná</w>
KO M</w>
Co le</w>
stá lého</w>
nena chází</w>
c le</w>
S le
N Ý</w>
Margare t</w>
Dělá me</w>
ser veru</w>
na de</w>
V nitro
Mi stře</w>
Har vey</w>
vzdělá vací</w>
ch tu</w>
Sloven sko</w>
no su</w>
nechá te</w>
na cí</w>
ex plo
Blí z
ri tonavi
prá šku</w>
atom ovou</w>
ro vými</w>
pek el
svěd čit</w>
Vira fe
Stu den
zvlá dneme</w>
pří mých</w>
blíz ké</w>
š ků</w>
poslan ci</w>
o per
ha zar
Ne lze</w>
čin ů</w>
zelen inu</w>
tajem ník</w>
ka taly
invest ovat</w>
díl čí</w>
dí ra</w>
ce y</w>
šťast ně</w>
pří mou</w>
pře jděte</w>
dov ez
v ců</w>
š oku</w>
dokto rko</w>
Zá kon</w>
vy řídit</w>
legisla tivní</w>
zna čný</w>
vy n
tvr dila</w>
V É</w>
Ro ční</w>
An n</w>
sest ro</w>
pře chod</w>
o lu</w>
konkuren ční</w>
karbo xy
če ské</w>
zvlá dne</w>
pek le</w>
ova telné</w>
ho sté</w>
G A
ob há
Uži jte</w>
Ho war
ň ovala</w>
pozměň ovací</w>
ne buď</w>
Mo ra
s nů</w>
ru chu</w>
odbě r</w>
nej krásnější</w>
gen y</w>
Z PŮ
znám ého</w>
h ová</w>
řá dek</w>
úžas ně</w>
chví lí</w>
Pře ji</w>
DRŽ ITEL
st la
brá cha</w>
za poč
součas ného</w>
lete ckou</w>
U veďte</w>
Š lo</w>
tan y</w>
ma pě</w>
ko ko
ba sk
ti ká
připra vil</w>
poz vání</w>
ote ch
na ci
ka ch
d ví
R ot
Naposle dy</w>
para no
lahvi čka</w>
nez mi
krá sa</w>
hot ovo</w>
hled ně</w>
Li sa</w>
L G</w>
ho ří</w>
bezpeč nější</w>
rozdí lu</w>
jí zda</w>
chy tili</w>
C D
výjim ku</w>
vu l
do mi
běž nou</w>
Mlu ví</w>
vy le
vi bra
inf u
Z I
Při po
španěl štině</w>
p H</w>
koleg ové</w>
zaji stila</w>
svěd ků</w>
re porté
mmy ho</w>
kou pili</w>
ko stý
U stupte</w>
Ne od
Kaž dou</w>
ří dí
ptý z</w>
pr u</w>
j ních</w>
d nímu</w>
REGISTRA CE</w>
ú stře
výbor ně</w>
svat by</w>
souvi slost</w>
pro na
le tů</w>
zne výhod
Spojen ém</w>
ti me</w>
K im
ú roky</w>
podob u</w>
ni tě</w>
S pa
Ke vine</w>
ji hu</w>
che n</w>
Virg ini
Te pl
Mur p
u stá
ri um</w>
r krát</w>
přísluš níky</w>
Au dre
Žá dosti</w>
vozi dle</w>
re ver
hu b
b ob
P G</w>
širo kou</w>
rozlou čit</w>
pově domí</w>
potvr dil</w>
douf at</w>
198 8</w>
ob ce</w>
fi gur
eu rech</w>
dov aných</w>
zkou šel</w>
ve lo
naléha vé</w>
K te
De b
údaj ům</w>
výsled cích</w>
vliv em</w>
sy ny</w>
odvět vích</w>
če kali</w>
kvali tě</w>
chut nat</w>
záležito stech</w>
předlo žily</w>
myšlen ku</w>
jazy ky</w>
Dob rej</w>
z hotov
g ere</w>
Po pravdě</w>
že mi</w>
vědo m</w>
tě ším</w>
evrop ským</w>
Dá v
pá ru</w>
Ko lum
vraž d</w>
le tou</w>
dohod li</w>
zaji stil</w>
vyprá vět</w>
v stří
r ného</w>
s wa
Cla u
1, 2</w>
služ bami</w>
koneč ných</w>
ubytov ny</w>
sv ině</w>
we bu</w>
F y
pla t</w>
an t</w>
Ka ma
zába vy</w>
za svě
pře klada
me tra</w>
e jší</w>
cu l
vá žím</w>
ná ty</w>
Ran dy</w>
roz pty
lo ň
dostup nosti</w>
Ne dávno</w>
12 3</w>
ri tu</w>
pr sen
otě hot
Od kaz</w>
Ab solu
zákla dny</w>
sled ují</w>
ma j</w>
Ve dle</w>
o cit
be jte</w>
Ar thu
ú prav</w>
u přednost
t ci</w>
sloučen iny</w>
pří t</w>
kuchy ň</w>
A kce</w>
š ák</w>
odhali t</w>
min cí</w>
Limi ted</w>
dov ala</w>
c tv
Dve ře</w>
4 68</w>
vy fot
po líbit</w>
o ranž
na i
eko logické</w>
Michae li</w>
stave b
sli buji</w>
drob né</w>
ban u</w>
Make do
zahájen a</w>
nedo jde</w>
teč kovaných</w>
stře chu</w>
ob zvlášť</w>
hlé dl</w>
referen čních</w>
výmě na</w>
nen i</w>
We b
pro vi
za drž
s cen
podzi m</w>
formá ch</w>
blo ku</w>
L B</w>
hru di</w>
4. 1</w>
č kový</w>
te c</w>
důvě rné</w>
A pli
zku sím</w>
ro ků</w>
Zkou ška</w>
b ala</w>
Z Mov
ZMov s</w>
EC D</w>
v klady</w>
organi smy</w>
odbor ného</w>
nez tra
n kou</w>
deseti letí</w>
asoci ovaný</w>
ti vu</w>
od řeknutí</w>
Vý voz
So ci
znamen ají</w>
pozem ků</w>
poru chou</w>
ny m</w>
vytvo řili</w>
ki lo</w>
D va
Be ach</w>
nad šený</w>
9 11</w>
z pracované</w>
to čit</w>
mys li
klá š
B rá
st vem</w>
nedo kon
boha té</w>
Smi th</w>
za d</w>
32 23</w>
ukáz aly</w>
tu rné</w>
pohy b
di vize</w>
uchová vat</w>
mu jící</w>
libe rali
gra my</w>
Do staňte</w>
roz umíte</w>
politi cká</w>
nepřesa huje</w>
veteriná rního</w>
stí žnost</w>
obra zy</w>
dovoz ního</w>
cit livé</w>
chla dni
Do kumen
vyjád řil</w>
uply nu
klid né</w>
š er
ztrá tě</w>
luxus ní</w>
ko hou
zlep šování</w>
Whi te</w>
zjist ím</w>
stup u</w>
ser ver</w>
kru h</w>
ře ly</w>
zná ma</w>
vyprac ová
vrcho l</w>
pi lot</w>
napří č</w>
ma ce</w>
koupe lně</w>
zkuše b
domác nost</w>
utí kat</w>
služe bní</w>
M lad
polo hu</w>
ly ho</w>
dí váš</w>
a i
zkušen o
obra t</w>
fra kce</w>
am pi
Bezpeč nost</w>
vzpomí náš</w>
spraved livé</w>
sateli tní</w>
mi s</w>
stej no
priori t</w>
vy ná
okouz lující</w>
bili tu</w>
če le</w>
vybaven y</w>
in stru
Gre g
Potřeb oval</w>
uděla lo</w>
aktu ali
Se jdeme</w>
Klasi fikace</w>
běž ného</w>
Po sle
Douf al</w>
v nějším</w>
ne slyšela</w>
dodava telů</w>
Drži tel</w>
ší ří</w>
tro mbo
ser vis</w>
o nem</w>
konkré tního</w>
poti chu</w>
neh ty</w>
kombina cí</w>
Chá pete</w>
z dob
stra šný</w>
vy pracuje</w>
Vietna mu</w>
zač neš</w>
na padl</w>
Í ránu</w>
dě da</w>
vzni ká</w>
re d
příjem ný</w>
příjem ců</w>
ze sí
uli cích</w>
ozna čuje</w>
uskuteč nit</w>
trž ního</w>
ode vz
S b.</w>
kr ů
fá me</w>
4 6
vá hy</w>
k tní</w>
a ero
nepří jemné</w>
led vin
fa viren
U drž
Audre y</w>
z hrou
z an
venkov ní</w>
dě sí</w>
dov í</w>
Vi d</w>
Detekti ve</w>
koupel ny</w>
charakter u</w>
ba teri
auto mobilů</w>
To s</w>
G B</w>
Bo m
udá lo
slav ný</w>
pe me</w>
emo ce</w>
Afri ka</w>
výstup u</w>
ra dia
oba v</w>
nez veřej
I D</w>
na půl</w>
cen trali
Wal tere</w>
App le</w>
za klá
ty g
kře h
Pho ebe</w>
s rozumi
re fle
po lu</w>
kyse lin</w>
roz lu
přípust né</w>
dří vě
člen ě
Při jdu</w>
tra nec</w>
to l</w>
Pro hlášení</w>
- Už</w>
záru ka</w>
ov ku</w>
neb es</w>
Ji ho
zákon ů</w>
z lá</w>
poslech nout</w>
množ stvím</w>
prince zna</w>
ovliv ňují</w>
přá la</w>
kou kej</w>
hlubo ce</w>
far mace
dov aný</w>
si na</w>
padá ka</w>
kup ní</w>
kno w</w>
infek ci</w>
dva ceti</w>
Jer sey</w>
vezme te</w>
před pově
odbor níky</w>
Mal é</w>
š ko</w>
sy nové</w>
rů st
rezi sten
příj mení</w>
Vz ali</w>
Pr stování</w>
způsobi lo</w>
S právní</w>
pro kaz
Britá nii</w>
B ak
za dá
vše obecných</w>
stra pon</w>
oře chy</w>
neu děláš</w>
i slá
hlubo ké</w>
Z A</w>
v ro
osu du</w>
S par
revolu ce</w>
přesvěd čení</w>
c opak</w>
bez vědomí</w>
Chri stop
svobod ný</w>
ji sto
St ůjte</w>
U tek
trap né</w>
potí ží</w>
, 5</w>
za pí
di al
c on</w>
úvě rového</w>
ri í</w>
H ale
přísluš nosti</w>
1 14</w>
odstra ňování</w>
nená vidím</w>
Ma d
zákaz ník</w>
lib ovo
bře znu</w>
bav l
vě da</w>
vyža d
t ani
posí lá</w>
háč kované</w>
Če kal</w>
tro pi
s mysl
disku si</w>
da ry</w>
bri dge</w>
bankov nictví</w>
Ser u</w>
ču rání</w>
Í M</w>
Ri ley</w>
Nej větší</w>
F ak
Enterpri se</w>
stří z
předlo žena</w>
pamatu je</w>
dělá ní</w>
zeměpis ných</w>
prost or
zách va
z vednout</w>
rová n</w>
modr ý</w>
hov ý
cho le
13 9</w>
u viděl</w>
t ováno</w>
svě tem</w>
ITEL NOST</w>
- Kde</w>
přije li</w>
pochy b</w>
duše vního</w>
duše vní</w>
slab é</w>
napad ení</w>
late x</w>
stupu jící</w>
ob ej
hlin í
Bulhar sko</w>
na rá
na pít</w>
Mo ckrát</w>
Č lán
nevě řil</w>
jíz du</w>
hod lá</w>
klu kem</w>
in i</w>
důleži tým</w>
z nít</w>
tě lem</w>
ste h
obrov ská</w>
J dem</w>
Čí ň
absur dní</w>
Me gan</w>
udrži telný</w>
te x</w>
t kových</w>
H A
sta vím</w>
referen čního</w>
pšen ice</w>
T C</w>
st ných</w>
nápo je</w>
nevě řící</w>
l ó
D ro
vy stopo
při stěhova
nad šená</w>
ali ta</w>
posled ně</w>
kre vních</w>
tová rny</w>
ore ch</w>
Hodno cení</w>
čeká me</w>
čas ový</w>
zkou má
po hnout</w>
opatr ná</w>
dn ými</w>
depre se</w>
Té měř</w>
M ali
7 5
výmě nou</w>
upozor nit</w>
progra mech</w>
omezen ou</w>
za bezpeč
přiřa zenu</w>
ko čku</w>
se ž
ode jde</w>
Urugua yského</w>
PH P</w>
O ECD</w>
zaměstna nec</w>
softwa rovému</w>
se mena</w>
moc né</w>
lid stva</w>
Vrá til</w>
Dohod ě</w>
pořa du</w>
FOR MA</w>
vol nost</w>
pořá dný</w>
Č í</w>
O vlá
plat ba</w>
ar t</w>
ži dli</w>
fre e</w>
čís li
o stu
S K</w>
něj šími</w>
ne vadilo</w>
kov u</w>
blo k</w>
Sy dney</w>
zásob ování</w>
do lní</w>
žen ém</w>
pro poj
poru cha</w>
chu doby</w>
nedosta neš</w>
gra vi
Ashle y</w>
živ ého</w>
za bal
vy chová
vola jí</w>
ho lek</w>
spor tu</w>
mléč ných</w>
přípo ny</w>
mod rá</w>
Ph illi
ž ním</w>
tu res</w>
tt le</w>
ná raz
ja tečně</w>
francouz štině</w>
d t</w>
vý stup</w>
n ně</w>
ni čení</w>
inzulí n</w>
hlá sí</w>
feren ční</w>
U mím</w>
Pod e
saze bníku</w>
pá sky</w>
nic a</w>
stí žnosti</w>
pro nájem</w>
ká zání</w>
Mike u</w>
jako st</w>
Pů vodní</w>
D R</w>
š ok</w>
reál ném</w>
fre y</w>
di vu</w>
v ova
v lí
nov o
Za hr
sendvi č</w>
gen u</w>
že ňte</w>
Če ho</w>
µ g</w>
omlu vu</w>
S hr
Mi cro
Lau ren</w>
B A</w>
vy vo
vy hrá
udělen a</w>
přistěhov al
Zem řel</w>
řa zení</w>
z mrazené</w>
Ba t
ι κ
še sti
naj mout</w>
Po chy
Nu Vid</w>
Lou is</w>
A korát</w>
hod inami</w>
bra tran
Se ane</w>
Klimati zace</w>
1 17</w>
sest řen
Injek ční</w>
začá tkem</w>
hov ou</w>
POUŽIT Í</w>
závaž ných</w>
ba ro
proje v</w>
od kazu</w>
kontro lního</w>
pá s</w>
ne a</w>
Ne choď</w>
Le vné</w>
zneu žívání</w>
bar vení</w>
Osob ní</w>
ži jete</w>
v sadím</w>
stov ní</w>
Vi de
S bí
La w
2 20</w>
ni čku</w>
Protoko l</w>
sou stav
Vese lé</w>
De ut
vý stra
sou dit</w>
Y o
Při nesl</w>
úrov ních</w>
sob ota</w>
pa st
la tin
dě ný</w>
Pa l</w>
srovná vací</w>
hrani cích</w>
Sa mo
od volá
koši le</w>
Vnitro státní</w>
nej ch</w>
ví n</w>
ji n</w>
Pen ny</w>
Hy dro
sta nete</w>
o stra
de z
cvi čit</w>
S pá
Podí váme</w>
zen ou</w>
výno sy</w>
polici sta</w>
o ho
K ing</w>
De tai
z né</w>
py tel</w>
nena šel</w>
Sta v</w>
syndro m</w>
ví ra</w>
tá bor</w>
spojen a</w>
neu tro
y our</w>
pos lání</w>
na jíst</w>
0 20
Detekti v</w>
va j</w>
kte rá
po hov
n alo</w>
kte rou
men tů</w>
č tější</w>
zů stalo</w>
nákla du</w>
děku jeme</w>
dá mo</w>
So ny</w>
žád ní</w>
dobr ém</w>
Sha ft</w>
zajišť ují</w>
dě ly</w>
ň me</w>
pohledá vek</w>
sv aly</w>
ne uvedené</w>
So ft
záži tek</w>
roz dr
nepří tom
aktualiz ovaný</w>
nepře mýš
míst ními</w>
mana žer
Lin col
ry bí</w>
nov ej</w>
ne to
Z ba
čas o
nej důležitě
LÉ KOVÁ</w>
voz y</w>
poza stav
La s</w>
D ri
smu tná</w>
Hle dáme</w>
pi ju</w>
lé čit</w>
U VÁDĚ
12 2</w>
krimin ál
hr del
Pěk né</w>
psychi atri
gi n</w>
A a
.11. 2007</w>
peni e</w>
naš tva
dlu žím</w>
T oby</w>
G ali
ČÁ ST</w>
zlo činy</w>
strategi cké</w>
sky ři
DRŽITEL E</w>
od va
jen že</w>
Seba sti
O S</w>
do posud</w>
1 18</w>
dů chod</w>
chemi ká
přílo h</w>
překá žek</w>
ital ky</w>
vstou pila</w>
Stan ov
2. 3</w>
ru ší</w>
argu menty</w>
y mu</w>
od stře
neuvě do
lá rních</w>
dě ním</w>
součas ném</w>
IV NÍ</w>
19 80</w>
u j
sva tého</w>
sna žíte</w>
sbě ra
lé tat</w>
cen ové</w>
Jedno t
C .</w>
středně dob
dr e</w>
Za chra
úto ky</w>
pří kazy</w>
při znal</w>
P ob
v ší
dů raz</w>
P Í
zru šeno</w>
seh nal</w>
víken du</w>
sympto my</w>
balí čku</w>
au dit</w>
obyva tele</w>
ka n</w>
do staly</w>
Oto č</w>
ži jících</w>
hra jete</w>
B E</w>
dumping ové</w>
Pracu ju</w>
Hotel ové</w>
u kládání</w>
ren t
nez mí
lini i</w>
lin ka</w>
výdě leč
nevě sta</w>
dé šť</w>
Po ža
Pi c
statu su</w>
komentá ře</w>
D vakrát</w>
ú stavní</w>
z mlá
ne přátele</w>
nad šení</w>
ft al
argu ment</w>
výjim ka</w>
sluš ně</w>
Pa le
ži dle</w>
roz hovoru</w>
re forem</w>
poplat ku</w>
in dky</w>
žalu dek</w>
šílen ě</w>
ředi teli</w>
účast níci</w>
il le</w>
opti mální</w>
ar ti
ran té
ne si
klini cky</w>
8 7
přispí vat</w>
Vo lám</w>
US D</w>
techni k</w>
pla tím</w>
Ne dělejte</w>
model ů</w>
me zit</w>
K vali
zra něný</w>
pro šli</w>
jednot ný</w>
Moj žíš</w>
čer pání</w>
počí naje</w>
Z mí
Hal lowe
žd ím</w>
pa pe
nan ý</w>
Ne vypadá</w>
K no
uzná vá</w>
fyzi cká</w>
Společen stvím</w>
tepl é</w>
Sy l
poku sí</w>
nes mysl</w>
elektř inu</w>
rodin ný</w>
va tel</w>
sk ové</w>
institu ci</w>
části ce</w>
prog nó
Mari o</w>
zpráv ou</w>
ku jte</w>
psá ní</w>
prů kazu</w>
ko leč
Washing ton</w>
dovolen á</w>
Spo l
Ce stovní</w>
zvířa ty</w>
ze zadu</w>
u sklad
srá či</w>
překro čení</w>
politi ckého</w>
An d</w>
opakov aně</w>
Pro ti</w>
hy drát</w>
Nej vyšší</w>
Bar bar
to pení</w>
ple chov
na dace</w>
er o</w>
dob ách</w>
H L</w>
Bi g</w>
13 1</w>
Ří káte</w>
p né</w>
opráv něn</w>
deta il
Fin sko</w>
t ení</w>
s pustit</w>
pomá hal</w>
mon strum</w>
Em mo</w>
zelen á</w>
zdravot ním</w>
fak toru</w>
dá váme</w>
Jef fe</w>
poručí k</w>
spotře bní</w>
pří sně</w>
poř ad</w>
sní žena</w>
foto graf
bu ně
ná růstu</w>
c tor</w>
ř ky</w>
spolubyd lící</w>
pomo zte</w>
dov aná</w>
T ři
ví mi</w>
oh ří
pocháze jícího</w>
ú vodní</w>
uni knout</w>
přípa dných</w>
hmotnost ní</w>
al bum</w>
P I</w>
KA CE</w>
vy mezení</w>
p ané</w>
obslu hovat</w>
zru šena</w>
tý denní</w>
pro dluž
povo len</w>
podí let</w>
[...]
