#version: 0.2
d e</w>
o s</w>
c i
e n
e r
e s
e s</w>
a s</w>
o n
a r
l a</w>
e l</w>
q u
a d
a n
e n</w>
en t
i n
ó n</w>
o r
t i
a ci
r e
qu e</w>
a l
c o
i d
p r
t r
a m
u n
l os</w>
i s
a l</w>
e c
i c
aci ón</w>
p o
a r</w>
es t
p ar
l as</w>
c u
a b
e m
c on
d el</w>
d i
s e</w>
s i
pr o
d o</w>
on es</w>
l o</w>
s t
ad o</w>
b r
t o</w>
co m
s o
a c
d e
a n</w>
ent e</w>
p er
u r
par a</w>
t e</w>
l i
e g
a d</w>
t er
u n</w>
m i
e r</w>
ci ón</w>
co n</w>
a s
o r</w>
b i
o t
po r</w>
n o</w>
s u
un a</w>
e l
p u
o m
v i
a t
í a</w>
o l
g r
ad os</w>
e x
ti v
al es</w>
p l
i m
or m
ent o</w>
e d
en ci
id ad</w>
ar i
br e</w>
r es
d es
t u
aci ones</w>
s u</w>
f orm
t a</w>
b l
u c
f i
ad a</w>
p e
qu ot
quot ;</w>
& quot;</w>
E st
á s</w>
e j
g u
i ón</w>
pr es
r i
t o
p a
2 0
i z
t en
E l</w>
m an
p or
t os</w>
ent r
enci a</w>
ti c
l u
a j
o n</w>
e v
is t
an do</w>
ec h
ic a</w>
so bre</w>
id o</w>
g o</w>
er a</w>
an te</w>
com o</w>
p i
p re
d os</w>
f u
er o</w>
L a</w>
on al</w>
o b
C on
o c
ab l
qu i
t es</w>
h a</w>
m u
in ter
f ic
or es</w>
a y
l l
N o</w>
m ás</w>
d a</w>
a u
s er
ent es</w>
v er
con tr
am bi
ad es</w>
d is
20 0
m in
o s
m o</w>
id as</w>
U n
m e
C om
s e
E n</w>
am ente</w>
ci ones</w>
ad as</w>
. .
i a</w>
de b
re c
n aci
p on
es tr
am i
a v
d ic
p o</w>
n u
á n</w>
d er
is ión</w>
in form
es ti
r a
con s
.. .</w>
a ñ
i t
I n
a tiv
su s</w>
ar r
g an
f er
l ar
u s
en er
am os</w>
@ -
@- @</w>
a p
1 9
u l
id ades</w>
o tr
s eg
n i
pu est
é n</w>
m o
ari o</w>
an ci
id a</w>
m e</w>
re g
i o</w>
Q u
h a
t ur
por t
in c
mi ento</w>
an tes</w>
po si
h ab
i l
fi ci
re l
c ar
f r
v en
par ti
t or
ent os</w>
ti en
f in
o p
h ac
per s
es o</w>
z a</w>
i r</w>
o g
í s
c re
p ec
l í
b u
ic o</w>
t í
c as
ab aj
al iz
i r
h u
d uc
m is
m ente</w>
der ech
j u
d r
me di
arr ol
ec es
m ar
c o</w>
ambi én</w>
pres ent
pu e
d em
l e</w>
d ad</w>
on ales</w>
am p
est e</w>
gr am
o ci
v is
entr e</w>
en do</w>
ti tu
i ci
est á</w>
o cu
E s
pl ic
a g
P r
h e</w>
P ar
p en
f un
n eces
e ci
or a</w>
naci onal</w>
si ón</w>
cu l
e a</w>
m en
so ci
con t
mi t
i ones</w>
é s</w>
c or
tr abaj
c h
Com isión</w>
d as</w>
est a</w>
Est ados</w>
tic a</w>
ener al</w>
cu lo</w>
c a</w>
l e
Con s
al mente</w>
de ci
em a</w>
m ed
t ar
f ec
t as</w>
e p
em os</w>
v e
arrol lo</w>
pe ci
ari os</w>
s i</w>
so n</w>
or d
is tr
a po
a z
t ar</w>
L os</w>
C o
t ambién</w>
19 9
D i
ec u
tr an
m ej
í as</w>
ej o</w>
pro gram
ami ento</w>
in a</w>
P or</w>
pro c
l am
st a</w>
em br
ci p
y o</w>
n os</w>
h an</w>
j e
o y</w>
to dos</w>
ci on
m a
r u
s er</w>
ú n</w>
c an
inc lu
cu r
A s
a plic
m a</w>
s o</w>
N aciones</w>
ac tiv
s al
er r
Un idas</w>
tí culo</w>
or gan
ab a</w>
com un
nu ev
per o</w>
ís es</w>
to do</w>
bl e</w>
in s
b er
E s</w>
i s</w>
pers on
ent a</w>
n o
id os</w>
m i</w>
vi ci
cu er
ar á</w>
y a</w>
20 1
a qu
Cons ejo</w>
l es</w>
o per
in o</w>
des arrollo</w>
d u
i g
ol u
g un
si gu
pa íses</w>
pr im
par te</w>
ú bl
m un
bi er
m os</w>
á n
hu man
uc h
í an</w>
ter i
E ur
g ar</w>
fu er
c r
e ñ
e t
e d</w>
qu é</w>
po lí
im port
s ab
pu ed
h i
y ec
er es</w>
tr at
est abl
pro duc
en d
s ec
es peci
a ti
S e</w>
co l
0 0</w>
ar se</w>
pue de</w>
m ay
tr i
c al
añ os</w>
o pe
u d
p as
ar on</w>
as í</w>
ic os</w>
o do</w>
mi embr
l o
t ado</w>
bi en</w>
nu estr
c ap
t ec
ur idad</w>
s ist
an a</w>
amp ;</w>
& amp;</w>
m er
C u
G eneral</w>
ti em
d ur
derech os</w>
t or</w>
tien e</w>
li z
ad ores</w>
e di
inform ación</w>
tic as</w>
tran s
Qu é</w>
l eg
i v
e br
in t
ser vici
j un
in g
n a</w>
res pon
ari a</w>
Co mit
de r</w>
ad or</w>
e b
contr a</w>
re ci
Comit é</w>
an to</w>
ar tículo</w>
organ iz
ni ñ
abl e</w>
pro yec
a h
a se</w>
á r
mu j
c ri
anci a</w>
R e
A l
g a</w>
s os</w>
enci as</w>
pr in
ec on
tiv o</w>
es e</w>
L as</w>
f or
se ñ
s a</w>
a si
o bier
ob je
ó m
per í
con c
c el
é r
T r
si n</w>
e o</w>
t u</w>
li g
an ti
& #
&# 9
fu e</w>
s es
a st
naci onales</w>
cu ando</w>
D es
m uch
i n</w>
tur a</w>
es a</w>
t om
ad r
med idas</w>
est o</w>
v er</w>
a pro
res id
at os</w>
en o</w>
ve z</w>
ic as</w>
puest o</w>
o t</w>
S u
ac tu
mu y</w>
olu ción</w>
t al
min istr
S i</w>
A r
per i
tiv a</w>
perí odo</w>
a par
ser v
lam ento</w>
v al
e fec
miembr os</w>
m as</w>
ten er</w>
E n
hac er</w>
j o</w>
m ent
person as</w>
trabaj o</w>
fin anci
ed ad</w>
l ti
res pec
g ar
est u
S í</w>
otr os</w>
inform e</w>
aqu í</w>
u ti
cu esti
cons id
form a</w>
d on
sigu i
po dr
qu ot</w>
Est ado</w>
ter min
añ o</w>
pl an
ab or
ech o</w>
es os</w>
b ar
er on</w>
li ci
S ec
ó n
em as</w>
di rec
tiv os</w>
er ci
ad op
In ter
i en
eg r
fer encia</w>
c ambi
mis mo</w>
ó lo</w>
in d
á c
bi l
entr o</w>
Eur ope
servici os</w>
l ic
program a</w>
tic o</w>
er os</w>
c ada</w>
lu gar</w>
ari as</w>
u st
cap aci
em ente</w>
obier no</w>
ven ción</w>
re aliz
cuer do</w>
tiem po</w>
Pr o
si tu
activ idades</w>
di ci
ex am
res ul
d o
el ec
c a
deb er
parti cip
ativ a</w>
om bre</w>
e qui
des de</w>
c am
t ados</w>
derech o</w>
m ento</w>
in v
gr u
inter nacional</w>
dur ante</w>
si ones</w>
a to</w>
t he</w>
ha y</w>
ni v
d ec
D e</w>
v a</w>
í s</w>
s as</w>
human os</w>
est án</w>
c ab
lar es</w>
sist ema</w>
P ero</w>
m on
p os</w>
ativ as</w>
aplic ación</w>
in g</w>
z ar</w>
t ores</w>
re cur
S r
S eg
c l
D e
tr os</w>
ll ev
úbl ica</w>
C h
n e
o l</w>
Sec re
ha sta</w>
t an</w>
to das</w>
deb e</w>
seg uridad</w>
em pl
al u
en a</w>
ocu p
uti liz
L o</w>
P resid
au tor
mej or</w>
ec e</w>
h er
d ía</w>
A n
em pres
R eg
pro bl
is mo</w>
a gr
v ida</w>
P u
an o</w>
fi n</w>
econ óm
fic ación</w>
t am
cu m
res olución</w>
consid er
pro pi
fi r
re present
pa ñ
or i
con oci
puest a</w>
aci a</w>
é n
r gan
n orm
o f
al gun
pre ci
in ici
t al</w>
niñ os</w>
eg o</w>
cu enta</w>
ist encia</w>
g i
am ent
em bre</w>
con su
ú lti
v id
t anto</w>
ses iones</w>
oper ación</w>
estu di
al idad</w>
s ido</w>
proyec to</w>
in ación</w>
seg u
v ol
d es</w>
p ár
otr as</w>
1 0</w>
com pl
aj e</w>
t e
is ta</w>
v o</w>
pa ís</w>
cas o</w>
Sr .</w>
si g
n eg
un o</w>
re com
respec to</w>
t ación</w>
establ eci
al qui
re un
c er
a tr
con di
ó mo</w>
al l
abl es</w>
an c
esti g
ur a</w>
ic ación</w>
s ólo</w>
i gu
pu és</w>
p al
p un
cel ebr
cul ar</w>
ami li
o f</w>
dem ás</w>
Par a</w>
a gu
pued en</w>
B u
du ci
f av
hab ía</w>
t ario</w>
h echo</w>
er e</w>
h or
tr u
a te</w>
mun do</w>
est ar</w>
ll am
m ero</w>
at eg
b aj
am bl
M e</w>
an d</w>
muj eres</w>
apo s
i onal</w>
em pr
E x
o fici
apos ;</w>
& apos;</w>
G obierno</w>
G r
ab r
ac ción</w>
bil idad</w>
vi ol
a cuerdo</w>
ambl ea</w>
pres ente</w>
an os</w>
cont in
é c
é l</w>
mi entos</w>
su b
apo yo</w>
p li
recur sos</w>
ist as</w>
tr es</w>
z on
al go</w>
x im
As amblea</w>
ah ora</w>
el los</w>
ú mero</w>
s ent
í n
program as</w>
d est
is i
de termin
tic os</w>
dis posi
g ener
p aci
err a</w>
ins titu
g en
f amili
niv el</w>
ativ o</w>
ra f
or ía</w>
er to</w>
ar ía</w>
l oc
mej or
se a</w>
fuer z
ech os</w>
ob serv
d ocu
r o
A d
il idad</w>
rel ación</w>
men os</w>
gr an</w>
c es</w>
fun d
M i
ll eg
og ados</w>
Presid ente</w>
es per
prin cip
ver s
iz ación</w>
parti cular</w>
situ ación</w>
apro b
aci on
di al</w>
fun cion
may or</w>
ci a</w>
d atos</w>
con form
em p
ri g
tien en</w>
ad i
U N
l ar</w>
D er
bl es</w>
us ti
pa z</w>
d en
ol og
ay a</w>
y e</w>
aci as</w>
el la</w>
os o</w>
Un ión</w>
polí tica</w>
em bar
Di os</w>
i miento</w>
an za</w>
O N
pr ác
g eneral</w>
hac e</w>
c entr
mer c
so lici
medi o</w>
á m
mi ll
i bu
i en</w>
Secre tario</w>
qu ed
pro tec
f on
C I
de pen
de j
est os</w>
int egr
ar án</w>
por que</w>
ex c
ac c
t amente</w>
ter r
om ento</w>
P er
un idad</w>
ú n
ab an</w>
tr uc
ti po</w>
ec er</w>
so l
A m
A c
com pr
proc eso</w>
pár raf
ti r
com erci
com pe
b as
ad ministr
tu d</w>
ci pi
2 0</w>
m é
s em
1 2</w>
capaci dad</w>
li ber
otr a</w>
er as</w>
t ot
organiz aciones</w>
inv estig
h o</w>
co operación</w>
in f
G ru
ed uc
li o</w>
contr ibu
L e
m entos</w>
T en
br es</w>
a y</w>
pl az
u da</w>
C E
3 ;</w>
&#9 3;</w>
man era</w>
n úmero</w>
M in
cu los</w>
in dic
des pués</w>
e ur
í fic
n i</w>
Di rec
1 ;</w>
&#9 1;</w>
per mi
Reg lamento</w>
is l
nuev o</w>
import ante</w>
recom end
Qu i
p úbl
v u
U n</w>
protec ción</w>
cu alqui
j ur
pers onal</w>
T o
t on
en contr
Gru po</w>
g l
R ep
ac to</w>
á l
1 5</w>
l an
e fici
f es
pre par
adr e</w>
v e</w>
lo gr
1 0
otr o</w>
pen s
dec lar
3 0</w>
est as</w>
ev alu
ob lig
Europe a</w>
M ar
n ada</w>
at ur
i endo</w>
su per
u d</w>
Con vención</w>
Rep ública</w>
inter nacionales</w>
éc n
ó g
at en
b un
al i
h abl
h ora</w>
rel acion
dis pon
vi r
prin cipi
f l
est ado</w>
ci n
P o
posi ble</w>
á s
g os</w>
pro mo
deci r</w>
mill ones</w>
r á
a f
s an
us o</w>
empr e</w>
v isión</w>
ot a</w>
neg oci
ma ter
I I</w>
H u
f ica</w>
es es</w>
estr uc
ej emp
N u
condi ciones</w>
proc edi
as istencia</w>
e li
is te</w>
com pro
tr a
cons titu
b en
ex o</w>
D E</w>
man os</w>
contin u
u al</w>
d ist
pro por
Inter nacional</w>
much o</w>
o v
so tros</w>
esti ón</w>
an t
es cu
m á
medi ante</w>
ex to</w>
di fer
sigui ente</w>
1 .
b re
i ble</w>
cas a</w>
d ar</w>
el es</w>
es as</w>
fav or</w>
po co</w>
muj er</w>
l ado</w>
deb en</w>
qu eñ
ej ecu
b a</w>
don de</w>
d ó
ar a</w>
Y o</w>
cuesti ones</w>
párraf o</w>
cal idad</w>
t écn
gr an
ab ogados</w>
z o</w>
seg un
exam in
soci al</w>
con oc
posi ción</w>
mar co</w>
co st
produc tos</w>
ativ os</w>
c au
en s
cum pli
lí n
au ment
form ación</w>
Est e</w>
t in
cr im
ar es</w>
t ad</w>
1 1</w>
cualqui er</w>
T e</w>
A l</w>
en cu
po bl
os a</w>
0 00</w>
conform idad</w>
est aba</w>
to da</w>
qu er
O fici
Un a</w>
C ar
m omento</w>
un ci
embar go</w>
is mos</w>
polí ticas</w>
E l
vi g
jun to</w>
dó lares</w>
S er
b ase</w>
pres u
ust ed</w>
Seg uridad</w>
e za</w>
ejemp lo</w>
pe queñ
C or
o la</w>
or ia</w>
f al
is is</w>
ech a</w>
cas os</w>
C E</w>
C on</w>
sal ud</w>
em pe
a vi
amp li
di a</w>
d ías</w>
A demás</w>
i onales</w>
ay ud
el lo</w>
M u
i to</w>
ex pres
s í</w>
por te</w>
cuesti ón</w>
pre gun
er an</w>
consu l
ac er
p es
n ing
I s
pr i
mater ia</w>
ec es</w>
cambi o</w>
h om
id i
S eñ
par tes</w>
pre ocup
S in</w>
aliz ación</w>
so lu
es pec
gar anti
mi r
l in
tri bu
f aci
Der echos</w>
in st
deci sión</w>
pue b
e de</w>
dici embre</w>
Est a</w>
í o</w>
er te</w>
al g
co sas</w>
ci vi
dic e</w>
pr iv
d in
compe t
nuestr o</w>
al can
e z
O rgan
leg isl
1 4</w>
di fic
con f
cor respon
op a</w>
n ombre</w>
ament ales</w>
e fic
de fin
so lo</w>
algun os</w>
t er</w>
pa p
ci d
si empre</w>
t em
ten ido</w>
le y</w>
en di
F r
fi g
u eb
propor cion
ent al</w>
pro fes
tr o
probl emas</w>
s é</w>
es fuerz
fir m
aten ción</w>
di ver
T ambién</w>
c li
ar me</w>
co g
ti do</w>
acc eso</w>
v ent
Bu eno</w>
Com o</w>
R E
o u
sec tor</w>
1 8</w>
puest os</w>
j a</w>
re cu
un ca</w>
a la</w>
merc ado</w>
o port
st en
200 6</w>
norm as</w>
200 5</w>
ser á</w>
ord in
f ac
gru po</w>
prim era</w>
U E</w>
As í</w>
g estión</w>
pun to</w>
ri es
j os</w>
com b
5 0</w>
pu l
n atur
a soci
pu bl
bi en
ter ri
Con ferencia</w>
S i
tec n
prim er</w>
e ta</w>
i os</w>
of rec
e z</w>
ay uda</w>
Un idos</w>
nuestr a</w>
ot os</w>
apar tado</w>
un que</w>
cons ecu
N U
c lar
fu era</w>
especi al</w>
1 3</w>
2 .
resul tados</w>
P a
si m
disposi ciones</w>
m al
C re
un i
bun al</w>
200 4</w>
g ente</w>
19 8
man ten
ra z
h ombre</w>
t el
ab ri
cu al</w>
t ema</w>
v í
qu isi
1 6</w>
el abor
est oy</w>
v in
ar mas</w>
st o</w>
lín ea</w>
F u
h as</w>
ver dad</w>
Est á</w>
pr est
empres as</w>
d entro</w>
f en
educ ación</w>
S oci
tr av
ar é</w>
a fec
min u
Pro gram
podr ía</w>
puest as</w>
pr ueb
an co</w>
proyec tos</w>
S I
olog ía</w>
2 5</w>
e lo</w>
c e</w>
ex pl
ti r</w>
av e</w>
g ast
tot al</w>
entr as</w>
sig ni
C O
ur o</w>
un tos</w>
n oc
a cu
E N
os tr
G u
gru pos</w>
agu a</w>
Es peci
l ab
hor as</w>
h acia</w>
form ul
dic o</w>
dist in
neces ario</w>
pobl ación</w>
S o
obje tivos</w>
contr ol</w>
de leg
é g
pue do</w>
uc ha</w>
200 7</w>
investig ación</w>
h ist
M un
aci onal</w>
su fici
ar reg
di jo</w>
Des arrollo</w>
c ómo</w>
an teri
baj o</w>
í ci
i ta</w>
ex ist
particip ación</w>
ad ici
di rig
os as</w>
Cu ando</w>
m or
an as</w>
b e</w>
se p
es cri
ad ecu
no vi
g an</w>
vi en
usti cia</w>
L i
ci ud
Est o</w>
des arrol
re gu
pro t
jun io</w>
truc ción</w>
faci li
no sotros</w>
conc lu
200 0</w>
al im
eur ope
soci edad</w>
Es o</w>
ma teri
E m
exam en</w>
t i</w>
1 7</w>
b us
ed er
V amos</w>
li br
ñ o</w>
reg istr
tar ía</w>
200 3</w>
l a
person a</w>
C ómo</w>
m ec
T ri
ber n
ben efici
Ofici na</w>
el eg
200 8</w>
autor idades</w>
inform es</w>
su s
v eces</w>
ex per
s ino</w>
Ar tículo</w>
obje tivo</w>
un d
trav és</w>
in ver
jur í
ón de</w>
R es
b o
probl ema</w>
J u
ins tru
ten go</w>
en car
hab er</w>
Eur opa</w>
ab ilidad</w>
e la</w>
er ta</w>
empl eo</w>
os os</w>
reun ión</w>
us tr
200 2</w>
er n
much os</w>
c ateg
duc ción</w>
fr ica</w>
Program a</w>
pl an</w>
vis ta</w>
ener g
import ancia</w>
neces idad</w>
P or
di o</w>
cre ci
an ia</w>
t ú</w>
terri tor
po der</w>
so sten
ob st
Gr acias</w>
ot o
or ig
ati on</w>
v as</w>
ter c
tiv as</w>
1 8
seg ún</w>
E S</w>
2 4</w>
abaj o</w>
re a</w>
inter es
institu ciones</w>
duci r</w>
h aya</w>
in as</w>
as eg
2 1</w>
I N
200 1</w>
deber ía</w>
Y a</w>
di entes</w>
esfuerz os</w>
Par lamento</w>
m í</w>
ed es</w>
gu bern
v oc
ac ep
fu tur
i bilidad</w>
sigui entes</w>
T A
r a</w>
lo go</w>
as es
ent emente</w>
C i
est ás</w>
f echa</w>
Especi al</w>
an d
ám bi
u dad</w>
g n
ten dr
S u</w>
1 9</w>
comun idad</w>
gr esos</w>
vis to</w>
trat a</w>
nuev a</w>
á g
po lic
ó rgan
medi os</w>
comun ic
conf lic
g as</w>
reg ión</w>
cab o</w>
respon sab
O S</w>
parti r</w>
lab or</w>
enci on
t ales</w>
ter io</w>
uc le
neces idades</w>
di go</w>
di ente</w>
Le y</w>
li mit
é x
pon e</w>
A b
plaz o</w>
estr ateg
m at
ev a</w>
w e
com pañ
produc ción</w>
atr o</w>
fuer on</w>
evalu ación</w>
E R
Europe o</w>
i ficación</w>
é st
es paci
P ol
A hora</w>
an exo</w>
qui ero</w>
dic ho</w>
mo vi
si a</w>
200 9</w>
mec an
efec tos</w>
ju lio</w>
en fer
form as</w>
as a</w>
ar m
pal abr
i e</w>
dis crim
h o
2 2</w>
dem os</w>
Hu manos</w>
par tam
hac er
Tr at
ab i
famili a</w>
t ó</w>
ol óg
ti fic
dest in
ci r
ó r
tr as</w>
a ún</w>
op in
med ida</w>
tu bre</w>
om a</w>
1 3
tr ic
om in
ses ión</w>
v o
qui ere</w>
soci ales</w>
ar te</w>
s ex
re fi
tiem bre</w>
per tin
vu el
in depen
eg u
viol encia</w>
t adas</w>
docu mento</w>
T ien
e vi
D ec
mejor ar</w>
encu entr
ent ar</w>
n ucle
especi almente</w>
mo do</w>
iz o</w>
organiz ación</w>
am e</w>
1 5
pro b
á ci
O b
res pe
an z
mi li
ex peri
ac ciones</w>
re conoci
sist emas</w>
neces it
comun it
pres id
Organ ización</w>
E con
R el
es ión</w>
servici o</w>
H ola</w>
i or</w>
oc tubre</w>
Tri bunal</w>
ar lo</w>
man o</w>
señ al
sim pl
un os</w>
empres a</w>
v el
ad em
at u
N os</w>
aseg ur
mis ma</w>
ci o</w>
man i
á fic
pon er</w>
pro puesta</w>
Señ or</w>
H ay</w>
estr a</w>
ocu r
i fic
h oy</w>
t a
anci as</w>
eg os</w>
sigu e</w>
2 3</w>
e te</w>
u m
3 1</w>
mun dial</w>
nuev as</w>
f o
aument ar</w>
novi embre</w>
obje to</w>
d ado</w>
D eb
Mun dial</w>
Com unidad</w>
sep tiembre</w>
d encia</w>
li bre</w>
gast os</w>
p an
reg ionales</w>
res er
per man
f otos</w>
nuestr os</w>
c ti
201 0</w>
compro mis
in di
algun as</w>
hom bres</w>
de dic
equi po</w>
m encion
recomend aciones</w>
f e</w>
fin al</w>
f e
for z
id ent
may oría</w>
M o
un idades</w>
ent ación</w>
miembr o</w>
reci b
P l
rá p
mi entras</w>
u b
Par tes</w>
A R
D is
ci udad</w>
m eses</w>
M on
Mi embr
noc he</w>
estruc tur
O h</w>
gu ien</w>
terr or
garanti zar</w>
hab it
in vi
pap el</w>
el em
n unca</w>
ent on
e as</w>
ten ción</w>
to d
or r
t h
y en</w>
inclu so</w>
Qu e</w>
h í
arreg lo</w>
públ ico</w>
fun ción</w>
ciud ad
col abor
es c
nuev os</w>
tr e</w>
pri or
mar c
lar go</w>
cu anto</w>
zon as</w>
fr on
enton ces</w>
ir e</w>
may o</w>
publ ic
cre ación</w>
mi gr
en as</w>
pr ó
civi l</w>
su l
4 .
h aci
zon a</w>
as pec
D E
ent as</w>
mar zo</w>
en ero</w>
an da</w>
po t
r en
ad amente</w>
ot ación</w>
igu al
su peri
M I
fr ente</w>
princip ales</w>
difer entes</w>
ví cti
tr as
cul tur
su st
hab ían</w>
t en</w>
eli min
so y</w>
dis tribu
ú s
pas ado</w>
M a
m isión</w>
A u
acer ca</w>
d ido</w>
financi ación</w>
segun do</w>
vir tud</w>
M edi
ne t</w>
M i</w>
2 6</w>
man d
sent ido</w>
prot eg
ati s
Est oy</w>
F on
si endo</w>
qu es</w>
2 8</w>
espec ífic
en señ
res puesta</w>
Ó N</w>
a m</w>
ad ora</w>
prác tica</w>
elec tr
V I
pe di
sec re
ejecu ción</w>
form e</w>
si ti
cu atro</w>
ord inación</w>
i as</w>
ca pi
ten emos</w>
S ab
199 9</w>
mi s</w>
A C
ju ici
apo y
A S</w>
J un
rel ativas</w>
presu puesto</w>
e t</w>
de li
l ucha</w>
fig ur
cur so</w>
ér ica</w>
deci siones</w>
polic ía</w>
in os</w>
ic amente</w>
mu l
po st
or g
com ún</w>
fr u
án do
señ or</w>
ob tener</w>
principi os</w>
2 7</w>
ac tos</w>
Econ óm
En ton
p el
u ales</w>
b ur
Enton ces</w>
for tal
con ci
legisl ación</w>
pueb lo</w>
bi r</w>
vers idad</w>
N acional</w>
organ ismos</w>
últi mo</w>
l ista</w>
import antes</w>
Direc tiva</w>
t re
principi o</w>
segu ir</w>
con cre
din ero</w>
adem ás</w>
L u
g én
b ás
ac e</w>
ami entos</w>
pr en
A N
on a</w>
L e</w>
4 0</w>
201 1</w>
. 000</w>
we b</w>
av ía</w>
si ento</w>
val or</w>
su c
au mento</w>
l la</w>
gran des</w>
C ol
ál isis</w>
liber tad</w>
S al
pi r
abri l</w>
oper aciones</w>
Á frica</w>
ju ego</w>
c ar</w>
econ om
B ien</w>
ci onal</w>
6 0</w>
h izo</w>
económ ica</w>
at a</w>
actu al</w>
eci miento</w>
an im
procedi miento</w>
ic e</w>
inst al
or as</w>
partam ento</w>
D O</w>
ries go</w>
gubern amentales</w>
a k
Tr abajo</w>
tien es</w>
comun icación</w>
v enci
el las</w>
is terio</w>
ir a</w>
vol un
er ía</w>
e ti
empl e
v oy</w>
fon dos</w>
enci al</w>
i bles</w>
J o
est ad
cin co</w>
ten ía</w>
R u
Trat ado</w>
establ ecer</w>
pañ a</w>
D eci
trat amiento</w>
pró xim
is to</w>
gr acias</w>
bi a</w>
tí culos</w>
n ota</w>
ambi ente</w>
In s
cumpli miento</w>
promo ver</w>
reg ional</w>
Par te</w>
o br
sab er</w>
p ública</w>
di f
ord en</w>
estudi o</w>
s atis
hab r
fal ta</w>
E j
am a</w>
bu ena</w>
vid eo</w>
P re
efec to</w>
dic os</w>
tu lo</w>
ament al</w>
obier nos</w>
F in
categ oría</w>
Est amos</w>
abl emente</w>
inter és</w>
am b
d ol
discrim inación</w>
b a
mo dific
p ág
deb ido</w>
responsab ilidad</w>
haci endo</w>
igual dad</w>
or o</w>
Miembr os</w>
ra .</w>
al to</w>
t ada</w>
de d
pued a</w>
v amos</w>
vis it
J e
en vi
ec en</w>
adi e</w>
Soci al</w>
económ ico</w>
d en</w>
des e
par ece</w>
p ción</w>
1 7
procedi mientos</w>
2 9</w>
ámbi to</w>
di j
ís ticas</w>
b ol
pe li
niñ o</w>
ó digo</w>
Nu eva</w>
v arios</w>
tr a</w>
ast e</w>
posi bilidad</w>
futur o</w>
trans porte</w>
v ac
t s</w>
h emos</w>
ven es</w>
M an
com par
prác ticas</w>
is c
o d
qued a</w>
e do</w>
at or
ju dici
. 1</w>
pres ión</w>
a unque</w>
relacion ados</w>
201 2</w>
en os</w>
gr eso</w>
a z</w>
C r
rel ativa</w>
tu s</w>
Ser vici
es ia</w>
V i
ó venes</w>
energ ía</w>
n as</w>
ej erci
cre o</w>
ej a</w>
manten imiento</w>
g encia</w>
much as</w>
í amos</w>
loc ales</w>
p adre</w>
m ar</w>
habl ar</w>
peli gr
est amos</w>
tran j
órgan os</w>
ir á</w>
con ver
al guien</w>
ustr ia</w>
se an</w>
ur ante</w>
p ed
raz ón</w>
po bre
tr o</w>
p ó
in tro
ex ig
av es</w>
u su
princip al</w>
é ase</w>
ác ter</w>
pobre za</w>
Ten go</w>
t exto</w>
mu lti
co lo</w>
logr ar</w>
can ti
ning una</w>
S ólo</w>
N or
car ácter</w>
hi jo</w>
re lig
cuer dos</w>
mo de
S ra.</w>
á rea</w>
vi v
ad el
s ac
gu st
podr á</w>
P en
comerci o</w>
1 6
estruc tura</w>
an álisis</w>
exc lu
j usticia</w>
declar ación</w>
pertin entes</w>
d ica</w>
ti erra</w>
conc ep
un as</w>
am en
j óvenes</w>
ser ie</w>
ar tículos</w>
ex tranj
des empe
cu id
ebr ero</w>
inc re
ord en
represent antes</w>
o gr
de tal
or ías</w>
er se</w>
con ven
V al
ot el</w>
g obierno</w>
igu al</w>
á logo</w>
pr on
201 3</w>
ju egos</w>
defin i
ó l
M al
v ari
pl en
si s</w>
er en</w>
titu ción</w>
Fon do</w>
si mo</w>
t ades</w>
Min istr
Un i
seg uro</w>
Min isterio</w>
vi vi
dis eñ
gu erra</w>
r om
g ado</w>
co sa</w>
us tri
c entro</w>
funcion arios</w>
experi encia</w>
con fi
i on
fu gi
ar emos</w>
E S
po demos</w>
3 .
ac ter
sal v
dif íci
sol id
re ferencia</w>
contr ol
creci miento</w>
respon s
resul tado</w>
re fl
ser ía</w>
0 0
cont exto</w>
tom ar</w>
l er</w>
i li
con ec
i al</w>
er da</w>
añ ana</w>
z ado</w>
qui en</w>
Pr oto
fer encias</w>
f ebrero</w>
N i
d é
signi fic
estableci miento</w>
human it
cons trucción</w>
ist án</w>
gr es
I r
s en
má xim
exc ep
ah í</w>
reun iones</w>
ter a</w>
deleg ación</w>
alg una</w>
di ó</w>
L A</w>
no v
cons egu
a pi
áfic o</w>
pre v
199 8</w>
gl ob
T I
ning ún</w>
to n</w>
lu ego</w>
0 ,
ay an</w>
inc or
hist oria</w>
g obiernos</w>
enfer med
des cri
Is ra
co ordinación</w>
sosten ible</w>
y es</w>
pued es</w>
cer ca</w>
dem oc
adr o</w>
técn ica</w>
A CI
superi or</w>
tod avía</w>
agr ad
n e</w>
ven ir</w>
vícti mas</w>
aj es</w>
t ér
cre ar</w>
inter pre
m an</w>
Jun ta</w>
s elec
administr ación</w>
n om
m br
deb ate</w>
d ades</w>
trabaj adores</w>
docu mentos</w>
sab es</w>
instru mentos</w>
au di
C entro</w>
asi gn
UN I
indi vid
19 7
ic ul
re alidad</w>
mu erte</w>
or k</w>
im en</w>
e y</w>
obst ante</w>
1 4
siti o</w>
In forme</w>
ator io</w>
h on
pu es</w>
cu ar
B o
re v
ed a</w>
To dos</w>
mand ato</w>
hi jos</w>
pro puestas</w>
F eder
er tos</w>
Isra el</w>
fun ciones</w>
pued an</w>
Cre o</w>
re ducción</w>
cul p
niv eles</w>
Am érica</w>
ad u
ag o
R O
t an
activ idad</w>
ap a</w>
cambi os</w>
Des de</w>
é di
all í</w>
Dec lar
m ín
ú s</w>
aj ust
e i
com en
É l</w>
d oc
ar e</w>
H a
C an
h ici
de fen
D A</w>
tecn ología</w>
con junto</w>
tr im
in medi
compet encia</w>
ég imen</w>
v ul
m adre</w>
ún ico</w>
peri ó
í gen
utiliz ación</w>
rel aciones</w>
dest ac
mín im
m ac
espaci o</w>
re vis
As untos</w>
Ad ministr
on ia</w>
gén ero</w>
S an
car acter
E r
ciudad anos</w>
n er
especi ales</w>
ir se</w>
con duc
aspec tos</w>
ot as</w>
P al
pro vis
produc to</w>
promo ción</w>
br ind
ex port
em ent
bl anco</w>
l lo</w>
cu ales</w>
De partamento</w>
preci os</w>
l ev
gu ar
P NU
adr es</w>
oblig aciones</w>
qu e
re d</w>
id ea</w>
a cuerdos</w>
is ti
estudi os</w>
solu ción</w>
g e
cor rec
estrateg ia</w>
eg a</w>
liz ación</w>
m añana</w>
T i
1 00</w>
m ag
tu vo</w>
continu ación</w>
últi mos</w>
adici onales</w>
at ori
Secre taría</w>
ej os</w>
incor por
loc al</w>
en fo
J es
ic ana</w>
oport unidad</w>
men es</w>
N e
Proto colo</w>
pas a</w>
mar ca</w>
er o
con st
cam ino</w>
T odo</w>
r égimen</w>
cr isis</w>
sufici ente</w>
199 5</w>
estableci do</w>
present ación</w>
fi j
R ec
cu br
so mbr
ex tr
ofrec e</w>
on s</w>
Pu ede</w>
is iones</w>
Pr im
U st
refi ere</w>
ago sto</w>
lin e</w>
en t</w>
territor io</w>
í m
re quisi
tér min
re ducir</w>
opin ión</w>
simpl e</w>
relacion adas</w>
au s
consid era</w>
qui eres</w>
ar le</w>
elem entos</w>
sem ana</w>
199 7</w>
electr ón
Ej ecu
. .</w>
ayud ar</w>
consecu encia</w>
im ag
cas i</w>
cor az
v an</w>
aplic ar</w>
inici ativas</w>
me ti
aliz ar</w>
a za</w>
capaci tación</w>
fuer za</w>
T he</w>
car go</w>
compl e
el ev
Con ven
Ch ina</w>
su ministr
y endo</w>
v arias</w>
Est ás</w>
ti pos</w>
qu í</w>
prueb a</w>
199 6</w>
aj a</w>
ind ustri
negoci o</w>
ar an</w>
bu eno</w>
en io</w>
n or
m es</w>
am ento</w>
sec ción</w>
nucle ares</w>
r e</w>
man tener</w>
f recu
encontr ar</w>
hacer lo</w>
199 4</w>
fugi ados</w>
adop tar</w>
f áci
l abor
ex tra
B ar
paci entes</w>
Declar ación</w>
ci na</w>
r o</w>
estr o</w>
d ad
A D
teri os</w>
gener ales</w>
centr os</w>
dem asi
t ando</w>
H ab
mecan ismos</w>
é simo</w>
Qui ero</w>
fuerz as</w>
c os</w>
iv o</w>
Por que</w>
pe ti
ad ap
p í
i ó</w>
ti ficación</w>
A cuerdo</w>
in gresos</w>
R o
am er
eleg ir</w>
pueb los</w>
pro hi
si to</w>
financi eros</w>
re almente</w>
adop ción</w>
contr at
compromis o</w>
h os
ex plic
ing l
m al</w>
integr ación</w>
al ta</w>
ís tica</w>
a i
tar de</w>
s or
me tros</w>
exper tos</w>
qui era</w>
direc ción</w>
con jun
b al
f era</w>
qui én</w>
ed ades</w>
tu al</w>
am entos</w>
g ent
re conoc
desempe ñ
T er
colabor ación</w>
H e</w>
se par
c ru
D urante</w>
c an</w>
lleg ar</w>
inclu idos</w>
recu per
ándo se</w>
é s
tiv amente</w>
t emas</w>
en so</w>
bu en</w>
f ís
reg iones</w>
se is</w>
ígen as</w>
en es</w>
men t</w>
Es cu
olu ciones</w>
á tica</w>
Rel at
S ud
T ú</w>
tu vi
S an</w>
re ded
preci o</w>
ejerci cio</w>
i b
A t
segun da</w>
in ten
f abr
Es per
realiz ar</w>
ac es</w>
ci erto</w>
D em
Y ork</w>
qu in
fir ma</w>
escu ch
dis puesto</w>
esper a</w>
per fec
a t</w>
h ayan</w>
ar ch
n adie</w>
vi a</w>
ter n
Re ino</w>
N o
R I
ve hí
plan te
id amente</w>
represent ante</w>
pre vención</w>
econom ía</w>
dem ostr
teri or</w>
im p
fav or
con ex
Re present
V er
f a
lu z</w>
en da</w>
Qui én</w>
ten iendo</w>
b eb
f or</w>
am or</w>
cr édi
últi ma</w>
un to</w>
M isión</w>
c at
h ar
S oy</w>
encuentr a</w>
c lu
juici o</w>
Deci sión</w>
cumpli r</w>
in e</w>
vig or</w>
terror ismo</w>
difíci l</w>
nuestr as</w>
s on
b o</w>
e las</w>
rel ativo</w>
sec tores</w>
vig il
dific ul
ci ent
llev ar</w>
í r
preocup ación</w>
end ido</w>
S E
comunic aciones</w>
di álogo</w>
col ec
solici tud</w>
orig in
fin es</w>
conflic tos</w>
mo der
at a
orm ente</w>
permi te</w>
Con sul
autor iz
deber á</w>
direc tamente</w>
an unci
o j
Per man
ac ab
re fer
am á</w>
ub icación</w>
c er</w>
c amp
éx ito</w>
le yes</w>
ti on</w>
c he</w>
cir c
A unque</w>
orig en</w>
pu di
segu imiento</w>
c ent
de l
ot ec
ten ga</w>
A R</w>
Conven io</w>
er i
re o</w>
m id
v éase</w>
al reded
examin ar</w>
efic az</w>
compr en
hu bi
m pi
as es</w>
anc e</w>
A L
minu tos</w>
b on
cons tru
cau sa</w>
financi era</w>
201 4</w>
palabr as</w>
a port
l las</w>
s ur
a ur
evi tar</w>
cum pl
pun tos</w>
d ónde</w>
Su b
El la</w>
plan es</w>
por ta</w>
profes ional</w>
propi a</w>
pes ar</w>
n ia</w>
z ó</w>
ver dad
dr og
a cog
cuer po</w>
h os</w>
signi fica</w>
em i
anteri or</w>
CE E</w>
sab e</w>
D ónde</w>
m ostr
vien e</w>
mi r</w>
im pl
f om
cr í
at ura</w>
on line</w>
coraz ón</w>
Ust ed</w>
r aci
p ér
parti cu
fig ura</w>
fu sión</w>
i ente</w>
deber ían</w>
co pi
des car
comun idades</w>
tem por
id er
C ódigo</w>
199 3</w>
gener ar</w>
r est
I II</w>
g o
EN T
actu aliz
ord ar</w>
facili tar</w>
e der</w>
demasi ado</w>
Car ta</w>
bien es</w>
fund amentales</w>
t y</w>
O r
Des pués</w>
ingl és</w>
on io</w>
Seg ún</w>
isi on
P res
entr ada</w>
p adres</w>
M A</w>
fr anc
materi al</w>
fron ter
aprob ación</w>
presid ente</w>
neces arias</w>
im os</w>
ex iste</w>
priv ado</w>
funcion amiento</w>
desarrol l
ur b
ar la</w>
1 ,
men s
Tr an
pí ri
re forma</w>
l en
D I
enfo que</w>
per ten
ad oras</w>
apro pi
A L</w>
é is</w>
gar es</w>
g ol
con serv
ent ales</w>
esti m
a firm
ab e</w>
mej ores</w>
palabr a</w>
l ación</w>
polí ticos</w>
bi li
dis minu
si mi
cau s
fund amental</w>
M r</w>
utiliz ar</w>
T ur
as untos</w>
adici onal</w>
P i
trabaj ar</w>
disposi ción</w>
en fr
k et
O ri
alg ún</w>
co ordin
tar se</w>
men ores</w>
pa tr
present ar</w>
ami go</w>
Ac ción</w>
ofici al</w>
res oluciones</w>
propi o</w>
consecu encias</w>
al idades</w>
pu erto</w>
E E
establ ece</w>
es forz
pal est
ti go</w>
est aban</w>
ser án</w>
an ual</w>
3 5</w>
Ins titu
circ un
u g
com pon
canti dad</w>
S t
b e
presu puest
f ra
ent reg
su je
tric es</w>
M ira</w>
conflic to</w>
í co
Al gun
ex ten
ind ígenas</w>
determin ar</w>
asegur ar</w>
ap os</w>
ti l</w>
ien da</w>
prueb as</w>
í tulo</w>
A si
B r
re mos</w>
capi tal</w>
l y</w>
Der echo</w>
dis fru
Al em
M il
2 5
L .
A quí</w>
inici ativa</w>
autor idad</w>
lu gares</w>
au tor</w>
est é</w>
pregun ta</w>
observ aciones</w>
fon do</w>
pér d
lam ent
dic ha</w>
podr ían</w>
efic acia</w>
mani f
present ado</w>
C entr
económ icos</w>
C .
inter eses</w>
a ire</w>
mé dico</w>
re tir
ind ustria</w>
cam in
re d
enseñ anza</w>
apro xim
aj o</w>
sex ual</w>
ífic o</w>
t h</w>
re al</w>
V en
al ia</w>
Mu y</w>
consul tas</w>
ún ica</w>
ten gan</w>
bi ó</w>
re fugiados</w>
pas o</w>
prim ero</w>
m ol
pers pec
i ll
st e</w>
G e
judici al</w>
r ur
val ores</w>
particip antes</w>
4 5</w>
iz a</w>
- -</w>
al eza</w>
ag entes</w>
anti gu
Fr ancia</w>
í do</w>
w w
in nov
en mi
requisi tos</w>
polí tico</w>
b ast
Económ ico</w>
Es paña</w>
alim ent
olog ías</w>
S h
Ad d
t es
Mu j
pa ti
clar o</w>
k a</w>
enci ales</w>
nu mer
brind ar</w>
f isc
plen amente</w>
ed entes</w>
Pol í
í os</w>
er tas</w>
proc esos</w>
c err
estr at
ar ri
tom a</w>
C A
gu sta</w>
b y</w>
d om
diver sos</w>
tar es</w>
inf ra
ent idades</w>
d omin
pa go</w>
C as
deci r
3 2</w>
N eces
Sab es</w>
au to
ci as</w>
tendr á</w>
pág ina</w>
p .</w>
cl ase</w>
propi edad</w>
9 0</w>
ar nos</w>
añ a</w>
h og
actu almente</w>
vis ibilidad</w>
celebr ada</w>
f ri
san gr
u s</w>
ev e</w>
Un ido</w>
at es</w>
proteg er</w>
ca la</w>
conoci mientos</w>
neces arios</w>
oport unidades</w>
vol ver</w>
famili as</w>
trat ados</w>
estrat ég
D ic
con tenido</w>
centr al</w>
cam po</w>
í n</w>
terr eno</w>
ar ti
trabaj os</w>
P acto</w>
Pen al</w>
ati onal</w>
cu la</w>
ci onales</w>
con siguiente</w>
í ti
201 5</w>
vi o</w>
au t
ampli a</w>
J usticia</w>
prepar ación</w>
respe to</w>
gran de</w>
En tre</w>
4 8</w>
au tom
rec lam
I ra
ust edes</w>
merc ados</w>
Tien es</w>
so f
tic amente</w>
or ación</w>
inclu ye</w>
mode lo</w>
inter ior</w>
em er
mi go</w>
á tico</w>
Inter net</w>
su puesto</w>
es po
8 0</w>
O c
conc entr
C ON
il e</w>
p is
e x</w>
li mpi
económ icas</w>
conoci miento</w>
Est as</w>
í fica</w>
Fu e</w>
m en</w>
med ic
l idad</w>
y ó</w>
negoci aciones</w>
g e</w>
pro duci
concep to</w>
circun st
H er
ket ing</w>
d an</w>
Medi o</w>
ami gos</w>
inver sión</w>
pu so</w>
Ob serv
elabor ación</w>
píri tu</w>
cri terios</w>
diver sas</w>
r ob
m ó
distribu ción</w>
acu s
efec tu
d id
In formación</w>
distin tos</w>
dedic ados</w>
é tica</w>
reconoci miento</w>
lí mi
tiv idad</w>
Su r</w>
H a</w>
O M
di r
ed ores</w>
fer as</w>
So lo</w>
gr af
pro fun
N º</w>
neces ita</w>
conec tar</w>
6 .
hab la</w>
d or
uni vers
marc ha</w>
iv os</w>
p idi
pas ar</w>
cu entas</w>
particip ar</w>
car ta</w>
gr ado</w>
materi ales</w>
M uch
públ icos</w>
mis iones</w>
a ter
escu ela</w>
qui enes</w>
especi aliz
correspon dientes</w>
Ten emos</w>
az o</w>
Ab ogados</w>
tran si
í es</w>
des plaz
f acción</w>
tien do</w>
der iv
exper im
hac en</w>
Alem ania</w>
com ien
cab eza</w>
sombr ero</w>
éx ico</w>
com it
provis ional</w>
relig i
Jes ús</w>
est rec
ofici na</w>
mar keting</w>
ofici ales</w>
v ino</w>
VI H</w>
l ec
5 5</w>
ag ésimo</w>
adop tadas</w>
tor io</w>
natur aleza</w>
M éxico</w>
icul tura</w>
pre visto</w>
Est os</w>
cu adro</w>
3 3</w>
mon t
h e
M ic
anz as</w>
inclu idas</w>
pres encia</w>
v ech
si v
encar g
podr án</w>
j usti
res ol
Represent ante</w>
7 0</w>
z ación</w>
A sia</w>
trans par
constitu ye</w>
u do</w>
m em
fin ales</w>
es fera</w>
es cala</w>
ten idos</w>
C lar
ti ó</w>
pi ece</w>
c ad
alcan zar</w>
C am
p e</w>
ebr a</w>
equi libr
N unca</w>
ob ern
PNU D</w>
des apar
p ac
recom ienda</w>
Relat or</w>
vul ner
Est u
comerci ales</w>
e los</w>
3 4</w>
mili tar</w>
Tien e</w>
nom br
quer ía</w>
Asi mismo</w>
deber án</w>
po d
ases in
Ru sia</w>
re cog
int ent
Cons titución</w>
mecan ismo</w>
ig n
tu des</w>
ex tre
h am
agr íco
b an
respec ta</w>
D r
super visión</w>
ries gos</w>
mejor en</w>
Perman ente</w>
ident ific
in cid
exist entes</w>
Ministr o</w>
medi a</w>
condi ción</w>
sigu en</w>
inclu ida</w>
cul tura</w>
pedi r</w>
men or</w>
cont acto</w>
el l
aprob ado</w>
gent ina</w>
es feras</w>
mu estra</w>
tr ato</w>
E N</w>
Direc tor</w>
par ci
pro gresos</w>
Pl an</w>
5 .
v enta</w>
én do
rel ativos</w>
r endi
figur an</w>
T u</w>
as unto</w>
tr áfico</w>
O R
l av
deli tos</w>
vin cul
a compañ
terc er</w>
mili tares</w>
egr o</w>
re as</w>
Servici os</w>
teri ores</w>
6 3</w>
estrateg ias</w>
3 6</w>
mé todos</w>
E L</w>
po der
ad qui
en v
al o</w>
ab an
De li
t ú
Er es</w>
ev id
w it
h esión</w>
vivi r</w>
naci on
L at
c á
r ad
dej ar</w>
con migo</w>
gan ar</w>
ha t</w>
4 9</w>
po l
deli to</w>
est at
S E</w>
a pr
T om
á l</w>
rá tica</w>
or no</w>
o z
inf lu
v ic
k e</w>
m ot
in fer
E U
con solid
la ter
B ra
a fr
su el
a h</w>
viol aciones</w>
E se</w>
oblig ación</w>
I tal
é fon
contribu ciones</w>
alreded or</w>
ci fr
5 00</w>
h otel</w>
SI DA</w>
I S
.. ..
fáci l</w>
6 1</w>
199 2</w>
com isión</w>
dispon ibles</w>
consu mo</w>
máxim o</w>
M ás</w>
6 5</w>
pi de</w>
esforz amos</w>
profes ionales</w>
o fer
po día</w>
sal ir</w>
im porta</w>
fuer te</w>
anteri ores</w>
G o
C N
ser io</w>
elec ciones</w>
per mit
ens ay
bu fe
ver si
di r</w>
mis mos</w>
1 2
m ío</w>
ez as</w>
Em piece</w>
reser va</w>
situ aciones</w>
reci bir</w>
bufe tes</w>
c arr
qu ím
can did
un ión</w>
S on</w>
glob al</w>
u das</w>
v en</w>
Po dr
ordin ario</w>
ol vid
vi vien
ráp ido</w>
. 00</w>
pre vis
i l</w>
dij e</w>
199 0</w>
in ci
bl o
J er
drog as</w>
venci ones</w>
mo di
A li
ent en
co che</w>
3 7</w>
C ari
civi les</w>
natur ales</w>
ab ar
en can
á b
inter cambio</w>
e lig
instru mento</w>
compe ti
Pa z</w>
consegu ir</w>
m ad
dis par
5 8</w>
Es a</w>
posi bles</w>
t asa</w>
trim onio</w>
escu elas</w>
p in
at oria</w>
3 0
sen si
pro ve
I m
de tec
sangr e</w>
o jos</w>
confi anza</w>
Cor te</w>
tar on</w>
tam en</w>
neces aria</w>
Ira q</w>
com ent
m bre</w>
ant ía</w>
den unci
B anco</w>
Al to</w>
europe a</w>
gr aves</w>
pen a</w>
6 2</w>
ment ación</w>
human o</w>
niñ as</w>
pequeñ o</w>
secre taría</w>
p at
g er
apro vech
públ icas</w>
titu d</w>
estructur as</w>
err as</w>
sem anas</w>
fic ar</w>
pa g
an ía</w>
ar los</w>
cuar to</w>
asoci ados</w>
financi eras</w>
ofici nas</w>
5 7</w>
aprob ó</w>
il idades</w>
si r
cid ental</w>
circunst ancias</w>
len gu
pequeñ as</w>
hubi era</w>
instal aciones</w>
correspon diente</w>
inclu ido</w>
5 1</w>
apoy ar</w>
gar an
registr o</w>
hos pi
do sis</w>
pron to</w>
as as</w>
Dem oc
m ur
dificul tades</w>
plan ificación</w>
s mo</w>
fu entes</w>
cor ri
ar mon
p er</w>
o dos</w>
ar d
5 9</w>
pr estar</w>
pó sito</w>
ori ent
edi fici
financi ero</w>
Jo h
ha ga</w>
cu yo</w>
alcan ce</w>
declar aciones</w>
bun ales</w>
J ap
Ar gentina</w>
re duci
so bre
or amiento</w>
g en</w>
so s
amb os</w>
é l
R A
im pul
tel éfon
ést e</w>
seg ur
V oy</w>
por tes</w>
F or
pregun tas</w>
ACI ÓN</w>
tecn ologías</w>
ri o</w>
it y</w>
l uch
trans mi
princip almente</w>
Pu edo</w>
C O</w>
ver sión</w>
Com un
pro s
S om
all á</w>
re y</w>
proporcion ar</w>
nucle ar</w>
bus c
cultur al</w>
car a</w>
comple to</w>
amen az
S alu
est ación</w>
alim entos</w>
co oper
cu ya</w>
realiz ación</w>
ar d</w>
a é
direc trices</w>
equi pos</w>
ot eles</w>
re des</w>
al tern
pen al</w>
5 6</w>
O P
deb emos</w>
car ga</w>
volun t
expl otación</w>
P e
obr a</w>
bil idades</w>
é t
inver siones</w>
pu lar</w>
conclu siones</w>
ci to</w>
aqu ellos</w>
pár r</w>
ren ov
ex ac
cl ave</w>
compl et
ó p
V ic
a pl
re par
o un
r adi
contribu ción</w>
enfermed ad</w>
comerci al</w>
defen sa</w>
jur is
sus titu
ex ter
ar ían</w>
cli entes</w>
tar á</w>
perman ente</w>
st as</w>
Administr ación</w>
O ye</w>
qui eren</w>
técn icas</w>
C ada</w>
ev olución</w>
m ús
vigil ancia</w>
present a</w>
raz ones</w>
is a</w>
de tención</w>
es t</w>
an i
é m
aban don
pens ar</w>
deleg aciones</w>
respons able</w>
tur as</w>
natur al</w>
anim ales</w>
4 4</w>
l on
mo tivos</w>
interes ados</w>
v an
bast ante</w>
mínim o</w>
má tico</w>
7 .
f lu
3 9</w>
con tigo</w>
estudi antes</w>
qu ía</w>
lar mente</w>
may ores</w>
di g
adop tado</w>
F l
ex istencia</w>
des arme</w>
est abilidad</w>
ám ica</w>
3 8</w>
fac tores</w>
ON ES</w>
n av
pu erta</w>
A soci
o m</w>
cultur ales</w>
amp lio</w>
P E
jun tos</w>
indepen diente</w>
id e
present ó</w>
términ os</w>
A po
2 8
benefici os</w>
gr atu
m ic
as c
inclu ir</w>
4 7</w>
y s
6 7</w>
activ os</w>
4 2</w>
compl eta</w>
Jap ón</w>
ON U
co m</w>
me t
conform e</w>
5 2</w>
j as</w>
sol amente</w>
recib ido</w>
actu ales</w>
im pres
pequeñ os</w>
vehí culos</w>
s in
h id
qu iz
vi l</w>
asi mismo</w>
Cu án
cambi ar</w>
oc a</w>
In dia</w>
res tric
des ea</w>
fi l
b anc
comb ati
compromis os</w>
P A
escri to</w>
b ús
elimin ación</w>
pequeñ a</w>
Ital ia</w>
4 3</w>
con den
Pro yec
G in
ju g
h echos</w>
realiz ado</w>
om as</w>
Com ision
6 4</w>
dis cu
es iones</w>
dispon e</w>
consu mid
a co
col óg
human a</w>
Pa íses</w>
llev a</w>
B AR</w>
t hat</w>
des as
ri t
ent an</w>
o w
habr ía</w>
mo tivo</w>
Li ber
reg lamento</w>
permi tir
Qu iz
selec cion
Institu to</w>
ci c
ju sto</w>
volun tad</w>
pas ó</w>
pidi ó</w>
il eg
Ne w</w>
r acia</w>
Uni versidad</w>
eñ o</w>
vi aje</w>
comun es</w>
adecu ada</w>
ind ica</w>
cer tific
De ber
2 9
adel ante</w>
fabr ic
deci dió</w>
prest ación</w>
A f
est én</w>
Servici o</w>
E duc
mej ora</w>
pel í
á ticos</w>
A M
libr o</w>
po se
al e</w>
cur sos</w>
bi ción</w>
no ti
con tiene</w>
distin tas</w>
sub s
dis capacidad</w>
pro voc
en se</w>
m esa</w>
r esto</w>
men udo</w>
C al
f ase</w>
migr ación</w>
gr ad
Tran s
Salu d</w>
ej er
gen es</w>
exist en</w>
gr ave</w>
al mac
conoc er</w>
qu en</w>
compl ement
di ferencia</w>
usu arios</w>
n ational</w>
trat ar</w>
diseñ o</w>
S e
I gl
contribu ir</w>
M ad
4 1</w>
ed or</w>
5 4</w>
on g</w>
her mano</w>
institu cional</w>
err ami
Val e</w>
il íci
cl asi
ic anos</w>
p a</w>
4 6</w>
satis fac
hab ili
B el
estr os</w>
p eso</w>
Feder ación</w>
Bra si
v otación</w>
I V</w>
mo d
peligr o</w>
tri bunales</w>
p ar</w>
20 0</w>
h al
li min
o di
Gr an</w>
contr ato</w>
c h</w>
7 5</w>
pro vin
determin ación</w>
b el
perí odos</w>
ch ica</w>
ac ord
asoci ación</w>
jurí dica</w>
jurí dico</w>
es pañ
sig lo</w>
g obern
M er
aproxim adamente</w>
ori entación</w>
Qui eres</w>
bús queda</w>
c as</w>
pe tr
dem anda</w>
dest ino</w>
i i</w>
mit ad</w>
recomend ación</w>
Nor te</w>
Can ad
Gin ebra</w>
fortal ecer</w>
P RE
B an
5 3</w>
cont am
in fr
cu án
T ema</w>
desarrol lar</w>
in fec
san it
ero puerto</w>
k istán</w>
ar les</w>
des ign
crédi to</w>
F a
co ch
do ble</w>
a sión</w>
M ed
gust aría</w>
su br
A y
bien io</w>
inf anti
so me
encuentr an</w>
próxim o</w>
u os</w>
er lo</w>
super fici
6 6</w>
aci onales</w>
es encial</w>
Com erci
b os
añ ad
199 1</w>
b ot
di ez</w>
prev é</w>
u r</w>
ir án</w>
mir as</w>
publ icación</w>
u m</w>
satis facción</w>
si l
B en
ri ó</w>
c ha</w>
cu bier
ej as</w>
2 ,
T al</w>
activ o</w>
bás icos</w>
B ur
C H
inclu yen</w>
si ete</w>
contin ú
inici al</w>
c .</w>
Co operación</w>
so la</w>
E ra</w>
migr antes</w>
respons ables</w>
propi os</w>
ins pec
dic as</w>
re visión</w>
f omento</w>
col or</w>
tot almente</w>
tar eas</w>
si va</w>
b or
compet entes</w>
si vo</w>
direc ta</w>
atu to</w>
cuid ado</w>
so r</w>
fu ego</w>
posi bilidades</w>
po bres</w>
rec ha
dur ación</w>
ati ons</w>
Ha sta</w>
at as</w>
n ot
eci do</w>
sus pen
prior idades</w>
pl ac
op ción</w>
ad ul
imag en</w>
oc asi
s exo</w>
multi later
con ferencias</w>
b om
transi ción</w>
Di visión</w>
mi les</w>
con firm
caracter ísticas</w>
as o</w>
A .</w>
su fr
bi r
Canad á</w>
c ep
ún icamente</w>
iv a</w>
europe o</w>
parti da</w>
ab solu
post eri
N úmero</w>
viol ación</w>
solici tudes</w>
v ía</w>
re cuer
evalu ar</w>
O tros</w>
per cu
proc es
ten d
su fri
D é
v olu
re gres
us ar</w>
L I
le o</w>
ológ ica</w>
Ge org
mun di
entr ar</w>
av anz
elec ción</w>
6 8</w>
fom entar</w>
por cent
am o</w>
des cubr
co her
opin iones</w>
habl ando</w>
o o
ven ido</w>
ér cito</w>
movi miento</w>
hist ór
si quiera</w>
est ará</w>
mun ici
ar ás</w>
h errami
ét n
terc eros</w>
a cont
h es</w>
sec und
di men
ment al</w>
Brasi l</w>
ic ano</w>
é sta</w>
C C
du da</w>
w are</w>
fu ente</w>
b ar</w>
e tas</w>
for zar</w>
C l
clar amente</w>
v ot
il la</w>
atori os</w>
posi ciones</w>
In v
específic as</w>
infra estructura</w>
Clar o</w>
indepen dencia</w>
ent orno</w>
no tific
Igl esia</w>
cap ítulo</w>
ífic os</w>
tor ia</w>
Cu ba</w>
activ a</w>
Muj er</w>
resol ver</w>
tri bunal</w>
CE F</w>
pon en</w>
eur os</w>
en das</w>
is ra
tel e
l ada</w>
a u</w>
mo bili
gu e</w>
enfermed ades</w>
h er</w>
trat ado</w>
consul ta</w>
aplic able</w>
b li
dr á</w>
su r</w>
ativ amente</w>
señal ó</w>
Mil enio</w>
arri ba</w>
pon go</w>
mens aje</w>
dispon ible</w>
llam ado</w>
AC NU
re i
aj as</w>
defini ción</w>
Pu edes</w>
parti do</w>
DE L</w>
O per
investig aciones</w>
is tir</w>
elimin ar</w>
contrat ación</w>
as u
dirig ida</w>
estu vi
li za</w>
di endo</w>
ru pción</w>
órgan o</w>
mar a</w>
O I
1 º</w>
S é</w>
peti ción</w>
obst á
consider ar</w>
frecu encia</w>
comunit aria</w>
perspec tiva</w>
emer gencia</w>
ri r</w>
Cu mbre</w>
alqui ler</w>
mu erto</w>
pro pone</w>
Ex am
des eo</w>
pi e</w>
actu alidad</w>
g al
ac k</w>
prior idad</w>
R ev
r oc
titu lado</w>
cont empl
7 7</w>
imp acto</w>
habit ación</w>
refl ej
de uda</w>
efec tivo</w>
visit as</w>
vi les</w>
C A</w>
es pi
re percu
li a</w>
fi esta</w>
br u
of reci
m g</w>
Esper a</w>
O R</w>
H i
9 2</w>
u el
difer ente</w>
amen aza</w>
F I
ins cri
plic ación</w>
in o
descar gar</w>
in ario</w>
dem n
indic adores</w>
des af
con venci
ol esc
del ante</w>
Algun os</w>
en camin
S ala</w>
J am
ac cid
C ap
us os</w>
el éc
pre venir</w>
Pr oc
Asoci ación</w>
In d
. com</w>
simpl emente</w>
infer ior</w>
S ist
ex terior</w>
Democ rática</w>
t ativo</w>
t antes</w>
ov en</w>
com pati
í g
og ado</w>
des tru
s ar</w>
G ar
di eron</w>
ases oramiento</w>
garanti z
manif est
bas ado</w>
preci so</w>
so mos</w>
Á r
Educ ación</w>
hi ja</w>
er s</w>
realiz ados</w>
H otel</w>
V ol
comunit ario</w>
determin ados</w>
represent a</w>
si on</w>
Col om
In t
B os
at amente</w>
ol er
dic hos</w>
reci ente</w>
Cons ider
po li
le tra</w>
prim eros</w>
or ar</w>
tí as</w>
don antes</w>
contr a
U no</w>
recuper ación</w>
C ul
i ba</w>
al em
pl ena</w>
bi tr
teléfon o</w>
tor tura</w>
San ta</w>
i lu
inter vención</w>
reser vas</w>
t ex
categ orías</w>
ay udas</w>
cam paña</w>
ex posición</w>
ú til</w>
solu ciones</w>
á reas</w>
id ez</w>
A ustr
elabor ar</w>
volu men</w>
ec er
H ace</w>
anc es</w>
f eder
pes ca</w>
comb usti
obr as</w>
mu estr
UNI CEF</w>
ad quisi
en orm
e os</w>
b año</w>
pérd ida</w>
as h
9 .
B ru
L a
ámbi tos</w>
vis ita</w>
Pr ocur
D A
li fer
tor ne
F oro</w>
fl ex
territor ios</w>
agu as</w>
expres ión</w>
9 5</w>
b arr
fa cul
contr ario</w>
F orm
S O
man do</w>
in al</w>
ti erras</w>
v eci
isra el
ambi entales</w>
asoci aciones</w>
párraf os</w>
sig n
democ racia</w>
can c
deb ía</w>
res puestas</w>
ambi ental</w>
a fi
ari ll
Si empre</w>
eléc tr
t ante</w>
comb in
adecu ado</w>
po s
ech as</w>
tel ev
uc r
apar tam
re quiere</w>
ter res
Ir lan
baj a</w>
espo sa</w>
pl om
J os
D ocu
M or
acc es
hac es</w>
E A</w>
trans ferencia</w>
señ ala</w>
ti m
t able</w>
ti les</w>
tí tulo</w>
ad ver
pro pósito</w>
em isiones</w>
ab as</w>
á ticas</w>
bur go</w>
l and</w>
A di
com end
en amiento</w>
di fusión</w>
re forzar</w>
C hi
estableci dos</w>
in tención</w>
es píritu</w>
fortal ecimiento</w>
permi tir</w>
ent regu
ti g
Bu enos</w>
je fe</w>
dic tamen</w>
Cr isto</w>
i ción</w>
equi val
ex cel
i ales</w>
e tes</w>
esper ar</w>
t esti
ac h
rec ord
rec ep
conci encia</w>
dic has</w>
A z
A ñ
su erte</w>
infanti l</w>
dici endo</w>
observ a</w>
G en
rec lu
h inc
al ista</w>
c ó
efec tiva</w>
pi en
resul ta</w>
re quer
mi edo</w>
inter nos</w>
eli z</w>
P A</w>
M A
tar ea</w>
Fu er
B er
ab ordar</w>
ac el
ari amente</w>
ac o</w>
Re unión</w>
Irlan da</w>
juris dic
cre ado</w>
a tribu
com port
0 1</w>
B us
cau sas</w>
Consul tiva</w>
reci entemente</w>
oc ho</w>
adi ción</w>
arm ados</w>
conc er
conclu sión</w>
particu larmente</w>
europe os</w>
ofrec er</w>
m amá</w>
dol e</w>
vuel ta</w>
her man
pren sa</w>
ab u
Pr otec
Ob je
A fr
her m
in demn
V ien
Fin anci
B i
lifer ación</w>
lleg ado</w>
difer encias</w>
g ica</w>
tor al</w>
K o
cost o</w>
m as
Comerci o</w>
celebr ación</w>
e ar</w>
Centr al</w>
autor ización</w>
t ;</w>
sufici entes</w>
de lin
um en</w>
T u
Proyec to</w>
famili ar</w>
cost os</w>
op ciones</w>
extranj eros</w>
er amente</w>
inmedi atamente</w>
mé todo</w>
res pal
n ú
emple ados</w>
F E
CN .
ciud ades</w>
Presid encia</w>
De fen
h el
a firma</w>
con ferencia</w>
contr atos</w>
conoci do</w>
s ín
Fr an
Inv estig
p ido</w>
min as</w>
l og
po ca</w>
trabaj ando</w>
famili ares</w>
rur ales</w>
pap á</w>
Pr om
an dia</w>
R econ
ri a</w>
re t
efici encia</w>
h t</w>
cost es</w>
pr isión</w>
Sal v
capaci dades</w>
P RO
d i</w>
judici ales</w>
Colom bia</w>
j oven</w>
b ano</w>
3 ,
p to</w>
inter no</w>
inclu yendo</w>
p si
P I
previs tos</w>
má qu
ten ían</w>
ic h</w>
7 3</w>
. U
Cari be</w>
plan o</w>
electrón ico</w>
v es</w>
C á
Tr as</w>
k i</w>
At torne
O S
mer canc
ad olesc
sust ancias</w>
Est aba</w>
ped ido</w>
P ac
Escu ch
vol vi
aliz ado</w>
prev istas</w>
entregu e</w>
inform ó</w>
C U
8 .
super vis
eci ó</w>
Seg un
gar antía</w>
6 9</w>
esfuerz o</w>
medic amentos</w>
ic al</w>
Add .
cre e</w>
Su s</w>
C ali
h t
int elig
respon der</w>
Rel aciones</w>
cul ación</w>
Deli ver
pa gar</w>
r ido</w>
en g
técn ico</w>
coch es</w>
est rel
des trucción</w>
N i</w>
viv en</w>
mi erda</w>
i eron</w>
cu y
N ada</w>
pro liferación</w>
tam año</w>
si ga</w>
su ma</w>
B ien
re to</w>
E ti
humanit aria</w>
es col
compro me
l at
Austr alia</w>
Attorne ys
Attorneys Deliver
me z
tor no</w>
Ni ño</w>
Am bi
m m</w>
Cor ea</w>
determin adas</w>
Comision ado</w>
mi l</w>
efic aces</w>
t ab
ma trimonio</w>
S ch
b ol</w>
c ari
car re
abi erta</w>
M at
ch icos</w>
col oc
c es
C er
W il
ar t</w>
cli mático</w>
constitu yen</w>
B e
garan tías</w>
mús ica</w>
prohi bición</w>
san ciones</w>
C at
A h
án ico</w>
eci mientos</w>
vol ver
recur so</w>
concre tas</w>
éndo se</w>
s ecu
est ados</w>
sos p
gubern amental</w>
Sec ción</w>
9 6</w>
bu enas</w>
vi aj
ve o</w>
esper anza</w>
aplic ables</w>
Af gan
ad uc
hog ar</w>
fís ica</w>
Mi entras</w>
de liber
ra za</w>
er g
leg al</w>
espi ri
ci pl
delin cu
sist em
oun id
. net</w>
ra zon
In clu
pro greso</w>
L OS</w>
simi lares</w>
compon entes</w>
tam poco</w>
ru m
su pone</w>
transpar encia</w>
mé dicos</w>
et apa</w>
priv ada</w>
habr á</w>
se las</w>
ac lar
ent idad</w>
en c
c ódigo</w>
i on</w>
9 3</w>
Sud án</w>
den omin
AttorneysDeliver ed</w>
tor a</w>
bas ada</w>
d ados</w>
ci os</w>
c lín
ar ma</w>
ad hesión</w>
suministr o</w>
R ecu
dic es</w>
adel an
Pr in
al istas</w>
e m</w>
con oz
culp a</w>
9 8</w>
com ida</w>
export ación</w>
nor te</w>
bus car</w>
encar gado</w>
f oto
interes adas</w>
h ará</w>
T A</w>
per mis
Dé j
cal le</w>
necesit an</w>
S ol
reg lam
1 2.
gr av
C TA
T E
ap as</w>
D avi
franc és</w>
arill as
col on
complet amente</w>
n y</w>
a pren
compañ ía</w>
Per s
Pol ic
mu tu
elem ento</w>
á fica</w>
P ens
l ejos</w>
arch ivo</w>
específic os</w>
Ex teriores</w>
ad ic
L í
llam a</w>
t ari
parti ci
habit aciones</w>
com eti
vivien da</w>
pr ést
An tes</w>
wit h</w>
an g
combati r</w>
ll e</w>
A ir
Afgan istán</w>
Es trat
fic ado</w>
á is</w>
á bi
experi encias</w>
dol or</w>
err or</w>
su m
lan dia</w>
señal ar</w>
pro du
un cia</w>
og a</w>
ici dad</w>
alcan z
ati s</w>
al oj
estad ounid
C .</w>
g esti
EE .U
H oy</w>
c án
T im
y an</w>
Apo yo</w>
ch ico</w>
arr u
us a</w>
sab ía</w>
cons ci
a w
ne as</w>
tu almente</w>
d años</w>
ge ogr
pre ten
l ad
liz ar</w>
L on
vo z</w>
Am arillas
perió dico</w>
lici dad</w>
destin ados</w>
términ o</w>
ir ía</w>
ac a</w>
industri al</w>
E gi
Lat ina</w>
é tico</w>
ev o</w>
CO M
h ts</w>
j o
aspec to</w>
human idad</w>
Pal est
Ori ente</w>
id eas</w>
ra tific
t án</w>
norm al</w>
porcent aje</w>
M esa</w>
i t</w>
B aj
me tro</w>
produc tores</w>
comit é</w>
ó s</w>
consumid ores</w>
To das</w>
apr endi
enci ones</w>
ac re
abi erto</w>
ig a</w>
estad ísticas</w>
ori ental</w>
ist en</w>
Dr .</w>
afec tados</w>
R C</w>
Bru selas</w>
v istas</w>
Deb e</w>
u ci
Procur adores</w>
w as</w>
hici eron</w>
cont ar</w>
v esti
or g</w>
mi l
k y</w>
U S
tor ía</w>
Exam en</w>
import ación</w>
é p
per tura</w>
k il
ar bitr
univers al</w>
estr ic
Ofici al</w>
b er</w>
v a
celebr ó</w>
pl eno</w>
alu m
em e</w>
labor al</w>
T ra
estu vo</w>
sal ida</w>
terc era</w>
V I</w>
extranj ero</w>
con voc
f es</w>
bil ater
responsab ilidades</w>
enmi endas</w>
o í
técn icos</w>
Au tor
llam ada</w>
ológ ico</w>
Par ece</w>
últi pl
Protec ción</w>
Con go</w>
iz qui
G estión</w>
inten si
regu l
Tur quía</w>
li ación</w>
habili tación</w>
acel er
Por tu
3 00</w>
co s
9 1</w>
cre es</w>
pobl aciones</w>
superfici e</w>
pres a</w>
el l</w>
su elo</w>
P on
Ti erra</w>
inclu sión</w>
prior it
reconoc e</w>
su gi
re vel
Egi pto</w>
compar ación</w>
8 5</w>
uti liza</w>
señ ora</w>
ug os
Rec ord
Ex per
UN CTA
Ejecu tivo</w>
Polí tica</w>
A h</w>
bien estar</w>
UNCTA D</w>
h ice</w>
P adre</w>
form ar</w>
pre c
vo sotros</w>
cab e</w>
gr i
di ción</w>
apl ica</w>
car ne</w>
lan z
pres entes</w>
api é</w>
Ir án</w>
neces ito</w>
mundi ales</w>
organ ismo</w>
especializ ados</w>
cu adr
M is
hinc apié</w>
min orías</w>
ON G</w>
dem u
pelí cula</w>
r á</w>
c ál
enfr ent
ag n
empres ari
il lo</w>
De pen
proc edentes</w>
co cina</w>
am ar
pan tal
d ul
ráp idamente</w>
Cali for
uc hac
ec a</w>
se de</w>
2 7
cion ar</w>
P an
origin al</w>
utiliz ado</w>
cont ing
ig l
con vers
k m</w>
esti lo</w>
des c
201 6</w>
interpre tación</w>
au to</w>
er no</w>
t asas</w>
di versidad</w>
b at
t án
Califor nia</w>
agr icultura</w>
an s</w>
ra í
cam a</w>
mis mas</w>
v ín
teri al</w>
ata forma</w>
Qu in
sal vo</w>
hon or</w>
consider ación</w>
nav eg
ológ icas</w>
inter na</w>
m últipl
ins truc
prepar ado</w>
siv os</w>
ofer ta</w>
av ances</w>
0 .000</w>
P lan
F und
K u
en l
ar o</w>
en ar</w>
discrim in
edifici o</w>
carr era</w>
D os</w>
al egr
pot encial</w>
val e</w>
ampli ación</w>
sust an
patr oci
H on
ez ca</w>
mi o</w>
cu otas</w>
S a
mercanc ías</w>
pr e</w>
gr atis</w>
ww w
incre ment
acont ecimientos</w>
formul ar</w>
especi e</w>
M ej
seg ura</w>
equilibr io</w>
al ismo</w>
9 7</w>
institu ción</w>
in e
z aje</w>
vel oci
f am
cr isti
al la</w>
dis cipl
próxim a</w>
utiliz ando</w>
prepar ar</w>
terror istas</w>
H e
pre vi
conex ión</w>
formul ación</w>
c ár
con vir
cifr as</w>
H emos</w>
D o
coment arios</w>
cer can
si on
pa gos</w>
ar las</w>
dis tri
f em
ti s</w>
ing ton</w>
om ía</w>
c ado</w>
T or
an uales</w>
tom ó</w>
ca paz</w>
P ap
v i</w>
m ucha</w>
pas ando</w>
po cos</w>
dur as</w>
cu agésimo</w>
L AS</w>
rest aur
P as
f a</w>
com posición</w>
s ala</w>
tom ado</w>
ident idad</w>
di os</w>
tran qui
re formas</w>
di ab
In ici
luch ar</w>
9 9</w>
en ce</w>
il las</w>
ter ía</w>
Y ugos
enci ma</w>
idi omas</w>
relig ión</w>
so meti
arch ivos</w>
L E
negoci os</w>
inv ol
im á
logr o</w>
et c.</w>
os amente</w>
candid atos</w>
parti dos</w>
pertin ente</w>
Mar co</w>
So bre</w>
. org</w>
Sist ema</w>
cons enso</w>
v idas</w>
deb ates</w>
imá genes</w>
amb as</w>
anteri ormente</w>
mode los</w>
compr ar</w>
cualqui era</w>
ís tico</w>
d año</w>
al ent
t é</w>
conserv ación</w>
ENT E</w>
s enci
8 7</w>
terr án
lími tes</w>
im porte</w>
N av
atr ás</w>
lleg ó</w>
www .
col eg
agríco las</w>
represent ación</w>
quisi era</w>
Gr an
propi as</w>
continu ar</w>
pro gres
An exo</w>
E qui
s ól
excep ción</w>
avi a</w>
tal idad</w>
eci a</w>
vi ejo</w>
G l
ráp ida</w>
cli ente</w>
benefici o</w>
so ber
actualiz aciones</w>
subr ay
A gr
ub ic
de fici
T h
tr adicionales</w>
Inter national</w>
conver tir
tar je
9 4</w>
M ay
Añ ad
e tr
d ot
reser v
jurí dicos</w>
fisc al</w>
actu ar</w>
habit antes</w>
r se</w>
Fa cul
z as</w>
integr ado</w>
que tas</w>
Salv ador</w>
B .</w>
ab ord
obstá culos</w>
0 5</w>
f res
H ol
prob ablemente</w>
H as</w>
am as</w>
a ver
im puestos</w>
re mi
exac tamente</w>
oc asión</w>
celebr ado</w>
Presid enta</w>
ab es</w>
Davi d</w>
dist ancia</w>
P AR
econom ías</w>
busc ando</w>
pr ac
trat os</w>
con ten
ab ogado</w>
reci entes</w>
es cap
cu las</w>
adul tos</w>
telev isión</w>
it as</w>
W e
Ju an</w>
g el
in mobili
subs idi
const ante</w>
h all
j e</w>
es cal
Direc ción</w>
ton el
conc ed
cor por
Pac ífico</w>
crédi tos</w>
dej a</w>
Prim era</w>
em bol
F i
vulner ables</w>
compr endido</w>
enmi enda</w>
au tores</w>
Par ís</w>
Baj os</w>
pro to
t aciones</w>
dom és
N ota</w>
fronter as</w>
segur os</w>
su pl
V en</w>
ic k</w>
en i
observ ó</w>
áb amos</w>
celebr ar</w>
ec ía</w>
destin adas</w>
ci elo</w>
o k
X X
ben e
Polic ía</w>
a i</w>
com er</w>
cir culación</w>
Cu adro</w>
atori as</w>
Ambi ente</w>
ocu l
A S
democ rá
cre er</w>
em ento</w>
8 8</w>
c é
tendr án</w>
Joh n</w>
termin ar</w>
Consider ando</w>
Je fe</w>
lí neas</w>
Ch ile</w>
direc tor</w>
ó leo</w>
bas a</w>
e h</w>
El ec
determin ado</w>
clar a</w>
aci on</w>
di as</w>
at em
selec ción</w>
er v
ó s
con vi
er ia</w>
estat ales</w>
a il
m uchac
aliment aria</w>
pi el</w>
Su iza</w>
ajust e</w>
s indic
J ur
D on
compet ente</w>
SI ÓN</w>
denunci as</w>
expl o
Cu ál</w>
tr ás</w>
lími te</w>
t ware</w>
Pu es</w>
ocu par
f eliz</w>
il l</w>
ci encia</w>
l uc
noti cias</w>
pu si
tuvi eron</w>
liber tades</w>
creci ente</w>
in t</w>
co h
aplic aciones</w>
K en
pi ed
máxim a</w>
D in
ACNU R</w>
empe zar</w>
ac k
reg las</w>
im plic
as ent
mu s
especi es</w>
lar ga</w>
7 2</w>
tr op
R ob
hab i
mar avi
sab emos</w>
simi lar</w>
lev an
egu e</w>
po dido</w>
b as</w>
interpre tado</w>
ay as</w>
pro fund
g al</w>
a pertura</w>
D el
in mun
Con tr
T U
recuer da</w>
ón ica</w>
An d
is o</w>
ar gu
F un
aqu es</w>
Pu eb
Su per
bas es</w>
di plom
Palest ina</w>
P .
gener ación</w>
M e
vi endo</w>
equi p
de f
ñ a</w>
T R
S ede</w>
ej ército</w>
inici o</w>
Com is
tem per
vícti ma</w>
enten der</w>
ov ina</w>
é li
detal les</w>
o li
ju dic
ur g
agu ar
N adie</w>
vent ajas</w>
il es</w>
in yec
Pres u
ar idad</w>
ag a</w>
estableci das</w>
mani fi
so l</w>
noc hes</w>
s at
pr o</w>
innov ación</w>
humanit ario</w>
S en
libr os</w>
or ador</w>
Bos nia</w>
Pi de</w>
av o</w>
deb ajo</w>
estr e</w>
8 9</w>
po lici
graf ía</w>
E X
CI ÓN</w>
Em baj
Organ ismo</w>
prest aciones</w>
modi ficación</w>
l ados</w>
h ov
medi o
com pu
gr ab
com pens
condi cion
der á</w>
V éase</w>
mad era</w>
proc ed
o x
h oteles</w>
cic lo</w>
es enciales</w>
á frica</w>
t empr
sigui ó</w>
M E</w>
ju z
palest ino</w>
1 1.
ís ticos</w>
fac tor</w>
Vien a</w>
b en</w>
apo ya</w>
fr ac
m asa</w>
D I</w>
soci edades</w>
M s</w>
tr aduc
8 6</w>
por t</w>
re duc
4 ,
El los</w>
vi r</w>
m p
r on
aprob ada</w>
tí o</w>
áci to</w>
est án
L es</w>
T oma</w>
Sud áfrica</w>
present ada</w>
T ec
Ejecu tiva</w>
ser es</w>
fir me</w>
vi vo</w>
7 1</w>
C ru
k er</w>
in arios</w>
ri qu
trabaj an</w>
rei ter
CO M</w>
restric ciones</w>
docu mentación</w>
Pro duc
amenaz as</w>
re produc
ad mi
cas ti
llev ado</w>
ir o</w>
u l</w>
ti mo</w>
az os</w>
C ro
ti es</w>
intro ducción</w>
H ar
Lí bano</w>
pro cur
t ent
hospi tal</w>
pudi era</w>
Je hov
Oc cidental</w>
as tr
A ño</w>
P au
pro puesto</w>
constru ir</w>
resid encia</w>
disminu ción</w>
institu cionales</w>
cor reo</w>
ir me</w>
mer os</w>
bl an
v aya</w>
su ger
is la</w>
fen ó
compet encias</w>
S igu
is e</w>
inform ar</w>
R om
g in
cor rupción</w>
hacer se</w>
oler ancia</w>
quer emos</w>
pu do</w>
es co
priv adas</w>
bene pl
Feder al</w>
españ ol</w>
ocup ación</w>
benepl ácito</w>
parci al</w>
ata que</w>
R oma</w>
control es</w>
mic ro
Soci ales</w>
llev ó</w>
T ER
n es
et er</w>
veloci dad</w>
vehí culo</w>
M ag
re habilitación</w>
olu cion
f ol
alim entación</w>
at aques</w>
compr end
respec tivamente</w>
correspon de</w>
permit en</w>
Portu gal</w>
Record ando</w>
per d
dig it
pa st
Re comend
an e</w>
á menes</w>
palest inos</w>
tr ate</w>
pa tri
ca f
a go</w>
G ol
ampli ar</w>
end ario</w>
realiz adas</w>
conjun ta</w>
encontr ado</w>
conc esión</w>
Prim er</w>
mot or</w>
on ios</w>
Señ ora</w>
Per ú</w>
Estrat eg
D ar
pers onales</w>
cons truc
cons iste</w>
form u
mar íti
ac tú
ag e</w>
Lu ego</w>
s h
direc to</w>
a preci
ar as</w>
u ega</w>
ológ icos</w>
indemn ización</w>
l ocu
norm a</w>
Tr abaj
prob able</w>
dis pens
min is
Autor idad</w>
mal di
de o</w>
y eron</w>
idi oma</w>
pre vent
ci ertas</w>
an es</w>
V isto</w>
D u
raci al</w>
v ál
comen z
Escuch ar</w>
asi lo</w>
10 .
intro duci
H ey</w>
R E</w>
os cur
adecu adas</w>
A ll
t ej
N orm
ci ertos</w>
an t</w>
0 2</w>
ist ente</w>
bu enos</w>
ent i
per dido</w>
198 9</w>
ent re
cor to</w>
rendi miento</w>
co br
i entes</w>
Depen dencia</w>
M E
pi eza</w>
Económ ica</w>
D el</w>
hu bo</w>
aliz ada</w>
A mer
an g</w>
efici ente</w>
fabr icación</w>
cor r
o dio</w>
Co sta</w>
adolesc entes</w>
sec tor
rur al</w>
direc tiva</w>
re tras
vac aciones</w>
beb é</w>
v emos</w>
Is l
prove edores</w>
utiliz ados</w>
ensay os</w>
7 6</w>
dispon ibilidad</w>
A prob
Añad ido</w>
numer osos</w>
instal ación</w>
ah orr
g ama</w>
ad ero</w>
ac tores</w>
Po pular</w>
As es
sensi bi
a eropuerto</w>
li e</w>
I gu
administr ativas</w>
Est ad
pen siones</w>
ést os</w>
Des arme</w>
contr o
Podr ía</w>
t un
ne u
establ ecen</w>
ex pul
0 .
sosp ech
plan tas</w>
alum nos</w>
segu ido</w>
An g
ai t</w>
CO MI
prim aria</w>
gi ó</w>
vo to</w>
Ac tiv
ec os</w>
Is las</w>
paci ente</w>
algun o</w>
Afr icana</w>
U .</w>
me tod
tes is</w>
oc he</w>
pre fer
dic en</w>
Pa kistán</w>
ocasi ones</w>
a un</w>
p ur
inv esti
a er
s amente</w>
reci bió</w>
Ko so
deb idamente</w>
ofrec en</w>
entreg a</w>
mi ci
individ uales</w>
reci a</w>
rad io</w>
C ambi
lleg u
pon ente</w>
val u
post er
de grad
w h
superi ores</w>
7 8</w>
trans misión</w>
ent imiento</w>
T O
Add .1</w>
L A
depen de</w>
equi voc
ident ificación</w>
pérd idas</w>
or ado</w>
activ amente</w>
múltipl es</w>
agríco la</w>
desempeñ ar</w>
d ando</w>
excep to</w>
realiz ada</w>
ca í
err e</w>
0 6</w>
pre vista</w>
derech a</w>
T E</w>
acep tar</w>
Nu estra</w>
m os
Koso vo</w>
ter o</w>
com e
desarroll ados</w>
for o</w>
U cr
f ant
asign ación</w>
ha go</w>
pre via</w>
F ir
escol ar</w>
trat ando</w>
exig e</w>
G recia</w>
In st
ten dencia</w>
Est án</w>
consolid ación</w>
bier on</w>
o ído</w>
nacion alidad</w>
ern es</w>
t aba</w>
estudi ar</w>
patroci n
Es lo
al eg
h aré</w>
adap tación</w>
ent endi
G al
Cu ar
ag reg
estrec ha</w>
comport amiento</w>
conoc e</w>
import aciones</w>
ham bre</w>
Su pre
em ent</w>
pi er
tor ios</w>
Prom o
verdad ero</w>
tiem pos</w>
con d
r opa</w>
C a
de ten
K ar
g t;</w>
& gt;</w>
iz ar</w>
it ali
demostr ado</w>
desas tres</w>
and ante</w>
D .</w>
aprendi zaje</w>
Pre par
c aja</w>
cari ño</w>
j a
rec ordar</w>
bi ll
ch o</w>
S anto</w>
7 4</w>
re li
comen zó</w>
A plicación</w>
vel ar</w>
nom bres</w>
Much as</w>
obje tos</w>
h em
Neces ito</w>
re forz
Adi ós</w>
mal o</w>
qu eo</w>
mir a</w>
jurí dicas</w>
limit ado</w>
s tr
qui tec
proporcion a</w>
an aliz
Ucr ania</w>
L o
conduc ta</w>
tom as</w>
ju gar</w>
especi fic
incre í
B al
An ti
an u
des can
us al
banc os</w>
terres tre</w>
pron unci
ñ os</w>
b orr
im per
examin ó</w>
at ac
t aria</w>
ci al</w>
api a</w>
tu ales</w>
0 3</w>
in ar</w>
v otos</w>
cu ál</w>
tonel adas</w>
A ún</w>
hog ares</w>
termin ado</w>
A gencia</w>
ent iendo</w>
En erg
llam ar</w>
8 4</w>
ar y</w>
sof tware</w>
logr ado</w>
canti dades</w>
a e</w>
s inc
0 4</w>
resid uos</w>
cer ebr
deb o</w>
cán cer</w>
extra ordinario</w>
petr óleo</w>
izqui erda</w>
ba i
F A
di vid
Jer usal
r ío</w>
Po demos</w>
nuev e</w>
Gu in
vien en</w>
CE SE</w>
mod alidades</w>
im pedir</w>
is h
plan ta</w>
ev es</w>
pro lon
comunit arias</w>
Es pero</w>
Ministr os</w>
propor ción</w>
pe or</w>
l mente</w>
suc es
Nor uega</w>
gol pe
o to</w>
inf ancia</w>
leg íti
i es</w>
ed as</w>
represent an</w>
in sta</w>
individ ual</w>
situ ado</w>
M c
ic ar
4 00</w>
don esia</w>
herman a</w>
leg ales</w>
ot or
pl eg
expl ot
numer osas</w>
M I</w>
particu lares</w>
S ar
repercu siones</w>
.... ....
M ac
m om
estat al</w>
modific ar</w>
des per
Seg u
To d
Dis crim
cas as</w>
8 1</w>
b oca</w>
c el</w>
i ciones</w>
justi fic
jurisdic ción</w>
mor ir</w>
re ales</w>
No sotros</w>
comerci alización</w>
movi lización</w>
comien zo</w>
sab en</w>
ver ific
A ustria</w>
re p
com partir</w>
ti ma</w>
s ens
pág inas</w>
poster ior</w>
re port
e cológ
aé reo</w>
ur sos</w>
evalu aciones</w>
cient íficos</w>
an al
acog e</w>
H o
Her z
expres a</w>
L lam
observ ación</w>
on e</w>
cl ases</w>
dur o</w>
igl esia</w>
Su ecia</w>
dr es</w>
bl emente</w>
or al</w>
tien da</w>
di gn
comb inación</w>
produci do</w>
z ca</w>
Estrateg ia</w>
0 8</w>
adecu ados</w>
ma la</w>
a de</w>
permis o</w>
8 2</w>
formul adas</w>
segu irá</w>
al tos</w>
des empleo</w>
present an</w>
Reg ional</w>
W or
apartam ento</w>
on ar</w>
Tec n
l ech
Quiz á</w>
gu i
am i</w>
n egro</w>
Bo li
trans form
utiliz an</w>
caf é</w>
crí menes</w>
empe z
estratég ico</w>
ap li
per der</w>
integr idad</w>
f all
exc es
B él
ver n
un es</w>
Algun as</w>
In donesia</w>
8 3</w>
ul ar</w>
estableci ó</w>
llam amiento</w>
r an
Pu erto</w>
eg ovina</w>
P ública</w>
empl az
ofici osas</w>
Med idas</w>
fe lici
é ticos</w>
de trás</w>
in gun
y l
a isl
Yugos l
pro medio</w>
no tificación</w>
ag ente</w>
R ed</w>
- -
H un
Bél gica</w>
vuel to</w>
L O</w>
ver se</w>
ad mis
o k</w>
Guin ea</w>
ad ém
pen dientes</w>
dirig entes</w>
F isc
án ica</w>
C P</w>
T e
es qu
en f
ocup ado</w>
Much os</w>
T ex
re mun
funcion a</w>
dic amente</w>
aqu el</w>
Yugosl avia</w>
con sign
as ti
refl ex
instruc ciones</w>
ar an
necesit amos</w>
ocup a</w>
realiz a</w>
hu bier
V ir
Si ria</w>
er ación</w>
As istencia</w>
im a</w>
partam entos</w>
ha m</w>
vi ve</w>
vari edad</w>
consider arse</w>
des pli
Herz egovina</w>
estig os</w>
tom ando</w>
consider able</w>
ACI ONES</w>
pens ando</w>
EE.U U.</w>
ra g
esti ma</w>
asesin ato</w>
al ter
en de</w>
indepen dientes</w>
ac ei
ens es</w>
si tos</w>
t amos</w>
aci dad</w>
Vic e
mar ido</w>
celebr ará</w>
sent encia</w>
compon ente</w>
export aciones</w>
Qu er
pro mul
correc to</w>
n egr
preocup a</w>
aprovech ar</w>
bu ques</w>
j er
pr a</w>
her manos</w>
R i
depen dencia</w>
sufici entemente</w>
é u
posi tivo</w>
ac ero</w>
desaf íos</w>
adquisi ción</w>
n ación</w>
negoci ación</w>
pro ducir</w>
S A
ó x
o dia</w>
posi tiva</w>
ac aba</w>
7 9</w>
car gos</w>
ocur re</w>
T O</w>
al l</w>
control ar</w>
Fr anci
Lon dres</w>
O tras</w>
i te</w>
inmedi ato</w>
mé dica</w>
indic an</w>
P E</w>
M y
ot org
deci dido</w>
apren der</w>
al ma</w>
Au di
organiz ada</w>
quin cuagésimo</w>
Nu estro</w>
man tiene</w>
m ado</w>
norm ativa</w>
n aciones</w>
excel ente</w>
Con greso</w>
r og
é poca</w>
p id
F amili
Comun icación</w>
quiz ás</w>
ON U</w>
prac tic
Ch ar
h ig
Si erra</w>
A g
gobern anza</w>
industri ales</w>
tur ismo</w>
combusti ble</w>
lic encia</w>
int elec
aten der</w>
Co ordinación</w>
siti os</w>
lengu a</w>
S am
ensay o</w>
vi ajes</w>
amar ca</w>
exist ente</w>
cri pción</w>
bos ques</w>
id ores</w>
6 ,
et c</w>
ver ano</w>
per juicio</w>
pu b
cu ali
u ela</w>
Exper tos</w>
partici par
ten imiento</w>
T V</w>
es p
B I
multilater ales</w>
añ as</w>
peri odo</w>
usu ario</w>
ingun o</w>
contam inación</w>
europe as</w>
t ed</w>
ru s</w>
conting entes</w>
re al
j am
tempor al</w>
co ti
a urante</w>
ci ta</w>
permi ta</w>
der es</w>
elabor ado</w>
solici tar</w>
expres ó</w>
ay er</w>
Nu evo</w>
herrami entas</w>
M as
D oc
rel ev
tar án</w>
loc o</w>
l los</w>
cli ma</w>
gen ial</w>
influ encia</w>
man datos</w>
g amos</w>
vent ud</w>
Oper aciones</w>
U d
comunit arios</w>
arr o
ter apia</w>
gan da</w>
R w
compro b
C el
V A</w>
Activ idades</w>
pon erse</w>
cal ific
0 7</w>
mencion ado</w>
asi a</w>
pr ud
L an
D H</w>
cé lu
Pol onia</w>
v or
de lic
J i
f ab
ac adém
ha gan</w>
in qui
pro mu
im posible</w>
b anda</w>
present adas</w>
w n</w>
ex hor
inv ent
O C
en u
regu lar</w>
L in
deci dir</w>
Georg ia</w>
maravi ll
ás tico</w>
cost um
Ár abe</w>
se o</w>
m l</w>
modific aciones</w>
ur as</w>
x i
m esas</w>
salv aguar
incre mento</w>
vu elo</w>
Air es</w>
compren sión</w>
m í
reconoc er</w>
G L
n er</w>
Al guien</w>
tend encias</w>
actu ación</w>
carre tera</w>
fisc ales</w>
siv amente</w>
cad ena</w>
pon ga</w>
e f
par ecer</w>
g ada</w>
Jehov á</w>
Ori ental</w>
D omin
Fl or
id or</w>
E limin
ri d</w>
ti da</w>
al coh
conci liación</w>
clasi ficación</w>
aci o</w>
198 8</w>
i d</w>
niñ a</w>
naci miento</w>
enorm e</w>
ju ez</w>
á ticamente</w>
sol dados</w>
co ber
esper ando</w>
Di ario</w>
concre tos</w>
0 9</w>
Cu esti
fund ament
perió dicos</w>
public ado</w>
res istencia</w>
soci o
Ter ri
Es os</w>
hist ori
cor d
almac enamiento</w>
it í</w>
conjun tamente</w>
aut ón
recomend ó</w>
ejer cer</w>
M aría</w>
con figur
t el</w>
5 ,
F id
gu ía</w>
g ación</w>
repar ación</w>
S U
vis te</w>
bus ca</w>
Res ul
disfru tar</w>
raí z</w>
Discrim inación</w>
s acer
L eg
z an</w>
in su
O f
t estigos</w>
Investig ación</w>
c rec
amer icana</w>
pi es</w>
experim ent
anunci os</w>
kil ó
li ter
encu entro</w>
su eño</w>
r s</w>
resid entes</w>
re tos</w>
sex uales</w>
O l
pen as</w>
trans fronter
mom entos</w>
ir é</w>
Bu enas</w>
deliber aciones</w>
electrón ica</w>
espec ífica</w>
pi ezas</w>
A br
h ol
propi et
Pers onal</w>
E cu
ENT O</w>
fr om</w>
án sito</w>
oper acionales</w>
igu almente</w>
actu alización</w>
ev entos</w>
solid aridad</w>
D ía</w>
prést amos</w>
provin cia</w>
nu tri
acc eder</w>
examin ado</w>
delincu encia</w>
M ar</w>
Ac cid
ur gente</w>
inici ar</w>
6 00</w>
N ig
administr ativos</w>
consider ado</w>
C li
mag istr
secund aria</w>
reli eve</w>
ch icas</w>
minu to</w>
el e</w>
cli c</w>
In gl
Din amarca</w>
st e
Est atuto</w>
compu t
reg lament
específic o</w>
perspec tivas</w>
par lament
im e</w>
invol ucr
eñ os</w>
Defen sa</w>
hici ste</w>
im pu
fem en
in ser
proc eda</w>
D ej
or gu
In f
Rw anda</w>
val i
hac emos</w>
k s</w>
preocup aciones</w>
ileg al</w>
plan eta</w>
a fir
encarg ados</w>
Con t
pl aya</w>
ejemp los</w>
C ab
expres ar</w>
concre to</w>
P O
Rec ursos</w>
tiv e</w>
in dispens
de tenidos</w>
ins pir
Es as</w>
adelan tados</w>
at ed</w>
Deb emos</w>
Seg uro</w>
Bar cel
identific ar</w>
EU RO
lu m
l isto</w>
verdad era</w>
pr orr
mor talidad</w>
k o</w>
dej ado</w>
orden ación</w>
tri z</w>
destin ado</w>
concentr ación</w>
pod ían</w>
mem oria</w>
t ate</w>
B a
g ü
llev an</w>
logr os</w>
L uc
i de</w>
Jos é</w>
Jur í
com isiones</w>
super ar</w>
H oteles</w>
ex pan
movi mientos</w>
res umen</w>
W ash
mencion ados</w>
certific ado</w>
cons entimiento</w>
espiri tual</w>
V e
ap el
di agn
ar quitec
tu los</w>
den es</w>
Económ icos</w>
Com unidades</w>
pot enci
mur ió</w>
t arios</w>
mu er
fron tera</w>
ex i
T err
li qu
Cuesti ones</w>
res pir
Ku w
al tura</w>
n .
m y</w>
dij iste</w>
individ u
e co
quím icos</w>
G i
To da</w>
B ret
bás ica</w>
id ional</w>
f id
Segun da</w>
des echos</w>
car tas</w>
trabaj a</w>
d ate</w>
Accid entes</w>
aument ado</w>
Lu x
pu ta</w>
dr ía</w>
compr a</w>
audi toría</w>
Wash ington</w>
l es
fin almente</w>
mo tiv
F OR
anim al</w>
Quiz ás</w>
B ro
Z el
elev ado</w>
Res olución</w>
lec tura</w>
aus encia</w>
ic es</w>
escuch ar</w>
d ada</w>
der r
mu ertos</w>
amer icano</w>
cre ó</w>
veci nos</w>
organiz ado</w>
suc ede</w>
Gu atem
tex tos</w>
present ados</w>
as pir
av ent
pro me
Facul tativo</w>
quin to</w>
Es píritu</w>
pres erv
gr acia</w>
B ib
Inclu so</w>
afec tan</w>
mat ar</w>
Som alia</w>
cri terio</w>
cab al
Mo vi
ter as</w>
di fun
tras lad
evid ente</w>
tr adicional</w>
Kuw ait</w>
es cl
recib en</w>
ven ida</w>
Chi pre</w>
Fuer za</w>
cuy os</w>
dimen sión</w>
futur as</w>
lleg a</w>
observ adores</w>
tendr ía</w>
M amá</w>
res uel
Mad rid</w>
distri to</w>
R .
ogr af
quiz á</w>
EU R</w>
s idad</w>
tot alidad</w>
im puesto</w>
deb ían</w>
Presu puesto</w>
re mo
camp os</w>
br it
prohi b
D et
cu ri
Par ti
est atuto</w>
in ti
ér amos</w>
B on
er me</w>
V II</w>
In form
adqui r
conduc to</w>
R os
mejor as</w>
O s
O tra</w>
comen zar</w>
C api
Ac tualmente</w>
materi as</w>
per fi
si mul
vi rus</w>
cons agr
bre ve</w>
E d
ser vir</w>
br o</w>
consider ablemente</w>
per ci
l ider
Pre vención</w>
come tido</w>
Cro acia</w>
T ot
aut én
consul tar</w>
re embol
mal os</w>
Barcel ona</w>
proc ede</w>
vuel ve</w>
bi endo</w>
edi ó</w>
en unci
dej ó</w>
Pu bl
antigu o</w>
lav a</w>
G re
pes qu
secre to</w>
perten eci
cober tura</w>
M ir
cal endario</w>
hac ía</w>
ing ü
espec t
munici pi
Isl ámica</w>
s ép
detal lada</w>
afec tadas</w>
Guatem ala</w>
v ías</w>
tr ánsito</w>
Es paci
an zar</w>
reclam aciones</w>
y n
sat éli
M P
re estructur
oc cidental</w>
ra tificación</w>
S em
un ta</w>
fo to</w>
Tod avía</w>
Ven ez
og os</w>
integr ada</w>
agr icul
adop tó</w>
bilater ales</w>
particip an</w>
ol es</w>
inter venciones</w>
Fin landia</w>
com plic
tuvi era</w>
au g
avi ón</w>
ju d
acu mul
ez can</w>
k ing</w>
se y</w>
or ando</w>
estadounid ense</w>
Cre es</w>
A p
posteri ormente</w>
M .</w>
embar az
or nos</w>
organiz ar</w>
pre limin
for est
despli egue</w>
Pap á</w>
limit aciones</w>
ab lo</w>
priv ados</w>
cuesti on
E valu
ér co
K i
mo dos</w>
si ente</w>
O tro</w>
israel íes</w>
Ser á</w>
Ah í</w>
El lo</w>
par á
r as</w>
int ento</w>
ver ificación</w>
testi mon
r as
interes ante</w>
est er
L l
D istr
perman entes</w>
ór denes</w>
de v
M ari
L is
i mientos</w>
pu ertos</w>
S im
Sub comisión</w>
ag ot
k g</w>
h aría</w>
iz ado</w>
P ot
incorpor ación</w>
dign idad</w>
accid ente</w>
próxim os</w>
pens é</w>
az ú
Su pongo</w>
di visión</w>
Jerusal én</w>
P C</w>
ta t</w>
gu a</w>
7 ,
Ha ití</w>
Neces it
permit an</w>
ver so</w>
abar ca</w>
sil enci
temper atura</w>
baj os</w>
d ará</w>
ín dole</w>
pl e</w>
in es</w>
o posición</w>
S ex
sor pr
sim pli
ci ento</w>
ad mir
efec tivos</w>
am or
t ea</w>
ilíci to</w>
gr adu
sac ri
in oc
deriv ados</w>
o este</w>
P ed
em ia</w>
z os</w>
C asa</w>
funcion ario</w>
empresari al</w>
s an</w>
abri r</w>
pl ataforma</w>
M arru
fr au
modi fica</w>
mon et
a gru
señ al</w>
conver tido</w>
m enta</w>
err o</w>
D C</w>
e ur</w>
electr icidad</w>
eci dos</w>
gén eros</w>
li n</w>
fin alidad</w>
profun da</w>
N atur
Marru ecos</w>
poder es</w>
ev ento</w>
ti dos</w>
h i</w>
desempe ño</w>
juici os</w>
ne z</w>
bi bli
br ica</w>
d arle</w>
Al go</w>
fra g
des pleg
re greso</w>
pó sitos</w>
ja pon
Muj eres</w>
ma te</w>
Po bl
I I
Equi po</w>
ard ín</w>
exclu sivamente</w>
R ic
gr aci
trans formación</w>
trans fer
ver de</w>
P Y
form ato</w>
fáci lmente</w>
i tos</w>
v ar
ing eni
pantal la</w>
th e
ci erta</w>
respe tar</w>
Embaj ador</w>
titu des</w>
entendi miento</w>
integr al</w>
ól ica</w>
f ar
V aya</w>
administr ativa</w>
estrec h
corri ente</w>
Ju egos</w>
ra ti
po pular</w>
medic amento</w>
incid encia</w>
continu a</w>
public aciones</w>
Venez uela</w>
so br
uti lic
crim en</w>
men o</w>
qu ete</w>
defin ir</w>
continú a</w>
Fund ación</w>
t ativa</w>
car bon
CN. 4</w>
edi ción</w>
alcan zado</w>
kiló metros</w>
eg et
le er</w>
aloj amiento</w>
O N</w>
es pero</w>
sex agésimo</w>
cost e</w>
posi tivos</w>
P reg
hab ido</w>
dor mir</w>
vi lle</w>
inter gubernamentales</w>
cá mara</w>
di pu
Aprob ación</w>
e to</w>
acre di
R eci
est aría</w>
Ser bia</w>
Organ iz
agrad able</w>
vín culos</w>
permi tido</w>
legisl ativas</w>
desplaz ados</w>
1 50</w>
b anco</w>
201 7</w>
bás ico</w>
oc t
st odia</w>
eur o</w>
produc e</w>
So sten
apropi ado</w>
T ar
Pr ob
O rig
manifi esto</w>
di vul
tar dar</w>
ár abe</w>
encamin adas</w>
di vis
al de
ien de</w>
afec ta</w>
H abl
í menes</w>
J ord
em oci
di ga</w>
limit ada</w>
K y
E h</w>
doc tor</w>
I .</w>
re don
plen aria</w>
Pueb lo</w>
Hon duras</w>
perfec to</w>
lech e</w>
N a
án icos</w>
an se</w>
consider an</w>
pas os</w>
OP S</w>
d on</w>
indic ar</w>
Hi jo</w>
pañ as</w>
eleg ido</w>
UN MI
mor al</w>
com is
ac h</w>
D L
cor te</w>
T el
vent aja</w>
e qu
ed en</w>
o mi
mar gen</w>
S il
G EN
re r</w>
competi tividad</w>
br ill
re copi
raci smo</w>
H om
tu m
inform aciones</w>
cons ejo</w>
realiz ó</w>
Pro fes
ori ta</w>
cion amiento</w>
pen ales</w>
im o</w>
sín tomas</w>
B ul
po cas</w>
ha gas</w>
pedi r
cre a</w>
ro de
vent as</w>
movi lidad</w>
inc ent
Som os</w>
aliz ados</w>
ent u
c ha
fenó meno</w>
Al g
me tas</w>
ant emente</w>
exten sión</w>
edifici os</w>
sent ir</w>
s ado</w>
suje tos</w>
PNU MA</w>
ju eces</w>
á les</w>
cár cel</w>
o u</w>
li bres</w>
ad ura</w>
nú meros</w>
utiliz arse</w>
Ch r
Nav idad</w>
enl ace</w>
su pra</w>
pien sa</w>
elec toral</w>
Ci udad</w>
invi ta</w>
antigu a</w>
Par tido</w>
S .
contam in
az go</w>
lí deres</w>
M é
declar ó</w>
H am
prim eras</w>
ofer tas</w>
c í
Pens é</w>
permitir á</w>
en juici
ab uso</w>
gu sto</w>
gratu ita</w>
er á</w>
ht t
estableci da</w>
i ores</w>
de por
últi mas</w>
In tro
pe lo</w>
atur as</w>
Franci s
di ario</w>
fu i</w>
M ol
tr adu
jun ta</w>
desas tre</w>
munici p
sensibi lización</w>
comit és</w>
U ti
célu las</w>
pr esta</w>
dirig idas</w>
as t</w>
gast o</w>
azú car</w>
di ri
infra estructuras</w>
par al
refl eja</w>
D ev
sust anci
aplic an</w>
al ej
Ten iendo</w>
Com ún</w>
to c
tu ación</w>
tr en</w>
x ili
financi ar</w>
satisfac er</w>
feder al</w>
Lux em
leg i
garanti za</w>
érco les</w>
di entemente</w>
as ci
E .</w>
ab sor
Ad junto</w>
rev olución</w>
198 6</w>
ur gencia</w>
198 7</w>
Cu alqui
ide al</w>
l á
coher encia</w>
razon able</w>
enu mer
P atr
s t</w>
est arán</w>
herrami enta</w>
c era</w>
pro hí
program ación</w>
er tamente</w>
cam pañas</w>
gener almente</w>
re quieren</w>
N eg
s ho
8 00</w>
PRE S
Liber ia</w>
qued an</w>
registr os</w>
.. ..</w>
men su
dor mi
ecer á</w>
tarje ta</w>
B ah
e ando</w>
eti qu
le za</w>
p ciones</w>
ve la</w>
og le</w>
con gel
consci ente</w>
S ír
ing s</w>
a o</w>
inspec ción</w>
re an
p ad
c ú
a x
Le ona</w>
ens ores</w>
intro ducir</w>
G ener
com parti
cal iente</w>
conclu ir</w>
realiz an</w>
ac titud</w>
co lum
Ma ur
compren der</w>
firm ado</w>
descri pción</w>
están dar</w>
F ili
vivien das</w>
esc en
o v</w>
ad or
ver siones</w>
t ativas</w>
compro meti
z can</w>
es en</w>
ob ten
van se</w>
lar on</w>
desarrol lado</w>
D ado</w>
Boli via</w>
Per d
sig an</w>
cient ífica</w>
EURO PE
Man tenimiento</w>
norm almente</w>
Mic ha
T am
ul ti
Europe as</w>
G aza</w>
impres ion
b os</w>
envi ar</w>
sem inario</w>
rel ativamente</w>
Proc edi
adop tada</w>
an alizar</w>
deb es</w>
We b</w>
E L
ent iende</w>
v eget
ali enta</w>
reg la</w>
fi que</w>
est abi
man ej
pon iendo</w>
Comis ario</w>
l óg
a fron
it enci
soci os</w>
Cuán to</w>
conven iente</w>
H an</w>
equival ente</w>
Ar g
oblig atorio</w>
es h</w>
ru ta</w>
conoz co</w>
htt p</w>
aj eros</w>
disposi tivos</w>
Déj ame</w>
estrel las</w>
at ar</w>
In terior</w>
pri mir</w>
pu ertas</w>
ti ons</w>
P ien
D U
peri od
lo to</w>
ón ico</w>
corri entes</w>
tu ve</w>
t ables</w>
P ár
Go ogle</w>
z ada</w>
apar tados</w>
ést as</w>
estructur ales</w>
aprob adas</w>
est abas</w>
compañ ías</w>
pot encia</w>
modific ado</w>
M os
Con tin
f o</w>
trans port
mencion adas</w>
W al
co sta</w>
Energ ía</w>
segu ida</w>
re z</w>
inform ado</w>
red ac
adu an
acei te</w>
de partamento</w>
requisi to</w>
Tim or</w>
afr icanos</w>
Elimin ación</w>
h ábi
p ista</w>
Ru man
bás icas</w>
plaz os</w>
sem inarios</w>
den uncia</w>
Famili a</w>
re construcción</w>
d é</w>
8 ,
mez c
A eropuerto</w>
s en</w>
indic ó</w>
se as</w>
S peci
end en</w>
extre m
sober anía</w>
máqu ina</w>
exclu sión</w>
H an
demostr ar</w>
di bu
Miembr o</w>
adop ten</w>
F PA</w>
Prin cip
deb ati
ós tico</w>
s el
cu entan</w>
por tu
entr ó</w>
a condicion
ent rev
per ro</w>
vers al</w>
aplic arse</w>
re cuerdo</w>
f á
reduci do</w>
er bai
cont actos</w>
H en
j ar
lig encia</w>
e o
Em pl
indic ado</w>
Pro puesta</w>
pre vio</w>
ch o
ograf ía</w>
sir ve</w>
n inguno</w>
mon eda</w>
propi edades</w>
ist entes</w>
ec o</w>
viv encia</w>
ag on
difíci les</w>
dij eron</w>
estim aciones</w>
espaci al</w>
Mal di
ci ru
dur ad
iv as</w>
1 4.
se t
l esiones</w>
Francis co</w>
R a
dé bi
EE E</w>
mens ajes</w>
G er
tar a</w>
lí der</w>
aprob ar</w>
R aci
B as
P R
B ol
máqu inas</w>
copi a</w>
Qui ere</w>
is h</w>
futur os</w>
convertir se</w>
deber íamos</w>
oo d</w>
Mon t
qu em
llam adas</w>
a is</w>
z z
benefici arios</w>
sigui endo</w>
Cru z</w>
un .org</w>
no t</w>
interes ado</w>
Nig eria</w>
us ando</w>
ar t
ac cion
ín dice</w>
S I</w>
disposi tivo</w>
profes or</w>
st er
Polí ticos</w>
dirig ido</w>
ap enas</w>
observ ar</w>
territor ial</w>
eli a</w>
S A</w>
plan tea</w>
H el
err ores</w>
cur r
e k</w>
Int egr
as en</w>
dis curso</w>
S r</w>
l eres</w>
tí n</w>
administr ativo</w>
ag enda</w>
Quin ta</w>
est ú
religi osas</w>
fi br
und i</w>
específic amente</w>
establ e</w>
prest ando</w>
reci be</w>
peri o
conoci da</w>
en der</w>
cifr a</w>
visit ar</w>
on o</w>
israel í</w>
vi ernes</w>
rit mo</w>
muestr an</w>
consider ó</w>
rec or
- No</w>
CI A</w>
ul ación</w>
mon os</w>
eñ a</w>
Ci vil</w>
vers ario</w>
efec tivamente</w>
áfic as</w>
p eg
dispon er</w>
de partamentos</w>
f arm
uni versidad</w>
Deb ido</w>
m apa</w>
F echa</w>
ri endo</w>
B lan
av anzar</w>
ver te</w>
mag n
at al</w>
pied ra</w>
áfic os</w>
Micha el</w>
centr ales</w>
conex as</w>
á usu
co cin
d u</w>
inst ancia</w>
armon ización</w>
t amiento</w>
cumpl ido</w>
expl ica</w>
Luxem burgo</w>
compl ejo</w>
par ecen</w>
plac er</w>
extra ordin
fic ados</w>
afirm ó</w>
C L
Deber ía</w>
V e</w>
av a</w>
Cap ítulo</w>
bar co</w>
om o</w>
Cul tur
proc eder</w>
P ablo</w>
arr y</w>
id ación</w>
aplic ado</w>
respec tivos</w>
exter na</w>
l istas</w>
Evalu ación</w>
l ac
im presión</w>
intelec tual</w>
acep tación</w>
A N</w>
preocup es</w>
inter n
in greso</w>
ci erre</w>
i p
st er</w>
res tr
ic aciones</w>
cre di
cum plan</w>
Ecu ador</w>
au d
mínim a</w>
relacion ada</w>
cal or</w>
ay uno</w>
ur i
so port
R ig
Tot al</w>
rest aurante</w>
it s</w>
acog ida</w>
cambi ado</w>
pi loto</w>
demu estra</w>
Sosten ible</w>
convers aciones</w>
reglam entos</w>
jam ás</w>
VI II</w>
Jam a
vu estro</w>
Ni ños</w>
Co ordin
Ins pec
OI T</w>
Tr es</w>
dis ta</w>
col ores</w>
r os</w>
in migrantes</w>
mar on</w>
ecu s</w>
Bur undi</w>
p s
de tenido</w>
l d</w>
reconoci do</w>
for d</w>
bel leza</w>
apropi adas</w>
an oche</w>
can ción</w>
T on
198 0</w>
R ío</w>
ocup an</w>
cubr ir</w>
Al qui
conf id
celebr adas</w>
caí da</w>
E M
as ust
inform a</w>
ju sta</w>
at ent
explic ar</w>
re ún
R ap
investi gar</w>
pol vo</w>
B ri
C abe</w>
op ía</w>
G U
e amiento</w>
increí ble</w>
gu ay</w>
cap aces</w>
erbai y
cu anti
separ ación</w>
R am
in sul
Produc tos</w>
Cons titu
az ul</w>
d s</w>
Soci edad</w>
t ador</w>
impl ica</w>
inter nacion
p inas</w>
estrel la</w>
Ejecu ción</w>
t s
I X</w>
re vi
R ica</w>
du jo</w>
Gl ob
recep ción</w>
indispens able</w>
ra p
escri bir</w>
Deci de</w>
dedic ado</w>
je fes</w>
ne y</w>
V as</w>
deb er</w>
C amp
I C
adop te</w>
et apas</w>
qui a</w>
Escu cha</w>
iz on
im b
K r
fu tura</w>
AL ES</w>
Cuán do</w>
suspen sión</w>
H ac
Fisc al</w>
dem onios</w>
vent ana</w>
ten sión</w>
as istir</w>
pis o</w>
Obje tivos</w>
ner vi
ab usos</w>
or adores</w>
Hu man
COMI SIÓN</w>
sal ud
ín cip
con tenidos</w>
cu al
a fuera</w>
ví deo</w>
Un it
alem án</w>
Pár raf
Ne w
flex ibilidad</w>
for tun
F re
n. o</w>
Di jo</w>
alreded ores</w>
tic e</w>
labor ales</w>
all y</w>
deb ida</w>
separ ado</w>
E di
par que</w>
labor atorio</w>
é ticas</w>
agricul tores</w>
ONU DI</w>
cre en</w>
estr as</w>
an gu
envi ó</w>
Recu er
volvi ó</w>
A par
bi s</w>
compati ble</w>
dis te</w>
asi s</w>
ri s</w>
OM C</w>
Supre mo</w>
oper adores</w>
moder n
U ganda</w>
ativ e</w>
ú r
docu ment
ul d</w>
pre val
colec ción</w>
ag os</w>
cond ena</w>
reg ímenes</w>
em isión</w>
conven ios</w>
consider ando</w>
f echas</w>
el d</w>
AR I
tom e</w>
Georg e</w>
red acción</w>
mo da</w>
co los</w>
anti cip
n es</w>
mont ón</w>
pusi eron</w>
G E
pudi eran</w>
198 5</w>
carbon o</w>
Mi erda</w>
correc ta</w>
indepen dientemente</w>
T écn
PI B</w>
ll eno</w>
J ack</w>
ec ería</w>
pa trimonio</w>
Reg istr
favor able</w>
necesit as</w>
impl em
9 ,
te la</w>
individ uos</w>
extr año</w>
cons ej
l l</w>
re patri
cl ás
reestructur ación</w>
es pal
sosten ibilidad</w>
Cul tura</w>
segun dos</w>
Relat ora</w>
Movi miento</w>
uni versi
plan os</w>
Es pañ
limpi eza</w>
tien de</w>
T ail
av ance</w>
ES CO</w>
des cu
cometi dos</w>
muestr as</w>
ci entos</w>
Su peri
profun do</w>
cuán to</w>
Bret aña</w>
ex ámenes</w>
coher ente</w>
oc e</w>
p an</w>
ent en</w>
sac ar</w>
regres ar</w>
Go vern
hi po
N E
s int
a terr
quer ido</w>
constitu cional</w>
D en
UN FPA</w>
vi eron</w>
p ic
m ía</w>
ejecu tar</w>
presupuest arios</w>
Recon oci
fuer tes</w>
M is</w>
L ista</w>
bas adas</w>
dé fici
2 4
geogr áfica</w>
R A</w>
c en
Eti opía</w>
in migración</w>
arr a</w>
ex h
form an</w>
e ado</w>
cr ist
present ará</w>
defini tiva</w>
asu mir</w>
solici ta</w>
tec edentes</w>
GEN ER
Tecn ología</w>
no ven
bas ados</w>
inc endi
signific ativa</w>
lar idad</w>
absolu to</w>
C D</w>
inici ado</w>
ori os</w>
con fes
es s</w>
j ardín</w>
restr ing
ic en</w>
otec a</w>
con ducir</w>
pa quete</w>
tempor ada</w>
par o</w>
on as</w>
U ru
de posi
P ág
atr a
y entes</w>
registr ado</w>
pi enso</w>
U r
energ ética</w>
arm ado</w>
pri vi
Promo ción</w>
Pobl ación</w>
pec ado</w>
terc ero</w>
sufici encia</w>
acep table</w>
altern ativas</w>
su d
s ev
cal cul
fís ico</w>
eng añ
destac ar</w>
pis cina</w>
is on</w>
rendi ción</w>
Po st
cuer pos</w>
ab ast
g ases</w>
r at
dec enio</w>
Hun gr
Un idad</w>
com pi
ou t</w>
cál culo</w>
sec ciones</w>
ma estro</w>
liber ación</w>
o jo</w>
p á
destac a</w>
DL L</w>
Ven ga</w>
A lo
apar ece</w>
re acción</w>
posteri ores</w>
mu e
de teri
volunt arias</w>
par eja</w>
o sis</w>
d ing</w>
L leg
Eti quetas</w>
UN ESCO</w>
w ere</w>
S ou
M ur
Tail andia</w>
estrech amente</w>
ministr o</w>
period istas</w>
lar se</w>
formul ada</w>
Agr icultura</w>
accid entes</w>
g a
gan ado</w>
mu la</w>
vu estra</w>
celebr a</w>
agr ado</w>
l lu
w or
tra terrestre</w>
acus ado</w>
revis ar</w>
suje to</w>
hab erse</w>
dr án</w>
s exto</w>
cl áusu
d í
regu lación</w>
lleg ada</w>
envi ado</w>
f as</w>
Al ta</w>
ex os</w>
Bul g
A P</w>
err ad
di gas</w>
Deb o</w>
certific ados</w>
ru p
Ten ía</w>
d y</w>
D est
s al</w>
Ter cera</w>
nutri ción</w>
A P
un g</w>
ig nor
multilater al</w>
lev ant
D ame</w>
mon it
cuán do</w>
S y
reci bir
traduc ción</w>
re conciliación</w>
encontr amos</w>
limit ación</w>
og ía</w>
Financi ación</w>
mó vil</w>
ér g
Cá mara</w>
Tex as</w>
Contr ol</w>
De fin
Cambi o</w>
marc os</w>
L ou
qued ado</w>
rean ud
ministr os</w>
lí qu
histór ico</w>
cab all
ou r</w>
compren de</w>
dec ía</w>
Fili pinas</w>
iz os</w>
S ing
dom e</w>
em por
Unit ed</w>
C ô
dimen siones</w>
P ri
ti n</w>
S ha
val idez</w>
reci bieron</w>
arm adas</w>
pub licidad</w>
Bulg aria</w>
preci samente</w>
aer on
presid entes</w>
ez co</w>
pre mi
diver tido</w>
Hungr ía</w>
env ío</w>
au ton
ú tiles</w>
O U
e ar
preten de</w>
S R.
son ido</w>
V a</w>
coordin ar</w>
ocur r
k i
m .</w>
ampli amente</w>
to x
cient ífico</w>
Re almente</w>
an ismo</w>
s .</w>
dul ce</w>
on ancia</w>
fuer an</w>
or it
nuev amente</w>
cerebr o</w>
P MA</w>
exter nos</w>
A .
can cel
1 20</w>
refi eren</w>
SI D
lon gi
amer icanos</w>
pod amos</w>
herm osa</w>
pr estado</w>
Docu mentos</w>
detal le</w>
digit al</w>
Prin cipi
bat alla</w>
disfru te</w>
cumpl en</w>
r aro</w>
l unes</w>
A T
PY ME</w>
Gu erra</w>
co inci
Vi ol
estratég ica</w>
im pun
I vo
p h
direc tos</w>
ad esh</w>
Per son
emi go</w>
destin ada</w>
Az erbaiy
novi a</w>
aprob ados</w>
inmedi ata</w>
aug ur
impul so</w>
sus cri
gi endo</w>
Uru guay</w>
present aron</w>
aver igu
nombr amiento</w>
tur ística</w>
terrán eo</w>
pár rs</w>
errad icación</w>
M AN
Ci encia</w>
id es</w>
orgu ll
man eras</w>
enfo ques</w>
mó du
ren unci
se d</w>
Ivo ire</w>
defici encias</w>
re m
Jer sey</w>
Cô te</w>
dir é</w>
Speci al</w>
ex teriores</w>
L ev
Intro ducción</w>
ani versario</w>
contin ente</w>
mill ón</w>
bi os</w>
R en
Arg elia</w>
v os</w>
endi ó</w>
der se</w>
c ay
R ed
Deli to</w>
d añ
pens amiento</w>
Es cri
decir le</w>
investig adores</w>
cal les</w>
relacion ado</w>
2 6
psi cológ
F is
atr ap
cubier ta</w>
tr ami
ev os</w>
humanit arias</w>
Ped ro</w>
H ist
il ater
En contr
in cumplimiento</w>
magistr ados</w>
ent er
fl ores</w>
bar atos</w>
sust ancia</w>
Re fugiados</w>
P C
i ra
Pág ina</w>
proto colo</w>
an i</w>
In vi
Hab ía</w>
at arios</w>
Con clu
2 3
ex pec
f f</w>
i ii</w>
fabric ante</w>
con tienen</w>
N icar
ár abes</w>
sub venciones</w>
Fuer zas</w>
añad ido</w>
C RC</w>
ar ías</w>
suministr os</w>
p ese</w>
en emigo</w>
7 00</w>
hab ida</w>
ve ter
reclam ación</w>
ver lo</w>
I n</w>
contribu ido</w>
bor do</w>
exh aus
presupuest arias</w>
rig hts</w>
D eja</w>
recur rir</w>
re os</w>
trans acciones</w>
salv ar</w>
AC .
is to
D ist
T ú
si vas</w>
lider azgo</w>
P úbl
sép timo</w>
a c</w>
j ec
T ay
Orig inal</w>
N I
altern ativa</w>
exig encias</w>
Inici ativa</w>
Pau l</w>
aqu ellas</w>
ni e</w>
og ar</w>
f ér
pen sión</w>
E C
N ep
encontr ó</w>
com prim
refer ente</w>
ro jo</w>
solici tado</w>
suel en</w>
S P
cumpl e</w>
Ud .</w>
al entar</w>
du mp
D ani
pu bli
mencion ar</w>
vig ente</w>
emp lo</w>
a k</w>
TA DO</w>
cerr ado</w>
cer tificación</w>
perió dicamente</w>
public ó</w>
g ir
So lici
tir á</w>
crí tica</w>
as um
evid encia</w>
ter os</w>
si ve</w>
Azerbaiy án</w>
Fin almente</w>
1. 000</w>
N ing
I D
increment ar</w>
w e</w>
c ena</w>
consecu ción</w>
l is
r y</w>
defin e</w>
actu aciones</w>
ra te</w>
cubier to</w>
Centr o
ou s</w>
Zel andia</w>
tr ast
co un
Eur op
B RE</w>
esc ena</w>
convi erte</w>
ileg ales</w>
pl as
Qu isi
alcoh ol</w>
su ici
al e
consider e</w>
Ch eca</w>
coleg as</w>
qued ar</w>
incorpor ar</w>
audi encia</w>
Q U
s anci
den eg
espaci ales</w>
n otas</w>
pen itenci
def ensores</w>
est atu
efectu ar</w>
me ta</w>
inscri pción</w>
po bre</w>
ím bo
preocup ado</w>
espaci os</w>
as isti
W o
qued ó</w>
ju ventud</w>
afec tado</w>
desaf ío</w>
an fi
cultur as</w>
m el
j eron</w>
Empl eo</w>
univers idades</w>
inter rog
orient aciones</w>
some ter
Superi or</w>
recuper ar</w>
ífic as</w>
h echa</w>
du das</w>
a prueba</w>
ab ia</w>
ab ezas</w>
pa is
C ir
de ud
P eter</w>
ec as</w>
An ton
preci sión</w>
l án
F e
pas ajeros</w>
car g
legisl ativo</w>
integr ar</w>
s eno</w>
solici tantes</w>
ob tenidos</w>
c ero</w>
prueb e</w>
inter locu
l ingü
C aja</w>
r os
se lo</w>
Pal abr
inclu ya</w>
S w
prepar ados</w>
ch il
Nicar agua</w>
pros titución</w>
encan ta</w>
ac tor</w>
cre ados</w>
mostr ar</w>
er t</w>
t bol</w>
Ban gl
pu r</w>
F o
br om
An dr
activ as</w>
H ábi
preci sa</w>
B l
dem ora</w>
profund amente</w>
tr adición</w>
ami ga</w>
ar do</w>
pec abezas</w>
entr a</w>
transpar ente</w>
a ero
. 2</w>
prác ticamente</w>
Ali anza</w>
ad judic
arreg los</w>
es cog
oc o</w>
fu r</w>
remun eración</w>
co ll
tele f
intelig ente</w>
produc tividad</w>
Uni versal</w>
encarg ada</w>
rom an
ju bil
Tú nez</w>
per don
vig entes</w>
y as</w>
hor izon
R ico</w>
V ig
Procedi miento</w>
sem ej
ad her
ur t</w>
exam ina</w>
défici t</w>
oc h
cin e</w>
int entar</w>
fr ío</w>
C ity</w>
f ór
the ir</w>
ser vir
supervis ar</w>
Ex isten</w>
H A</w>
Est abl
mu sul
Ex cel
vu elos</w>
DA D</w>
ex pe
ser i
signific ado</w>
aument ó</w>
Super visión</w>
d arse</w>
determin ada</w>
perteneci entes</w>
ac ta</w>
Alo j
bom ba</w>
perfec ta</w>
en ción</w>
reci én</w>
dis co</w>
participar on</w>
colec tiva</w>
ll en
der ía</w>
min a</w>
Fir mado</w>
mejor amiento</w>
peti ciones</w>
ri to</w>
c ír
deci d
inici ó</w>
agrad ecimiento</w>
Plan ificación</w>
ti eron</w>
V ete</w>
dur a</w>
invi tación</w>
FA O</w>
te oría</w>
Bel ar
ri os</w>
co hesión</w>
inc e</w>
mar ch
afr icana</w>
Bangl adesh</w>
er la</w>
Sr i</w>
blo que
aplic ando</w>
ber g</w>
prud encia</w>
b ac
qui eras</w>
val or
en men
adecu adamente</w>
es con
S ig
conver sión</w>
ocupar se</w>
op ti
comprome tido</w>
S ur
P h
ta .</w>
h ave</w>
Rig hts</w>
infec ción</w>
P at
entr ará</w>
de fec
empe zó</w>
ob tenido</w>
ist ía</w>
dé cada</w>
sum amente</w>
ciudad ano</w>
min er
tal leres</w>
G obiernos</w>
bo a</w>
G I
men ia</w>
ac éu
sanit aria</w>
May or</w>
manifest aciones</w>
Cualqui er</w>
S us
r ent
hubier an</w>
in fi
reglam entación</w>
Govern ment</w>
limit ar</w>
metod ología</w>
ch e
iv amente</w>
volunt arios</w>
señal ado</w>
li mi
distin gu
S .</w>
examin ando</w>
am érica</w>
oc k</w>
N iv
cuid ad
compro bar</w>
ob li
s a
form al</w>
deber ías</w>
0, 00
pará metros</w>
Cel ebr
Su pl
Espaci o</w>
conex os</w>
bol es</w>
a pa
UNI D
am antes</w>
My an
Recomend ación</w>
L lev
inter cambios</w>
M O
fra se</w>
ab st
Dar fur</w>
Hábi tat</w>
ic ales</w>
C R
concep tos</w>
pren de</w>
funcion ar</w>
urb anas</w>
re presión</w>
comien za</w>
al tas</w>
pa se</w>
et h</w>
reg alo</w>
expan sión</w>
S te
al ber
realiz ando</w>
religi osa</w>
abr e</w>
d am</w>
ofici almente</w>
j an</w>
dis cre
Po si
pe faci
tar lo</w>
sosten ibles</w>
autoriz ado</w>
oc é
inter net</w>
comunic ado</w>
tri b
ajust es</w>
man ual</w>
aplic ará</w>
Myan mar</w>
incid entes</w>
13 .
añad ir</w>
Ej ército</w>
llev ará</w>
bo da</w>
electrón icos</w>
eléctr ica</w>
est ando</w>
A qu
dic t
esti pu
OI EA</w>
fici o</w>
di ana</w>
ocup ados</w>
li bre
Parti cip
me d</w>
im poner</w>
au xili
Car los</w>
cas tigo</w>
Prim ero</w>
deci de</w>
pec es</w>
pre fi
az mente</w>
san eamiento</w>
M adre</w>
dump ing</w>
ex pedi
s áb
R est
tí p
2 50</w>
marc as</w>
le tas</w>
Fon dos</w>
pro te
grav edad</w>
g entes</w>
man u
c en</w>
M en
llam ó</w>
Ken ya</w>
sector iales</w>
un ilater
n s
au ti
di gos</w>
elev ada</w>
car b
autom ó
revis ado</w>
pefaci entes</w>
op ment</w>
flu jo</w>
pon ía</w>
vulner abilidad</w>
g io</w>
descubr ir</w>
satéli te</w>
particip ado</w>
En tr
íncip e</w>
ju st
r ía</w>
idi ota</w>
f rig
of o
M ec
s w
or idad</w>
G h
ici o</w>
profes ores</w>
re acciones</w>
err y</w>
vis ual</w>
pon drá</w>
des pi
vi tal</w>
pr isa</w>
t ina</w>
rev olucion
ases ino</w>
dé j
p ida</w>
A B
bl anc
posi tivas</w>
Vice presidente</w>
Ind ustri
est ancia</w>
O n
vesti do</w>
aliz a</w>
ma estros</w>
auton omía</w>
Mal asia</w>
on da</w>
mer idional</w>
is las</w>
sur g
uci ario</w>
em o
fant as
re tr
imag in
prob ar</w>
s ímbo
testimon io</w>
habl ado</w>
e bre</w>
c m</w>
C lu
pelí culas</w>
ap un
Ar m
sufr ido</w>
Mej or</w>
Cor r
cuy as</w>
or e</w>
g er</w>
er ías</w>
uni forme</w>
H or
frecu entes</w>
antigu os</w>
eci endo</w>
oct avo</w>
anunci o</w>
ver á</w>
destac ó</w>
do mici
al tar</w>
og as</w>
intelig encia</w>
estuvi era</w>
re fu
apartam entos</w>
Dec reto</w>
10 .00</w>
titu lar</w>
domin io</w>
perfec tamente</w>
encu esta</w>
en al</w>
neces ariamente</w>
En cu
est aciones</w>
av era</w>
Ser ía</w>
in te</w>
em po</w>
dipu tados</w>
Sr ta.</w>
llev ando</w>
as co</w>
é anse</w>
pon gan</w>
ra to</w>
des er
S ep
fr an
Cas i</w>
ju ven
oblig atoria</w>
Bu en</w>
Segun do</w>
pres cri
detec ción</w>
adqui rir</w>
in al
ur ía</w>
presu puestos</w>
Con tribu
cons ejos</w>
ch i
V ista</w>
inter acción</w>
entr en
Docu mento</w>
ocur rió</w>
ent ero</w>
hu és
im plan
Li bro</w>
mar as</w>
industri as</w>
p s</w>
convir tió</w>
k in
Medi ante</w>
diagn óstico</w>
en em
silenci o</w>
T ab
Pu eden</w>
Quisi era</w>
po pu
Uni versi
fab eti
reproduc tiva</w>
Lis boa</w>
re ino</w>
clu b</w>
n º</w>
re emplaz
camp es
sorpr end
en z
igu ales</w>
cuar ta</w>
medi ano</w>
Or den</w>
re vista</w>
le ta</w>
P reci
efic azmente</w>
frau de</w>
S am</w>
ampli as</w>
prim or
signific ativo</w>
on ado</w>
h is</w>
rel aj
GENER AL</w>
su ya</w>
agru p
O m
gl os
tr ag
aj u
H echo</w>
guar dia</w>
b es</w>
mir ar</w>
au menta</w>
la go</w>
ed onia</w>
Belar ús</w>
á tr
Necesit amos</w>
D an
asent amientos</w>
Dis culp
podr íamos</w>
en za</w>
R ad
ins trucción</w>
farm acéu
contribu ye</w>
ciudad anía</w>
sal ón</w>
L esiones</w>
be en</w>
as h</w>
bien venida</w>
r é
Al á</w>
d or</w>
aran cel
educ ativo</w>
p es</w>
K az
constitu ción</w>
Aloj amiento</w>
OM S</w>
expl íci
agr esión</w>
inqui e
avi ones</w>
sal ió</w>
si go</w>
c ami
tic al</w>
pre mio</w>
insu lares</w>
cor reg
acondicion ado</w>
Cam bo
pros per
internacion almente</w>
pul ación</w>
á culo</w>
tiv al</w>
y n</w>
Tor tura</w>
aqu i</w>
ou p</w>
T RA
re integración</w>
ser ían</w>
declar ado</w>
embar azo</w>
Nep al</w>
organiz ó</w>
medi cina</w>
aceler ar</w>
explic ación</w>
K ir
estableci mientos</w>
tr of
bill etes</w>
x en
on z
A cog
o h</w>
Dec enio</w>
m adres</w>
in augur
W ind
solici tante</w>
em is
mon o
f f
ba sta</w>
acord ado</w>
perman ecer</w>
intent ando</w>
fic aciones</w>
des a</w>
bar rio</w>
extranj era</w>
e ter
om os</w>
recog ida</w>
consegu ido</w>
in tr
tele comunicaciones</w>
C op
vi ó</w>
e w
retir ada</w>
pac ífica</w>
in cum
expres ado</w>
moder no</w>
inter nas</w>
Res er
Ci viles</w>
fic ada</w>
detal l
ven ga</w>
naveg ación</w>
sol v
dem ogr
perfi l</w>
Rap port
L or
lengu as</w>
Sír vanse</w>
r enta</w>
B ol</w>
descri be</w>
adquisi ciones</w>
tur b
apar atos</w>
r ol
Españ ol</w>
quím icas</w>
me lo</w>
tal ler</w>
formul ó</w>
U S</w>
mot ores</w>
cu ota</w>
s tru
habi tual</w>
vuel va</w>
C ur
b rec
pres un
recib idas</w>
produc en</w>
er le</w>
F ar
mezc la</w>
ic or
T OS</w>
20 20</w>
aqu ella</w>
democ rática</w>
religi osos</w>
m 2</w>
mag ni
e u
B A
lanz amiento</w>
prevent iva</w>
ju eves</w>
oper acional</w>
cont empor
Bu ena</w>
ou se</w>
firm emente</w>
in da</w>
extr adición</w>
Lan ka</w>
escen ario</w>
J O</w>
capi tán</w>
j or
cons onancia</w>
B I</w>
Mi x
di vor
proc lam
afir mando</w>
testi go</w>
V an</w>
ár bol</w>
C I</w>
mun iciones</w>
com puesto</w>
ev en</w>
aport ar</w>
hu man</w>
bos que</w>
Hab ida</w>
a fortun
consider aciones</w>
t her
Jam es</w>
J ud
y ug
wh ich</w>
fij ado</w>
Ang ola</w>
cont abilidad</w>
hor ri
Mun do</w>
bot ón</w>
i remos</w>
democrá tico</w>
impun idad</w>
em pu
espo so</w>
inmobili ario</w>
mis er
r es</w>
defen der</w>
b í
cr uc
Inf ancia</w>
ilu min
Vol un
apropi ada</w>
tam e</w>
Fran k</w>
oblig ado</w>
conc eder</w>
clar idad</w>
B ei
vis u
trop as</w>
pro puso</w>
dese e</w>
Escu ela</w>
áci do</w>
contr ati
a plaz
ll ate</w>
Ar menia</w>
PAR A</w>
extre ma</w>
Wil li
sanit arios</w>
noven o</w>
dese en</w>
um br
al erta</w>
ciru g
ay os</w>
Ac ta</w>
tempr ana</w>
concre tamente</w>
co t
par ed</w>
Res pon
oo k</w>
j i</w>
Tien en</w>
Program as</w>
adi ciones</w>
viv os</w>
uti lidad</w>
simul tán
colum na</w>
inyec ción</w>
o z</w>
dé ci
ar gent
ofo bia</w>
declar a</w>
ár boles</w>
const antemente</w>
Flor ida</w>
Li bia</w>
ow s</w>
present arse</w>
i encia</w>
dir á</w>
bus car
D OS</w>
ge lio</w>
aterr a</w>
aument ando</w>
cooper ar</w>
tien das</w>
J an
respon de</w>
198 4</w>
a porte</w>
s ar
mater na</w>
bru to</w>
N A
oí r</w>
Terri torio</w>
bi o</w>
Ay uda</w>
Jord ania</w>
ep id
compens ación</w>
concre ta</w>
estadounid enses</w>
consumid or</w>
g el</w>
neg ativa</w>
do te</w>
terri ble</w>
inv oc
fij ar</w>
gol pe</w>
ir te</w>
con vic
particip en</w>
al s</w>
terres tres</w>
herm oso</w>
Dic tamen</w>
J .</w>
cal ía</w>
iz as</w>
am ar</w>
plan ific
im posición</w>
mencion ada</w>
patrocin adores</w>
V u
arti fici
ll ena</w>
Ruman ia</w>
sal e</w>
ás tica</w>
mó viles</w>
m ex
proporcion ado</w>
Car ol
invi tados</w>
re pi
qu err
I mag
F .
su fra
polici al</w>
Eur o
difer enci
si ficación</w>
end es</w>
tí tulos</w>
lam entos</w>
e amente</w>
compl em
tras lado</w>
convenci onales</w>
constitu ir</w>
din ámica</w>
estad ística</w>
Hu man</w>
Ofici ales</w>
an tecedentes</w>
In depen
peligr osos</w>
n ar
g eles</w>
ám ico</w>
B CE</w>
respon dió</w>
oci dio</w>
Pan amá</w>
mue bles</w>
ej empl
ch ar
z ados</w>
RE S</w>
M el
E van
asoci ado</w>
n ave</w>
col or
is s
llegu e</w>
sent imientos</w>
Principi os</w>
intro duc
su pongo</w>
e tín</w>
AD OP
t olerancia</w>
for os</w>
PRE SID
asi ento</w>
Re y</w>
arti stas</w>
Joh n
D .
o j</w>
Ingl aterra</w>
S S</w>
ab und
os idad</w>
es cas
S tu
cu an
man ejo</w>
gr áfico</w>
ak e</w>
fís icas</w>
contro versi
Li tu
dispon en</w>
de tener</w>
A le
can ales</w>
For tal
ambi a</w>
de lo</w>
par ecía</w>
le tras</w>
G ast
contempor án
prác ticos</w>
al dad</w>
form ado</w>
caus ar</w>
exper to</w>
formul ario</w>
im peri
cul tivo</w>
Rapport eur</w>
mont aña</w>
O EA</w>
r uso</w>
in i
esco lares</w>
v ea</w>
Wor ld</w>
dem an
llev e</w>
pres os</w>
AN EX
des centr
y ac
hospi tales</w>
ejecu tivo</w>
tur no</w>
óm ica</w>
ha z
Supl emento</w>
AD ES</w>
contro ver
Ár abes</w>
P ER
d ame</w>
en s</w>
har d</w>
Mal ta</w>
pl anti
Ex hor
ho ja</w>
diab los</w>
prest an</w>
ic ado</w>
dese an</w>
re fuerz
particip ó</w>
Cambo ya</w>
lengu aje</w>
prim as</w>
ob is
pas ada</w>
respec tivas</w>
lic encias</w>
tr ay
Je fes</w>
198 2</w>
Sab e</w>
F ac
renov ación</w>
satis f
N ational</w>
F il
presupuest aria</w>
c ón
fá brica</w>
domés tica</w>
có digos</w>
Cu id
proces amiento</w>
sindic atos</w>
baj as</w>
T hom
prepar ativos</w>
est an</w>
prelimin ar</w>
sufri miento</w>
eci das</w>
mac ro
interlocu tores</w>
D ime</w>
con duci
S impl
naci do</w>
ir nos</w>
Mu seo</w>
dificul tad</w>
9 00</w>
capi tales</w>
bu m</w>
V arios</w>
compati bles</w>
prác tico</w>
RE CH
Ust edes</w>
est ad</w>
Á n
H U
con vención</w>
Al ber
sustan tivo</w>
V is
c amiento</w>
sistem ática</w>
ma ti
gener aciones</w>
ent abl
conoci dos</w>
S on
A v
fund amento</w>
suel e</w>
g ados</w>
comple tar</w>
vi llas</w>
ho jas</w>
est er</w>
apli quen</w>
Litu ania</w>
f ans</w>
S T</w>
utiliz adas</w>
Res umen</w>
ANEX O</w>
escri bió</w>
prove edor</w>
al os</w>
inmobili arios</w>
Ti empo</w>
so cor
cal i
MI NU
super vivencia</w>
inici ales</w>
ste in</w>
provin cias</w>
l as
cu ello</w>
az ar</w>
Fu ente</w>
vi amente</w>
G ab
man tenido</w>
o d</w>
absolu tamente</w>
I ll
ACNU DH</w>
escu cha</w>
a .net</w>
senci llo</w>
tor ias</w>
a in
l or
longi tud</w>
pien sas</w>
v ag
peligr oso</w>
L et
de pósito</w>
vir on
proporcion ada</w>
end idas</w>
N ACIONES</w>
consolid ar</w>
IN FOR
ch illo</w>
previ amente</w>
al th</w>
r án</w>
e años</w>
señ ales</w>
n al</w>
on el</w>
libre mente</w>
par ar</w>
w ood</w>
uni verso</w>
neg ativos</w>
To k
gr ados</w>
ali as</w>
Qu eda</w>
a .
el le</w>
Al b
polic ías</w>
con viene</w>
verdad eramente</w>
d oy</w>
í qu
in ado</w>
descan so</w>
estructur al</w>
ci do</w>
des ayuno</w>
contr adic
est acion
re za</w>
mat ó</w>
decir te</w>
p la</w>
ven der</w>
ti l
15 .00</w>
tim idad</w>
t ing</w>
om en</w>
cru cial</w>
de z</w>
di aria</w>
an al</w>
rec orr
graf ías</w>
cu áles</w>
par tí
om e</w>
cer ve
distin ción</w>
A mi
vi ento</w>
su yo</w>
f ases</w>
Reconoci endo</w>
Ex pl
musul man
Ases or</w>
re pu
b es
conjun tos</w>
mu lar</w>
cor ta</w>
O k
orden ador</w>
in suficiencia</w>
s es</w>
acab ar</w>
en com
r ot
subr aya</w>
observ ado</w>
glob alización</w>
H os
sal ario</w>
O s</w>
supl ement
configur ación</w>
prim a</w>
de porte</w>
tu yo</w>
ch ino</w>
sens ación</w>
doc e</w>
Ver de</w>
pl aza</w>
des favor
l ej
ot her</w>
cont ac
pr ision
comb ate</w>
Niv el</w>
C P
A U
reconoci ó</w>
C. 2</w>
agr av
autor a</w>
someti dos</w>
esper aba</w>
Igu aldad</w>
transmi tir</w>
secre tario</w>
permi tió</w>
Prob ablemente</w>
bi o
J a
ér o
ven ia</w>
re fugi
fam oso</w>
asc end
Sigu e</w>
fi li
per cep
K e
controversi as</w>
Cuar ta</w>
pregun tar
fin anzas</w>
restaur antes</w>
dem and
dis puestos</w>
ag encias</w>
Gen ial</w>
DE RECH
reun ir</w>
com od
re peti
Gu ar
i c</w>
impul sar</w>
ru ido</w>
ú tbol</w>
étn icas</w>
expul sión</w>
apar ición</w>
des vi
c av
Re al</w>
asegur arse</w>
Nu estros</w>
liber alización</w>
podr ías</w>
al las</w>
P apa</w>
indic ación</w>
eleg idos</w>
copi as</w>
T S</w>
b al</w>
tra er</w>
inter rum
espal da</w>
S anti
alegr ía</w>
1 1
Pr ueb
gr it
h ad</w>
dis capaci
Obje tivo</w>
15 .
hom olog
actualiz ada</w>
S k
é ci
L ucha</w>
v ania</w>
can al</w>
glob ales</w>
Mo ham
trat an</w>
sugi ere</w>
n idad</w>
CI ONES</w>
N O
eg as</w>
PRES ENTE</w>
sustitu ye</w>
abast ecimiento</w>
ep is
llev aron</w>
consider ables</w>
extranj eras</w>
emple os</w>
mi ércoles</w>
h echas</w>
j ing</w>
bol sa</w>
G O</w>
acep tado</w>
minis terios</w>
sem illas</w>
bas ura</w>
utiliz ada</w>
pan or
Perd ón</w>
socor ro</w>
durad era</w>
medi ción</w>
D entro</w>
pen etr
anunci ó</w>
ba il
modific ada</w>
continu o</w>
fu ese</w>
p edes</w>
Si ento</w>
Rev .1</w>
maldi to</w>
C ha
an exos</w>
plante amiento</w>
ec erse</w>
tempr ano</w>
tor n
entre vista</w>
mar inos</w>
guar d
ar os</w>
B E
U R
To m</w>
acab ado</w>
al tamente</w>
2 12</w>
in suficiente</w>
human as</w>
ocur rido</w>
suc edió</w>
pose e</w>
10 5</w>
distribu ir</w>
cap tur
Fr anc
Min is
des nu
10 9</w>
A delante</w>
P la
sub programa</w>
Com pr
exist encias</w>
cir cu
sal do</w>
cabal lo</w>
Je an</w>
gen it
refi ero</w>
cirug ía</w>
especi alistas</w>
tr aje</w>
ri eron</w>
v ist
ven ded
Norm as</w>
Estu dios</w>
termin ó</w>
Alqui ler</w>
P R</w>
pro xim
entr enamiento</w>
T an</w>
y s</w>
riqu eza</w>
incent ivos</w>
discu sión</w>
re qui
diseñ ado</w>
Administr ativos</w>
some tido</w>
ex posiciones</w>
pi ra</w>
pa ga</w>
Ar abia</w>
B est</w>
cul tivos</w>
cercan o</w>
Sing a
conci enci
vi de</w>
franc esa</w>
rei tera</w>
afec tar</w>
ratific ado</w>
encar cel
Registr o</w>
so porte</w>
prohí be</w>
fundament almente</w>
obst acu
y ente</w>
th is</w>
re torno</w>
capi tal
con venciones</w>
hubi ese</w>
U l
Trans porte</w>
fal lo</w>
ob i</w>
as i</w>
us ado</w>
contribu yen</w>
In sta</w>
Dani el</w>
ic óp
ADOP TADO</w>
M et
p p
perten ece</w>
om bi
solici tó</w>
histori as</w>
re bel
d encias</w>
ti das</w>
excep ciones</w>
Doc tor</w>
noti cia</w>
gratu ito</w>
de d</w>
Direc trices</w>
invi tó</w>
invi erno</w>
ob ed
L oc
l ag
aport an</w>
in ta</w>
ándo lo</w>
parti das</w>
neu tr
ic an</w>
fru tas</w>
r acion
enem ig
crim in
pl ástico</w>
ur e</w>
H abr
present en</w>
M ah
vi va</w>
h arán</w>
entr añ
vi mos</w>
vic toria</w>
pre dic
visit antes</w>
enfr entan</w>
err adic
divul gación</w>
jug adores</w>
ran go</w>
O k</w>
mar gin
des glos
constitu tivo</w>
l ob
tari fas</w>
mó s
emple ado</w>
fi quen</w>
terror ista</w>
e w</w>
tig ación</w>
vis ible</w>
16 .
is as</w>
hici era</w>
moder na</w>
po sesión</w>
humanit arios</w>
E rit
ino is</w>
mer ía</w>
Erit rea</w>
cumpl eaños</w>
p acto</w>
proporcion an</w>
Form ación</w>
bur gu
arr est
ll ave</w>
cum bre</w>
Qu ería</w>
explo sivos</w>
equi tativa</w>
di era</w>
de t
O L
mejor ado</w>
fi eld</w>
N O</w>
cu b
TI C</w>
culp able</w>
un e</w>
di e</w>
hi pó
direc tas</w>
cab ez
tar y</w>
w ell</w>
trabaj ado</w>
c able</w>
recomend ar</w>
urg entes</w>
óg eno</w>
un d</w>
neg ativas</w>
me te
expec tativas</w>
z be
pa sión</w>
mutu o</w>
Ill inois</w>
novi o</w>
Tom ando</w>
ta x
al cal
pu de</w>
4 0
Jes ucr
M IN
bal ance</w>
reun ió</w>
compañ ero</w>
prést amo</w>
pu ente</w>
conjun tas</w>
es ante</w>
Clu b</w>
Mi li
expres amente</w>
env ej
m am
quer ida</w>
bon ito</w>
Par k</w>
bu que</w>
fabric antes</w>
coment ario</w>
mer ece</w>
5 0
hués pedes</w>
in i</w>
Jesucr isto</w>
prec ed
cristi anos</w>
í culo</w>
tr iste</w>
g or
vín culo</w>
Mon ten
tot ales</w>
pres ion
cap a</w>
am ari
pro ven
conclu ido</w>
vi eja</w>
én dice</w>
f is
pens ado</w>
profund idad</w>
per ros</w>
ón icas</w>
si llo</w>
án icas</w>
fi ja</w>
produ jo</w>
Rob ert</w>
CE S
Ju lio</w>
U E
av os</w>
int olerancia</w>
de os</w>
situ ada</w>
inci so</w>
medi ados</w>
lu jo</w>
blo queo</w>
Glob al</w>
F C</w>
jud íos</w>
particip a</w>
A y</w>
an dr
dese os</w>
prot agon
beb er</w>
probl em
gust an</w>
H ombre</w>
Bei jing</w>
t í</w>
asign ado</w>
f re
Ar ch
ern as</w>
r ico</w>
ól ogos</w>
T anto</w>
Si tuación</w>
es ias</w>
l t;</w>
correc tamente</w>
& lt;</w>
as os</w>
bu lo</w>
extrem adamente</w>
pec ados</w>
óx ido</w>
pl u
Alg una</w>
K at
verific ar</w>
cuadr os</w>
reconoci dos</w>
Jo e</w>
Medi terráneo</w>
do bl
vot ar</w>
d an
apropi ados</w>
C. 3</w>
avanz ada</w>
combusti bles</w>
monit or
on ados</w>
tr á
Anton io</w>
te za</w>
in idad</w>
registr ados</w>
cu ad
CE R
eder á</w>
V er</w>
oper ativo</w>
ati zación</w>
r icos</w>
vac antes</w>
of en
anfi tr
ayud ará</w>
pl ata</w>
e ales</w>
as .net</w>
mir ando</w>
inc ap
ar tes
N C</w>
Person as</w>
ó cr
orr o</w>
vu estros</w>
establ ezca</w>
Hab it
Post eri
L en
apel ación</w>
ev er
trans portes</w>
arti sta</w>
I P
hi erro</w>
j ar</w>
Monten egro</w>
bas ándose</w>
compl ej
defin ido</w>
Eslo venia</w>
integr ados</w>
lí n</w>
V o
ilu str
í simo</w>
am able</w>
ra st
mon edas</w>
reci cl
Ex iste</w>
presupuest ario</w>
bur g</w>
Í n
ul traterrestre</w>
at mós
desplaz amiento</w>
u el</w>
formul ado</w>
G obern
itali ano</w>
Capi tán</w>
min isterio</w>
bilater al</w>
eti quetas</w>
si ble</w>
peligr osas</w>
apo st
ab oli
loc a</w>
per petr
Simpl emente</w>
vigil ar</w>
observ aron</w>
h is
hid r
V .</w>
solv encia</w>
vac ío</w>
tu ber
si entes</w>
audi ta</w>
íg ena</w>
neg ativo</w>
trans ferencias</w>
dir ía</w>
ti pi
Ac adem
tem or</w>
im puestas</w>
É ste</w>
degrad ación</w>
dici onal</w>
Pl ataforma</w>
mon to</w>
clín icos</w>
Qu é
ob tención</w>
B en</w>
Mar tin</w>
eco sistemas</w>
cre encias</w>
iz ada</w>
inter medi
pro poner</w>
Posteri ormente</w>
Ver dad</w>
S at
oblig ados</w>
Dev el
cerr ar</w>
H az
llam o</w>
re ferencias</w>
A ri
denomin ado</w>
distin to</w>
W at
G én
ca te</w>
Dist r</w>
PRESID ENTE</w>
Gu ía</w>
difun dir</w>
A co
Ro ja</w>
estad ísticos</w>
comen zado</w>
Inform es</w>
desempeñ an</w>
H ong</w>
compañ eros</w>
sal arios</w>
demu estr
re pe
in to</w>
confi ar</w>
M em
aclar ar</w>
E ri
B at
min i
m era</w>
correspon den</w>
ter raza</w>
muer tes</w>
expres aron</w>
g re
ter ías</w>
fom ent
norm ales</w>
I d
ent endido</w>
propiet arios</w>
ten gas</w>
e i</w>
dirig idos</w>
Char lie</w>
exig ir</w>
esper amos</w>
impl ement
Investig aciones</w>
Raci al</w>
sub regionales</w>
quer ías</w>
00 .000</w>
perten ecen</w>
aliz adas</w>
rec to</w>
mi zar</w>
étn ico</w>
formu la</w>
den sidad</w>
desempeñ a</w>
A MI
L iga</w>
viaj ar</w>
teléfon os</w>
so lar</w>
e facción</w>
bi ológica</w>
incid ente</w>
pa gar
Dic ho</w>
va quia</w>
O h
Q UE</w>
afirm ar</w>
prec edentes</w>
Ji h
blan ca</w>
OC DE</w>
extre mo</w>
ec ían</w>
vivi endo</w>
ve te</w>
f ur
in gres
org ánico</w>
reembol so</w>
mi x
T I</w>
ot es</w>
án gu
tej ido</w>
caus ado</w>
magni tud</w>
luc es</w>
mas cul
pin tura</w>
ve d</w>
b ús</w>
cer em
a -</w>
retras o</w>
arm amentos</w>
u t</w>
dedic ada</w>
en ví
inver n
er nos</w>
en riqu
n ing</w>
jun tas</w>
autom áticamente</w>
vid rio</w>
empresari ales</w>
Na ir
c e
brill ante</w>
Singa pur</w>
urb ano</w>
Fu era</w>
histór ica</w>
www. un.org</w>
duc ha</w>
entr adas</w>
don os</w>
camp amento</w>
t encia</w>
K ong</w>
g as
implem entación</w>
Vig il
obstá culo</w>
gen ocidio</w>
sor presa</w>
Lu is</w>
d éc
medio ambiental</w>
pen diente</w>
desplaz adas</w>
inclu sive</w>
Jih lava</w>
ne ur
tan ta</w>
maríti mo</w>
cá maras</w>
fil tr
minis terial</w>
P hi
presid encia</w>
jug ador</w>
aliment ici
l os
n ec
ir lo</w>
a .</w>
5 .000</w>
ex istir</w>
dej e</w>
V uel
E fec
asi g
amp a</w>
habl ó</w>
si ma</w>
mar tes</w>
Mon et
XX I</w>
provis ionales</w>
por no
me tal</w>
doc tr
tur e</w>
Nair obi</w>
vi al</w>
ci tado</w>
quím ica</w>
pro meti
pos t</w>
al so</w>
t aban</w>
tarje tas</w>
f an
detec tar</w>
hu med
segu ía</w>
ól ico</w>
h éro
AC P</w>
secu estr
realiz arse</w>
ped idos</w>
1. 3.
J en
inter ino</w>
v ayan</w>
M aj
im as</w>
titu lada</w>
em baj
der s</w>
eg al</w>
V es</w>
volun tario</w>
conc ede</w>
rel oj</w>
inter val
lig eras</w>
exhor ta</w>
avent ura</w>
má ticos</w>
autoriz ados</w>
Z ACIÓN</w>
cu stodia</w>
v ido</w>
eci da</w>
enemig os</w>
E P</w>
........ ........
acus ados</w>
a parte</w>
O li
A pel
í dos</w>
et ado</w>
sector ial</w>
N aci
Mi ke</w>
Coordin ador</w>
vincul ados</w>
hi bición</w>
D O
prim avera</w>
car di
g encias</w>
Párraf o</w>
er los</w>
ti cias</w>
estudi ante</w>
atmós fera</w>
in cur
Ind ustria</w>
oport uno</w>
fer ro
Ex pres
Qu ien</w>
te atro</w>
solu cionar</w>
cul tiv
IS B
titu lares</w>
conven io</w>
con dado</w>
infer iores</w>
tr í
compr as</w>
re gr
Trabaj adores</w>
em en</w>
educ ativos</w>
registr ada</w>
Don de</w>
M igu
medio ambientales</w>
dol es</w>
indic aciones</w>
arquitec tura</w>
ad o
it ario</w>
afi li
N ov
á monos</w>
ba ile</w>
ust o</w>
tab aco</w>
des i
Bib lia</w>
medi r</w>
re frig
sig nos</w>
Wind ows</w>
tent ri
renov ables</w>
juris prudencia</w>
h aremos</w>
e is</w>
pied ras</w>
ca er</w>
escas ez</w>
pregun tó</w>
t abl
individu o</w>
enorm es</w>
tend remos</w>
adquir ida</w>
P OR</w>
salvaguar dias</w>
AM ENTO</w>
rel at
nombr ado</w>
abandon ar</w>
elec tor
fij ación</w>
Cari ño</w>
habr ían</w>
n omin
ar i</w>
du m</w>
est és</w>
mar ino</w>
ostr o</w>
apli que</w>
Fr on
deleg ados</w>
on almente</w>
Direc tora</w>
sacer dot
hu m
empres arios</w>
di ble</w>
198 3</w>
infi erno</w>
col ega</w>
Sen egal</w>
C. 5</w>
a b</w>
nú c
estim ación</w>
Jama ica</w>
ci ales</w>
inser ción</w>
All í</w>
correspon da</w>
En vi
cin tur
reflex ión</w>
municipi os</w>
manten erse</w>
br azo</w>
G R
uni form
s k
pro puestos</w>
parci almente</w>
hi er
est ábamos</w>
colon ización</w>
m s</w>
ej e</w>
Tam poco</w>
primor dial</w>
car gas</w>
Est onia</w>
conclu yó</w>
muchac ho</w>
drog a</w>
en aje</w>
h an
H y
Deb es</w>
admir adores</w>
curi osos</w>
al d</w>
B ot
S á
Mo delo</w>
S TA
planti lla</w>
sigui eron</w>
per pe
P .</w>
mu erta</w>
gesti onar</w>
administr aciones</w>
comput adora</w>
trim estre</w>
eleg ante</w>
Sal ón</w>
F NU
urb ana</w>
trabaj ador</w>
in und
di mos</w>
T ES</w>
r id
suger encias</w>
camp amentos</w>
asign ados</w>
ali anza</w>
domin go</w>
aé rea</w>
lar á</w>
tan tos</w>
continu idad</w>
t ía</w>
flex ible</w>
sufr en</w>
M AR
yl vania</w>
person alidad</w>
is t</w>
seleccion ar</w>
En l
ex ención</w>
e e</w>
val oración</w>
mi endo</w>
Mo z
tú a</w>
lu min
Cá llate</w>
o a</w>
facul tades</w>
infr acción</w>
recib ida</w>
maravill oso</w>
conver tir</w>
m er</w>
ferro vi
s ti
cor rer</w>
ed r
Gh ana</w>
parti d
r acional</w>
reserv ar</w>
estratég icas</w>
1 10</w>
lleg aron</w>
respal do</w>
ist ad</w>
en comend
U zbe
guar da</w>
proced ente</w>
ech n
legisl ativa</w>
ac á</w>
sig los</w>
defini tivo</w>
N at
excep cional</w>
F al
ú menes</w>
f el
le t
hí dr
m ár
rom pecabezas</w>
man tienen</w>
d otación</w>
deman das</w>
tray ec
preserv ar</w>
gu en</w>
G A</w>
de lan
el ga</w>
encontr é</w>
ari s</w>
d orm
b añ
colabor ar</w>
exclu siva</w>
ag encia</w>
C CIÓN</w>
mem or
UN O
Pen ns
198 1</w>
197 9</w>
In dic
su eños</w>
O p
z ap
deteri oro</w>
ay u
G ra
ubic ado</w>
P os
B L
nor te
produc tor</w>
bus can</w>
constru ido</w>
su presión</w>
fór mula</w>
soci o</w>
hi elo</w>
direc tores</w>
c hu
Deb en</w>
hu evos</w>
mani fiesta</w>
Alb ania</w>
Cultur ales</w>
is tido</w>
cam ar
F .</w>
B .
w ay</w>
I T</w>
acab ó</w>
L y
em pieza</w>
norm ativas</w>
candid ato</w>
Si én
rest antes</w>
crim inal</w>
elev ados</w>
intensi ficar</w>
Penns ylvania</w>
ác tica</w>
escap ar</w>
crí ticas</w>
R espec
popu lares</w>
añ adi
lóg ica</w>
T anz
IN TER
t echo</w>
auto bús</w>
cur s
sáb ado</w>
pregun to</w>
Migu el</w>
depen dencias</w>
CON SE
Liber tad</w>
im pone</w>
dr é</w>
conden ado</w>
ad entro</w>
reduc e</w>
f útbol</w>
d aré</w>
Estad ística</w>
pro pósitos</w>
cum pla</w>
est í
clín ica</w>
foto grafías</w>
apar ecen</w>
bom bas</w>
tien den</w>
rig ur
ú a</w>
Señ orías</w>
ari edad</w>
Sa int</w>
T re
depen den</w>
design ado</w>
st án</w>
examin e</w>
ur al</w>
ay amos</w>
absolu ta</w>
m ari
ve ía</w>
aci ón
pro mesa</w>
complej idad</w>
Mas sac
Kaz aj
rig ht</w>
pot able</w>
exi to
ti du
femen ina</w>
déc adas</w>
ahorr o</w>
ad misión</w>
T EN
arr oj
Terr or
enfr enta</w>
cón yug
Resul tados</w>
mínim as</w>
ant i</w>
res um
eb ook</w>
p as</w>
movi lizar</w>
mir ada</w>
afron tar</w>
com mun
C .1</w>
entu si
resul tantes</w>
equ idad</w>
y u
te lo</w>
d alo</w>
et te</w>
conoc en</w>
aport aciones</w>
I .
10 7</w>
embaraz ada</w>
horri ble</w>
id én
hab ilidades</w>
ch as</w>
hi b
k en</w>
observ ador</w>
conoc es</w>
mez cl
dirig ir</w>
197 8</w>
bas an</w>
Con solid
recog er</w>
met ál
suel dos</w>
P ese</w>
par to</w>
H aga</w>
AL I
rap idez</w>
loc alidad</w>
avanz ado</w>
g reg
ev as</w>
n ac
S audita</w>
im en
B or
u se</w>
mont añas</w>
locu ra</w>
sus titución</w>
vi abilidad</w>
ne to</w>
muchac hos</w>
compl ace</w>
DERECH OS</w>
inver tir</w>
g t</w>
Mec anismo</w>
pro mesas</w>
dec ep
alcanz ados</w>
estric tamente</w>
Comision ada</w>
z o
oport una</w>
tab la</w>
cu antía</w>
conserv ar</w>
Ba sta</w>
ment s</w>
coll ar</w>
destru ir</w>
en oj
at ario</w>
Mac edonia</w>
ve inte</w>
r ostro</w>
ma tric
P in
G RA
t arias</w>
a cost
Respec to</w>
Gen eva</w>
g adas</w>
sil v
escuch ado</w>
V iste</w>
ll er</w>
Par que</w>
su ena</w>
anci anos</w>
alqui lar</w>
Ber lín</w>
br azos</w>
bi cic
Inter na</w>
br a</w>
Contin u
Inter nacionales</w>
mater nidad</w>
municipi o</w>
ai l</w>
el ación</w>
erradic ar</w>
Ch ad</w>
ic h
Ex c
or adora</w>
J ack
í das</w>
197 0</w>
ou g
T N
beb idas</w>
Mi gr
in con
pu s</w>
D eleg
funcion an</w>
Res id
Ma x</w>
pros pec
deriv adas</w>
firm ar</w>
legisl ativos</w>
cerve za</w>
convers ación</w>
ar ena</w>
Inst ancia</w>
D ur
enti endes</w>
mis sion</w>
insul ina</w>
escl avi
tom an</w>
ma il</w>
Inter gubernamental</w>
impul s
estim ado</w>
infec ciones</w>
conc eb
ju gu
consci entes</w>
pac íficos</w>
asi o</w>
pot enciales</w>
set ts</w>
R educ
aplic arán</w>
anal í
ay s</w>
ic anas</w>
di ciones</w>
invern adero</w>
centr ado</w>
dis mo</w>
Con trat
gan ancias</w>
cláusu la</w>
L ar
ac tas</w>
enjuici amiento</w>
ment ir
Massac hu
tern idad</w>
maldi ta</w>
cal ent
añ ade</w>
ay o</w>
centr a</w>
estú pido</w>
ver é</w>
mejor ando</w>
br as</w>
D P</w>
Comun icaciones</w>
Ar mas</w>
19 67</w>
acep ta</w>
mete or
E R</w>
d s
10 1</w>
Hen ry</w>
Massachu setts</w>
Esper amos</w>
ig an</w>
repatri ación</w>
ma trim
Ric hard</w>
serv idor</w>
á u
suces ivo</w>
in aria</w>
olvid ar</w>
At lán
ó graf
av is
Leg isl
limi ta</w>
ac as</w>
ent err
Gast os</w>
reflej an</w>
con qu
vist azo</w>
signific ativamente</w>
j al
den om
aus pi
tranqui lo</w>
D atos</w>
La w</w>
plante an</w>
prepar ando</w>
estipu la</w>
W est</w>
in vers
f er</w>
ti ble</w>
Sou th</w>
actú a</w>
ex ista</w>
Segu imiento</w>
qu ede</w>
ton to</w>
clar as</w>
K an
hel icóp
w a</w>
Disculp e</w>
Cuid ado</w>
bar cos</w>
ali anzas</w>
tecn ológica</w>
forest ales</w>
h ep
an si
esti mul
inc o</w>
municip ales</w>
concentr aciones</w>
v éanse</w>
qu eja</w>
camin ar</w>
an ge</w>
dirig e</w>
ro di
Le e</w>
Estu dio</w>
cam inos</w>
Pla za</w>
p ura</w>
pens aba</w>
pued as</w>
de bili
argu mento</w>
revis ada</w>
1 30</w>
fav ori
examin ará</w>
Perman ent</w>
desarroll ando</w>
direc tivas</w>
acces orios</w>
eg an</w>
r oga</w>
17 .
gan a</w>
Ch arles</w>
decir me</w>
post ura</w>
la w</w>
Al ex
enfer mo</w>
É S</w>
P es
tor ial</w>
imp id
es pe
ed ly</w>
hal l</w>
trat amientos</w>
inici almente</w>
direc ciones</w>
a cuer
fic e</w>
ab ur
gan as</w>
pes cado</w>
defini tivamente</w>
asc en
gl oria</w>
re tro
Con ferencias</w>
peligr os</w>
asoci adas</w>
o tipo</w>
crist al</w>
re producción</w>
portu gu
b and
mor e</w>
ho mici
ac or
éndo lo</w>
expedi ción</w>
re pres
ativ idad</w>
agr es
Bib li
l ea</w>
publi c</w>
afirm ación</w>
EE.U U</w>
priv ación</w>
pr ór
sent ado</w>
ISB N</w>
correc ciones</w>
t eles</w>
cuid ados</w>
S tre
br oma</w>
inv asión</w>
En ten
roman íes</w>
energ ías</w>
inti mid
CONSE JO</w>
us an</w>
utilic e</w>
señ orita</w>
sos tiene</w>
r estos</w>
perio dista</w>
t emplo</w>
tr adiciones</w>
decir lo</w>
monet aria</w>
discipl ina</w>
cre ando</w>
l t</w>
mensu al</w>
ali vi
ál bum</w>
eci eron</w>
P S</w>
barr eras</w>
llam ados</w>
D or
administr ar</w>
zz le</w>
Y emen</w>
Per don
col ombi
fl or
to do
trat aba</w>
ed ido</w>
cambi a</w>
ejerci cios</w>
enci almente</w>
sal as</w>
s ki</w>
mat em
hid ro
A gen
domici lio</w>
h ur
P I</w>
des esper
Reg ión</w>
carb ón</w>
b et
to car</w>
e v</w>
Let onia</w>
benefici arse</w>
tir o</w>
migr atorios</w>
Bo b</w>
inf lam
Oper ación</w>
lleg an</w>
ingeni ería</w>
bre v
a pruebe</w>
án dole</w>
Tr áfico</w>
bar a</w>
en e</w>
débi l</w>
inter esa</w>
logr ados</w>
I VA</w>
F R</w>
L og
M á
CC C</w>
remo to</w>
Inter esante</w>
realiz aron</w>
Viol encia</w>
movi liz
in evi
int enta</w>
origin ales</w>
ul terior</w>
limpi o</w>
e u</w>
dormi torios</w>
Ky oto</w>
redon da</w>
m asas</w>
mi tigación</w>
al leg
pis to
ven idos</w>
orden ados</w>
di ficación</w>
H al
id uría</w>
B re
é tr
tom en</w>
Dis fru
C R</w>
étn icos</w>
y st
C amer
ígen es</w>
inf lación</w>
Tran qui
2 2
DE S
eléctr ico</w>
Re i
Uzbe kistán</w>
v ina</w>
bi odi
ñ as</w>
An te</w>
anc ha</w>
hab iendo</w>
continú e</w>
am paro</w>
ci encias</w>
termin a</w>
br asi
co la</w>
Devel opment</w>
men os
Pre mio</w>
Exhor ta</w>
des igualdad</w>
C inco</w>
recomend ado</w>
en érg
frecu entemente</w>
IN GL
Polí ticas</w>
Con f
tem o</w>
on ce</w>
Mix to</w>
pa u
complement arias</w>
sól ida</w>
Ma estro</w>
introduci do</w>
detal lado</w>
cre emos</w>
C ent
Corr .1</w>
su p
tecn ológico</w>
con for
li ban
alu min
car tera</w>
autón omos</w>
recopi lación</w>
medi anas</w>
T an
ci on</w>
dis puesta</w>
miser icor
R us
sacer dote</w>
Mic ro
Preg unta</w>
er án</w>
manten ga</w>
ab ell
liqu idación</w>
blan queo</w>
te tas</w>
y os</w>
par t
de pósitos</w>
Com pl
explic ó</w>
admis ibilidad</w>
z ando</w>
it arios</w>
ali ción</w>
ex pir
3 6
constitu cionales</w>
multi plic
H az</w>
zap atos</w>
favor ables</w>
am on
inten sidad</w>
edi a</w>
lo w
Eslo vaquia</w>
pr este</w>
l una</w>
negr a</w>
av iso</w>
F ern
Maur icio</w>
Sex ta</w>
hab éis</w>
b uc
resul tar</w>
inter gubernamental</w>
abu ela</w>
et y</w>
profun di
Mo is
mostr ó</w>
tentri onal</w>
consul tivo</w>
F MI</w>
abi ertos</w>
termin ación</w>
Observ ación</w>
k ey</w>
descar ga</w>
estratég icos</w>
cri p
homolog ación</w>
B A</w>
su la</w>
conten idas</w>
et n
Acog e</w>
pi ens
tra e</w>
S evi
cí pu
Vigil ancia</w>
P el
T orr
entrev ist
determin a</w>
Ci ent
n on</w>
subsidi arios</w>
ayu de</w>
a ís
Con serv
gesti on
que tes</w>
ó logo</w>
pi ernas</w>
comprim idos</w>
umbr al</w>
cu rio</w>
N ombre</w>
tor as</w>
escri ta</w>
Dr ogas</w>
poder oso</w>
cometi das</w>
rob o</w>
sufra gar</w>
rep ent
llam an</w>
Vir gin
com eter</w>
inter institucional</w>
a costum
proto colos</w>
gi eron</w>
Nor th</w>
j ate</w>
pro v
priorit arias</w>
mal as</w>
hici mos</w>
Kazaj stán</w>
limit ados</w>
vin ieron</w>
A gua</w>
rom per</w>
ME DI
al egro</w>
fa x</w>
S hi
Ar tículos</w>
colec tivo</w>
em in
per judic
Re afirmando</w>
ín t
tr on
qu í
Mis sion</w>
TI V
Camer ún</w>
er io</w>
ag a
celebr aron</w>
D V
V í
cl aus
Am bos</w>
adver sos</w>
subray ó</w>
españ ola</w>
3 8
suje tas</w>
A C</w>
estuvi eron</w>
ac titudes</w>
pre ver</w>
ordin arios</w>
person almente</w>
em poder
st u
10 4</w>
manif estación</w>
xen ofobia</w>
Cons trucción</w>
iv e</w>
- Sí</w>
Santi ago</w>
cat álogo</w>
conclu ye</w>
Pot encia</w>
Deber ías</w>
Fis calía</w>
invi tado</w>
F i</w>
D ice</w>
E E</w>
segu irán</w>
D a
mon stru
tir se</w>
int entos</w>
A un</w>
vig ésimo</w>
tan tas</w>
cuid ar</w>
indic ador</w>
18 .
pre cau
invers ores</w>
z adas</w>
P N
credi bilidad</w>
rec í
E U</w>
Terror ismo</w>
ari zación</w>
car gar</w>
Fid uciario</w>
qui r
inter venir</w>
inspec ciones</w>
tar an</w>
10 3</w>
Domin icana</w>
blanc os</w>
pas eo</w>
her idos</w>
alde a</w>
or y</w>
her idas</w>
negr os</w>
k u
dis cípu
patr ón</w>
marc ado</w>
asent amiento</w>
p echo</w>
argu mentos</w>
coraz ones</w>
naci ó</w>
utilic en</w>
tra ído</w>
polici ales</w>
her ed
ru edas</w>
inc er
d amos</w>
Per mí
acompañ ado</w>
cerr ada</w>
F er
Thom as</w>
Neg oci
des en
Pe queñ
di amantes</w>
No ticias</w>
com parte</w>
R ib
ON AL</w>
ti o</w>
pi ta</w>
Ali enta</w>
ech ar</w>
alumin io</w>
mi ti
public ar</w>
A frica</w>
empr ender</w>
agu j
Pres entación</w>
delincu entes</w>
T est
sacerdot es</w>
É sta</w>
ex tra</w>
CO 2</w>
apoy ando</w>
negoci ar</w>
ma quin
not able</w>
relig iones</w>
pudi eron</w>
o vi
CE DA
Mon tre
Pa ís</w>
ã o</w>
mencion a</w>
li s</w>
esti mular</w>
salv ación</w>
ien e</w>
Consolid ación</w>
Carol ina</w>
pas an</w>
oper ador</w>
domin ante</w>
cab ello</w>
Universi ty</w>
sugi rió</w>
pose edores</w>
Gr oup</w>
ilíci tos</w>
privi leg
p .
le tr
gi as</w>
forest al</w>
Z imb
br inda</w>
pens amientos</w>
pa gado</w>
sistem áticamente</w>
habl amos</w>
admis ible</w>
c ac
M as</w>
necesit aba</w>
As soci
en cabez
J im
enfr entar</w>
profes ión</w>
mínim os</w>
distri tos</w>
Consul tivo</w>
res u
volunt aria</w>
exig en</w>
t orm
jug ando</w>
desapar ición</w>
ten erse</w>
cre ada</w>
án dome</w>
D om
su bir</w>
te ór
a sombr
regu lares</w>
t ano</w>
tr au
d ida</w>
qued arse</w>
ecer án</w>
Cap aci
vari ables</w>
llam as</w>
fres co</w>
aisl amiento</w>
R ot
mil agr
h ec
J aco
CEDA W</w>
reclu sos</w>
desarrol la</w>
18 0</w>
V illa</w>
CO N</w>
B ern
Tr inidad</w>
Ter min
M ONU
qu íes</w>
tu din
1, 5</w>
Virgin ia</w>
adop tarse</w>
st on</w>
br os</w>
F ig
n oci
es ía</w>
ci en</w>
elector ales</w>
combati entes</w>
i v</w>
I o</w>
far ma
fin alizar</w>
atr av
Per i
hipó tesis</w>
facili ta</w>
B ase</w>
carre teras</w>
V el
graci oso</w>
L im
norm ativo</w>
inclu irá</w>
incer tidu
ampli os</w>
v encion
Prueb a</w>
ci ertamente</w>
A gu
cl or
conci li
previ as</w>
EN TA
efici entes</w>
du plic
An álisis</w>
Defen sor</w>
W i
C D
frac aso</w>
tras ero</w>
ig n</w>
re h
aé reas</w>
Sevi lla</w>
id able</w>
B et
man tuvo</w>
pres iones</w>
S tar</w>
em pi
ren al</w>
infr acciones</w>
Fr ente</w>
qu ebr
fol le
pes c
aport ación</w>
En viron
Constitu cional</w>
ron da</w>
an illo</w>
arr astr
t alización</w>
mostr ado</w>
lici tación</w>
G .</w>
197 5</w>
alem ana</w>
ing re
mutu a</w>
propiet ario</w>
Ó rgan
separ ados</w>
foto grafía</w>
suministr ar</w>
sab erlo</w>
deser tificación</w>
encu entre</w>
ten siones</w>
firm ó</w>
m amente</w>
e tos</w>
Estad ísticas</w>
discu tir</w>
2. 000</w>
naci dos</w>
20 .
ver emos</w>
mutu amente</w>
fru to</w>
equivoc ado</w>
espect áculo</w>
déci mo</w>
Su br
com e</w>
pág .</w>
y era</w>
rec ción</w>
3 5
anim idad</w>
pregun tar</w>
B asi
197 3</w>
arr end
N om
concienci ación</w>
W h
inform ation</w>
qu ejas</w>
Mar y</w>
fr ía</w>
sep a</w>
L abor
AD N</w>
corpor al</w>
10 6</w>
d amente</w>
Recu erda</w>
Q atar</w>
hab ilidad</w>
desc endi
S of
Mois és</w>
sufri r</w>
ll enar</w>
Fac ebook</w>
estudi ando</w>
Industri al</w>
B ill</w>
i z</w>
cient íficas</w>
dem andante</w>
grad ual</w>
v ayas</w>
ir ás</w>
vincul ante</w>
ás trof
arro z</w>
baj ar</w>
apoy ado</w>
posi blemente</w>
A I
d és</w>
o col
b ella</w>
i ti
u p</w>
Ind ígenas</w>
Con oc
partici pa
pro f
lis tos</w>
rep ente</w>
tendr ás</w>
el y</w>
con curso</w>
b oc
cer eales</w>
Administr ativo</w>
esper an</w>
Ch ic
Par agu
permi ti
dis culp
ati on
desi erto</w>
RE GL
exc eso</w>
trans cur
de vel
U U</w>
restric ción</w>
prosper idad</w>
e f</w>
v ec
ofrec emos</w>
w ork</w>
rec e</w>
ali vio</w>
end an</w>
an te
a consej
etiqu eta</w>
J ar
C o</w>
N am</w>
ter s</w>
imper io</w>
provoc ar</w>
pod remos</w>
favor ecer</w>
ru tas</w>
fun cional</w>
cintur ón</w>
t as
lam enta</w>
ces ación</w>
asign ar</w>
vi ejos</w>
vin os</w>
Hist oria</w>
m es
de portes</w>
N et
oscur idad</w>
ni o</w>
si lla</w>
10 2</w>
h ara</w>
Ac c
G an
can ciones</w>
complement aria</w>
bas arse</w>
ES TA
C ateg
jubil ación</w>
permitir ía</w>
az ón</w>
contamin antes</w>
perió dicas</w>
dist or
S mit
design ación</w>
export adores</w>
coordin adores</w>
tu ya</w>
anu almente</w>
pose en</w>
in cu
cuestion ario</w>
cam pe
sal ido</w>
deb a</w>
U h</w>
inter national</w>
am ante</w>
educ ativas</w>
al ar
M it
ambi ci
reduc ciones</w>
fu iste</w>
miner ales</w>
Es truc
Pal acio</w>
cont ó</w>
Ú n
dispon ga</w>
ev olucion
bibli oteca</w>
mi n</w>
fe licidad</w>
M ER
19 .
prór roga</w>
in ete</w>
financi ados</w>
reconoci da</w>
m uro</w>
religi oso</w>
m ón</w>
t aliz
sub sist
13 .00</w>
N ations</w>
T el</w>
iz ados</w>
in dici
acus aciones</w>
continú an</w>
ex puestos</w>
Cu enta</w>
ar ries
fer roc
I P</w>
pe z</w>
S t</w>
zon o</w>
remun er
am istad</w>
H RC</w>
R .</w>
Cor por
10 8</w>
Al i</w>
al mas</w>
compati bilidad</w>
mon u
record ó</w>
frecu ente</w>
F aci
fac tur
adop tando</w>
Montre al</w>
ayud arte</w>
in as.net</w>
gram a</w>
A cab
En fer
in er
s hi
consider ará</w>
10 .000</w>
í na</w>
AN I
innov adoras</w>
igual dades</w>
cu bre</w>
étn ica</w>
invent ario</w>
Hab iendo</w>
cat ástrof
H ig
sof ía</w>
mi te</w>
asesin atos</w>
A grad
inst aur
Observ aciones</w>
cal ificación</w>
S cot
almac en
1 60</w>
pen sa</w>
of re
prome to</w>
m apas</w>
brasi le
p istas</w>
dec reto</w>
uc ar
cal cular</w>
mis iles</w>
REGL AMENTO</w>
distin ta</w>
expl oración</w>
expe diente</w>
nu m
lin do</w>
levan ta</w>
ci tar</w>
enl aces</w>
S ent
du d
comunic ar</w>
Jurí dicos</w>
Reser va</w>
Proyec tos</w>
núc leo</w>
cru z</w>
Di álogo</w>
l adr
OS SI</w>
sab iduría</w>
polic e</w>
esclavi tud</w>
Mal í</w>
confirm ar</w>
li toral</w>
inter cambiar</w>
afec tada</w>
Tay i
du zca</w>
o fr
As unto</w>
A k
amb ul
Cu entas</w>
des pac
coleg io</w>
demuestr an</w>
b an</w>
cul min
alegr a</w>
M añana</w>
C ast
refer entes</w>
consul tores</w>
Paragu ay</w>
V ida</w>
Conclu siones</w>
isti ó</w>
recep tores</w>
obje ciones</w>
ér icas</w>
abu elo</w>
audi o
des movilización</w>
Is landia</w>
dev olución</w>
Es co
t le</w>
Invi ta</w>
B ir
present ara</w>
à a</w>
An n
2. 1.
res titución</w>
su mas</w>
P U
un animidad</w>
próxim as</w>
reclu tamiento</w>
Mos c
consider ados</w>
disminu ir</w>
H aya</w>
encu estas</w>
cor re</w>
Cu atro</w>
lec ciones</w>
10 10</w>
P L
o las</w>
dr ome</w>
Ju ego</w>
legisl aciones</w>
suje ta</w>
ocup ada</w>
gen i
u t
Qu ed
ib an</w>
em bal
log ística</w>
public ará</w>
dec or
conduc tor</w>
der án</w>
Cu stodia</w>
W ien</w>
L .</w>
anfitr ión</w>
Inspec ción</w>
volver á</w>
ins t</w>
1 12</w>
refu gio</w>
cal cula</w>
B ajo</w>
emple adores</w>
pres as</w>
ur ity</w>
V ar
én es</w>
radi ación</w>
Trat ados</w>
os lo</w>
Fe lici
crec er</w>
i an</w>
des igualdades</w>
símbo lo</w>
agrad ecería</w>
sub regional</w>
sacri ficio</w>
atra er</w>
Z ambia</w>
ha z</w>
llu via</w>
garan tice</w>
san gu
efec tivas</w>
habl an</w>
conced ido</w>
atrav es
am pl
tempor ales</w>
v ej
ocup ar</w>
ev ent
encontr aron</w>
enseñ anzas</w>
ter ap
ín dices</w>
clasi fic
su ave</w>
extr acción</w>
promo viendo</w>
Co un
cam as</w>
consider en</w>
alem anes</w>
pri mi
C AS</w>
Ins tru
re voc
D on</w>
u lares</w>
concep ción</w>
apar ato</w>
So vi
Dic ha</w>
Mosc ú</w>
Ministr y</w>
S ol</w>
Ch il
A nu
raí ces</w>
carr eras</w>
3 7
cre í
ind ígena</w>
com edor</w>
Bur k
oscur o</w>
hacer le</w>
vac un
tuvi eran</w>
plaz as</w>
B ill
Tayi kistán</w>
ferroc arri
vi tam
F abr
F CCC</w>
un der</w>
or io</w>
caball eros</w>
L este</w>
M ulti
dej ando</w>
man n</w>
Pr ot
Fortal ecimiento</w>
Vi et</w>
cuidad osamente</w>
pers ecu
w o
caracter ística</w>
medi ación</w>
defini ciones</w>
s ó
impresion ante</w>
Dis eño</w>
an ot
u alidad</w>
fi lo
destac ado</w>
tom adas</w>
subsidi os</w>
pro seguir</w>
o te</w>
contempl ados</w>
justi ficar</w>
bom bar
promu eve</w>
lig eramente</w>
hab las</w>
ci elos</w>
1 25</w>
fabeti zación</w>
astr on
des es</w>
c ast
b ecas</w>
quin ta</w>
contribu irá</w>
ma go</w>
í e</w>
d arme</w>
otec n
In migración</w>
manej ar</w>
im parci
señal aron</w>
biodi versidad</w>
modern ización</w>
her e</w>
p abell
ob tuvo</w>
X X</w>
Reduc ción</w>
i era</w>
ent era</w>
av en
recur r
repercu sión</w>
pon der
descri ben</w>
fru tos</w>
const at
C C</w>
om etr
G N
St ate</w>
rast re
Hu bo</w>
Observ ando</w>
Organiz aciones</w>
1 40</w>
dese aría</w>
viv ido</w>
id ge</w>
jar din
j ado</w>
adop tará</w>
a pe
9 63</w>
mo .</w>
guar dar</w>
M es
K h
Particip ación</w>
inter ru
30 .
O TA
facul tad</w>
ev an
Tran si
porno grafía</w>
avi ación</w>
t oler
ag i
se t</w>
3 4
am an
excep cionales</w>
tre inta</w>
pi l
op tar</w>
Jurí dica</w>
continu ó</w>
re co
Oh io</w>
ad hi
cual it
public ada</w>
Sist emas</w>
acord ó</w>
ist er</w>
especializ ado</w>
ur i</w>
aeron aves</w>
averigu ar</w>
re ina</w>
ases ores</w>
an ál
sent imiento</w>
W I</w>
real ice</w>
SE Ñ
seleccion e</w>
integr ante</w>
M ire</w>
Mar s
im parcial</w>
Fran k
encamin ados</w>
Wo od
Atlán tico</w>
Pu esto</w>
Academ ia</w>
cad á
in debido</w>
adap tar</w>
mi llas</w>
divis iones</w>
es pon
sab ido</w>
partí culas</w>
entrev istas</w>
conex iones</w>
par edes</w>
ir ían</w>
d ares</w>
Audi tores</w>
centr arse</w>
hi per
B iss
histór icos</w>
ángu lo</w>
eb o</w>
de lici
Ú lti
estu ve</w>
in seguridad</w>
re b
energ ético</w>
convenci do</w>
ejecu tivos</w>
Ingl és</w>
blo g</w>
ver as</w>
eur o
secre tos</w>
inst ancias</w>
INFOR M
qued ará</w>
incorpor ado</w>
g lu
dej an</w>
di á
t óx
MP 3</w>
im pide</w>
ac os</w>
Hos pi
197 7</w>
gü enza</w>
Ci encias</w>
so los</w>
m ica</w>
autoriz ada</w>
ti gi
e y
logr ó</w>
grav emente</w>
í tulos</w>
intent ado</w>
ap éndice</w>
terap éu
rec aud
mu seo</w>
argent in
es is</w>
cay ó</w>
H arry</w>
M aria</w>
O n</w>
compl ejos</w>
ed ic
Sab ía</w>
oper ativos</w>
instal ar</w>
Z ona</w>
ag arr
C NU
V .
defin idos</w>
Ci ud
gu o</w>
pap eles</w>
declar ar</w>
esp ada</w>
an cho</w>
S ER
Man i
reún e</w>
Minis terial</w>
actu alizar</w>
od ón</w>
mer curio</w>
es quiera</w>
especific aciones</w>
encarg adas</w>
Fun cionamiento</w>
defen sor</w>
T ai
argentin a.net</w>
Hac er</w>
seri amente</w>
Amarillas argentina.net</w>
recha zo</w>
S C</w>
comunic arse</w>
Pr íncipe</w>
prohi bir</w>
c az
i go</w>
confirm ó</w>
jor nada</w>
regu larmente</w>
inform ará</w>
R oc
Exc mo.</w>
hi m</w>
CE S</w>
Biss au</w>
1 11</w>
com puestos</w>
B lo
armon ía</w>
B C</w>
í z</w>
ex tin
es casa</w>
Joh an
G ri
gu erras</w>
desc enso</w>
adap tarse</w>
prision eros</w>
bon ita</w>
propi ci
Tanz anía</w>
encar ga</w>
Do ha</w>
establ ecerse</w>
abor to</w>
vi able</w>
Podr ías</w>
inter cambi
Des cripción</w>
secund arios</w>
col ogía</w>
ar tes</w>
ajust an</w>
L ima</w>
f az</w>
o terapia</w>
tuvi mos</w>
Es tim
s ú
dev ast
con tener</w>
pa sivo</w>
ex cu
embaraz adas</w>
Medi a</w>
represent ados</w>
retir o</w>
Ju li
dormi torio</w>
bot ella</w>
permis os</w>
par ada</w>
ba tería</w>
crí tico</w>
mit te
vi br
con tengan</w>
priorit ario</w>
acab o</w>
B O
hig iene</w>
al i</w>
Tur ismo</w>
Bien es</w>
cam ión</w>
con sigo</w>
Econ omía</w>
a sta</w>
con firma</w>
ambi que</w>
ac r
R ol
rev esti
es encia</w>
P T</w>
ad junto</w>
d arte</w>
sospech oso</w>
manifest ó</w>
it aria</w>
P ra
abi ertas</w>
llev en</w>
c enar</w>
rec al
t w
H aci
inter iores</w>
Au tom
L ament
C RI
cal ma</w>
Ad ónde</w>
M ot
Pro pi
H .</w>
est aré</w>
acumul ación</w>
R O</w>
var ones</w>
fu é</w>
acostum br
continu ará</w>
per dió</w>
sir ven</w>
vincul adas</w>
ac ti
colec tivos</w>
jur o</w>
entr aña</w>
experiment ado</w>
D i</w>
A tención</w>
s anto</w>
digit ales</w>
t ese</w>
notific ado</w>
manten iendo</w>
observ ancia</w>
pe d</w>
b ord
libr as</w>
caracter iz
psi co
conduc e</w>
a terri
sent encias</w>
197 6</w>
F es
HU MAN
Em presa</w>
pel ea</w>
Hab la</w>
caus ados</w>
ard s</w>
ten ías</w>
Su el
E D</w>
per a</w>
defin en</w>
er ten</w>
mundi alización</w>
ín ea</w>
L t
ol or</w>
pul s
reconoci das</w>
prob abilidad</w>
log otipo</w>
dó lar</w>
gi bles</w>
L U
apar eció</w>
as ado</w>
ev acu
mar ina</w>
t ativos</w>
cal efacción</w>
Burk ina</w>
ev an</w>
ag as
financi ado</w>
bor de</w>
Con su
Cu m
obis po</w>
ic k
pro vid
con vino</w>
sex os</w>
ident i
I t</w>
R á
fisc alización</w>
K el
profun das</w>
sub vencion
ur s</w>
fís icos</w>
har ás</w>
comien zos</w>
sanit ario</w>
tr om
ent end
t ón</w>
3 9
retir ar</w>
enf oc
2 1.
ro ja</w>
garanti zado</w>
d ores</w>
do va</w>
ampli ado</w>
musulman es</w>
in men
Bus h</w>
urb an
Moz ambique</w>
cin ta</w>
Cl au
val le</w>
bir se</w>
territor iales</w>
cor red
signific ativos</w>
C N</w>
feder ales</w>
líqu ido</w>
res e</w>
impres cin
sustanci al</w>
at s</w>
F aso</w>
as mo</w>
tr y</w>
tej idos</w>
int est
percep ción</w>
es encialmente</w>
h ayas</w>
P ES
de dos</w>
Con ver
infr a</w>
el s</w>
re mol
D ile</w>
Rad io</w>
escri torio</w>
Mer cado</w>
re fin
ab we</w>
conci ern
están dares</w>
compl eja</w>
exter no</w>
controver sia</w>
en amor
bi n</w>
constitu ido</w>
Maldi ta</w>
pro pag
v ase</w>
inst ó</w>
r establecer</w>
CON F.
201 8</w>
comput adoras</w>
fl ota</w>
CN. 9</w>
Evan gelio</w>
módu lo</w>
ve an</w>
EUROPE A</w>
10 00</w>
d ll</w>
prohib ido</w>
Ac tu
clar os</w>
real icen</w>
especializ ada</w>
campes inos</w>
B ud
MA M</w>
Públ ico</w>
empe ño</w>
abandon o</w>
trans acción</w>
innov adores</w>
í l
Quer emos</w>
op e</w>
et s</w>
borr ac
Ali mentación</w>
CER D</w>
respe ten</w>
G A
fr ustr
correc ción</w>
s aqu
Fu i</w>
T H
cabal los</w>
quer er</w>
prest ó</w>
J usto</w>
ir lan
realiz ará</w>
ca za</w>
publ ica</w>
abri ó</w>
jur ado</w>
Ín dice</w>
Consul tas</w>
g it
necesit ar</w>
gan ó</w>
ayud ó</w>
em entos</w>
I F
I di
com andante</w>
envej ecimiento</w>
en ca</w>
conden ados</w>
on das</w>
mul titud</w>
im portes</w>
des cubierto</w>
encuentr en</w>
ú l</w>
g ase</w>
ajust ar</w>
sin gu
conoz ca</w>
ev al
aco so</w>
hec t
Pro vis
En tiendo</w>
cír culo</w>
g est
reflex ion
domés ticos</w>
tor i
in solvencia</w>
Zimb abwe</w>
ad y</w>
todo x
dr en</w>
g ento</w>
is tiendo</w>
vol .</w>
automó viles</w>
adqui rido</w>
C AR
pais aje</w>
etiqu etado</w>
O OPS</w>
ant s</w>
at e
Mar k</w>
on to</w>
resul tó</w>
des ig
Ju ventud</w>
en ha
so ñ
sól ido</w>
Ti po</w>
cerem onia</w>
Form as</w>
18 .00</w>
preocup ada</w>
se os</w>
destin os</w>
perd ón</w>
o ye</w>
2 2.
par ejas</w>
Bar b
sustitu ir</w>
hor ario</w>
Willi am</w>
ser ia</w>
sosten ido</w>
Pres s</w>
to que</w>
discapaci tados</w>
mus ical</w>
Reg iones</w>
aero puertos</w>
Pu zzle</w>
entr ado</w>
reun irse</w>
aga inst</w>
Cons id
al muer
tig io</w>
N ami
m b
facili tación</w>
D ak
Pro vin
sensi bilidad</w>
di eta</w>
otor ga</w>
co pa</w>
ól icos</w>
B ab
Del incu
rig en</w>
T D</w>
pas ará</w>
Cop enha
encontr ará</w>
Represent antes</w>
B arr
represent ar</w>
ca fe
G .
b auti
trans nacional</w>
F MAM</w>
psi qui
de bió</w>
cru eles</w>
2, 5</w>
pr isiones</w>
fi jo</w>
Palabr a</w>
SO BRE</w>
proporcion e</w>
Financi ero</w>
di s</w>
8 5
car as</w>
Com andante</w>
premi os</w>
ejecu ciones</w>
ver me</w>
maríti ma</w>
conver gencia</w>
correg ir</w>
Centro africana</w>
herman as</w>
brit ánico</w>
re tención</w>
naveg ador</w>
hon or
S oc
in estabilidad</w>
nervi oso</w>
TN P</w>
l ing</w>
alg odón</w>
su primir</w>
os es</w>
Ji m</w>
ni eve</w>
sol dado</w>
mul ta</w>
reflej ar</w>
lu s</w>
autoriz ar</w>
prev én</w>
juven il</w>
estabi lización</w>
I bí
Fin anzas</w>
ver la</w>
acus ación</w>
subray ar</w>
cad enas</w>
3 1.
mat ado</w>
cat al
ori as</w>
M us
recib an</w>
L es
actualiz ado</w>
ga sol
INGL ÉS</w>
jec t</w>
vent anas</w>
Mol dova</w>
e c</w>
hac erte</w>
per turb
actu ando</w>
di a
arbitr aje</w>
L una</w>
Ton y</w>
ino x
señ ores</w>
í gu
leg almente</w>
so li
antigu as</w>
M ó
S O</w>
Sab emos</w>
Transi ción</w>
vent ion</w>
bac teri
fij ados</w>
Est ocol
exist ía</w>
p p</w>
on eta</w>
limpi ar</w>
repu tación</w>
acces ible</w>
man t
UN OPS</w>
mu ñ
con sta</w>
Ar te</w>
ex puesto</w>
cre an</w>
asci ende</w>
el u
ent amente</w>
C M
pid iendo</w>
olvid es</w>
cid entales</w>
sec o</w>
oper an</w>
Mon go
cá pita</w>
RE N
empoder amiento</w>
er é</w>
el og
alde as</w>
Tu ve</w>
im n
encontr aba</w>
Distr ibu
gr áfica</w>
pisto la</w>
debati r</w>
arr esto</w>
197 4</w>
Estocol mo</w>
at er</w>
Defin ición</w>
vol ar</w>
r ayos</w>
sensi ble</w>
Proc eso</w>
Cre emos</w>
inoc ente</w>
consider ada</w>
to ca</w>
min oría</w>
cel es</w>
derr ot
C oc
limpi a</w>
A cabo</w>
integr antes</w>
interes ada</w>
ata formas</w>
D D</w>
l an</w>
In versiones</w>
Ale x</w>
4 6
diver sión</w>
hab erlo</w>
eléctr icos</w>
H ag
pati o</w>
dr am
Is la</w>
SEÑ OR</w>
Ibí d</w>
S tar
L O
equilibr ado</w>
em ber</w>
cri tic
an y</w>
th ey</w>
gi e</w>
recorr ido</w>
enfer mos</w>
ratific ar</w>
l ist
tom aron</w>
construc tivo</w>
plante ar</w>
cual esquiera</w>
vu estras</w>
lan zado</w>
exces iva</w>
s h</w>
id io</w>
depen diendo</w>
an dos</w>
au x</w>
equi tativo</w>
28 .
ul es</w>
esti pul
barr a</w>
ér f
ú l
ar íamos</w>
l ento</w>
T C</w>
A plic
un ido</w>
e an</w>
sanit arias</w>
sig no</w>
reduci da</w>
Ter cer</w>
her ido</w>
Acc eso</w>
pre d
Des eo</w>
Capaci tación</w>
UNID ADES</w>
empe zado</w>
pidi eron</w>
sab or</w>
fi ebre</w>
a in</w>
R ural</w>
fenó menos</w>
Su ite</w>
m ad</w>
Bien venido</w>
Li bre</w>
degrad antes</w>
gen era</w>
Cr édi
Lu z</w>
obli ga</w>
justi ficación</w>
In geni
ester eo
vari aciones</w>
tri un
efectu ado</w>
prest en</w>
Mongo lia</w>
plante adas</w>
diab lo</w>
d aba</w>
llev arse</w>
formu laron</w>
bi era</w>
vivi entes</w>
reconoc en</w>
estr és</w>
natur almente</w>
Reg res
de port
pu ñ
crimin ales</w>
pl atos</w>
re accion
juz gar</w>
r ica</w>
proporcion ó</w>
rom pi
M and
2. 1</w>
des gracia</w>
descri bir</w>
Ci erto</w>
4 5
a pre
inmun idad</w>
inclu yó</w>
doctr ina</w>
f ot
El abor
h ola</w>
coordin ador</w>
S in
ten stein</w>
w er</w>
de udas</w>
adver sas</w>
Feder ativa</w>
rec ab
cur a</w>
suje ción</w>
esper ado</w>
U N</w>
TO RI
ínt egr
coordin ada</w>
liter atura</w>
ecológ ica</w>
A ten
océ anos</w>
piens an</w>
os ci
cobr ar</w>
ún icos</w>
olvid ado</w>
fa ir
disminu ido</w>
divor cio</w>
senci lla</w>
Gener ales</w>
T al
actú an</w>
Nami bia</w>
A vi
semej ante</w>
o y
panor ama</w>
deb eres</w>
E mer
Or den
mem orando</w>
adel anto</w>
agr ada</w>
atr activo</w>
cont ex
Cr im
iz aciones</w>
tecn ológicos</w>
ten or</w>
pl ur
ayud an</w>
B rit
exter nas</w>
port á
resul tante</w>
hon r
asesin ado</w>
Ning una</w>
lar idades</w>
podr ás</w>
ak a</w>
sub yac
bal ón</w>
hídr icos</w>
desapar ecido</w>
10 0.000</w>
descri to</w>
D MI</w>
e k
ayud ando</w>
in humanos</w>
fuer as</w>
pon entes</w>
Gran des</w>
t ambi
com et
exac ta</w>
os ex
ci dad</w>
DE CI
ster dam</w>
sem estre</w>
oto ño</w>
car gado</w>
fin aliz
perpe tu
const antes</w>
ment ales</w>
hid roc
faci lidad</w>
ber t</w>
V ER
sub vención</w>
ur es</w>
Man ual</w>
ar re
orden amiento</w>
inc esa</w>
experim ental</w>
son r
vent il
Fes tival</w>
abst enciones</w>
ocur rir</w>
N acionales</w>
secu estro</w>
in her
gr asa</w>
establ ezcan</w>
pon emos</w>
1. 1</w>
se quía</w>
vari able</w>
inform ativa</w>
T es
2 4.
miti gar</w>
H as
V a
o zono</w>
al fabetización</w>
t ap
10 ,
petr ol
encontr arse</w>
R og
su pi
cul osis</w>
1 17</w>
resuel to</w>
acre edores</w>
llev aba</w>
armon izar</w>
Enl ace</w>
Li ech
filo sofía</w>
héro e</w>
ch ame</w>
ti llo</w>
in s</w>
dis cursos</w>
vuel ven</w>
mul tin
Ar t
can s
legi timidad</w>
teri ales</w>
1 15</w>
at h</w>
qu ej
circunst ancia</w>
H ow
6 0
her encia</w>
trast ornos</w>
Ira k</w>
bás icamente</w>
mar se</w>
sol ía</w>
w ard</w>
Europ car</w>
o -</w>
Princip al</w>
Fin al</w>
Much o</w>
aproxim ación</w>
tic en</w>
St eve</w>
c enso</w>
compl ejas</w>
vic e
estu pefacientes</w>
t adores</w>
h orm
gal ería</w>
mi lici
ir an
cel ular</w>
public ados</w>
ab sten
inox idable</w>
ari z</w>
g ico</w>
lar gas</w>
autén tico</w>
fibr as</w>
izqui er
convir ti
tendr é</w>
as al
dici al</w>
me ter
R evolución</w>
l y
O RI
o ur
13 73</w>
emp la</w>
solici te</w>
le ído</w>
T y
tr az
manif estado</w>
apoy an</w>
conf ía</w>
acer car
vis uales</w>
explo sión</w>
a fici
M enos</w>
Col eg
esper anzas</w>
autom ática</w>
later al</w>
s ales</w>
ici a</w>
flu jos</w>
deci sivo</w>
Di j
contrat ar</w>
proteg idos</w>
St ates</w>
Com ent
seleccion ados</w>
Liech tenstein</w>
E v
Copenha gue</w>
mencion ó</w>
cristi ana</w>
bi mos</w>
ám icas</w>
gr áficos</w>
cap tura</w>
aplic adas</w>
llev o</w>
m ás
pl ataformas</w>
his p
es can
moder nos</w>
Chic ago</w>
comple tos</w>
incendi os</w>
c y</w>
trans mit
edi endo</w>
Observ a</w>
autom ático</w>
Pueb los</w>
conten ida</w>
org e</w>
Cuar to</w>
gol f</w>
bu s</w>
ver t
dr a</w>
4 7
Mar ina</w>
módu los</w>
maquin aria</w>
1 14</w>
n g</w>
g ira</w>
Cer ca</w>
sobre vivir</w>
Mun ici
ám bulo</w>
Mer idional</w>
alimentici os</w>
com puesta</w>
aleg aciones</w>
en cl
n ab
Au mento</w>
inquie tud</w>
Pro por
dec ír
fi a</w>
F A</w>
telev is
Cr ist
casti llo</w>
tr ampa</w>
p iz
ci tada</w>
e it
misericor dia</w>
hu elga</w>
practic ar</w>
cu tán
doc entes</w>
ilíci tas</w>
tr ici
proporcion ando</w>
so tras</w>
ad e
tal ento</w>
equival entes</w>
C Y
hu érf
Rib era</w>
ar te
exac titud</w>
X I</w>
comenz aron</w>
T RI
ven drá</w>
refuerz o</w>
lar gos</w>
con fusión</w>
d ó</w>
repar to</w>
u e</w>
Di go</w>
expl orar</w>
diplom ática</w>
tor ías</w>
g ó</w>
Stre et</w>
ll aves</w>
simultán eamente</w>
T RO
enunci ados</w>
afr icano</w>
Rest aur
1 18</w>
satisfac toria</w>
Estu di
con fir
trami tación</w>
hab lo</w>
excel encia</w>
Órgan o</w>
reci biendo</w>
pi ente</w>
Resul ta</w>
pa quetes</w>
R af
ne tas</w>
SI ONES</w>
colabor adores</w>
Vi ernes</w>
F OR</w>
enf ad
dict ámenes</w>
ilíci ta</w>
e al</w>
ver bal</w>
orient adas</w>
conc ern
Sá hara</w>
escri be</w>
bu ds
si enten</w>
f asis</w>
empez ando</w>
al as</w>
Res puesta</w>
ti llas</w>
res cate</w>
gradu almente</w>
Faci li
pe ores</w>
O x
continu amente</w>
pun ta</w>
Med ic
HUMAN OS</w>
urb anos</w>
ofreci do</w>
pabell ón</w>
bail ar</w>
prot esta</w>
Blan co</w>
g ato</w>
expres adas</w>
lab ores</w>
Arm adas</w>
razon ables</w>
ab ora</w>
c ajas</w>
sigui era</w>
ten íamos</w>
dej es</w>
ofreci ó</w>
tor tur
0, 5</w>
pe ta</w>
in fin
pi o</w>
loc alización</w>
bus es</w>
legíti ma</w>
prelimin ares</w>
sospech osos</w>
CES PA
diri gió</w>
con sigue</w>
fi estas</w>
suel do</w>
prepar ada</w>
c óm
aís o</w>
ira quíes</w>
c asi
W i</w>
uc k</w>
defin ida</w>
u h</w>
trat ó</w>
ándo te</w>
Recomend aciones</w>
acont ecimiento</w>
re ver
inform áticos</w>
exces ivo</w>
si ons</w>
1 13</w>
g ay</w>
cap .</w>
ic s</w>
gu es</w>
inten so</w>
cont ado</w>
Qu ím
jurí dicamente</w>
d adas</w>
arm ada</w>
cor e
habr án</w>
o p</w>
design ados</w>
ment ira</w>
ari al</w>
emoci on
democrá ticas</w>
ap titudes</w>
discípu los</w>
min orit
f t</w>
ayud ado</w>
aco gió</w>
ton o</w>
hor no</w>
st oles</w>
Lat inas.net</w>
Amarillas Latinas.net</w>
a ir
mis terio</w>
priorit arios</w>
Cab o</w>
X IX</w>
cont ento</w>
bi ológicas</w>
DV D</w>
lo w</w>
én fasis</w>
am s</w>
cap ítulos</w>
autén tica</w>
alim ento</w>
consider amos</w>
X VI</w>
Ju eves</w>
car ecen</w>
CA T</w>
civi liz
op ina</w>
brec ha</w>
P edi
Qué date</w>
apar ecer</w>
rec au
iz adas</w>
ab ilidades</w>
W ar
Profes or</w>
oc ar
er gias</w>
1 19</w>
Anti guo</w>
denomin ada</w>
cin as</w>
Gol fo</w>
mensu ales</w>
taliz as</w>
cont empla</w>
f os
du eño</w>
situ ados</w>
E li
F AR
D í
3 3
cubier tos</w>
ín as</w>
Quin cuagésimo</w>
tem áticos</w>
J ane</w>
Í A</w>
esqu ina</w>
man z
Jun to</w>
4 8
Técn ica</w>
At ómica</w>
sep tentrional</w>
Vi ll
apr endido</w>
l d
hu mil
T em
esc án
urb an</w>
pl uri
án imo</w>
Distr ito</w>
w s</w>
w ho</w>
F eliz</w>
P aris</w>
ri ya</w>
tendr ían</w>
fer ti
lec ción</w>
echn olog
veci n
Associ ation</w>
po lla</w>
Sar ah</w>
th er</w>
st os</w>
moder nas</w>
confirm ado</w>
qui ta</w>
we en</w>
emi tido</w>
S al</w>
ban das</w>
n ariz</w>
d aría</w>
débi les</w>
equi pa
vac a</w>
as equi
S P</w>
rig e</w>
on ato</w>
hig an</w>
er al</w>
Des e
Igu almente</w>
incertidu mbre</w>
present aciones</w>
fund ada</w>
C y
li p
1 16</w>
ofreci endo</w>
Mili tar</w>
recog e</w>
resul tan</w>
d ri
ci ente</w>
St ep
Mic higan</w>
B lu
Pri v
Jim my</w>
signific ativas</w>
e tudin
tom ará</w>
t ancia</w>
EUROPE AS</w>
OS CE</w>
0, 0
g on
Gru pos</w>
Tur k
Elec toral</w>
ma siva</w>
fr en
deci da</w>
visu alizar</w>
municip al</w>
gan tes</w>
facul tativo</w>
COM UNIDADES</w>
confirm ación</w>
organiz ados</w>
C. 12</w>
correspon dencia</w>
hu esos</w>
cu esta</w>
A cuerdos</w>
compar ar</w>
env ía</w>
absor ción</w>
de jo</w>
mi tes</w>
financi amiento</w>
Centr os</w>
P ul
D j
ti lla</w>
e p</w>
Ben in</w>
hu ellas</w>
Princip ales</w>
vended or</w>
cho col
Proto colos</w>
sól idos</w>
relev ante</w>
as s
un iones</w>
h y</w>
es bo
T en</w>
tec a</w>
Kir gu
ira quí</w>
soport ar</w>
ri l</w>
ing a</w>
patr ones</w>
ad iv
patr ul
men ú</w>
mar g
wit ter</w>
Gén ero</w>
estableci endo</w>
ad ien
Pre mi
dol or
altern ativo</w>
alivi ar</w>
én dum</w>
V arias</w>
imag inar</w>
U so</w>
camp ing</w>
S er</w>
G onz
proteg idas</w>
pen e</w>
intensi fic
E mir
ar ra
Ob ama</w>
tranqui la</w>
embar c
at ing</w>
estim ó</w>
puest amente</w>
F BI</w>
Re afirma</w>
mitte e</w>
ác ticas</w>
gr a
transmi te</w>
su prim
elabor ando</w>
M S</w>
obstacu liz
tem e</w>
n ev
Estrat ég
pantal ones</w>
V an
b ala</w>
persecu ción</w>
t est
arreg lar</w>
pu se</w>
19 60</w>
CNU DMI</w>
encar gar
vol v
Prepar atorio</w>
p al</w>
incap acidad</w>
L aur
jardin es</w>
g em
fu mar</w>
almuer zo</w>
Elec ción</w>
mag ia</w>
Ar ti
desempeñ ado</w>
crí ticos</w>
ándo la</w>
consu etudin
Hab ana</w>
Amer ican</w>
sustan tivos</w>
adici onalmente</w>
Un ida</w>
benefici ario</w>
hum or</w>
cu ero</w>
OTA N</w>
B ER
mol esta</w>
contempl adas</w>
fi able</w>
l ando</w>
buds man</w>
simpl es</w>
retr oc
elabor ó</w>
aw i</w>
T a
si enta</w>
ó gen
pl ayas</w>
ci cl
O D
facili tado</w>
13 8</w>
ist an</w>
trans curso</w>
defici encia</w>
s ano</w>
ho c</w>
err ón
sal en</w>
déj ame</w>
consul tiva</w>
teri ormente</w>
Di je</w>
inform ática</w>
provoc ado</w>
mon d</w>
inclu ía</w>
confid encial</w>
est re
dis u
Dest ac
fic h
vali osa</w>
electrón icas</w>
er lan
cr ónica</w>
Hom e</w>
académ ico</w>
Sem inario</w>
emi gr
resul te</w>
raz as</w>
determin ó</w>
acompañ ados</w>
se e</w>
per for
Tel e
2 3.
g k
franc eses</w>
elev adas</w>
Pien so</w>
fel ices</w>
Sec tor</w>
tr ajo</w>
acces ibles</w>
favor ablemente</w>
Provis ional</w>
comprend en</w>
efectu ados</w>
A M</w>
ad uras</w>
Deber íamos</w>
adu ana</w>
ec emos</w>
dedic ación</w>
prepar ó</w>
so cav
acep tó</w>
T us</w>
corri endo</w>
conci erto</w>
pro met
J on
Per fec
car dí
con fer
refrig er
Hospi tal</w>
Dan ny</w>
contra er</w>
escri tos</w>
hi jas</w>
control ada</w>
N egro</w>
A du
import ar</w>
priv acidad</w>
Ning ún</w>
Mad agas
pi ll
aspir aciones</w>
adop tarán</w>
hu mill
indic ados</w>
compr ador</w>
activ istas</w>
ter ia</w>
autoriz a</w>
cuer da</w>
Ac ep
Promo ver</w>
sal iendo</w>
C arr
hor talizas</w>
privi legi
tor turas</w>
activ ación</w>
rag ésimo</w>
parlament aria</w>
cog er</w>
ma trí
f as
po l</w>
ases or</w>
Presid entes</w>
sec a</w>
integr adas</w>
Madagas car</w>
di arios</w>
con ducción</w>
C entre</w>
M ex
sín tesis</w>
der og
k et</w>
Señ oría</w>
o id</w>
sombr a</w>
il los</w>
relev antes</w>
an ch
sof t</w>
resid ente</w>
eg ip
Mi ércoles</w>
ma íz</w>
so vi
de fi
til idades</w>
Kr ish
sufr e</w>
preval encia</w>
aqu ello</w>
igl esias</w>
Au t
contrati stas</w>
ab on
destin atarios</w>
su pre
b s</w>
propi cio</w>
. ht
íco la</w>
en ios</w>
Institu ciones</w>
án donos</w>
fi eles</w>
can adien
int ér
i tes</w>
hacer me</w>
Lt d</w>
sensi bles</w>
sín drome</w>
de do</w>
pro pa
pi lares</w>
Dic has</w>
Supre ma</w>
Cent er</w>
ob tiene</w>
d ata</w>
mur ieron</w>
progres iva</w>
c ón</w>
posi bili
mont aje</w>
an s
f i</w>
vot antes</w>
garan ticen</w>
Ch icos</w>
medi as</w>
an der</w>
C olu
trabaj adoras</w>
decep cion
paci encia</w>
men ción</w>
itali ana</w>
As pec
Liber ación</w>
En señ
H acia</w>
sal dos</w>
efec tú
1 23</w>
car ajo</w>
ver án</w>
ingre dientes</w>
ver güenza</w>
complement arios</w>
entreg ar</w>
int enciones</w>
termin al</w>
d ale</w>
ant án
re vela</w>
tr ág
1 22</w>
C af
estructur ado</w>
utiliz ó</w>
mor tal</w>
pesqu era</w>
O pin
du zcan</w>
interval o</w>
ejecu tado</w>
qu eso</w>
F IN
acer c
con siguió</w>
me tales</w>
administr adores</w>
tra fic
alcan zó</w>
nav al</w>
Uti lización</w>
qu ise</w>
cons istente</w>
agrad ezco</w>
P aci
t ún
anti dumping</w>
13 6</w>
gener alizada</w>
r ara</w>
hi n</w>
innov aciones</w>
B ob
ó ticos</w>
bi om
Con forme</w>
fu m
g imn
u x</w>
W ol
Cu áles</w>
ho st
P D</w>
an ta</w>
mol est
197 2</w>
qu ince</w>
ES TI
Su m
plante ado</w>
lleg ando</w>
V EN
fund ación</w>
D F</w>
Cre ación</w>
Ex presa</w>
defin idas</w>
rec re
s ed
desplaz amientos</w>
a hu
al ab
2. 2</w>
Cons ej
ent s</w>
cambi ó</w>
Ci elo</w>
cost as</w>
in co
recep tor</w>
especializ adas</w>
Cre e</w>
demostr ación</w>
port al</w>
par ecido</w>
al arma</w>
vol úmenes</w>
esti a</w>
gü edad</w>
b años</w>
s anti
tur istas</w>
Án geles</w>
Am pli
s ell
tom arse</w>
ol d</w>
ser ies</w>
equilibr ada</w>
establ ecerá</w>
inoc entes</w>
p ico</w>
Europe an</w>
má ticas</w>
Bibli oteca</w>
preci pi
control ado</w>
est all
M O</w>
cir cular</w>
IS O</w>
qui to</w>
at añ
Inici o</w>
imprescin dible</w>
Ch rom
fer os</w>
f oc
y ana</w>
acep tables</w>
cre ía</w>
intér pre
Co unci
As h
met ab
ch inos</w>
1 ª</w>
T witter</w>
é v
interes antes</w>
re alista</w>
ei l</w>
rom án
i g</w>
ar quía</w>
E mi
E M</w>
costum bres</w>
P PE</w>
cic los</w>
p uro</w>
Maj estad</w>
per ra</w>
per mí
alcal de</w>
tr aj
hall ar</w>
cá p
subsist encia</w>
pier na</w>
subs idio</w>
c ens
Recuer das</w>
ine ados</w>
detall adas</w>
id ón
B ag
UN EP</w>
íg eno</w>
veget ales</w>
dec oración</w>
hom enaje</w>
funcion ando</w>
enten derá</w>
M U
quir úr
ag it
Dr oga</w>
sist ém
R em
A G
ó mago</w>
ubic ada</w>
complic ado</w>
luc ro</w>
D AS</w>
dis ol
auspi cios</w>
enseñ ar</w>
impu gn
au dio</w>
someti das</w>
An ci
orient ado</w>
arr an
ment ar</w>
S ea</w>
ins ec
Ar t</w>
re dujo</w>
E .
Bien estar</w>
sent ía</w>
person aje</w>
in arias</w>
respal dar</w>
mi ó</w>
mé tr
And re
conoci das</w>
sho uld</w>
Fun cion
d arles</w>
c ía</w>
at i</w>
ver g
segu imos</w>
registr adas</w>
ori entar</w>
re afirma</w>
Consul te</w>
Ir é</w>
vot ado</w>
T Í
com partida</w>
Sig ni
tal o</w>
uniform es</w>
san idad</w>
di me</w>
Secre taria</w>
BE I</w>
Am or</w>
N ick</w>
rent abilidad</w>
or i</w>
cont ables</w>
bi ta</w>
S ir</w>
12 ,
tic le</w>
mu ere</w>
rebel des</w>
org ánicos</w>
con v
tar me</w>
197 1</w>
vi lla</w>
di fund
ón icos</w>
trans nacionales</w>
produci dos</w>
fal so</w>
ex tiende</w>
ak i</w>
pres untos</w>
Sub comité</w>
extraordin aria</w>
inclu ding</w>
represent ado</w>
X V</w>
interru mpi
qu iso</w>
5 7
cár celes</w>
renunci ar</w>
prote ínas</w>
obje ción</w>
visit ó</w>
Ch ris</w>
conoc emos</w>
ci tas</w>
ci gar
dis capacidades</w>
R ay</w>
Con dición</w>
viaj eros</w>
ilumin ación</w>
Basi lea</w>
res titu
aseg ura</w>
cer ámica</w>
contribu yan</w>
organiz adas</w>
má tica</w>
desapar iciones</w>
est ómago</w>
empr endido</w>
denom inación</w>
r ol</w>
proteg e</w>
consider aba</w>
en seguida</w>
norm alización</w>
her ida</w>
hos tilidades</w>
reci ba</w>
ejempl ar</w>
atent ados</w>
V eo</w>
alcan za</w>
anti personal</w>
b ola</w>
produ zca</w>
coloc ar</w>
el les</w>
previs iones</w>
prest ará</w>
Det ec
res cat
S ul
ten gamos</w>
S har
trans formar</w>
it iner
enci alidad</w>
salud able</w>
C ri
presid enta</w>
N L</w>
M P</w>
h un
P ast
Cre í</w>
bar rios</w>
ob vio</w>
prest ados</w>
pl at
ma triz</w>
ó tico</w>
apar camiento</w>
Is a
an ales</w>
re form
compar ten</w>
Cu er
im parti
Jaco b</w>
recib idos</w>
can tar</w>
Cli mático</w>
5 9
h en</w>
abar can</w>
s is
4 4
Smit h</w>
Colu m
diá metro</w>
Inter americana</w>
recí pro
D ale</w>
económ icamente</w>
z u
Bus c
r otación</w>
Am éricas</w>
bur oc
f acto</w>
V isi
perci b
produci rse</w>
pl ato</w>
l i</w>
1 28</w>
n az
U s
E V
omi c</w>
voc es</w>
Esper e</w>
le y
parlament arios</w>
preced ente</w>
P is
convic ción</w>
cas ado</w>
R onda</w>
Pr ó
Mir en</w>
qu eta</w>
aus tr
Estu pefacientes</w>
des prende</w>
an o
cigar ri
au mentos</w>
divis as</w>
vi ew</w>
Naci miento</w>
palest ina</w>
labor atorios</w>
si e</w>
P oco</w>
c ase</w>
Eri c</w>
di oses</w>
Ben efici
Counci l</w>
identific ado</w>
di al
tal ib
F err
ab og
Con junto</w>
ándo los</w>
cír culos</w>
sigu es</w>
adop ta</w>
ti lación</w>
rec tores</w>
inclu yan</w>
ex cur
apar entemente</w>
origin arios</w>
conoc ía</w>
entr an</w>
l or</w>
R iv
Krish na</w>
l ám
car ece</w>
au tos</w>
pot ente</w>
Delincu encia</w>
Bien venidos</w>
cami ones</w>
leg alidad</w>
fin a</w>
exig encia</w>
Publ icado</w>
CO S</w>
les bi
F R
gasol ina</w>
propag ación</w>
extr aju
k an
Ay ú
X II</w>
tax i</w>
exclu sivo</w>
femen ino</w>
B ak
depen dientes</w>
s ky</w>
asi ficación</w>
S elec
bon os</w>
deb idas</w>
contin ental</w>
sho w</w>
agrad ecer</w>
altern ativos</w>
E P
L amento</w>
inform al</w>
D am
pre ámbulo</w>
pier de</w>
ex ag
culp ables</w>
H ici
Ha w
Lat ino
Rá pido</w>
terr enos</w>
am ado</w>
Int ent
ob viamente</w>
ro d
espiri tuales</w>
satéli tes</w>
re cuerdos</w>
fi la</w>
endi eron</w>
institu cion
atu s</w>
convir tiendo</w>
Jos ep
incorpor arse</w>
a os</w>
Si tu
Pes ca</w>
particip ante</w>
Vir gen</w>
restaur ación</w>
desper dici
plac a</w>
UNMI K</w>
des truc
I a</w>
democrá ticos</w>
bo li
eléctr icas</w>
expres iones</w>
ti me</w>
diseñ ados</w>
h ada</w>
diab etes</w>
enfer mería</w>
terr or</w>
Lament ablemente</w>
descentr alización</w>
Gr o
gri ego</w>
band era</w>
so las</w>
organiz a</w>
or s</w>
caracter iza</w>
lag unas</w>
n ad
Ad am</w>
r i</w>
su elos</w>
and y</w>
bo te</w>
oci o</w>
de presión</w>
mé dicas</w>
extra presupuestarios</w>
en deud
conver ti
S tan
maravill osa</w>
18 2</w>
1. 2</w>
autoriz adas</w>
B la
asum ido</w>
S el
t ár
pre para</w>
dr ás</w>
desglos ados</w>
ver tical</w>
fal sa</w>
fal los</w>
Leg al</w>
contempl ado</w>
Un os</w>
terrán ea</w>
sustan tivas</w>
R od
deci siva</w>
proven ientes</w>
suc edido</w>
ejer ce</w>
N ucle
vis ibles</w>
produc tiva</w>
for estación</w>
pu to</w>
Tai w
D urban</w>
ur nal</w>
hect áreas</w>
est áis</w>
prot estas</w>
di ales</w>
d anza</w>
Cor onel</w>
Emir atos</w>
océ ano</w>
explic aciones</w>
Terri torios</w>
Sovi ética</w>
coloc ación</w>
P ic
3 .000</w>
extr añ
Mon ter
segu ían</w>
k o
acompañ ada</w>
su puestamente</w>
per judiciales</w>
empr endidas</w>
compl emento</w>
1 21</w>
japon és</w>
coti diana</w>
En tre
a porta</w>
mu lo</w>
Palabr as</w>
cont est
tu bo</w>
ar co</w>
rev istas</w>
Com pens
ógraf o</w>
M ul
Agen da</w>
Sién tate</w>
Con diciones</w>
psicológ ica</w>
Blan ca</w>
civi lización</w>
Val le</w>
descu ento</w>
des embol
E t
c añ
influ ir</w>
combin ado</w>
ro to</w>
hor r
máxim os</w>
Ali mentos</w>
AC T</w>
O jal
Neces itas</w>
Di ego</w>
refer irse</w>
recaud ación</w>
án gel</w>
in aceptable</w>
Pres ent
unilater ales</w>
có modo</w>
ci r</w>
legíti mo</w>
bibli otec
Soc orro</w>
diver si
idi ó</w>
Re forma</w>
Con oz
ven d
us t</w>
pron ta</w>
conting ente</w>
dec enios</w>
Cas tro</w>
D un
al ice</w>
h en
ma st
br icas</w>
fi c</w>
fl or</w>
MONU C</w>
aj ero</w>
g oce</w>
merc en
4. 4</w>
lan zó</w>
cuan tos</w>
M D
entabl ar</w>
t ag
Publ icaciones</w>
eter na</w>
deriv a</w>
Ojal á</w>
transfronter izos</w>
explíci tamente</w>
com idas</w>
An na</w>
transfronter iza</w>
pan el</w>
efec tividad</w>
cumpli endo</w>
inund aciones</w>
desarroll adas</w>
p d
conven iencia</w>
a a</w>
C ál
tem áticas</w>
Add. 2</w>
p endo</w>
ci tos</w>
Cr isti
extr aña</w>
tex tiles</w>
Elec tr
Secre tary</w>
sal ga</w>
perfi les</w>
As ent
am ina</w>
exist an</w>
Preg un
segur amente</w>
vir tual</w>
dis pers
r osa</w>
registr ó</w>
educ ativa</w>
at om</w>
si onal</w>
4. 2</w>
L av
facili tada</w>
trabaj ó</w>
B rig
f érica</w>
o ple</w>
aprovech amiento</w>
oport un
cu chillo</w>
llam e</w>
orient ada</w>
Y u
recuer das</w>
dirig irse</w>
inc lin
Sex agésimo</w>
8 0
rad ic
mo ver</w>
ám icos</w>
some ter</w>
plac ebo</w>
registr ar</w>
der ri
clás ico</w>
ver des</w>
pac ífico</w>
vál ido</w>
ur os</w>
mani pulación</w>
implan tación</w>
llev adas</w>
di lu
a portes</w>
DE R</w>
administr ador</w>
Neg ligencia</w>
Recon oce</w>
Contribu ciones</w>
obten ida</w>
K it
Deci siones</w>
facili te</w>
nov edades</w>
admi tir</w>
ag ement</w>
cál culos</w>
Man uel</w>
pon dría</w>
Af fair
l s</w>
transpar entes</w>
PRO GRA
norm ativos</w>
suspen der</w>
pag ina</w>
gu it
at mos
transfer ir</w>
perfec cionamiento</w>
beb ida</w>
Observ adores</w>
C oci
cuadr ados</w>
vac una</w>
r íos</w>
al fa</w>
co ño</w>
transcur rido</w>
solu cion
ti mas</w>
or almente</w>
Of fice</w>
de bilidad</w>
an orm
notific aciones</w>
of f</w>
á culos</w>
o ti
m ico</w>
conc eder
ar ca</w>
L unes</w>
Qu ien
amari llo</w>
adolesc ente</w>
pes ado</w>
at ía</w>
escap e</w>
Col orado</w>
3 2
direc tivo</w>
conciern e</w>
k in</w>
gl uc
académ icos</w>
activ ar</w>
ter cio</w>
C B</w>
to wn</w>
l ác
Mal dición</w>
ayud arle</w>
metod ologías</w>
l au
emer gencias</w>
V id
fu imos</w>
cul to</w>
Ab uso</w>
horizon tal</w>
defec to</w>
proporcion ará</w>
it amente</w>
pas aporte</w>
emple ar</w>
Per í
f isi
tecn ológicas</w>
cor tar</w>
Apo y
apar iencia</w>
Re ina</w>
O B
fr uc
s peci
g ando</w>
b ec
concer ni
discrimin atorias</w>
I R
5 6
invi tar</w>
ay un
Com b
E u
bi e</w>
y l</w>
contribu yendo</w>
cr o
aw a</w>
in tra
requer ido</w>
ferrocarri l</w>
Ban k</w>
Docu mentación</w>
encontr aban</w>
ob s
Conven ios</w>
B aja</w>
celebr ados</w>
fam osa</w>
O t
Nu estras</w>
pre ferencia</w>
impid en</w>
Fu ego</w>
qued arme</w>
mis ion
expul s
copi o</w>
orgu llo</w>
recu bier
agu ja</w>
otor gar</w>
eñ as</w>
tri pulación</w>
enumer ados</w>
dej aron</w>
estacion amiento</w>
hí gado</w>
brom eando</w>
inten sa</w>
J orge</w>
aceler ación</w>
Is land</w>
cu p
D ra.</w>
prevent ivas</w>
liqu id
25 .
S or
mi de</w>
pat ente</w>
Dij iste</w>
abor da</w>
corpor ales</w>
mu eve</w>
Ami gos</w>
inform aron</w>
Cuán tos</w>
pas aron</w>
ex puestas</w>
segur as</w>
en me</w>
D an</w>
C ACIÓN</w>
Com mission</w>
priorit aria</w>
tom o</w>
Ma c</w>
29 .
otecn ología</w>
li tros</w>
incre mental</w>
tar é</w>
CE CA</w>
dis cos</w>
amor ti
situ adas</w>
Di versidad</w>
A na</w>
re alidades</w>
emi tir</w>
Ar bitr
abi li
viol entos</w>
fi el</w>
volvi endo</w>
lab ios</w>
A partamento</w>
Inst al
elabor ados</w>
per diendo</w>
Habit aciones</w>
indici os</w>
C S
Administr ador</w>
matrí cula</w>
ox ígeno</w>
H ouse</w>
w in</w>
limit adas</w>
verdad eros</w>
o .
ayud arme</w>
uni ver
TU LO</w>
in directamente</w>
ás ticos</w>
Lou is</w>
mer as</w>
Sem ana</w>
emple adas</w>
arr o</w>
3 .1</w>
ur rección</w>
ne ta</w>
simpli ficación</w>
Ho st
emer gentes</w>
val id
diver sificación</w>
hi riya</w>
ap ell
envi ados</w>
A SE
co bre</w>
4 9
feder ación</w>
3 50</w>
cion almente</w>
Institu te</w>
n et
emple ador</w>
pan y</w>
W est
Posi ción</w>
ad er</w>
explot aciones</w>
Asent amientos</w>
W in
en am
estabi liz
d enciales</w>
og én
ch ina</w>
gener ado</w>
aguj ero</w>
des g
gi l</w>
w a
p int
B eb
un irse</w>
Le on
L am
Jama hiriya</w>
a puesta</w>
K am
Con nec
su poner</w>
lat inos</w>
p ón
vincul ado</w>
suc h</w>
s ch
è re</w>
person ajes</w>
detec tive</w>
N A</w>
L ig
M ens
G ir
e .
est anc
n istía</w>
san ción</w>
ir regu
cab ezas</w>
Pro bl
conten edores</w>
Vic toria</w>
qued aron</w>
n to</w>
pat entes</w>
NU D</w>
Podr íamos</w>
bar ato</w>
tur ales</w>
espec tro</w>
sus cep
epid emia</w>
ap ó
Luc as</w>
vulner able</w>
am bu
confid encialidad</w>
cercan a</w>
a el</w>
h ú
orgull oso</w>
gr e</w>
fac turas</w>
Be ach</w>
pub lici
- y</w>
W is
V i</w>
án doles</w>
asign aciones</w>
Z o
perman ece</w>
beb és</w>
excel entes</w>
og en
gesti ones</w>
h il
cooper ativas</w>
bicic leta</w>
Yugos lava</w>
Com mittee</w>
ped ía</w>
nombr ar</w>
can sado</w>
equip ada</w>
c i</w>
audi torías</w>
tari fa</w>
ped ag
tor re</w>
imparci alidad</w>
di man
trans mis
gr amos</w>
ser é</w>
Micro soft</w>
coordin ado</w>
cin cuenta</w>
En can
señal an</w>
Tra st
com partido</w>
reun ido</w>
CA P
gl ori
tr ist
V ámonos</w>
mi a</w>
gran ja</w>
A O
avi r</w>
rat ón</w>
presun tamente</w>
l ot
efectu adas</w>
w ill</w>
To go</w>
desarroll an</w>
colon iales</w>
mer ecen</w>
es casos</w>
fic ha</w>
M ant
trag edia</w>
chocol ate</w>
1. 2.
escri tura</w>
pre ferencias</w>
revis te</w>
ár mac
po llo</w>
inter faz</w>
resid uales</w>
H it
tuber culosis</w>
B ec
ES PE
ej es</w>
someti da</w>
in suficientes</w>
P H
remo ción</w>
ca e</w>
tambi en</w>
r establecimiento</w>
éci l</w>
S her
Con vention</w>
garantiz an</w>
ob a</w>
inter fer
ar terial</w>
asi entos</w>
temper aturas</w>
hac ían</w>
13 2</w>
mo l</w>
gobern ador</w>
E T</w>
bien al</w>
s anos</w>
env ase</w>
Pró xim
tent ion</w>
car n
S pr
fer ia</w>
Eur atom</w>
Am sterdam</w>
di oso</w>
re e</w>
Chrom e</w>
contr actuales</w>
izquier do</w>
du ele</w>
elev ar</w>
estric to</w>
lleg amos</w>
exhaus tiva</w>
Barb ados</w>
re in</w>
al es
rid ículo</w>
escuch ando</w>
gen io</w>
ant elación</w>
geogr áficas</w>
estuvi eran</w>
regu la</w>
vál ida</w>
er u
gr afi
p é
fi abilidad</w>
per juicios</w>
r usos</w>
per der
5 8
don aciones</w>
dej as</w>
tra ici
ar ts</w>
vid eos</w>
par ad
ing er</w>
In nov
doc ente</w>
grab ación</w>
dr o
ll y</w>
comod idad</w>
ver ás</w>
automó vil</w>
Cat al
cep to</w>
revis adas</w>
costum bre</w>
c esión</w>
lan zar</w>
Col ec
gan za</w>
cuali ficaciones</w>
ag as</w>
Facul tad</w>
is tic
ARI O</w>
vi s</w>
ócr atas</w>
tu ario</w>
K or
conven idos</w>
explot ar</w>
e en</w>
encan taría</w>
conced ida</w>
Compens ación</w>
dese amos</w>
Scot t</w>
au mente</w>
potenci ar</w>
vincul antes</w>
edr al</w>
consagr ados</w>
estudi ado</w>
T he
pedi mos</w>
l ah
despac ho</w>
abandon ado</w>
Po li
com pensar</w>
Domin go</w>
A G</w>
termin e</w>
s cri
M ús
é ticamente</w>
Sr a</w>
peligr osa</w>
fi to
experim entar</w>
creci endo</w>
vali oso</w>
qui ll
car idad</w>
B un
FE M</w>
Sep tiembre</w>
A bu
man uales</w>
perfec ción</w>
contr aria</w>
dé is</w>
inter rupción</w>
emi tió</w>
Ad opción</w>
Financi era</w>
o .</w>
in ess</w>
establ es</w>
V in
superfici es</w>
Ol ví
ej .</w>
cláusu las</w>
Pl eno</w>
Oc é
sof á</w>
EE UU</w>
si rio</w>
bar atas</w>
auto buses</w>
Ki m</w>
L L
fac tura</w>
ener se</w>
ear ch</w>
fl uc
Por cent
infr ing
W omen</w>
fid uci
er mo</w>
O bras</w>
inter medio</w>
demostr ó</w>
G IN
dej é</w>
asisti eron</w>
institu tos</w>
hu mo</w>
d al
ari ado</w>
presid encial</w>
cubier tas</w>
consul te</w>
nes s</w>
In diana</w>
am p</w>
P O</w>
is tir
S ob
C S</w>
Sal om
Cir ug
Párraf os</w>
comb ina</w>
Europ e</w>
univers ales</w>
tar la</w>
arr estar</w>
públ icamente</w>
vuel tas</w>
sin ergias</w>
escri tor</w>
Audi toría</w>
usti n</w>
4 50</w>
h able</w>
L ab
in jer
reg alos</w>
oper ativa</w>
1 24</w>
epis odio</w>
acces ibilidad</w>
PES C</w>
complet ado</w>
gan os</w>
so is</w>
reglament arias</w>
Gran ada</w>
ve inti
us as</w>
pens amos</w>
din ámico</w>
un idos</w>
refi rió</w>
Ab u</w>
preci osa</w>
orden ado</w>
g ig
comunic ó</w>
Fa x</w>
Bah rein</w>
greg ación</w>
13 5</w>
reiter ó</w>
Anci anos</w>
pros titu
A pó
elig ió</w>
ic u
conec tado</w>
refi eres</w>
di n</w>
c eb
celebr arán</w>
Josep h</w>
respe tando</w>
Negoci os</w>
S ac
inclu irse</w>
C la
mal trato</w>
a ham</w>
recha zar</w>
le t</w>
vi n</w>
atac ar</w>
ei ved</w>
T ítulo</w>
reduci endo</w>
Chr ist
16 9</w>
escri b
Om budsman</w>
c end
pa gan</w>
meti l
cap turas</w>
evi n</w>
lic enci
gar a</w>
manten drá</w>
Tom my</w>
mor ales</w>
vin e</w>
reclam ante</w>
encamin ada</w>
A T</w>
du jeron</w>
conf isc
priv atización</w>
oblig ada</w>
m án</w>
F ri
A cu
bur os</w>
consul tarse</w>
no ción</w>
facili tará</w>
Re com
v ar</w>
atribu ciones</w>
abar c
dig no</w>
org ánica</w>
ofici o</w>
retras os</w>
for t
Mari e</w>
rendi r</w>
or ales</w>
ca ído</w>
Vi etn
z e</w>
fortal eza</w>
democ rati
is su
report edly</w>
C ami
adu anas</w>
f le
presid enciales</w>
inspec tores</w>
Com isiones</w>
ún icas</w>
por qué</w>
L it
pal acio</w>
r usa</w>
hom osex
. dll</w>
blo que</w>
sorprend ente</w>
s yst
r ó
conqu ist
mod alidad</w>
anunci ado</w>
com p
Es cú
1 26</w>
cristi ano</w>
meteor ológicas</w>
edi tor</w>
K .</w>
env ases</w>
pertin encia</w>
gar gan
Wal ter</w>
vivi ó</w>
Habr á</w>
cú l
felici tar</w>
pid en</w>
infanti les</w>
FNU AP</w>
n aran
par es</w>
man tel
ti cu
Dis culpa</w>
A caso</w>
adop tados</w>
Ciud ad
histori al</w>
ber s</w>
ju ega</w>
arru in
an dar</w>
exclu idos</w>
í da</w>
tem ático</w>
fibr a</w>
re iv
Coleg io</w>
reci miento</w>
indic ada</w>
suc eder</w>
socio económico</w>
19 49</w>
pro ponen</w>
incum be</w>
re in
convoc atoria</w>
Est aré</w>
descan sar</w>
ag re
it h</w>
circu ito</w>
cer do</w>
deb an</w>
Cu estión</w>
prorr og
oc cidentales</w>
l entamente</w>
emoci onal</w>
us ados</w>
gen u
hal la</w>
Cirug ía</w>
5 5
min ente</w>
trans fi
jugu etes</w>
ón imo</w>
funcion e</w>
mon te</w>
en ia</w>
In di
bru tas</w>
end o
quím ico</w>
adquir idos</w>
Monet ario</w>
Ni k
re misión</w>
inal ám
anteri oridad</w>
de la</w>
15 1</w>
refer éndum</w>
Pr en
sol em
ven gan</w>
prolon gada</w>
Dis posiciones</w>
b is
un der
apoy ó</w>
Su ena</w>
equipa je</w>
Monter rey</w>
Abr aham</w>
paral elo</w>
expl or
TA R</w>
ol e
proporcion en</w>
lec tores</w>
Gu yana</w>
part ment</w>
líqu idos</w>
refer ía</w>
comprob ación</w>
Rest aurante</w>
D a</w>
Com pañ
trat arse</w>
le z</w>
F omento</w>
examin aron</w>
Bri an</w>
Pro hibición</w>
figur aban</w>
quer ían</w>
perió dica</w>
gr ano</w>
n at
produ zcan</w>
p y
PA D</w>
Ju dicial</w>
ali ento</w>
consider adas</w>
ar c
acredi tación</w>
estableci eron</w>
diseñ ar</w>
estr es</w>
con sig
Chr isti
i pri
Ten iente</w>
15 7</w>
di eci
S ho
í si
Inclu ye</w>
T É</w>
entreg ado</w>
om er
añadi ó</w>
tar le</w>
com a</w>
Ca iro</w>
guar dias</w>
universi tarios</w>
cr on
t adora</w>
adi ós</w>
T P</w>
coch ipri
neg ativamente</w>
Pr os
comprend idas</w>
est aremos</w>
instal ado</w>
ocurr idos</w>
cont able</w>
asoci ada</w>
S uc
N otas</w>
Em pe
Am az
Affair s</w>
bl og
ab eth</w>
Andr oid</w>
b ul
G il
sent í</w>
afortun adamente</w>
ter remoto</w>
ser ás</w>
claus ura</w>
indic adas</w>
2 7.
19 69</w>
ei comis
ól icas</w>
expres ada</w>
bu f
20 .000</w>
observ ando</w>
direc tivos</w>
ru ego</w>
trib u</w>
o st
P aso</w>
deten idas</w>
Pen siones</w>
sab r
embr a</w>
A I</w>
im onio</w>
Pro ducción</w>
M ast
levan tar</w>
Reci entemente</w>
cid ente</w>
Ac ces
institu to</w>
Mar tes</w>
lin da</w>
san tos</w>
pro fe
G abri
pers istentes</w>
M ír
dej aré</w>
contribu yó</w>
Mag istr
estim ados</w>
vig encia</w>
S AS</w>
Obje to</w>
motiv ación</w>
pp i</w>
destac an</w>
ent ornos</w>
cas tig
Cultur al</w>
par ado</w>
Trat amiento</w>
u li
es i
Señ al
Anti gua</w>
orden ó</w>
Mi ll
angu lar</w>
prohi bi
promul gación</w>
facili ten</w>
t ol
permi tiendo</w>
ll orar</w>
cu lares</w>
contra ídos</w>
descendi entes</w>
én dole</w>
Cor recto</w>
1 29</w>
ti mos</w>
Porcent aje</w>
en zo</w>
cu ento</w>
Fi ji</w>
Fig ura</w>
Ni co
produc tivo</w>
veci no</w>
R eb
Human itarios</w>
M id
vi era</w>
homici dio</w>
1 27</w>
des tro
hor mi
gr áficas</w>
Maur it
auxili ares</w>
Re ferencias</w>
ex pone</w>
pr íncipe</w>
pre co
An im
V ía</w>
vacun ación</w>
ac y</w>
S D</w>
indi que</w>
suc esión</w>
Mi ami</w>
re formar</w>
at or</w>
competi tiva</w>
ge o
UNI FEM</w>
continu ado</w>
John ny</w>
present arán</w>
Turk men
gu ión</w>
pers istente</w>
humed ad</w>
as istente</w>
ni ega</w>
anti concep
conoz can</w>
enérg icamente</w>
Ver ificación</w>
R yan</w>
Profes ional</w>
lah oma</w>
prim arias</w>
re inserción</w>
expe dientes</w>
n áu
complem entar</w>
O K</w>
K evin</w>
A O</w>
va por</w>
con fron
sil los</w>
Aspec tos</w>
det enciones</w>
Indepen diente</w>
favori to</w>
manif estar</w>
Ok lahoma</w>
estereo tipos</w>
Mer c
CO R
exclu ir</w>
dese ado</w>
15 3</w>
di fi
vis ado</w>
descubr imiento</w>
intelig entes</w>
f lam
pág s.</w>
huérf anos</w>
artifici al</w>
F oto</w>
17 0</w>
liber ar</w>
serv ido</w>
as istentes</w>
pens ó</w>
Fisc alización</w>
farmacéu tico</w>
auxili ar</w>
proces ales</w>
concer tado</w>
sex ta</w>
go zan</w>
éx itos</w>
afec ten</w>
Excel ente</w>
emo ciones</w>
Cu anto</w>
dici ales</w>
í feros</w>
per egr
fru ta</w>
rec eived</w>
gra titud</w>
aplic ada</w>
Au to
UNID AS</w>
nombr amientos</w>
dibu jos</w>
ded ica</w>
pers istencia</w>
man da</w>
refugi ado</w>
v aci
Ro y
Le er</w>
píri tus</w>
Q a
estric ta</w>
legíti mos</w>
ar que
Benefici os</w>
si les</w>
arbitr aria</w>
inici a</w>
hier ba</w>
canti l</w>
orden adas</w>
noc tur
Bill y</w>
h r
f ast</w>
Ad quisi
prepar atorio</w>
im pedi
May o</w>
tar te</w>
ogr áfica</w>
repar ar</w>
facili tando</w>
Gran de</w>
Envi ado</w>
examin an</w>
qu é
f ármac
llev ada</w>
tradu cido</w>
li b
C P.
pusi era</w>
Car acter
Sy st
incendi o</w>
prorr ogar</w>
T end
cercan os</w>
habi tuales</w>
sinc ero</w>
imp ac
L ic
in útil</w>
su mer
volver é</w>
creí ble</w>
l ema</w>
conoc í</w>
in hib
intro dujo</w>
Co urt</w>
Bol etín</w>
Su st
pro le
rec eta</w>
pien sos</w>
ali ados</w>
recibir á</w>
aduan ero</w>
Direc tivas</w>
arti cul
A parte</w>
b ah
rec ta</w>
indemn izaciones</w>
con mem
preci oso</w>
br i
d os
cre atividad</w>
plen arias</w>
ver y</w>
v aso</w>
cuad ragésimo</w>
torm enta</w>
COMI TÉ</w>
Ban gk
pro vech
Po der</w>
proteg ido</w>
lo se</w>
Bro wn</w>
13 1</w>
asig na</w>
rum bo</w>
ru eda</w>
mi el</w>
an ás</w>
dedic adas</w>
cuar enta</w>
Enten dido</w>
Al ineados</w>
ser bios</w>
Re pres
tempor almente</w>
H id
ad vi
D ub
export ador</w>
últi mamente</w>
os tic
don ación</w>
Tar eas</w>
ti bles</w>
du plicación</w>
bi ológicos</w>
cel da</w>
su yas</w>
per u
Est atal</w>
2 20</w>
distribu ido</w>
ad eros</w>
Sol id
Quien es</w>
sub región</w>
contr aste</w>
Cor rupción</w>
orden ar</w>
enci o</w>
aument aron</w>
coinci de</w>
Cuer po</w>
cre yentes</w>
Tom e</w>
o bl
empu j
su ponía</w>
banc arias</w>
par as</w>
recha z
y land</w>
ag ü
w eb
and és</w>
ad ir</w>
Val ent
o ír
R P</w>
flex ibles</w>
servir á</w>
artifici ales</w>
Vuel ve</w>
Se is</w>
monstru o</w>
ajust arse</w>
aju sta</w>
llev as</w>
ecológ ico</w>
ONU SIDA</w>
Vietn am</w>
Bangk ok</w>
ten iente</w>
so stu
AD OS</w>
V ino</w>
b eso</w>
vi gi
gan chillo</w>
M AS</w>
P un
vivi mos</w>
estric tas</w>
ad h
des mantel
concer tación</w>
múltipl e</w>
gust aba</w>
Sch o
coti di
nomin al</w>
Va tic
cr om
manten gan</w>
figur as</w>
fr anco</w>
deneg ación</w>
ent almente</w>
Ci ertamente</w>
mo ción</w>
f ó
b ic
on i
adher irse</w>
L ea</w>
val iente</w>
solici tada</w>
pr is
vuel vo</w>
r oca</w>
todox a</w>
hab ías</w>
llam amientos</w>
L agos</w>
S H
produ jeron</w>
combin ados</w>
Lu gar</w>
par eció</w>
Fr ance</w>
mu est
ez an</w>
c ese</w>
Con duc
En s
13 4</w>
w omen</w>
suger encia</w>
c ables</w>
d arán</w>
Integr ación</w>
Con st
or ígenes</w>
CH A</w>
dispar os</w>
brev emente</w>
P RI
eti l
é se</w>
icul ar</w>
óp tima</w>
deud or</w>
R on
luch ando</w>
fund ador</w>
blo ques</w>
ide ales</w>
Maurit ania</w>
lig ero</w>
equi lla</w>
T ob
encan to</w>
Ay ud
A F
ri tos</w>
complic aciones</w>
V inc
2 6.
ejempl ares</w>
D íg
W eb
inquie tudes</w>
én tr
Perí odo</w>
sus ci
b i</w>
ben dición</w>
ú rate</w>
re dobl
tum ba</w>
si tu</w>
secund ario</w>
r amas</w>
pes ada</w>
equip amiento</w>
as ka</w>
Res balón</w>
convoc ar</w>
abar car</w>
pro genit
hem or
escri tas</w>
espe jo</w>
co dific
origin almente</w>
dispar idades</w>
procur ar</w>
cu s</w>
Mar ch</w>
Observ atorio</w>
du la</w>
Dem asi
construc tiva</w>
gu ías</w>
ren uncia</w>
De partment</w>
s ello</w>
Al ej
Di ez</w>
enseñ a</w>
lic e</w>
lac tancia</w>
Aco giendo</w>
oper ar</w>
mon t</w>
des conocido</w>
T exto</w>
co c
par c
Recuer do</w>
fici os</w>
gen ética</w>
ó tica</w>
res ide</w>
ebr al</w>
Ad ri
ti a</w>
manifest antes</w>
n ena</w>
k ers</w>
14 5</w>
e iro</w>
particip ando</w>
sec c</w>
involucr ados</w>
K ing</w>
19 68</w>
uch o</w>
Amer icanos</w>
er vo</w>
T ío</w>
J ac
preserv ación</w>
sent imos</w>
cal lej
ci ma</w>
15 5</w>
sosp echa</w>
gan ador</w>
Com pe
suici dio</w>
pi lar</w>
compl aci
par ación</w>
Kirgu istán</w>
or n
disposi tiva</w>
Pr o</w>
preocup an</w>
fas cin
bu t</w>
seleccion ado</w>
bol sillo</w>
interpre tar</w>
fin alización</w>
CC PR</w>
cau tel
sub tema</w>
Especi ales</w>
v aría</w>
án geles</w>
an est
vi vir
in directa</w>
v on</w>
simpli ficar</w>
sw ana</w>
P M</w>
hu r</w>
gargan ta</w>
especi ficar</w>
bo las</w>
14 1</w>
pau tas</w>
ar ci
Jud á</w>
me tr
fac tos</w>
t z</w>
posi tivamente</w>
C og
to sa</w>
p idos</w>
l inf
potenci almente</w>
ci ego</w>
tele fon
den t</w>
vi ll
fi anza</w>
inspir ación</w>
end ida</w>
plan e
oper a</w>
vincul ada</w>
per ador</w>
in de
promu evan</w>
obje tiva</w>
i m</w>
av oz</w>
13 3</w>
sent irse</w>
prospec to</w>
ch er</w>
Tim es</w>
Excel encia</w>
prov echo</w>
le d</w>
Tay lor</w>
resul taron</w>
k e
dest ina</w>
Mic h
fant ástico</w>
depen diente</w>
int er</w>
calent amiento</w>
encl atura</w>
desapar ecidos</w>
qui eran</w>
ev er</w>
acti vi
agrad ece</w>
enfer ma</w>
unilater al</w>
Dest aca</w>
gan o</w>
Conoz co</w>
sab ías</w>
I A</w>
Cab all
st and
co incid
Gar cía</w>
corr en</w>
cer as</w>
cap as</w>
adver tencia</w>
perteneci ente</w>
consid ero</w>
X III</w>
qued as</w>
in compatible</w>
B ás
mar inas</w>
Turkmen istán</w>
revis iones</w>
ped í</w>
respe tu
con fun
fes tival</w>
pesc adores</w>
Ten ga</w>
IN S
j od
Ud s.</w>
respon dido</w>
matrim onios</w>
13 9</w>
jud ío</w>
consign ación</w>
sosten er</w>
intent ó</w>
convenci onal</w>
Ed die</w>
ti ci
uc a</w>
O SE</w>
cum bres</w>
limit arse</w>
habl aba</w>
ri ñ
intimid ación</w>
m aj
Mús ica</w>
Mal awi</w>
ou ti</w>
W P.
id ad
pro visión</w>
har d
g es</w>
ven ganza</w>
sem i
ú rese</w>
M L
depen derá</w>
sion istas</w>
intensi ficación</w>
separ adas</w>
bol sas</w>
r aras</w>
dec ente</w>
án dez</w>
afirm an</w>
se qu
Mar íti
pesqu eros</w>
CE DE
neces ite</w>
volunt ariamente</w>
shi p</w>
ín sula</w>
ta in</w>
determin ará</w>
design ar</w>
c f</w>
Medi cina</w>
y er</w>
previs ible</w>
tu alidad</w>
desper tar</w>
disminu yó</w>
P il
Qui eren</w>
un g
L om
ESPE CI
fi ables</w>
hu ir</w>
clín icas</w>
ahorr ar</w>
medi ana</w>
perfec cion
ob edi
f et
cos echa</w>
anti l</w>
d ent
H ice</w>
administr a</w>
Des as
UNO DC</w>
t ation</w>
reiter ar</w>
dispar ar</w>
disfru taron</w>
cat ólica</w>
ni tr
planific ar</w>
co j
Organiz ada</w>
DI S
Apel aciones</w>
íg er</w>
Bot swana</w>
Sol amente</w>
2 10</w>
inc l
En ter
avanz ados</w>
la m</w>
v ice</w>
Igu al</w>
p orm
N íger</w>
D R</w>
C lin
f ato</w>
ro ug
gr is</w>
comprome te</w>
Cons ciente</w>
fi jos</w>
bibliotec as</w>
Tri bunales</w>
sal idad</w>
4. 1</w>
cab ina</w>
lat ino
em ail</w>
de a</w>
b amos</w>
9 0
im partir</w>
past el</w>
ulti mos</w>
inal ien
l idades</w>
avanz ando</w>
sistem ático</w>
prob ado</w>
t emente</w>
registr aron</w>
llam aba</w>
adop tan</w>
mu lado</w>
ap so</w>
tra go</w>
Jack son</w>
ne erlan
Trans portes</w>
A EL
firm es</w>
Pau lo</w>
hep ática</w>
K al
mostr aron</w>
progres ivamente</w>
tur ístico</w>
preocup ante</w>
Sen ado</w>
A ire</w>
nar co
Ingeni ería</w>
dem oras</w>
Contrat antes</w>
brit ánicos</w>
secund arias</w>
distingu ir</w>
veter inario</w>
ha i</w>
escl avos</w>
Esco cia</w>
aut ent
vid eo
ha g
Reg las</w>
pon drán</w>
C os
ul ejos</w>
contr as
profes ion
caball ero</w>
respir ar</w>
prome tido</w>
serv idores</w>
dej arlo</w>
s ana</w>
wo uld</w>
bar es</w>
vari edades</w>
con dicional</w>
ir re
penitenci ario</w>
Oc tubre</w>
surg ido</w>
ur bios</w>
estrec ho</w>
so dio</w>
k er
Fu eron</w>
austr ali
compe tir</w>
D ici
SI S</w>
aten diendo</w>
Li mit
Ad ap
dej en</w>
sensibi lizar</w>
loc os</w>
renov able</w>
mon tar</w>
brit ánica</w>
salvaguar dar</w>
re port</w>
propa ganda</w>
3 D</w>
ins iste</w>
Gobern ador</w>
lóg ico</w>
eicomis os</w>
cas co</w>
bi as</w>
esqu ema</w>
increí bles</w>
form atos</w>
caí na</w>
pre domin
cru el</w>
solici tan</w>
trayec toria</w>
fic o</w>
as ados</w>
examin ados</w>
Al ab
ráp idos</w>
renov ado</w>
encom i
C AN
someter se</w>
precau ción</w>
Gar anti
pa sta</w>
hon e</w>
Tok io</w>
Pr onto</w>
extra er</w>
franc os</w>
vesti dos</w>
querr ía</w>
R an
habi tualmente</w>
examin arse</w>
anti güedad</w>
em po
B og
cruc e</w>
lec tor</w>
tar ías</w>
Trat a</w>
íntegr amente</w>
símbo los</w>
Públ icas</w>
h ech
calcul ado</w>
Wil l</w>
pis os</w>
entusi asmo</w>
Vi vien
energ éticos</w>
proporcion ados</w>
Haz lo</w>
orient ados</w>
Sab en</w>
em s</w>
bol etín</w>
proteg ida</w>
mobili ario</w>
log ístico</w>
respon dieron</w>
secu encia</w>
reún en</w>
to car
acog er</w>
1. 0
ab ra
ejecu tiva</w>
de ta
audi encias</w>
alent ó</w>
Dic en</w>
4. 000</w>
ad junta</w>
gol pes</w>
coher entes</w>
i mit
PA C</w>
ai d</w>
ir regular</w>
reun ieron</w>
her encias</w>
diplom áticos</w>
muest reo</w>
S esión</w>
Natur al</w>
B LI
R ach
TI VA</w>
famili ari
OS ACT</w>
arreg lar
H il
te os</w>
vari ar</w>
D ol
l azos</w>
conc e
Pien sa</w>
Ali ment
uc e</w>
min or
Represent ative</w>
pl es</w>
matem áticas</w>
co caína</w>
separ ada</w>
N ACI
constitu ía</w>
W I
tri go</w>
Con ex
S G</w>
provis ion
vari ación</w>
constitu ida</w>
adul to</w>
B R
porm en
obr eros</w>
tri es</w>
organiz aron</w>
lav ado</w>
tr acción</w>
y ou</w>
pli que</w>
enmen dada</w>
NE PAD</w>
autón omo</w>
pl ana</w>
retir ado</w>
TA RI
Taiw án</w>
sufri ó</w>
Ve amos</w>
as amblea</w>
ha gamos</w>
cer teza</w>
ad jun
Dj ib
kin s</w>
M T</w>
é e</w>
requer ida</w>
Suel dos</w>
áci dos</w>
cion ario</w>
R adi
ast as</w>
pl ica</w>
refer ido</w>
vitam ina</w>
gi miento</w>
sor pren
dem onio</w>
H .
euro pa
E C</w>
llam ando</w>
ri v
G O
su puestos</w>
S eb
al ban
import adores</w>
cuán tos</w>
sis si
rec l
Mon te</w>
reconoci endo</w>
San tos</w>
provoc a</w>
e idad</w>
No vi
t aste</w>
w er
l asti
Re uniones</w>
pel e
modific ados</w>
Am y</w>
des afi
repe tir</w>
Volun tarios</w>
crec e</w>
especi fica</w>
T ru
ri éndose</w>
rob ar</w>
asegur e</w>
apo yen</w>
obten idas</w>
A n</w>
Mis sissi
atañ e</w>
15 6</w>
elec tro
Can al</w>
viv ía</w>
escog er</w>
Djib outi</w>
Pren sa</w>
llegu en</w>
7 0
vál vu
comun ión</w>
equival e</w>
dibu jo</w>
sub ordin
pri mir
Celebr ity</w>
pel ear</w>
carr o</w>
atr avi
z aciones</w>
ORI GIN
h ún
Ch am
mec ánica</w>
for c
err ero</w>
M M</w>
aprob aron</w>
comprometi dos</w>
segu idores</w>
rad ical</w>
T .</w>
Cam pe
f ero</w>
g am
fund amentos</w>
C H</w>
can nab
conc esiones</w>
N ic
Mar cos</w>
inclu irán</w>
y an
agu ici
Categ oría</w>
pes ad
d ama</w>
caus ada</w>
le e</w>
arr as
su ponen</w>
depor tivos</w>
apreci ar</w>
Sch en
C ra
cru ci
des as</w>
di arias</w>
Her man
n aves</w>
Trast ornos</w>
w an
acre edor</w>
limit an</w>
cl aves</w>
not ables</w>
utiliz ará</w>
O este</w>
Estu ve</w>
m embr
hab íamos</w>
ejer cen</w>
D ou
un án
go vern
agreg ar</w>
ta za</w>
di vina</w>
sal sa</w>
vuel van</w>
decir les</w>
odi os</w>
super a</w>
im ponen</w>
ex poner</w>
al ine
CR P.
AEL C</w>
equip ado</w>
conven ido</w>
D G</w>
10 0
T os
identific ados</w>
hisp anos</w>
B ou
derr am
acer vo</w>
Jun io</w>
not ar</w>
in trav
combin ada</w>
m ones</w>
pi on
Tab la</w>
examin ara</w>
colabor ando</w>
G or
arte factos</w>
con sin</w>
á gil</w>
adop taron</w>
D egr
3. 2</w>
ex hi
Mississi ppi</w>
re yes</w>
prim ario</w>
19 61</w>
imb écil</w>
ad i</w>
I C</w>
reflexion ar</w>
banc ario</w>
H ill
tox icidad</w>
O ro</w>
ar sen
Centro américa</w>
conc edió</w>
US A</w>
diseñ os</w>
imag inación</w>
II .
aument an</w>
S M</w>
J ones</w>
E ast</w>
conven ientes</w>
si túa</w>
Mé dica</w>
garantiz ando</w>
desfavor ecidos</w>
or aciones</w>
g s</w>
so m
CA M
Wis consin</w>
H echos</w>
destac aron</w>
3, 5</w>
tes oro</w>
poder osa</w>
discu siones</w>
Johan nes
fiduci arios</w>
B alcan
B om
banc aria</w>
co alición</w>
ál ogos</w>
14 3</w>
O dio</w>
g li
garantiz ados</w>
S ah
ticu t</w>
F otos</w>
edic to</w>
CO P</w>
M apa</w>
cambi ando</w>
afr o
fronter izos</w>
desarroll ó</w>
Y ou
fáci les</w>
qued en</w>
control ados</w>
Salom ón</w>
de pur
z an
forz ada</w>
cl an
cont abi
R T</w>
om étr
folle to</w>
Norm almente</w>
problem ática</w>
complement ario</w>
agr o
si c</w>
prob abilidades</w>
cónyug es</w>
N inguno</w>
autoriz aciones</w>
arbitr arias</w>
res uci
extre mos</w>
Balcan es</w>
cuadr ado</w>
aseg uro</w>
mor tales</w>
Con ci
v arían</w>
perman ecen</w>
mas co
cost eras</w>
ASE AN</w>
peri fér
C RE
ori ties</w>
helicóp tero</w>
viv ían</w>
En mi
der ías</w>
Connec ticut</w>
CE P
14 4</w>
paci o</w>
agrup aciones</w>
respe te</w>
S ci
Amer ica</w>
tr adicionalmente</w>
Distribu ción</w>
Cap acidad</w>
agr aria</w>
or qu
g et</w>
ex ponen</w>
cónyug e</w>
ch arla</w>
Alg ún</w>
vien es</w>
Im port
vincul ación</w>
C in
naci mientos</w>
inform ático</w>
mat a</w>
ve las</w>
cru zar</w>
Ch e
innov ador</w>
encar go</w>
Má qu
OM I</w>
salv aje</w>
forz adas</w>
13 7</w>
figur aba</w>
entren ador</w>
us tice</w>
tu tela</w>
Sigu iente</w>
E dad</w>
A ra
ORIGIN AL</w>
talib anes</w>
a po</w>
Moham ed</w>
fuer temente</w>
compi lación</w>
d remos</w>
A si</w>
uc ky</w>
4 3
capital ismo</w>
perman encia</w>
án tate</w>
is m</w>
-- --
J E
ne o
inform ativo</w>
diplom áticas</w>
lleg ará</w>
est amente</w>
permitir án</w>
John son</w>
Cons truc
Co mi
l esión</w>
cre encia</w>
lament able</w>
raci ales</w>
20 1</w>
de volver</w>
convenci dos</w>
contr actual</w>
on adas</w>
er las</w>
ampli ada</w>
A V
senci ll
indic aron</w>
domés tico</w>
ti onal</w>
sex y</w>
ad era</w>
J .
n an</w>
sobr es
dispar o</w>
Cat alu
inevi table</w>
mis a</w>
afirm ado</w>
gratu itamente</w>
ri que</w>
recomend ada</w>
qui tar</w>
g ate</w>
pedir le</w>
De f
pre juicios</w>
5 .1</w>
rá ul
Degr ad
enfer mera</w>
pre visión</w>
em an
apl ast
cons pir
ingl esa</w>
g na</w>
descri p
pd f</w>
patr ia</w>
Comis aria</w>
ne tos</w>
18 9</w>
ar buros</w>
Val encia</w>
UN AMI
C FC</w>
direc triz</w>
i éndose</w>
Mu é
rag ón</w>
compar ables</w>
compar able</w>
to s
h ouse</w>
comprim ido</w>
F ant
R I</w>
Catalu ña</w>
neu máticos</w>
H ay
li p</w>
I sab
hi lo</w>
Sub .2</w>
dec enas</w>
CL U
comprend idos</w>
deci dieron</w>
vesti r</w>
ped ida</w>
ofici os</w>
mant equilla</w>
leg e</w>
14 9</w>
g iro</w>
agot ado</w>
J ake</w>
tic s</w>
recom pensa</w>
doc .</w>
Fran ja</w>
Soci alista</w>
recha zó</w>
ed ora</w>
13 ,
at u</w>
secre ta</w>
ac cionar</w>
po n</w>
comenz ará</w>
trabaj aba</w>
Min nes
pi ra
Ci elos</w>
5 0.000</w>
oí dos</w>
at ones</w>
tu bos</w>
car gada</w>
plom o</w>
merc ad
adjudic ación</w>
Id ent
des empleados</w>
cas arse</w>
Establ ecimiento</w>
ten éis</w>
poli s</w>
Bus ca</w>
o ver</w>
m ama</w>
di ariamente</w>
enorm emente</w>
destac ados</w>
constru ida</w>
accion istas</w>
ab sur
inst ante</w>
cre ma</w>
2 º</w>
Fid eicomisos</w>
co erci
justi fica</w>
T ales</w>
mi zación</w>
exc ed
voc ación</w>
pat as</w>
pin turas</w>
despi erta</w>
ER CI
inform ativas</w>
Az ul</w>
urban ización</w>
14 2</w>
exist ían</w>
nu trici
car rito</w>
R ay
su frag
tí an</w>
mentir as</w>
per io</w>
acei tes</w>
Minnes ota</w>
declar ada</w>
B E</w>
indi os</w>
Su él
con tenía</w>
F eli
Ob viamente</w>
a ico</w>
at rev
mil enio</w>
fl ot
as s</w>
A go
lig era</w>
16 2</w>
Environ ment</w>
inmedi atas</w>
CU LO</w>
C T
plac as</w>
guar dan</w>
angu sti
centr ó</w>
contrati sta</w>
A del
15 2</w>
Pi erre</w>
flu or
regres ó</w>
ow n</w>
fi l</w>
c .
D ada</w>
Com mun
reforz ado</w>
cri anza</w>
INFORM ACIÓN</w>
lu m</w>
discre p
neg ó</w>
investig ador</w>
gimn asio</w>
Com pany</w>
e ign</w>
c lic
Gu bern
ap pe
relev ancia</w>
mu seos</w>
K ing
al zado</w>
produci da</w>
at in
desapar ecer</w>
par ro
vis ados</w>
recha za</w>
aplic ados</w>
celebr ando</w>
Sub secretario</w>
ex enciones</w>
En tra</w>
refl ejo</w>
provin ciales</w>
go z
Fern ando</w>
5 3
vi tales</w>
trop icales</w>
aé reos</w>
descubr ió</w>
nú m.</w>
coun try</w>
an io</w>
mis teri
inc au
D oy</w>
cí v
qued arte</w>
ér ico</w>
agu da</w>
sufri mientos</w>
er idad</w>
fa una</w>
Establ ecer</w>
Ruman ía</w>
én dome</w>
am u
liqu idez</w>
a precio</w>
UN AM
on ial</w>
ógen os</w>
in tu
s embr
evid entemente</w>
y un
P it
tom ada</w>
dej ará</w>
res istente</w>
aduan eras</w>
cancel ación</w>
16 6</w>
ac aban</w>
reanud ación</w>
despleg ados</w>
car o</w>
qu et
prest ada</w>
justific ada</w>
Vatic ano</w>
logr a</w>
ic le</w>
est an
contr ola</w>
M L</w>
sh ire</w>
A bre</w>
A gente</w>
ei d</w>
arra ig
contr ab
conced idas</w>
promu even</w>
Mó vil</w>
sustanci almente</w>
Flor encia</w>
ci ón
Ases oramiento</w>
fu ga</w>
e ador</w>
ech ado</w>
Océ ano</w>
25 1</w>
esti mar</w>
Re port</w>
clín ico</w>
Gu i
destru ido</w>
fij an</w>
ordin aria</w>
Cient ífico</w>
recípro ca</w>
desvi ación</w>
Terr eno</w>
Br un
Enfer med
Tranqui lo</w>
Tr aduc
escal eras</w>
tr óp
F PNU
d arnos</w>
O P</w>
competi dores</w>
bañ era</w>
encuentr os</w>
Dis cúl
determin an</w>
equilibr ios</w>
FPNU L</w>
or ina</w>
Dom és
evan gelio</w>
B U
fun cionales</w>
Ad op
suc ediendo</w>
reun idos</w>
gar aje</w>
cam is
preocup e</w>
di óxido</w>
ma y</w>
encu entras</w>
cel ulares</w>
can tante</w>
sonr isa</w>
cor d</w>
mat aron</w>
tr enes</w>
K a
ór bita</w>
do bles</w>
p ones</w>
otorg ado</w>
tr ono</w>
Kan sas</w>
In tra
E T
her s</w>
ol e</w>
Uni on</w>
Con tenido</w>
quer idos</w>
hab erte</w>
singu lar</w>
financi adas</w>
disculp as</w>
almac én</w>
pres cripción</w>
erv os</w>
estad io</w>
segu idos</w>
tem ática</w>
am ba</w>
Ar tes</w>
emo ción</w>
a pres
llev arán</w>
14 7</w>
or ra</w>
H ora</w>
UNI ÓN</w>
Mej ora</w>
R osa</w>
A segur
fantas ma</w>
exces ivamente</w>
lar án</w>
Ab du
produci endo</w>
ocur ri
em at
on ía</w>
Sal vo</w>
est emos</w>
th ese</w>
lan ds</w>
person alidades</w>
con fu
L isa</w>
exten der</w>
den al</w>
Ministr a</w>
repar aciones</w>
ll enos</w>
restric tivas</w>
llev aré</w>
Ori entación</w>
ov as
us ó</w>
españ oles</w>
ag an</w>
comunic ados</w>
re empl
compr ado</w>
Schen gen</w>
au la</w>
ahorr os</w>
K O
V ent
isti eron</w>
tir ar</w>
no vela</w>
profundi zar</w>
man te</w>
arm ario</w>
aument ará</w>
anunci ar</w>
M ostr
cadá ver</w>
benefici an</w>
revel ó</w>
determin e</w>
de trim
tranqui lidad</w>
hu eso</w>
reclu sión</w>
ví deos</w>
Inspec tor</w>
go za</w>
present ando</w>
previ os</w>
AU TORI
est arás</w>
co r</w>
no ble</w>
usu al</w>
pen sas</w>
ev entu
al uc
estí mulo</w>
E liz
sent idos</w>
just os</w>
s era</w>
conoc erte</w>
an ul
Jer em
consider aron</w>
ti smo</w>
pro gr
detal lados</w>
L ES</w>
en osa</w>
ari ana</w>
llev ados</w>
telef ónica</w>
cuar tel</w>
o í</w>
der lo</w>
cocin ar</w>
vac unas</w>
no sotras</w>
ar éis</w>
est arían</w>
Fabr icación</w>
reg al
vin i
Pens aba</w>
PROGRA MA</w>
introduc e</w>
tu aciones</w>
fres cos</w>
lo te</w>
Produc to</w>
ni s</w>
M ay</w>
pi ri
l enta</w>
sustan tiva</w>
mast urb
aport ado</w>
f an</w>
Mo der
k no
fres ca</w>
sof istic
roc k</w>
to ques</w>
a x</w>
seg mento</w>
formul arios</w>
inform ados</w>
end idos</w>
ecológ icos</w>
relat ores</w>
empez aron</w>
A é
US D</w>
oc e
ter cios</w>
pul mon
G as</w>
adi estr
DECI SIÓN</w>
V ac
reemplaz ar</w>
az ol</w>
Res earch</w>
en co</w>
19 66</w>
con fec
transfronter izo</w>
experim ento</w>
M ón
ag er</w>
Le ón</w>
qu is
o w</w>
i que</w>
New s</w>
í r</w>
ta cular</w>
fort una</w>
Novi embre</w>
compr ueb
auto pista</w>
br idge</w>
E F
Car l</w>
lá gr
in admisible</w>
excu sa</w>
tem bl
avanz adas</w>
Autom ó
17 5</w>
sust ent
p ent
Pr áctica</w>
Últi ma</w>
sal idas</w>
a j</w>
contempl ada</w>
plas ma</w>
tas eme</w>
analiz a</w>
Perdon a</w>
arr estado</w>
implic ados</w>
Gonz á
comun ista</w>
Mars hall</w>
Estu vo</w>
just amente</w>
Recon oc
Form ul
C ór
ác tico</w>
em pec
ov ejas</w>
nu be</w>
mu tilación</w>
comport amientos</w>
hall an</w>
S p
indispens ables</w>
us es</w>
an uncia</w>
A pri
Ari zona</w>
L AN
con lleva</w>
pl aguici
MI ENTO</w>
Con viene</w>
colon ial</w>
con fund
aliz ador</w>
revolucion ario</w>
Johannes burgo</w>
Gi br
4. 3</w>
an tí
Solici ta</w>
19 63</w>
Tex t</w>
extraju diciales</w>
Ven ecia</w>
ven de</w>
prepar atoria</w>
espon tán
descri tos</w>
Se an</w>
enci ado</w>
camin ando</w>
Gonzá lez</w>
B il
rest ante</w>
z a
N U</w>
F recu
1, 2</w>
cri atura</w>
ru ega</w>
po ur</w>
Observ ador</w>
L isto</w>
convi erten</w>
M all
ar gentina</w>
r atas</w>
figur ar</w>
cir cul
Con cord
pre ocuparse</w>
P ob
preci osas</w>
D al
ou t
odi fusión</w>
dedic ar</w>
ter no</w>
t ac
gr asas</w>
escuch ó</w>
T F
académ ica</w>
L ogr
enfrent amientos</w>
l esa</w>
Sír vase</w>
avi er</w>
Bob by</w>
lí mp
detrim ento</w>
irregu laridades</w>
des pe
Sim on</w>
Vic ente</w>
tari ado</w>
Restaur antes</w>
democrati zación</w>
Al an</w>
con tenga</w>
Com mon
es pl
ad d
lesbi anas</w>
R ab
hid rául
ch imen
pr incesa</w>
X VIII</w>
Reg lamentos</w>
P enas</w>
subsidi ariedad</w>
vál idos</w>
ni g
fir mas</w>
empres ario</w>
milagr o</w>
Clar k</w>
ás tima</w>
redac tar</w>
Amer icana</w>
fal sos</w>
Pl aya</w>
obed ece</w>
presid ido</w>
cerr ados</w>
re medio</w>
helicóp teros</w>
tes or
conven cer</w>
V it
L B</w>
plu ma</w>
atent ado</w>
volvi eron</w>
much ísimo</w>
oport unas</w>
ap h
afir maron</w>
Wh it
T emas</w>
co l</w>
e ira</w>
ru tin
bo de
ex acto</w>
pas aje</w>
inci tación</w>
w i
cre denciales</w>
PO SI
14 8</w>
incorpor a</w>
i limitado</w>
ac aso</w>
tempor ario</w>
sor prende</w>
exhaus tivo</w>
Sam oa</w>
qui mi
Crédi to</w>
presupuest ación</w>
lar a</w>
gig ante</w>
envi aron</w>
típ ico</w>
embal aje</w>
portugu és</w>
liban és</w>
dedic an</w>
g ab
ve y</w>
g h</w>
s ing</w>
toc ante</w>
tro poli
es caso</w>
ren u
I z
tar des</w>
es cond
dul ces</w>
rec ar
respon da</w>
quí voc
Signi fica</w>
ven ía</w>
cord ing</w>
5. 2</w>
o pi
semej antes</w>
ib as</w>
Preci o</w>
cent en
nac er</w>
recib o</w>
mu s</w>
CE PE</w>
ine quívoc
Test amentos</w>
tw o</w>
obten erse</w>
Deb ate</w>
Provin cia</w>
des liz
ar rea</w>
partid arios</w>
Domés tica</w>
A pl
r ama</w>
desapar eció</w>
2. 3</w>
ca os</w>
Ob is
Col abor
cri aturas</w>
En cargado</w>
I ED</w>
16 5</w>
conden as</w>
é ni
imp actos</w>
fi las</w>
creci do</w>
combin ar</w>
ten encia</w>
t ana</w>
aclar aciones</w>
t ablemente</w>
El ena</w>
o presión</w>
qui énes</w>
mal v
adelan tos</w>
Con federación</w>
garantiz ada</w>
Equi pos</w>
Desas tres</w>
2 35</w>
gener an</w>
Señ orita</w>
equivoc ada</w>
por no</w>
tur co</w>
Mej orar</w>
sep as</w>
cal cu
M az
prof eta</w>
respon den</w>
L ínea</w>
fal sas</w>
í ces</w>
c aj
OR G
B ast
gust ó</w>
Ex posición</w>
Efec tos</w>
F U
asci enden</w>
Rach el</w>
atribu ye</w>
denunci ar</w>
ár amos</w>
s ír
t y
Fo und
is tirá</w>
N .
ser ias</w>
experim entos</w>
5 4
prolon gado</w>
franc esas</w>
estad ístico</w>
aliment arios</w>
pu a</w>
Cal endario</w>
al b
hi e</w>
radi o
O fer
Democ racia</w>
B ar</w>
re asentamiento</w>
juven iles</w>
Món aco</w>
erg ia</w>
integr an</w>
V enta</w>
reci nto</w>
ci tados</w>
contrat antes</w>
Dici embre</w>
recha zado</w>
dis cul
C alidad</w>
nu bes</w>
ad me</w>
casti gos</w>
inter activo</w>
satisf echo</w>
dorm ido</w>
calific aciones</w>
Neces ita</w>
co dificación</w>
w ar
bel ga</w>
sab ilidad</w>
ev olu
t anos</w>
impl íci
deriv ado</w>
B hu
asc enso</w>
elimin ado</w>
Qu í
m ales</w>
comprome ter
der as</w>
ol ismo</w>
p ino</w>
forz oso</w>
des em
par ques</w>
Wood s</w>
pose er</w>
deriv ada</w>
ll or
Eur o</w>
ti on
can o</w>
borrac ho</w>
consuetudin ario</w>
Apel ación</w>
tar los</w>
preci s
2 70</w>
es pes
T all
fin alizado</w>
L il
E ll
si én
convoc adas</w>
Gibr altar</w>
CC I</w>
Prob ate</w>
ti z
par ientes</w>
ad os
SO CI
cre aron</w>
rob ado</w>
dispar ó</w>
congel ación</w>
Her mano</w>
bal as</w>
ami ly</w>
japon esas</w>
Lor d</w>
Am bas</w>
Natur aleza</w>
E ar
pred eces
su las</w>
17 2</w>
vice presidente</w>
pa sivos</w>
az as</w>
In te
Ra íces</w>
interrumpi r</w>
dis pu
defec tos</w>
bi t</w>
ci erra</w>
cután ea</w>
mencion an</w>
urg entemente</w>
cas es</w>
eval ú
H us
DU CCIÓN</w>
docu mental</w>
T ir
ocur ra</w>
trim estr
rec tor</w>
K on
14 ,
respe ta</w>
integr arse</w>
Re public</w>
ell i</w>
Ar ri
ta ken</w>
Can arias</w>
celebr arse</w>
N az
ps ic
par lamentos</w>
sindic ato</w>
proyec ciones</w>
n al
Au xili
llam aré</w>
k h
Mar yland</w>
ement s</w>
san ta</w>
cannab is</w>
E D
par ezca</w>
Art hur</w>
K im
tom amos</w>
com pasión</w>
Ul traterrestre</w>
pas ados</w>
conec tados</w>
estú pida</w>
escal era</w>
15 4</w>
anti r
A ni
ed ra</w>
Enseñ anza</w>
desempeñ ando</w>
mex icano</w>
inst antán
supl emento</w>
H amp
genit al</w>
especi alista</w>
Estratég ico</w>
19 50</w>
Sub s
may orit
re tribu
o pone</w>
PO L
sim b
menos cab
O cho</w>
prud ente</w>
transmi tido</w>
sal to</w>
Pe tr
COM ERCI
ot s</w>
Ex acto</w>
And aluc
extraordin arias</w>
O límp
di ligencia</w>
Tr atos</w>
L eo</w>
Wil son</w>
ri e</w>
es co</w>
Medi os</w>
matric ul
An unci
pun tuación</w>
emplaz amiento</w>
contrat ado</w>
tr amar</w>
le yendo</w>
competi tivo</w>
Ma terial</w>
Pers onales</w>
val idación</w>
clás ica</w>
ch es</w>
La ura</w>
14 6</w>
forz ado</w>
Col lege</w>
pre curs
veget al</w>
ho se</w>
2 40</w>
ed om</w>
AR TÍ
insu mos</w>
Ex ac
In humanos</w>
T echnolog
direc torio</w>
hidroc arburos</w>
ansi edad</w>
Contribu ción</w>
exc av
liter almente</w>
15 ,
ampli tud</w>
í graf
orden adores</w>
15 8</w>
fir maron</w>
tan me</w>
err og
loc alidades</w>
r íg
T elev
SE GU
M ario</w>
fl ora</w>
A s</w>
hur ac
Reg la</w>
s acu
inyec table</w>
a prueb
Lon don</w>
CAP Í
X VII</w>
remi te</w>
Pro v
sub terrán
Trans nacional</w>
A migo</w>
Ital i
cl ari
us ada</w>
Jo der</w>
facili tó</w>
st at</w>
experim entales</w>
d .</w>
ten se</w>
des graci
tras cend
an ca</w>
ic on
fá bricas</w>
diplom ático</w>
ó c
y ch
Gr and</w>
cu a</w>
pi ano</w>
K ate</w>
investig ando</w>
Patr imonio</w>
socio económicos</w>
conduc tores</w>
Er an</w>
enam orado</w>
pu er
ér gica</w>
fid uciario</w>
equip adas</w>
cam isa</w>
fil tro</w>
Ay er</w>
Consider amos</w>
Perfec to</w>
18 5</w>
provin cial</w>
he tes</w>
po so</w>
estatu tos</w>
t emp
prim o</w>
CAPÍ TULO</w>
And y</w>
mercanc ía</w>
acor de</w>
Imag en</w>
d al</w>
civiliz aciones</w>
G a
apell ido</w>
continú en</w>
tribu s</w>
G H
F all
A ir</w>
Cuán tas</w>
cr ía</w>
Mot or</w>
di es</w>
aten u
bas s
fortal eciendo</w>
pa y
ab out</w>
0 9.
cont estar</w>
prorr at
J erry</w>
CEDE AO</w>
depor tivas</w>
Nu evas</w>
blanc as</w>
form ada</w>
r on</w>
Mun diales</w>
w here</w>
c ed
I D</w>
europa .
ambu l</w>
es pu
Ro dr
lam entación</w>
di etas</w>
cad en
L LO</w>
pi entes</w>
un da</w>
cu bano</w>
bo x
rec tific
j es</w>
1. 3</w>
G B</w>
van guardia</w>
19 0</w>
Rev isión</w>
Log ística</w>
sufri endo</w>
U su
confes ión</w>
not ablemente</w>
mar es</w>
ab ul
es parci
cor reos</w>
ch al
I g
fr eno</w>
ocup ante</w>
Patr ick</w>
salvaguar dia</w>
co ordenadas</w>
bo ur
tan que</w>
pedag óg
psiqui átr
pel ota</w>
N ob
7 50</w>
cor ona</w>
transmi tir
K ent
aboli ción</w>
Inter institucional</w>
hon esto</w>
leg ado</w>
col ina</w>
Soci ety</w>
nombr ados</w>
contex tos</w>
privileg ios</w>
acep tadas</w>
19 51</w>
z i</w>
r in
divor ci
inclu yeron</w>
fl agr
académ icas</w>
encontr arás</w>
Im perio</w>
Found ation</w>
Gre en
perd ida</w>
utiliz aron</w>
V egas</w>
Scho ol</w>
of fic
ba g</w>
mejor e</w>
lev e</w>
ver es</w>
c erci
1. 4.
ileg almente</w>
pesqu ero</w>
d amas</w>
letr ada</w>
catástrof e</w>
Si ete</w>
trá mites</w>
ser lo</w>
pregun taba</w>
implem entar</w>
K ur
I ba</w>
ded or</w>
Exac tamente</w>
c ement
Pa pua</w>
compr adores</w>
des colonización</w>
retir arse</w>
er les</w>
re fuer
im par
Est ambul</w>
DES AR
al fom
su man</w>
I E</w>
fruc tí
H izo</w>
í ais</w>
entr aron</w>
A partamentos</w>
deten idamente</w>
cu alidades</w>
admis ibles</w>
transmi tió</w>
solici ten</w>
comple tas</w>
tran se
invent arios</w>
jo yas</w>
celebr an</w>
00 1</w>
gri ega</w>
E d</w>
medi ciones</w>
Dak ar</w>
cerebr al</w>
reh enes</w>
s .
im pre
ir los</w>
creci entes</w>
Raci smo</w>
20 3</w>
gust e</w>
pan di
P é
Sat anás</w>
deleg ado</w>
comerci antes</w>
Ph il
Defin i
Z A</w>
fum adores</w>
o o</w>
th roug
OD M</w>
le al</w>
Caracter ísticas</w>
palest inas</w>
empr en
Degrad antes</w>
sur ge</w>
Bud ap
MINU R
at re
regul an</w>
jer inga</w>
ár selo</w>
co a</w>
cu st
co incidencia</w>
Bi g</w>
dispon ía</w>
Gab ón</w>
17 8</w>
el amente</w>
surg ir</w>
reg ener
S U</w>
exag er
Recu per
concer tados</w>
jurisdic ciones</w>
on c
der os</w>
int encion
admi te</w>
Qued an</w>
pro mis
interrog atorio</w>
hí br
2 30</w>
ejer cer
Natur almente</w>
convi erta</w>
liber al</w>
Vivien da</w>
En t
Intra Text</w>
el idad</w>
Concord ancias</w>
Ah med</w>
ju stas</w>
com pone</w>
au sto</w>
H ill</w>
av al
sép tima</w>
só tano</w>
SI L</w>
mascul ino</w>
proyec ción</w>
al ity</w>
Sigu iendo</w>
Pot encias</w>
histór icas</w>
tr ope
oun g</w>
org ánicas</w>
control adas</w>
Rodr ígu
Jehov ah</w>
lác teos</w>
co eficiente</w>
abili ty</w>
w ich</w>
Nom br
ab raz
restaur ar</w>
IN TRO
Con venci
t apa</w>
penetr ación</w>
ri lla</w>
hospi tal
renov ar</w>
Anu al</w>
rom pe</w>
í d</w>
20 6</w>
Cur so</w>
Le i</w>
ocul tar</w>
her ine</w>
Or todoxa</w>
ofici oso</w>
16 7</w>
ob tienen</w>
cons or
oc es</w>
pro viene</w>
X IV</w>
distribu ye</w>
parlament arias</w>
gast e</w>
19 65</w>
É se</w>
socio económica</w>
sindic ales</w>
T ak
h adas</w>
testimon ios</w>
endi endo</w>
F oto
preci sos</w>
revel ado</w>
mi to</w>
as isten</w>
implic aciones</w>
com posi
atent amente</w>
S L
s k</w>
Cons ejos</w>
mus icales</w>
Bi ológica</w>
inform ada</w>
ami gas</w>
Ken n
adelan tado</w>
pon ible</w>
H ogar</w>
CA D</w>
Boli vari
esti los</w>
salv ador
A puesto</w>
ac hi
patrocin ado</w>
fabeti smo</w>
Afr icano</w>
per fusión</w>
res s</w>
m on</w>
tum or</w>
j ab
form ales</w>
Gol án</w>
Automó viles</w>
mono po
ig e</w>
19 2</w>
juz gado</w>
E du
ayud en</w>
logr arse</w>
po pul
rode ado</w>
Ac t</w>
im primir</w>
Entr ada</w>
concentr ado</w>
O TR
Rodrígu ez</w>
discrimin atorio</w>
ac ús
fi ed</w>
0 4
b ed</w>
vin iendo</w>
nev era</w>
inflam ación</w>
bur y</w>
S ali
pad ecen</w>
M ES</w>
R ock</w>
contrab ando</w>
ad vir
UNI TAR</w>
ob e
contribu yentes</w>
M C</w>
Chr isto
rec a
S tr
Ambi ental</w>
perd í</w>
comprometi da</w>
alter aciones</w>
S ir
utiliz arán</w>
os s</w>
pi to</w>
propor cional</w>
l yn</w>
th em</w>
sub st
soci alista</w>
B ay</w>
red und
prepar arse</w>
am in
espec tacular</w>
Budap est</w>
ciudad ana</w>
si de</w>
Th is</w>
Jo urnal</w>
cas ada</w>
t és</w>
ér citos</w>
de ton
tan ques</w>
N .</w>
Jun e</w>
cu ente</w>
A pertura</w>
alu dismo</w>
revel ar</w>
pol i</w>
esti r
barr era</w>
porcent ajes</w>
min tiendo</w>
O port
Aut ón
D C
can a</w>
abord an</w>
Fl ores</w>
pati tis</w>
Ro se</w>
6 8
ol vide</w>
in hal
naran ja</w>
con gol
comenz ando</w>
P ho
19 64</w>
tor ado</w>
contr arrestar</w>
cal cio</w>
mul tas</w>
oper ativas</w>
cuali ficados</w>
in discrimin
bi otecnología</w>
reglament aciones</w>
ol la</w>
Coment arios</w>
TI TU
v asos</w>
Bos ques</w>
ID B.
á jate</w>
hor arios</w>
al tad</w>
dipu tado</w>
proced en</w>
hel ado</w>
en su
G ust
super ado</w>
miner al</w>
enti enden</w>
devel opment</w>
Reg lamentación</w>
v as
complem enta</w>
jurisdic cional</w>
N el
ins istir</w>
transfronter izas</w>
dict adura</w>
milici as</w>
nu mero</w>
hubier as</w>
ti cia</w>
mal dición</w>
Rog er</w>
mercen arios</w>
levant amiento</w>
f asci
[...]
