#version: 0.2
i n
o s</w>
t a
r i
p a
e n
a l
i k
i m
a m
s i
a n
s t
a s</w>
a u
a i
a r
u o
t i</w>
a i</w>
i r</w>
r e
i s</w>
o m
a t
r o
k i
u s</w>
v i
ė s</w>
t e
i j
o n
o j
l i
t in
s u
v e
č i
k u
n e
p ri
in i
im o</w>
r a
t ų</w>
i e
n u
o r
t u
y b
s ta
t o</w>
c ij
k a
i š
g al
e k
e r
a v
uo t
e m
2 0
t y
d ė
ž i
a p
s n
en d
e i
s k
d i
ta s</w>
ar b
r in
t o
st r
ku ri
t ik
d y
b ū
m e
r a</w>
q uot
quot ;</w>
& quot;</w>
l a
ė j
g i
s p
a u</w>
ka d</w>
d al
ai p
u n
v al
d ži
p ro
str aip
m a
š i
si j
m o</w>
p i
t a</w>
straip sn
s e</w>
e l
20 0
l am
o k
s u</w>
an t</w>
t i
lam en
c i
oj e</w>
dė l</w>
t r
i s
ve ik
y ra</w>
im as</w>
k l
a k
i ų</w>
am a</w>
pa g
tu r
ta r
ta i</w>
ai s</w>
m en
arb a</w>
t os</w>
i o</w>
te ik
g os</w>
j e</w>
au d
t ą</w>
m s</w>
p o
s ki
a r</w>
re ik
ai p</w>
u k
g lamen
m .</w>
b u
l y
j ų</w>
om i
e i</w>
u ro
g y
ie s</w>
i š</w>
v ar
pri e
k o
cij os</w>
la ik
v y
v o</w>
p os</w>
E uro
nu sta
ini ų</w>
t is</w>
d ar
& #
&# 9
g r
st yb
s l
ta ik
n a
a l</w>
vi s
u ž
@ -
@- @</w>
v a
ri j
k aip</w>
sk ai
m in
u i</w>
k on
ve r
t oj
r an
p ra
im ą</w>
K omi
am as</w>
Euro pos</w>
d e
d in
E B</w>
au g
ski r
Komi sij
bū ti</w>
s av
p e
uo j
val styb
20 1
t e</w>
n aud
n uo
re k
u m
r .</w>
an či
t u</w>
e s</w>
vi r
vi en
m ok
ū r
pa r
k ai</w>
s i</w>
tin k
t us</w>
au j
at i
b end
š al
i e</w>
f or
p er
em on
yb os</w>
d o
N r.</w>
y je</w>
re glamen
vi e
u si
ą j
pri emon
pag al</w>
ri m
gy v
am s</w>
c h
bu vo</w>
al i
st i
gal i</w>
nusta ty
ž in
om is</w>
m on
in ės</w>
p l
pa k
b i
ro dy
pa si
ij os</w>
at si
om s</w>
t ie
straipsn io</w>
n ar
ini o</w>
e s
au si
pa teik
te is
r end
s ą
d uo
y ti</w>
ta i
in g
R e
d .</w>
am os</w>
y m
tur i</w>
ku r
l ei
e li
au s</w>
ž ve
au s
cij a</w>
in k
tai p</w>
pi r
au k
y s</w>
o l
ė tų</w>
o g
am i</w>
d o</w>
d arb
b e
ra š
i a</w>
rin k
re i
nu rody
am e</w>
uo se</w>
a g
v ai
či ų</w>
nu o</w>
l ai
. .
d uk
sp rend
en g
un k
T ar
ly g
av imo</w>
vy k
om a</w>
l ik
ąj un
ty v
reik al
ap ie</w>
ri ų</w>
žve l
gal im
an k
a s
st i</w>
ati tink
su si
pro duk
S ąjun
rij os</w>
straipsn is</w>
3 ;</w>
&#9 3;</w>
ė m
1 ;</w>
&#9 1;</w>
in for
g am
k ar
n e</w>
gal i
tik rin
pa t
i l
om as</w>
an d
in ti</w>
u o</w>
E S</w>
s ak
dal ies</w>
j o</w>
d u
ini ai</w>
si st
bū tų</w>
in an
atsi žvel
sti tu
su sij
ij a</w>
m at
a m</w>
an g
im ų</w>
si os</w>
1 9
ų jų</w>
k om
sav o</w>
š k
li ų</w>
ta is</w>
sp or
i z
sist em
p unk
či au</w>
infor ma
Komisij os</w>
d au
naud oj
ta n
d a</w>
B end
kl aus
g e
e š
ei g
sk y
te r
pa t</w>
e ki
pe r</w>
d as</w>
m i
ė ms</w>
in stitu
p o</w>
u mo</w>
ėj e</w>
j ek
vir tin
j os</w>
m an
to ki
Re glamen
o ri
s ų</w>
im ai</w>
uo ti</w>
a b
Sąjun gos</w>
rek tyv
im us</w>
pak ei
f inan
p ran
di en
t ies</w>
an tis</w>
ta is
ik i</w>
pa s
R I
t į</w>
u r
r y
u l
t ro
ti k</w>
c en
0 0</w>
o se</w>
s v
in imo</w>
t en
ėj o</w>
į si
ma ž
c e
Tar ybos</w>
m as</w>
p or
u ž</w>
be t</w>
m ė
s aug
d ama</w>
tur ėtų</w>
o sios</w>
j i</w>
ūr os</w>
iš k
gyv end
oj o</w>
g an
duo men
n or
d r
p .</w>
b ei</w>
dži o</w>
ki ek
y mo</w>
at ve
tar p
li o</w>
P ar
e g
o ti</w>
in is</w>
O L</w>
cij ą</w>
ver tin
cij ų</w>
gal b
valstyb ės</w>
Komisij a</w>
tin i
f i
1 0</w>
pran eš
r ū
veik l
m a</w>
p r
p re
y v
už tikrin
am ų</w>
d u</w>
kuri ų</w>
f ik
a d
I N
m ą</w>
k eli
susij usi
ta l
re gi
st e
m ų</w>
ta ri
atve j
O S</w>
pa galb
pat virtin
į gyvend
n auj
j u
pa ž
tik sl
un g
li au</w>
sta n
A S</w>
pi l
j ei</w>
tin g
tik r
d om
te k
tin ės</w>
ū n
reikal av
to ri
im u</w>
u s
d er
me dži
ė se</w>
l in
bend r
ta m</w>
m o
atsižvel g
li e
dau gi
pag rin
k al
galim a</w>
nuo sta
g au
b al
veik s
laik o
gali oj
ši o</w>
st o</w>
o ki
nar ės</w>
au gos</w>
i r
į sta
l o
su teik
in ė</w>
pa rei
tr auk
spor to</w>
on al
dy mo</w>
l e
y kl
ri z
į mon
t var
P a
N e
dal yje</w>
ė ti</w>
ėm is</w>
d ų</w>
re či
d a
m u
z i
su dar
eig u</w>
ka in
kuri e</w>
či o</w>
nu mat
tr an
or gan
parei g
ver t
d e</w>
pa sl
ci ali
reik ia</w>
ini us</w>
d el
em s</w>
b us</w>
ę s</w>
p rek
finan s
po li
kuri os</w>
skai či
ty rim
si s</w>
b r
s pa
reglamen to</w>
si eki
19 9
ž em
yb ės</w>
1 2</w>
su tar
pri im
I I</w>
D i
pra š
im por
y pa
1 0
ch n
ū sų</w>
s o
Par lamen
a cijos</w>
am ai</w>
s ek
ū s</w>
g a</w>
ik os</w>
t ri
v ė
a si</w>
są lyg
Š i
li ek
ši ų</w>
ro v
priemon ės</w>
u p
P ri
reglamen tas</w>
t im
di r
ri o</w>
di de
dy ti</w>
di rektyv
pro gr
dal į</w>
t ra
po veik
t uoj
im e</w>
dal is</w>
organ iz
2 0</w>
ci onal
as men
tvar k
taik om
me tu</w>
ė ra</w>
E U
ro d
k e
s an
in te
st o
S u
sv arb
Reglamen to</w>
ai šk
am ą</w>
te chn
t om
on om
.. .</w>
priemon ių</w>
te ri
ty je</w>
tan t</w>
la b
uot oj
k ri
ta ms</w>
Bend rijos</w>
E N
j is</w>
s augos</w>
ta rim
r u
a ta
s ri
pa sk
ne i</w>
anči ų</w>
ek onom
ap i
I n
l ės</w>
ci al
p en
200 6</w>
ang i</w>
d ą</w>
pa dar
1 1</w>
k ei
sp e
daugi au</w>
en er
ty s</w>
Š is</w>
s a
u d
k omi
im ui</w>
c in
ypa č</w>
b ai
tin ių</w>
bū tin
at sak
var toj
li ai</w>
dė j
pro ce
A t
n ėra</w>
pa na
to liau</w>
gam in
n i
pri e</w>
re z
pa l
ci en
na cional
ka d
lei d
sn is</w>
v imo</w>
V al
A R
gi ant</w>
ku men
r eng
teis ės</w>
dir b
na rių</w>
yb a</w>
te i
g in
st a</w>
tie ms</w>
pasl aug
E EB</w>
sky r
k as</w>
I M
tie si
3 0</w>
ki ų</w>
numat y
pa pil
ie ms</w>
T a
k el
kiek vien
br ė
sta s</w>
ki o</w>
į skai
do kumen
komi te
ski ri
g er
T o
T ai</w>
oj i</w>
nustaty ti</w>
su b
ši os</w>
ki l
at lik
tais ykl
lab ai</w>
pa dė
medži ag
200 7</w>
v en
m ės</w>
m ai
atsižvelg dama</w>
proce d
200 4</w>
ne s</w>
o s
g u
g ų</w>
pro jek
at liek
įskai tant</w>
ri b
vi ų</w>
taik omas</w>
h i
st ra
J ei</w>
str uk
t oje</w>
in ę</w>
in o</w>
kon tro
vi du
do v
tran sporto</w>
um as</w>
kuri s</w>
gyv en
ti r
m e</w>
st ų</w>
valstyb ių</w>
ta u
prie de</w>
200 5</w>
ki te</w>
1 5</w>
vis ų</w>
and en
u os</w>
darb o</w>
iš lai
b an
skyr us</w>
min ink
I S
ma žin
b l
m os</w>
tin is</w>
kad angi</w>
ol og
at eg
j ie</w>
s er
d ar</w>
tar pi
ū ly
lei dži
in į</w>
um ą</w>
P RI
g rin
in ink
sieki ant</w>
pl ė
kur i</w>
tu v
pri klaus
či ai</w>
Parlamen to</w>
1 2
ata skai
prie š</w>
me tų</w>
d av
kal b
m us</w>
s e
d en
200 9</w>
tin io</w>
laiko tarpi
produk tų</w>
či a</w>
gr up
eli o</w>
5 0</w>
iš skyrus</w>
atvej u</w>
bend ra
straipsn yje</w>
poli tik
t ū
ste b
m ini
V i
d os</w>
ž mon
0 0
pri val
ėj imo</w>
k re
p rin
.. ..
re s
Di rektyv
dal yv
e t
si ų</w>
pe ten
t reči
el b
1 4</w>
informa cija</w>
an t
j eigu</w>
i ai</w>
gamin toj
g ar
te l
200 8</w>
To dėl</w>
k ok
pareig oj
brė ž
š į</w>
sprend imas</w>
k r
K i
var to
do z
duomen ų</w>
ki tų</w>
da ž
el ek
rink os</w>
y st
ei s
R E
a j
ve ž
pl an
susi tarim
regi on
1 3</w>
įsta i
galim yb
l ė
darb i
pasi ūly
veikl os</w>
pa di
mu i
o fi
sta b
s veik
užtikrin ti</w>
3 1</w>
a ik
gr uo
sistem os</w>
b e</w>
gyv ūn
prie do</w>
a z
į trauk
v anden
B A
me to
200 3</w>
gi ai</w>
vi l
kom peten
1 6</w>
d amas</w>
stan dar
min g
I J
v o
s ė
A š</w>
in a</w>
cij as</w>
k ą</w>
tu i</w>
naud o
nuo mon
en k
ū kio</w>
ym as</w>
A T
R O
tin ė</w>
P ir
ko l
pagalb os</w>
ini u</w>
ali z
institu cijos</w>
l ink
ri ai</w>
in ve
bendra darbi
gruo džio</w>
g en
ul ta
pa skir
2 5</w>
straipsn į</w>
iš kai</w>
kon kur
mė ne
re mi
šal ių</w>
s o</w>
ausi a</w>
l ap
nustaty ta</w>
d ami</w>
pa cien
y k
at os</w>
kuri uo</w>
va din
201 3</w>
po zi
at o</w>
atitink a</w>
P ag
dau g</w>
am on
vir š
p u
atsižvel giant</w>
su l
rez ulta
1 8</w>
anči os</w>
y l
man o</w>
naud oti</w>
gy dy
av imas</w>
e sn
tu rin
g ijos</w>
T aip</w>
or o</w>
am o</w>
ma ži
ž u
ap saugos</w>
pa j
A M
j ung
V is
a š</w>
u si</w>
ū k
d ai</w>
f on
B e</w>
to k
z on
pateik ti</w>
mok es
ri k
š is</w>
j o
ri mo</w>
s im
kei či
di del
žem ės</w>
vi d
iš mok
impor to</w>
įsi pareigoj
ly gi
ausi ai</w>
me s</w>
ė g
m g</w>
j au</w>
d ek
t imo</w>
2 1</w>
d am
ki a</w>
tiesi o
kar tu</w>
g av
Ta čiau</w>
u b
š kai</w>
ti fik
A L
au ti</w>
s en
vi si
su n
priemon es</w>
bai g
j į</w>
ap link
ri s</w>
ne pa
va ik
in ter
gr ą
si us</w>
prie ži
api brėž
auk š
k š
m ai</w>
di dži
en kl
g i</w>
201 1</w>
to dėl</w>
į ran
s ku
en o</w>
1 7</w>
į vertin
są raš
ei d
tari mo</w>
in am
informa cijos</w>
o li
ap im
K O
z dži
E E
re išk
bi r
b en
t ės</w>
rij a</w>
k la
t uose</w>
1 3
d em
sek tori
pateik i
informa ciją</w>
s ik
cij ai</w>
na grin
dien ą</w>
pr amon
j au
ru g
in es</w>
A n
g n
ini ais</w>
taik oma</w>
vie š
ym ą</w>
a sis</w>
ri e
b ank
uo men
BA R</w>
2 4</w>
pa žin
reik š
bir ž
lai v
punk te</w>
ch em
P A
y n
n en
m ūsų</w>
ta v
Val styb
ek spor
ri us</w>
ij ų</w>
va dov
d avimo</w>
2 2</w>
ofi ciali
prek ybos</w>
ij ą</w>
t on
įgyvend in
tr os</w>
ausi o</w>
p ie
cen tr
įgyvend inimo</w>
201 0</w>
T eis
I K
kur į</w>
ie k
kuri ą</w>
pagrin d
in f
J ung
J eigu</w>
dide sn
kuri uos</w>
pa pra
o z
d ab
papil dom
dė ti</w>
m og
bend ro
S p
pir minink
n .</w>
g ra
pask elb
ž o
l is</w>
dži os</w>
pro c
J is</w>
1 9</w>
tarp tau
sub jek
I š
EU R</w>
ati tik
N or
Komisij ai</w>
i u</w>
tie k</w>
I S</w>
tar p</w>
mok sl
pir m
pa tikrin
sto v
reikalav imus</w>
gu li
ap saug
ąj ą</w>
pa vy
uoj a</w>
toj ų</w>
im s</w>
sta i</w>
201 2</w>
ūr ą</w>
ki eki
būtin a</w>
su dė
padar y
pak ank
201 4</w>
tu o</w>
grą žin
o n</w>
E C
tin kl
i us</w>
P ro
ij oje</w>
bend rov
t ė</w>
t omis</w>
š vie
s am
d aug
om e</w>
įsi galioj
t ūros</w>
remi antis</w>
g ai
į vai
rij oje</w>
ž e
at ori
K ar
vis as</w>
laiko tarp
re guli
nurody ta</w>
gau ti</w>
bal an
į reng
200 2</w>
g rei
st eig
spe ciali
ši uo</w>
v oj
2 3</w>
regi str
toj as</w>
2 8</w>
teik i
paslaug ų</w>
ini ams</w>
tiesio giai</w>
į raš
S usi
kr auj
M a
Sp rend
reglamen tą</w>
uot a</w>
l o</w>
su mažin
birž elio</w>
re m
pa či
om end
ing a</w>
EE E</w>
ta m
di to</w>
taik yti</w>
an ti</w>
kuri o</w>
1 7
IJ A</w>
l en
li us</w>
K on
ši ą</w>
T e
laik om
sta ty
at s
dži ų</w>
ad mini
val dymo</w>
iš tek
dr aud
1 4
pir ma</w>
gal ėtų</w>
au ki
1 8
var du</w>
E D
p la
tar n
o si</w>
ro do</w>
a gos</w>
sij os</w>
pas au
ž mog
komite to</w>
ū ra</w>
Su tar
skir ti</w>
d ik
B e
so cial
tu rim
ta čiau</w>
ka pi
pas ku
Direktyv os</w>
nor s</w>
2 9</w>
prin ci
p on
ki ai</w>
1 5
pana ik
vid aus</w>
darb uotoj
dal y
gam ybos</w>
taikom os</w>
į vyk
A u
žve j
e st
ud že
I II</w>
ž ai
f ak
taik ymo</w>
tin a</w>
m ie
si en
sudar o</w>
kuri ems</w>
či us</w>
s ausio</w>
K aip</w>
sprend imo</w>
a cija</w>
pagrin din
S T
vien as</w>
sk at
pag r
R A
L i
ener gijos</w>
k am
im is</w>
tyrim ų</w>
j oki
ter min
pir k
dien os</w>
el yje</w>
D ė
mai sto</w>
ge ri
f unk
sistem a</w>
su der
k ry
200 1</w>
teri to
Pag al</w>
daž n
eng ti</w>
v os</w>
si u</w>
a c
d amos</w>
pa vadin
ap skaiči
EU RO
d is</w>
f e
t .</w>
inve sti
n o</w>
I R</w>
yb ai</w>
ta k
k rei
t oms</w>
B ri
inte res
ma n</w>
min ė
s m
medži agos</w>
pakei či
vien ą</w>
1 00</w>
1 6
A r</w>
lie pos</w>
at e</w>
ub lik
EURO P
pa straip
k reči
rek omend
medžiag ų</w>
im i</w>
atvej ais</w>
pa s</w>
d ant</w>
K ai</w>
r au
2 7</w>
S P
an tys</w>
sp ublik
ne buvo</w>
ing o</w>
su k
K o
pe ra
pasi ek
st y
t virtin
ne gali</w>
t uo
kil mės</w>
bl em
pi lie
EUROP OS</w>
bi udže
me tus</w>
vie tos</w>
av o</w>
k ateg
2 6</w>
ž enkl
kiek is</w>
o si
ąj į</w>
ju os</w>
st ik
prieži ūros</w>
uoj ama</w>
toj o</w>
yb ė</w>
cen tra
proc es
f er
auj a</w>
ži ūr
d at
st ą</w>
kar tą</w>
Re spublik
M an
EN D
o b
pa sak
paž ym
p ini
p el
dži ai</w>
Valstyb ės</w>
maži au</w>
d us</w>
val džios</w>
ta b
sp ek
ma s
200 0</w>
si ek
sav ai
veiks mų</w>
atlik ti</w>
v is</w>
san do
sri tyje</w>
valstyb ėse</w>
kon centra
politik os</w>
re iš
uo š
šal ies</w>
pro blem
at skir
I š</w>
p v
tr uk
at stov
vai z
yst ės</w>
cij oms</w>
ap os
a š
nuosta tas</w>
pa d
veiks ming
apos ;</w>
& apos;</w>
a vi
iš va
1 .
ėj as</w>
T O
pagalb a</w>
pa š
val i
sveik atos</w>
kuri as</w>
tin į</w>
mi r
av imą</w>
spa lio</w>
reik ėtų</w>
am in
sprend imą</w>
laik y
T ai
ū z
prie ž
o pera
ek sp
ai š
admini stra
in imas</w>
z .</w>
j a</w>
tri k
uk š
pv z.</w>
P ran
gyvūn ų</w>
2 .
pakei t
par t
G er
jo g</w>
iš var
li g
ing as</w>
nustaty tos</w>
si un
am us</w>
sp r
vien a</w>
si as</w>
Dė l</w>
l an
j ą</w>
N e</w>
d v
kompeten ting
ben t</w>
riz ikos</w>
par aišk
k li
įmon ės</w>
o v
duo ti</w>
im ais</w>
kapi tal
su ma</w>
kontro lės</w>
š i</w>
konkur en
e f
te rij
pa voj
u je</w>
Š al
eng v
sąlyg as</w>
gal u
201 5</w>
kon kreči
nar ėse</w>
A I</w>
aj ame</w>
em i
L ie
ę sti</w>
p ti</w>
susijusi ų</w>
0 00</w>
ą sias</w>
ko ki
ri u</w>
institu cija</w>
pa ra
nar ė</w>
199 9</w>
b in
pri si
kuri oje</w>
Sąjun g
nagrin ėj
in e</w>
vis i</w>
prie š
ie ji</w>
tini ai</w>
iš sam
p a</w>
for m
poveik io</w>
201 6</w>
pri ėm
ž ym
ė l
el e
pavy zdži
lė š
4 0</w>
duomen ys</w>
taik y
A N
ban dy
T E
ing umo</w>
kri terij
direktyv os</w>
ūr ų</w>
r en
to se</w>
Ė M
tim ais</w>
lai sv
ko vo</w>
ap raš
riz ik
lei din
in as</w>
vert ės</w>
e ur
nusta tan
ag en
š im
po pie
p us
T IN
laik o</w>
a st
ve i
k ai
au tom
sutar tį</w>
š e
e r</w>
finan sav
.... ....
uot os</w>
an aliz
t ;</w>
techn olog
skir tas</w>
ie š
bend rijos</w>
ki e
tin ę</w>
už ės</w>
ge g
KO M
l at
šal is</w>
j ūsų</w>
tie k
valstyb ė</w>
susi tarimo</w>
G al
ė čiau</w>
ti po</w>
nu rod
ši ame</w>
to kol
str ateg
saug umo</w>
te m
teis ę</w>
K a
su maž
direktyv a</w>
įsta ty
geg užės</w>
įsigalioj a</w>
ži ū
PRI ĖM
uo sius</w>
reikalav imų</w>
din ti</w>
m ar
į rody
ū l
ra k
PRIĖM Ė</w>
su trik
Ė S</w>
taisykl ės</w>
M e
yb ę</w>
k an
vai st
ri aus
taisykl es</w>
j ū
punk tas</w>
vis uomen
nuosta tos</w>
te s</w>
m il
są ly
- -
kateg o
ausi as</w>
lap kri
p ok
6 0</w>
mok est
b yl
ve l
em en
rug s
ser tifik
uo tas</w>
pa reišk
ki tos</w>
ing ai</w>
nustaty tas</w>
su kur
institu cijų</w>
im ta</w>
ku r</w>
Bri us
pakei timais</w>
At si
gi u</w>
n at
m l
ve d
duomen is</w>
vis ą</w>
anči o</w>
s as</w>
p li
lei sti</w>
vis us</w>
lapkri čio</w>
ėj imas</w>
pre kių</w>
atitink amai</w>
na š
nurody tų</w>
s var
IM O</w>
nuomon ę</w>
vyk dy
d į</w>
pa tir
naudoj imo</w>
vir kš
gar ant
ž vil
poveik į</w>
il g
ku l
nu me
pra k
vė liau</w>
rugs ėjo</w>
9 0</w>
veikl ą</w>
t rin
Be t</w>
tini ais</w>
bū du</w>
sky ri
n o
ek sporto</w>
skaiči us</w>
reiš kia</w>
pri pažin
pri b
li cen
Tar yba</w>
tur ė
visi škai</w>
poveik is</w>
s ą</w>
draud imo</w>
am p
sij a</w>
ty vi
tro n
laik yti</w>
li z
V A
ch an
ats ar
l ar
vie ta</w>
varto ti</w>
nurody ti</w>
balan džio</w>
rink oje</w>
s į</w>
at o
gau n
j ai</w>
I r</w>
at žvil
8 0</w>
iš si
uoj ant</w>
t h
punk to</w>
ž al
vert ė</w>
ta me</w>
ki au
U S
d vi
uoj u</w>
sąly gos</w>
Š Į</w>
j am</w>
0 ,
toki ų</w>
a prib
c ūz
a cijų</w>
žu v
in ys</w>
si gn
infor m
Lie tuv
pl at
uk r
tvark a</w>
ini am</w>
M es</w>
struk tū
pas ik
j ūs</w>
B al
k g</w>
gi a</w>
d ro
V oki
k o</w>
pa tik
taik ant</w>
e ri
PRI ED
produk tai</w>
taikom i</w>
ti l
atžvil giu</w>
dė me
k ū
reglamen te</w>
leidin yje</w>
l u
m l</w>
produk to</w>
A C
ver sl
man oma</w>
k in
laikotarp į</w>
maž esn
grup ės</w>
priim ti</w>
vy r
li uk
Voki et
au gal
Pri imta</w>
susijusi os</w>
a n</w>
o p
at ų</w>
EN T
tuoj am
numaty ta</w>
dab ar</w>
pateik ia</w>
są skai
iš me
Brius elyje</w>
kain os</w>
punk tą</w>
sistem ą</w>
E S
sk ol
in ėje</w>
są naud
val dy
pa stab
padary tais</w>
pagr į
dide snis</w>
K I
7 0</w>
cij oje</w>
pir mi
PRIED AS</w>
valstyb ėms</w>
laikotarpi u</w>
teis ė
priklaus om
veik imo</w>
vis os</w>
skir sn
O R
s al
pramon ės</w>
ne t</w>
tei sių</w>
me chan
pasi rink
dė jo</w>
ef ek
Pri e
si o</w>
j uo
inter ne
vie toje</w>
veikl a</w>
g š
ran k
c inių</w>
bu v
dem p
len tel
on e</w>
d ie
nusta t
ger ai</w>
išvar dy
iš dė
m m</w>
žmon ių</w>
si fik
3 4</w>
pa sta
val d
per at
im tis</w>
sutar ties</w>
per dirb
V er
3 .
ištek lių</w>
laik in
c ukr
skir tu
nusta tom
j us</w>
te rin
1 ,
T ur
pa lyg
tikr ų</w>
ki tą</w>
y ta</w>
me tais</w>
de šim
ju ms</w>
dal ys</w>
įmon ių</w>
o bi
ne turi</w>
san ty
Reglamen tas</w>
teik ti</w>
steb ė
a be
reikalav imai</w>
c inės</w>
uoj amas</w>
nar ėms</w>
ki ti</w>
9 6</w>
žvej ybos</w>
kuri ais</w>
tori us</w>
A l
nurody tos</w>
Pir minink
o ci
susij ę</w>
L I
ra f
an ti
nuosta tų</w>
va sa
J u
s ve
sk ri
7 5</w>
ėj ai</w>
k rov
kapital o</w>
dek lar
tin es</w>
ro n
j iems</w>
T oki
vis ose</w>
ta u</w>
usi ų</w>
kain a</w>
part ne
on o</w>
oficiali ajame</w>
ne į
š virkš
re g
T u</w>
ekonom ikos</w>
a ž
pavyzdži ui</w>
pre par
leid imo</w>
pl o
amp ;</w>
& amp;</w>
vasa rio</w>
Pran cūz
Š i</w>
paj ėg
steig imo</w>
y se</w>
m uo</w>
pasl augos</w>
k vo
suteik i
do ro
K in
sti prin
priemon ė</w>
tin gos</w>
KOM IS
la bi
bu r
į galioj
mokes čių</w>
s ime</w>
nurody tas</w>
tr um
s os</w>
9 8</w>
st os</w>
pr at
t ę</w>
tari f
vien e
RE G
ti ri
pateik ė</w>
anči us</w>
ėj ų</w>
p ų</w>
U S</w>
demp ingo</w>
j as</w>
n ie
at nauj
f il
ne su
ta vimo</w>
kom pen
žmog aus</w>
toki a</w>
d vie
d omas</w>
ty rimo</w>
e ta
dar yti</w>
am osios</w>
auj ama</w>
au dži
tink amai</w>
v ak
sk ry
I V</w>
p in
sąlyg ų</w>
progr amos</w>
iš or
Ši uo</w>
tik os</w>
m u</w>
l engv
Vi en
vanden s</w>
kuri ame</w>
usi os</w>
yk lių</w>
oj imo</w>
t or
4 .
prie das</w>
g as</w>
9 5</w>
l ank
EC B</w>
K iek
e snis</w>
tin ai</w>
de da</w>
kre dito</w>
pakei sti</w>
patvirtin imo</w>
finan sų</w>
Kar al
ta vo</w>
eli ų</w>
rū gš
A p
r ai
a tas</w>
D ie
šal ys</w>
atitink am
vert yb
K as</w>
kon sul
pa šal
KOMIS IJA</w>
įgyvend inti</w>
ne galima</w>
keli ų</w>
kla sifik
rij ą</w>
P as
s in
to rių</w>
Tai gi</w>
ku mo</w>
T ik
keiči amas</w>
n am
tok s</w>
tini us</w>
9 1</w>
gi ama</w>
tur to</w>
elek tron
rik os</w>
sąlyg omis</w>
toj ai</w>
ka da</w>
progr am
C h
galimyb ę</w>
P er
nustaty tų</w>
RI J
sta ti
nuo lat
IM AS</w>
po bū
mė n.</w>
ko l</w>
po reik
L A
l im
K om
ši l
tais yklių</w>
P at
nuo sav
vertin imo</w>
a ciją</w>
tim i</w>
g u</w>
pini gų</w>
an ų</w>
suteik ti</w>
žai d
t vir
ap doro
m ui</w>
paž eid
4 3</w>
vyk dyti</w>
paž ei
k or
spr ęsti</w>
rei ting
la im
prival omas</w>
dat a</w>
f iz
ki tas</w>
skir ting
pask ol
išlai dų</w>
pa aišk
re ak
8 7</w>
svarb i
9 2</w>
3 3</w>
L AM
uo tų</w>
bendrov ės</w>
B u
ij ai</w>
t uoti</w>
a ri
pa n
pro tokol
priež ast
pok y
p ą</w>
m er
kok ybės</w>
paskelb imo</w>
reglamen tu</w>
al b
ok si
ėj a</w>
L aik
S i
ėj imą</w>
E R
r at
par amos</w>
ar ų</w>
U ž
g im
st u</w>
om os</w>
produk tams</w>
gr an
LAM ENT
m al
el emen
skai ty
U O
ko das</w>
produk tus</w>
3 5</w>
J i</w>
T i
plė tros</w>
U M
A r
L ab
im a</w>
ta da</w>
finans inių</w>
skir ta</w>
o te</w>
ap lin
pirminink e</w>
ši e</w>
veik i
l auk
N u
g ele
spe ci
0 1</w>
a rijos</w>
nusta to</w>
in ama</w>
ne del
on as</w>
ekspor tuoj
2 5
vyk dom
me t</w>
ro je</w>
mu ms</w>
vis o</w>
tink am
su interes
nurody tą</w>
J ie</w>
ki ant</w>
naudoj ant</w>
3 6</w>
kuri a</w>
paslaug as</w>
laikotarpi o</w>
svar st
val and
toj ams</w>
padi dėj
3 2</w>
vien o
tiesi og
turim e</w>
krei p
regi stra
lygi o</w>
d uot
or din
asmen s</w>
s čiau</w>
kiek į</w>
ge b
si ūl
R u
de g
9 3</w>
i n</w>
rū šių</w>
kontro li
kieki o</w>
praš ym
Respublik os</w>
f en
y .</w>
n y
B END
ly je</w>
di rek
d oma</w>
sąraš ą</w>
at yv
ok š
vy st
bendr o</w>
s au
laik antis</w>
J ūs</w>
pateik ta</w>
biudže to</w>
toki os</w>
ekonom inės</w>
tem perat
skir tos</w>
dien ų</w>
kon sta
y tų</w>
S ie
ml n.</w>
ž r.</w>
leidži ama</w>
tu me</w>
V a
tu ri
par davimo</w>
Atsi žvel
P ra
pra dėti</w>
ra sti</w>
t ė
s chem
t ūr
ka s
užtikrin a</w>
anči as</w>
201 7</w>
sk as</w>
mechan iz
man e</w>
į pra
pa i</w>
Sutar ties</w>
au r
I tal
dar o</w>
sektori aus</w>
tur ėti</w>
svarb u</w>
E M
ši uos</w>
ki ta</w>
ąj a</w>
vartoj imo</w>
P o
tr auki
l and
Reglamen tu</w>
am ųjų</w>
par eng
sieki ama</w>
li av
priklaus o</w>
in ant</w>
S I
pag eid
ap y
K u
kain ų</w>
elek tros</w>
direktyv ą</w>
su mos</w>
nu trauk
sudė tyje</w>
l e</w>
s a</w>
ch ar
kuri ose</w>
A me
sn ių</w>
at ei
at ą</w>
Y B
susitarim ą</w>
li u
pagalb ą</w>
pavadin imas</w>
rū š
el is</w>
v a</w>
an tį</w>
su lin
treči ųjų</w>
4 8</w>
el bi
i ui</w>
į gali
3 0
og raf
kie k</w>
sun k
asmen ų</w>
b ran
ši oje</w>
anči ą</w>
an tiems</w>
V y
po žiū
pa ukš
tin as</w>
ku o</w>
į tais
im ams</w>
bendradarbi avimo</w>
ši as</w>
ne i
pacien tams</w>
in ei</w>
par dav
REG LAMENT
prie dą</w>
tik s
P ap
in os</w>
g o</w>
oj oje</w>
pana š
aprib oj
Ši ame</w>
un i
finansav imo</w>
vi z
išlai dos</w>
panaik in
stati st
kalb a</w>
gi au</w>
proced ūros</w>
sta bi
įstai gos</w>
n a</w>
apim a</w>
ie šk
nustaty tą</w>
K ą</w>
d men
ener al
tu mo</w>
rod ik
tir pal
skai tos</w>
du jų</w>
S K
gy dymo</w>
yb ą</w>
par duo
bendr ą</w>
om i</w>
b az
pakank amai</w>
n ų</w>
mas ės</w>
V ieš
ak tų</w>
proced ūrą</w>
didesn ė</w>
4 5</w>
ki r
bū din
y tas</w>
l as</w>
A I
f o
tur ėjo</w>
padar yti</w>
U N
E L
kuri omis</w>
b er
te n</w>
ar to
c ik
e ik
am ojo</w>
RI N
T u
kry p
gi ų</w>
r o</w>
li u</w>
cij omis</w>
aplink os</w>
va d
V I
un ik
in jek
REGLAMENT Ą</w>
ž ali
sp in
valstyb ėje</w>
l ų</w>
kon kre
pasi raš
už sien
inink ystės</w>
maž esnis</w>
tab le
di sku
pasiek ti</w>
3 5
Pa si
sumažin ti</w>
2 ,
k au
numaty tos</w>
C O
e tr
pri skiri
P al
vy riaus
lyg men
si ais</w>
iš duo
kuri oms</w>
3 7</w>
kuri uose</w>
am ži
į ž
ce p
pat s</w>
papra stai</w>
p jū
ie n</w>
6 5</w>
in t</w>
hi dro
darbuotoj ų</w>
4 9</w>
6 8</w>
ap si
lo b
v ok
in ėmis</w>
b and
uot ojo</w>
va rik
dam asi</w>
N uo
gamintoj ų</w>
uoj ami</w>
B el
laik oma</w>
ko ordin
Re ik
prival o</w>
svarb us</w>
naudoj ami</w>
ma š
sistem ų</w>
ini ci
Ger ai</w>
in aud
Sie kiant</w>
ž ini
toki o</w>
l į</w>
c e</w>
autom obi
rink ą</w>
ank sčiau</w>
įgali o
ši r
A f
veik ia</w>
pasku tiniais</w>
nor ėčiau</w>
sudar yti</w>
9 9</w>
doz ę</w>
ki tus</w>
ki tais</w>
kel ti</w>
versl o</w>
sk er
in sulin
t uotoj
pro f
fer en
b o
išsam i
uoj amos</w>
pat enk
praneš a</w>
kl ai
nuo ro
aplink yb
dal imi</w>
raš tu</w>
ne gu</w>
D e
pa bai
per duo
en os</w>
išlai das</w>
a da</w>
vež imo</w>
Ž in
er dv
aiš kiai</w>
pri reik
k riz
Tar p
kontro l
konsta tuojam
išdė sty
si te</w>
P o</w>
in in
g rie
c o
didži ausi
spa l
a spek
pacien tų</w>
vien os</w>
ob jek
n au
for mos</w>
ne si
m ik
m iš
din ės</w>
gr u
inf ra
atsak om
g ė
ar ma
apibrėž ta</w>
N uo</w>
ven cijos</w>
Sąjung oje</w>
K ad
m ė</w>
TO J
ij as</w>
9 4</w>
pal ūk
kriterij us</w>
A U
pl okš
3 9</w>
tvark os</w>
ing ų</w>
im os</w>
padė ti</w>
sta t
gal aik
Susi tarimo</w>
ju ri
tini u</w>
S e
susi tik
g ą</w>
g ai</w>
ėj us</w>
veik ti</w>
nu si
j on
S Ą
visi ems</w>
gali te</w>
komite tas</w>
sta tu
p ik
tink a</w>
inici atyv
įran ga</w>
l au
5 .
ty se</w>
sl ap
h o
um u</w>
ak tus</w>
pag amin
skir tų</w>
laikotarp is</w>
al us</w>
s rau
E K
i den
tiksl ais</w>
to bu
laik ą</w>
v in
kiekvien ą</w>
cukr aus</w>
kli en
įtrauk ti</w>
pro cen
ch l
į steig
susijusi us</w>
per s
kel ei
l a</w>
labi au</w>
as muo</w>
k ūn
nacional inės</w>
sa vi
tyrim ą</w>
4 7</w>
pakeiči amas</w>
E T
8 9</w>
9 7</w>
įsipareigoj imų</w>
krauj o</w>
sky rių</w>
4 2</w>
8 5</w>
M o
auj antis</w>
tiksl as</w>
n as</w>
koncentra cija</w>
gi r
in ta</w>
7 1</w>
te le
ne r
lėš ų</w>
t re
g t;</w>
& gt;</w>
dal ių</w>
Kad angi</w>
du r
pareig ūn
Sąjun ga</w>
terito rijoje</w>
v as</w>
mok ėjimo</w>
a tai</w>
um ui</w>
in ik
pi eno</w>
struktū riz
Te l</w>
d i</w>
dvie jų</w>
vali u
kla s
pas inaud
ini ame</w>
organiz acijos</w>
l aip
praneš imą</w>
au si</w>
h e
um os</w>
sukur ti</w>
rim as</w>
j oje</w>
G ra
įvertin ti</w>
medžiag a</w>
mok ė
Kin ijos</w>
sn io</w>
li gos</w>
Ame rikos</w>
pagrind inio</w>
įvai ri
tikr ai</w>
pažei dži
k a</w>
8 8</w>
F OR
naudoj amas</w>
susij ęs</w>
leidži a</w>
din is</w>
įmon ė</w>
po sė
in imą</w>
G OS</w>
sku n
naudo tis</w>
kom er
t imas</w>
kompeten tingos</w>
ank ste
sprend ži
ra d
for ma</w>
oli u
Euro p
ve terin
ne priklausom
vien o</w>
vai r
es ant</w>
k is</w>
T AR
di cin
Karal yst
ak tyv
pre para
rug pjū
ank st
S pe
an tr
Ši os</w>
6 .
pag er
sprend imu</w>
dab ar
K L
grin dži
tik ė
and ien</w>
mėne sių</w>
e fi
nustatom os</w>
7 2</w>
spe cial
ą st
sn i
įstai ga</w>
J ūsų</w>
atori us</w>
ori u</w>
N a
spa n
nar ėje</w>
pasiūly mą</w>
B ū
progr amą</w>
P AR
pak uot
A i
d ė</w>
BEND RIJ
su stab
duomen imis</w>
efi cien
tei g
J A
am i
inve st
atitink amų</w>
pl auk
laiv ų</w>
a ki
R o
sve ta
dy dis</w>
n om
atsi sak
g ab
ini uose</w>
papra st
re ž
kel e
oz ės</w>
į tak
M ar
dokumen tus</w>
inf ek
gin kl
ne būtų</w>
A V
z o
tū ra</w>
4 4</w>
praš ymą</w>
M ok
dėme sį</w>
ko eficien
4 6</w>
8 2</w>
V AR
mėne sius</w>
S ta
dar žo
I span
dalyv auti</w>
su rink
en ki
joki ų</w>
iš im
Bend r
ši ai</w>
om ų</w>
u z
mokes čio</w>
6 6</w>
0 6</w>
sk elbi
iš v
susijusi as</w>
ku i</w>
institu cijoms</w>
8 4</w>
susij usi</w>
uo si</w>
tav e</w>
gr yn
rezulta tus</w>
ė si</w>
priemon ėmis</w>
dži us</w>
eksp lo
iden tifik
P A</w>
nau jų</w>
es mės</w>
l t;</w>
& lt;</w>
rugpjū čio</w>
S u</w>
ko p
rezulta tai</w>
il galaik
gele žin
kl inik
a sign
vie to
on ų</w>
mui tų</w>
Val st
įran gos</w>
iek o</w>
ve st
D ab
FOR M
laikom asi</w>
Susi tarim
proced ūr
nume ris</w>
nar ys</w>
um a</w>
B i
į manoma</w>
eksp er
e n</w>
Į gyvend
g ija</w>
Lietuv os</w>
a cijas</w>
Parlamen tas</w>
K N</w>
žmon ėms</w>
atsižvelg ti</w>
sutar tis</w>
sub si
ski te</w>
vi o</w>
nei gi
sprend ime</w>
v ės</w>
per ži
nuo sto
anči osios</w>
pi ų</w>
va ri
kuri ai</w>
toj ui</w>
e ro
tr ū
struk tūros</w>
on i
Atsižvel giant</w>
reguli avimo</w>
prof es
in gos</w>
užsien io</w>
e uro
5 5</w>
pajėg um
nustaty tus</w>
p tom
dė l
0 5</w>
keli o</w>
P or
t išk
pabai gos</w>
pirmi au</w>
7 7</w>
pateik tas</w>
augal ų</w>
visuomen ės</w>
b a
Pag rin
įmon ėms</w>
in tas</w>
N auj
laik as</w>
ėj au</w>
vai sių</w>
dy džio</w>
O N
at lyg
I O</w>
ie k</w>
yb ų</w>
ne be
ne pakank
di din
prek ės</w>
to l
P one</w>
paskir st
p usi
į naš
šal ims</w>
n ių</w>
3 8</w>
Jung tinės</w>
SP R
skat inti</w>
ori te
v ų</w>
Sprend imo</w>
al i</w>
doz ės</w>
ši a</w>
moksl inių</w>
atitink amos</w>
in ėms</w>
mo ter
ing ą</w>
per k
D an
bl og
Teis ingumo</w>
reglamen tuoj
G ali
skir st
pateiki ama</w>
sutrik imai</w>
mė g
vis a</w>
daly se</w>
virš ija</w>
tin o</w>
BENDRIJ Ų</w>
či os</w>
uot ą</w>
keli a</w>
rink ų</w>
finans inės</w>
al ų</w>
uoj am
c inė</w>
O J
dem ok
I Ų</w>
tinkl o</w>
l ek
S lo
re struktūriz
praneš imo</w>
ataskai tą</w>
Y M
pa punk
sė k
tri s</w>
o per
či ams</w>
pri orite
vai stų</w>
pagrind inių</w>
ka b
vali fik
d an
im i
či u</w>
palyg inti</w>
de dam
daugi ausia</w>
veik li
j ūros</w>
........ ........
pageid auj
mat yti</w>
Reglamen tą</w>
reikal ų</w>
dr aug
me tal
tin os</w>
M i
SPR END
P av
for ma
Vis i</w>
reik i
atliek ant</w>
nurody tus</w>
pa laik
v e</w>
gin č
ol is</w>
padė tį</w>
at e
q u
Prie š</w>
šal yse</w>
toki e</w>
darb ą</w>
sim ptom
men ų</w>
ad res
už si
Bend rijoje</w>
y tos</w>
JA V</w>
pasak yti</w>
dokumen tų</w>
nustaty mo</w>
al og
ne iš
in ų</w>
min im
F inan
st e</w>
rez oliu
l ang
priėm imo</w>
6 1</w>
del eg
c inio</w>
Tar ybai</w>
6 7</w>
dv i</w>
at me
paskir ties</w>
tu os</w>
sprend imus</w>
E ur
am asi</w>
dom i</w>
suteik ta</w>
kar tus</w>
š eš
as oci
at sk
rib oj
sk aus
patvirtin ti</w>
vyk sta</w>
j ame</w>
7 8</w>
bendr as</w>
Š io</w>
investi cijų</w>
ak tyvi
f rak
me tai</w>
B an
r enk
prak tik
al ie
Sutar tį</w>
šal u
gal ėjo</w>
mik ro
nustat oma</w>
in amas</w>
ra p
si ems</w>
o d
0 2</w>
c inis</w>
pasik ei
to le
ak teri
dalyv auj
in e
efek tyv
politik ą</w>
7 3</w>
katego rijos</w>
li ams</w>
su mą</w>
na riai</w>
li ais</w>
M al
teik ia</w>
nen u
rink a</w>
nor i</w>
n uot
Ka d</w>
8 1</w>
20 0</w>
rizik a</w>
E I
A gen
tin ėje</w>
ci on
išmok os</w>
M u
A pi
ausi ų</w>
pri va
nacional inių</w>
pers onal
4 1</w>
L enki
dėl to</w>
kiekvien o</w>
ij o</w>
spa ud
eur o</w>
man au</w>
suteik ia</w>
ta šk
sąraš as</w>
ke tvir
8 6</w>
sij ung
f l
j un
progr ama</w>
per davimo</w>
ter šal
uo to</w>
dažn ai</w>
w w
Ta ik
P er</w>
savai tę</w>
M in
lik u
maž daug</w>
į g
5 1</w>
ti e</w>
projek to</w>
V ai
ve is
an ki
žali av
J UN
L e
pa stan
nu sik
te lės</w>
tikr ųjų</w>
pobū džio</w>
ko reg
C en
geri au</w>
sij ų</w>
ing i</w>
N C
vi ai</w>
pra dė
o f</w>
ap mokest
Gra ik
pel n
ne žin
asmen ys</w>
Direktyv a</w>
brė ži
in g</w>
tikr as</w>
teik imo</w>
priim a</w>
0 3</w>
Tarp tau
pagr įsta
k vie
rizik ą</w>
reikal aujama</w>
ne turėtų</w>
k valifik
asmen ims</w>
nusik al
kuri am</w>
padi din
gal ė
mok ėj
Y RI
la t</w>
bū kl
Ki ti</w>
nuo rod
bendr os</w>
nauj ą</w>
subsi d
už pil
5 8</w>
pe ri
so li
pri dė
bendro sios</w>
tran s
pateik imo</w>
stebė sen
O r
šal yje</w>
sv ori
skyri aus</w>
gi o</w>
-- --
pad engti</w>
kl im
gr ū
v am
Lab ai</w>
st us</w>
skai čių</w>
A B</w>
gr įž
mok ymo</w>
tori aus</w>
im ti</w>
p us</w>
mai š
7 9</w>
įvai rių</w>
6 2</w>
gamintoj o</w>
B o
ke pen
y k</w>
priemon ę</w>
proced ūra</w>
pir min
priež as
punk tuose</w>
sri tyse</w>
Pir m
lyg is</w>
d ang
leid imą</w>
b .</w>
teis mo</w>
pro por
g eneral
varto tojų</w>
P raš
aur ės</w>
A P
vė l</w>
N aud
A b
gali u</w>
el į</w>
įtak os</w>
R emi
um i</w>
In d
priežas čių</w>
na ik
ėm e</w>
žuv ų</w>
ti l</w>
i uose</w>
7 4</w>
8 3</w>
veiks mus</w>
at vi
pozi cijos</w>
k i</w>
al yv
tr au
ė š
ri jų</w>
doz ė</w>
Ž em
pavy z
yb ių</w>
s ai</w>
na f
grup ė</w>
ko v
6 4</w>
sė kl
ali ai</w>
galim e</w>
tikr os</w>
tiksl ų</w>
klaus imas</w>
pon en
skyri uje</w>
P V
reikš ti</w>
ki us</w>
5 4</w>
galioj imo</w>
ski l
au di
klaus imais</w>
Teis mo</w>
d ės</w>
pa var
Dab ar</w>
už duot
kiekvien os</w>
pa praš
im osi</w>
Di dži
R ū
k yl
m ais</w>
3 ,
Bend ro
osi oms</w>
h em
suinteres uot
m ę</w>
aj ai</w>
nen uro
P ak
daž ni
inink as</w>
Re gi
organiz avimo</w>
T ran
išlai d
vie tą</w>
tvark ą</w>
D až
is ant</w>
T AS</w>
padi dinti</w>
b ri
dži a</w>
bal sav
v imas</w>
R y
pu ik
speci fik
klaus imus</w>
bank o</w>
0 8</w>
prireik us</w>
ati on</w>
Europ oje</w>
Ma n</w>
apy var
su dedam
I m
or lai
T RA
I Š
in di
pakei stas</w>
vai sto</w>
nuo lat</w>
pl uoš
dr audži
5 2</w>
7 6</w>
vei k</w>
L o
va ži
Remi antis</w>
palūk anų</w>
vyk o</w>
la k
bu te
daržo vių</w>
skiri ama</w>
ang l
vyst ym
b ė
Ju ms</w>
bendro vių</w>
at a</w>
leid imas</w>
pa vir
i au</w>
į vy
201 8</w>
pakeiči ama</w>
galim ybės</w>
usi s</w>
ėj ams</w>
5 3</w>
V is</w>
ži ų</w>
kompetenting a</w>
u li
b ar
bendrov ė</w>
interne to</w>
7 .
u t
h t
naudoj amos</w>
laikotarpi ui</w>
Įgyvend inimo</w>
ge ograf
uo k
susitarim as</w>
s em
in ami</w>
0 4</w>
V E
t ę
grie ž
padė tis</w>
politik a</w>
hi po
S o
galimyb ė</w>
ten t</w>
pasau lyje</w>
6 3</w>
ly s</w>
b es
papil domas</w>
ju dėj
vis ada</w>
rezulta tų</w>
rij ai</w>
die g
vyk dant</w>
keli on
si ai</w>
0 7</w>
tei gi
mil ij
kre di
pači os</w>
f os
nurod oma</w>
par amą</w>
D IN
laiky tis</w>
ka imo</w>
ši us</w>
tok į</w>
pat ies</w>
gyven imo</w>
atvej us</w>
nedel s
mok ykl
s men
ki taip</w>
Reglamen te</w>
pi u
D au
mui tinės</w>
atitik ties</w>
išor ės</w>
praneš ta</w>
C om
V I</w>
t ra</w>
laik omas</w>
laikom i</w>
am asis</w>
si tu
vaik ų</w>
prie tais
ma k
anči oms</w>
Prancūz ijos</w>
atsi tik
Pirminink as</w>
fon do</w>
teiki ama</w>
teis es</w>
sn į</w>
kur ti</w>
žuv ininkystės</w>
a bi
ei ti</w>
skai t
žmon ės</w>
l ąst
Vy riaus
ko ti</w>
bū t</w>
pri ek
sektori uje</w>
cij ose</w>
stan t</w>
rib o
tu gal
st ud
Ti k</w>
Č ia</w>
pa tal
didel is</w>
atitik ti</w>
j ūrų</w>
ta cijos</w>
g al</w>
už im
ka ž
rim e</w>
n ieko</w>
demok rat
jau n
A D
ypa ting
A ti
dr au
kom ponen
Man au</w>
ri ais</w>
atitink amas</w>
ta sis</w>
l em
anči oji</w>
rod ė</w>
toki u</w>
vie n</w>
E N</w>
pasau lio</w>
Man o</w>
naudoj ama</w>
tam pa</w>
skai dr
sun ku
T I</w>
institu cijai</w>
5 9</w>
ta p
Va dov
technolog ijų</w>
char akteri
P S
ki to</w>
par ą</w>
in tų</w>
stabi l
dirb ti</w>
tyrim us</w>
steb ėti</w>
in o
lab or
ta us</w>
p uo
vert ę</w>
A d
anti dempingo</w>
klaus imą</w>
ataskai tos</w>
SK YRI
sando rio</w>
amži aus</w>
pel no</w>
oj a</w>
P S</w>
nustat omas</w>
g e</w>
ik a</w>
d inių</w>
g a
P re
S er
ener ge
P i
ym u</w>
ek olog
D arb
k si
tiek imo</w>
prat ę
d ies</w>
A K
kūn o</w>
an tro
numat yti</w>
t iškai</w>
rūš ies</w>
mo de
sl ė
klim ato</w>
N y
zi den
zon os</w>
atsižvel giama</w>
ant raš
bend ra</w>
lygmen iu</w>
pli eno</w>
u m</w>
Š ie</w>
D o
tin e</w>
IN FORM
gamintoj ai</w>
rin ko
š ru
naudoj imas</w>
om en
sky rimo</w>
meto das</w>
im asi</w>
gav o</w>
5 6</w>
požiū riu</w>
tyrim ai</w>
su tik
im yn
gydy mą</w>
T ie
s k</w>
Nor s</w>
autom at
paj amų</w>
mažesn ė</w>
k ny
V ar
produk tas</w>
pra de
sek re
bi ur
žin oma</w>
B US
n os</w>
prie dė
eur ų</w>
INFORM AC
sąlyg a</w>
pir mą</w>
G r
inink ų</w>
gal vi
ma sis</w>
Vokiet ija</w>
veiks min
gamintoj as</w>
pri staty
pateik tą</w>
rem ti</w>
li ga</w>
vyk dymo</w>
2 4
są veik
P RE
z ijos</w>
199 8</w>
vie tų</w>
V il
api būdin
5 7</w>
vaik ams</w>
9 .
pl au
pu li
d ais</w>
išmok ų</w>
organiz a
ry st
mok ėti</w>
pirmi ausia</w>
IJ OS</w>
s ar
teršal ų</w>
l ė</w>
j oms</w>
tar ti</w>
rin kai</w>
ši andien</w>
pa baig
BUS P</w>
galimyb es</w>
Vokiet ijos</w>
išv engti</w>
pareig as</w>
rib ų</w>
ke tin
įstai gų</w>
už baig
Sąjung ą</w>
SKYRI US</w>
g lik
a vir
įsi gy
lyg į</w>
au tų</w>
om b
kompen s
sky rius</w>
o dos</w>
ausi ą</w>
žiūr ėti</w>
6 9</w>
po žym
bran duo
Bend rijų</w>
pa tiksl
tink amas</w>
pa lik
Sprend imas</w>
T h
In stitu
K alb
Ki tos</w>
nuomon e</w>
l og
d ra
sk elb
enkl at
vidu r
pirk imo</w>
mar šru
vir us
T L</w>
ne teisė
k er
ink stų</w>
apsaug oti</w>
ski e
f arma
be veik</w>
3 00</w>
en ta
s or
s t</w>
paš ar
region o</w>
paukš čių</w>
al ko
sprend imų</w>
k ra
valstyb ei</w>
IM Ą</w>
b ro
I C
T V</w>
į trauki
om o</w>
T ek
pri paž
į sp
sumaž ėjo</w>
i i</w>
g ri
pe re
techn inės</w>
ofi cial
progr amų</w>
r aud
naud os</w>
klaus imu</w>
laik u</w>
n i</w>
sri tis</w>
pateik tos</w>
i l</w>
si ant</w>
nom enklat
vadov aujantis</w>
mini str
nu ro
apdoro j
z ės</w>
pra si
rie bal
gy dyti</w>
gru pių</w>
me tams</w>
min u
paž ang
j uo</w>
pastraip oje</w>
tr o</w>
C i
l p
tiksl us</w>
či ū</w>
st is</w>
b o</w>
atsi ran
kon fi
kain ą</w>
kul tūros</w>
proces o</w>
rov ės</w>
indi vidu
s par
y kite</w>
mil te
Komisij ą</w>
šal dy
ėj usi
d inio</w>
bi olog
I T
um un
di dėj
se p
pr ar
ne š
grei tai</w>
ok s</w>
kom piu
priemon ėms</w>
įvyk dy
insulin o</w>
ap skaitos</w>
lygi a
atliek ų</w>
nuoro da</w>
patikrin ti</w>
Ny der
8 .
V eik
A S
mo teri
š či
gam yba</w>
anči ais</w>
ti n</w>
kok s</w>
vei c
me dicin
pateiki amas</w>
tra di
par uoš
mui to</w>
P e
pažin ti</w>
B ul
procedūr as</w>
ataskai ta</w>
t ūrą</w>
C AS</w>
konkuren cijos</w>
on ai</w>
n ės</w>
stiprin ti</w>
vi sk
ban dymo</w>
Por tugal
par ama</w>
gam inti</w>
spa u
veiks mai</w>
P ie
sij ą</w>
on os</w>
ko dėl</w>
gal v
propor c
dal yk
h ar
ol e
še imos</w>
m ams</w>
m y
ėj ui</w>
sn ės</w>
an d</w>
ry šio</w>
ši ais</w>
atsar g
Pa galb
an o</w>
pa dal
tarn ybos</w>
in tos</w>
vak cin
Š veic
rim ą</w>
d im
Ž I
VA IS
nauj o</w>
nauj as</w>
Ki ta</w>
in dė
ki tiems</w>
ėm imo</w>
lentel ėje</w>
bi o
tran spor
nustatan tį</w>
reikš ming
M ai
plan ą</w>
Eur at
pak e
įgyvendin ant</w>
išva dą</w>
pateiki ami</w>
Ne pa
ki toms</w>
trū ku
žal os</w>
c h</w>
ž y
treči osios</w>
iš ankst
vyk do</w>
N o
teis ė</w>
ne pasi
impor tuoj
iš plė
Ko dėl</w>
funk cijos</w>
Ė J
gal ų</w>
apsaug a</w>
re cep
n ė</w>
partne ryst
ai siais</w>
sk al
agen tūros</w>
pri sijung
vi skas</w>
k oj
osi omis</w>
direk torius</w>
kepen ų</w>
pa tek
skri min
tin ų</w>
projek tą</w>
tr ūk
rū pin
pa vi
ti p
ki tomis</w>
te rap
restruktūriz avimo</w>
20 20</w>
ve i</w>
YB A</w>
U R
papildom ų</w>
N E
a riai</w>
Nor ve
bute liuk
osi ose</w>
Jung tinių</w>
d eng
ne bus</w>
atliek a</w>
pa rody
kol eg
re s</w>
pavi dal
ū roje</w>
pasinaud oti</w>
th e</w>
sk lai
pa tais
sando rių</w>
nu rodo</w>
U K
per dav
mėne sį</w>
pastraip a</w>
kom and
dav o</w>
In forma
į st
Komi te
nuosav ybės</w>
tu mė
s či
n ak
projek tų</w>
vien u</w>
S veik
vai dmen
di skrimin
ge re
at rodo</w>
Vis ų</w>
termin as</w>
proc .</w>
G im
v at
E U</w>
am oji</w>
pastab as</w>
lig on
liek a</w>
pilie čių</w>
j aus</w>
be si
Karalyst ė</w>
a f
Š ved
g li
g us</w>
am b
tie sų</w>
ši am</w>
priėm ė</w>
in amos</w>
g re
straipsn ius</w>
Api e</w>
ko kia</w>
su kelti</w>
išlaid oms</w>
D AR
T y
toki ą</w>
teri jų</w>
kompen sa
tin ei</w>
erdv ės</w>
iš br
nustatan tis</w>
r ė
anči u</w>
su pran
pa deda</w>
gali os</w>
nu kry
In ter
k ūr
šir dies</w>
d atos</w>
dr u
žiūr ė
at vir
Į si
krauj yje</w>
atitink amą</w>
taik o</w>
chl ori
g lob
popie rių</w>
švie sos</w>
lam s</w>
R umun
in ą</w>
yb oje</w>
pag am
ne reikia</w>
atsižvelg damas</w>
virš ij
koncentra cijos</w>
straipsn iuose</w>
men ys</w>
skiri a</w>
subjek tas</w>
ži bin
tar ybos</w>
ta po</w>
ank sto</w>
atskir ai</w>
I I
at rink
KL R</w>
veikl ai</w>
gam inių</w>
en gi
B a
nedel siant</w>
k en
g el
taikom ų</w>
dien is</w>
grei čiau</w>
tiksl u</w>
pak arto
registra cijos</w>
iš saug
tin ėmis</w>
J os</w>
ki t</w>
tyrim as</w>
švie timo</w>
Jung tinė</w>
meto dą</w>
bank ų</w>
j ė
. .</w>
dar os</w>
ne pageidauj
infra struktūros</w>
ėm ė</w>
n amų</w>
D ž
tu m</w>
par engti</w>
atve jų</w>
Tar n
INFORMAC IJA</w>
klaus imų</w>
um at
t y</w>
d ve
mas ė</w>
dešim t</w>
subjek tų</w>
siek ti</w>
L t
ser gan
rū p
asign av
sn ius</w>
ausi os</w>
j ais</w>
to sios</w>
pateik tus</w>
- -</w>
J o</w>
Na cional
kon struk
tink ama</w>
2 9
ter nat
pri tari
s aus
de ra
patvirtin a</w>
TAR YBA</w>
toki us</w>
tu riu</w>
tik ri
nukry pti</w>
pagrin du</w>
tiesio g</w>
kain as</w>
uo m
P u
v ol
E RI
di fik
t ųjų</w>
Vis os</w>
S S</w>
įstai g
pateik tų</w>
din ė</w>
k arb
eksplo ata
Pran eš
lai vo</w>
pr al
lentel ė</w>
n ą</w>
pri de
dar oma</w>
5 00</w>
vis uo
ser g
pagrindin ės</w>
ei lu
laik ymo</w>
Pap il
atori ai</w>
L atvi
ž ie
I AL
nu sprend
straipsn iai</w>
kom pl
vaiz do</w>
E n
inte gra
AT O</w>
tink amą</w>
problem ų</w>
dy s</w>
ri ams</w>
didel ės</w>
10 7</w>
atliek amas</w>
l us</w>
k rū
su jung
Pa cien
U kra
prepar ato</w>
I R
pa brėž
standar tų</w>
te ro
uoj amų</w>
gu men
dom os</w>
straipsn iu</w>
standar tus</w>
aj am</w>
K al
aplin kai</w>
dien as</w>
ki toje</w>
konkur so</w>
an as</w>
numaty tas</w>
r auk
Valst ijos</w>
SĄ JUN
N a</w>
Lt d</w>
padi dėjo</w>
skirsn io</w>
pastraip os</w>
us į</w>
l inės</w>
t ūrų</w>
Žem ės</w>
E k
rez er
vartoj ant</w>
uo sto</w>
SPREND IMĄ</w>
ra vimo</w>
b ėg
199 6</w>
sti pr
rem damasi</w>
Au st
I z
gai r
daug uma</w>
turi te</w>
konsul ta
at skai
padar ė</w>
tvark ymo</w>
z ija</w>
t imą</w>
om ą</w>
am uoju</w>
su pra
priim tas</w>
r uoš
praneš imas</w>
keli ą</w>
glik em
vieš ųjų</w>
speci f
impor tuotoj
dalyv auja</w>
moksl o</w>
gra f
Finan s
ka vimo</w>
siun či
NC B</w>
praš ymas</w>
t s</w>
Eurat omas</w>
S E
ar gumen
kon feren
n ai</w>
a t</w>
tab oli
T uo</w>
tikr ą</w>
social inių</w>
kain omis</w>
už dar
reiting uose</w>
charakteri stik
po e
praneš ime</w>
direktyv oje</w>
P an
paš arų</w>
pirminink as</w>
di o
nuomon ės</w>
kriterij ai</w>
daugi a
ry šių</w>
sąnaud ų</w>
laikom os</w>
ali os</w>
ra j
sri ties</w>
ve s</w>
įtrauk tas</w>
lygi u</w>
Pro tokol
ta si</w>
s ūn
progr amas</w>
pakuot ės</w>
į mok
199 5</w>
dokumen tai</w>
rū šis</w>
iš reikš
J T</w>
o l</w>
ton ų</w>
Ital ijos</w>
tele fon
ra z
K l
mo du
baig us</w>
e su</w>
g l
L is
av imu</w>
ab ie
patvirtin tas</w>
J uo
Au dito</w>
pran aš
man ęs</w>
dru sk
ty r
pere inam
įsipareigoj imus</w>
organiz acijų</w>
P RO
įsi tik
techn inių</w>
cin į</w>
e j
IS O</w>
pra džios</w>
av imui</w>
rin ės</w>
priežast is</w>
at rank
k m</w>
žin oti</w>
či ais</w>
skir tą</w>
0 9</w>
uotoj as</w>
at vyk
pači u</w>
ij imo</w>
val g
in ėse</w>
aud os</w>
ri a</w>
T reči
pabaig oje</w>
skiri amas</w>
R i
įsigalioj imo</w>
į pareigoj
prašym u</w>
tie ji</w>
S U
tini am</w>
ne mok
maž ai</w>
išme ta
m išk
opera cijos</w>
Pap ra
nustatom i</w>
ato rių</w>
pakeit imus</w>
199 7</w>
T I
Pro duk
š ak
Nyder land
sistem as</w>
už sak
susijusi ą</w>
uni ver
skirsn yje</w>
Euro pa</w>
vien inte
skol os</w>
ra gin
papildom os</w>
gydy toj
Šal ys</w>
taik ymas</w>
199 4</w>
dien a</w>
gydy tojas</w>
finans uoti</w>
SĄJUN GOS</w>
tur tas</w>
social inės</w>
aukš či
i sto
išk r
usi ems</w>
turin tys</w>
proced ūrų</w>
tri jų</w>
sp er
vertin imą</w>
nor m
inte gr
pasiūly mus</w>
N ag
ne taikomas</w>
an gos</w>
ra v
1 50</w>
ė lių</w>
ai r</w>
vis oms</w>
al ternat
lai šk
Ger b.</w>
el ai
D E</w>
a d</w>
i os</w>
nat ūr
V eng
prieš tar
į ter
ėj os</w>
klas ės</w>
nat rio</w>
tam ųjų</w>
C o
išvardy tų</w>
inin kai</w>
00 00</w>
pla z
kri terijų</w>
e x</w>
SP EC
padė ties</w>
kiau š
vertin imas</w>
lė k
gr ė
naudoj imą</w>
nurody to</w>
ti on</w>
el g
in u</w>
K an
anči a</w>
form ul
cen trin
š auk
val dyti</w>
r am
ti z
ang li
vak ar
lei st
ko vos</w>
ų sti</w>
2 7
energe tikos</w>
t ijos</w>
am ąjį</w>
4 ,
aug imo</w>
in ai</w>
mu z
ap skri
pa veik
pasta r
galioj a</w>
ą si</w>
galimyb ių</w>
P P
vien am</w>
ek s
d iniai</w>
Ru sijos</w>
reišk ė</w>
kom unik
terito rijos</w>
tek stas</w>
D AL
ti pas</w>
hi per
oficiali ai</w>
bl ok
pa ti</w>
sun ki
nuo sek
ko dek
inter ven
s čio</w>
sudė ting
bandy mų</w>
per duoti</w>
vis oje</w>
kū rimo</w>
prek ybai</w>
am etr
šal imis</w>
į gy
I AI</w>
gab en
IN Ė</w>
ei gos</w>
avi o</w>
G yv
inform uoja</w>
an i
sveik atai</w>
gy n
pra dži
V ie
Parlamen tui</w>
kei sti</w>
f ai
mė sos</w>
vy no</w>
sl uok
J ė
T A
Vi du
g t</w>
sn ė</w>
Bend riją</w>
pašal inti</w>
susi pažinti</w>
k raš
bū das</w>
di sk
po puli
š iek</w>
žem io</w>
reguli ariai</w>
tra k
mir š
keiči antis</w>
Te chn
savai tes</w>
A čiū</w>
patvirtin o</w>
N i
struk tūr
visk ą</w>
ver tes</w>
T O</w>
perži ūros</w>
pa mat
PRE PAR
au dito</w>
įrody mų</w>
gal in
ben z
jun gi
atei tyje</w>
analiz ės</w>
laikin ai</w>
Ši aurės</w>
al ių</w>
ing umą</w>
tumė te</w>
inte re
gyven tojų</w>
s ū
2 3
tur ės</w>
A .</w>
aplin ko
G y
G rei
Ž ai
si ch
10 00</w>
registr uoti</w>
atsak ingas</w>
bendradarbi avimą</w>
ap tari
r e</w>
ino va
tarp us
kli ū
tori ai</w>
nauj os</w>
usi o</w>
atitink ama</w>
em ok
nie kada</w>
moter ų</w>
te rijos</w>
stebėsen os</w>
tarpus avio</w>
el ės</w>
veiksming ai</w>
sutar čių</w>
skaus mas</w>
rūgš tis</w>
pakeit imai</w>
ly g</w>
mo difik
al f
P O
c a</w>
apsaug ą</w>
nor int</w>
mažin imo</w>
naf tos</w>
n ėš
S aug
personal o</w>
ge ro
mokest is</w>
vertyb inių</w>
r uo
d on
reng ti</w>
tar yba</w>
tie ki
p u</w>
si ū
Lis ab
rekomend uojama</w>
reak cijos</w>
žin au</w>
r ai</w>
po ten
spr ę
suteik tas</w>
re ag
su aug
konkuren c
e tik
nutrauk ti</w>
fl uo
SPEC IAL
pro c</w>
l ai</w>
skirtu mas</w>
organiz acija</w>
g ro
yb ei</w>
vartoj imą</w>
sak ė</w>
nauj a</w>
ini cij
speciali ai</w>
suder inam
joki os</w>
nor ma</w>
mie sto</w>
mok ym
LA IK
al o</w>
gam iniai</w>
bū tent</w>
ataskai toje</w>
n ori
dy dį</w>
N U
g liuk
skait men
keli as</w>
Š tai</w>
kele tą</w>
š un
paraišk os</w>
pa tiri
Tek stas</w>
H i
es ate</w>
kan di
geb ėj
z a
didži ausia</w>
D AS</w>
bendr ai</w>
l i</w>
bendr uomen
į vežimo</w>
san dė
region ų</w>
reikal inga</w>
savi vald
S ti
sąnaud os</w>
pakei timo</w>
ci o</w>
12 34</w>
spa us
in us</w>
tiksl inga</w>
ek stra
E lek
opera cijų</w>
tr ys</w>
Prancūz ija</w>
tan o</w>
vis ai</w>
krei pi
panaik inti</w>
di dinti</w>
ht t
svarst yti</w>
gi us</w>
en as</w>
maži ausiai</w>
Jė z
nepakank am
re mon
I ki</w>
G AL
pro fe
pagrindin is</w>
pu slap
ol o</w>
patvirtin imą</w>
įpra st
lei sta</w>
n is</w>
pal engv
al aus</w>
maž men
są žin
plė tr
veterin arijos</w>
sm ul
spin du
l eng
g elb
ren gi
pa klaus
projek tas</w>
s ank
svori o</w>
gal ia</w>
angli es</w>
G am
dži u</w>
dy mas</w>
s ąjun
truk mė</w>
nu spręsti</w>
š ven
žin g
ur b
veterin ar
gal vos</w>
D aug
atori aus</w>
B ank
pr o</w>
iš duoti</w>
išmok as</w>
K or
pavir ši
virš u
truk mės</w>
gaun a</w>
ak cijų</w>
Nor ėčiau</w>
K ro
sek torių</w>
nor mos</w>
ataskai tas</w>
S uom
Tur ki
duo se</w>
Gim imo</w>
licen cijos</w>
praš ymo</w>
ma stu</w>
atitink amo</w>
vis ais</w>
a .</w>
kvo tos</w>
me taboli
lan d</w>
Respublik a</w>
kelei vių</w>
s me
n oriu</w>
T A</w>
S al
panaš ūs</w>
reikal auti</w>
L E
p e</w>
cin ę</w>
tar ė</w>
S ą
s us</w>
protokol o</w>
tiks liai</w>
st or
im uose</w>
M V
sėk ming
liav anden
nuolat inio</w>
min ėtų</w>
Iz ra
EL PA</w>
dide lio</w>
tuv ai</w>
vartoj imas</w>
dažn i</w>
Im por
n oj
į ve
sak o</w>
VAIS TIN
bu ve
praneš ė</w>
nusta tant</w>
k vė
praneš ti</w>
aplinkyb ėmis</w>
e pi
tok si
Šal ių</w>
T r
ri ausi
eg zi
Ku r</w>
par ametr
c iniai</w>
staty ta</w>
pagam inti</w>
toki as</w>
2 8
didel ė</w>
rek lam
par ta
įgyvendin imą</w>
nusta tė</w>
prek yba</w>
vien oje</w>
ne laim
M .</w>
A G
sri tį</w>
nar ko
ne atitinka</w>
aukš te
ki tės</w>
dide lių</w>
pa naudo
tin ą</w>
v arb
mėne sio</w>
neį manoma</w>
pro gn
R A</w>
gydy mas</w>
gau ta</w>
meto dus</w>
didel į</w>
2 6
tek sti
jau tr
S A</w>
v ą</w>
plan as</w>
anči omis</w>
adres as</w>
tar š
p ur
tin i</w>
kon f
PA K
o da</w>
inter val
D Ė
D uomen
e c
L ai
rūgš ties</w>
perdirb imo</w>
V II</w>
Lisab onos</w>
t ų
tel k
V P</w>
e x
dalyv avo</w>
Spe ciali
medžiag as</w>
di alog
licen cijų</w>
struktū ra</w>
susitarim us</w>
perk ėl
Vi skas</w>
ali a</w>
proces ą</w>
vė liav
VA DIN
s h
pakeit imų</w>
at st
pak ai
m b
VAR TOJ
at spin
su i</w>
sprendži a</w>
st og
p ul
ori jų</w>
nusprend ė</w>
reikal auja</w>
for mą</w>
L T
pavoj ų</w>
vež ti</w>
M E
pri eig
t ėje</w>
su paprast
r as</w>
tai gi</w>
V P
A k
pa to
mak sim
są vok
reikalav imas</w>
ra do</w>
grū dų</w>
t end
S tan
intere sų</w>
PA VADIN
pager inti</w>
atitink amus</w>
L u
C H
v al</w>
ataskai tų</w>
plan o</w>
F e
ma tavimo</w>
de r</w>
pas ek
iš laikyti</w>
sav an
S an
region e</w>
ka u</w>
Reik ia</w>
į dieg
ie si</w>
pad eng
prek es</w>
E st
du l
bank as</w>
su keli
yb e</w>
asoci acijos</w>
T ink
pagrįsta s</w>
Pie tų</w>
ląst elių</w>
admini str
V arto
koki os</w>
draudži ama</w>
pa steb
la z
apim tis</w>
tav ęs</w>
aug in
ta pat
G ar
praš au</w>
Bend ra
om at
PV M</w>
iš tir
rib os</w>
inink o</w>
d ai
pajėgum ų</w>
pre ki
am ieji</w>
h ek
taik ymą</w>
nenuro dy
li avimo</w>
nustaty to</w>
oz ė</w>
sudar ė</w>
strateg ijos</w>
būtin as</w>
išdė st
pažeidži ant</w>
pacien tai</w>
sieki a</w>
pagrin das</w>
kyl a</w>
B ar
įreng inių</w>
komite tui</w>
grup ei</w>
e t</w>
to l</w>
tarp u
band om
rie ji</w>
varto tojams</w>
ml r
me d
nuosta ta</w>
ener g
bendradarbi auj
mo bi
bal ty
pavoj us</w>
L O
pasi tik
htt p</w>
atsiran da</w>
pozi cija</w>
vy nuo
pl auki
Č eki
įsi g
tarn yba</w>
sudar y
M ūsų</w>
au ten
iš ku
skaiči aus</w>
paskol os</w>
toj i</w>
en a</w>
eg z
skir snis</w>
nar ei</w>
UM O</w>
pri ver
už dav
vyk d
sl op
konstatuojam ojoje</w>
in dek
an a</w>
on ia</w>
anči ųjų</w>
termin o</w>
tink amos</w>
ta up
pla stik
PAVADIN IMAS</w>
V yk
ten k
s ch
tur tą</w>
sn i</w>
gai rių</w>
didži ausias</w>
ž ies</w>
a ce
atliek ami</w>
m oje</w>
su mas</w>
š au
subjek tai</w>
ten s
pri vat
pa vad
gali oti</w>
tran zi
suteiki ama</w>
atsak ym
sprend imai</w>
der yb
kar š
ing umas</w>
didel ę</w>
nurod ė</w>
il ge
Mai sto</w>
min is</w>
i tin</w>
š lap
V ak
tū k
G e
I A</w>
vaidmen į</w>
užduot is</w>
ak tai</w>
parta men
pon ai</w>
l ą</w>
nuosta tomis</w>
frak cijos</w>
tuv ų</w>
statist ikos</w>
sen iai</w>
tik im
Gal i</w>
ta li
gar an
general inis</w>
byl oje</w>
iš nagrin
I X</w>
Y ra</w>
ur n
konfi den
gau tų</w>
kok į</w>
dėme sio</w>
dat ą</w>
vam z
st u
už deg
vy re
M on
kiau lių</w>
turin čių</w>
em p
am u</w>
teis mas</w>
nacional inę</w>
sav ybės</w>
ekspor tuotoj
Teis mas</w>
vis ap
inink ams</w>
ne taikoma</w>
Ital ija</w>
199 3</w>
au p
darbuotoj ai</w>
l av
i ais</w>
kur o</w>
sta is</w>
užtikrin imo</w>
sav imo</w>
fik s
199 2</w>
geležin kelių</w>
ž o</w>
sergan tiems</w>
padary ta</w>
2 2
ke tu
Karal ystės</w>
vyk doma</w>
nume riai</w>
pastraip ą</w>
atsižvelg ta</w>
V III</w>
darb as</w>
bai gi
V e
Vil ni
ste ro
par duoti</w>
ko kių</w>
kriz ės</w>
ei lės</w>
tarptau tinių</w>
narko tik
joki o</w>
Ši oje</w>
ėl ė</w>
produk tais</w>
d ak
E u</w>
A .
ne pri
al as</w>
įsipareigoj imai</w>
bū na</w>
pasi reng
TE IS
e ina</w>
bal s
mažin ti</w>
užpil dy
nori te</w>
yb es</w>
Bu vo</w>
kol ek
paraišk ą</w>
darb o
su naik
lėš os</w>
fo to
naudoj antis</w>
išme tamųjų</w>
vystym osi</w>
proces as</w>
der ybų</w>
VE IK
toj us</w>
tin ėms</w>
Gali ausiai</w>
S .</w>
il giau</w>
in tens
atitik tų</w>
ku n
išva dos</w>
M ak
p sich
sta i
sistem oje</w>
Direktyv ą</w>
gau tas</w>
poreik ius</w>
o tas</w>
api brėži
abe jon
fer men
A m
skiri asi</w>
an tai</w>
vadov as</w>
prieži ūra</w>
turin ys</w>
ėj ęs</w>
v ai</w>
garant ijos</w>
en e
elek tr
valstyb es</w>
ausi us</w>
byl os</w>
fon dų</w>
MV Į</w>
sep ty
ie siems</w>
Af rikos</w>
j ose</w>
labi ausiai</w>
pa iešk
jung tinio</w>
koeficien tas</w>
įtrauk tos</w>
ar tim
tinkam umo</w>
pal anki
R ek
at us</w>
table tės</w>
apraš ymas</w>
ne priklaus
tini ams</w>
for mų</w>
darbuotoj ams</w>
cin es</w>
j er
e in
finans inio</w>
Ta da</w>
ne viršija</w>
pon e</w>
žin omas</w>
eis mo</w>
a ch
ki tu</w>
kal end
si lp
konkre čių</w>
hem og
valdy mas</w>
is i</w>
atsar gų</w>
uot us</w>
kl ės</w>
vad ybos</w>
kon om
pra dėjo</w>
Ver sti</w>
į sik
da ri
išsami as</w>
b audži
teksti lės</w>
i uosi</w>
leid imų</w>
Sprend imą</w>
tirpal as</w>
si te
a pa
ym ui</w>
tend en
nu mer
struk tūrą</w>
din am
už kir
K e
Die vo</w>
partneryst ės</w>
ak to</w>
leid inio</w>
kiekvien as</w>
tuo met</w>
ry p
mal on
įstaty mų</w>
įmon ei</w>
H er
visap usi
lengv ai</w>
sudar ymo</w>
ilg ai</w>
pažym i</w>
skry džių</w>
problem as</w>
sti pri
lik vid
st ikos</w>
projek tus</w>
mini ste
lai s
D I
minė to</w>
princi pus</w>
ke turi
y vi
4 14</w>
ten ka</w>
skirting ų</w>
gyven ti</w>
um ų</w>
Li uk
K oki
s čių</w>
papildom ą</w>
zdži ai</w>
ci vil
u g
I OS</w>
ki tose</w>
prival om
skil tyje</w>
prieš ta
c m</w>
E konom
gran dinės</w>
prepara tas</w>
Vieš pats</w>
e u</w>
sąnaud as</w>
nuot rauk
M O
svarb i</w>
RIN KO
d va
li ud
o m</w>
problem a</w>
pla ce
ta pti</w>
ar ch
pradži oje</w>
ko dą</w>
gamintoj ams</w>
K lin
Ispan ijos</w>
G eneral
ww w
tu mas</w>
nepa isant</w>
vai g
kok ine
N UM
įran gą</w>
ori zon
labor ato
finans inę</w>
4 00</w>
li gų</w>
T autų</w>
P rek
pilie čiams</w>
sem bur
kateg orijų</w>
konf lik
avi acijos</w>
skir tus</w>
pirminink o</w>
galvi jų</w>
naudoj a</w>
vieš ojo</w>
Pav y
L y
p imo</w>
išk as</w>
grąžin ti</w>
kok ybę</w>
Liuk sembur
paskirst ymo</w>
fos f
mlr d.</w>
agen tūra</w>
pramon ė</w>
4 0
stik lo</w>
varik lio</w>
tele viz
sunk u</w>
maš inos</w>
B er
tarptau tinės</w>
lob ino</w>
Tran sporto</w>
paskol ų</w>
o to</w>
DAR OS</w>
tin imo</w>
paš to</w>
G amin
Stan dar
E i</w>
6 00</w>
ap krov
numaty tą</w>
RINKO DAROS</w>
min ės</w>
E B
kon ven
ž inių</w>
es ančių</w>
uot osios</w>
ats in
si m</w>
p ė
tink amų</w>
riebal ų</w>
pro te
ati on
įvyk dyti</w>
si a</w>
kū dik
C o</w>
euro pa
li o
reikal ingas</w>
automobi lių</w>
gam ybai</w>
si urb
var das</w>
ma z
pozi cijoje</w>
atsak o</w>
co m</w>
Tur i</w>
dokumen tas</w>
plė toj
Laik yti</w>
produk tą</w>
gan i
papil doma</w>
te r</w>
s vie
vel e</w>
iš dav
tuv as</w>
patvirtin ta</w>
pri elai
išva da</w>
S T</w>
I sl
per spek
stat ybos</w>
L T</w>
PREPAR ATO</w>
sąskai tos</w>
g ov
prieži ūrą</w>
li ui</w>
s dik
2 -</w>
teig ė</w>
prie dų</w>
anči ai</w>
spaus din
prie dai</w>
alko ho
chem inių</w>
G al</w>
D ar</w>
funk cija</w>
tiks lams</w>
pa is</w>
kieki us</w>
iš skir
B Ū
didžiausi ą</w>
Re z
men t</w>
įgalioj imus</w>
va ki
dokumen to</w>
pasirink ti</w>
ni ai</w>
ne at
Spe cial
tiksl ai</w>
būtin ų</w>
Ai rijos</w>
įter pi
N ie
iš kumo</w>
vy riausi
s kur
iš lik
Vien as</w>
naudo tojas</w>
Kalb ant</w>
punk tai</w>
ik ai</w>
temperat ūroje</w>
e til
kil noj
st ui</w>
e l</w>
vi ams</w>
tini ame</w>
įraš ų</w>
ne s
tu vo</w>
d ž
an os</w>
par lamen
me til
atsi rad
ali us</w>
ū ki
l inių</w>
YM O</w>
gyven imą</w>
a gy
O M
spal vos</w>
sąraš o</w>
laiv ams</w>
an gi
v imą</w>
tikri ems</w>
kontrol ę</w>
m omen
gal ės</w>
ser v
su projek
injek cijos</w>
žo džiai</w>
juri sdik
Kro at
lin ijos</w>
A R</w>
sku bi
NUM ERI
Ind ijos</w>
klaus imai</w>
kiekvien a</w>
steb ėjimo</w>
kon tak
susitarim ų</w>
sta to</w>
hi bi
krei pti</w>
Žin oma</w>
atsin auj
um inio</w>
grą ž
K au
Lenki jos</w>
pro vin
iškr aip
pra ėjus</w>
di ag
kon vencijos</w>
aud ies</w>
tim is</w>
d or
L ei
pozi ciją</w>
k ų</w>
pat į</w>
nustaty mas</w>
l es</w>
c k</w>
de galų</w>
c o</w>
sul f
centr as</w>
tav imas</w>
uotoj ų</w>
sor b
Tie si
skaity ti</w>
interne te</w>
K ri
hemog lobino</w>
de s</w>
galioj imas</w>
ka m</w>
si škai</w>
gu b
Šveic arijos</w>
hidro ksi
S kai
T am</w>
kon soli
įrody ti</w>
pažym ė
kar to</w>
---- ----
savai čių</w>
anči am</w>
kiekvien am</w>
J .</w>
S varb
l os</w>
P onia</w>
susi dar
disku sij
sveta inėje</w>
skiri ant</w>
popie ri
Val d
Lietuv oje</w>
įtrauk ta</w>
se zon
ch lo
R T
numaty tų</w>
gar so</w>
dvi dešim
pen ke
pa min
mok y
tarp valstyb
pozi cijai</w>
im tasi</w>
valand ų</w>
tinkl ų</w>
tiksl o</w>
vieto v
zon oje</w>
asmen iui</w>
geležin kelio</w>
šal tinių</w>
S E</w>
Af gani
administra vimo</w>
pagrindin ė</w>
A B
tikrin imo</w>
PAK UO
S O
in struk
in hibi
gai res</w>
ar t
Š eng
pripažin ti</w>
patir ties</w>
y n</w>
kar tų</w>
bendr ųjų</w>
R ink
sl ėg
Au tom
om etr
gero kai</w>
eksper tų</w>
c inius</w>
NUMERI S</w>
ran o</w>
on sul
nuo mos</w>
m 2</w>
6 ,
D al
chl or
susi tari
Vadov ų</w>
subjek to</w>
univer site
RA Š
suteik imo</w>
pa tys</w>
S h
s eg
bendro vei</w>
ka p
nurod omas</w>
standar tinės</w>
V aik
E P
turė tume</w>
elemen tų</w>
ženkl as</w>
strateg iją</w>
es m
plauk ų</w>
pal ank
teiki amos</w>
šk as</w>
pasiūly mų</w>
in stan
de d
grąžin amosios</w>
var ž
ta ką</w>
U ž</w>
Min im
prak tikos</w>
ne teis
di abe
au n
d ui</w>
garant ijų</w>
są sa
centr o</w>
mi sijos</w>
gan a</w>
Vi dur
bu l
rij as</w>
hipo glikem
Slo vaki
simptom ai</w>
gydy tojui</w>
sist eig
pripaž įsta
CO 2</w>
dži ov
pa rodė</w>
judėj imo</w>
mo del
šal į</w>
nor ė
dar y
kur ūz
de š
Pas au
iniciatyv a</w>
Graik ijos</w>
R em
turė tojas</w>
Susitarim ą</w>
įstaty mo</w>
ant ra</w>
dam asis</w>
atsižvelg dami</w>
at or
Darb o</w>
st ri
pripažin imo</w>
Šeng eno</w>
iš vest
ženkl o</w>
P E
Kl aus
Ki tas</w>
sien ų</w>
viene tų</w>
g avimo</w>
iš davimo</w>
tikr ais</w>
pa naudoti</w>
kr ė
DAL IS</w>
Isl and
pramon ei</w>
l enk
laiko si</w>
oj imas</w>
pra s
san trauk
pažym ėj
pa raš
am iems</w>
sta m
ž urn
S k
valdy mą</w>
e čių</w>
dokumen tais</w>
AN T</w>
ats par
Dau giau</w>
vyriaus ybės</w>
prival oma</w>
am ais</w>
apskaiči uoti</w>
Susitarim as</w>
patikrin imo</w>
i ams</w>
princi po</w>
VAISTIN IO</w>
iš mat
d imo</w>
N uro
pirk ti</w>
eksplo at
valand as</w>
dvie m</w>
Bendr as</w>
konkreči as</w>
konkreči ai</w>
I T</w>
1 20</w>
ištek lius</w>
a sklai
iš aug
krov inių</w>
ta liz
mokest į</w>
pad ės</w>
veik sn
vai stą</w>
st ori
A ukš
bendrov ėms</w>
Šal is</w>
pozi cijų</w>
ad os</w>
a ku
techn ikos</w>
darbo tvark
vė le
in dik
p š
egzi st
RE IK
mat eri
žmog us</w>
s cen
Norve gijos</w>
e ti
lygia ver
13 6</w>
atlik us</w>
t me
vidu je</w>
galu tinis</w>
R O</w>
funk cijas</w>
o lio</w>
poky čių</w>
a cijoje</w>
ši ol</w>
atsakom ybės</w>
paj amos</w>
skry džio</w>
ė te</w>
S ES
kam er
grąžin imo</w>
su kel
g z
L Y
j ėg
pakeit imas</w>
rekomend acijas</w>
o t</w>
N UO
Pirm osios</w>
ki tai</w>
fi li
valiu tos</w>
p ykl
S a
T V
rad ijo</w>
kar tais</w>
tikr us</w>
mė n</w>
M A
ne u
įvertin imo</w>
nuorod os</w>
pen ki
straipsn ių</w>
c on
To liau</w>
identifik avimo</w>
ši omis</w>
savan ori
pasi reiškė</w>
bu d
vi š
o tų</w>
ka imyn
ang liavanden
aplinko saugos</w>
um ai</w>
um e</w>
mon o
pi en
ūn ų</w>
pasi en
o r</w>
temperat ūra</w>
padė koti</w>
dirb a</w>
pavirši aus</w>
kam ba
t n
meto dik
kieki ai</w>
tik ro
žaid imai</w>
reiting as</w>
N uk
mir ties</w>
etik et
pasi baigus</w>
KI EK
patvirtin imas</w>
tvark yti</w>
apdoroj imo</w>
vė ži
atlik tas</w>
am oje</w>
vieš ai</w>
tr ų</w>
ver tus</w>
Kiek viena</w>
sp ro
paraišk ų</w>
užim tumo</w>
siū lo</w>
perspek tyv
H o
tobu l
ki tu
g is</w>
tūk stan
ko re
pasi ūl
vidu tinės</w>
pa čių</w>
gė rim
gen e
ati džiai</w>
tarif ų</w>
t h</w>
dažni ausiai</w>
bandy mas</w>
pasi reiškia</w>
švirkš timo</w>
bi lie
išva das</w>
tin ti</w>
bendradarbi avimas</w>
5 ,
lim in
laikin ojo</w>
tei se</w>
praš yti</w>
M ED
dirb iniai</w>
įreng iniai</w>
sp ū
atstov ai</w>
ak o</w>
princi pų</w>
Ž r</w>
šal iai</w>
dam iesi</w>
kalb omis</w>
te d</w>
sti li
sp on
mokes čiai</w>
aik š
į sisteig
aki vaiz
virš yti</w>
Susi tari
kei tim
Kom peten
krauj o
k va
pra džių</w>
sekre tori
reikal auj
Pro gr
F i
na riams</w>
to ti</w>
p jau
m ių</w>
siek dama</w>
C Y
progn oz
S .
priežast ies</w>
V ė
E I</w>
įgalioj imai</w>
T UR
Nepa isant</w>
eli ai</w>
fi ci
da ik
alkoho lio</w>
prade dant</w>
grė sm
Kon stitu
Slo vė
atskai tom
B A</w>
ry š
po lim
ke tina</w>
pat ron
visuomen ei</w>
om e
I D
pa brėži
sąskai tų</w>
................ ................
in imu</w>
per sp
apibrėž ti</w>
instan cijos</w>
vyriaus yb
b a</w>
tarš os</w>
raud on
angl audos</w>
saug umą</w>
ton as</w>
dažn is</w>
sl o</w>
S te
pavoj aus</w>
meto dų</w>
problem os</w>
D ir
lėš as</w>
iš tais
M er
vie tas</w>
mokes čius</w>
dy je</w>
poky čius</w>
mokėj imų</w>
Die vas</w>
k ro
bu vimo</w>
tobu lin
Pat virtin
tori jų</w>
subjek tams</w>
investi cijos</w>
dokumen tu</w>
tie sa</w>
patik im
raš y
suder inti</w>
prisi dėti</w>
P l
prepar atų</w>
įstaig oms</w>
supra sti</w>
al er
Y S</w>
paj ė
bendro jo</w>
stan o</w>
gydytoj ą</w>
Slovė n
P oli
Nag i</w>
dalyv avimo</w>
kelion ės</w>
s inte
inan tis</w>
len telės</w>
kel is</w>
N ėra</w>
praneš ama</w>
termin ą</w>
ST AT
norm ali
a par
veikli osios</w>
tal on
pri eigos</w>
praktik a</w>
keiči ama</w>
efek tyvi
šalu tinis</w>
nar es</w>
ne ap
ne to</w>
poten cial
gam ybą</w>
ing us</w>
zdži ui</w>
nuosto lių</w>
tok s
prek ėms</w>
ne lyg</w>
vadov auj
suder inama</w>
numer į</w>
Ry an
technolog ijos</w>
par en
į darb
atsak inga</w>
Bend rija</w>
k enk
profe si
mb H</w>
vanden yse</w>
At liek
laisv ės</w>
ne už
garant ija</w>
j omis</w>
atsi skaity
produk cijos</w>
kompetenting oms</w>
ne bent</w>
Tu rime</w>
finans inė</w>
Ryan air</w>
rib a</w>
ori gin
c eli
princi pą</w>
nuoro dų</w>
aplink ą</w>
T avo</w>
ėj ote</w>
nen or
ton o</w>
analiz ė</w>
vien kar
didesn ės</w>
pusi aus
d ij
juo st
N en
Vyriaus ybės</w>
Taik ant</w>
Toki u</w>
kalb os</w>
ži ai</w>
Informa cija</w>
SES V</w>
di oksi
impor tas</w>
kontroli uoti</w>
An k
mok a</w>
kon serv
rež imo</w>
aišk u</w>
at u</w>
ar anki
perduo da</w>
P r
mui tas</w>
priemon e</w>
ištek liai</w>
schem a</w>
jung ti</w>
prie vol
institu cijomis</w>
yn o</w>
pagrį sti</w>
ki au</w>
i lio</w>
vartoj amas</w>
pask at
Vidur žemio</w>
kalend or
lin ė</w>
gyven a</w>
prie inam
atitinkam ais</w>
mo der
l inio</w>
gau tos</w>
pagrin do</w>
sudar ytas</w>
z el
pasi eki
pon ios</w>
grup ėje</w>
atskir ų</w>
padidėj imas</w>
išvardy tos</w>
sav e</w>
išbr auki
vyk domas</w>
liku čių</w>
o f
balan s
į tvirtin
dra bu
te lių</w>
an tik
impor tuojam
. 1</w>
sri čių</w>
fe dera
į taką</w>
bendradarbi auti</w>
IN ĖS</w>
ne kilnoj
ak cin
ne seniai</w>
meto dai</w>
mo l</w>
tei gia</w>
pastan gas</w>
pana šių</w>
o zi
F arma
atrank os</w>
Varto ti</w>
ori en
a zi
tu vių</w>
at gal</w>
M il
oki te</w>
toj imo</w>
E s
2 50</w>
dar ant</w>
dėj us</w>
įsigy ti</w>
standar tai</w>
region inės</w>
l ok
teis inės</w>
į vež
įmon es</w>
ti pų</w>
val gy
me dienos</w>
C on
e p
gyvūn ai</w>
at šauk
laik ui</w>
ak tais</w>
F ran
kompetenting ų</w>
naudoj imui</w>
su sp
VARTOJ IMO</w>
lei stų</w>
gele žies</w>
b aud
paraišk a</w>
valiu ta</w>
tin ėse</w>
pateiki amos</w>
me gz
trauk ti</w>
re di
inform uoti</w>
G mbH</w>
st er
darb ų</w>
lik us</w>
dokumen tą</w>
a para
en z
b lo
se rijos</w>
pa teis
gyv yb
nustatan čio</w>
ginkl ų</w>
kompetenting ai</w>
D L
šal dyti</w>
mon ės</w>
T oks</w>
Ku rių</w>
ži us</w>
d ri
Ž Ū
Pirminink e</w>
veiksming umo</w>
rink ti</w>
su kelia</w>
rezulta tas</w>
numat oma</w>
Ispan ija</w>
iz oli
Direktyv oje</w>
impor tuoti</w>
pre ven
drusk os</w>
tin iškai</w>
s ys</w>
koki u</w>
Ban k</w>
įvyk dymo</w>
p ū
T AI
Pavy zdžiui</w>
š vel
įstaty mus</w>
s el
organiz me</w>
išvar dyti</w>
Pra džia</w>
vi au</w>
S N
vė l
pabrėž ti</w>
mi t
pen sijų</w>
Sti pri
e si</w>
reik ės</w>
pir mos</w>
n us</w>
Lab as</w>
vieš osios</w>
am oms</w>
elek trin
V ir
T F
žini asklai
sta vimo</w>
paslaug omis</w>
naudoj amų</w>
tiksl ą</w>
tirpal o</w>
praneš imų</w>
nauj us</w>
minė tos</w>
g ul
turin či
panaikin amas</w>
auten tišk
an tra
es ame</w>
Rek omend
00 00
ati dėj
stab džių</w>
gam ykl
b ak
sustab dyti</w>
pažang ą</w>
O fi
Atsižvel g
Ma ž
si ūly
n yk
atstov as</w>
stabi liz
in s</w>
abie jų</w>
ten z
numat o</w>
iš s
gal būt</w>
l t</w>
au gi
te ma</w>
bank no
pavadin imą</w>
T as</w>
Mu ms</w>
C E</w>
vidu tinio</w>
per nelyg</w>
statu są</w>
rinko se</w>
P la
nurody tiems</w>
gi p
PRI EM
riz mo</w>
sav aranki
dvidešim tą</w>
svarb os</w>
vir š</w>
m uose</w>
minė ta</w>
dėj as</w>
r ėm
pastab ų</w>
pa ved
daly kas</w>
pasik onsul
institu cijas</w>
ko dai</w>
kas met</w>
k v
Lietuv a</w>
medicin os</w>
protokol ą</w>
in spek
W or
B L
teiki ant</w>
pobū dį</w>
kreip kitės</w>
išk a</w>
um is</w>
tir pik
iš vyk
dal iai</w>
draud imas</w>
apriboj imai</w>
šal ia</w>
analiz ę</w>
T ri
k os</w>
din o</w>
199 1</w>
pra din
pa bėg
ap eli
atsarg umo</w>
apim ties</w>
pri taiky
dov an
ati dar
inf uz
užtikrin tas</w>
kontrol ė</w>
iš š
S iek
R ytų</w>
lie p
kiekvien ai</w>
Š vie
priklausom ai</w>
susijusi o</w>
ori enta
M y
10 3</w>
elemen tai</w>
in k</w>
S KI
de fici
grąžin am
konkreči os</w>
pilie čiai</w>
d l</w>
teri torijų</w>
staty ti</w>
ausi u</w>
ap on
ati z
c ar
t imų</w>
produk tuose</w>
punk tus</w>
pri žiū
dam osi</w>
skiri amos</w>
plaz moje</w>
R N</w>
suteik ė</w>
ol as</w>
minu čių</w>
sektori us</w>
pasiūly mas</w>
al ai</w>
ati dė
G o
la š
region uose</w>
klien tų</w>
kom bin
interes us</w>
e d</w>
so liu
atliek os</w>
paskelb ti</w>
min o</w>
nuro domi</w>
199 0</w>
ij omis</w>
prat ęsti</w>
kau lų</w>
esn ės</w>
S en
suder in
N R</w>
sn ę</w>
P L
h um
7 ,
koki ą</w>
ven ą</w>
tr omb
PRIEM ON
h ol
gyv u
g inti</w>
praktik ą</w>
im un
ne tiesiog
katego rija</w>
U AB</w>
o g</w>
c er
tikė tina</w>
Institu cija</w>
o ta</w>
sutrik imas</w>
program oje</w>
papraš ė</w>
ik i
gliuk ozės</w>
I l
Pirminink o</w>
am omis</w>
1 -</w>
pre vencijos</w>
atsinauj in
ak tuose</w>
ap tik
and uo</w>
ger inti</w>
8 5
ali ą</w>
uotoj i</w>
men s</w>
farma kokine
pareišk ėjas</w>
uot ės</w>
minė tas</w>
4 -</w>
vertin ti</w>
nuo lai
ž ar
schem ą</w>
PAKUO T
Die ve</w>
vaik ai</w>
poky čiai</w>
pagrį sta</w>
moteri s</w>
uot u</w>
Y V
Bul ga
sė dy
nacional ines</w>
žmon es</w>
ne t
Nuk ryp
į sta</w>
tu mą</w>
tik ra</w>
B ai
pači ą</w>
žin ai</w>
šk ą</w>
E ner
Ž i
pre ziden
aplinkyb es</w>
uot ųjų</w>
patenk a</w>
ini ui</w>
k ė
rinko daros</w>
strateg ija</w>
priim tų</w>
Kiek vienas</w>
3 2
kvo tų</w>
kompl ek
v oki
Valstyb ė</w>
G ro
ekstra k
pirminink auj
H z</w>
grindži amas</w>
am umo</w>
susi e
na vi
Bu v
nu i</w>
P R</w>
F AR
sunku mų</w>
por t
R I</w>
o ž
valstyb ėmis</w>
ink ų</w>
tikrin ti</w>
paraišk as</w>
Pat eik
Or lai
susijusi oms</w>
nuorod ą</w>
pa vel
ne galėjo</w>
iš spręsti</w>
sk on
žal ą</w>
nar ėmis</w>
pe s</w>
bū s
kov oti</w>
gal imą</w>
lyg oje</w>
pažym ėti</w>
antr ą</w>
ši oms</w>
įg ū
al in
dien į</w>
at om
N at
pavyz dys</w>
pro fi
iš siun
du mo</w>
pa laikyti</w>
atliek ama</w>
te i</w>
C I
gr y
B .</w>
reikal avimo</w>
popie rius</w>
a cijai</w>
F or
Kom bin
z ap
praneš imai</w>
Bal tijos</w>
priim ant</w>
papildom ai</w>
E su</w>
išmok a</w>
Stipri ausi</w>
įg ul
įraš as</w>
o k</w>
www .
tol i</w>
veiksming umą</w>
vyk s</w>
An tra</w>
W in
reiš ki
kl ų</w>
skaiči avimo</w>
poli cijos</w>
vis ame</w>
E F
atnauj inti</w>
pereinam ojo</w>
in yje</w>
f az
gra cijos</w>
Bel gijos</w>
Ukra inos</w>
inte r</w>
ali uminio</w>
ma sto</w>
laiv ai</w>
la kš
Pa stab
Y pa
Sprend imu</w>
užkir sti</w>
teisė k
R a
ob lig
d aus</w>
až ny
8 00</w>
pre limin
ka ri
ilg is</w>
ti enos</w>
registra vimo</w>
s au</w>
tiksl ui</w>
sukur ta</w>
Pat ik
Bel gija</w>
ėj ą</w>
s and
kei timo</w>
emi sija</w>
už drau
10 6</w>
g lau
sėkl os</w>
h or
es nes</w>
table čių</w>
pen k
SI OS</w>
rodik liai</w>
pageid aujama</w>
dė žu
uo čių</w>
oficiali ojo</w>
social inio</w>
ku kurūz
saug oti</w>
koreg uoti</w>
ci vi
bud smen
D A</w>
finansav imą</w>
suk ū
pagrį stą</w>
pla či
temperat ūros</w>
ekonom inių</w>
aš tuo
medžiag ą</w>
fak tiškai</w>
pak ran
G eri
žem ė
inin kui</w>
nuo ma</w>
lei do</w>
alternat yv
alf a</w>
soli dar
Bendro sios</w>
IM AI</w>
AV IMO</w>
ne per
j uose</w>
Sąjung ai</w>
K emp
Euro sistemos</w>
ra s
me ta
kiek yb
T er
sąraš e</w>
atsi rado</w>
al inės</w>
nuosav ų</w>
klinik inių</w>
iz o
registr uota</w>
Cen tr
c om
Vak arų</w>
Tik rai</w>
ki et
di za
9 0
vidu tinis</w>
F R</w>
ik ą</w>
gen ų</w>
įgalioj imų</w>
paskir ti</w>
atlik ta</w>
bal sų</w>
galu tinio</w>
tik o</w>
išduo tas</w>
paslaug oms</w>
Tu riu</w>
sul fon
mo tyv
ka z
reikalav imams</w>
na rio</w>
bendr ų</w>
TEIS ĖS</w>
vair uotojo</w>
med vil
patikrin imų</w>
atstov auj
r om
10 4</w>
uo met</w>
lyg inant</w>
Th e</w>
mechaniz mus</w>
patir tį</w>
impor tui</w>
D u
d ams</w>
dvi gub
Agen tūros</w>
ku li
tal pykl
RIJ OS</w>
vari kl
paj amas</w>
D ar
Žai d
dr ėg
d .
tim s</w>
atsisak yti</w>
kain ai</w>
priva či
st inės</w>
so din
pir š
įsitik in
sm ur
žin o</w>
apriboj imų</w>
E l
re pre
kreip tis</w>
biudže tą</w>
Daž ni</w>
oj ant</w>
automat iškai</w>
vien ai</w>
patikrin imus</w>
uk ų</w>
toki omis</w>
žaid ime</w>
M IN
naud a</w>
Bal tar
schem os</w>
pak enk
nurody tais</w>
ra sta</w>
intens yv
naud inga</w>
g at
rov ė</w>
su mokė
būtin os</w>
Pir mi
to j</w>
stud en
C ar
At sak
teisėk ūros</w>
CY P
tvirtin imo</w>
g ti</w>
e talon
ten kin
jū roje</w>
navi g
daugi am
ū kių</w>
sąveik os</w>
U ni
ko kio</w>
ne b
usi us</w>
M ie
rau menų</w>
Agen tūra</w>
tri ukš
sav yje</w>
užtikrin ant</w>
k t.</w>
maž as</w>
sėkming ai</w>
popieri aus</w>
st inių</w>
T SS</w>
suteik tos</w>
santy k
aliz acijos</w>
pa tyr
d uota</w>
įreng inio</w>
koncentra ciją</w>
su stiprin
patenk inti</w>
kol og
klai din
dy zel
1. 1</w>
juo stos</w>
ieš ko
dalyk ų</w>
veikl oje</w>
pana šios</w>
ti pą</w>
MED ŽI
pasiūly mo</w>
kl au
Ši andien</w>
popie riais</w>
Baltar u
parei gos</w>
milte liai</w>
C A
finansav imas</w>
chem inės</w>
at kreipti</w>
tyrim e</w>
prepar atą</w>
apskri tai</w>
Kar tu</w>
S pa
kai tos</w>
fe ron
pirm ojo</w>
A pl
sni ais</w>
ap skai
turin tis</w>
nauj o
terito riją</w>
efektyv umo</w>
f ol
at ui</w>
reak cija</w>
konfiden cial
ver te</w>
kandi dat
trum palaik
iš imtis</w>
si ej
išsami os</w>
10 0
t uota</w>
aspek tus</w>
men is</w>
gyvūn ams</w>
ren giant</w>
reikš min
dy tas</w>
pa vimo</w>
lyg inam
veik snių</w>
pakeiči ami</w>
sertifik ato</w>
J apon
švie ži
Pro jek
B VP</w>
vy stan
vaist us</w>
surink imo</w>
kraujo spū
bend rin
gal voj
de tal
fon das</w>
st ū
sertifik avimo</w>
Tarn yba</w>
susijusi ems</w>
susp en
vertyb iniais</w>
išdėsty ta</w>
taikom us</w>
chlori das</w>
taisykl ę</w>
pus ės</w>
3 -</w>
skelbi amas</w>
abe j
l y</w>
apim ti</w>
1 10</w>
Saug umo</w>
rink imo</w>
kva dr
sando rius</w>
opera cijas</w>
nom in
š ok
darb ai</w>
ši ose</w>
pri sim
nam inių</w>
keli ais</w>
ginč ij
susitarim e</w>
c u
su sik
P AT
išsam iai</w>
santy kis</w>
rij ose</w>
S L
At lan
pra ei
techn iniai</w>
ka bin
au k</w>
pral ei
tink ami</w>
om er
kalb ėti</w>
uk ai</w>
sn iu</w>
gy dom
Pagrin dinis</w>
pa reikšti</w>
ger as</w>
veiksming ą</w>
gair ės</w>
for mat
dir vo
Reik al
ang lų</w>
3 8
praš oma</w>
N ame</w>
j e
rie dmen
paaišk inti</w>
E A</w>
K re
C .</w>
polim er
pirm oje</w>
finans ines</w>
sektori uose</w>
nedels dama</w>
žem iau</w>
plė vele</w>
pagrįsta i</w>
punk tų</w>
v anduo</w>
mė gin
pus ėje</w>
atitink ančių</w>
tel ek
taiky tina</w>
nen umat
D el
y tą</w>
apdoro ti</w>
plan e</w>
leidin ys</w>
nen aud
de partamen
dal ij
avi alin
š kumo</w>
he pa
prar a
J o
Dan ijos</w>
rau n
ši u</w>
N oriu</w>
standar tines</w>
Š ių</w>
vie tose</w>
u p</w>
byl ą</w>
skun do</w>
Žin au</w>
tin imas</w>
bendro ji</w>
Minim ali</w>
F o
kor tel
sku b
aukš tos</w>
įvyk o</w>
pirmin in
port f
h orizon
AK R</w>
A L</w>
ra di
prie kab
fe ro
treči ą</w>
or as</w>
ang ų</w>
pareigūn as</w>
jė gos</w>
Li audies</w>
daly vių</w>
teri tor
svarb ūs</w>
lengv at
deklar aciją</w>
bandy mą</w>
5 43</w>
š iems</w>
s .
pask elbi
e til</w>
sta ms</w>
uk as</w>
įgyvendin imas</w>
angliavanden i
asign avimas</w>
vidu tiniškai</w>
L a
t ęsti</w>
auk ti</w>
S ar
vėliav a</w>
B S</w>
S IS</w>
sav ybių</w>
op tim
B I
Klin ik
1 12</w>
kad en
svori s</w>
Ai rija</w>
val ymo</w>
ūr ai</w>
leid imus</w>
tvirtin a</w>
kl os</w>
vynuo gių</w>
lik ti</w>
in imui</w>
europa .
T ė
zon ų</w>
aki vai
teis ingumo</w>
d vy
tų si</w>
atstov ų</w>
Ki tų</w>
užtikrin tų</w>
ak tu
M ad
savai tės</w>
rink imų</w>
dži ais</w>
K AM
ting as</w>
princi pai</w>
vyr ų</w>
v an
patek ti</w>
vald ybos</w>
būkl ės</w>
t nam
grąžin amųjų</w>
al ą</w>
sektori ui</w>
toki ais</w>
suk či
ku si</w>
metal ų</w>
susi du
skat ina</w>
m mol</w>
koordin avimo</w>
H e
rin is</w>
ri ui</w>
ry šius</w>
srau to</w>
teis ėmis</w>
kalb ant</w>
balsav imo</w>
sker den
ši aurės</w>
papunk tyje</w>
nacional iniu</w>
centr inio</w>
3 9
požym ių</w>
ver tik
energ iją</w>
asignav imai</w>
sien os</w>
plo tis</w>
pavidal o</w>
pa lai
pratę s
li p
vai stai</w>
taikom ą</w>
pastar uosius</w>
avialin ijų</w>
SĄ LY
atsakom ybę</w>
f a
At lei
gai s
įraš yti</w>
z ė</w>
žaliav ų</w>
rezer v
nepriklausom ai</w>
V AL
I TE
ta dienis</w>
pa tikros</w>
g arb
OJ E</w>
par os</w>
perdirb ti</w>
pa aug
politik ai</w>
L eid
vien ame</w>
susij usį</w>
st in
P L</w>
ik ų</w>
prie glob
A l</w>
Čeki jos</w>
ik liai</w>
gal imas</w>
palengv inti</w>
0 .
ton ą</w>
su mokėti</w>
tarpu savyje</w>
p h
Vieš paties</w>
Vis a</w>
uo kite</w>
rū k
pastab os</w>
Kon vencijos</w>
didesn į</w>
ž a
ener gija</w>
buv au</w>
m or
eli u</w>
ei gi
nėš tumo</w>
ar k
išv eng
vadov aud
T au</w>
alie jaus</w>
pluoš tų</w>
kon ver
es ama</w>
žvej oti</w>
st ojimo</w>
lin e</w>
se kun
em ija</w>
prek ybą</w>
pri min
nu žu
užtikrin ta</w>
tikr i</w>
w e
gaun amas</w>
vair uoti</w>
teis ingai</w>
eksploata vimo</w>
en i
u r</w>
kom pan
nu sprendžia</w>
ting a</w>
susi rūpin
in imai</w>
pri tvirtin
punk tu</w>
prepara tai</w>
Ty rim
komite te</w>
kom an
gra ž
apmokest inimo</w>
plė toti</w>
aktyvi ai</w>
P am
tan as</w>
al ga</w>
paskelb tas</w>
nu mas</w>
S kir
IN IŲ</w>
str u
N es</w>
ė k</w>
speciali z
for mas</w>
ra tas</w>
KIEK IS</w>
nie kas</w>
klaus imo</w>
um b
ne tek
dėme sys</w>
sak yti</w>
inova cijų</w>
deklar acija</w>
šk os</w>
st em
sij oje</w>
į tam
patvirtin tos</w>
Protokol o</w>
paskelb ta</w>
didži ul
spro g
per žiūr
Tik sl
N es
užtikrin ama</w>
metaboli z
atsi rasti</w>
N O
re dak
ry ž
si ųsti</w>
reng imo</w>
pavad uotojas</w>
pači oje</w>
pardav imas</w>
ali as</w>
Duomen ų</w>
p yk
bes ar
tuo tas</w>
agen tūrų</w>
F I</w>
ž ud
sk am
Parlamen te</w>
peri od
gali ausiai</w>
Nyderland ų</w>
ra g
per žiūrėti</w>
Ž mog
ry žių</w>
tin u</w>
įsipareigoj imo</w>
pi gius</w>
Ė TOJ
charakteristik ų</w>
SKI R
parody ti</w>
besi vystan
e ste
as e
N A
s .</w>
prepara tais</w>
pa tinka</w>
me til</w>
nomenklat ūros</w>
kompeten cijos</w>
skir to</w>
saug ojimo</w>
civil inės</w>
m 3</w>
sk ar
būtin i</w>
ac qu
pasiūly ti</w>
š te
i Å</w>
Ofi ciali
inte lek
vil k
rūš ys</w>
simptom ų</w>
avir o</w>
sm uo</w>
so ci
Bendro jo</w>
ne truk
atlik tų</w>
mui tai</w>
aug inimo</w>
ab u</w>
seg men
12 5</w>
10 .
ban o</w>
vertin ant</w>
N AU
val en
to n</w>
Pri e</w>
paž angos</w>
r ati
daug elio</w>
žemė lap
my g
t imus</w>
su mok
grup ę</w>
cik lo
M ini
princi pas</w>
E gip
AM S</w>
pa ve
S avo</w>
va das</w>
F on
ne pateikė</w>
vidu tinė</w>
o perat
vy n
b as</w>
su geb
pa blog
L .</w>
elektron inių</w>
tuoj a</w>
kiauš inių</w>
ni as</w>
gy dant</w>
š tai</w>
ženkl inimo</w>
SĄLY GOS</w>
Atliek ant</w>
g o
pir masis</w>
G i
po lie
ation al</w>
pini gus</w>
16 0</w>
su mon
st oj
į ved
rezulta tais</w>
ym ų</w>
str al
TUR ĖTOJ
E x
tik a</w>
pri taikyti</w>
bū dų</w>
įgyvend ina</w>
or į</w>
įstai gai</w>
suder inimo</w>
pa tari
dėj imo</w>
įtais ai</w>
esn ė</w>
bandy mus</w>
už sta
k g
va sar
nacional inius</w>
minė tą</w>
bendr ąją</w>
m ei
specifik acijos</w>
dažni au</w>
organ ų</w>
kil o</w>
D ži
DL K</w>
Dir b
santy kių</w>
patir timi</w>
lyg us</w>
on ą</w>
kon centr
ieš koti</w>
TIN IS</w>
G ai
tal o</w>
pastan gų</w>
įtais as</w>
pagalb ai</w>
c k
skyr ė</w>
prie duose</w>
uotoj ai</w>
klaus imyn
ausi omis</w>
šk o</w>
kolek tyv
Rū mų</w>
susitarim ai</w>
su stiprinti</w>
ter š
sav a
pasien io</w>
P C
mėg inių</w>
g ener
tei giama</w>
Mu i
daug elis</w>
paren gia</w>
abe jo
ab i</w>
im asis</w>
I L
pasikonsul tav
papildom i</w>
Izra elio</w>
uoj ančių</w>
panaik inimo</w>
angl .</w>
Praš au</w>
Komite tas</w>
a ero
H u
rib as</w>
pasak y
trans li
kam bar
el ge
bendr ąsias</w>
suaug usi
ekspor tui</w>
įsipareigoj imą</w>
nu kryp
u isi</w>
Vi daus</w>
š ku
net gi</w>
G en
priemon ėje</w>
T IK
disku sijos</w>
statu so</w>
si dab
eri tro
proce se</w>
plo tas</w>
skry džius</w>
pavar dė</w>
ne priim
kar ali
S ek
ver čių</w>
tak ų</w>
nacional inio</w>
medžiag omis</w>
gr amų</w>
reik ėjo</w>
avi rin
ly giai</w>
2. 1</w>
koki us</w>
Par e
sp i
special ių</w>
M at
10 8</w>
ėj ome</w>
mon e
K A</w>
sumaž ėjimas</w>
pirk imų</w>
T ali
elek tro
pagrind iniai</w>
in i</w>
Regi onų</w>
N T
18 0</w>
atlik o</w>
vykdom os</w>
kok yb
G u
turin čios</w>
d re
dal elių</w>
mi n</w>
U D
Nukryp stant</w>
Šveic a
S M
pak vie
naud ą</w>
didesn ę</w>
pa pli
techn inius</w>
valstyb ę</w>
ekonom inę</w>
per kelti</w>
nam uose</w>
S tr
min er
šeš is</w>
ab soliu
b aus
ž r</w>
tranzi to</w>
d ū
infek cijos</w>
ėm us</w>
tink amo</w>
st uose</w>
usi ą</w>
siek damos</w>
standar tiz
leng viau</w>
balan so</w>
lik a</w>
speciali os</w>
klai dų</w>
mer gai
kin tam
ė k
no rime</w>
laiv as</w>
ma g
n iz
šil umos</w>
termin ų</w>
Ž IV</w>
moteri ms</w>
sūn us</w>
svarb ą</w>
per ved
anči oje</w>
G R
fo r</w>
atsar giai</w>
Kemp ingai</w>
sistem ai</w>
ne tiesiogiai</w>
n amo</w>
laisv ai</w>
E i
viene to</w>
sk rai
rak m
n av
P G
atme sti</w>
atsak ingos</w>
ž as</w>
sutar tyje</w>
naudoj asi</w>
vykdy mą</w>
orlai vių</w>
atei ties</w>
su mų</w>
mė ly
skaidr umo</w>
ži ur
A z
priskiri ami</w>
on e
Tai s
K A
projek tai</w>
Šved ijos</w>
Veng rijos</w>
9 ,
varik lių</w>
t uotos</w>
Autom obi
uoj amą</w>
kitu r</w>
ken t
K ei
ak redi
Pare išk
žu vis</w>
sudedam osios</w>
Bal sav
B en
pras me</w>
ym ai</w>
didžiausi os</w>
u v
pagrin dą</w>
ki u</w>
pu b
Bendra darbi
alyv uo
- ų</w>
kuri ant</w>
i enos</w>
om unik
ketu rių</w>
dokumen te</w>
1 15
Euro pe
pareig ų</w>
pilie t
sti ci
či ą</w>
kar aš
raz il
sudar yta</w>
Respublik ai</w>
puik iai</w>
problem ą</w>
me l
li aus</w>
skirsn į</w>
ne atsižvelgiant</w>
O p
pavoj ingų</w>
nurod ant</w>
av us</w>
J EI</w>
12 .
turim a</w>
V anden
Orlai vių</w>
ėm imas</w>
M P</w>
tū rio</w>
li uose</w>
išsaug oti</w>
K r
ma x</w>
b ra
Portugal ijos</w>
K ol
DĖ L</w>
C C
reiting ų</w>
ger a</w>
uot is</w>
grei tis</w>
sau lės</w>
priežast ys</w>
2 99</w>
asmen is</w>
in imų</w>
liud ij
išk o</w>
lyg i</w>
tarn au
taisykl ėmis</w>
Žaid imai</w>
visapusi škai</w>
vež im
kapital ą</w>
E G
sudar ytos</w>
sando riai</w>
miš inys</w>
pri emok
S ch
Pir ma</w>
sik ei
patvirtin tų</w>
pal an
sąskai ta</w>
prieštar auja</w>
w i
ap svarstyti</w>
televiz ijos</w>
žve jo
plan us</w>
pasku tinį</w>
am ino</w>
man i
Lenki ja</w>
K eli
c us</w>
vi us</w>
N em
In ve
kalb ų</w>
supran ta
atitink ami</w>
pir ma
vykdom i</w>
serg ančių</w>
hum ani
n ik
Rumun ijos</w>
plėtr ai</w>
ri eš
poreik į</w>
profesi onal
h al
alie jus</w>
nor mų</w>
veis lių</w>
pasirink imo</w>
ko se</w>
00 1</w>
Į staty
uo ste</w>
prieig ą</w>
pažang a</w>
išsami ą</w>
fil tr
po se</w>
glau džiai</w>
Bend ra</w>
sąskai tą</w>
Dan ija</w>
rib avirin
pasak ykite</w>
P T</w>
žaid imas</w>
perži ūrą</w>
kas dien
fen il</w>
vyr as</w>
om budsmen
chlori do</w>
rem tis</w>
3 6
bū sim
medžiag oms</w>
veiksming umas</w>
rekomend acijos</w>
di s
f al
dy džiai</w>
Ne t</w>
navig acijos</w>
vai stais</w>
skirst ymo</w>
europa. eu</w>
J au</w>
al ūs</w>
pa ly
iš klaus
ban kai</w>
sky rimas</w>
efek tą</w>
ėj imai</w>
panaš us</w>
K iek</w>
1, 5</w>
es min
Ne žinau</w>
JUN G
A c
techn inę</w>
pusiaus vyr
kompiu te
de l</w>
uo tasis</w>
priemon ėse</w>
ženkl ų</w>
skaity kite</w>
13 8</w>
ži ūros</w>
šil tnam
pa matyti</w>
oj au</w>
apyvar tą</w>
integra cijos</w>
žing snis</w>
pripaž įsta</w>
par engi
ne le
RA I
rody ti</w>
10 5</w>
pažeid imų</w>
l iniai</w>
aplin k</w>
Pri emon
saug umas</w>
gal vo
uo stų</w>
pažeid imo</w>
keiči ami</w>
Pas ku
Pri eš
s lių</w>
įnaš as</w>
leidži amas</w>
10 1</w>
santy kius</w>
lin ija</w>
ko voj
ak tą</w>
su reng
plė tra</w>
d muo</w>
a kių</w>
ME TO
V el
B razil
B ran
gai le
L ik
nustaty tomis</w>
acqu is</w>
Vien a</w>
LT 0000
ėj usi</w>
ministr as</w>
F ak
deklar acijos</w>
tal og
hepa ti
eta pe</w>
b u</w>
au š
T VAR
A ta
ap lank
reikalav imą</w>
Nor ė
kl ub
cin ei</w>
Pu ik
mak ro
rod os</w>
veiksming as</w>
tradi cinių</w>
nak tį</w>
Turki jos</w>
C or
stebė ta</w>
kl o
H a
e ji</w>
tiesi ai</w>
st eng
Bri tan
me tinės</w>
ë s</w>
si uose</w>
de gal
ri š
r os</w>
plėtr ą</w>
kg m</w>
SPECIAL IOS</w>
Š į</w>
ėm ėsi</w>
patron uoj
z e
eksportuoj ančių</w>
S C
Reik ėtų</w>
finans inis</w>
u j
sm ar
s anglaudos</w>
pareigūn ų</w>
tūr ai</w>
TIN KAM
a k</w>
laisv ą</w>
kal io</w>
vi zi
K T
rodik lis</w>
kryp timi</w>
Or gan
sau gy
AT S
gru pes</w>
In su
la s
sav ybes</w>
sim b
po sistem
narkotik ų</w>
patir tis</w>
komite tu</w>
ap ž
še im
tvirtin o</w>
krauj agy
s vertin
S kry
part ijos</w>
reikal ingos</w>
padė tų</w>
koki e</w>
hor mon
ko rek
finans inius</w>
st inio</w>
praneš imus</w>
d ūr
Nyderland ai</w>
vi valen
inform avimo</w>
ne viršij
kodek so</w>
per draudimo</w>
din as</w>
8 4
pri jung
paskir tas</w>
įtrauk a</w>
šal tinis</w>
savivald ybė</w>
t yb
ir gi</w>
ber ni
S ak
Bul g
įsik ūr
e inam
organiz avimą</w>
gryn ųjų</w>
pr om
X X
pirm osios</w>
Šal ies</w>
vaig ž
su m
ekonom inio</w>
Pacien tams</w>
gri po</w>
die n</w>
M T
darb us</w>
konkreči us</w>
gyvūn inės</w>
abi pusi
A ir
uo n
TF AS</w>
požiū rio</w>
sem in
orlai vio</w>
spe ri
ink o</w>
či ant</w>
ik as</w>
kvo tas</w>
apriboj imus</w>
an alog
pini g
Bo sn
ne atitik
lo terijos</w>
m ul
kon tra
aug imą</w>
im in
s fer
reikal ingų</w>
pagrindin es</w>
ok s
K el
EI B</w>
sn iems</w>
k rakm
al e</w>
IS TRA
įvertin imas</w>
padidėj ęs</w>
for min
deryb as</w>
organiz mo</w>
in kai</w>
didžiausi ų</w>
In f
gyv ybės</w>
dažn io</w>
pa den
rib ą</w>
į tari
tik ai</w>
nedels damos</w>
ė ta</w>
pa ro
L on
at min
prie dus</w>
projek tams</w>
en ų</w>
antraš tinės</w>
Ne galima</w>
om ųjų</w>
didesn io</w>
vaik o</w>
milij onų</w>
skiri ami</w>
kieki ui</w>
19 87</w>
rezoliu cijos</w>
K PR</w>
vieto j</w>
b ažny
konkuren ciją</w>
0, 5</w>
pirm ąjį</w>
K am
es ančios</w>
Ekonom ikos</w>
šk a</w>
vieno dai</w>
pritari u</w>
K R
kiekvien oje</w>
būtin ai</w>
vieninte lis</w>
Impor to</w>
į plauk
lap elį</w>
praš y
atskaitom ybės</w>
M ė
panaš aus</w>
dy mą</w>
bur ną</w>
lygmen s</w>
kel i</w>
SE RIJOS</w>
mišk ų</w>
ab sorb
užtikrin amas</w>
ra ke
apsaug ai</w>
prašym us</w>
iš gir
vari an
PRIEMON ĖS</w>
svarb ių</w>
Graik ija</w>
pasl ap
do le
abejon ių</w>
m ėms</w>
papildom us</w>
nor mą</w>
nemok amai</w>
są mon
meto do</w>
varto tojai</w>
doz ių</w>
ra dio
biur o</w>
nuro domos</w>
h am
MEDŽI AG
preki auti</w>
at ski
ti c
suteiki amas</w>
Ci ty</w>
ėj imu</w>
veik imą</w>
0 9.
skie p
T OS</w>
Valstyb ių</w>
vanden ilio</w>
dokumen tuose</w>
o i
M EN
di pl
ta cija</w>
V ER
D O
lentel ę</w>
konstruk cijos</w>
tin us</w>
sek su
ma inų</w>
su vest
nepasi eki
AC E</w>
ė liai</w>
ak va
jė ga</w>
O ro</w>
či ui</w>
tapat ybės</w>
charakteristik as</w>
žiniasklai dos</w>
pus ę</w>
galė tume</w>
M M
mai stu</w>
J į</w>
u þ
komi sijos</w>
Sprend ime</w>
val c
mu li
žym iai</w>
plat inimo</w>
likvid avimo</w>
emi ten
ĖJ IMAS</w>
suteik tų</w>
žal a</w>
centr inių</w>
ma tav
eli ui</w>
kam pan
išk ą</w>
ė kite</w>
aud inio</w>
milte lių</w>
aip sn
pakarto tinai</w>
nenu statyta</w>
di stili
būkl ę</w>
Fe dera
re ziden
atsak ing
Portugal ija</w>
2. 2</w>
dė tų</w>
Jėz us</w>
praš o</w>
gali au</w>
ci lin
S K</w>
stero i
k ran
gav ėjas</w>
ger ti</w>
gali ą</w>
biudže tas</w>
metal o</w>
maš inų</w>
10 9</w>
NE PA
si li
su žinoti</w>
patikrin imą</w>
AT A</w>
t onom
rin kite</w>
pajė gų</w>
laip sn
em bri
d omis</w>
pagrind inius</w>
ap val
P ER
atsak ė</w>
l inis</w>
kar o</w>
susitarim u</w>
grindži ama</w>
terap ija</w>
saug a</w>
si au
nu kreip
paiešk os</w>
pag ei
on a</w>
ek vivalen
jau ne
sunk us</w>
funk ciją</w>
ato stog
organiza cijoms</w>
S A
pra deda</w>
per kel
kenk s
vai dmuo</w>
nu sprę
ne taikomi</w>
me t
l ę</w>
pi o</w>
laik ym
h a</w>
be ta</w>
Ū R
pareišk ėjo</w>
li n</w>
J ų</w>
mėne si
M AC
0 4
pasi reikšti</w>
nar e</w>
bendr ąja</w>
artim i
įgul os</w>
bu i
va jaus</w>
Įsi galiojimas</w>
remon to</w>
ki lo
pakei sta</w>
smen s</w>
kele tas</w>
oj imą</w>
nomenklat ūra</w>
NUO STAT
l auki
ne rū
sun kumo</w>
siun čia</w>
tarn yb
taik os</w>
r atų</w>
REIK IA</w>
d uotos</w>
rin t</w>
vieš bu
st el
sk o</w>
gav ėjo</w>
G ru
AN TRA
ap tar
. europa.eu</w>
trauk imo</w>
aišk inti</w>
rieš u
K il
į registr
mu š
aukš to</w>
M ol
pl e
gran din
po žiūr
Inve sti
US E
vidu mo</w>
2, 5</w>
ne turėjo</w>
Bulg arijos</w>
1 1
pasta tų</w>
Vilni aus</w>
kok ybė</w>
nurody toms</w>
Bū tent</w>
pir mas</w>
komand a</w>
pa rem
Bū tina</w>
am ąją</w>
laiky damasi</w>
Toki a</w>
reikal ingą</w>
paveik sl
galu tinį</w>
dalyvauj ančių</w>
N ieko</w>
ne diskrimin
vanden ys</w>
ol an
sudedam ųjų</w>
P O</w>
v ė</w>
c or
8 ,
ra jon
raš yti</w>
apskaiči uojama</w>
gal o</w>
Tarn ybos</w>
Komite to</w>
ki š
cik lo</w>
rov ę</w>
lik o</w>
dal imis</w>
am am</w>
kli ren
Su dė
pasiek tas</w>
Y TI</w>
pir men
li ber
trūk sta</w>
susi tar
slė gio</w>
uo laik
tuo tų</w>
sutar tys</w>
Papra stai</w>
w or
TO P</w>
AU C</w>
spal va</w>
ne galiu</w>
ad vok
šiltnam io</w>
susi siek
de gin
K ie
reikal ingi</w>
ti on
m yl
sen os</w>
ap švie
Ver slo</w>
skaiči uojant</w>
gam tos</w>
k vai
at skaitos</w>
įsig ij
st engi
požiūr į</w>
Af rik
de dama</w>
dve jus</w>
mer gin
S au
. lt</w>
koj u</w>
ci z
augi uosi</w>
atsak yti</w>
r us</w>
gr į
S G
įgalio tinis</w>
tę si
Kon kur
tikr o</w>
iš gelb
įsipareigoj imas</w>
ryš ys</w>
prek yb
201 9</w>
egzist uoja</w>
apskaiči uota</w>
VI R
Her ce
F anų</w>
pra ėjusi
man yti</w>
naudo tojų</w>
Aust rijos</w>
suinteresuot ųjų</w>
pa im
uoj amus</w>
nuomon ė</w>
administra cinės</w>
už registr
mon i
surink ti</w>
sin dr
teik ėjas</w>
išk el
uk o</w>
su vok
baigi asi</w>
es antis</w>
Herce gov
su telk
į tik
ch ten
trum pe
techn inio</w>
tur inio</w>
an ta
Pasau lio</w>
bandy mai</w>
sąjun gos</w>
Juo d
res as</w>
Tarptau tinės</w>
ypating ą</w>
įsi pareig
dė ž
truk mę</w>
teri s</w>
so n</w>
Ru sija</w>
U rug
nu kent
į sak
tr up
reik menys</w>
išk ų</w>
Š AL
perkėl imo</w>
į kai
uo stas</w>
kompens acijos</w>
P il
Š I
nacional inė</w>
l umo</w>
apsi lank
C PA</w>
teik imas</w>
rezoliu ciją</w>
tyrim ams</w>
rū s</w>
paskelb ė</w>
rai g
kar t</w>
ym us</w>
pirm oji</w>
pažeid imus</w>
KOM ITE
re lig
paslaug a</w>
P I</w>
suk aup
kvalifik acijos</w>
vė ž
st ul
konstatuojam osiose</w>
h er
T Ų</w>
gyn ybos</w>
D .</w>
šal tinio</w>
tikr oms</w>
prireik ti</w>
00 000</w>
v i</w>
iniciatyv os</w>
nagrin ėti</w>
apara tai</w>
aprib oti</w>
dvi ra
inink ą</w>
5 0
ij oms</w>
S C</w>
Į SP
po il
m is</w>
papraš yti</w>
objek tų</w>
pa tar
hi dr
E .</w>
deleg uot
reglamen tai</w>
Pa sta
stabil umo</w>
gyvūn us</w>
at kūrimo</w>
Latvi jos</w>
stan as</w>
Island ijos</w>
Ser b
AR BA</w>
3 7
es ančio</w>
am uosius</w>
poreik is</w>
lie j
Europe an</w>
turin į</w>
peln ą</w>
žin ome</w>
tek ste</w>
pran cūz
T ais</w>
plat umos</w>
TIN Ė</w>
N K
In jek
žai sti</w>
dešim tme
vai stas</w>
pagrin dų</w>
Pas ak
vieno das</w>
ka k
sudar ytų</w>
pasiūly mai</w>
chlo ro
grup ėms</w>
G A</w>
st im
atsižvel gia</w>
fen il
automobi lio</w>
švirkš ti</w>
vis omis</w>
un g</w>
I F
į dom
kei stis</w>
on us</w>
r i</w>
prieglob sčio</w>
U I</w>
10 2</w>
renk a</w>
P ol
ė lės</w>
nacional inėje</w>
M A</w>
arb i
rodik lių</w>
kalb ė
LE D</w>
gam inio</w>
d oje</w>
Cen trin
zon as</w>
Si ūl
peri o
apraš yta</w>
FAR MAC
i dėj
demokrat ijos</w>
V O
išnagrin ėti</w>
Var toj
B ir
up ės</w>
tre jus</w>
technolog ijas</w>
plauki oj
pasau lin
E L</w>
nuosta tą</w>
virus o</w>
m i</w>
in imus</w>
Po veik
Au stral
ėj ę</w>
pasi ruoš
nepa pra
do vo</w>
šk i</w>
elektron iniu</w>
si r
T IS</w>
ą žin
patvirtin ama</w>
pareišk ė</w>
f u
d ę</w>
18 2</w>
svarbi ausia</w>
sta lo</w>
subsid ijų</w>
I eš
įgalio tinio</w>
zdži ų</w>
is o</w>
E P</w>
tarptau tiniu</w>
nenuro dyti</w>
dėj au</w>
pasiūly mu</w>
st um
pristaty mo</w>
skirtu mų</w>
moder niz
rin ė</w>
moter ys</w>
mechaniz mas</w>
į rod
st inė</w>
pagamin tas</w>
e poe
lo š
N B</w>
1. 2</w>
komponen tai</w>
pr am
grįž ti</w>
įvertin imą</w>
de n</w>
o rių</w>
katego rijai</w>
či ame</w>
tyrim uose</w>
pa ver
H ol
foto graf
Ju k</w>
ad re
Li chten
iš lieka</w>
S to
telek omunik
J K</w>
pre s
pirm inio</w>
bū dais</w>
išankst inio</w>
daly viai</w>
T ra
S AS</w>
pajėgum us</w>
ka r</w>
darb da
1 107</w>
lik vidumo</w>
kriterij ais</w>
to lim
alyvuo gių</w>
Euro po
NU SPREND
suk ūr
la vi
du jos</w>
bū dą</w>
vartoj ama</w>
pateiki ant</w>
reik mėms</w>
Tiesi og</w>
li f
pajėgum ai</w>
tū ris</w>
ri f
NUOSTAT OS</w>
m em
už duo
anči ose</w>
mažesn ės</w>
institu ciją</w>
pel nas</w>
pasak ė</w>
inve stavimo</w>
aiš ki
še šių</w>
patal pose</w>
nauj i</w>
ver ti</w>
t ąjį</w>
di n</w>
aplinkyb ių</w>
Pirmi ausia</w>
pridė ta</w>
Ko so
popie riai</w>
og en
in kite</w>
Mok sl
l ū
Tik iuosi</w>
re feren
antro je</w>
PA GAL
ėj u</w>
Gal ima</w>
Si stem
svar sty
ka vos</w>
išmeta mų</w>
E ŽŪ
ėj imų</w>
nekilnoj amojo</w>
paprast ųjų</w>
kil ti</w>
T R
mė sa</w>
nenurody ta</w>
es t</w>
apskaiči avimo</w>
Vokiet ijoje</w>
tarn ybų</w>
įran gai</w>
elge sio</w>
nauj ai</w>
byl a</w>
kal cio</w>
susijusi ais</w>
p ly
klas ė</w>
hi dra
Dau gi
FORM A</w>
su žvejo
J e
naudo tojams</w>
d emon
ver pal
sukeli ančių</w>
euro p
SPECIAL US</w>
žmon a</w>
TINKAM UMO</w>
vi tro</w>
t to</w>
ve sti</w>
interne tu</w>
taisykl ėse</w>
funk cijų</w>
au tobu
aspek tų</w>
I B
vaik us</w>
sp p</w>
pro pil
nuosto lius</w>
vak arų</w>
tik iuosi</w>
susi grąžin
deng tos</w>
teis inių</w>
keli u</w>
c es</w>
20 1</w>
priim tos</w>
ki tam</w>
kon di
Ank ste
dy tų</w>
gav us</w>
e rio</w>
NUSPREND Ė</w>
investi cijas</w>
vai s
stori s</w>
atitik tį</w>
pareng tas</w>
tarptau tinio</w>
pa tarim
s vy
lank y
galimyb e</w>
Lichten šte
A O</w>
tarif o</w>
Tali bano</w>
G I
man ymu</w>
vaist inio</w>
di dmen
ne daro</w>
Finans inio</w>
nepa steb
atsiran d
F O</w>
mode lio</w>
Pa ki
nurody tu</w>
mu ta
mokykl os</w>
i ii</w>
san i
5 -</w>
U C
pri tar
reiki amų</w>
kalb ama</w>
vyk stan
3 A
labor ator
kvo tą</w>
Bi udže
baz ės</w>
K ur
pobū dis</w>
3. 1</w>
m is
M ik
Apl ink
tuo k
at kurti</w>
iš naš
kal tin
sutrik imų</w>
sertifik atas</w>
protokol as</w>
Nu sta
tobul inti</w>
eur ais</w>
princi pu</w>
kvė pavimo</w>
cin e</w>
vy ku
rink inys</w>
vien ti
et iškai</w>
vy ni
būkl ė</w>
1 11</w>
parduo tuv
Gr ąžin
ser ume</w>
2 10</w>
svarbi os</w>
priedė lyje</w>
lėš omis</w>
Ch em
pavyz dį</w>
geri ausia</w>
bū dus</w>
ra b
ci l
posė dži
posė džio</w>
nacional iniai</w>
Ma ži
ĮSP ĖJIMAS</w>
Te n</w>
PS O</w>
skirtu mai</w>
Pagalb os</w>
zon a</w>
uotoj ams</w>
reak cijų</w>
įmon ę</w>
ūk is</w>
pa rink
egz em
av imai</w>
terito rija</w>
jaun imo</w>
IN ST
an o
infek cija</w>
uot ė</w>
kamba rio</w>
gen ero
VAR TO
Ko das</w>
s rovės</w>
panaikin tas</w>
trau kia</w>
meto du</w>
din imo</w>
palik ti</w>
kul tūr
pritari a</w>
Vi ra
Valst ijų</w>
V O</w>
M I
žvej oj
objek tyvi
atom inės</w>
Č I
N ėš
Rem damasi</w>
E X
treči osiomis</w>
tinkl ą</w>
at ės</w>
Q u
tvar karaš
didėj a</w>
skirst ymas</w>
n amus</w>
Ve terin
PA Ž
Pagalb a</w>
st ro
iš nyk
usi am</w>
spindu li
nutrauk imo</w>
oci tų</w>
valand os</w>
te tra
men a</w>
tinkl as</w>
partne rių</w>
nurody tam</w>
PP O</w>
vertin amas</w>
neigi amą</w>
maž a</w>
in tą</w>
ten zija</w>
prasi deda</w>
Atsižvelg dama</w>
darb e</w>
Papra st
A G</w>
pa remti</w>
sky st
Pri reik
finans iniai</w>
ce ro
lauk o</w>
centr e</w>
VI E
plokš tu
n io</w>
ger bi
c es
ku ni
kū rimą</w>
nagrinėj amojo</w>
B and
teiki amas</w>
sij ai</w>
kieki ų</w>
ik lis</w>
ik o</w>
tu š
E r
poli tinių</w>
av al
vis uose</w>
ry šį</w>
H ar
skir tis</w>
perdav imas</w>
pateik us</w>
uoj amo</w>
skat inimo</w>
Pre kių</w>
myg tu
men o</w>
gyvūn ais</w>
išk u</w>
ž vaigž
teis inio</w>
li ū
dav ė</w>
padidėj a</w>
V A</w>
-- -</w>
19 89</w>
ūk yje</w>
požiū ris</w>
nustaty tais</w>
Ki pr
uo siuose</w>
Gal u
veiksn iai</w>
ger ą</w>
sker smuo</w>
Vyriaus ybė</w>
so f
gam inius</w>
t .
sistem oms</w>
vo liu
ženkl ą</w>
om osios</w>
nar y</w>
konkuren cija</w>
ištir ti</w>
g os
F O
Ba y
vykdy mas</w>
tu rizmo</w>
sertifik atų</w>
komer c
il gio</w>
sak y
rij oms</w>
mo kumo</w>
ra site</w>
t ūs</w>
laikotarpi ams</w>
svarb ų</w>
smar kiai</w>
priešta rav
bu i</w>
apž val
produk tui</w>
uždeg imo</w>
um us</w>
pe stici
er os</w>
S US
ro p</w>
federa cijos</w>
Ne pažeidžiant</w>
Bank o</w>
techn inė</w>
A s
pakuot ėje</w>
frak cija</w>
at skirti</w>
suinteresuot osios</w>
oficial usis</w>
veik snius</w>
paly dov
nor mal
J ame</w>
nepakank a</w>
mag ne
ne ši
teis ėms</w>
M O</w>
sav ininkas</w>
dalyv avimas</w>
Veik s
Nor int</w>
EM EA</w>
Žin ai</w>
Ko l</w>
pro pi
medžiag ai</w>
Ž ali
ykl ės</w>
tari ant</w>
pa v
Kor ėjos</w>
prietais ai</w>
pa naudojimo</w>
ekspor tuoti</w>
Su rasta</w>
su prat
padar inių</w>
i tek
akva kultūros</w>
S av
prisi im
ne taikomos</w>
au tori
klasifik avimo</w>
j aus
ar e</w>
didel i</w>
numaty to</w>
akivai zdžiai</w>
METO DAS</w>
6 0
posė dyje</w>
balty mų</w>
š on
užbaig ti</w>
i stor
disku sijų</w>
tini uose</w>
skol in
ar us</w>
gav ėjų</w>
re ti</w>
grei čio</w>
papildom o</w>
S I</w>
deg imo</w>
sni am</w>
rodik lius</w>
neu tr
ne galime</w>
anči ojo</w>
susirūpin imą</w>
požym iai</w>
papunk tis</w>
at kreipi
skun dą</w>
interes ams</w>
geri ausias</w>
t imai</w>
Prireik us</w>
Šved ija</w>
santrauk a</w>
i st
ap rė
N ek
Euro pai</w>
tap tų</w>
raj ono</w>
dalyv avimą</w>
anči uose</w>
Pri val
vai siai</w>
mini stra
PAKUOT ĖS</w>
rov imo</w>
FARMAC INĖ</w>
ban dyti</w>
atsak as</w>
apskaiči uojamas</w>
kor telės</w>
ali u
es anti</w>
ų jį</w>
tap s</w>
pozi cijas</w>
pluoš to</w>
patal pų</w>
cin as</w>
ir ur
vald yba</w>
pa laiko</w>
maršru tu</w>
An t</w>
turin tiems</w>
Ne dažni</w>
įvy kių</w>
stati stik
kor pus
G ry
vertin a</w>
uždrau sti</w>
uot iems</w>
d rin
buve inės</w>
3 4
princi pais</w>
konsulta cijas</w>
ger os</w>
kl o</w>
P R
Li b
suteiki ant</w>
priim ami</w>
P h
susi rink
lank st
Iš sam
su žin
pri sta
Aust rija</w>
paslaug ą</w>
pat en
kl inių</w>
l uo
b is</w>
Ž r.</w>
pa daug
der inimo</w>
3, 5</w>
žo džiais</w>
b ą</w>
įtrauk imo</w>
dar ai</w>
už sik
rati fik
lin k</w>
J oki
Fran ce</w>
ung ty
oj imai</w>
ka talog
ak tas</w>
an tros</w>
S an</w>
ž i</w>
z enta
17 8</w>
vanden ų</w>
diag n
šlap imo</w>
ve j
galioj ančių</w>
eksploat uoti</w>
siūl oma</w>
region as</w>
licen ciją</w>
finans inį</w>
ne pažeidžiant</w>
D r
vaik as</w>
papil dyti</w>
apkrov os</w>
Toki e</w>
Ad ministra
tikė tis</w>
min .</w>
ak is</w>
pakei tė</w>
reišk inių</w>
at ėjo</w>
doz avimo</w>
birž os</w>
patvirtin tą</w>
IN G
D er
Su b
AM OS</w>
techn ines</w>
eksp ozi
kul tū
byl ose</w>
T em
pavidal u</w>
mie stų</w>
der amai</w>
M S</w>
diag no
tn audži
man imi</w>
neteisė tai</w>
žin ote</w>
kaž kas</w>
laiv e</w>
atvej ai</w>
am en
tr unk
n ational</w>
išk os</w>
stru men
m inio</w>
So cial
dioksi do</w>
P TL</w>
General inis</w>
kvo ta</w>
importuojam iems</w>
Bel g
tim ui</w>
paruoš ti</w>
au tonom
F er
pakeit imą</w>
min imos</w>
Ki pro</w>
KOMITE TAS</w>
isto rija</w>
toj ą</w>
pagrį stos</w>
organiz mų</w>
an e</w>
sij as</w>
numaty tus</w>
el imin
a din
su maiš
nu gar
šk inimo</w>
į veikti</w>
ši uose</w>
sien io</w>
rež imas</w>
ne pakankamai</w>
e don
statu sas</w>
pa mirš
b ali
kū rimas</w>
ap tarn
ne abejo
atsar gos</w>
qu e</w>
teis mų</w>
oper atorius</w>
muz ikos</w>
atitink ančios</w>
l d</w>
Ind one
skirtu mus</w>
b ag
atsk leisti</w>
a cijose</w>
prietais ų</w>
T P</w>
priedė lio</w>
har ma</w>
f ur
F il
vanden iu</w>
tek sto</w>
r ų</w>
Nacional inės</w>
sudė tis</w>
klien tams</w>
daugia šalių</w>
susij ung
kar al
D raud
įnaš o</w>
dalyk us</w>
buv ęs</w>
tek stą</w>
du gn
kas dien</w>
in ko
įtais ų</w>
srau tas</w>
sl o
b ase
kliū čių</w>
pateik to</w>
usi as</w>
egzem pli
L imi
nurody tai</w>
V .</w>
pateik tais</w>
kompens uoti</w>
14 0</w>
er v
aler g
dė jų</w>
oni ams</w>
eks ikos</w>
Urug vajaus</w>
ži ūra</w>
res s</w>
pirm ąją</w>
d ag
ju d
Vadov aujantis</w>
M eksikos</w>
pri lyg
pl ū
ci r
trum p
an ai</w>
S AU
kalb ą</w>
dvi šal
tarptau tinius</w>
a cijomis</w>
G ele
veikli ųjų</w>
telefon o</w>
lo gi
Atsi prašau</w>
gos lavi
Ju goslavi
kar to
laisv ę</w>
pasiraš yti</w>
nepakankam umas</w>
eta po</w>
subsid ij
tik tai</w>
d ija</w>
plokš tės</w>
8 0
O b
Treči osios</w>
t ąją</w>
sprendži ant</w>
ilg umos</w>
no tifik
le is</w>
Kon ven
Mini str
Euro pą</w>
dr ą
asmen į</w>
medži ų</w>
konsulta cijų</w>
ar toj
land ų</w>
G AM
centr aliz
tiesiog inio</w>
mui tą</w>
ink as</w>
atskir as</w>
D AVIMO</w>
žmon ėmis</w>
pra d
įrody mus</w>
bendradarbi auja</w>
leidži anti</w>
tyrim ais</w>
Toki os</w>
P RA
N S</w>
ž er
priek į</w>
Naud o
a vių</w>
pas veik
ge r</w>
gali ojo</w>
st oti</w>
K ul
te o
atsakom ybė</w>
OJ I</w>
az oto</w>
R om
ausi ojo</w>
tal ų</w>
sa kiau</w>
elg es
ą š
tek stu</w>
neigi amas</w>
au to
š u
ra vimas</w>
Automobi lių</w>
t ėms</w>
gen o
vanden yje</w>
tol og
apskaiči uojant</w>
TIN A</w>
e .</w>
Gal būt</w>
galim ų</w>
al g
viz u
gr ę
L ap
įreng inys</w>
na rius</w>
gau b
vaist inių</w>
subsid ijos</w>
rim tai</w>
re tai</w>
pana ši</w>
Ata skai
13 9</w>
pa rod
ženkl u</w>
ri ton
k ali
Vis as</w>
paskelbi a</w>
a ci
yst ė</w>
kalb ėjo</w>
re ali
lap elyje</w>
klai da</w>
srau tų</w>
LAIK AS</w>
plan avimo</w>
epi zo
ėj usių</w>
B P</w>
stū mok
skirtu mo</w>
pa sto
mai stui</w>
impor tą</w>
sveik atą</w>
registr ą</w>
įvai rius</w>
išku mą</w>
Do kumen
bū tini
Gamin tojas</w>
skat in
kriz ę</w>
pacien to</w>
om o
S tra
Ši ą</w>
social inę</w>
naudoj imu</w>
Pasi ūly
tė vas</w>
pi gių</w>
įraš o</w>
tur tu</w>
reglamentuoj ančių</w>
pa ko
val .</w>
special usis</w>
av ar
Pa dė
li acijos</w>
de dant</w>
Di de
išme timo</w>
E C</w>
vertyb iniai</w>
svarbi ausių</w>
kiau ši
žo džiu</w>
tikri ausiai</w>
lėk tuvų</w>
dė v
S im
si e
per keli
sąskai tas</w>
F ar
jautr umas</w>
infra struktūra</w>
gen etiškai</w>
g on
š ar
m inių</w>
ing u</w>
aipsn iui</w>
3 18</w>
dži ama</w>
ac inės</w>
35 4</w>
pasta ro
mok ymas</w>
pik tnaudži
mok ymą</w>
pride damas</w>
ap sikei
sk amb
Ypa č</w>
H C
re aliz
mai tinimo</w>
api bendrin
Slovaki jos</w>
Prek ybos</w>
EU R
A tro
įgalioj imais</w>
veiksmin gos</w>
proporc ingai</w>
dži aug
duot ą</w>
vietov ėse</w>
al ap
Gro up</w>
D S</w>
vidur kis</w>
i te</w>
žym i</w>
priemon ei</w>
de z
ak cijos</w>
T a</w>
pasi dal
kon cep
kai ta</w>
in strumen
K P</w>
turim ų</w>
siun tos</w>
pažeid imas</w>
nagrin ėjimo</w>
Kroat ijos</w>
din į</w>
biur as</w>
skubi ai</w>
gl aud
aukš tis</w>
atrink tų</w>
aplink a</w>
pri dėti</w>
tvar kom
struktūr inių</w>
K U
pavadin imo</w>
moksl inius</w>
vi ta
stim uli
Latvi ja</w>
mir ting
m oj
tero riz
pra dinio</w>
4 68</w>
darbuotoj us</w>
f ek
ap tarti</w>
ž ol
prisi deda</w>
padė tyje</w>
kukurūz ų</w>
0 2
speri men
saug umui</w>
ek ran
žo dis</w>
či uose</w>
prival ome</w>
Die v
efektyv umą</w>
tu šči
1 30</w>
šil dymo</w>
kil tų</w>
Ži ūr
li os</w>
si el
K o</w>
Balsav au</w>
ko le
ekspor tą</w>
atsiskaity mo</w>
taup ymo</w>
P os
vanden yno</w>
sąvok a</w>
emi sijos</w>
apim tį</w>
- ių</w>
raj one</w>
k .</w>
P .</w>
š var
uo k</w>
pratę si
hipoglikem ijos</w>
veiks mams</w>
saug omų</w>
ro se</w>
įgyvendin amas</w>
penke rius</w>
la tas</w>
elemen tus</w>
amži us</w>
tab ako</w>
gau tą</w>
din g</w>
A li
teis inę</w>
išduo d
c t</w>
ki tuose</w>
bi oci
Nuo rodos</w>
prar ad
D R</w>
per skaitykite</w>
auk ci
konkre taus</w>
Limi ted</w>
atnauj inimo</w>
atliek as</w>
š er
olan zap
form al
av en
vanden į</w>
4 4
inan ti</w>
įsteig ta</w>
priskiri amos</w>
už krė
kš či
k e</w>
ren gia</w>
dialog ą</w>
sau gi
operat yv
m ama</w>
model is</w>
k ime</w>
tol er
e .
om us</w>
mo tor
IN IAI</w>
inf o</w>
al inių</w>
D ATA</w>
įsteig tas</w>
terito rijose</w>
iš leisti</w>
sava ime</w>
reglamen tų</w>
ap gyvend
B O
u re
svie sto</w>
u n</w>
aug imas</w>
ne palanki
doz es</w>
žini as</w>
aukš čiau</w>
Ad resas</w>
sąlyg oms</w>
Kin ija</w>
1, 3</w>
ministe rijos</w>
dur ų</w>
re al
ik lių</w>
dažn ių</w>
R .</w>
Atlan to</w>
va dovo</w>
tašk o</w>
12 3</w>
rem ia</w>
SKIR SN
įraš ai</w>
tink u</w>
proces ų</w>
kieki u</w>
12 2</w>
ch irur
turin ti</w>
o tos</w>
gydytoj u</w>
5 000</w>
kom prom
PAGAL B
lin ijų</w>
ger o</w>
YM AS</w>
pasku i</w>
kry ž
vyriaus ybė</w>
pa vyko</w>
nežin omas</w>
klau sti</w>
si l
katego rijas</w>
tei gin
pareig a</w>
3. 2</w>
pag arb
lem ia</w>
es antys</w>
uo tai</w>
. 2</w>
vis am</w>
nurody tomis</w>
kr uo
anči ame</w>
stab dymo</w>
sumažin tas</w>
priva taus</w>
li auk
gyvu lių</w>
din g
tuv e</w>
ran kas</w>
išveng ta</w>
balsav au</w>
J er
me ti
d s</w>
savaranki škai</w>
nusta čius</w>
k W</w>
veiksmin ga</w>
ly čių</w>
gyven ime</w>
N ACE</w>
G av
sen a</w>
e tan
triukš mo</w>
es amų</w>
T uomet</w>
kliū tis</w>
iš leidimo</w>
telekomunik acijų</w>
in oje</w>
g es
susidu ria</w>
reiki amą</w>
val do</w>
humani ta
tel is</w>
lig omis</w>
išku mas</w>
alf a
teik imą</w>
laip snio</w>
farma kolog
š v
yl a</w>
aud inių</w>
va ku
įve sti</w>
veiks mais</w>
infra struktūrą</w>
skry džiai</w>
omen yje</w>
Rū mai</w>
-------- --------
aktyv umo</w>
kvadr at
ing umui</w>
T o</w>
atidė lio
iš lei
pagrindin ę</w>
medvil nės</w>
do ta
bals uoti</w>
0, 1</w>
tiek ti</w>
prieig a</w>
treči osiose</w>
suk ėl
susi daro</w>
pal aipsniui</w>
di aliz
1 1.
me tinių</w>
kaž ką</w>
J Ų</w>
či as</w>
apmokest inam
tikr omis</w>
4. 2.
ari jų</w>
ėj ais</w>
Sta bi
place bo</w>
kl as</w>
pacien tui</w>
grie b
išmeta mo</w>
Tink a</w>
rin ėj
reikš mės</w>
ra cijos</w>
ke t
Mak edon
sak ant</w>
c y</w>
sky rimą</w>
aplink ybės</w>
paskir tis</w>
nurody mus</w>
ruo ž
toki am</w>
sumažin imo</w>
b ol
rin ę</w>
I rano</w>
iš reikšti</w>
gal imo</w>
Kr auj
pil vo</w>
sn ėje</w>
dar iniai</w>
ne atsi
draud imą</w>
baig ti</w>
sk a</w>
dy ta</w>
Ch ar
Rumun ija</w>
licen cijas</w>
J O</w>
mechaniz mų</w>
l emi
li au
me tinę</w>
ne daug</w>
Sveik i</w>
ST O
Bend rieji</w>
Į mon
sąveik a</w>
autentišk as</w>
k ės</w>
valand ą</w>
mui tus</w>
R aš
Duomen ys</w>
PRO C
susitik ime</w>
pareng ta</w>
maž ų</w>
kap su
avir enz
Naud oj
treči oji</w>
M M</w>
lau kia</w>
P C</w>
komponen tų</w>
prie inama</w>
P lė
ac to</w>
b ang
administra cinių</w>
įstaty mą</w>
Didži ausias</w>
suspen sija</w>
ch e</w>
dži au</w>
t vari
scen a
Institu cijos</w>
pas im
nor mas</w>
kal n
invest uoti</w>
dy džių</w>
prancūz ų</w>
pabrėži a</w>
v ini
vo ž
P P</w>
tr y
iš ėjimo</w>
o u</w>
SKIRSN IS</w>
Pak ei
3 50</w>
standar tą</w>
nu tiko</w>
keli os</w>
elemen tas</w>
Nu statyta</w>
dva s
gam tinių</w>
š ū
perdirb tų</w>
kil mę</w>
kiekvien u</w>
dy kite</w>
ar as</w>
pri tarti</w>
vyk ti</w>
general inio</w>
ataskai tose</w>
ap švietimo</w>
Par aišk
reikšming as</w>
re formos</w>
pl ei
padė čiai</w>
įsi galioti</w>
pastab a</w>
k si</w>
atlyg inimo</w>
lengv a</w>
eritro poe
buteliuk as</w>
anči ajai</w>
D ata</w>
įmok os</w>
sri tys</w>
nuosto liai</w>
nuolat inis</w>
išplė sti</w>
dar omas</w>
į kur
pa vien
grėsm ę</w>
tvirtin ti</w>
A 00
pamin ėti</w>
j ūr
išduo da</w>
audi tą</w>
ko dus</w>
atitinkam omis</w>
pen kių</w>
valiu tų</w>
profes inės</w>
min tis</w>
indė lių</w>
RAŠ AS</w>
1 14</w>
treči ąsias</w>
t uotojo</w>
prisijung ti</w>
įdarb inimo</w>
būtin ą</w>
Del eg
či ul
k s
an i</w>
pram og
g ū
br u
vertin imu</w>
lai dos</w>
d omi
a fi
T ie</w>
pu sl
išdėst yti</w>
žo džio</w>
turė tojo</w>
al bu
Regi on
ori us</w>
bankno tų</w>
K oks</w>
tei siškai</w>
toki ems</w>
procen tais</w>
Pa sl
or e</w>
ma j
D A
pre ju
sk ly
kri sta
ko s
Inter national</w>
ė tas</w>
galv oti</w>
pažeidži a</w>
būtin us</w>
I N</w>
T ab
prašym ų</w>
Kon tro
1 15</w>
pa tie
ne uro
konkur se</w>
įtais o</w>
im o
šk ų</w>
tr ąš
ta dien
rank a</w>
1 18</w>
chem o
toksi škumo</w>
ši uolaik
už tais
k ėl
15 7</w>
S R
standar to</w>
apibrėž tis</w>
patiri a</w>
ketu ris</w>
atspin di</w>
BŪ DAS</w>
kelei v
kon te
perži ūra</w>
c ol
ap dai
ri os</w>
pakei čia</w>
teiki ami</w>
E T</w>
investi cijoms</w>
aišk inimo</w>
įmok ų</w>
į pareig
kaz ino</w>
įsp ū
mechaniz mą</w>
ak cijas</w>
uoj antis</w>
iš lyg
fiz inis</w>
sertifik atą</w>
išreikš tas</w>
i ð
1 17</w>
el ė</w>
A soci
tinkam u</w>
puslap is</w>
S am
D ek
form uoti</w>
ne atitink
hi gi
em ijos</w>
ch ron
įterpi amas</w>
Įsi pareigoj
vartoj usių</w>
nor ve
lygi ų</w>
kur so</w>
S AV
rekomend aciją</w>
gav usi</w>
eta pas</w>
c ro
REG ISTRA
D is
poli tinės</w>
gim ęs</w>
bendradarbi aud
ūk ininkams</w>
asignav imų</w>
T ele
min as</w>
diskusij as</w>
bendruomen ės</w>
centr ų</w>
saug ą</w>
C O</w>
už mokesčio</w>
s raig
lie tuvių</w>
vykdy tojas</w>
susi dari
s vaig
išvardy tiems</w>
A M</w>
og le</w>
Speciali os</w>
Iš skyrus</w>
sme genų</w>
tai .lt</w>
dom in
atsk leidimo</w>
ap dovan
bilie tus</w>
tie s
D V
sezon o</w>
priim ta</w>
ting ai</w>
nuot ol
in amų</w>
eli us</w>
am ės</w>
nar ę</w>
im ąsi</w>
cin o</w>
Lu x
santy ki
i de
nuotrauk os</w>
fiz inių</w>
ti azi
sunku mus</w>
pirk imas</w>
lp n
ligon ių</w>
keiči amos</w>
padė jo</w>
A pe
įgyvendin amos</w>
išdėsty tos</w>
celi uli
paskol as</w>
om ai</w>
a do
I P</w>
g ės</w>
K et
7 0
palaik ymo</w>
vaist inis</w>
gaun ama</w>
Suom ijos</w>
neį pra
dirb o</w>
administra cijos</w>
P harma</w>
žiūr i</w>
įvy ku
suteiki ami</w>
lie tus</w>
kar jer
jau či
iš gyven
dien omis</w>
c iniu</w>
ANTRA Š
5 9
paskir tį</w>
įreng ti</w>
val dom
augal ai</w>
registr o</w>
i t</w>
daug elį</w>
R EN
Jugoslavi jos</w>
Grei tai.lt</w>
tek ti</w>
išaug o</w>
griež tai</w>
geograf inių</w>
garant ijas</w>
g oje</w>
p .
naud ai</w>
sumaž ėja</w>
koki as</w>
aug a</w>
pasau linės</w>
me tinis</w>
12 6</w>
pagrį stų</w>
angi o
sk ran
DI RE
pacien tus</w>
gair ėse</w>
žo džių</w>
var dą</w>
teik ėjai</w>
mėnesi ams</w>
opera cija</w>
kondi cion
už terš
hi bri
vež ėjo</w>
pavyzdži ai</w>
pareigūn ai</w>
dal ims</w>
2 70</w>
ė lis</w>
om asis</w>
visuo met</w>
d ok
oper atori
raf in
mok ama</w>
be r</w>
L in
į jung
ofi -</w>
žiūrė k</w>
indik acijos</w>
im oje</w>
tarim ą</w>
V ol
už raš
reikalav imais</w>
patikrin imas</w>
pas pa
le uk
Go ogle</w>
įsipareigoj a</w>
su pak
at in
leidži ančios</w>
ju tik
išk i</w>
pradė ta</w>
uo stą</w>
griež te
angliavandeni lių</w>
muz ie
1, 4</w>
teis inga</w>
kryp tis</w>
vaist iniais</w>
Mo ham
In du
skirting as</w>
rink liav
euro pie
en ą</w>
eksper tai</w>
f r
ekonom inį</w>
ek sperimen
ant žem
EN A</w>
un d</w>
pakenk ti</w>
kraujagy slių</w>
bu vo
Biudže to</w>
įvykdy tos</w>
man ai</w>
laiv uose</w>
in er
Liuksembur ge</w>
tero ri
Prancūz ijoje</w>
klasifik uojamų</w>
praneš imu</w>
žai dėjas</w>
atitinkam oje</w>
su kuri
ro b
i am</w>
patvirtin amas</w>
ilgalaik io</w>
d. -
reikal ams</w>
įtrauki ami</w>
vieno do</w>
galu tinai</w>
P a</w>
4. 1</w>
tarptau tinėje</w>
b re
A prašymas</w>
įreng inius</w>
su ž
th rop</w>
tau ri
gyven amosios</w>
šal dymo</w>
palyg inimas</w>
juo k
blog ai</w>
O n
nagrinėj amuoju</w>
at kar
juri dinis</w>
iz z
J au
įsig ijimo</w>
ro log
de pre
patie kal
gaile sta
Ver tin
intelek tinės</w>
šil dy
įvertin tas</w>
gra fik
pagrindin į</w>
fi skal
inicij avimą</w>
Special ūs</w>
pra džia</w>
išreikš ta</w>
P eg
pusi au</w>
šaldy tos</w>
va z
pen ija</w>
S M</w>
program ose</w>
paskir sty
mie ste</w>
skirtu mą</w>
mi gracijos</w>
Win throp</w>
u e</w>
lik vi
a gr
įvertin o</w>
rink as</w>
pa tobulin
mechaniz mo</w>
apibrėž tas</w>
žmog išk
speciali as</w>
ro z
biudže tui</w>
įvairi as</w>
vai si
u gn
PA G
E ime</w>
sudar ant</w>
dėj ai</w>
ŪR OS</w>
par ai</w>
išmok ą</w>
D oz
įsteig ti</w>
Vyk dom
solidar umo</w>
s nu
P ab
komite tą</w>
ski t</w>
kapital as</w>
At sar
poreik ių</w>
išvardy tus</w>
tir ti</w>
LI O</w>
kai r
pe ro
spaud os</w>
kl ą</w>
O SIOS</w>
Bel gi
rekomend acija</w>
neabejo tinai</w>
model į</w>
f in
Laik antis</w>
Est ijos</w>
treči ojoje</w>
plau čių</w>
ke ik
apibrėž tys</w>
reag uoti</w>
baz ę</w>
Respublik oje</w>
hem o
eig a</w>
speciali osios</w>
N umat
3 47</w>
Š ven
De ja</w>
tav imi</w>
. com</w>
įtrauk tų</w>
olog ijos</w>
Standar tinė</w>
ūn ai</w>
s ali
eksportuoj antys</w>
cilin dr
ka v
c iniam</w>
m ole
Nu staty
Par davimo</w>
maž os</w>
ger b
di l
naudoj imosi</w>
atitik tis</w>
Ka da</w>
či ausiai</w>
w a
apskaiči uotas</w>
ANTRAŠ TINĖ</w>
4 50</w>
kore gav
teigi amas</w>
em at
Už sienio</w>
Elek tron
1 16</w>
rim a</w>
automobi lį</w>
al e
SĄ RAŠAS</w>
Produk tų</w>
penke rių</w>
e žer
su tri
mobi li
me dik
esn i</w>
įsi vaiz
Di del
An t
t ø</w>
ekspor tas</w>
viz ų</w>
nepasieki amoje</w>
egz amin
įvai rovės</w>
taiky tinas</w>
Š e
nacional inis</w>
At likus</w>
usi ai</w>
g aus</w>
e dem
T S</w>
sij un
Pastab a</w>
pasau lį</w>
ka si</w>
ūk es
paž enkl
g h
priskiri amas</w>
ut sch
santy kiai</w>
ran ką</w>
pridė tinės</w>
Tr um
panaikin ami</w>
N r</w>
taik ė</w>
dži ui</w>
sa char
ne atidėlio
Ital ijoje</w>
1 19</w>
valc avimo</w>
reguli uoti</w>
K api
n amai</w>
al aik
per sik
kliren sas</w>
ch r
im amasi</w>
ge d
D E
- ai</w>
S uk
J am</w>
remi asi</w>
te b
ge rovės</w>
zon o</w>
plo to</w>
nu ma
n ame</w>
G PG
vertin ama</w>
plan ų</w>
išvardy tas</w>
pasiek ta</w>
kla sik
kop iją</w>
G .</w>
D NR</w>
vil eg
vež ėjų</w>
pasikonsultav usi</w>
C IJOS</w>
Žmog aus</w>
ilg ą</w>
tek o</w>
rūp inti</w>
arch itek
Par y
ty vių</w>
koman dir
to zės</w>
išvest inių</w>
vamz de
suderinam umo</w>
dir ž
F IN
nagrinėj amąjį</w>
aplink oje</w>
G au
st ok
sep tin
ku ro
ag ne
I .</w>
žin dymo</w>
kompensa cija</w>
Tarptau tinė</w>
tu k
sutar timi</w>
pareišk imą</w>
oper atoriai</w>
l ūkes
j av
ac inis</w>
P en
Ne galiu</w>
sa kau</w>
rekomend acijų</w>
a cijoms</w>
ju k</w>
veis lės</w>
šal imi</w>
o d</w>
gran tų</w>
dži ams</w>
aud iniai</w>
iš ei
direk tor
YB ĖS</w>
Veng rija</w>
zon ose</w>
reklam os</w>
A rab
vi u</w>
ap mok
t imu</w>
į var
skelbi a</w>
nusprę sta</w>
T re
teis inį</w>
kr au
f lu
fon dą</w>
SK AI
Pre ziden
I ran
ym e</w>
minė tus</w>
dabar tinės</w>
ši to</w>
vyr ai</w>
ang lių</w>
Pro ce
I E</w>
grin dų</w>
Ape li
tikim ybė</w>
žmog ui</w>
vartoj o</w>
bendr us</w>
se n</w>
pa stov
JUNG TINIS</w>
C max</w>
G re
bū dai</w>
al y
DIRE KT
Aukš či
17 84</w>
pe rei
partne r
leidži ant</w>
Teis ės</w>
įgyvendin ama</w>
nepasteb imoje</w>
buv imas</w>
an g</w>
Lo tto</w>
ženkl ai</w>
Mol dov
DIREKT YV
toj u</w>
varto tojui</w>
ser ve
kur są</w>
rem damasis</w>
Vė liau</w>
konkur są</w>
du ris</w>
ad ap
plei str
tu n
tori ui</w>
pre m
prak tiškai</w>
keitim osi</w>
apsaug otas</w>
L A</w>
TV R</w>
pradė tas</w>
M el
žaid imų</w>
spaud imo</w>
Jung tinėje</w>
toki oms</w>
mokym osi</w>
lig oniams</w>
išdėsty tus</w>
ak ciz
slėg is</w>
reikal ingus</w>
pla čiai</w>
komer cinės</w>
min kš
konkreči u</w>
in ui</w>
daly viams</w>
K AS</w>
uoj ančios</w>
trūku mų</w>
pa kavimo</w>
S ė
oni os</w>
Praneš imas</w>
pi ri
st inis</w>
rū šį</w>
P ad
Karalyst ėje</w>
ta n</w>
saug ai</w>
Tai land
TAR G
fak tus</w>
on ių</w>
p H</w>
a e</w>
ta l</w>
puik us</w>
proces us</w>
diagn oz
c tion</w>
atsak ymą</w>
Prie žiūros</w>
suderinam umas</w>
opera cijoms</w>
min ė</w>
kompeten ciją</w>
gydy tojo</w>
a kad
ėj imui</w>
gamin a</w>
vy s</w>
viene tas</w>
vi el
turin t</w>
lie žu
Koki a</w>
por t</w>
inan tį</w>
H el
em e
bendr u</w>
pasi reišk
išs amų</w>
vien a
žem ę</w>
pagamin tos</w>
vie tinių</w>
P lan
T un
R UK
j umis</w>
v u
stabil umą</w>
atsak ingi</w>
T é
siek dami</w>
a der</w>
mė š
liber aliz
repre zenta
CH MP</w>
iš vež
įran kiai</w>
gal e</w>
fak tų</w>
ton omis</w>
taisykl ė</w>
ker am
ŠI Ą</w>
ste ri
st ės</w>
pus ė</w>
tuv us</w>
leidži ami</w>
Pareišk ėjas</w>
Europ e</w>
Kan ados</w>
veik ė</w>
C an
ry toj</w>
lang elyje</w>
12 1</w>
nuo var
Nuo lat
g ados</w>
TAI L</w>
r aišk
program inės</w>
per skaityti</w>
šalu tinį</w>
į formin
deg uon
apraš ymą</w>
priva čių</w>
me di
Karalyst ei</w>
siek ė</w>
sau giai</w>
a .
Bendro ji</w>
z a</w>
ekonom inė</w>
ch i
ap dirb
C IJA</w>
tyv us</w>
darb ui</w>
18 31</w>
region ams</w>
vadin amas</w>
pa ki
kil imo</w>
f ar
Dab ar
tiesi ems</w>
in žin
ek o
ar omat
sukur tas</w>
pakei stos</w>
pag rei
PROC ED
paaišk inta</w>
PA R</w>
Siek dama</w>
C D</w>
suk ėlė</w>
pri skirti</w>
ju dėti</w>
vartoj ate</w>
skelb ti</w>
sistem omis</w>
ekstrak tas</w>
Mal ta</w>
vystym uisi</w>
gy domi</w>
tvir tai</w>
pozi cijoms</w>
garant iją</w>
Kompeten tingos</w>
mar k</w>
lim f
er s</w>
as dešimt</w>
mokėj imai</w>
ban kui</w>
per tek
b ij
alternat yvi
ver sija</w>
tre č
sin ų</w>
da rius</w>
d antis</w>
Rez erv
varik liai</w>
nusikal sta
gau tus</w>
LAIK YTI</w>
ragin a</w>
paskir ta</w>
me tines</w>
Bay er</w>
progr amai</w>
patikrin imai</w>
termin ai</w>
nuo savo</w>
li tr
kom is
ad atos</w>
š ik
ri ant</w>
N er
terap ijos</w>
paskat inti</w>
sky sčių</w>
D že
mat om
daugiam et
zon ą</w>
kiet ųjų</w>
centrin ės</w>
MO K
tiek ėjų</w>
komand os</w>
skir sty
W izz
už uo
su vartoj
laiv ą</w>
priskiri amų</w>
du j
Asoci acijos</w>
mie stas</w>
im b
20 6</w>
ši aur
subjek tui</w>
dirvo žemio</w>
S il
KU RI
p ne
a dienis</w>
paž eis
padi dėti</w>
išlaid omis</w>
Pri im
Nuo ro
scena rij
sak inys</w>
nerū dij
įran kių</w>
ta d</w>
ankste snių</w>
pad angos</w>
renk ami</w>
pa ded
kandi da
pratę stas</w>
and a</w>
an te</w>
tek ų</w>
iškr auti</w>
susi lpn
kny gos</w>
s va
5 75</w>
ši tą</w>
ė tos</w>
turim us</w>
tem p
patiksl inti</w>
organiza cijomis</w>
nepageidauj amų</w>
pa ms</w>
oficiali ą</w>
ek st
μ g</w>
užduo čių</w>
atvej is</w>
usi oms</w>
tuo j</w>
rež imą</w>
ketin ama</w>
profes inio</w>
e is</w>
apyvar tos</w>
G D</w>
žai sl
palan kiai</w>
krū tinės</w>
vyst ymo</w>
o u
Ka ž
en ai</w>
tarp u</w>
esn io</w>
1 13</w>
oksi das</w>
uo tes</w>
o pat
re li
apibrėž tos</w>
V IMO</w>
Svarb u</w>
9 9
aki au</w>
naud ingas</w>
jautr umo</w>
į man
išdėsty tų</w>
S IN
pažym ėjimo</w>
užsien yje</w>
alb ėti</w>
ra sis</w>
at leisti</w>
Atlei sk</w>
vadin ama</w>
mai tin
G EN
patvirtin amos</w>
ne būtina</w>
e u
me džio</w>
elimin acijos</w>
suteik tą</w>
Afgani stano</w>
registr e</w>
išs ami</w>
ra vo</w>
om ojo</w>
aspek tai</w>
Vanden s</w>
Ei k</w>
17 2</w>
Elek tros</w>
pažeid imai</w>
ate in
Pr amon
svarbi ausias</w>
ne r</w>
ir e</w>
t ėmis</w>
kri kšči
į dė
bendr uosius</w>
K y
technolog ija</w>
per tvarkymo</w>
reikšming ai</w>
S ve
pa mok
kar šči
S P</w>
akivaiz du</w>
priklaus ančių</w>
C S</w>
v engti</w>
iš laik
K AI
ace ta
me trų</w>
at virkš
region ai</w>
kon cer
ir besar
konferen cijos</w>
vaist ininkui</w>
sudė ties</w>
inter feron
ląst el
gal ėčiau</w>
tuoj ama</w>
k at
De utsch
CO N</w>
pi au</w>
tinkl us</w>
paž angi
papra sta</w>
Rink .</w>
18 5</w>
Pi lie
sumažin imas</w>
rib oti</w>
koeficien tą</w>
sm ū
primin ti</w>
metodik ą</w>
pjau st
Š eš
vidu rio</w>
ka ta
S L</w>
vir u
sun kiai</w>
veiki ančių</w>
grė s
S mi
gyven tojai</w>
Bulga rija</w>
įvairi ose</w>
trup u
ne val
įpra sta</w>
prisi imti</w>
nusikal stam
duo da</w>
Klinik inių</w>
15 6</w>
in tis</w>
bendradarbiauj ant</w>
Tur ėtų</w>
Rekomend uojama</w>
pranaš umas</w>
S tojimo</w>
pri v
kiekvien ais</w>
antro jo</w>
vi su
tek s</w>
apraš y
priorite tus</w>
po o
lauk inių</w>
Ž vej
prieš ingai</w>
konfiden ciali
vir tuv
pake to</w>
mar o</w>
dė ju
Va din
3A 4</w>
im ės</w>
ce ta
defici to</w>
z o</w>
praneš ėjas</w>
veik imas</w>
lenk ty
do se</w>
darbuotoj as</w>
P ress</w>
va kar</w>
ma čiau</w>
Nor i</w>
ž imo</w>
įmon ėje</w>
rizik ai</w>
švirkš či
valstyb inių</w>
bė rimas</w>
ak mens</w>
valdy tojas</w>
pripažin o</w>
adres ą</w>
užpil dyti</w>
tė v
jung iniai</w>
asoci acija</w>
A tei
įrody ta</w>
specifik acijas</w>
d Ä</w>
charakteri stikos</w>
D y
stud ijų</w>
situ acija</w>
lan do</w>
doz e</w>
RE R</w>
uþ registruota</w>
sėdy nės</w>
gel ton
paš tu</w>
nu trauki
ne taikyti</w>
gydy tų</w>
es amą</w>
T os</w>
miš iniai</w>
konsul tacijos</w>
Gyv en
ve r</w>
ištais yti</w>
Norė dami</w>
švel n
inte gruo
daug elyje</w>
K AR
ministe rija</w>
gar ų</w>
fak toriaus</w>
Toki ais</w>
I Š</w>
tre jų</w>
ne pil
kriz ių</w>
klasifik uojamos</w>
ar do</w>
P I
uni te
sekre torius</w>
pers eki
nuosta toms</w>
D vi
B ur
spon den
VP D</w>
I r
Ne pageidauj
va g
tik ų</w>
X III</w>
gav ėjai</w>
R inko
įstaty mas</w>
VEIK LI
ė s
t ęs</w>
p jo
D alyv
D UO
situ aciją</w>
pakank a</w>
nu tar
k ino</w>
sveik ata</w>
pabai ga</w>
YB OS</w>
ka taliz
b lio
įtam pos</w>
lin es</w>
konstatuojam ąją</w>
ate ina</w>
nuosek l
joki a</w>
Juod kaln
trak to</w>
dalyv av
viene tai</w>
uždeg imas</w>
p s</w>
Tur ė
Ro ad</w>
201 4.
kontroli uoj
komprom is
S U</w>
Nuoro da</w>
šun ims</w>
į ver
GPG B</w>
vaist ininką</w>
tel ė</w>
pri vileg
bend rieji</w>
pripažin ta</w>
PAŽ YM
Ai rijoje</w>
esm inių</w>
Siūl ome</w>
Organ iz
ni os</w>
susitari a</w>
nacional inėms</w>
i olog
gyv as</w>
er i</w>
em o
ekonom iškai</w>
IK A</w>
om ieji</w>
kon tekste</w>
au ri
R V</w>
pavyzdži ų</w>
pien ą</w>
av an
teis inis</w>
s ag
įgy ti</w>
2 30</w>
z ę</w>
per žiū
draug e</w>
al l</w>
aiš kumo</w>
su tinka</w>
per ve
pasi rody
pasikei tė</w>
tieki amos</w>
ly ties</w>
de vy
1 31</w>
pen siją</w>
om al
Pav adin
7 00</w>
ĖJ IMO</w>
p s
tašk ų</w>
din ę</w>
skai d
rim ui</w>
pirmin ės</w>
Su sij
B E</w>
ne svarbu</w>
at spa
Kon federacijos</w>
program avimo</w>
kre pš
ūki uose</w>
toj ais</w>
skat inant</w>
pok alb
kontroli uoja</w>
b audos</w>
laik ino</w>
Jer uz
pilie tinės</w>
im ir
vi rin
teik ėjų</w>
R ad
supran tu</w>
am ąsias</w>
investi cinių</w>
Informa cijos</w>
smul k
pl en
para gin
alyv os</w>
a čiū</w>
H y
ry šk
antik ūnų</w>
Š il
U K</w>
rūš ims</w>
r .
omi dor
nu st
S un
H um
įdieg ti</w>
ko dų</w>
I s
at r
alko h
Pa aišk
Suom ija</w>
In te
įvairi os</w>
reišk iniai</w>
įvertin a</w>
valgy ti</w>
tek stus</w>
susi tarti</w>
tašk as</w>
Ž mon
B N
reikš mė</w>
aprė p
sprend imui</w>
sutik o</w>
nuolat inį</w>
ne reiškia</w>
patyr ė</w>
on u</w>
per virš
ko sme
išsi vy
en cijos</w>
atvyk ti</w>
įgū džių</w>
tiesiog inių</w>
rank os</w>
oficiali os</w>
atsižvelg damos</w>
K ok
voki ečių</w>
pristaty ti</w>
pažym ėjimą</w>
pa reikš
juri d
Baltaru sijos</w>
pozi cijose</w>
Mal ai
At nauj
s li
program oms</w>
organiz avimas</w>
ankst yv
2. 3</w>
transpor tu</w>
su ver
pi ai</w>
lyg ybės</w>
kl ij
T AI</w>
rim is</w>
d ijos</w>
Į vai
skaidr umą</w>
neigi amo</w>
O ri
M ata
įtrauki ant</w>
mažin imas</w>
K as
atrink ti</w>
pasirink imas</w>
nurody mų</w>
joki u</w>
mėne siai</w>
iš ka
I .
vertyb inius</w>
pri em
Gam yba</w>
ži r
Į pra
aven tis</w>
13 08</w>
įrody mai</w>
sta ne</w>
nepakankam umu</w>
ke turi</w>
bank ro
užsik rė
tuoj ant</w>
plan e
komer cinių</w>
12 4</w>
žem ė</w>
mit ybos</w>
taiky tinos</w>
t s
efektyvi ai</w>
E R</w>
s čiai</w>
ly de
informa cijai</w>
tinkl alap
pi a</w>
ol o
ang el
pa klausti</w>
iš kil
Vartoj ant</w>
saug o</w>
gav ėjams</w>
at kreip
nu mo</w>
dicin į</w>
auj ant</w>
pa trau
at sek
PRI E
ra tai</w>
proporc ingumo</w>
TE IK
či oms</w>
tr en
sudėting a</w>
san ofi-</w>
pra dinės</w>
g .</w>
až o</w>
aud on
Sk y
papra sči
didin imo</w>
X I</w>
šal inti</w>
PAR LAMENT
y a</w>
ter at
ge n</w>
atskir os</w>
C A</w>
region inių</w>
opera ciją</w>
ci to
Slovėn ijos</w>
sąraš us</w>
ami das</w>
riedmen ų</w>
pasiūl ė</w>
nacional inį</w>
K az
1, 2</w>
suprojek tuoti</w>
pramon ėje</w>
pa veikti</w>
žaliav os</w>
valstyb e</w>
gėrim ų</w>
di feren
branduo linės</w>
įmon ėse</w>
su balans
s es
per si
at mo
priedė lis</w>
Daug uma</w>
vėži o</w>
vidu ri
veik tų</w>
Euro sta
9 99</w>
galu tinių</w>
Mar ok
statist inių</w>
ž ū
IC ES</w>
5 5
si omis</w>
pasiek ė</w>
lem pos</w>
el .</w>
ei n</w>
įgyvendin imui</w>
rezoliu cijoje</w>
nie kur</w>
ci den
abie m</w>
ri c
m umis</w>
ekonom ikai</w>
cin ėms</w>
G UMO</w>
profes inių</w>
skirting i</w>
projek tavimo</w>
ch in
bū dinti</w>
Jeruz al
tiesiog inės</w>
E PAR</w>
ty sis</w>
su skirst
Ek spor
Al ban
maž o</w>
didži ausio</w>
12 8</w>
kl e
tvark y
L B</w>
vaiz dą</w>
insulin ą</w>
pratęs imo</w>
taikom o</w>
t t</w>
sujung ti</w>
injek cinis</w>
galu tinės</w>
ij ose</w>
raj onas</w>
en tar
5 10</w>
tek stai</w>
plaz mos</w>
perduo dami</w>
pa stebė
la bui</w>
Veik los</w>
Aplink os</w>
naudo tojo</w>
or ų</w>
tole snių</w>
H ome</w>
y pat
buv ę</w>
žem yn</w>
stebėsen ą</w>
paš tas</w>
pa koreg
mokėj imus</w>
is t</w>
susitik imo</w>
iš laiky
Su pran
Pir masis</w>
pro g
P el
Kompeten tinga</w>
teig imu</w>
Atro do</w>
vėliav os</w>
pastan gos</w>
importuotoj ų</w>
vert imo</w>
tiek imas</w>
pini gai</w>
b at
sėkl ų</w>
paž a
ne didelis</w>
kiekvien ame</w>
pestici dų</w>
bi ai</w>
susitik imas</w>
R ob
sk alb
lam i
Susitari ančiosios</w>
AT LI
treči osioms</w>
T in
ra l</w>
kraš to</w>
sunaik inti</w>
pažym ėjo</w>
neiš ven
žo dį</w>
v eng
su rengti</w>
3 96</w>
te be
12 7</w>
tuv u</w>
mikro gramų</w>
mažmen inei</w>
atitink antis</w>
teisė tai</w>
pri skir
kamer os</w>
pie tų</w>
grąžinam ąsias</w>
n r</w>
Daž ni
ne mažai</w>
erdv ėje</w>
diabe tu</w>
Le ader</w>
išk rei
api būdinti</w>
DIREKTYV Ą</w>
table tė</w>
patvirtin to</w>
nežin au</w>
materi al
T U</w>
tu l
ekonom ika</w>
VIR TIN
Cen tra
žo džius</w>
Į raš
paved imu</w>
gyven imas</w>
L -</w>
H on
ef avirenz
14 7</w>
tarptau tinę</w>
apsikei timo</w>
2 18</w>
šal inimo</w>
pabrėž ė</w>
mas ę</w>
baig ė</w>
Laik in
32 23</w>
vidu tinių</w>
sk i</w>
ka vimas</w>
bendro ves</w>
am uose</w>
sudė tį</w>
TRA N
G la
važi uoti</w>
lais vo</w>
Oficiali ajame</w>
išim ties</w>
Dau g</w>
vei do</w>
kai tin
YB INĖ</w>
rū pe
norve gų</w>
parduo d
kon vert
dar ė</w>
din a</w>
žibin tai</w>
mu tan
centrin is</w>
c s</w>
R iz
KL IN
su kuria</w>
pažeid imą</w>
im unite
Nat rio</w>
Japon ijos</w>
2, 4</w>
B us</w>
pato gen
kar tos</w>
stai ga</w>
pagamin tų</w>
gav ėjui</w>
rank ų</w>
an tas</w>
teroriz mu</w>
pl ov
Se rija</w>
ž eng
J or
galvi j
Iš or
pilie tis</w>
kvie čių</w>
efektyv umas</w>
KR R</w>
A ir</w>
reglamen tus</w>
J T
paž įsta
gamin ant</w>
ang a</w>
Tar p</w>
ėl ę</w>
vaiz da</w>
av a
µ g</w>
siunči ami</w>
ar ai</w>
Britan ijos</w>
plat in
ne mat
Priemon ės</w>
ven ti
parametr ai</w>
direk toriaus</w>
pavyz džio</w>
V Y
G ir
ATLI EK
re stor
vieto vės</w>
Wizz air</w>
3 43</w>
s nes</w>
pana šiai</w>
kv api
iš rink
V T</w>
8 7
tir p
išdėsty tas</w>
auk so</w>
KI TA</w>
G ran
Bal kan
bendra sis</w>
rai da</w>
išsiun timo</w>
antraš tinė</w>
or ą</w>
om et
malon u</w>
kompl ik
kl ausi
eksportuoj antis</w>
av ai
le r</w>
avi abi
isto riją</w>
Centra l</w>
eta pu</w>
T ol
sveta inės</w>
eksportuotoj as</w>
byl ų</w>
PRO D
recep tai</w>
pateik imas</w>
naudo tų</w>
maži ausiomis</w>
ik lio</w>
aviabi lietus</w>
ki tokia</w>
gry na
dži augiuosi</w>
H am
sando ris</w>
gal ių</w>
AD RE
di ar
at oki
Sta t
kruo pš
ran gov
pak uočių</w>
nuomon es</w>
mo liu
Pan aš
skir tingos</w>
kelion ių</w>
atsak ingų</w>
14 5</w>
įreng iniams</w>
T U
ver ta</w>
teik ėjo</w>
importuotoj ai</w>
sk lan
pana šius</w>
Poveik is</w>
prasi dėjo</w>
di ok
Pa š
EC BS</w>
vieno dą</w>
skaiči uoti</w>
Didži osios</w>
CO M</w>
pasku tinės</w>
palūk anos</w>
mažin a</w>
s inių</w>
X II</w>
tal pa</w>
pažym ėjimas</w>
pa imti</w>
metodik a</w>
varto tojo</w>
treči a</w>
sistem ose</w>
reikš mę</w>
leidži amos</w>
kl a</w>
atst umu</w>
al inis</w>
Patvirtin imo</w>
nu sist
mai stą</w>
paklaus os</w>
mui tinė</w>
jung inių</w>
Bendra sis</w>
sto vy
ar o</w>
At lik
svarb ius</w>
supaprast inti</w>
sto vo</w>
ekonom inius</w>
tar si</w>
kul tūrų</w>
gebėj imus</w>
Vald ančioji</w>
Mok es
G in
10 000</w>
sili cio</w>
neu tro
nesu geb
išbr auk
gra s
atsakym us</w>
a h
Me dicin
E VP
12 60</w>
veikli oji</w>
Stra s
tu vė
praš ome</w>
iš jung
A smen
tel į</w>
l ukš
at sik
2 20</w>
sėk mės</w>
įsi galiojo</w>
Į traukimo</w>
plė š
5 4
y dama</w>
veterinar inių</w>
tinkl ai</w>
dek or
turin čio</w>
az ės</w>
įsigy j
ėj usios</w>
at leidimo</w>
Wor ld</w>
19 88</w>
ty ti</w>
tinkam i
14 9</w>
vaiz du</w>
tar o</w>
ci a</w>
pa skiria</w>
p y
gim imo</w>
Nag rinėj
re tro
esn į</w>
Nie kas</w>
u ri
stipr us</w>
C VPD</w>
va n</w>
te liai</w>
tai siais</w>
fosf atas</w>
turim ą</w>
maži ausias</w>
ki m</w>
Au galų</w>
26 58</w>
pla taus</w>
form avimo</w>
įstai gas</w>
va rio</w>
teigi amą</w>
pardav imų</w>
visuomen ę</w>
moter s</w>
Š ia</w>
vy sty
ni tro
administra cinio</w>
M or
, 5</w>
F in
D emok
gam iniams</w>
profi lak
ilgalaik į</w>
deleguot uosius</w>
Pal auk</w>
A IS</w>
tarnau tojų</w>
nesi laik
ne ribo
inink us</w>
12 55</w>
ti c</w>
varikl is</w>
skaiči av
in ciden
dirb ančių</w>
O G
prie du</w>
ne apdoro
rež imu</w>
nacional iniams</w>
A P</w>
naudoj o</w>
T ir
sektori ams</w>
ei k</w>
An g
pavadin imai</w>
hidra tas</w>
KAI P</w>
EVP RI</w>
k ati
atme stas</w>
prek ėmis</w>
indek sas</w>
c iniame</w>
vadov ai</w>
galim us</w>
elektron inio</w>
dide liu</w>
S tar
tan kis</w>
sergan tys</w>
pagrin dži
atostog ų</w>
ab l
projek tui</w>
pasiraš ymo</w>
identifik uoti</w>
V en
N -</w>
D va
veiksn ys</w>
mė są</w>
lei skite</w>
kl ai</w>
daržo vės</w>
bur nos</w>
Są veik
pride dama</w>
išsi lav
Puik u</w>
da e</w>
ekonom iniai</w>
Finan sų</w>
Ž monės</w>
sani ta
pardav imą</w>
bank ams</w>
avi g
Norve gija</w>
stat oma</w>
plo čio</w>
panaudo tos</w>
daugi ausiai</w>
at ėmus</w>
Se p
ra n</w>
er a</w>
pon ia</w>
P V</w>
moliu sk
elektr inių</w>
ak imir
statist inės</w>
r ėmimo</w>
laiky damiesi</w>
dvi dešimt</w>
Ame rik
kor up
der inti</w>
spi ri
nusist ov
už šaldyti</w>
tori ams</w>
iš raš
Sutar tis</w>
išbrauki amas</w>
ra ši
Kiek vienoje</w>
vel nių</w>
ta vi
ar tri
ap drau
LI Ų</w>
C D
numat omas</w>
kūr yb
ištek liais</w>
informa cinių</w>
ekonom iką</w>
didesn i</w>
oper atorių</w>
kei čia</w>
Pacien tai</w>
nagrinėj a</w>
period iškai</w>
pagei dau
tin g</w>
re čiau</w>
patik ra</w>
maš in
al u</w>
Sta ti
higi enos</w>
ar klinių</w>
k į</w>
finans iniais</w>
stipri ai</w>
konkurenc ingumą</w>
baig ėsi</w>
vi de
sv orį</w>
su tuok
plo tą</w>
paukš čiai</w>
sim bo
pateik toje</w>
pake tą</w>
laiv us</w>
rink inį</w>
14 2</w>
pi ro
kon stitu
keturi as</w>
drusk a</w>
TURĖTOJ O</w>
oj aus</w>
kraujospū dis</w>
dr aus
st iniai</w>
fluo r
Lenki joje</w>
B ro
ry tų</w>
kr auti</w>
form oje</w>
vyriaus ybių</w>
ne reikėtų</w>
atkreipi a</w>
ar eš
ta mas</w>
pu se</w>
priorite tų</w>
Demok rat
ko va</w>
Proce d
inam ojo</w>
Ap skri
vien i</w>
re f
ilge snis</w>
suteiki amos</w>
Svarb i
še ima</w>
projek tu</w>
pr en
mir ė</w>
į rodo</w>
tav imą</w>
speciali ojo</w>
Turki ja</w>
tori ais</w>
ne dalyvauja</w>
dešim ties</w>
5 40</w>
tiks li
gen o</w>
atstov auja</w>
Gen ero
paukš tienos</w>
ko vo
dvigub ai</w>
vi ui</w>
laiv ybos</w>
PAT VIRTIN
įsipareig ojo</w>
o dą</w>
licen cija</w>
apriboj imas</w>
Ket vir
KO N
ne virš
kompen savimo</w>
u ra</w>
maž ėja</w>
es amas</w>
U BL
Euro ju
padary tas</w>
geri ausiai</w>
dole rių</w>
dan gos</w>
Rezerv uokite</w>
teiki amų</w>
per svarst
katego riją</w>
mir k
N .</w>
F T</w>
pyk inimas</w>
pie š
me d</w>
C a
ner vų</w>
antr ąjį</w>
LO G
J us</w>
Gele žin
B r
Ū RA</w>
pa n.</w>
medik amen
bi blio
si eros</w>
klien to</w>
de s
pasek mių</w>
5 28</w>
tali a</w>
ko du</w>
pakank amas</w>
ec .europa.eu</w>
E J
sutik imą</w>
j ūrą</w>
geri ausią</w>
apšvie timas</w>
po l
Č IŲ</w>
ykl os</w>
stro f
pro pag
Kal ė
A išku</w>
tink amus</w>
elektron inės</w>
atšauk ti</w>
ami do</w>
D u</w>
poky tis</w>
netruk us</w>
g uo
įplauk os</w>
vam zdžiai</w>
ko do</w>
dažn as</w>
Ru g
gy je</w>
didin imas</w>
Farma ko
lin ę</w>
ko sti
ik lin
Kre dito</w>
konkreči ą</w>
g aud
Do vy
val aik
saug omi</w>
R ank
N o</w>
pan y</w>
o pi
el e</w>
dav imas</w>
antro ji</w>
Patik rin
19 80</w>
sk op
adre su</w>
val yti</w>
tė vų</w>
išvyk imo</w>
išbr aukti</w>
direktyv as</w>
E KI
2 16</w>
skelbi ant</w>
įrody mas</w>
pra dinis</w>
ini škai</w>
ž valg
re formų</w>
o la
cik lą</w>
PROD UK
E PS</w>
darbotvark ę</w>
atsak ingo</w>
NAU D
09. 4
sp y
pri mena</w>
prašym ai</w>
pasveik inti</w>
koordin avimą</w>
daly kai</w>
atitinkam oms</w>
angio tenz
savivald ybės</w>
pagrį st
centr ą</w>
T ą</w>
nustaty mą</w>
nor ėjo</w>
kiau li
c a
ak men
N ik
k lių</w>
Tab le
tyrim u</w>
turin čius</w>
tarptau tiniai</w>
sank cijų</w>
recep tas</w>
J OS</w>
tarim as</w>
konkuren cijai</w>
A N</w>
sukū rimo</w>
ne suderinama</w>
Veik li
Gali u</w>
me tinė</w>
la vie
interes ai</w>
B V</w>
laborato rijos</w>
glob alizacijos</w>
su vartojimas</w>
neteisė ta</w>
Es ant</w>
naudo tojai</w>
dang a</w>
skam bu
leid us</w>
baudži am
poveik iui</w>
Lai sv
ter p
patrau kl
fon dai</w>
mok amos</w>
lygi ag
koleg ija</w>
Tar yboje</w>
H orizon
17 0</w>
Ši am</w>
- os</w>
Parlamen tą</w>
Ki taip</w>
įvairi ais</w>
so ciali
papunk čio</w>
megz ti</w>
šal tiniai</w>
invest uotojų</w>
w er
pe rim
S V</w>
Šveica rija</w>
tirpal ui</w>
tarn ybai</w>
nepa vyko</w>
der liaus</w>
atsitik o</w>
An ti
trauk inio</w>
konkre tų</w>
grąžin amoji</w>
faz ės</w>
K uo</w>
19 75</w>
teis ėje</w>
b or
Liuksembur gas</w>
tuv ą</w>
P FI</w>
v ę</w>
kompiu teri
is pan
TE K
direktyv ų</w>
B G</w>
įraš us</w>
atskir ą</w>
H .</w>
kredi tų</w>
S pal
6 4
atvej į</w>
BEND RO
švieži os</w>
vadov ų</w>
pra sm
poil sio</w>
ne priklauso</w>
daugia šal
priėm us</w>
pasirink o</w>
ne sąžin
konkre tūs</w>
as o
momen to</w>
organiza cijai</w>
ministr o</w>
iš min
trauk os</w>
konflik tų</w>
įterpi ama</w>
įprast omis</w>
sustab dymo</w>
M ir
rib inės</w>
objek tas</w>
kiekvien ų</w>
do w
T var
B az
nesu pran
autori z
Pa žym
IN IMO</w>
Egip to</w>
ta dienį</w>
susi pažin
pajėg umas</w>
13 5</w>
pad angų</w>
VER TIN
su taup
kompensa ciją</w>
de ta
abe jo</w>
kon ce
ar m
RE SP
20 7</w>
. 3</w>
įstaty mai</w>
min ėti</w>
Tyrim ai</w>
TVAR KA</w>
An tra
jėg a
alie j
Slovėn ija</w>
vartoj ami</w>
tu vi
r y</w>
žvej yba</w>
tikr u</w>
Pal y
tvark ymas</w>
ne gal
mie g
esn ę</w>
al ais</w>
re l
nuo dė
min į</w>
S D</w>
ypa tu
vid end
rezoliu cija</w>
pusiausvyr ą</w>
gebėj imui</w>
tiri amuoju</w>
emen t</w>
važi uo
konven cija</w>
LA P
nuosek liai</w>
veiks mas</w>
daly vio</w>
žmog au</w>
p d
na gų</w>
dide lius</w>
15 80</w>
rin į</w>
p up
laikom ų</w>
būtin ybę</w>
uoj ame</w>
toki te</w>
galim os</w>
alko hol
kilo gr
im pul
Rinko daros</w>
IŠ O
vež ėjas</w>
kenks ming
Tiesi og
si ru
perei ti</w>
h o</w>
gė r
dabar tinę</w>
aero dr
speciali stų</w>
esn ių</w>
epi dem
pareng ė</w>
mo tinos</w>
ger inimo</w>
bank ininkystės</w>
susisiek imo</w>
kop ija</w>
at stovo</w>
ST EB
yst ę</w>
taiky tinų</w>
skir tiems</w>
plen ar
kop ū
gyven tojams</w>
pasiraš ytas</w>
kar alius</w>
baz ė</w>
Vai z
14 8</w>
s z
pri žiūrėti</w>
iniciatyv ą</w>
M ag
steb i</w>
reguli ari
atitik o</w>
eis k</w>
N usi
Gy dy
tarif ines</w>
ož kų</w>
kar inės</w>
in gi
cukr ų</w>
Z Z</w>
RO D
18 7</w>
yst ei</w>
pasku tinis</w>
baig tas</w>
išsi ų
Ka ina</w>
š auki
įsp ėj
poveik iu</w>
TA RI
vyriausi asis</w>
išsivy sči
šalu tinių</w>
r d
sav ęs</w>
atitinkam u</w>
RI S</w>
Pavadin imas</w>
mie stą</w>
la pai</w>
gyv ul
Papil doma</w>
sau sumos</w>
pacien tas</w>
kl ė</w>
ink ystės</w>
dipl omat
part ija</w>
aukšči ausiojo</w>
įgyvendin imu</w>
paaišk ėjo</w>
au dy
R ami
F C</w>
pa rodo</w>
o C</w>
interes o</w>
RESP UBL
N avig
val dik
e v
kon az
Ar gen
s elek
ne toli</w>
ADRE SAS</w>
uo dama</w>
ra m</w>
dur ys</w>
c ri
CYP 3A4</w>
pasitik ėjimą</w>
nar š
aku muli
ac inių</w>
tę stin
komi sija</w>
sumaž ėjimo</w>
pla k
at pažin
LAIK YMO</w>
Kar tais</w>
C e
kovoj ant</w>
Bend ro</w>
mėly n
apy tik
aiš kose</w>
a ver
2 34</w>
toki ai</w>
pasiraš y
der ybos</w>
sper mos</w>
kapi taliz
atsar gas</w>
Tran spor
em pi
T ak
Lab or
tikrin a</w>
suteik s</w>
oblig acijų</w>
tirpal ą</w>
preju dicinį</w>
pa galiau</w>
oli u</w>
U T
C B</w>
A h
su rasti</w>
pus inės</w>
laim ė
genero las</w>
galioj ančios</w>
bendr ąjį</w>
procen tinė</w>
padary tos</w>
m .
atsi liep
W est
tik imasi</w>
rai siais</w>
proce sui</w>
nurody tose</w>
atst umas</w>
ėm inių</w>
do n</w>
Vien inte
Šal tinis</w>
bio dyzel
Pas ak</w>
tr am
pa skyrimo</w>
S H</w>
pareišk imas</w>
atvyk imo</w>
anti bio
Ž ym
maiš yti</w>
o ti
c al</w>
PARLAMENT AS</w>
Pa ž
vamz dy
f ut
biolog inės</w>
smul ki
geograf inės</w>
cik lų</w>
atei tį</w>
sukūr ė</w>
s ol
populi ar
oksi do</w>
inin kavimo</w>
aktyv umas</w>
Par uoš
is landų</w>
Lo terijos</w>
EM ST</w>
žiur k
oj us</w>
įst eigi
isto rijos</w>
an ali
B as
es amos</w>
sal ų</w>
dirvo žem
ben zo
P F</w>
išsam us</w>
e siems</w>
at lan
rau menis</w>
pači as</w>
nauj i
3 70</w>
pripažįsta ma</w>
darb u</w>
P v
No var
G rū
dalyvauj ančios</w>
vy nas</w>
ki tokių</w>
ĖJ E</w>
po st</w>
me tinio</w>
m ąst
lin o</w>
laim ėjo</w>
žin o
vyriausi ojo</w>
sand orį</w>
trunk a</w>
per žiūrė
parduo dami</w>
nepageidauj amos</w>
koj ų</w>
V V
4. 2</w>
μ m</w>
stebėsen a</w>
mui tinei</w>
Pa skir
l ub
F iz
pajėg umo</w>
C E
16 8</w>
tūkstan čių</w>
fi to
nuo šir
nuo moj
IŠO RIN
žem ėje</w>
atmo sfer
Praneš ime</w>
P ini
ket ve
M ON
veiksmin ge
der inys</w>
Vien oje</w>
ūk į</w>
val dži
uojam iems</w>
ausi ais</w>
Mui tinės</w>
viršu tinės</w>
parametr ų</w>
nusikal timų</w>
buv ai</w>
branduo linių</w>
il o</w>
Grei čiau</w>
taik ymui</w>
panaik ina</w>
didin a</w>
S tu
kvalifik uota</w>
apraš ytos</w>
Wor d
6 6
1 19
eme a.</w>
an so</w>
ST RAI
ne rekomenduojama</w>
me tr
ati dėti</w>
X VI</w>
įnaš ą</w>
riboj a</w>
grąž a</w>
aval yn
Gla x
val st
vakcin os</w>
ne galėtų</w>
ag reg
Parlamen tu</w>
PS N
ėl į</w>
vykdy tojai</w>
vadovaud amasi</w>
skai tant</w>
naš ta</w>
mutan dis</w>
ing re
du jas</w>
atlik to</w>
at gal
u l</w>
papunk tį</w>
koleg ijos</w>
tar ybai</w>
na riais</w>
lauk e</w>
staty tas</w>
K am</w>
17 82</w>
trau ku
mie gu
la h</w>
atitink anti</w>
il gin
b i</w>
TE R
Centr inio</w>
sąvok os</w>
sker dy
rū ši
ok si</w>
gydy mui</w>
B U
uždav inius</w>
su me
si ų
Didži ausia</w>
Ati tik
tuoj amas</w>
st ė</w>
patikim umo</w>
maž ą</w>
ketvir čio</w>
T al
v ėmimas</w>
saug omos</w>
laip snis</w>
koeficien to</w>
ar a</w>
Klaus yk</w>
sveta inę</w>
ingre dien
CI F</w>
115 1</w>
subjek tus</w>
pabėg ėlių</w>
nuolat inės</w>
nenor i</w>
gebėj imų</w>
N L</w>
En bre
vyk stant</w>
chloro tiazi
pradin į</w>
kompiu ter
centr ai</w>
Bend rovė</w>
val džia</w>
duomen ims</w>
Bend rijai</w>
1. 3</w>
vi es</w>
se z</w>
p i</w>
D on
įsipareigoj imams</w>
partne riai</w>
Regi stra
sutri kusi</w>
f as
au ž
Enbre l</w>
organiz uoti</w>
duo tas</w>
Novar tis</w>
K la
pre kiau
tom i</w>
su švirkš
nustaty tu</w>
nuo st
termin us</w>
Kon kreči
už kreči
siek damas</w>
sal os</w>
kap sul
analiz uoti</w>
N ES
su raš
pači ame</w>
mar ž
deklar acijoje</w>
Teis mui</w>
2 11</w>
standar tas</w>
h on
L an
EI D
An tr
pareigūn o</w>
kin tan
europa .</w>
Fi li
A zijos</w>
tikro se</w>
galė sime</w>
U Ž
Regi str
.. ..</w>
įraš ymo</w>
P au
Mal tos</w>
prelimin ari
kr at
di vidend
9 00</w>
či ak
spal vų</w>
slop ina</w>
leid imai</w>
perdav imą</w>
n ov
e rių</w>
Re guli
Norve g
įst ojimo</w>
leidži ančią</w>
7 50</w>
ūn o</w>
vartoj imu</w>
trupu tį</w>
REGISTRA VIMO</w>
tik iu</w>
ruo ši
pask er
palyg inam
nuorod omis</w>
K ai
turim as</w>
pa čia</w>
ma d</w>
kam š
kalendor inių</w>
STRAI PSN
Ispan ijoje</w>
subsi diar
su ga
se uro
priim amas</w>
nagrinėj amas</w>
judėj imas</w>
PV PS</w>
D AMOS</w>
r ungty
mat uoti</w>
cin ėmis</w>
su vartojimo</w>
finans uojamos</w>
elg tis</w>
dul kių</w>
F rank
toj a</w>
tar as</w>
konsul tuoj
sudedam oji</w>
pašar uose</w>
koreg avimo</w>
bendrov ę</w>
vystym ąsi</w>
alfa -</w>
uoj antys</w>
plan ai</w>
pasi renk
iešk inį</w>
atnauj intas</w>
EF SA</w>
liud ijimo</w>
atitink antys</w>
an emija</w>
B .
pro ga</w>
mok ėjimas</w>
prek yboje</w>
pa stebėti</w>
grup e</w>
gamintoj ui</w>
direk to
I D</w>
veik imui</w>
svy rav
l or
Produk tai</w>
A vi
y damas</w>
usi u</w>
om agne
am aisiais</w>
ad atą</w>
S F</w>
y viai</w>
stiprin imo</w>
spar čiai</w>
skat inimas</w>
pa ini
lai dų</w>
insulin as</w>
aš ies</w>
IN IS</w>
k s</w>
skaiči umi</w>
dide li
am e
Moldov os</w>
K Š
EE K</w>
17 6</w>
kon den
16 9</w>
om oji</w>
IN IO</w>
užsta tas</w>
klasifik uojami</w>
ekolog inio</w>
š abl
kain oms</w>
ste r</w>
nuolai da</w>
s ly
neb ėra</w>
ma in
ac inio</w>
Su dan
P rin
Lon d
H an
am žin
Daug elis</w>
uoj anti</w>
didin ant</w>
Fon do</w>
vi ais</w>
mechaniz mai</w>
amži ų</w>
E le
Bi ur
poten ciali
O F
Am žius</w>
kalb ame</w>
fermen tų</w>
elektrin ės</w>
darbotvark ės</w>
VA IK
SI REN
sk an
pasau lis</w>
D a
antro sios</w>
Vilni us</w>
Ek sporto</w>
sav imas</w>
klausimyn o</w>
in duk
trum pą</w>
stat yb
pa laikom
oper atoriaus</w>
juo d
didel es</w>
2 a</w>
ki ais</w>
D ub
re produk
Com pany</w>
Š ū
klai dos</w>
tyrim ui</w>
pareišk ėjui</w>
iš kart</w>
J ūrų</w>
portf elio</w>
kosme tikos</w>
kin ta
gyv ų</w>
atsisak ymo</w>
veiki ančios</w>
nor ėtų</w>
nenaud oj
kodek są</w>
nurody kite</w>
horizon tali
vėži u</w>
tro p
or and
patiksl in
minu tes</w>
lam ino</w>
PAŽYM ĖJIMO</w>
Kombin uotosios</w>
K ateg
įvy kius</w>
į registruoti</w>
4 8
susijusi omis</w>
ra cija</w>
ol į</w>
moni tor
omb inan
kre ve
informa cinės</w>
importuotoj as</w>
Tar ybą</w>
muta tis</w>
ik ul
en e</w>
K en
AT A
kur sas</w>
bu dr
N ar
BŪ TINA</w>
te rio</w>
i ame</w>
didži oji</w>
tek os</w>
ma stą</w>
N ė</w>
jurisdik cijai</w>
ik inių</w>
gyven o</w>
dialog o</w>
Li cen
An tro
tini ui</w>
skirting us</w>
patir ti</w>
m iškai</w>
naš tą</w>
eilu tės</w>
Word Press</w>
p oj
ST AB
byl as</w>
A ki
tuo sius</w>
ir š
I V
tu nų</w>
paskol a</w>
ginč ų</w>
Ma x</w>
konven ciją</w>
darb uotojo</w>
atin ino</w>
Com ment</w>
pa žvel
Sveik atos</w>
tur ėjau</w>
suaugusi ųjų</w>
išva dų</w>
grei čiu</w>
di sper
situ acijos</w>
grindži amos</w>
gar s
pašal inimo</w>
fos for
S kun
Pe re
u se</w>
pa pasak
nor ėjau</w>
koordin uoti</w>
grindži ami</w>
į kvė
pamat y
aukšči ausios</w>
16 5</w>
y vių</w>
transpor tas</w>
tim e</w>
sav ininko</w>
naik inimo</w>
iš reiški
VEIKLI OJI</w>
R S</w>
Ind ija</w>
Ar ba</w>
14 3</w>
pagalb inės</w>
oficial ų</w>
na riui</w>
lu g
Treči a</w>
Me dži
skam bin
sav yb
provin cija</w>
prie var
nepa mirš
kvalifik aciją</w>
g aikš
place bu</w>
om u</w>
mar šk
keiči anti</w>
juri dinio</w>
atsak ymas</w>
pra dėjus</w>
aug inti</w>
atitinkam am</w>
F V</w>
įraš oma</w>
stov ėjimo</w>
pažymėj imų</w>
mone tų</w>
Tai v
sul auk
skaiči ai</w>
man ote</w>
grie tin
Gam ybos</w>
N D
Kom unik
Euro stato</w>
sank cijas</w>
ap gailesta
In tron
ve lės</w>
pd f</w>
krakm olo</w>
pen h
atitinkam iems</w>
Re cep
5 6
tip ui</w>
S unk
G ren
veiki antis</w>
sindr omas</w>
maži ausia</w>
konfi gū
j ūra</w>
agen tūr
į lank
sank cijos</w>
pasek mes</w>
K K</w>
nor in
mažesn io</w>
ting ų</w>
rim u</w>
pa liek
TI ES</w>
terin ės</w>
sandė li
qu i
komand ą</w>
žvej ybą</w>
Ų JŲ</w>
Stras bū
sumažin ta</w>
skrai dyti</w>
skol ų</w>
piliet ybės</w>
kov ą</w>
Produk to</w>
trum piau</w>
remon tas</w>
prašym e</w>
ori ai</w>
eilu tė</w>
Iš va
Bri gados</w>
ly gos</w>
atsi ra
atliek amos</w>
Gal im
skerden ų</w>
al s</w>
s dama</w>
pa dėj
chem ijos</w>
S ūn
še imai</w>
įnaš ų</w>
spaud imą</w>
saug oma</w>
Žvej ybos</w>
supranta ma</w>
nuo tekų</w>
milij onai</w>
ku b
3 37</w>
švie ži</w>
dalyvauj ant</w>
Su interes
vartoj usiems</w>
pro fil
i g
sti val
14 1</w>
ta pa
rink tis</w>
reik ėti</w>
dy tos</w>
dar ymo</w>
sumažin a</w>
e ris</w>
šaldy tuve</w>
vaiz das</w>
pū sl
ne veikia</w>
ati daryti</w>
REIK AL
F en
At skir
trūku mas</w>
min ų</w>
atskir o</w>
S ank
Ir besar
EL IS</w>
Apskri tai</w>
susitarim uose</w>
patir tos</w>
laisv osios</w>
vaik šči
mėg iniai</w>
iniciatyv as</w>
Val g
N N</w>
vadov auja</w>
el la</w>
TOJ E</w>
Intron A</w>
švie sa</w>
karb on
Papil dom
varto tojas</w>
prielai da</w>
pa der
administra cines</w>
žini os</w>
vieno dos</w>
konte ine
NAUD OJ
C ukr
AV IMAS</w>
A g
kompl eks
Vidu rio</w>
Praš ome</w>
ū kius</w>
veiks mo</w>
sun kių</w>
aukš tas</w>
abej oj
poo dį</w>
ė lius</w>
tišk as</w>
t ėse</w>
s on
pirk ėjams</w>
kompeten cija</w>
S tre
Est ija</w>
ma tau</w>
konver gen
i liu
toks inio</w>
VAIS TO</w>
Bendr os</w>
pro trū
nežin oma</w>
iš pli
gamin amas</w>
K h
įtrauki amos</w>
įreng ta</w>
ty nų</w>
speciali ųjų</w>
ran ga</w>
Ser tifik
IŠ VA
5. 1</w>
įstai gą</w>
priim tus</w>
organiz acijas</w>
neišven gi
diza ino</w>
Tie sa</w>
Q U
į steigimo</w>
tikrin imas</w>
nuo kry
funk cion
Ro dyti</w>
MEDŽIAG Ų</w>
AN S
siun t
s ono</w>
punk tais</w>
pasl ė
hek tar
gaun ami</w>
serg ate</w>
analiz e</w>
pači am</w>
maš ina</w>
Vi siškai</w>
16 4</w>
v or
nagrinėj ama</w>
mažmen inės</w>
uk us</w>
p omidor
kom entar
demon stra
daug eliu</w>
Bar ro
spaud imas</w>
kompetenting as</w>
ho c</w>
gal ėti</w>
2, 2</w>
rem damosi</w>
naujo vių</w>
l er
galioj imą</w>
en ė</w>
amon io</w>
0, 2</w>
rim tų</w>
mat menys</w>
ap klaus
Gali te</w>
nuo sė
kvie čiai</w>
IK OS</w>
pažei sti</w>
paraišk oje</w>
p ei
b el
apibūdin imas</w>
šal tinius</w>
es antį</w>
trin ti</w>
siūl ai</w>
p yl
lau ž
gaben imo</w>
Prieš ingai</w>
J UM
siurb liai</w>
prievol ės</w>
pral ai
pi g
nustaty tiems</w>
keiči asi</w>
kau p
de ci
cin gos</w>
asmen iškai</w>
uždar ymo</w>
s dami</w>
plauki oja</w>
keiči ant</w>
susi grąžinti</w>
car on</w>
bandom osios</w>
al inio</w>
vir škinimo</w>
valdy mu</w>
neį gal
til eno</w>
et n
at rio</w>
k uo
gai v
du b
Z el
tarptau tinis</w>
ak ri
15 2</w>
kari uomen
standar tinė</w>
li trų</w>
padi dėju
n ia</w>
u ma
po t
maž ėj
R en
3. 3</w>
priim tą</w>
pra dinė</w>
c i</w>
yb ėje</w>
j aud
administr atorius</w>
O f
19 86</w>
įtrauki amas</w>
tole snio</w>
ne darbo</w>
lakš tai</w>
Pri tari
krov imo</w>
konferen cija</w>
dvira čių</w>
Té l</w>
T M
Kau no</w>
įpra stą</w>
v ėjo</w>
pagamin ta</w>
Kon sul
B T</w>
rūgš čių</w>
lė t
lyg a</w>
atve jo</w>
Smi th
Afrik a</w>
uot ieji</w>
ty ve
su grįž
16 2</w>
ve l</w>
ul e
taik ius</w>
ta ciją</w>
nepapra stai</w>
j oks</w>
ži aus</w>
seuro p
pak el
gam yboje</w>
du os</w>
dang aus</w>
y sis</w>
provin cijos</w>
padidėj usio</w>
laikotarpi us</w>
gelb ėjimo</w>
Pl ojimai</w>
30 2</w>
žini omis</w>
virš ų</w>
riebal ai</w>
am ame</w>
AM A</w>
1 a</w>
santyk į</w>
edem a</w>
Tarptau tinio</w>
įsitikin ęs</w>
vyk dė</w>
vi šči
mė nuo</w>
laik inas</w>
Skry džiai</w>
uo tais</w>
po žem
K laip
a si
Pagrin dinė</w>
Ab u</w>
AC IJOS</w>
vertin ami</w>
priim tin
pen s
omi te
kompeten cijai</w>
Ser vi
G az
13 3</w>
temperat ūrai</w>
liku čiai</w>
aso cij
IC AO</w>
Brius elio</w>
nedels dami</w>
gydy tiems</w>
versl ą</w>
sal dik
optim iz
dari au</w>
apraš as</w>
žu vys</w>
D en
tren ir
radio aktyvi
ne įvykdymo</w>
ru tu
min imas</w>
gryn osios</w>
f o</w>
cukr us</w>
as t</w>
Tu ri
R ie
tarif inių</w>
palūk anas</w>
fero n</w>
demok ratų</w>
buve inė</w>
baig ta</w>
tvark ant</w>
rai dą</w>
naudoj amo</w>
Slo ven
r ą</w>
mo tin
c le
Al žy
kil ometr
Il galaik
to graf
iš puo
kop ij
RA IN
D eg
su per
būdin gas</w>
išk rovimo</w>
arch yv
TARG ET
P G</w>
vež imas</w>
om as
B on
3 000</w>
ó n</w>
stengi asi</w>
imb ab
aišk us</w>
Vadin asi</w>
16 7</w>
turim ais</w>
teigi amai</w>
s ai
recep torių</w>
ne būtinai</w>
KI PVPS</w>
tom os</w>
autentišk i</w>
Ko penh
Eur o</w>
ne leidžia</w>
miegu ist
gran ul
Pagrin diniai</w>
35 8</w>
sveta inė</w>
susi dom
sunk i</w>
interval as</w>
Kroat ija</w>
A C</w>
ė lio</w>
kre atinino</w>
SIREN E</w>
Graik ijoje</w>
skur do</w>
k ank
gr and
aplinko saug
Speciali oji</w>
Kipr as</w>
x i
par aiškose</w>
ne lių</w>
tir tas</w>
tri u
pakran tės</w>
g ata
el gi
N uot
r unk
prepar atu</w>
paklaus a</w>
pakank amą</w>
X X</w>
ATS AR
tarptau tinį</w>
и я</w>
specifik acijų</w>
Ma š
vieto vių</w>
po s
mem orand
kur ą</w>
erdv ę</w>
Ni uj
jurisdik cijos</w>
grei čiausiai</w>
M ET
yst ėje</w>
vykdy tojo</w>
ac inė</w>
A T</w>
ma gn
g um
Hu man</w>
invest uotojams</w>
inform avo</w>
fiz inio</w>
ken čia</w>
atlyg į</w>
12 9</w>
trūku mus</w>
prisi taikymo</w>
meto d
Standar tinės</w>
SIN FO</w>
JUM SINFO</w>
padidėj imo</w>
ly d
kele to</w>
ta spar
sve čių</w>
ri t
kontrol ei</w>
ban gos</w>
L en
pavad uotoj
simptom us</w>
gen ties</w>
aukš čio</w>
susi r
projek te</w>
prisijung imo</w>
preki aujama</w>
ne galioj
lygia vert
dė k
L engv
tra žo</w>
st en
numat omą</w>
do m</w>
preziden tas</w>
pa virš
naudoj amus</w>
dvy lik
susi ej
sandė liavimo</w>
produk tu</w>
patikrin a</w>
bū čiau</w>
b y</w>
žaid imą</w>
ž enk
į eina</w>
g umos</w>
Papil domos</w>
nacional ine</w>
min ga</w>
29 13</w>
sutelk ti</w>
subsidiar umo</w>
interven cinės</w>
gydom iems</w>
galioj ančias</w>
vam zdžių</w>
raun de</w>
lam o</w>
atsak ymo</w>
17 1</w>
judėj imą</w>
Pastab os</w>
O dos</w>
teigin ys</w>
ie r
bū gn
at im
Ta d</w>
Ž uv
pak uotes</w>
aj uo
uot oms</w>
mažesn į</w>
sumaž ėti</w>
si u
SI EKI
PREPAR AT
žibin tų</w>
h ei
bendradarbiauj ančių</w>
L ank
Indone zijos</w>
įvertin ta</w>
įvai rūs</w>
licen cij
B Y
vartoj imui</w>
tinkl ais</w>
pasku tinio</w>
n m</w>
agen tūrai</w>
Klin e</w>
šku mas</w>
sudė tinės</w>
l u</w>
asmen imis</w>
Centrin ės</w>
C M
tuoj u</w>
ry šiai</w>
paskirst ymas</w>
duo k</w>
Niuj or
mažesn ę</w>
Ban dy
neper trauki
dė koju</w>
bur g</w>
2 80</w>
tur tui</w>
Vie tn
Tai lando</w>
vieninte lė</w>
b y
Sek re
skelbi ama</w>
17 7</w>
00 2</w>
diskrimin acijos</w>
Jo h
reguli uojam
priėm imas</w>
nuo žiūra</w>
modu lių</w>
lei sk</w>
g liu
INST RUK
patek imo</w>
man ome</w>
konsul tan
dė ka</w>
įtrauk oje</w>
ver či
mažin ant</w>
bankro to</w>
V EL
suderinam umą</w>
statu to</w>
pen kis</w>
neviršij ant</w>
18 4</w>
įsitik inti</w>
pjau sty
Tik rin
Latvi joje</w>
pradė dami</w>
abejon ės</w>
M Hz</w>
tė vai</w>
tiek imą</w>
rin es</w>
fon dui</w>
b olo</w>
kė bu
inan tys</w>
aukš tą</w>
Su der
Afgani stanas</w>
16 1</w>
sp jū
skol a</w>
pirm ųjų</w>
Tailand as</w>
Par t
Mok y
tirpik lis</w>
tie są</w>
teis ingą</w>
12 49</w>
komite tų</w>
drabu žių</w>
V N</w>
Recep tinis</w>
P .
16 6</w>
importuoj amų</w>
f ra
W h</w>
si oms</w>
me i</w>
m and
Smith Kline</w>
veiki ant</w>
reglamentuoj a</w>
pripažin imas</w>
p usių</w>
konfidencial umo</w>
ju de
bu ti
S anglaudos</w>
šeš tadienis</w>
tranzi tu</w>
li en
doz avimas</w>
apkrov a</w>
B arb
vis atos</w>
ta us
iš aišk
Injek cinis</w>
su mai</w>
skelbi ami</w>
s mė
pra z
kam uo
Pa didėj
vertin u</w>
sukči avimu</w>
bendr i</w>
Re ti</w>
Fe der
vartoj amų</w>
kau pi
gamin ys</w>
žin u
sky sčio</w>
cero gen
20 2</w>
ver tei</w>
si on</w>
fiz iniai</w>
at neš
universite to</w>
sunk vežim
reikšmin gų</w>
pareišk imai</w>
bendradarbi avo</w>
aukšte snėje</w>
ag a
S ki
Konstitu cijos</w>
žar nos</w>
posė dį</w>
per ėjimo</w>
kain o
išnagrin ėjo</w>
c uk
AN D
0 5
įvai rovę</w>
ne leidžiama</w>
laišk u</w>
ar ti</w>
6 -</w>
ži o</w>
ūk ininkų</w>
trūku mai</w>
pasi tar
paden gia</w>
kel yje</w>
Navig ation</w>
ton e</w>
iš ti
fak tas</w>
Šū das</w>
eta pą</w>
naudo ta</w>
laikotarpi ų</w>
ali u</w>
Jor dan
iš vežimo</w>
esm inius</w>
N ATO</w>
plokš telės</w>
f raz
Z imbab
J E</w>
tau tos</w>
kruopš čiai</w>
0 7
laipsn iškai</w>
Gal imas</w>
visuomen ė</w>
tri ms</w>
pašar o</w>
nedels damas</w>
lang elis</w>
b akteri
atrank a</w>
suk imo</w>
siūl omas</w>
kan ap
ban k</w>
Rink os</w>
Praš ymas</w>
rūp i</w>
posėdži uose</w>
ne paskelbta</w>
c .</w>
sutar tyse</w>
pur kš
li audies</w>
kl iniškai</w>
centr iniai</w>
O N</w>
tarpu skaitos</w>
re c
Riz ikos</w>
6 7
tro n</w>
standar tinę</w>
m ū
išvar din
grup ėse</w>
auten t
formul ę</w>
s ap
nu grieb
B B</w>
19 85</w>
rengi ami</w>
Y ST
TARI C</w>
miš inio</w>
Veterin arijos</w>
19 5</w>
pro gre
imi gracijos</w>
Rez oliu
varik liu</w>
sukur tos</w>
smur to</w>
im kite</w>
dve jų</w>
žaid imo</w>
teis ei</w>
gr yb
es ančius</w>
tarpi o</w>
nuovar gis</w>
k ru
fil tra
eksportuoj antiems</w>
aspek tas</w>
a im
13 2</w>
s čius</w>
priv atiz
Cen tro</w>
praš ė</w>
iš tik
idėj a</w>
ri ems</w>
ne gavo</w>
laiky masis</w>
VIE TOJE</w>
ES S</w>
susitar ta</w>
se d</w>
Ž IN
r up
prie inami</w>
jau tri
di a</w>
4 5
F C
teis me</w>
parduo da</w>
do te</w>
ak tu</w>
į plaukų</w>
tuoj ami</w>
sker spjū
per skaičiavimo</w>
paprasči ausiai</w>
X V</w>
Taik ymo</w>
vi su</w>
te l</w>
sertifik atus</w>
L auk
Gar ant
G A
kelei viai</w>
Progr amos</w>
daug ybę</w>
Plė vele</w>
snu kio</w>
sk á</w>
personal as</w>
Man oma</w>
Dirb ame</w>
Com b</w>
nesi laikoma</w>
ban do</w>
D ei
vert imas</w>
trans liavimo</w>
teb ėra</w>
sutar tims</w>
sudar omos</w>
p. m.</w>
objek to</w>
kol on
n an
investi cinės</w>
gamin ami</w>
MEDŽIAG A</w>
s caron</w>
Techn olog
įraš omas</w>
tarn ybą</w>
sker smens</w>
din go</w>
akad em
P ok
Buv usi
tapat ybę</w>
taik ymu</w>
pratęsi amas</w>
kole gos</w>
en u</w>
Si rijos</w>
si t</w>
kar tono</w>
gyv sidab
geb ėjimą</w>
apraš yti</w>
P D</w>
tarif as</w>
stel ėkite</w>
reglamen tavimo</w>
eta pais</w>
17 4</w>
teis inė</w>
partne riais</w>
išlik o</w>
bendra jam</w>
poreik io</w>
25 1</w>
tvark o</w>
pra dėj
pavidal ą</w>
kom un
20 4</w>
įved imo</w>
sl enk
de x</w>
Frank fur
u lių</w>
pavir šių</w>
Slovaki ja</w>
SO RAIN
Daž nis</w>
skol inimo</w>
iniciatyv ų</w>
end o</w>
at leidimas</w>
aptarn avimo</w>
ul tra
išim tinai</w>
buv imą</w>
vyr o</w>
su renk
speciali ą</w>
rim i</w>
fi r
didesn ių</w>
bū do</w>
atsakym ai</w>
atitinkam ose</w>
SORAIN EN</w>
1 C
tek a</w>
techn iškai</w>
ser ga</w>
Su pra
M auri
vež ami</w>
peln ingumo</w>
at gras
aspek tais</w>
Dė koju</w>
įrody mais</w>
M ama</w>
Brazil ijos</w>
2, 3</w>
spek tro</w>
In sulin
G vin
KI TAS</w>
2 200</w>
si ą</w>
char t
Glax o
dve jo
do tacijos</w>
ali oji</w>
ver ž
sen ą</w>
per svarstyti</w>
direkto ratas</w>
INSTRUK CIJA</w>
Ger ti</w>
tok sik
kelei viams</w>
in to</w>
ank š
Nauj oji</w>
AP B</w>
ar i</w>
Zel and
už fiks
H U</w>
sta sis</w>
slė p
silp n
bal dai</w>
Mik ro
dy džius</w>
strateg ijas</w>
gyv ybei</w>
special i</w>
siurb lys</w>
perduo dama</w>
liz acijos</w>
Inter neto</w>
Glaxo SmithKline</w>
taiky tas</w>
I Z
ypating as</w>
kš tel
subjek tais</w>
pasta to</w>
paskirst yti</w>
nar ystės</w>
hipoglikem ija</w>
AM OJE</w>
sūn ų</w>
pasi baig
li emen
Iš laidos</w>
social inius</w>
papra šius</w>
meto dais</w>
ER A</w>
vie tinės</w>
uoj asi</w>
ne privaloma</w>
bū sto</w>
buteliuk e</w>
1. 6</w>
nurody mai</w>
nepageidauj amas</w>
ag u
S AN
tauri ųjų</w>
penki as</w>
kontra cep
dur ti</w>
ankste snio</w>
proced ū
lengv atų</w>
dvy lika</w>
Pat h</w>
EP F</w>
gam yb
di apa
apibrėž tį</w>
T au
nume rio</w>
apyvar ta</w>
sn iai</w>
individu aliai</w>
g ą
de damas</w>
ST O</w>
17 5</w>
pa n</w>
ol ika</w>
mėne siais</w>
av arijos</w>
X IV</w>
Už im
pasi telk
G YV
valdy mui</w>
tenden cijas</w>
sta cion
inform uo
administra cija</w>
spal vo
sme gen
schem as</w>
invest uotojas</w>
aug imui</w>
akcin inkų</w>
Dis ku
nurody toje</w>
mi sija</w>
PE T</w>
No vo
turim os</w>
tu mui</w>
garant uoti</w>
di agr
17 0
tuoj amos</w>
trum pai</w>
lan duose</w>
kla sių</w>
pri tarė</w>
Klaip ė
Gy dymo</w>
produk cija</w>
kei timas</w>
ki tokio</w>
už klaus
naf ta</w>
atlik tą</w>
Doz avimas</w>
ėj imosi</w>
nacional inėmis</w>
VAIK AMS</w>
19 70</w>
či ųjų</w>
paaišk ino</w>
keli uose</w>
teis us</w>
n ing</w>
my liu</w>
lin ij
liežu vio</w>
jū rio</w>
Vira feron
Sveik as</w>
Nyder landuose</w>
................................ ................................
vo ka
men as</w>
kor po
irbesar tano</w>
gir uotojo</w>
ekonom inis</w>
at palai
VAL ST
Pe g</w>
Pal est
Ener gijos</w>
privat us</w>
gi l
DUO MEN
privat umo</w>
pripažin tos</w>
poj ū
2 S</w>
prielai dą</w>
li a</w>
konkurenc ingumo</w>
or g</w>
l ini
juo sta</w>
Pi eno</w>
ketvir tį</w>
a partamen
STEB IM
In k
tvark ymą</w>
dar yk</w>
Pagrin dinės</w>
ve da</w>
trūk sta
patir tų</w>
milij ar
Sutar tyje</w>
Lux em
tvar aus</w>
de pozi
av os</w>
Vaik ai</w>
An gl
redak cija</w>
oci to
ma r</w>
m io</w>
Viraferon Peg</w>
Tarptau tinis</w>
žibin to</w>
tinkam umą</w>
teig ti</w>
ren t
deguon ies</w>
bendra m</w>
Indu stri
ta ch
galioj ančius</w>
Kon kre
B il
ATSAR GUMO</w>
me tinį</w>
truk dyti</w>
link s
laikin ųjų</w>
kov ai</w>
galv ą</w>
ok sa
išsi aiškinti</w>
informa cinį</w>
grąž os</w>
g lo
S IS
siūl omos</w>
galimyb ėmis</w>
apibrėž tų</w>
Uni ver
IJ Ų</w>
sumažin o</w>
siun tų</w>
patron uojam
mergai čių</w>
draudži a</w>
G ab
išim tys</w>
g ij
NEPA STEBIM
tarif us</w>
komunik acijos</w>
NEPASTEBIM OJE</w>
vež ėjai</w>
siun timo</w>
leid inių</w>
hidro chlorotiazi
apytik riai</w>
SIEKI AMOJE</w>
NEPA SIEKIAMOJE</w>
IJ IMO</w>
svie stą</w>
mer k
im ami</w>
draug as</w>
detal ės</w>
fiz inės</w>
dim etil
de hi
L EID
tikro sios</w>
mobi liz
TVAR K
Mer ck</w>
D C</w>
tė vo</w>
ste bu
st inę</w>
pareigūn ams</w>
klasifik uojamus</w>
Mo ter
C ol
19 0</w>
lengv atos</w>
laik ro
kaden cijos</w>
Pl okš
Šved ijoje</w>
įsik iš
vykdom ą</w>
sąsa jos</w>
susitarim ais</w>
patais os</w>
nauj osios</w>
atsitik tinai</w>
R am
Ber ly
žiūr ėjote</w>
š aud
o .</w>
lė tai</w>
ant spau
3 3
y siu</w>
standar tais</w>
sprend imais</w>
konkur sas</w>
cin ėje</w>
L a</w>
vė li
techn inis</w>
kur as</w>
kul tūra</w>
ku m
dioksi das</w>
F re
usi ųjų</w>
susijusi ai</w>
galin čių</w>
b elai
Ne u
Ke pen
sąnaud omis</w>
prižiū rint</w>
der ėtų</w>
Į monės</w>
sp o</w>
mode lių</w>
išsi skiria</w>
išor inio</w>
Nie kada</w>
Bi o
susijusi a</w>
naudoj amą</w>
me z
kl is</w>
ketin imą</w>
Sta tu
16 3</w>
pirmin į</w>
per te
Jėz aus</w>
20 9</w>
- us</w>
M T</w>
II I
13 7</w>
sta klės</w>
palank esnes</w>
konstatuojam osios</w>
LAP ELIS</w>
vaidmen s</w>
teis mui</w>
priver sti</w>
ak as</w>
žu dy
įvyk dė</w>
tinkam ais</w>
remi amasi</w>
p p
balsav imas</w>
automat inio</w>
aprib ojimo</w>
ai l
At kreip
nelaim ių</w>
lin į</w>
konkreči ais</w>
dalyv is</w>
įtak a</w>
ne rimą</w>
sp ir
pasi tel
c iniais</w>
b ate
1. 4</w>
tyvi ai</w>
prieži ūrai</w>
potencial ą</w>
pareng tos</w>
nuoro das</w>
baud ų</w>
am umas</w>
Vis ada</w>
ŽI ŪROS</w>
užtikrin imas</w>
ne k
momen tu</w>
Ko dek
Ban dymo</w>
sekun džių</w>
mai l</w>
karali aus</w>
Di rek
13 4</w>
pirm yn</w>
man ė</w>
W e
vai ravimo</w>
poli tinį</w>
naud ing
i d</w>
Už si
Peg In
mė n
kur sų</w>
kapsu lės</w>
argumen tus</w>
Su aug
OJ IMAI</w>
rek ombinan
pa laiky
c inko</w>
laikym ąsi</w>
VV G</w>
švie są</w>
e tikos</w>
avir as</w>
Techn iniai</w>
Gr up
pasiraš ė</w>
mok ėjimą</w>
C er
20 3</w>
ver sti</w>
iešk o</w>
gi li
ation s</w>
Reikal avimai</w>
E APB</w>
tik i</w>
pen ki</w>
ekspozi cija</w>
Papil domas</w>
Nusta tant</w>
Mo teri
įsteig to</w>
tran sp
sri čiai</w>
atlik imo</w>
SP OR
24 54</w>
į vežti</w>
techn ika</w>
laborato rija</w>
gere snis</w>
ei l
reiki amas</w>
p ui</w>
ne prisi
and ų</w>
PegIn tron</w>
uoj ate</w>
akcin ink
prek ė</w>
l ėmė</w>
PREPARAT Ą</w>
tarim u</w>
kl y
TARGET 2</w>
www .</w>
naudo tos</w>
n u</w>
moksl iniai</w>
Laik y
nauj iems</w>
Jung tinei</w>
švirkš tą</w>
ry ši
koeficien tai</w>
fe der
atskai ting
su skirsty
ran gos</w>
par amai</w>
pakeiči amos</w>
padary tų</w>
vien ingai</w>
suder intos</w>
peri fer
Naud ojant</w>
Deleg uotojo</w>
Bran duo
į tampa</w>
z e</w>
sta čiak
VAISTIN Į</w>
K ran
panaik inimas</w>
RAŠ TU</w>
pavadin imus</w>
dekor atyv
PAGALB INIŲ</w>
G N
5. 2</w>
ū nui</w>
sąlyg ose</w>
peln ingumas</w>
paskol ą</w>
pa leisti</w>
išlai sv
grėsm ė</w>
es s</w>
e m</w>
Susitarim e</w>
2. 4</w>
įž ang
re fer
pav .</w>
deleg uotasis</w>
sign alizacijos</w>
kl oje</w>
Austral ija</w>
kla viš
g aus
TE L
N emok
įvykdy tas</w>
siun tė</w>
sen at
patiekal as</w>
paaug liams</w>
numat omos</w>
ke p
ispan ų</w>
fak torius</w>
de be
Ki au
2 b
įgyvendin tos</w>
t uotis</w>
pranaš umą</w>
nes ant</w>
apar at
U Ž</w>
srau tai</w>
pači omis</w>
panaik inama</w>
maži ausią</w>
sachar ozės</w>
s ėjai</w>
ci trin
bul vių</w>
atspar umo</w>
am bi
Kiek vieną</w>
t va
sąsa ja</w>
sav imi</w>
pie tus</w>
mo to
mil žini
man iau</w>
krov inio</w>
Sistem os</w>
PL N</w>
PAKUOT ĖJE</w>
u skite</w>
pavir šius</w>
naudoj amasi</w>
Gry n
B O</w>
Pa galiau</w>
poli tinio</w>
vartoj antiems</w>
min gų</w>
gra ži
skat inama</w>
preziden to</w>
mygtu ką</w>
modu lis</w>
c el
ankste snės</w>
ūn as</w>
padė timi</w>
diferen cij
am ajam</w>
ne prieštarauja</w>
Gyv ūnų</w>
Šal ims</w>
mišk o</w>
me s
arb oksi
al is</w>
H S</w>
parody ta</w>
paden gi
B RAI
tiek ėjo</w>
oj ų</w>
Vaik ų</w>
Ukra ina</w>
Projek to</w>
Nėš tumo</w>
ER S</w>
priim amos</w>
kūdik iams</w>
deng tų</w>
de ja</w>
apraš ytas</w>
č empi
su tampa</w>
dek re
Teis inė</w>
Tarp inė</w>
TURĖTOJ AS</w>
0 -</w>
ton os</w>
ta jam</w>
priim ančiosios</w>
Insu man</w>
Insu lin</w>
daug umos</w>
pirmin is</w>
pači us</w>
D vie
sustab dytas</w>
plači ajuo
papra stas</w>
polie ste
BRAI LIO</w>
yn as</w>
tik isi</w>
st į</w>
spek tr
jung tis</w>
te lio</w>
sul fi
nužu dyti</w>
nukent ėjusi
l iniu</w>
ekst rem
Rami ojo</w>
naujo vi
laik raš
e rijos</w>
sutar čiai</w>
pateik imą</w>
atskir us</w>
MIN IM
14 4</w>
sien ą</w>
puslap yje</w>
pirm ojoje</w>
pil dyti</w>
konkreči am</w>
din es</w>
žibin tas</w>
tromb ocitų</w>
pik tyb
nepriklaus omas</w>
keli auti</w>
alg oms</w>
ruož tu</w>
daugiam e
ypa tingos</w>
pur šk
išduo damas</w>
i v</w>
hiper glikem
bi uro
Autom at
4, 5</w>
virš uje</w>
veiksmin giau</w>
uo stuose</w>
riboj amųjų</w>
neši oj
S por
Pagalb inės</w>
PO LI
zo o
tinkl e</w>
tikrin imu</w>
struk tūrų</w>
speciali us</w>
atitinkam uose</w>
S O</w>
Bai g
2b -</w>
visi šką</w>
turė sime</w>
sertifik atai</w>
Tyrim ų</w>
sumaž ėjęs</w>
prieštarav imų</w>
padidėj imą</w>
J an
perspektyv os</w>
juri diniai</w>
Ly gi
Ener ge
vykdy tojų</w>
sutik ti</w>
pasaulin ėje</w>
min imis</w>
deryb ose</w>
Do h
Ati tinkamai</w>
tau tų</w>
pa reikalauti</w>
lais vių</w>
Naud oti</w>
Api brėž
svaig imas</w>
ori aus</w>
du g
atsirad imo</w>
Sąveik a</w>
važi avimo</w>
re pub
Par k</w>
modifik uoti</w>
c m3</w>
Š virkš
ne šal
mėne s
ko polimer
gaun amos</w>
bl e</w>
amin o
įreng imo</w>
Čeki ja</w>
N E</w>
to r</w>
siūl omų</w>
prisi taikyti</w>
lygi us</w>
in ėti</w>
B or
ne su</w>
kaimyn ystės</w>
in d
G AR
tu ber
th er
plokš čių</w>
gre sia</w>
įpra stos</w>
sek ti</w>
am ose</w>
S har
x a</w>
nuo se</w>
t rimis</w>
moky tis</w>
inam osios</w>
ilg a
hiper tenzija</w>
fai lą</w>
Var tojimo</w>
ši lu
ne tur
aukš tojo</w>
Uni ted</w>
20 8</w>
sv arba</w>
plat forma</w>
n iek
chem inė</w>
ch ole
Dž ek
ši an
slap tin
skerden os</w>
EC H
2 24</w>
įgyvendin ami</w>
pagrindin ėms</w>
iš raišk
e sti</w>
didel e</w>
S V
3 a</w>
už stato</w>
s ėj
riešu tai</w>
om in
lais valaik
kieki ais</w>
buteliuk o</w>
bro lis</w>
atsisak o</w>
CYP 2
15 8</w>
pa dirb
nugar os</w>
ribavirin u</w>
priskiri ama</w>
pavadin imu</w>
eilu tėje</w>
tū pimo</w>
treči adienis</w>
me sti</w>
di p
administra vimą</w>
Kon go</w>
viru sų</w>
taiky tų</w>
ta ur
sū kių</w>
laik ėsi</w>
jung tiniam</w>
Pasi rinkite</w>
K .</w>
19 2</w>
bai gia</w>
apskai tą</w>
Finans inės</w>
Balkan ų</w>
šalu tiniai</w>
įmon ėmis</w>
sek a</w>
perk ant</w>
fe stival
Bank as</w>
vakar ą</w>
svarbi ą</w>
kny gą</w>
Ty rimo</w>
P T
L il
KA D</w>
Buv ęs</w>
hepati to</w>
EB PO</w>
įgyvendin tas</w>
tais yti</w>
nurody tuose</w>
minu tę</w>
e riai</w>
doz ėmis</w>
auj u</w>
at skaity
17 3</w>
viduri avimas</w>
re land</w>
Tais ykl
valstyb inės</w>
kompiute rių</w>
ilgalaik is</w>
fak tais</w>
am pi
Žuv ininkystės</w>
pasireng imo</w>
oj ai</w>
naudo tas</w>
mok amas</w>
k t</w>
C y
žu vies</w>
sukči avimo</w>
motor inių</w>
išsaug ojimo</w>
eksportuoj ant</w>
įraš ą</w>
technolog iją</w>
su tinku</w>
nen oriu</w>
Vi siems</w>
leid imu</w>
kan cerogen
buv usi</w>
palyg inus</w>
pramog ų</w>
konstruk cija</w>
geri ausių</w>
3 20</w>
B RI
201 3.
2 68</w>
papil do</w>
argumen tai</w>
vakcin a</w>
užduot ys</w>
sign alo</w>
pirmen ybę</w>
kai ri
Kil mės</w>
IŠ LA
20 5</w>
program inė</w>
plėtoj ant</w>
dal inio</w>
PV C</w>
Ne spo</w>
tiesiog inis</w>
patal pos</w>
pasau linio</w>
Tink amumo</w>
či u
poreik iams</w>
turim i</w>
ne apima</w>
diskusij ose</w>
antra sis</w>
ATLIEK Ų</w>
201 6.
paragin o</w>
pa čiai</w>
ne pak
miš inių</w>
ch o
14 93</w>
skran džio</w>
pripažin tas</w>
pirm uosius</w>
kli u
in amą</w>
F R
2 25</w>
š lo
į tai
sutrik imo</w>
social inį</w>
ne didelė</w>
grę ž
nagrinėj imą</w>
magn io</w>
lygi ui</w>
konden s
er g
są narių</w>
svar sto</w>
Ri b
RI Z
0 8
VAL D
pradži ą</w>
kny ga</w>
el l
atitink antį</w>
nov atori
liku tis</w>
deng ta</w>
uoj ančio</w>
Pas ik
sume timais</w>
prie puo
pa skyrė</w>
pa naudojimą</w>
sąjun ga</w>
pusiausvyr os</w>
ka kl
tinkl u</w>
steng tis</w>
pro to</w>
plo vimo</w>
paiešk a</w>
apar atų</w>
A ud
sta z
atski ra</w>
TAI KOM
S tik
Ki oto</w>
K ap
prepar atus</w>
laikotarpi ais</w>
jū rin
iš sprę
ank sti</w>
administra cinę</w>
Paskir ties</w>
žurn ali
fak tą</w>
Protokol as</w>
karb oksi
hidro ksi</w>
diskrimin acija</w>
angl aud
18 6</w>
Ši omis</w>
usi a</w>
uo tam</w>
tarptau tines</w>
inter vencijos</w>
atlyg inti</w>
vyst yti</w>
plė sti</w>
pas par
hidr o</w>
galė tumėte</w>
teis ines</w>
t ybė</w>
moksl iniams</w>
susitik imą</w>
su lys</w>
siūly ti</w>
nusi dėv
lėk tuvo</w>
18 3</w>
st ymo</w>
geri ausios</w>
Tais yklės</w>
Progr am
Nepa vyko</w>
K er
žiūrė kite</w>
pareng tą</w>
jau nų</w>
ch rom
ribavirin o</w>
7 5
pri žiūri</w>
nagrinėj ant</w>
S in
staty mo</w>
pirmininkauj anti</w>
pake tas</w>
dy k</w>
Kiek vieno</w>
viene rius</w>
vadov au
tu si</w>
pasi raši
nomenklat ūroje</w>
N auja</w>
ū kiai</w>
įvy kio</w>
padidin a</w>
de fek
AT SI
t ąsias</w>
su form
ne suder
maž ųjų</w>
leidži ančias</w>
kos mo
kon str
Ne w</w>
viene tais</w>
suaug usiems</w>
s ver
reng inių</w>
pinig ais</w>
l on
Pav ar
leidži amų</w>
atori jų</w>
SK VN</w>
Pla stik
Kateg o
studen tų</w>
elemen to</w>
plastik o</w>
pavar ų</w>
0 10</w>
G S</w>
ė t</w>
rūgš tys</w>
išme sti</w>
en ce
eki u</w>
angliavandeni liai</w>
E ri
Bir ž
vaik ui</w>
si aur
pakarto tinio</w>
pakai tal
San do
P M</w>
z mo</w>
tur ny
te p
ribo tas</w>
mo tina</w>
I k
F ai
trauk inių</w>
tiri amojo</w>
tak s
ran g
lei stas</w>
An aliz
vy nų</w>
susi tarė</w>
inhibi torių</w>
iklin ikinių</w>
automobi liai</w>
Įstaty mo</w>
preven cija</w>
per kam
bendradarbi avimui</w>
Strasbū re</w>
19 72</w>
st ojo</w>
skun dži
pateik tu</w>
nuosta tose</w>
ne sik
atstov ams</w>
F E</w>
uotoj ui</w>
norė dami</w>
laisv as</w>
im as
direk torių</w>
chirur g
Pak uotė</w>
nepa is
nagrinėj amos</w>
skaiči uojamas</w>
sen as</w>
pusl api
paž į
kompiute rio</w>
Iš s
Ar tim
m iniai</w>
finans inėmis</w>
alie jų</w>
ŽŪ P</w>
te at
sudar ys</w>
pasik ar
galu tiniam</w>
formul ė</w>
autom atiz
Ste bė
iš eiti</w>
parduo damas</w>
dieg imo</w>
lie či
Farma kokine
3 86</w>
vi vo</w>
teik ėjams</w>
region us</w>
ne darant</w>
mon tavimo</w>
la u</w>
išor inis</w>
V as
uk ą</w>
tr u
prisi dėjo</w>
išsi ųsti</w>
dė mis</w>
atsinaujin ančiųjų</w>
ark lių</w>
25 6</w>
pė dų</w>
men ts</w>
liek anų</w>
laim ik
T av
Nauj as</w>
r u</w>
pasku tini
metod ikos</w>
m eilės</w>
š o</w>
ė m</w>
ten zijos</w>
priėm imą</w>
grei tį</w>
grei t
galu tinę</w>
d amo</w>
V ene
parametr us</w>
dr en
pak omite
komunik ate</w>
gyvūn inių</w>
b ų</w>
Vieš pa
Pro du
L ak
Ši ais</w>
skaidr us</w>
rūp inimo</w>
prisim inti</w>
padeng tas</w>
etiket ės</w>
aišk i</w>
IR T</w>
F a
6 8
reikal us</w>
paver sti</w>
numa tan
kri tik
krauj avimas</w>
išsami au</w>
aukci ono</w>
au torių</w>
A F
2 47</w>
z as</w>
re formas</w>
pasi rūpinti</w>
ministr ų</w>
laik ymas</w>
išim tį</w>
Įgyvend inant</w>
var tokite</w>
tarif inės</w>
statistik a</w>
posė džių</w>
gair ėmis</w>
a h</w>
pir mo</w>
pasi rodė</w>
nuomon ėje</w>
nuo kryp
iš ki
įtrauki ama</w>
tur būt</w>
srau tus</w>
nustatan čiame</w>
bl ank
apžval ga</w>
su formul
str o</w>
plokš tel
me la
j ach
dan tų</w>
T iek</w>
Po puli
poli tinę</w>
ne tinkamai</w>
min imų</w>
j imo</w>
diabe to</w>
vykdom ų</w>
tiri amas</w>
amb as
Pirm oji</w>
ekspor tuotojo</w>
atliek amų</w>
PS K</w>
а р
trau kite</w>
es minis</w>
cukr ui</w>
Afgani stane</w>
antr as</w>
Spe ci
S em
Afrik oje</w>
sudary tą</w>
padary tą</w>
Rez ulta
tiek ėjas</w>
standartiz acijos</w>
s ma
importuoj ant</w>
Atkreip kite</w>
w e</w>
tvar ų</w>
tinkl inio</w>
klasifik uojamas</w>
O m
įraš ytas</w>
veiki anti</w>
sp ėj
ribo to</w>
jung imo</w>
D U
priorite tai</w>
ka š
intensyv umas</w>
gamykl os</w>
and os</w>
abipusi o</w>
S omal
A D</w>
se su
paskirst ymą</w>
af rik
Ieš kau</w>
vertyb ių</w>
san dar
profesi on
pa ilg
la r</w>
draug ai</w>
ATS AK
fen i
defici tas</w>
Bo x</w>
vež ant</w>
kolektyv inio</w>
pe lių</w>
lik s</w>
e h
auk ų</w>
vadovaud am
tinkam omis</w>
stat yba</w>
sav ininkai</w>
plan uojama</w>
ne tiksl
mai stas</w>
Pal aik
žvalg ybos</w>
special ų</w>
pateik s</w>
pasteb ėjote</w>
laiky damosi</w>
apskaiči avimas</w>
F KP</w>
AI F</w>
tur e</w>
etiket ėje</w>
B ŽŪP</w>
žin om
tik in
pu iki</w>
pra dės</w>
at vė
am or
terito rijas</w>
suinteres uotoji</w>
pra keik
pažymė ta</w>
pareig ą</w>
fosfor o</w>
dėžu tės</w>
apy tiksliai</w>
Ne darant</w>
užsi im
scen arijų</w>
gim in
daž numas</w>
G B</w>
. int</w>
reiki amus</w>
ne turime</w>
mokykl ų</w>
Pro f
I ON
3 28</w>
vietov ėje</w>
nepil nam
uj u</w>
plė vel
Pv z</w>
tori umi</w>
mui tinių</w>
direktor ato</w>
vidu tinėms</w>
pagalb inei</w>
padar inius</w>
lig ės</w>
di d
RESPUBL IKA</w>
9 51</w>
teiki ančios</w>
pasiūly me</w>
pageidau tina</w>
i m</w>
b ek
S W
sv og
retro virus
pi enas</w>
mi li
indė lis</w>
elges ys</w>
aplinkyb ėms</w>
TE M
EŽŪ FKP</w>
vir ti</w>
tin ge
kam pas</w>
fil mų</w>
skat inamas</w>
or laiv
finans iniams</w>
Bal tic</w>
15 3</w>
ėj imus</w>
pateik tame</w>
neteisė tos</w>
balan są</w>
S um
ne vyriausyb
k ve
fai lus</w>
įgū džius</w>
ty n</w>
integr uoti</w>
Va rik
K ir
14 6</w>
procedūr omis</w>
kiauli enos</w>
plat formos</w>
komponen to</w>
šir dis</w>
sek ma
rib ojimo</w>
ple či
R audon
Mi ch
M obi
ES D</w>
Ž u
kūdik ių</w>
kontroli uojama</w>
Barro so</w>
įvy kiai</w>
place bą</w>
ne leisti</w>
kv ap
suk ti</w>
region inio</w>
ankste sni
D ul
8 53</w>
19 77</w>
uot omis</w>
riton aviro</w>
neį trauki
n g</w>
lap elio</w>
k rek
PA STAB
Į ter
venti li
rūk yti</w>
proces ai</w>
ląst elės</w>
dinam inės</w>
M iš
y ne</w>
rezer vo</w>
re i</w>
pašar us</w>
refer end
Prie do</w>
Paprast ieji</w>
LI UD
telefon u</w>
susidu ri
san tuo
g oni
forma tas</w>
Dažni ausiai</w>
galim i</w>
drėg mės</w>
ang l</w>
S už
K uni
sumaž ėjimą</w>
P enk
2 40</w>
transp lan
saus osios</w>
aptik ti</w>
Val dymo</w>
statist inius</w>
sl au
pilie čius</w>
S R</w>
susi siekti</w>
pakran čių</w>
indė liai</w>
25 8</w>
nuo l
keli ose</w>
ju dumo</w>
įvertin tų</w>
ni a
S RI
R E</w>
N eg
AM AS</w>
h alog
ekstra h
veterinar inio</w>
nuosto lio</w>
M ek
Š ESD</w>
na riu</w>
daug eliui</w>
argumen tas</w>
s anglaud
para jon
juost elės</w>
inink u</w>
15 1</w>
ginkl us</w>
būdin ga</w>
atsakom yb
tran seurop
pir mini
Paki stano</w>
schem ų</w>
re voliu
Europo lo</w>
pa reiškia</w>
ne privalo</w>
jav ų</w>
bū siu</w>
W il
Ukra inoje</w>
ð tø</w>
virus as</w>
se ro
priek inio</w>
amin as</w>
ypating ai</w>
vanden is</w>
ti fi
organ inių</w>
nugrieb to</w>
labor atorijų</w>
Pos ė
MINIM AL
vien uo
ta s
skai dri
Tar nau
cukr iniu</w>
am o
Tie są</w>
B re
7 7
įreng inį</w>
ėj usį</w>
la st
M as
G ri
35 7</w>
rekomend avo</w>
ne tikė
finans uojama</w>
Pir k
IŠORIN ĖS</w>
ti pai</w>
sin chron
priem aiš
pra ėjusių</w>
perdav ė</w>
nurody tame</w>
Special ių</w>
Prek ės</w>
5 8
paveik slė
pa sunk
mėg inius</w>
lam in
M ėg
ERI C</w>
lig ą</w>
galv oje</w>
Mad ri
š uo</w>
ved ė</w>
tri s
sraig taspar
leng va
atstov ą</w>
4. 3</w>
procen tų</w>
pra kai
kortel ę</w>
18 33</w>
tikrin imą</w>
tal pos</w>
sėkl a</w>
sando riams</w>
nauj ųjų</w>
konferen cijoje</w>
h u
bi omas
ribo tos</w>
rezulta tą</w>
reng imas</w>
ku sios</w>
ij us</w>
fosf ato</w>
In di
mat uojamas</w>
A ran
vali os</w>
papil dy
laik ais</w>
Ū S</w>
vasar os</w>
susik lo
pasiraš o</w>
katego rijoms</w>
elektr omagne
E m
Ž ie
ver b
n r.</w>
inhibi toriai</w>
L RV</w>
ė tis</w>
y tis</w>
normali oji</w>
im k</w>
galu tiniams</w>
Vira feron</w>
19 76</w>
visi ško</w>
teis ėjų</w>
te mos</w>
prog res
patik ėti</w>
li terat
laikym osi</w>
l r</w>
Nem an
4 32</w>
pa naudojimas</w>
farmakokine tikos</w>
Kiek vienos</w>
KO K
še ši
įvyk is</w>
už ima</w>
sąly čio</w>
skaiči ui</w>
mokykl oje</w>
interven cinių</w>
Portugal ijoje</w>
. A.
usi ais</w>
tišk a</w>
pareišk imų</w>
on s</w>
lak ðtø</w>
REIKAL AV
stud ij
prietais us</w>
didži ąją</w>
2 48</w>
Š ir
vieš ąją</w>
susie ti</w>
pro spek
kontroli uojamų</w>
Die vą</w>
įmok as</w>
tu ale
ta gli
nu mą</w>
an tų</w>
Č i
patal p
baig tos</w>
Mad aga
nak ties</w>
d liauk
am a
užtikrin s</w>
il ės</w>
ekonom inei</w>
P D
rink inio</w>
kėl imo</w>
Ū kio</w>
įvyk sta</w>
įgyvendin ta</w>
tek tų</w>
remi ant</w>
ne apmokest
hem at
gab ari
fut bolo</w>
6 9
program omis</w>
pra skie
AI FV</w>
toki ose</w>
su voki
priorite tas</w>
pasku tinę</w>
laišk ą</w>
Bendradarbi avimo</w>
A to
susijusi ose</w>
susi daryti</w>
prade damas</w>
su man
S ul
Madaga skar
7 9
š lif
pavyzdži us</w>
nu žud
įsteig tos</w>
statist iškai</w>
L R</w>
Į stai
uo stai</w>
prival omi</w>
laikin ą</w>
eng lik
N R
M Y
K vie
žmog ų</w>
švirkš tas</w>
užduot į</w>
treči ąją</w>
pavel do</w>
nuolat inė</w>
ne mokumo</w>
ne apdoroti</w>
gal ais</w>
dav imą</w>
P E</w>
tal en
raš te</w>
panaš ų</w>
m audy
laš iš
fon dus</w>
18 8</w>
už daryti</w>
stik a</w>
susi dūr
sien as</w>
sekretori atas</w>
pluoš tai</w>
la ceta
kar inių</w>
išankst inį</w>
PAG AL</w>
Ne si
Kalė dų</w>
1 .</w>
ta jai</w>
išduo dami</w>
es amus</w>
an ą</w>
pro du
pažymėj imai</w>
mon ė</w>
IT UC
2 97</w>
nuosta tai</w>
baud as</w>
t. y.</w>
nume rius</w>
aptik imo</w>
Tarnau tojų</w>
Pan aik
Liuksembur go</w>
padal inys</w>
N r.
F .</w>
E G</w>
DIN IŲ</w>
8 81</w>
panaudo tų</w>
ki em
gais ro</w>
f a</w>
Ne t
I rak
įst ei
tagli p
st inį</w>
pagrį stus</w>
es p</w>
Va ži
SG N</w>
Kan ada</w>
I e
AM OSIOS</w>
17 9</w>
šven ty
įsp ėjimo</w>
vertin amos</w>
tenk ina</w>
sumaž ėtų</w>
rai dos</w>
elektron inėmis</w>
den tifik
Vyk dant</w>
Vidu tinis</w>
Koso vo</w>
me tan
gyven tojus</w>
ek rano</w>
ad ata</w>
U G
S avi
par aud
kata strof
ilgalaik ės</w>
chlo r</w>
F L</w>
ombudsmen o</w>
nume riu</w>
der iniu</w>
AS A</w>
pramon ę</w>
k ė</w>
T E</w>
P K
reguli avimas</w>
dėž ės</w>
vo lių</w>
skaus mą</w>
diagno stikos</w>
Ne su
II .
sen i
per trauk
lenk ų</w>
lai vyno</w>
krov os</w>
z en
pirminin kui</w>
išme tam
h a
daik tų</w>
Nacional inė</w>
vir o</w>
pa gal
ma gi
ilgalaik ių</w>
švirkš te</w>
saug us</w>
meto ksi
dėžu tėje</w>
cion aliz
B ru
- i</w>
trū kumo</w>
I reland</w>
r omų</w>
ne skirti</w>
me diena</w>
bal tojo</w>
M oz
taiky tini</w>
kriz ė</w>
iš laikymo</w>
V in
RIN IO</w>
u k</w>
s ūr
plastik ų</w>
pasien yje</w>
iš iešk
di sti
Vidu tinė</w>
įstaty mu</w>
specif inių</w>
sluok snis</w>
paskir tos</w>
nuol atos</w>
duot us</w>
balan sas</w>
šak n
stabil umui</w>
per krauti</w>
laim ėti</w>
ger ų</w>
bal tos</w>
Taiv ano</w>
Gal vi
pradė tos</w>
oficial ių</w>
kontroli uojamas</w>
d um
N el
šv ino</w>
vyr ams</w>
nauj u</w>
mergin a</w>
indė lį</w>
Konstitu cinių</w>
šiaur ę</w>
ry tus</w>
prieinam umas</w>
kiauš iniai</w>
aud inius</w>
W al
Kri sta
A RI
žemėlap is</w>
vidur yje</w>
sąskai toje</w>
slau gy
populi acijos</w>
neigi ami</w>
jau nuo
Gren land
Gr įž
General inio</w>
tę s
min ima</w>
galvij ienos</w>
Pritari u</w>
uo damas</w>
tinklalap yje</w>
teiki anti</w>
tarptau tinė</w>
deta lių</w>
bendradarbiaud ama</w>
Vai stas</w>
Pasl aug
Pasak yk</w>
Gru zijos</w>
G SE</w>
į ro
tvarkom i</w>
sutik imo</w>
prara sti</w>
mode lius</w>
in kui</w>
tuber kuli
siūl ų</w>
propi l</w>
pabrėži ama</w>
ne gauta</w>
importuotoj ams</w>
ar e
P onios</w>
Žmon ėms</w>
uo dami</w>
ml n</w>
buteliuk ą</w>
apy gar
Kin ijoje</w>
3 27</w>
19 82</w>
tarptau tinėmis</w>
panaikin ta</w>
padal inio</w>
kan alų</w>
insulin u</w>
išlik ti</w>
al inė</w>
sta d
men iu</w>
arbi tražo</w>
T ėti</w>
R eng
klinik inio</w>
fak tūros</w>
Te ri
or i</w>
elges į</w>
e rius</w>
ausi s</w>
an emijos</w>
verpal ai</w>
pripažin tų</w>
pli en
nuosav ybė</w>
iš pil
Vai r
Na f
M en
Leid imo</w>
straipsn iais</w>
pasi prieš
d imas</w>
budr umo</w>
Pa tari
A 2</w>
kro sn
gėrim ai</w>
departamen to</w>
EE SR
8 8
st ie
pri skirtas</w>
lok sa
ombudsmen as</w>
v us</w>
l ėms</w>
i talų</w>
vakcin acijos</w>
nust oja</w>
auj ančių</w>
at ra
N 1</w>
K ing
15 00</w>
stebė tojų</w>
neutr aliz
ne pažeidžia</w>
tikrin ama</w>
proporc inga</w>
identifik atorius</w>
dė me</w>
Papil domi</w>
įsp ėjimai</w>
teis mą</w>
reglamentuoj ančias</w>
pri tarimą</w>
ac k</w>
Toki ų</w>
Kodek so</w>
puik ų</w>
priešta ravimo</w>
kop ijas</w>
br uo
apsi draudimo</w>
ad ek
z an
visu r</w>
pradin ę</w>
pavoj ing
lin iją</w>
kar ei
dži ū
patik imą</w>
hi drau
Ink stų</w>
Elek tr
EESR K</w>
Draud imas</w>
tišk ą</w>
sujung imo</w>
las h</w>
k us</w>
IŠ DAVIMO</w>
se kasi</w>
protokol e</w>
SU TEIK
ym ais</w>
vil nos</w>
procen tas</w>
pasitik ėjimo</w>
nagrinėj ami</w>
liuk ai</w>
iešk inio</w>
dow s</w>
PA S
A A</w>
įpra stai</w>
sąnaud oms</w>
per neš
Mi cro
L ang
Bendradarbi avimas</w>
25 3</w>
sąveik ą</w>
ar t</w>
PAR DAVIMO</w>
sk ru
pasi ū
leidži ančių</w>
RIJ A</w>
Dek lar
tur ėčiau</w>
tikim ės</w>
tais omųjų</w>
nustatan čią</w>
kapi tonas</w>
Ab ie
laisv a</w>
atsi un
atliek oms</w>
PAR EI
priskiri ant</w>
kuo kštel
at omų</w>
reli gijos</w>
g imo</w>
S hi
Bend rovės</w>
Ž o
kriterij aus</w>
PROCED ŪRA</w>
15 5</w>
un d
skub os</w>
re zi
mole kul
invest uotojo</w>
subsid ija</w>
sp ra
end i
tenden cija</w>
srau tą</w>
kreipi amasi</w>
kompetenting omis</w>
den gi
de tek
alkoh olis</w>
T C</w>
Aran esp</w>
vam zdži
toki oje</w>
tik o
minim alus</w>
pasikei timus</w>
ni tr
konflik to</w>
deg inimo</w>
u i
si lik
per skaiči
kil mė</w>
juri dinių</w>
eig ą</w>
7, 5</w>
virš ūn
speciali stai</w>
natūr alių</w>
Įmon ių</w>
stabil umas</w>
plan u</w>
kok ybei</w>
ištek liams</w>
da in
cir kuli
am umą</w>
V a</w>
J EK
vertin imui</w>
priim tinas</w>
politik oje</w>
narkotik ais</w>
en cija</w>
Draud imo</w>
še imų</w>
įnaš ai</w>
vertyb es</w>
v oje</w>
tenk inti</w>
str as</w>
ypa i</w>
su šveln
pė d
kalb u</w>
hek sa
g az
f ab
c an
TA IK
Jung tinio</w>
C .
tari amai</w>
ro sios</w>
gere snės</w>
Aki vaizdu</w>
spinduli uotės</w>
pirk imą</w>
integr uotos</w>
Laik as</w>
D -</w>
2 60</w>
teik imu</w>
skirting ai</w>
rie bu
naik inti</w>
V R
tiesiog inį</w>
termin ui</w>
pavadin imų</w>
pas merk
kur sai</w>
agu e.
TVARK YMO</w>
Le ague.
tvirtin imas</w>
teik ė</w>
sąskai tose</w>
rin as</w>
pasik albėti</w>
naš tos</w>
modifik uotų</w>
dota cijų</w>
atskir i</w>
pajėg umą</w>
olanzap ino</w>
nutrauk tas</w>
g lu
am eri
J iems</w>
3 01</w>
įsisteig ęs</w>
įsipareigoj imais</w>
va do</w>
skaus mo</w>
išnaš ą</w>
išbrauki ama</w>
6 59</w>
nepriklausom ų</w>
mažesn i</w>
ik lius</w>
an to</w>
Lei skite</w>
Irbesar tan</w>
sign alas</w>
rin o</w>
laisv ė</w>
avir u</w>
anta goni
NAU J
Kon tra
vadov ą</w>
spal v
rū mų</w>
pasto vi
ku mas</w>
išmok oms</w>
M aik
BENDRO SIOS</w>
vaik ais</w>
ti ci
sk o
s y
pasku tinius</w>
kontroli uojam
gav ybos</w>
C lo
A PRI
6 48</w>
treči os</w>
panaik inantis</w>
ograf ijos</w>
biolog inio</w>
Viešpa tie</w>
G Hz</w>
šeš i</w>
talpykl os</w>
sta r
sn ie
gin a</w>
aki es</w>
ad e</w>
su r
stik las</w>
prof loksa
perduo tas</w>
chem iškai</w>
S tab
ši au</w>
teis ingas</w>
pasek mės</w>
Vieninte lis</w>
A ven
ρ ο
kop ijos</w>
L IN
II a</w>
sti pre
laikotarpi ai</w>
galvoj au</w>
P lat
19 78</w>
instruk cijos</w>
graž us</w>
ger b.</w>
ai din
vi rimo</w>
palik o</w>
mėg sta
mat ome</w>
erdv ė</w>
eksportuoj ančio</w>
ši tas</w>
ta ma</w>
steroi dų</w>
praei tyje</w>
ne atsižvelgiama</w>
sluok snio</w>
lig as</w>
išdav ė</w>
iš ėjo</w>
ie čių</w>
atitink ančias</w>
ag l
Vald ančiosios</w>
vie ji</w>
sor ci
epidem iolog
atsakom ybe</w>
S ol
Mi x
tarptau tiniais</w>
skun das</w>
sertifik avimas</w>
padidin ta</w>
nu spr
institu cijose</w>
bes pal
NES U
versl ui</w>
tiks liau</w>
pana šias</w>
nutrauk imas</w>
ne reikalaujama</w>
kom pozi
gai š
autobu sų</w>
ar y</w>
a šiai</w>
Dal y
v ul
pa stebėta</w>
mo n</w>
iš duotą</w>
galė site</w>
dirb inių</w>
au sti</w>
Gamin tojo</w>
Belg ijoje</w>
usi eji</w>
nežin o</w>
apim timi</w>
IN N</w>
pagamin tus</w>
min ėjo</w>
klai dą</w>
h om
Gydy tojas</w>
Fili pin
APRI B
yn ų</w>
taisykl ėms</w>
ne kal
krov in
Pacien tų</w>
5. 3</w>
rezerv u
p uose</w>
ankste sniais</w>
30 9</w>
įsigalioj us</w>
sk el
kūn ą</w>
klien tas</w>
ag e</w>
Vilni uje</w>
D un
vide o</w>
skolin imosi</w>
pasi žymi</w>
on az
maš inas</w>
antr ąją</w>
Kepen ų</w>
Jung tinis</w>
ūki ams</w>
vanden iui</w>
sve ri
sumokė ta</w>
pirš tų</w>
gyvūn o</w>
egzi sta
J aun
p ės</w>
išsam ūs</w>
er ų</w>
atsisak ė</w>
ataskai tinio</w>
1, 1</w>
smul kin
požym ius</w>
mo si</w>
gyvsidab rio</w>
farmakolog inio</w>
esn ius</w>
ekolog inės</w>
chemo terapija</w>
O LA
IŠVA DA</w>
ut h</w>
tenkin amos</w>
pasi un
do sios</w>
atnauj in
Est ijoje</w>
pirm ąsias</w>
koncentra cijai</w>
ci gar
br om
Vai sto</w>
E u
įrod oma</w>
ė n</w>
puslap io</w>
ko sios</w>
direk toriui</w>
dar ni
pripažin imą</w>
25 5</w>
spindu lių</w>
skir toms</w>
galu tiniai</w>
NU ROD
A uk
klaus imams</w>
fon o</w>
C PC</w>
įraš omi</w>
vai sius</w>
procedūr ai</w>
papraš yta</w>
operatori ams</w>
kar toj
Tr ys</w>
Ne der
Nauj ienos</w>
veiki antys</w>
pritaiky tas</w>
pen sijos</w>
ak cen
tuo to</w>
tieki amas</w>
registra ciją</w>
praktik oje</w>
patal pas</w>
nepakankam umo</w>
geb ėjimas</w>
P ul
suvok ti</w>
sulf atas</w>
skerspjū vio</w>
lankst umo</w>
disk on
Par o
vykdy tų</w>
unik alus</w>
sudėting as</w>
spaud ai</w>
k B</w>
c ul
Vien os</w>
s uose</w>
rezulta tams</w>
pne umat
patik imai</w>
pal ap
autoriz acijos</w>
Suom ijoje</w>
su stipr
gran dy
bū davo</w>
apdoroj imas</w>
anči osioms</w>
E l</w>
BA I
3, 4</w>
re pu
išor inės</w>
dy džiu</w>
c ation</w>
vy ną</w>
tikr uose</w>
ht s</w>
finans ine</w>
a w</w>
Maži ausias</w>
6 5
30 5</w>
turi m</w>
rake tų</w>
ne atlikta</w>
maž umų</w>
bai giant</w>
apibrėži ama</w>
Ver tės</w>
Lo tynų</w>
A š
šal tinį</w>
sunki os</w>
kondicion avimo</w>
ko ri
grįž tam
gali ai</w>
av au</w>
D O</w>
un t</w>
tiri amųjų</w>
ru den
maršru to</w>
e d
ausi te</w>
at pirkimo</w>
3 49</w>
- Taip</w>
veik s</w>
skun dų</w>
privači ojo</w>
k ate
gra st
galu tinė</w>
L ė
ta jame</w>
pask el
mani m</w>
ES P</w>
sky dliauk
j ec
tvar umo</w>
sky stis</w>
pajė gos</w>
padidin o</w>
žin ojo</w>
pa nei
baz ėje</w>
už rak
pus me
li k</w>
L AS</w>
mat y
degal ai</w>
UM AS</w>
Taik oma</w>
Diev ui</w>
19 9</w>
ri aus</w>
privalom ųjų</w>
akivaiz doje</w>
P H
B T
AT E</w>
z mas</w>
visk o</w>
tuv ais</w>
susitik ti</w>
strateg ijoje</w>
skon io</w>
bakteri jų</w>
S H
Atei k</w>
AP IE</w>
vil nių</w>
psich ikos</w>
kiauši džių</w>
apskaiči uotos</w>
Kaz ach
Agen tūrai</w>
įsisteig imo</w>
transpor tavimo</w>
ne pagrįstai</w>
grės mės</w>
ba im
19 07</w>
gi ausias</w>
finansav imui</w>
b okš
ad voka
Proced ūros</w>
reikalav o</w>
patik ė
leid imui</w>
galioj ančią</w>
a cinį</w>
LIUD IJIMO</w>
unk sn
slap ta
kelion ę</w>
gir dėj
būs imų</w>
balsav imą</w>
at ran
v imui</w>
peržiūr i</w>
pasieki a</w>
pasak yta</w>
ki toks</w>
branduo linio</w>
Pirm yn</w>
M L</w>
vien ij
susi dū
ne rim
Win dows</w>
Laik oma</w>
L EN
6. 1</w>
propor cingos</w>
pro kuro
perduo damas</w>
logi stikos</w>
ar d</w>
K vo
Išva da</w>
IS A</w>
poli tinis</w>
kreve čių</w>
Spa us
- iai</w>
v ori
padidin tas</w>
karb i
kaden cijai</w>
NESU VARTO
3 60</w>
vieš ąsias</w>
tu kai</w>
sta ž
savanori škai</w>
sav ininkų</w>
lin as</w>
kny gų</w>
gi ais</w>
bė gių</w>
al io</w>
S ali
19 67</w>
tarif ai</w>
inve sta
atsinaujin ančių</w>
sijun gia</w>
reglamentuoj ančios</w>
pasta raisiais</w>
neteis ingai</w>
gin es</w>
Pasi baigus</w>
10 ,
išklaus yti</w>
ence fal
P y
J oje</w>
Brazil ija</w>
ūki ui</w>
st ing
ieš kov
užtikrin tos</w>
prieštar autų</w>
patikim umą</w>
o p</w>
nutrauk us</w>
V ik
į slaptin
ry tą</w>
iš bandyti</w>
au kite</w>
A smens</w>
2 90</w>
skirting ose</w>
riešu tų</w>
pasik artoj
oz e</w>
m un
ekspor tuojam
19 3</w>
gere snį</w>
atnauj inta</w>
at lygio</w>
men kių</w>
Kiek is</w>
20 .
pirminin kavimo</w>
mokykl a</w>
i ą</w>
hidro chloridas</w>
fero no</w>
cik las</w>
atitink ančius</w>
atitink ančiais</w>
Pagrin dinių</w>
virš ijo</w>
stero lio</w>
patikslin ančiu</w>
at vaiz
VI EN
NESUVARTO TO</w>
LOG INĖS</w>
tenden cijos</w>
kalb as</w>
gu bo</w>
dir žo</w>
Z e
viene rių</w>
posistem io</w>
patik imo</w>
ne esmin
lukš ten
interval o</w>
apyvar tinių</w>
O lan
institu tas</w>
džiov inti</w>
Nen oriu</w>
Kol umb
ūk ininkai</w>
vyk tų</w>
taiky ta</w>
susi deda</w>
lap ų</w>
ko operatyv
din ys</w>
deleg acijos</w>
T ru
Nepageidauj amas</w>
t Å</w>
rij omis</w>
psich olog
organiz uoja</w>
mode liai</w>
deš ini
bu til
atvir as</w>
apibrėž imas</w>
Pini gų</w>
Konven cija</w>
vyre sni
techn inį</w>
są mat
ribo tą</w>
region iniu</w>
mie go</w>
konsultuoj asi</w>
kamba rių</w>
injek ciniam</w>
gab al
Me d
2 28</w>
2 23</w>
žin ės</w>
ženkl us</w>
ty rin
stu bur
progn ozės</w>
prie skon
koki omis</w>
dažn į</w>
P OL</w>
Laik o
pateik tose</w>
pager ėjo</w>
liep sn
biolog inis</w>
Bu te
tarpvalstyb inio</w>
pasi skirstymo</w>
ali osios</w>
K lien
sistem ingai</w>
nu tek
integra ciją</w>
atgal ine</w>
Toki omis</w>
Re gul
puo l
neį gali
gamintoj us</w>
Skai tyti</w>
įvairi omis</w>
objek tyv
konkur uoti</w>
C R</w>
B yl
įgalio tiniui</w>
toj oje</w>
sustab dymas</w>
s nei</w>
iš naudoti</w>
didesn iu</w>
Ž VEL
vir tu
t v
bi li
aspek tą</w>
Tran s
sub pozicijoje</w>
r aus</w>
ki tame</w>
farmakokine tika</w>
di dėjo</w>
ap žvel
9 A
19 68</w>
sinte tinių</w>
h ali
ši taip</w>
įvykdy ta</w>
vei dro
užbaig imas</w>
subjek tą</w>
kandidat ų</w>
g lei
fai lo</w>
de pon
apraš ytą</w>
Kl ub
4 9
sutar timis</w>
sekretori ato</w>
prie inamas</w>
atspin din
argumen tų</w>
a šių</w>
SU DĖ
I F</w>
EI VT</w>
18 1</w>
vadin asi</w>
v ėje</w>
region ui</w>
prie volių</w>
pasku tinė</w>
klien tai</w>
gav ęs</w>
epoe tino</w>
don or
R Ū
Per s
ATSI ŽVEL
įvertin us</w>
ov ės</w>
importuoj ami</w>
administra cinius</w>
Horizon tas</w>
6 42</w>
social ines</w>
rim ų</w>
prievol ė</w>
pa vyks</w>
ku muli
dom e</w>
Oficiali ojo</w>
try čių</w>
t le</w>
sumaž ės</w>
pok al
patir tas</w>
parduo dant</w>
panaikin tos</w>
pa trauk
bu ri
am bl
Vertin ant</w>
G ol
vaisi aus</w>
Palest inos</w>
Darb uotojų</w>
A ung</w>
19 58</w>
tr om
pas akiau</w>
nu kri
lengv ųjų</w>
I talia</w>
Gy dymas</w>
įtais us</w>
tim en
pa leidimo</w>
nauj omis</w>
m ą
lauk ti</w>
gra cija</w>
format u</w>
pl e</w>
atsak ą</w>
š y
sij aud
repub lika</w>
pavoj ingas</w>
konkre ti</w>
keitim ąsi</w>
darb inis</w>
d B</w>
bend rija</w>
baz inių</w>
Olan zap
OLA F</w>
3 00
ter mo
es ančią</w>
Ž EN
w a</w>
treči ojo</w>
reng imą</w>
ge o
at skyrimo</w>
Atnauj inta</w>
švie timas</w>
įpra stas</w>
siunči amas</w>
or to
L OS</w>
Cor por
Bi olog
uotoj oje</w>
sąlyg ą</w>
plė velės</w>
Vis uo
įstaig omis</w>
tu riz
perte kl
nor ą</w>
nepa stebėta</w>
nenurody tos</w>
humanita rinės</w>
Hi dro
K S</w>
B C</w>
3 63</w>
reikšmin gos</w>
pa tobulinti</w>
dva sia</w>
T H
O pera
FIN ANS
D ak
5 a</w>
var dai</w>
tiri ant</w>
te ra
si r</w>
Daž nai</w>
DV D</w>
3 38</w>
vartoj amos</w>
vaist u</w>
tiek ėjai</w>
im ties</w>
gra ikų</w>
Paš to</w>
19 6</w>
pasiūly tas</w>
nik elio</w>
myl i</w>
jėg ą</w>
atlik tus</w>
at vyko</w>
VO K
Są vok
Didži oji</w>
Arab ų</w>
vež imui</w>
pagrindin ėje</w>
fak tinė</w>
b ron
IB B</w>
tišk i</w>
pramon inės</w>
ið pirkimas</w>
di ure
žin duo
ši ur
z ijoje</w>
table tėje</w>
su plan
or os</w>
ne grąžin
mie st
kop ijų</w>
atlyg inimą</w>
Vis ą</w>
Izra elis</w>
G AT
2 14</w>
Į SI
reikš tų</w>
nauj oms</w>
ma tai</w>
Įsipareigoj imai</w>
te or
suga din
prisi ima</w>
atitink ančią</w>
tim ams</w>
eksportuotoj ų</w>
žai dėj
truk do</w>
su apval
st .</w>
na ri
l f</w>
kal aku
hei m</w>
gyn imo</w>
an tieji</w>
Aukšči ausi
pasinaud ojo</w>
bal ta</w>
Ob jek
EJ I</w>
mil tai</w>
li acija</w>
Kel ei
trum pas</w>
sign alų</w>
partne ris</w>
pardav imui</w>
paklaus ą</w>
ch us</w>
Ty rimas</w>
T am
Malai zijos</w>
I dentifik
Air lines</w>
įdom u</w>
sl ink
re d</w>
padar o</w>
milte lius</w>
lak tozės</w>
atvir ai</w>
Pa j
2 B
tole snis</w>
b ai</w>
auk is</w>
4 25</w>
š lau
įreng tas</w>
skirsn iui</w>
išim čių</w>
emiten to</w>
dė k</w>
Op ti
šku mą</w>
už draudžiama</w>
karšči avimas</w>
ac iniai</w>
1 H</w>
techn iniais</w>
sudar omas</w>
saldik lių</w>
praėjusi ais</w>
pon as</w>
ob uo
kompiu terin
fil m
bal so</w>
V -</w>
Par ama</w>
Juo kas</w>
š vi
įraš ytos</w>
teis min
maž osioms</w>
lo g</w>
išbrauki ami</w>
G MO</w>
vykdy tojams</w>
fak tai</w>
Vis o</w>
įsi galios</w>
nacional iniais</w>
institu to</w>
apibrėž imą</w>
amb lio</w>
Padidėj ęs</w>
ėm imą</w>
su pr
rov e</w>
reak ciją</w>
nepriklaus oma</w>
klien tui</w>
iš trauk
inhibi torius</w>
н а</w>
tašk ą</w>
stov i</w>
kur sus</w>
bran g
M G</w>
Š un
tarp institu
suinteres uo
pavar dės</w>
pateik ęs</w>
lė tiniu</w>
lygmen imis</w>
l ui</w>
Dži augiuosi</w>
protokol u</w>
pride dami</w>
Pa klaus
G BP</w>
st yti</w>
gyv i</w>
as ambl
vertin imus</w>
varto tojus</w>
ting ą</w>
pritaiky ta</w>
pavoj inga</w>
apdirb imo</w>
S ten
Ap si
3. 2.
y to</w>
su virin
pamirš ti</w>
pa tikras</w>
lik tų</w>
kore sponden
kon tor
išk us</w>
ik oje</w>
apibrėži a</w>
Grū dų</w>
C am
įpareigoj imų</w>
tur bin
su pažin
re agen
ne susi
em bol
c iniams</w>
agen tūrą</w>
Str aip
P rak
viene tus</w>
val dos</w>
sof t</w>
pro pan
integr uotą</w>
eta pų</w>
a rio</w>
Nuro dykite</w>
u Å</w>
ne apibrėž
mieguist umas</w>
ma stas</w>
La im
Š ko
zon ai</w>
biudže te</w>
anti retrovirus
sertifik ate</w>
pre mik
ne pridėta</w>
ate is</w>
T an
INST ITUC
išor inių</w>
Tiksl as</w>
Pam irš
Kaž kas</w>
Gr upės</w>
temperat ūrą</w>
pasireng ę</w>
kori do
c emen
M uz
L I</w>
He al
2 201</w>
ty čia</w>
saug aus</w>
embri onų</w>
sudė tinių</w>
stiprin imas</w>
is as</w>
f t</w>
er t
atnauj inimas</w>
S us
teis in
organiz mas</w>
nelaim ės</w>
konkre tus</w>
infuz ijos</w>
atsiskaity mų</w>
straipsn iui</w>
pl unksn
pasi sek
gyv avimo</w>
Z ona</w>
Serb ijos</w>
vaik ą</w>
seksu al
reag avimo</w>
nuo dug
lentel ėse</w>
keli amą</w>
įgalio tas</w>
vėli ausiai</w>
um ais</w>
pa va
p inti</w>
Vis uomen
šaldy ta</w>
rink iniai</w>
reglamen tui</w>
parduo dama</w>
Tun iso</w>
RA N
P aukš
Geri ausias</w>
ver siją</w>
praneš imui</w>
perdirb imas</w>
mai siais</w>
e voliu
Progr ama</w>
PA C</w>
19 1</w>
suderin tą</w>
pralei sti</w>
paskir tų</w>
pa dedama</w>
gy doma</w>
f an
ac h</w>
PC B</w>
N am
w er</w>
s oje</w>
padidėju si</w>
klub o</w>
dirb antiems</w>
D rau
x ia</w>
pirm alaik
išgir sti</w>
suinteres uotos</w>
naš umas</w>
mokykl ą</w>
kau či
dialog as</w>
Vien ame</w>
Susi tik
K D
skil tis</w>
savi žud
ne atsk
duo tų</w>
disku sija</w>
audi tas</w>
an im
G ene
suder intas</w>
iš ilgai</w>
gaun amų</w>
A ST
5 0000</w>
įmon e</w>
siunči ama</w>
lim uz
Pateik i
2 31</w>
saug umu</w>
pa kl
atsakym ų</w>
apdoro tas</w>
T ro
part ijų</w>
mi grantų</w>
keli ai</w>
im ant</w>
biuro krat
au ta</w>
SAV YBĖS</w>
P F
J ok
užpildy tas</w>
paslė p
oj imui</w>
asoci acijų</w>
ab on
B os
1. 5</w>
įstaig ose</w>
valdy tojo</w>
tarptau tiniuose</w>
sti p
r ė</w>
por tugal
ag a</w>
Ka inų</w>
Dan ijoje</w>
B ak
2 26</w>
1 200</w>
var do</w>
sukū rimas</w>
savyb ėmis</w>
kū rimui</w>
S tal
30 8</w>
ov ė</w>
Vieš bu
ton u</w>
taiky tiną</w>
san avimo</w>
on i</w>
iš reiškė</w>
Ku ri
š aukš
visuo tinės</w>
pa vėl
ok ai</w>
o sof
nacional inei</w>
išmok omis</w>
Y RA</w>
4 7
uždav iniai</w>
og liuk
maksim ali</w>
la n</w>
konserv uoti</w>
et ė</w>
atitink ančio</w>
V IS</w>
či usi</w>
vyre sn
rink imas</w>
pasim at
moksl inio</w>
konkre tiems</w>
kar an
geri amojo</w>
viz ą</w>
stabiliz avimo</w>
siun ta</w>
pripažįsta mas</w>
K E
Ap skaiči
įregistr uotas</w>
vidu tinį</w>
pagarb ą</w>
ku sių</w>
atve ž
4 20</w>
injek cija</w>
duo d
ER PF</w>
teri ai</w>
t ybės</w>
pašar ai</w>
horizon tal
apskaiči uojamos</w>
D uok</w>
tikrin ami</w>
tie čių</w>
di az
Pal ūk
PO VEIK
Me talo</w>
Man iau</w>
valstyb inio</w>
užbaig imo</w>
teo rolog
nustaty dama</w>
ku mą</w>
jaune sniems</w>
M I</w>
pri jungti</w>
patenk intas</w>
bal l</w>
Tė vo</w>
M ul
Išor ės</w>
. ht
pastab ą</w>
importuojam am</w>
b liz
Nacional inis</w>
19 74</w>
19 73</w>
įter pti</w>
suk ne
savi tarpio</w>
iš plau
atsižvelg us</w>
alyv ų</w>
ar ab
ap el
am at
Ka ribų</w>
Bendr ųjų</w>
turė tumėte</w>
pl omb
pasitel kiant</w>
ok se
en i</w>
Techn inės</w>
S F
12 90</w>
į kal
proced ūroje</w>
pil ep
nėš čia</w>
krikšči on
kre š
esn ak
Pas o</w>
Mek sik
sąžin ingai</w>
special us</w>
konfi sk
išplė timo</w>
in tra
daž ų</w>
bo ur
Ver tinimas</w>
C ir
sk rend
projek tais</w>
laiv ui</w>
dide snes</w>
del is</w>
aktyv us</w>
Už pil
statist iniai</w>
sn e</w>
I C</w>
į šaldy
tar e</w>
reikšming ą</w>
psich o
pre tenz
av a</w>
atstov ais</w>
saug o
ri tin
poli tinius</w>
patik imas</w>
m ol
lai d
kul tūrą</w>
išsam ių</w>
bū si</w>
biodyzel ino</w>
C al
2 98</w>
19 79</w>
pas o</w>
kon sorci
iš ger
Populi ari
Po zi
IŠLA ID
sprendži ama</w>
septy nias</w>
pranaš umo</w>
pasirink imą</w>
pa kak
numaty tu</w>
kei tik
diza inas</w>
dar yta</w>
35 2</w>
ug dymo</w>
oksi da
mėg inio</w>
minim alaus</w>
leid ė</w>
konvergen cijos</w>
hidroksi das</w>
Te rap
įg ij
tarif ą</w>
skydliauk ės</w>
proporc ingas</w>
pe ti
kraujospū džio</w>
augal ams</w>
technolog ijomis</w>
nuokryp is</w>
n oje</w>
maž ėjo</w>
c is</w>
atsak ingai</w>
T eg
P B</w>
Š aliai</w>
įkai to</w>
taiky tinus</w>
simb oli
reikal as</w>
partneryst ę</w>
gr ų</w>
fiz iškai</w>
struktūr ai</w>
prival omos</w>
ju da</w>
f un
skyri uose</w>
scenarij us</w>
priim dama</w>
atvirkš čiai</w>
P OR
Min ė
uoj i</w>
konsul tuotis</w>
T el
teis inius</w>
s s</w>
ber g</w>
MINIMAL I</w>
30 4</w>
ū m
ve dų</w>
grąž ų</w>
er d
berni ukų</w>
Str ateg
A ly
s h</w>
s damas</w>
rekomend acijomis</w>
par ko</w>
Pri klaus
ER AL
η λ</w>
į ėjimo</w>
sunki au</w>
sk aud
po od
garan tuoja</w>
ali ojo</w>
Ele c
2 35</w>
ule ten
rim i
pa plū
mažin imą</w>
im š
S QU
15 9</w>
or u</w>
l ei</w>
ce ri
apim tų</w>
advok ato</w>
V ISO</w>
0 1.
šun ų</w>
tavi m</w>
pri traukti</w>
pažym ima</w>
neigi amai</w>
T lf</w>
Mokes čių</w>
Galim ybė</w>
4. 4</w>
atitinkam ame</w>
T YRI
te pal
t à</w>
pa ne
maš iną</w>
li ta
detal es</w>
apskaiči uotą</w>
2, 6</w>
pi ra
pašar ams</w>
jė gų</w>
indek so</w>
im amas</w>
N VO</w>
L am
Jung tinėse</w>
Ap y
priver stinio</w>
ni us</w>
minė tame</w>
gi ui</w>
Mak sim
priim tina</w>
nie žu
l inius</w>
krauj avimo</w>
dul k
d au</w>
ataskai tomis</w>
Por tu
Marok o</w>
A sh
35 1</w>
į jį</w>
rib ose</w>
augal inių</w>
Deutsch land</w>
- 2</w>
Č e
val gio</w>
personal ui</w>
kosmo so</w>
f ro
buv ome</w>
aiški os</w>
skaidr umas</w>
ser e</w>
produk ciją</w>
plat inti</w>
pas ėlių</w>
nusikal tė
laisv os</w>
f uz
atme tė</w>
US A</w>
Re g</w>
šim tai</w>
ėj ant</w>
t ą
priklaus ančios</w>
o va
l eg
krauj ą</w>
ki Å</w>
av imus</w>
į skie
ėjusi ą</w>
vartoj a</w>
sk leisti</w>
priklaus ė</w>
inova cijas</w>
anči ojoje</w>
V IS
3 40</w>
Ši ose</w>
ti az
pl ek
inaud oj
A F</w>
vidur kį</w>
plan uoja</w>
kūn as</w>
S y
EG F</w>
rengi amos</w>
per duota</w>
g ė</w>
b angų</w>
at rodė</w>
C hi
6 71</w>
z ai</w>
trumpe snis</w>
mi siją</w>
me tas</w>
krū ties</w>
grindži amą</w>
antraš tinėje</w>
XX I</w>
spausdin imo</w>
siūl om
kr aun
em ul
T ren
paiešk ą</w>
nu kreipti</w>
kvapi ųjų</w>
išme skite</w>
br omi
Investi cijos</w>
B us
š oki
teigi ami</w>
sprend imuose</w>
prisi dedama</w>
dide liais</w>
atsižvelg ė</w>
cil lus</w>
va sta
už pak
pako pos</w>
nar į</w>
koreg avimas</w>
alternat yvių</w>
Pra dinė</w>
13 .
ž lug
į jungti</w>
per svarsty
kl est
fon as</w>
ch ol
SUS IJ
P IR
2 33</w>
žem os</w>
vartoj amo</w>
pirm ieji</w>
bank ą</w>
P etr
suprojek tuota</w>
es ančias</w>
žol ės</w>
tūk st.</w>
str y
on ės</w>
netruk do</w>
mokes čiu</w>
Ma sk
C as
taiky dama</w>
skelb imo</w>
parlamen to</w>
pardav imu</w>
ne turiu</w>
kodek sas</w>
V o
R af
Pre par
Pagrin dinio</w>
B ob
4 6
maksim alus</w>
amor tiz
Bendr ą</w>
varb u</w>
siūl us</w>
situ acijų</w>
kny goje</w>
audi o
Nuro dyti</w>
12 ,
pažymėj imus</w>
ni tri
inf ark
advok atų</w>
Euro sistema</w>
įrody mo</w>
t rek
suvest inės</w>
pri pil
ei sti</w>
V am
Pir min
G a
ö r
komerc iniais</w>
c z
M W</w>
Lil ly</w>
10 49</w>
visuo tinai</w>
teisė saugos</w>
sveik umo</w>
septy nių</w>
pači ui</w>
pastebė tas</w>
monitor ingo</w>
REIKALAV IMAI</w>
Ap saugos</w>
ver sijos</w>
ruoš ti</w>
perio das</w>
pastar ųjų</w>
paspa ud
minim ali</w>
katalog as</w>
Vien ą</w>
Ben t</w>
B la
Ar gi</w>
2 21</w>
Ž enkl
puo de
pasi reiš
pa vaiz
der vos</w>
br al
atlik tos</w>
MO N</w>
G U
C u
įrody mą</w>
pasieki ama</w>
nuosav as</w>
galu tines</w>
as or
Stabi lumo</w>
Nauj osios</w>
8 9
6. 2</w>
Žiūr ėk</w>
skai tik
runk elių</w>
nar ystei</w>
joki e</w>
dar ys</w>
Transpor tas</w>
2. 5</w>
pakvie sti</w>
oficial us</w>
fak tinės</w>
disper g
aug inami</w>
Ve ž
į dėti</w>
organiz aciją</w>
BL SK</w>
supran ta</w>
priemok a</w>
i ž
g ol
Paaišk inimai</w>
BRI STO
19 84</w>
tau ta</w>
pub lik
imun o
uo stus</w>
susi grąžinimo</w>
lo bi
laiky tųsi</w>
kopū stai</w>
koordin avimas</w>
kontro lie
finans uoja</w>
eli uose</w>
Vieš pačiui</w>
Rumun ijoje</w>
Pere inamojo</w>
sukel tų</w>
struktūr as</w>
s vyr
leidži antis</w>
SQU IBB</w>
MY ERS</w>
BRISTO L-</w>
B is
Ant raš
15 .
universite tas</w>
tumė t</w>
mie l
daly ką</w>
Pri ek
K ub
A na
žem i
įgyvend ino</w>
vi ole
kryp ties</w>
S var
F A</w>
18 9</w>
nuosekl umą</w>
U Š
L IK
APRIB OJIMAI</w>
Įstai gos</w>
ra dik
prietais as</w>
gal e
H en
3 25</w>
Ši uos</w>
pagrind us</w>
padi dėtų</w>
nu tik
laip snį</w>
Protokol u</w>
19 4</w>
ve n</w>
su vieno
kreip ėsi</w>
Vy riausi
N eki
Kom piu
tašk us</w>
social inis</w>
pervirš inio</w>
pateik ėjas</w>
pasireng usi</w>
pasikei timas</w>
pa is
keli us</w>
Pirmi au</w>
Gi bral
ž dži
įsi sav
vykdy mui</w>
užsi imti</w>
sluok sniu</w>
skirsn iuose</w>
prak tinių</w>
por tal
neigi amos</w>
B et
raš tais</w>
nenor mal
kryp tį</w>
eksportuoj ami</w>
civi lin
įpareigoj imas</w>
treči oje</w>
teigi amų</w>
sav ik
o vo</w>
mokykl ose</w>
mobi l
laik ė</w>
kambar į</w>
IR B</w>
įraš yta</w>
suskirst yti</w>
skaitmen inės</w>
paaišk inimų</w>
ci ster
bū senos</w>
Skai t
Li g
Ik iklinikinių</w>
Bosn ija</w>
0 20
w o
veiki ančio</w>
valdy tojai</w>
teisė tumo</w>
puo sel
fol ikul
registra cija</w>
pasirink ta</w>
pasiek tų</w>
pagrind iniu</w>
osi es</w>
ilg as</w>
a rija</w>
Vadov aud
Teis ė</w>
P IL
7 -</w>
vienkar tinės</w>
trum pin
ne kro
minu tės</w>
aug o</w>
Krauj o</w>
univer sali
t uotą</w>
pirmininkauj ančios</w>
draud imu</w>
as be
Nu statoma</w>
8 82</w>
0, 3</w>
stam bi
me trin
ki tokios</w>
keturi os</w>
T or
surink ta</w>
suinteresuot osioms</w>
pripažįsta mi</w>
nauj ausią</w>
investi cija</w>
gl audži
galim ai</w>
centr us</w>
ak te</w>
Produk tas</w>
M U
vež imą</w>
tūkstan čiai</w>
t hi
sri tims</w>
oficial i</w>
ki ui</w>
atsak ingą</w>
ragin ama</w>
praneš ėjo</w>
TE RIN
F u
3 21</w>
įstaty mais</w>
provin cijoje</w>
neval gius</w>
mat omas</w>
lub ų</w>
iš nagrinėj
este riai</w>
dem ograf
Vis ais</w>
Vi eno</w>
tirpik lio</w>
taik ą</w>
suteik tais</w>
remi amas</w>
karš to</w>
drabu žius</w>
dav ys</w>
Nėš tumas</w>
vidu tinę</w>
pakei stų</w>
Bute liuk
reglamentuoj ančius</w>
paslap tis</w>
oj os</w>
atspar umas</w>
Veng rijoje</w>
u ta
tiksl umu</w>
region ą</w>
laišk ais</w>
imi grantų</w>
finans inei</w>
be l</w>
Y JE</w>
Kombin uotojoje</w>
į mirk
spau dų</w>
perduo d
nei giama</w>
komponen tas</w>
katego rijoje</w>
har m</w>
demokrat iją</w>
riebu mas</w>
produk tyv
kab inimo</w>
aišk ų</w>
N V
Mil teliai</w>
Ar mėn
Ankste snis</w>
įsigalioj ę</w>
vid inio</w>
Nat ura</w>
D eš
C ENT
š į
skaiči uojamos</w>
ne tinkamas</w>
naudo dami</w>
buve inių</w>
bu hal
C 00
20 81</w>
sekre toriaus</w>
gyven ančių</w>
aromat inių</w>
O L
N O</w>
18 29</w>
pla čiau</w>
padi dės</w>
pad ang
il is</w>
baz inės</w>
taus oj
re formą</w>
per kain
naud ingos</w>
j imas</w>
spe kuli
solidar umą</w>
pa tinimas</w>
p om
Re struktūriz
ūk inės</w>
skol ą</w>
miš ri
kalendor iniais</w>
ka vimą</w>
AN T
nustaty toms</w>
normali ąją</w>
mok os</w>
iš ties</w>
interes ais</w>
fe r</w>
Ner vų</w>
D D</w>
Ž emi
rengi amas</w>
ov as</w>
natūr aliai</w>
in du
gai la</w>
Pirminink ė</w>
3. 4</w>
3 11</w>
ｹ s</w>
vei dą</w>
tikim ybę</w>
pristaty mas</w>
patvirtin us</w>
pasi rengti</w>
h er</w>
fai lų</w>
diok sinų</w>
cin ėse</w>
T rauk
KLIN IK
či ose</w>
vyre sniems</w>
sm uk
siūl omo</w>
pasi dalij
neteisė tą</w>
injek ciją</w>
ekonom ines</w>
darbuotoj ui</w>
tikr ąja</w>
sta te</w>
sprend imams</w>
pači ais</w>
organ ai</w>
ne galite</w>
nauj ais</w>
fil osof
deš inę</w>
asor timen
analiz ei</w>
PER ŽIŪROS</w>
taisykl ėje</w>
korpus o</w>
der inant</w>
Si un
S t
R api
įvyk s</w>
sin uo
reikšmin ga</w>
pagrind iniais</w>
padar ei</w>
korup cija</w>
drabu žiai</w>
Pra ėjus</w>
K ūr
Genero las</w>
2 38</w>
užsta tą</w>
sta tos</w>
special ūs</w>
s p</w>
ro limuz
moliusk ų</w>
liej imo</w>
ginč o</w>
dez infek
c y
Siek damos</w>
Ru sijoje</w>
R es
OJ O</w>
M eg
vėži agy
tū pti</w>
svarbi as</w>
simb olis</w>
ch o</w>
bilie tų</w>
SUDĖ TIS</w>
KL DR</w>
Ank sčiau</w>
6 50</w>
vasar ą</w>
suaug usių</w>
pa ju
n on</w>
kaino daros</w>
išdėsty tais</w>
bendruomen ių</w>
al j
S kam
vež ėjams</w>
stab u</w>
n amas</w>
moksl ų</w>
men ama</w>
inter pre
besivystan čių</w>
ad ą</w>
T ei
S mul
Neman au</w>
J ū
pri dėjus</w>
leist inas</w>
gaben ti</w>
O land
ėj osi</w>
veis linių</w>
sustab domas</w>
pa kil
chr omo</w>
BA ND
uždav inių</w>
l es
din e</w>
da tas</w>
bes inaudoj
and is</w>
papil d
mat uojant</w>
ke to
dė jos</w>
dil gė
audio vizu
UŠ T</w>
ES F</w>
BN P</w>
16 05</w>
prade dama</w>
im plan
galin tys</w>
ap mokėti</w>
Region inės</w>
LT0000 8
įdieg ta</w>
r ato</w>
pastar uoju</w>
pasiūly mui</w>
paplū dim
mole ku
kiauši al
išduo damos</w>
gai lė
finansav imu</w>
Pri sijung
POLI TIK
K elių</w>
200 9.
pasiūly ta</w>
kam p
gerb ti</w>
Ne gali</w>
visuomen ėje</w>
trąš ų</w>
tion s</w>
pasidal ijimo</w>
ilge snį</w>
hiper tenz
ekonom iniu</w>
Lap kri
įraš y
tu ne
pro tek
na m</w>
karš tojo</w>
daž ai</w>
ar om
ap rūpin
Respublik ą</w>
Ma ri
Ž al
ti o
pa skyr
neuž krė
inf liacijos</w>
geri ausius</w>
S ing
00 3</w>
įtais ą</w>
u d</w>
konferen cijų</w>
komer cinio</w>
T 2S</w>
E .
žaliav as</w>
vini l
jaus mas</w>
aikš tel
R ungty
Pramon ės</w>
Bū tų</w>
Al t
pė sči
pri taikius</w>
p uoš
metaboli tų</w>
krikšči onių</w>
Jok ū
Hon kon
Eurat omo</w>
ypating ų</w>
vyr auja</w>
plaukioj antiems</w>
kor tiko
f ran
atori umi</w>
an tysis</w>
Rū mams</w>
sh an</w>
priklaus yti</w>
d rib
c as</w>
bes ik
antro joje</w>
įvertin imu</w>
ė tina</w>
terori stų</w>
sky riai</w>
rau men
panaudo ta</w>
iš ieškoti</w>
iš duotos</w>
benz ino</w>
Rū šis</w>
Iš ankst
3 75</w>
žai z
profes inę</w>
nauj oji</w>
Hercegov ina</w>
pastan g
on io</w>
hidro liz
galvo tas</w>
gal va</w>
at rod
US E</w>
Neki l
Me taboli
Iš tek
B -</w>
ši ukš
vald omas</w>
klas ei</w>
virtuv ės</w>
vair uotojas</w>
turinči as</w>
tar inių</w>
ser umo</w>
li tų</w>
iš jungti</w>
atvir os</w>
Vyriaus yb
P us
ž is</w>
įpra stų</w>
ėjusi o</w>
vi bra
skat inam
komunik atą</w>
S kel
Nekil noj
B ažny
3 84</w>
š vy
į traukia</w>
tinkam am</w>
t é</w>
suinteres uotų</w>
pasikei čiant</w>
N eš
Kontra indikacijos</w>
Geri au</w>
Dvie jų</w>
skubi au</w>
si taglip
pakuot ė</w>
kėbu lo</w>
N OR
Mok yklos</w>
1 10
š ki
s mu
registr uojami</w>
pateis inti</w>
mir ti</w>
duk terin
L e</w>
vadov aujama</w>
užtikrin imą</w>
n ar</w>
mokė tojo</w>
iz ogliuk
grąžin imas</w>
eksportuotoj ai</w>
bendr auti</w>
LA I
Inter ne
D e</w>
žin omi</w>
žem as</w>
tašk e</w>
pusl aidin
priklausom ybės</w>
im ok
hipo tenzija</w>
gryn oji</w>
Per dozavimas</w>
I n</w>
vakar e</w>
supra tau</w>
pastab ose</w>
pag arba</w>
objek tus</w>
gran uli
dar ome</w>
Pasta r
H ai
švirkšči ama</w>
vykdy mu</w>
vykdy dama</w>
tvir tą</w>
technolog inės</w>
skaity mo</w>
plokštu mos</w>
pi do
pareig oms</w>
oblig acijos</w>
dre b
ali am</w>
N A</w>
3 66</w>
už mokestis</w>
mi ok
kambar ys</w>
S and
G li
---------------- ----------------
įstaig oje</w>
sėkming as</w>
suteiki antis</w>
s inės</w>
kie tos</w>
dar omos</w>
Serb ija</w>
N .
Farmako dinaminės</w>
vadovau tis</w>
supak uoti</w>
su žal
su ra
pjo vimo</w>
opat ija</w>
me tro</w>
ko dais</w>
kanap ių</w>
dži augi
Me to
Corpor ation</w>
Antra sis</w>
ta š
iš duota</w>
Nes varbu</w>
vykd ančių</w>
vi dų</w>
ok so</w>
medži oj
ma tas</w>
lim i
di spon
d engti</w>
atsi spin
V iz
Ne pažeis
7 3
tvari os</w>
ton ai</w>
tiksl umo</w>
ta škai</w>
pato g
Par duo
O PS</w>
2 15</w>
uo t</w>
stipr umo</w>
išva domis</w>
VE TERIN
Shar p</w>
GAM IN
7 6
.. ...</w>
š uk
valiu tą</w>
re is
dirb antys</w>
ci tų</w>
Ne o
K rov
ran end
prival omų</w>
nuošir džiai</w>
mėlyn ojo</w>
milij ono</w>
le y</w>
keram ikos</w>
gryn ojo</w>
c re
aukšči ausio</w>
atstov us</w>
atsitik imų</w>
Vel nias</w>
Pri dėti</w>
Bendr ąją</w>
200 00</w>
ų si</w>
ã o</w>
už m
nuomon ių</w>
n os
bi uleten
Nauj os</w>
G el
Fak sas</w>
E O
ėj ime</w>
papunk čiuose</w>
li ą</w>
jun gia</w>
ban anų</w>
R T</w>
Band omasis</w>
y e</w>
polie tileno</w>
pa tikrą</w>
kvie či
in vali
dien ai</w>
Pa žin
Ku kurūz
pardav ė</w>
nusikal timus</w>
ari t
sūn aus</w>
se sijos</w>
rink imus</w>
kl es</w>
Island ija</w>
Ha q
u tic
table tes</w>
su sim
nenurody tą</w>
Man e</w>
įvai rovė</w>
viršu tinė</w>
prie inamos</w>
pasireišk imo</w>
min imi</w>
korek cijos</w>
impor tu</w>
VI I
Kiek viename</w>
v u</w>
tiksl umas</w>
teiki amą</w>
suver eni
su tarimu</w>
paukš čiams</w>
asmen iu</w>
žai dėjų</w>
turinči oms</w>
tadien io</w>
ste ar
riboj amas</w>
prade d
lei stos</w>
av arijų</w>
apgyvend inimo</w>
US D</w>
TEK STO</w>
GEN ERAL
35 3</w>
įtvirtin ti</w>
vienti su
pakei tus</w>
pa ra</w>
mat o</w>
il as</w>
baus mės</w>
T ame</w>
ženkl inimas</w>
ū gš
priskiri amus</w>
plau kai</w>
liku čius</w>
grąžinam ąją</w>
g and
da n</w>
be pro
Per kel
švirkš to</w>
veikli ąją</w>
sva jon
sudar oma</w>
sinte zės</w>
s uo
nepageidauj amo</w>
Pagalb inių</w>
va kari
už ker
tip inės</w>
taiky tos</w>
pagrind iniams</w>
nu tol
ligon inės</w>
juo da
išsam ius</w>
gere snio</w>
Pri si
Gy dant</w>
reag uoja</w>
pasaky siu</w>
maršru tais</w>
atlyg inimų</w>
at verti</w>
Po wer
Kvo tos</w>
2 22</w>
uoj amosios</w>
tikr umo</w>
sumon tuoti</w>
ry te</w>
pirm inių</w>
neigi amų</w>
ne įtrauktos</w>
mat emat
impor tuotų</w>
Atitik ties</w>
g umb
der inio</w>
ap eti
VETERIN A
C V
spaus dinti</w>
sak ei</w>
rem damiesi</w>
pirminink auja</w>
bė gyje</w>
b jau
atstov auti</w>
Šir dies</w>
sav ininkams</w>
poky čio</w>
l aus
buv usios</w>
3 13</w>
13 01</w>
vald oma</w>
steb ėjimas</w>
kar tonas</w>
darbuotoj ais</w>
ch e
ankste snį</w>
a kl
E K</w>
verpal ų</w>
tuv ės</w>
praneš ėjui</w>
o t
ne kelia</w>
am lo
T iek
L iz
15 4</w>
įsivaiz d
visi škas</w>
siau b
praneš ėja</w>
pasi reiški
dvi gubo</w>
ak tyvių</w>
Be n</w>
3 65</w>
sumažin tos</w>
grup ėmis</w>
frak cijų</w>
Vie ta</w>
standar tinis</w>
pirk o</w>
pasieki amas</w>
ne suteikia</w>
apibrėži amas</w>
S tok
Po pie
BEND RA
20 21</w>
Į reng
z z
personal s</w>
mokym us</w>
Micro soft</w>
I G
tarp ininkas</w>
serg ančius</w>
problem omis</w>
nat ūra</w>
minim alių</w>
integra cija</w>
atsi prašau</w>
atlyg inimas</w>
at pažinti</w>
Skait men
MA KO
tū roje</w>
pažymė tos</w>
nepriklausom ą</w>
kiš en
atnauj inamas</w>
Ar k
30 7</w>
teik tų</w>
tarptau tinėse</w>
stiprin ant</w>
sklai dos</w>
kieki ams</w>
invest uotojai</w>
fi g
ver čia</w>
sk land
profi liai</w>
o j</w>
ne apsi
nauj ausius</w>
eta pai</w>
apibrėž imo</w>
Gai rių</w>
sanita rijos</w>
sak oma</w>
[...]
