#version: 0.2
r e
i n
a r
d e</w>
s t
a t
r i
e n
u n
@ -
@- @</w>
e r
u l</w>
l e</w>
a c
i c
a n
s ă</w>
ar e</w>
o r
t e</w>
o n
î n</w>
t r
l u
t i
d e
u r
d i
t e
l o
a t</w>
a l
î n
l a</w>
c e
a i</w>
m e
a r</w>
p r
i t
i e</w>
c ă</w>
c u
at e</w>
n u</w>
e c
ş i</w>
e st
a m
t o
s i
s p
c u</w>
ţ i</w>
u n</w>
in e</w>
o m
re a</w>
i i</w>
p o
â n
en tr
a u</w>
entr u</w>
p e</w>
lu i</w>
lo r</w>
u l
a m</w>
c e</w>
l i
e a</w>
N u</w>
a st
p entru</w>
l e
s e</w>
c on
o t
t re
ș i</w>
. .
e i</w>
c are</w>
d u
pr o
m ai</w>
est e</w>
a p
.. .</w>
di n</w>
f o
v a</w>
b i
s t</w>
i m
p ri
v e
s e
b u
p u
a l</w>
q u
i a</w>
qu ot
quot ;</w>
& quot;</w>
s u
a z
ă r
d o
p re
c a</w>
v o
c i
p l
v i
at ă</w>
c o
n e
a rea</w>
u lui</w>
c h
en t
un t</w>
s a</w>
ț i
t i</w>
a le</w>
m i
ţ i
ast a</w>
ic i</w>
f e
e x
ac e
z i
fo st</w>
p e
o l
m i</w>
n o
r u
f i
f i</w>
t ă</w>
s unt</w>
r o
c a
r ă
tre bu
m ă</w>
s o
c re
c om
m in
p i
t a</w>
ac ă</w>
ân d</w>
f ic
t er
r a
ur i</w>
m o
ri i</w>
e le</w>
n i
t ă
s c</w>
u t</w>
p ar
s au</w>
t ul</w>
f ac
p er
C e</w>
f or
c ă
m ul
r e</w>
a j
er e</w>
i le</w>
ri le</w>
a s
un e</w>
z i</w>
D a</w>
az ă</w>
a d
u m
2 0
cu m</w>
ş ti</w>
în t
s i</w>
i t</w>
â t</w>
t u
a g
A m</w>
o ri
a n</w>
a bi
a ţ
en t</w>
o r</w>
a v
n e</w>
i st
a ş
b ine</w>
a u
t ic
u m</w>
ş ti
a ici</w>
i n</w>
c i</w>
m b
de s
in e
ț i</w>
i e
at a</w>
re g
a ţi</w>
ti m
v in
v re
l ic
te a</w>
e u</w>
r u</w>
al ă</w>
Î n</w>
st a</w>
e l</w>
tr e</w>
ch i
sp ec
v ă</w>
trebu ie</w>
a b
d in
m ă
v en
D e</w>
re c
d ar</w>
h i
g e
p or
g u
cu t</w>
m en
i z
for m
Ş i</w>
i lor</w>
d ic
un ă</w>
sp u
n u
ar ă</w>
me a</w>
a i
v ă
s c
g ă
ri lor</w>
d acă</w>
lu c
m a</w>
e l
ent ul</w>
g ur
i c</w>
ic i
c er
ce va</w>
D ar</w>
a ț
t ri
R e
at ea</w>
t en
ş te</w>
pr e</w>
c ând</w>
fac e</w>
t ate</w>
f ă
or i</w>
c ât</w>
C om
po t</w>
a po
d a</w>
z e</w>
at e
b e
ţ ii</w>
l it
ti v
o b
p ă</w>
te le</w>
a f
ur o
t ine</w>
st e</w>
m ine</w>
at i
ic e</w>
P o
po ate</w>
g e</w>
am en
m ân
ar te</w>
pre z
ac est
ic ă</w>
f ie</w>
pr in
Î n
v or
er a</w>
p un
t ur
înt â
do ar</w>
d ată</w>
in te
s ă
& #
&# 9
a să</w>
to r</w>
mul t</w>
ac um</w>
A i</w>
me le</w>
a c</w>
m e</w>
c ur
s cu
spu s</w>
at ul</w>
a re
an i</w>
or ul</w>
it ate</w>
ri e</w>
p ă
fe l</w>
aş a</w>
20 1
ol ul</w>
te m</w>
e le
B ine</w>
t in
ți on
m er
pri n</w>
it ă</w>
D o
trebu i</w>
S unt</w>
20 0
t u</w>
T re
C on
A ce
t at</w>
m pl
des pre</w>
pri vin
j o
u i</w>
i l
în tre
ace st</w>
a ve
v er
me u</w>
m are</w>
f er
Com i
ț ii</w>
pe ri
d re
D acă</w>
l a
vo i</w>
fă cut</w>
î m
it u
ăr i</w>
p ul</w>
pro du
I n
tr an
ţ ă</w>
u z
privin d</w>
n im
un a</w>
pu tea</w>
g en
gu r</w>
li z
in ter
to ate</w>
f in
to ri
s er
â r
D e
d ă</w>
h e
C re
l ă
un de</w>
p ăr
a de
fo arte</w>
s in
j u
pro b
fe ri
c az
at ele</w>
un o
u ti
p are</w>
me mb
b ă
d er
si gur
ţ ie</w>
tim p</w>
Tre bu
le g
un ci</w>
st e
un i</w>
aj u
T e</w>
E uro
al iz
m ar
ap lic
p en
d r
re n
no i</w>
d om
v a
du pă</w>
c at</w>
ar a</w>
A sta</w>
it ă
a in
reg ul
m ul</w>
f ec
ol o</w>
am entul</w>
E ste</w>
tic olul</w>
to t</w>
e şti</w>
me sc</w>
c â
r an
o are</w>
ne vo
ac olo</w>
fic i
z ut</w>
c al
d at</w>
V re
Trebu ie</w>
ân ă</w>
P entru</w>
s ec
d ere</w>
re z
in ă</w>
g re
spec i
u ă</w>
E u</w>
c lu
L a</w>
d en
t are</w>
în ce
Ş ti
înt r</w>
dre p
e ază</w>
st ru
o n</w>
s ul</w>
me di
c ar
S ă</w>
t an
cu l
b a</w>
su pr
fac i</w>
di sp
nevo ie</w>
ve de
ac e</w>
0 0</w>
ri j
f ac</w>
uti liz
a se
ă rii</w>
l ă</w>
an e</w>
ast ă</w>
ce l</w>
vo r</w>
in a</w>
c l
f un
A r
g ra
Comi si
i s
c ap
ce ea</w>
r ă</w>
n a
al e
ţi on
ch e
g r
s un
ţ ia</w>
lo c
si m
C um</w>
T o
D ec
am a</w>
sp un
i te</w>
luc ru</w>
ţ u
i u
par te</w>
n ici
p ână</w>
c an
U n
ț ă</w>
si t</w>
n ici</w>
ăr ă</w>
con tr
ră u</w>
d ul</w>
as că</w>
U ni
in tr
m on
t ului</w>
o amen
din tre</w>
e r</w>
g ă</w>
st i
S t
apo s
apos ;</w>
& apos;</w>
f r
Re g
pri e
chi ar</w>
U E</w>
m a
nim ic</w>
cre d</w>
u le</w>
ser v
m an
M ul
o dată</w>
n ă</w>
b o
şti u</w>
ț ie</w>
un ei</w>
so ci
Î mi</w>
r a</w>
un ui</w>
ă m</w>
ch im
sp une</w>
o s</w>
s ur
ţ a</w>
de z
g an
p le
er i</w>
te ri
ven it</w>
apo i</w>
M ă</w>
ine va</w>
m u
l ul</w>
tă u</w>
a ți
sp un</w>
ac or
ș te</w>
ex ist
e ri
in i
in form
ain te</w>
abi l</w>
lo c</w>
E i</w>
u a</w>
ț ia</w>
p ac
ţ ele
f ap
it atea</w>
un ea</w>
c ri
de cât</w>
to are</w>
a sa</w>
caz ul</w>
pu b
st an
r i</w>
P ro
3 ;</w>
&#9 3;</w>
a du
1 ;</w>
&#9 1;</w>
p a</w>
ist r
ro g</w>
aj un
ic a</w>
prez ent
am ent</w>
at i</w>
O h</w>
un ii</w>
pl ec
a pro
vre i</w>
n um
întâ mpl
p an
st abi
aţ ă</w>
lo g
ce s
si bi
ar i
pl ă
co l
n or
o per
bi ec
a se</w>
tiv e</w>
p une</w>
prob le
t orul</w>
C h
ti v</w>
s en
T u</w>
ce a</w>
r ap
av ut</w>
av ea</w>
C u</w>
u te</w>
p rea</w>
o l</w>
ast ră</w>
al te</w>
im por
a ş</w>
at unci</w>
c uno
se m
ace astă</w>
at ât</w>
g i</w>
est i
t atea</w>
a s</w>
or a</w>
ec are</w>
A cum</w>
t area</w>
m ent
mul te</w>
s co
b un</w>
A l
s chim
g ân
vre au</w>
aţ a</w>
si gur</w>
1 0</w>
ce p
c ineva</w>
ce le</w>
si li
l an
m un
st r
re spec
memb re</w>
vă zut</w>
Cre d</w>
di rec
ne ces
V o
ţi n</w>
vi z
g rij
an ă</w>
f ără</w>
lu lui</w>
au tori
Dec i</w>
i ul</w>
1 9
in clu
A ş
C E</w>
ur mă
E l</w>
fo lo
c in
ţu mesc</w>
U n</w>
v e</w>
e lor</w>
az a</w>
su b
pro ce
C o
Reg ul
co pi
S e</w>
st ri
A n
i ar</w>
mi te</w>
ase men
ş e
si ste
n r</w>
că tre</w>
e fec
st u
P ar
asemen ea</w>
E şti</w>
me i</w>
st itu
D i
pub lic
în ţele
un ul</w>
f ace
z ă</w>
ni ve
a ţi
ade v
în cer
g o
do uă</w>
it a</w>
c or
pun c
Po ate</w>
al i
g i
c ine</w>
fun c
ur a</w>
a ți</w>
en te</w>
am ent
per so
o c
ter min
u ci
ar ticolul</w>
P ri
al ine
mi t</w>
în ainte</w>
ț a</w>
te lor</w>
fin an
pi er
ai de</w>
M ar
n a</w>
con form
Un de</w>
a vo
Con sili
me dic
f u
î mi</w>
vo m</w>
B ună</w>
ne z
v ei</w>
di fic
in v
ș ti
tran s
fi ecare</w>
de st
D um
de ci
po tri
an u
ac a</w>
ori ce</w>
sc ri
en i</w>
v rea</w>
î l</w>
con si
an t</w>
t uri</w>
p li
H ei</w>
ve dere</w>
mo d</w>
ec hi
to t
vor be
z on
Dum nez
m at
a vi
f ur
h o
tr at
ad min
ast fel</w>
con tin
no u</w>
b an
N o
po sibi
ca uz
cu m
luc r
ge m</w>
a sigur
M ai</w>
al a</w>
b ună</w>
ave m</w>
inte re
S u
vo l
spu i</w>
t at
in d</w>
lu at</w>
am nă</w>
d ata</w>
A t
î i</w>
m or
pro te
t r</w>
ac este</w>
am i
j a</w>
în tre</w>
c ăr
n ai
prie ten
ar i</w>
tim pul</w>
în că</w>
ti fic
or gan
z a</w>
aț ii</w>
te p
pun e
supr a</w>
aline atul</w>
şti i</w>
Regul amentul</w>
Euro pe
a supra</w>
u ş
C ine</w>
f ru
S i</w>
po ţi</w>
pu ţin</w>
v ân
o p
mb rie</w>
aţ ii</w>
impor tan
E x
do i</w>
regul ă</w>
d u</w>
M i</w>
al ul</w>
are le</w>
t a
H aide</w>
te ţi</w>
pl ace</w>
p este</w>
conform itate</w>
g a</w>
J o
adev ăr
su b</w>
Vre au</w>
ca dr
pi e
D u
tur ă</w>
zi t</w>
con di
P e</w>
ec on
a do
Comisi a</w>
N e</w>
s ol
gen er
te le
p at
est i</w>
en er
t or
rap or
b ă</w>
Aş a</w>
nu le</w>
1 0
Mul ţumesc</w>
aţ ie</w>
st at</w>
pri vi
b er
pen e</w>
Ar ticolul</w>
ri t</w>
c ere</w>
ac t</w>
peri o
o m</w>
b un
C hi
at or</w>
st ru</w>
jo s</w>
e li
consi der
lo cu
ac tiv
D om
ti e</w>
C ând</w>
l in
m om
Do ar</w>
o zi
C E
m â
at ori
2 0</w>
s f
oamen i</w>
ti i</w>
l i</w>
pu tem</w>
A r</w>
o cu
c am
speci al</w>
L u
cadr ul</w>
I I</w>
ă sta</w>
a me
e ze</w>
pre cum</w>
ament ului</w>
tre i</w>
sin gur
po lit
o biec
te ază</w>
d ra
a ș
am ă</w>
s pre</w>
ți le</w>
mo dific
an d
po li
po zi
cre zi</w>
n ă
com un
s on
S un
to tul</w>
R E
pac i
ati v</w>
Comisi ei</w>
pl ic
ce i</w>
econ om
or d
li g
par tea</w>
p tă
ap te</w>
des chi
e t
di t</w>
re sp
e uro
aţ ia</w>
ad ă</w>
mpl u</w>
vă d</w>
sun tem</w>
i m</w>
va lo
f ii</w>
s ul
it or</w>
con du
zi le</w>
A ve
i de
P u
g ar
va lu
N e
pri ve
an te</w>
ace asta</w>
ent ă</w>
ț e</w>
l un
am in
si v</w>
întâmpl at</w>
d ru
disp ozi
v ine</w>
S i
nici odată</w>
aplic are</w>
Uni unii</w>
al t</w>
Şti i</w>
al t
ți ile</w>
p ii</w>
sigur an
î ţi</w>
exist ă</w>
i ec
abi le</w>
al tă</w>
Vre i</w>
ţ in
Chi ar</w>
ex e
nai ba</w>
pu s</w>
ș ti</w>
su s</w>
ţ e</w>
dez vol
s al
ri dic
At unci</w>
s cut</w>
lu mea</w>
a pe</w>
dom en
admin istr
acest ea</w>
întâ l
ur ă</w>
prin ci
Şti u</w>
privi re</w>
tran sp
u rile</w>
P re
face m</w>
ve zi</w>
un or</w>
te h
am b
s itu
loc ul</w>
ate lor</w>
. .</w>
în chi
o fer
M e
vi n</w>
stabi li
i er
pro gr
se amnă</w>
o v
on i
tr ă
s at</w>
ar ul</w>
pu ter
fru mo
nu mai</w>
an g
c li
ti p</w>
între b
Ș i</w>
o rii</w>
prez in
Consili ului</w>
Do am
mer gem</w>
c entr
F i
ac asă</w>
ru t</w>
pl an
f on
in i</w>
g ro
au zit</w>
m p
finan ci
n ul</w>
E N
re du
r at
tu rile</w>
se le</w>
ul tim
te r</w>
e fici
st at
st i</w>
U ite</w>
L e
pr om
so n</w>
ț in
a ia</w>
g h
re ază</w>
ad a</w>
ă rile</w>
aț ie</w>
m ate
te va</w>
t ată</w>
vor bi
na țion
ce re
fe me
gă sit</w>
în de
M i
pu t</w>
or e</w>
it at</w>
s că
ș e
com ple
t ut</w>
l ec
ptă mân
st ă</w>
se ri
an ex
ți lor</w>
in g</w>
R o
v rut</w>
Dumnez eu</w>
to ată</w>
St ai</w>
de ja</w>
P ă
stu di
aț ia</w>
fap t</w>
t ori</w>
a si
vă z
aț ă</w>
a j</w>
îm pre
î mb
com pe
ţ ine</w>
i ei</w>
V e
ț ei</w>
Vo i</w>
nu mele</w>
m ama</w>
stru c
A R
V ă</w>
tr u
F o
e valu
m at</w>
ar tic
b en
per son
C e
t âr
în seamnă</w>
paci en
1 2</w>
C ar
ic ii</w>
să ptămân
mer ge</w>
fi l
C O
t al
E a</w>
abi lit
pro iec
ti vă</w>
ve ri
no stru</w>
M o
ăr ul</w>
vede a</w>
câ teva</w>
ti t</w>
în apoi</w>
s ie</w>
ast re</w>
an a</w>
st atele</w>
in stitu
3 0</w>
mi li
I N
tre cut</w>
ce rea</w>
Di rec
p lu
tre ab
fi u</w>
ră spun
fe ren
dom nule</w>
ado p
p ul
s uri</w>
to ar
H ai</w>
O ri
it i</w>
pe r</w>
S e
t ale</w>
f ri
me lor</w>
z ă
g ru
so lu
zi s</w>
pri ma</w>
re le</w>
aş tep
schim b
el ec
di feri
d v
ca z</w>
d ate</w>
ati ve</w>
N im
i re</w>
er o
Europe an</w>
Ace st</w>
m aş
5 0</w>
a h
ni z
re pe
N ici</w>
c uri</w>
ti c</w>
S cu
Euro pene</w>
ob lig
de o
S o
F ran
mi si
de a
zi u</w>
ast ea</w>
to ţi</w>
ni şte</w>
du c</w>
o ară</w>
ar ă
zi ua</w>
S pune</w>
x im
memb ru</w>
no astră</w>
cu ri
contin u
pre văz
serv ici
de rea</w>
abi lă</w>
s ale</w>
er ci
tr a
A u
mun că</w>
dic ă</w>
D in</w>
du m
it ul</w>
par tic
as cul
1 5</w>
efec tu
te rea</w>
rez ul
fi r
ni c</w>
ap ar
Doam ne</w>
organ iz
pro pri
înt or
a lu
ti va</w>
t aţi</w>
f acă</w>
împre ună</w>
b ani</w>
ţi lor</w>
ami li
vi t</w>
dea una</w>
ce r</w>
p at</w>
C a</w>
iu be
apro ape</w>
oamen ii</w>
le gă
di min
me ază</w>
ți ei</w>
ajun s</w>
pu tut</w>
g at</w>
C are</w>
p lo
v ec
intere s
l uni</w>
ş it</w>
un ile</w>
o log
Î ţi</w>
t h
ti ve
men țion
tot deauna</w>
te i</w>
un i
A u</w>
re aliz
an im
gân de
M er
ac ce
acor d</w>
m ului</w>
bi l</w>
i au</w>
ă l</w>
ate g
nim eni</w>
de cl
deci z
d ur
potri va</w>
s ân
d au</w>
P e
af ară</w>
medi at</w>
regul ament</w>
g he
tur a</w>
ţi le</w>
an ul</w>
transp or
ap tă</w>
V in
e v
jo c</w>
ac o
ap ă</w>
co pii</w>
bi le</w>
întâmpl ă</w>
at in
ci u
ven i</w>
inclu siv</w>
ră z
c ân
pri mul</w>
ţi ei</w>
fap tul</w>
ar d</w>
0 00</w>
lucr uri</w>
autori tă
adevăr at</w>
i rea</w>
vi zi
li m
nive l</w>
pre gă
dest ul</w>
1 .
sin gur</w>
1 1</w>
înce put</w>
b une</w>
dum ne
ang aj
întâl ni
lu p
ur mare</w>
d ent</w>
i u</w>
v âr
du t</w>
fur niz
it oare</w>
Po t</w>
vor b
su lui</w>
e z</w>
d ro
Par l
l ie</w>
posibi l</w>
li p
fic e</w>
vede m</w>
între prin
B o
vi aţa</w>
a y</w>
dimin e
ţi ile</w>
progr am
i d</w>
sp rij
mi s</w>
acest a</w>
prezin tă</w>
dr ac
T ot
st ul</w>
ți n</w>
v al
târ ziu</w>
su fici
mă sur
V a</w>
f amili
m ag
scu l
A T
c mai</w>
Du pă</w>
sem n
ab or
av ând</w>
to n</w>
soci e
b aza</w>
m g</w>
ț ele</w>
dumne avo
d or
l y</w>
c am</w>
le le</w>
b ur
R I
tr ag
rec uno
să u</w>
to rii</w>
k e</w>
e n</w>
b ăr
d uri</w>
o ch
îm potriva</w>
cauz a</w>
tă m</w>
2 .
p un</w>
s ar
c ar</w>
punc tul</w>
se ama</w>
reg i
ţ ei</w>
sol ic
ti m</w>
o ane</w>
te x
se lor</w>
pune rea</w>
am inte
d aca</w>
în reg
co rec
du s</w>
pro fe
le s</w>
artic o
Ave m</w>
I a</w>
prote c
n at
h a
D ă</w>
no astre</w>
au to
me ri
ru rile</w>
Ace asta</w>
sf âr
i mediat</w>
f l
i s</w>
re com
amen te</w>
st ră
u tă</w>
pe tre
ment are</w>
Sun tem</w>
lu a</w>
D E</w>
s ăr
B i
af l
grij ă</w>
B u
st ea</w>
j ur
de parte</w>
ar ie</w>
ț ine</w>
vorbe sc</w>
i den
inv esti
ace ea</w>
drep tate</w>
az i</w>
sp i
ați ile</w>
aju ta</w>
U L</w>
g ră
vre me</w>
t ac
re u</w>
V i
termin at</w>
princi p
partic i
activ ită
tu rilor</w>
Ţ i</w>
ca sa</w>
i ţi</w>
to arele</w>
A N
ie sc</w>
resp on
domen iul</w>
N u
in dic
anex a</w>
as c
ent a</w>
tri bu
I ar</w>
S T
No i</w>
du ce</w>
men te</w>
D u</w>
tr i</w>
L i
cre zut</w>
im e</w>
lu ri</w>
al im
în toar
19 9
ă r</w>
mar i</w>
in di
P r
re feri
plec at</w>
ur mă</w>
200 9</w>
se ara</w>
băr b
prive ște</w>
v at</w>
autori z
importan t</w>
E ra</w>
se sc</w>
prevăz ute</w>
su pli
di scu
su rile</w>
H o
aț a</w>
în cre
drep t</w>
g in
r y</w>
ale s</w>
z e
A ici</w>
mom ent</w>
E U
an ti
bă ie
te me
ţ ele</w>
veri fic
con su
are ce</w>
ră mân
dumneavo astră</w>
M a
produ se</w>
vor ba</w>
înţele s</w>
ar m
pun ere</w>
lu min
min ute</w>
d le</w>
Si gur</w>
ci t</w>
gu ver
f aţă</w>
an d</w>
pier dut</w>
p t</w>
ti n</w>
sc ur
b in
an aliz
a soci
tur or</w>
se curi
d ră
luc rurile</w>
sti u</w>
b r
m ic
repe de</w>
2 5</w>
Pri n</w>
de a</w>
c ul</w>
m ie</w>
fi ind</w>
u rilor</w>
ţ e
şe din
1 4</w>
si on
in stru
pi c</w>
s an
proble me</w>
im ag
m an</w>
gar an
a lo
tu turor</w>
m ent</w>
şti e</w>
exe mplu</w>
g ie</w>
com erci
decl ar
Ace sta</w>
ver s
er ul</w>
T e
h ic
de ţi</w>
nive lul</w>
ri a</w>
sim t</w>
fer in
l ini
al i</w>
A L
ar t</w>
b az
p ici
J O</w>
c ale</w>
gre u</w>
me n</w>
F e
st en
ex cep
on ul</w>
ă tă
af ec
ţ ul</w>
ace la
po v
c en
L o
s ca
aplic ă</w>
d ar
te aptă</w>
tic e</w>
cap it
ter e</w>
1 3</w>
ac ți
in du
că u
respon s
produ c
euro pe
lu me</w>
con tribu
în vă
ce lor</w>
num ărul</w>
A scul
f ata</w>
pu te
lit atea</w>
201 3</w>
N or
st ai</w>
si a</w>
Comi te
vi e
tr u</w>
pri mit</w>
cu ren
înde pl
no apte</w>
jo curi</w>
pri m
cer in
con for
ur ma</w>
vi aţă</w>
mă suri</w>
t o</w>
so li
u s</w>
prin s</w>
an um
b ar
tr o
ţi t</w>
plu s</w>
ac tu
Î l</w>
trebu it</w>
do re
g ata</w>
in g
disp oni
intr o
Vin o</w>
na ţion
S au</w>
ac cep
co re
iube sc</w>
T i
spun e
leg is
i at</w>
d at
cer ce
să nă
in im
mi c</w>
.. ..
it ori
201 1</w>
vi g
t ab
pr ac
tat ăl</w>
p on
mu rit</w>
direc t</w>
car ac
er ă</w>
Direc tiva</w>
c ii</w>
î şi</w>
f lu
tic ă</w>
1 6</w>
st ra
că l
aj ul</w>
compe ten
ti a</w>
dest in
T h
copi l</w>
am p
uci s</w>
mate ri
un ită
m as
de fin
1 8</w>
U N
treab a</w>
min un
S E
ob serv
200 8</w>
A d
gân dit</w>
ac i</w>
ch est
aju tor</w>
fac ut</w>
l ân
cu lo
du rile</w>
v ii</w>
te c
s or
L asă</w>
ap ăr
func țion
de ce
m ică</w>
do ua</w>
s .</w>
ve hic
rez er
re zi
er au</w>
at orul</w>
adu s</w>
ban ii</w>
ar tă</w>
b ază</w>
di stru
ti pul</w>
dru mul</w>
v ic
a di
i l</w>
3 .
n y</w>
z are</w>
d ai</w>
ar un
ide e</w>
om ule</w>
re prezent
g ere</w>
singur ă</w>
m aj
în cât</w>
neces ar</w>
R O
drac u</w>
J u
an j
per mite</w>
por t
A re</w>
Dumnez e
iden tific
ta x
g esti
pat ru</w>
o c</w>
a fac
ultim a</w>
a y
vo lu
201 0</w>
par ten
M in
si te</w>
cauz ă</w>
le v
por t</w>
su s
tiv ul</w>
g lo
o bi
er am</w>
legă tură</w>
Cre zi</w>
al ele</w>
ți ilor</w>
proble mă</w>
at en
câ şti
echi p
ne g
so are</w>
reg le
ati vă</w>
A po
S a</w>
ac ţi
un ele</w>
feme ie</w>
tu mesc</w>
do c
inform ații</w>
înreg istr
ţ at</w>
vin ă</w>
bi ro
cap ac
in st
st ic
200 7</w>
R u
c area</w>
in ten
ju de
r au</w>
m ăr
sec re
I n</w>
S h
mă car</w>
frumo s</w>
națion ale</w>
re l
Jo h
at ului</w>
on e
fi in
du lui</w>
acest ora</w>
proble ma</w>
tele fo
S E</w>
E R
mili oane</w>
al itate</w>
A c
j ec
1 00</w>
j um
C A
ap tea</w>
com pan
neces are</w>
Pă i</w>
ca u
ex act</w>
me reu</w>
4 .
P rez
l ar
pu țin</w>
fi c</w>
v ac
E sti</w>
păr ă
mi j
n ic
si mplu</w>
st ii</w>
financi are</w>
Pro b
S I
sub stan
contr ac
av an
am e</w>
de m</w>
2 4</w>
cam era</w>
or ului</w>
ajun ge</w>
ă la</w>
p it
g ând</w>
gener al</w>
cin ci</w>
si une</w>
ci r
ad re
cre di
acest or</w>
u ia</w>
te ze</w>
d an
d y</w>
me to
tru cât</w>
nor m
M ic
for mă</w>
V or
ple c</w>
e t</w>
t au</w>
cu tă</w>
întâ mp
b a
R om
perso ane</w>
en or
im plic
n i</w>
ț ele
prez entul</w>
do l
v i</w>
g uri</w>
or ă</w>
Ve zi</w>
1 8
Europe ană</w>
ex peri
un ătă
am il
D an
co oper
no uă</w>
re i</w>
h i</w>
b at
f uz
H ar
u it</w>
ex plo
201 2</w>
en e</w>
C ur
p i</w>
core spun
e fic
G e
g ul</w>
ac k</w>
mi ş
teme iul</w>
dv s.</w>
1 7</w>
vre odată</w>
ul ie</w>
n er
serv icii</w>
C ă
du ci</w>
ave ţi</w>
un e
il ea</w>
l ine</w>
A dică</w>
J e
tor ului</w>
A ş</w>
a d</w>
încer cat</w>
b or
c at
adu ce</w>
iu b
prob abil</w>
t ali
D aca</w>
R ă
ti t
grij i</w>
C I
par t
pu se</w>
Apo i</w>
ch el
can d</w>
nici o</w>
B ă
Parl amentului</w>
ca p</w>
f ul</w>
d are</w>
ca să</w>
A D
Po ţi</w>
p uri</w>
T rat
201 4</w>
li c</w>
c la
vorbi t</w>
Vo m</w>
un ilor</w>
O r
no log
e a
deo arece</w>
sun teţi</w>
te m
re lev
aș a</w>
tă rii</w>
cur sul</w>
bu cu
mom entul</w>
li ber
col o</w>
ce l
me s
lân gă</w>
S er
f le
aţi ile</w>
vede rea</w>
ho te
du re
scri s</w>
R i
f rec
ter men</w>
leg ate</w>
C ât</w>
U r
o asă</w>
T I
o ase</w>
ă zi</w>
mul ţumesc</w>
h ot
le i</w>
de am</w>
siguran ţă</w>
b ru
ce m</w>
gro z
com par
tive le</w>
ag en
îmb unătă
de r</w>
Po f
mâ ine</w>
zon ă</w>
referi toare</w>
cu vân
vre o</w>
perso an
cre de</w>
Nim ic</w>
ag a</w>
m y</w>
m ii</w>
anu mite</w>
că lă
r ac
n ec
at orii</w>
ti u</w>
in jec
o f
comun ic
n ice</w>
ur mează</w>
ită ții</w>
indu stri
4 0</w>
st are</w>
utiliz area</w>
Fo arte</w>
re ac
șe din
e vi
pu lui</w>
ca d
siste m</w>
it are</w>
O biec
M on
încre dere</w>
2 1</w>
loc uri</w>
produ că
acest ui</w>
ă rilor</w>
ade c
sc en
acest ei</w>
ă tate</w>
P er
t ata</w>
mor t</w>
contr ol</w>
n ului</w>
supr ave
te n</w>
ist ă</w>
drep tul</w>
ați ilor</w>
În că</w>
st atelor</w>
mer g</w>
EN T
perio ada</w>
din tr</w>
şti a</w>
B ar
diferi te</w>
ân du</w>
iu bi
mi l
In ter
p ur
To ate</w>
C el</w>
ac ea</w>
o re
d atori
in ile</w>
ar ii</w>
m ici</w>
b l
no aptea</w>
in t
si unea</w>
lă sat</w>
teri or</w>
L I
To t</w>
punc t</w>
în locu
af ara</w>
con stitu
t on
f aţa</w>
ec e</w>
n av
S eri
ord on
cre ş
v it
u itat</w>
aco peri
i r
per fec
în trucât</w>
men tele</w>
re prezintă</w>
public e</w>
om or
eli min
ie r</w>
ap ta</w>
răz bo
con sul
CE E</w>
m m</w>
con centr
gă si</w>
că să
s k
s s</w>
săptămân i</w>
200 6</w>
lu cre
ai bă</w>
fe r</w>
ați ei</w>
b ol
x i
to rilor</w>
socie tă
m it
re ci
în che
le y</w>
vă r</w>
g er
con t
Dumneze ule</w>
prote j
di o
urmă toarele</w>
M ă
telefo n</w>
dece mbrie</w>
alim ent
tri mis</w>
ni fic
w e
en ţă</w>
ab ri
vin a</w>
b ri
pro vo
min te</w>
r om
f amil
f ă</w>
asc un
perso ană</w>
S im
H e
fi ul</w>
Pof tim</w>
l at
în să</w>
Euro pa</w>
ace l</w>
cal itate</w>
am ân
st ate</w>
mo de
ce tă
rez ol
2 2</w>
g a
ben efici
teh nolog
organ is
1 9</w>
vorbi m</w>
înce pe</w>
ar ată</w>
N ici
ge rea</w>
Ch ar
M ama</w>
În ce
mân t</w>
v adă</w>
ț elor</w>
d ă
mențion ate</w>
M E
pu ş
corespun ză
i am</w>
continu are</w>
in de
z ice</w>
e s</w>
n ică</w>
dră gu
st re
pacien ţii</w>
W il
0 0
ade văr</w>
sem nific
prezent a</w>
E l
- -</w>
i fic
în totdeauna</w>
bucu r</w>
pl as
ve ţi</w>
nici un</w>
cl in
de mon
T ri
gesti on
sân ge</w>
d ura</w>
ma xim
Seri os</w>
a k
admin ist
cre ș
f ra
deciz ie</w>
B a</w>
ciu dat</w>
ag ri
to gra
de termin
S in
v ate</w>
mo tiv</w>
at ri
pu i</w>
e rea</w>
vig oare</w>
ni t</w>
ini ți
famili a</w>
u la</w>
o feri
och ii</w>
l as
o fici
luc ră
că m</w>
pe re
a h</w>
el ul</w>
o pri
P E
Î i</w>
inte ri
U L
Dec iz
rămân e</w>
ap a</w>
te rii</w>
o pre
dol ari</w>
d ul
S alu
stri c
artico lului</w>
u ite</w>
do cu
be r</w>
a v</w>
g hi
Ascul tă</w>
a prob
lit era</w>
ateg ori
mon itori
sim ţi</w>
di feren
Ace astă</w>
Deciz ia</w>
ş an
mul ţi</w>
pro prie
rezul t
im pre
inter medi
f avo
in ci
li mb
confor m</w>
bu ge
T E
Scu ze</w>
ve de</w>
dra go
speci fice</w>
ven im
L e</w>
cuno scut</w>
e g
d i</w>
o data</w>
sco pul</w>
Consili ul</w>
supli mentare</w>
u ș
d area</w>
c k</w>
des cur
m uz
intro du
la s</w>
europe an</w>
ver se</w>
al ă
Nim eni</w>
fer ă</w>
5 .
a spec
6 0</w>
en ti
cuno sc</w>
chel tu
alt ceva</w>
vorb i</w>
p in
com ună</w>
E r
uş or</w>
St atele</w>
legis l
zi c</w>
AR E</w>
xim ativ</w>
f ată</w>
dru m</w>
mân a</w>
ar că</w>
gre u
C â
con stru
de pă
1 3
cur ând</w>
M I
O R
form a</w>
asigur a</w>
s ã</w>
Mul tumesc</w>
r on
seri os</w>
teri tori
A pro
cl ar</w>
ac ci
ce lu
pre ci
sun at</w>
prie ten</w>
D le</w>
col ec
se x
în grij
po pul
lu j
si uni</w>
ener gie</w>
trebu ia</w>
ex clu
to cmai</w>
pregă ti
T ra
De sigur</w>
u ri
mer s</w>
ast e
Dom nul</w>
po ti</w>
at ori</w>
câ te</w>
Tot ul</w>
si mil
fi ş
pre ț
re st
afac eri</w>
c ate</w>
mă surile</w>
ști u</w>
B e
O k</w>
b e</w>
des co
M a</w>
D I
G er
a x
D E
euro pene</w>
S per</w>
A le
Dom nule</w>
elec tri
ră ma
siste mul</w>
sp ate</w>
un ie</w>
in fr
hot ăr
p asă</w>
le r</w>
r â
2 3</w>
corec t</w>
aju torul</w>
i eri</w>
A st
ar ma</w>
A v
comple t</w>
D ra
C i
aţi ei</w>
contr o
p te
des fă
s h
pe scu
lit ate</w>
aj e</w>
b y</w>
si m</w>
ge r</w>
u mi
num e</w>
g lu
cu prin
C al
e ști</w>
inte gr
Ace ste</w>
medi u</w>
respec tiv</w>
ri st
d l</w>
a lului</w>
b ii</w>
U ită</w>
ast ăzi</w>
În tr</w>
întor s</w>
rapor t</w>
famil ie</w>
b ine
z ici</w>
st au</w>
do am
sufici ent</w>
con ce
sp er
or din
întreprin de
3 1</w>
pu teţi</w>
ca ţi</w>
ită ţii</w>
A b
b uni</w>
Ex istă</w>
re sur
Prob abil</w>
CE SE</w>
cal cul
201 6</w>
folo sit</w>
zon a</w>
F ără</w>
lă sa</w>
I s
fr un
s luj
schim b</w>
t am</w>
k er</w>
i unie</w>
i g
c ce
în ă
c ată</w>
r ând</w>
O N
întoar ce</w>
apro ximativ</w>
ci vi
at oare</w>
ob ic
treab ă</w>
valo area</w>
prez en
o g
stabi le
p as
ren un
în căl
7 5</w>
cum păr
f an
prez ent</w>
ale lor</w>
finan ț
inst al
To cmai</w>
de le</w>
stan dar
ad ă
dezvol tare</w>
se ară</w>
ce le
G u
S te
acela şi</w>
im pac
con soli
de venit</w>
e venim
v ot
d ori</w>
în țele
ast ra</w>
O amen
u h</w>
mo dul</w>
z area</w>
ră sp
cer tific
e misi
maş ină</w>
sp it
consider are</w>
der i</w>
an ului</w>
sp e
in ul</w>
dv s</w>
m l</w>
produ selor</w>
po z
201 5</w>
con sec
gur a</w>
exe cu
A ju
tă i</w>
in sul
pi ață</w>
vorbe şti</w>
fic ă</w>
ie n</w>
se şte</w>
pl ân
e sen
T er
u re
copi ii</w>
g az
face ţi</w>
păr in
im i</w>
r az
stabili te</w>
t y</w>
ace ea
tran z
sp atele</w>
răspun s</w>
func ţion
ac i
eli ber
princi pi
1 2
n enor
cu vin
ra h
perio adă</w>
c h</w>
î și</w>
produ s</w>
sen s</w>
abilit atea</w>
măsur ă</w>
ap or
om ul</w>
dom ni
sp ă
c ategori
viz u
fi ș
at ura</w>
st area</w>
on a</w>
anu arie</w>
u ita</w>
ne t</w>
interes ante</w>
ine rea</w>
ac hi
de ci</w>
minun at</w>
B ri
ini ţi
m uri</w>
li a</w>
e m</w>
cur s</w>
po ten
vi ata</w>
co stu
L O
consider ă</w>
an tă</w>
C u
ţin ut</w>
inform aţii</w>
at ie</w>
B un</w>
fo togra
răma s</w>
securi tate</w>
ri scu
ur o</w>
Pu tem</w>
frec ven
A sa</w>
e zi</w>
ne bun
înţele g</w>
trat ament</w>
u tul</w>
a ur
v o</w>
di a</w>
De spre</w>
pre şedin
Uni unea</w>
a ș</w>
201 7</w>
EU R</w>
p ace</w>
con vin
prieten i</w>
utiliz ate</w>
fe mei</w>
ri sc</w>
jum ătate</w>
cap ul</w>
pre su
do ilea</w>
ju sti
jur ul</w>
inim a</w>
ap e
anum e</w>
str ân
fr on
an un
F or
0 ,
st in
person al</w>
g ia</w>
intr at</w>
as ca</w>
8 0</w>
no tific
al ţi</w>
me can
str ateg
i anuarie</w>
tex t</w>
B ra
Salu t</w>
intr ă</w>
to mbrie</w>
Comite tul</w>
pl an</w>
l ac
B an
tr on
întâ r
are n
sigur ă</w>
condi ții</w>
m amă</w>
P or
2 8</w>
su păr
maş ina</w>
1 7
al itatea</w>
su cce
mate rie</w>
f a</w>
aminte sc</w>
sec torul</w>
m ai
i ulie</w>
te sc</w>
U I</w>
f abri
t ar</w>
z ii</w>
Re public
l alte</w>
P I
A meri
al ta</w>
ag ă</w>
re uş
glo b
in tr</w>
num ăr</w>
valo are</w>
amen tele</w>
dezvol tarea</w>
cer ut</w>
men ţion
mă n
transpor t</w>
econom ice</w>
at ii</w>
Ori ce</w>
Joh n</w>
ex amin
e for
z at</w>
ab ord
ri sc
f al
or aş</w>
z ei</w>
recom an
pr ă
lit ă
I II</w>
neces ară</w>
B ru
de vreme</w>
ţi ilor</w>
Trat atul</w>
o t</w>
z ie</w>
ultim ul</w>
fr atele</w>
ge n</w>
co l</w>
rap id</w>
c ic
to tu
b una</w>
siste mului</w>
in tre</w>
com i
scu ze</w>
pro gre
îm păr
6 .
Au tori
so r</w>
ş nu
Uni une</w>
ri s
r ân
consec in
com une</w>
sp eri
si fic
av er
p si
ca s
l ea</w>
afl at</w>
întâmp la</w>
mer gi</w>
tele fon
A M
obic ei</w>
bărb at</w>
Obiec tive</w>
oc tombrie</w>
T at
produ sele</w>
af lă</w>
mo bi
un de
Comi sie</w>
an tre
ch esti
am ă
co st
plec i</w>
in fec
di s
ier ul</w>
nat ur
Al o</w>
re u
g as
ace le</w>
ist ori
V ei</w>
consu mat
des cri
to rie</w>
d că</w>
C ap
ş co
1 5
con tează</w>
S A</w>
de tec
În ţele
D r</w>
singur a</w>
c ot
c it
C or
v az
com pon
aplic area</w>
du rilor</w>
B el
copi lul</w>
c ina</w>
ț u
feri cit</w>
pub lic</w>
tre ce</w>
in ce
apro pi
întor c</w>
Ne w</w>
sec un
an ta</w>
ex ter
ie şte</w>
indi vi
o k</w>
di e</w>
C ineva</w>
G ar
plec a</w>
est e
cur aj
prive şte</w>
al tor</w>
asi sten
an tul</w>
t ar
ex tin
p ic
9 0</w>
Ă sta</w>
aj ut</w>
l asă</w>
Vor be
pacien ţi</w>
financi ar</w>
i ile</w>
it orul</w>
di c</w>
A ţi</w>
al er
un tru</w>
urmă torul</w>
N i
între b</w>
mul ti
2 7</w>
ex pl
ame ri
adu c</w>
A R</w>
W ien</w>
ru gă
mar tie</w>
avi e
j un
evalu are</w>
k e
d atelor</w>
ag ra
cri min
anim ale</w>
Lu c
st atul</w>
fin al</w>
D avi
S U
C ă</w>
e uro</w>
ar ta</w>
ter men
at at</w>
do ri
potri vit</w>
ca n</w>
gânde sc</w>
can ti
vi itoare</w>
medic amente</w>
r ul</w>
10 10</w>
n ie</w>
B una</w>
L E</w>
b ate
al l</w>
cre scut</w>
puter e</w>
M an
a er</w>
obiec tul</w>
f arm
ent u
Ge or
ofer ă</w>
2 6</w>
pu tin</w>
I mi</w>
pli n</w>
se ază</w>
J ack</w>
sim p
on ia</w>
autorită țile</w>
I u
du pa</w>
nu me
ge ţi</w>
b i</w>
en tele</w>
progr am</w>
p ag
A cor
Nu mele</w>
puter nic</w>
con curen
ar tea</w>
P ână</w>
are lor</w>
ve r</w>
d aţi</w>
in tre
au zi</w>
nai bii</w>
deschi de</w>
af la</w>
li ber</w>
an ță</w>
com un</w>
o arele</w>
gi ei</w>
con fir
de loc</w>
t ati</w>
T O
R ic
A C
to area</w>
al tele</w>
f ață</w>
ie mbrie</w>
ti on
To ată</w>
au d</w>
intermedi ul</w>
ț e
de tali
st ie</w>
p ân
at ac
pro st</w>
co ordon
l u</w>
În cer
ur n
s are</w>
pl ac</w>
1 ,
se x</w>
cheltu ie
t ari
en ţa</w>
se par
mo arte</w>
Fi ecare</w>
m asă</w>
ap ri
z aţi</w>
deo se
lun g</w>
S co
ți unea</w>
tive lor</w>
at â
b ra
pte mbrie</w>
ori tatea</w>
1 4
200 4</w>
U h</w>
disponi bile</w>
der anj
abilit ate</w>
tot al</w>
gen ul</w>
prin tre</w>
P a
M A
țin ut</w>
c lă
amen in
au a</w>
n un
re ferin
am uz
obi şnu
princip al</w>
b lo
t ine
singur ul</w>
on line</w>
trat amentul</w>
bi a</w>
reg ula</w>
st ă
est ea</w>
re stul</w>
u g
F ă</w>
respec tive</w>
între aga</w>
P ot
Oamen ii</w>
schimb at</w>
achi zi
adevăr ul</w>
unde va</w>
fi m</w>
o o
t â
z b
pr um
E X
frumo asă</w>
sp or
2 9</w>
ar ti
f a
d ură</w>
t ân
Ger man
te re
v ari
caz uri</w>
s chi
de ge
se lec
ne bun</w>
In tr
supr avie
fun d
su fle
şti m</w>
N ic
P le
băie ţi</w>
soci ale</w>
se şti</w>
bi lă</w>
h a</w>
dimine aţa</w>
o f</w>
d atele</w>
mat ice</w>
f ran
al in</w>
con clu
a fir
aliz are</w>
A l</w>
ul ti
it ar</w>
ş tri</w>
întâ i</w>
re cu
ne le</w>
f en
ră mâ
mag az
În ainte</w>
l en
di u</w>
mul tă</w>
fac i
vaz ut</w>
solic it
M amă</w>
te şte</w>
as ul</w>
tă ții</w>
ori gin
amp ;</w>
& amp;</w>
vec hi</w>
su per
N um
di str
u r</w>
carac teri
st o
ru c
no iembrie</w>
ad ap
măn ân
ac u
ră ci
săptămân ă</w>
acce s</w>
st ân
în ain
t h</w>
peri culo
regi on
c le
li sta</w>
do ve
aş teaptă</w>
th e</w>
desco peri
profe sion
bi t</w>
apri lie</w>
h ai</w>
te z</w>
se ptembrie</w>
a de</w>
k g</w>
ţ ină</w>
te ți</w>
c ra
am ice</w>
O fici
Com un
or aş
re la
întâlni t</w>
C az
it ori</w>
S ar
v am
gă sesc</w>
Ex act</w>
Prez entul</w>
re vedere</w>
com an
C l
excep ția</w>
7 0</w>
recom and
bă tr
au di
li n</w>
ac uz
li b
ar at</w>
do b
dra gă</w>
do n</w>
prieten ul</w>
fi ica</w>
dr a</w>
e du
posibi litatea</w>
i ască</w>
cam eră</w>
elec tron
pu r</w>
vin ov
i ere</w>
sc rie</w>
gru p</w>
di stri
ra di
acest e
r am
S p
d o</w>
războ i</w>
regle ment
con t</w>
1 6
ex por
ce ţi</w>
nor oc</w>
stabili t</w>
ne go
ob o
S tii</w>
polit ică</w>
distri bu
do r</w>
c ină</w>
exist a</w>
.... ....
su biec
fe lul</w>
econom ică</w>
se ască</w>
on g</w>
P a</w>
mi n</w>
Cre deam</w>
par ti
gu st</w>
relev ante</w>
ş o
utiliz are</w>
acest uia</w>
c ia</w>
I m
r ur
an che
ac tiv</w>
A h</w>
atori lor</w>
s un</w>
tim e</w>
bu z
competen te</w>
ști i</w>
o caz
B il
aceste ia</w>
ocu p
M ol
di men
in ii</w>
întâr zi
sen sul</w>
teh nice</w>
ori ent
abi a</w>
R ec
su rilor</w>
u ită</w>
Ce va</w>
P ol
v an
G re
dore sc</w>
inde pen
a ero
națion al</w>
est ul</w>
ec i</w>
p ună</w>
naţion ale</w>
for mul
g al
lu ăm</w>
norm al</w>
trag e</w>
apar t
U l
su sp
mâ inile</w>
vre un</w>
sen tim
mun ca</w>
di stan
at h
Sun teţi</w>
în do
C entr
cum va</w>
lic hi
e mi
ace la</w>
T ran
M or
im pl
lo vit</w>
G ro
chest ia</w>
se rie</w>
deschi s</w>
disp ăr
lic it
pri mi</w>
utiliz ează</w>
efectu ate</w>
condi țiile</w>
trans fer
alt fel</w>
do amnă</w>
cal ea</w>
200 5</w>
Ce ea</w>
folo si</w>
T ur
greu tate</w>
s h</w>
gr at
an i
ju ridic
stat ului</w>
C am
tri mi
S am</w>
v ată</w>
S ec
oc ul</w>
v ul
poli ţi
Ţ I
a w
si i</w>
P i
dimine aţă</w>
E I</w>
ac țion
prim ate</w>
200 3</w>
ul bur
part amentul</w>
s aţi</w>
F ii</w>
condu ce</w>
mo artea</w>
guver n
tre cută</w>
gh ere</w>
țu mesc</w>
utiliz at</w>
ac h
c ru
con struc
Al te</w>
form e</w>
mă ri
ț ări</w>
C er
perfec t</w>
t ând</w>
ar me</w>
C ol
mo der
I e
m ită</w>
servici u</w>
ori lor</w>
importan te</w>
CO N
prezent ului</w>
or k</w>
inclu de</w>
ar de</w>
st im
cerce tare</w>
pac he
groz av</w>
vi itor</w>
g ine</w>
ne sc</w>
pri me
trat amentului</w>
ex plic
simil are</w>
reuş it</w>
Nu mai</w>
v are</w>
so ţia</w>
K e
modific are</w>
ac k
en ii</w>
căsă tori
îm prum
ur m
tr as</w>
el abor
bu că
g ri
â mb
f lo
ac tive</w>
Comite tului</w>
sco p</w>
siguran ță</w>
că tor</w>
pre vede</w>
g le
bru arie</w>
Mer si</w>
at uri</w>
cre dit</w>
şti in
sp ună</w>
om en
clă di
ce il
ave am</w>
O pre
D re
nego ci
prin tr</w>
S tiu</w>
A colo</w>
te ti</w>
re sc</w>
ad verse</w>
fi x
M c
prom ov
z ic
pro fi
ag e
aţi ilor</w>
polit ic
abilit ă
or at</w>
b om
c t</w>
I V</w>
Com unită
b al</w>
Regul amentului</w>
Davi d</w>
it o</w>
O K</w>
v ar
mic ro
fr ate</w>
feri ci
copi ilor</w>
fo c</w>
țion ale</w>
ad ică</w>
nu mit</w>
şti ut</w>
on e</w>
C an
c k
mân ă</w>
T ată</w>
sar cin
lu rile</w>
Ori cum</w>
an ţă</w>
o di
x el
program ul</w>
ch i</w>
tiv ei</w>
speci fic
ofer i</w>
ex tre
Po li
po ată</w>
îm puş
en ța</w>
G ata</w>
To ţi</w>
ent ului</w>
cerin țele</w>
P RE
k a</w>
mo tive</w>
in ei</w>
defin i
Dom nului</w>
man i
plec ăm</w>
a eri
păr ți</w>
spit al</w>
vi ol
pre ședin
pri ori
t ;</w>
sfâr şit</w>
z ece</w>
alt cineva</w>
li le</w>
pl at
ob ține</w>
pr i</w>
g ran
întreb ări</w>
plă cut</w>
O P
direc tivă</w>
com bin
fi ec
LO R</w>
între ru
oamen ilor</w>
a viz
B ine
B er
pi ața</w>
H ai
cu i
cad ru</w>
g ent</w>
g it</w>
închi soare</w>
Re z
in cer
Er am</w>
dre apta</w>
Uni te</w>
o fi
cele lalte</w>
pescu it</w>
servici ile</w>
desfă ș
s ac
acela și</w>
u it
C răci
indivi du
declar at</w>
o u</w>
J a
gre şit</w>
echi pa</w>
mo d
ur gen
omor ât</w>
en ță</w>
sen sibi
E n
RE A</w>
ener ge
corespunză toare</w>
c ate
ju r</w>
ar gă</w>
o gra
mecan is
fi sc
ţ elor</w>
proce sul</w>
pici oare</w>
d ăm</w>
public ă</w>
j e
plan ul</w>
sex u
oferi t</w>
h aide</w>
autori tatea</w>
German ia</w>
struc tur
l er
întâlni re</w>
comerci ale</w>
ac oper
li v
Aş teaptă</w>
al ea</w>
och i</w>
contr olul</w>
fil m</w>
Bru xel
al tul</w>
vo astră</w>
s ora</w>
to x
Tot u
R apor
l o</w>
form at</w>
Bruxel les</w>
V en
fe bruarie</w>
co leg
li t</w>
cli en
tim a</w>
g ea</w>
lan d</w>
deci zi
uci de</w>
a ie</w>
H en
s om
f ara</w>
C he
deciz ia</w>
agri co
ne r</w>
leg at</w>
av ă</w>
200 2</w>
par agra
t am
Ast fel</w>
şti ţi</w>
ar mă</w>
înce arcă</w>
p al
mi ro
în so
F re
er ai</w>
p ar</w>
str at</w>
F in
aliz area</w>
tu rii</w>
fri că</w>
prezent at</w>
ne lor</w>
pan a</w>
perso ana</w>
200 0</w>
den te</w>
amân doi</w>
efec t</w>
pu rile</w>
V ic
ridic at</w>
vâr sta</w>
speci ale</w>
z ah
per man
L in
tă ți</w>
ist e
le lor</w>
de mo
pu terea</w>
W al
S tr
pă re
evalu area</w>
e pi
Y ork</w>
Mic ha
ter țe</w>
scur t</w>
K o
contin ua</w>
ide ea</w>
servici ilor</w>
est im
suprave ghere</w>
Trebu ia</w>
per mi
administr area</w>
lup ta</w>
drep turile</w>
l on
pu să</w>
ic ul</w>
A gen
rugă m</w>
at ra
ex tr
ex per
I M
lan da</w>
b ag
la şi</w>
proce s</w>
con tac
lucr at</w>
min ut</w>
întreb are</w>
m ur
compe ti
min im
feren t</w>
me tri</w>
e volu
încer ca</w>
M at
cuno aş
- Nu</w>
S ol
A ș
prieten ii</w>
înă untru</w>
an ii</w>
st ra</w>
ap u
i ului</w>
amb al
ie şit</w>
observ at</w>
m ac
căr ora</w>
do ză</w>
ad au
inform ațiile</w>
gă sim</w>
m n</w>
adop tat</w>
om o
solu t</w>
contin uă</w>
k i
o pri</w>
con ec
de i</w>
bă iat</w>
Ace stea</w>
uş a</w>
an ele</w>
S al
vi te
P h
an terior</w>
g â
ş ase</w>
studi u</w>
intr a</w>
B en
P une</w>
Ș tii</w>
tex tul</w>
teritori ul</w>
ast ruc
7 .
rapor tul</w>
trans mi
Th e</w>
îndepl ine
ve şte</w>
in ov
p ie</w>
Tat ăl</w>
aver ti
su por
hote luri</w>
explo at
Parl amentul</w>
4 5</w>
b at</w>
T im
c ită</w>
no ua</w>
lu aţi</w>
atori u</w>
imag in
lo s</w>
Q u
mes aj</w>
3 5</w>
pan ia</w>
proce dura</w>
SE E</w>
ad ar</w>
ti ţi</w>
ati on
con sili
amuz ant</w>
ă toare</w>
ben efic
cer i</w>
E d
M un
biro ul</w>
G o
întreb at</w>
B ro
c ã</w>
3 0
um b
mi lit
ord ine</w>
3 4</w>
aliment are</w>
ori gine</w>
cere rea</w>
plă cere</w>
l am
petre cere</w>
r are</w>
o port
gener ale</w>
tă țile</w>
tă ţii</w>
ad ul
r at</w>
rap i
nor o
ni ste</w>
ma sa</w>
W e
No apte</w>
redu cerea</w>
pă mânt</w>
scu tă</w>
t ați</w>
de sp
rân dul</w>
resp i
aceea şi</w>
pă r</w>
şco ală</w>
succe s</w>
recu per
T aci</w>
lup tă</w>
in flu
con ţine</w>
g an</w>
at ia</w>
d on
20 0</w>
l una</w>
cri teri
F on
mi m</w>
me r</w>
g lic
r ul
R ob
b al
G ru
hi dro
tor e</w>
simp to
drago ste</w>
şan să</w>
lu ate</w>
c ast
Micha el</w>
p o</w>
aju te</w>
pro gra
J urn
importan tă</w>
H an
aju tă</w>
an tic
fur at</w>
vi le</w>
supr af
protec ție</w>
prin de</w>
ți al</w>
drăgu ţ</w>
pier de</w>
ter n
en a</w>
to ti</w>
ţ ine
du b
persoan elor</w>
he r</w>
deci s</w>
tem por
dispăr ut</w>
sprij in</w>
S ch
In form
Geor ge</w>
medic ament</w>
suprave ghe
ă tor</w>
A P
M ag
cre din
Ofici al</w>
F r
adre sa</w>
ro ş
atri bu
S tu
ati s
vec h
farm ac
că pit
exist ente</w>
ju ri
înce pe
pov este</w>
cuvin te</w>
y a</w>
in ele</w>
tri mite</w>
Rom ân
fr ân
a fi
re fuz
biro u</w>
regle mentare</w>
rah at</w>
chi ul</w>
19 8
cre at</w>
EU RO
c ări</w>
c arte</w>
de sigur</w>
I i
in spec
per form
schim ba</w>
Caz are</w>
ț ul</w>
3 2</w>
semn at</w>
ie ş
infr astruc
N a
b ere</w>
stabili re</w>
gur ă</w>
in o
telefon ul</w>
fe te</w>
activ itatea</w>
teri oare</w>
f e</w>
a şi</w>
e tic
administr at</w>
rezult atele</w>
l ună</w>
În tre
M il
olog ice</w>
tem per
în curaj
vin o</w>
fe re
ie ște</w>
V in</w>
Char lie</w>
cor por
nenor o
funcțion area</w>
plă cea</w>
inter ven
re f
ş tin
E con
af ace
C ei</w>
. 000</w>
it ului</w>
gre şe
ex erci
ajun g</w>
vi s</w>
mă surilor</w>
So ci
în ş
acţi une</w>
l abor
vo stru</w>
f ea</w>
vi r
înţele gi</w>
ţ ări</w>
vo ie</w>
200 1</w>
H ol
constitu ie</w>
mân tul</w>
ci o
în căr
M u
z ia</w>
P ăr
înain tea</w>
peri col</w>
ri s</w>
ce al
drep turilor</w>
Econ om
li lor</w>
cir cul
s ită</w>
măsur a</w>
plan e
s alu
T ata</w>
de rii</w>
lumin a</w>
ti l</w>
F u
De schi
e rii</w>
fri ca</w>
aste p
ju dic
destin ate</w>
A de
perio ade
paragra f</w>
ot ul</w>
mân care</w>
asigur ă</w>
im ple
acci dent</w>
che amă</w>
l l</w>
ţ ară</w>
ma ș
capac itatea</w>
pune rii</w>
p ati
com pen
con frun
scu m
studi i</w>
bă u
s l
limb a</w>
S A
T Ă</w>
îmb ră
H er
sp aţi
su spec
Pro du
regul amentul</w>
d ent
ur ă
S C</w>
Pri e
pen siuni</w>
to ţii</w>
m entul</w>
schim bă
bi le
po st</w>
z ând</w>
s ună</w>
mo r</w>
doc tor</w>
G ra
cur ă
aș tep
ci tit</w>
b ul</w>
cal ific
Acor dul</w>
pro por
proiec t</w>
e di
ot en
Un ul</w>
Fran k</w>
5 00</w>
financi ară</w>
ie şti</w>
prezent ate</w>
edu ca
aj ele</w>
pli mb
sănă tate</w>
de vine</w>
ex er
ar anj
Ti pul</w>
răsp unde</w>
Ave ţi</w>
cu te</w>
co e
te l</w>
costu rile</w>
nici odata</w>
fiin dcă</w>
an t
do za</w>
cere re</w>
4 8</w>
ţi al</w>
si g
vehic ul
com er
al ită
pe de
mas ina</w>
dob ân
ca fea</w>
mon di
referin ță</w>
europe ană</w>
f re
fun d</w>
în d</w>
ma mei</w>
ie şi</w>
pregă tit</w>
ri c</w>
con ven
susp en
agrico le</w>
inter ne</w>
mon e
me argă</w>
oper ați
in stan
Co rec
te ste</w>
cap ă
R ah
mij lo
au r</w>
plec e</w>
cont act</w>
UL UI</w>
Crăci un</w>
ți ale</w>
sec unde</w>
înreg ist
Z I
medi ului</w>
pov estea</w>
D ata</w>
c ro
ș it</w>
bu c
acor dat</w>
de cat</w>
prevăz ută</w>
persoan ele</w>
asigur e</w>
re stric
3 6</w>
interi orul</w>
pie ței</w>
on at</w>
C ri
închi s</w>
rezul tate</w>
punc te</w>
de s</w>
ec h
ă ştia</w>
va d</w>
e mo
4 3</w>
t ări</w>
scu te</w>
om ului</w>
ste r</w>
opri t</w>
an s
drac ului</w>
pl ină</w>
totu şi</w>
cooper are</w>
v ăr
G ener
p as</w>
it orii</w>
ch e</w>
F I
ară t</w>
aminte şti</w>
F ru
bă n
artic ol</w>
ca do
tur at</w>
aplic abile</w>
C ro
me t
Jurn alul</w>
k y</w>
dro guri</w>
f ar
p ei</w>
polit ica</w>
n ot
re par
tă ţi</w>
prom o
R A
Mol do
bu cur
s -</w>
căr or</w>
Republic a</w>
on i</w>
no ştri</w>
Nici odată</w>
situ aţia</w>
re al</w>
fru c
a su
prom is</w>
i se</w>
am i</w>
pre ven
- -
încer c</w>
3 3</w>
un at</w>
P E</w>
vre m</w>
în t</w>
loc ale</w>
soci ală</w>
gânde am</w>
diferi t</w>
k m</w>
spi ri
no ul</w>
re lor</w>
t ai</w>
vi de
tot ală</w>
p ând</w>
națion ală</w>
V I
To m</w>
pune m</w>
Prie ten
ţi uni</w>
propri a</w>
Co pi
om oare</w>
feme ile</w>
lucre ază</w>
0 1</w>
al b
stat ist
s che
ci le</w>
ba ie</w>
asoci ate</w>
mar i
stim ul
V er
de gra
înt un
aliz ate</w>
de veni</w>
pl ată</w>
ocu pat</w>
categori a</w>
clin ice</w>
ţi une</w>
dom nul</w>
ele mente</w>
îm pie
ta j</w>
er t</w>
medi e</w>
Ser v
ofer te</w>
ac ul</w>
en gle
apăr ut</w>
l .</w>
activ itate</w>
țin ute</w>
D l</w>
com bu
W in
ți uni</w>
interes ate</w>
form are</w>
um an</w>
Î m
instru mente</w>
E ști</w>
ob ser
m ate</w>
ală turi</w>
spune m</w>
s s
so l</w>
risc ul</w>
p ast
re feră</w>
ţion at</w>
al co
dur ata</w>
mul ţu
to ți</w>
prac tic
Jo e</w>
Me dic
pre lucr
b ro
spune ţi</w>
ori care</w>
fran ce
tin ă</w>
pro f
do s
echi val
pre par
nor mele</w>
at ent</w>
n at</w>
indi ferent</w>
materi ale</w>
pro punerea</w>
mențion at</w>
amen telor</w>
corespunză tor</w>
vic ti
anu al</w>
cuvân t</w>
â n</w>
doam na</w>
le ge</w>
ref lec
st rează</w>
cre area</w>
înce pu
ori cum</w>
aviz ul</w>
9 5</w>
in ca</w>
li stă</w>
pi aţă</w>
cad av
x a</w>
ex ten
ro l</w>
g o</w>
pre fer
ar ata</w>
º i</w>
av e</w>
do w
ă lui</w>
P RO
vie ţii</w>
ace le
J ul
Or gan
amb ele</w>
întreprin deri</w>
atin ge</w>
solu ţie</w>
L on
pozi ția</w>
li mi
C ele</w>
1 2.
siste me</w>
Pr in
s ei</w>
inter pre
te zi</w>
sim te</w>
V or</w>
etic he
C a
nă scut</w>
P ari
vâr stă</w>
prezen tei</w>
cor pul</w>
une ori</w>
ad mi
2 ,
he pat
func ție</w>
par că</w>
maj oritatea</w>
se min
20 20</w>
Do c
pl at</w>
ul e
vi ață</w>
Con tin
do rit</w>
s ine</w>
lun gă</w>
An g
ap reci
sfâr ş
sim ţit</w>
m area</w>
lu mii</w>
o k
u p
ascul tă</w>
ară tat</w>
O b
U R
rest aur
B un
Mi ke</w>
te ască</w>
sal vat</w>
tra di
gr am
iubi t</w>
transp aren
domni lor</w>
de partamentul</w>
redu ce</w>
y n
an g</w>
do cum
cetă ț
I ată</w>
st ele</w>
S ă
supli ment
F E
min tea</w>
h âr
8 .
ini rea</w>
g ii</w>
pre mi
F ace
Scu ză</w>
gânde şti</w>
che ie</w>
Corec t</w>
învă ţat</w>
ț ările</w>
n ave
at ac</w>
justi fic
S ună</w>
g eri</w>
compe t
in ă
pri mat</w>
d ard</w>
ele mentele</w>
P lan
realiz at</w>
ţ ara</w>
adec vate</w>
A do
car b
pin de</w>
p h
ceal altă</w>
Bă ie
si rea</w>
for m</w>
şti am</w>
fi er
ad ân
in sufici
ori cine</w>
ve şti</w>
e z
amin te</w>
administ ra
A m
ac asa</w>
t an</w>
administr ative</w>
spec tac
contr ol
om olog
ar mon
h ain
Ameri ca</w>
G i
p area</w>
urmă ri
Ma x</w>
program ului</w>
legis la
st ec
dor in
i rii</w>
dic a</w>
îmbunătă ți
men telor</w>
aj ului</w>
D en
mili arde</w>
am na</w>
bi seri
su le</w>
proble mele</w>
a z</w>
ament ale</w>
Opre şte</w>
9 .
extre m</w>
â ine</w>
f f</w>
tu ri
în vin
țion al</w>
a er
it uri</w>
stabili rea</w>
de ri
combu sti
speri at</w>
ie s</w>
fo ame</w>
it o
u iţi</w>
echi pă</w>
ști in
i ală</w>
P at
re vizu
ulti mele</w>
o le</w>
nu cle
cri mă</w>
bi o
con fi
e sc</w>
at orului</w>
reg im
el l</w>
ple acă</w>
săptămân a</w>
re ze</w>
no p
evi dent</w>
la sa</w>
O M
me s</w>
creș tere</w>
do ze</w>
ast ic</w>
evi den
Înţele g</w>
sco s</w>
B al
mul ţ
P hi
l alt</w>
impor t</w>
asigur are</w>
Fru mo
C H
Prez enta</w>
den umi
noro co
f ot
i atul</w>
lit ă</w>
T u
Ple acă</w>
vre ţi</w>
al tern
sp er</w>
aliz at</w>
ac te</w>
6 5</w>
en ilor</w>
com primate</w>
i leg
P en
.. ..</w>
c o</w>
ceil alţi</w>
naţion al</w>
in s</w>
pro c
r o</w>
a feren
t ici</w>
O m
ap ă
r olul</w>
datori tă</w>
plă tit</w>
per e</w>
t un
c ami
hi per
ne y</w>
ca ută</w>
di ul</w>
V alo
program e</w>
aju tat</w>
cu rile</w>
acce sul</w>
C A</w>
vo astre</w>
soci al</w>
ame s</w>
s atis
re ce</w>
M aj
ap are</w>
st it</w>
u ă
vorbe şte</w>
S an
descoperi t</w>
ap ari
S iste
hote l</w>
PRE Z
respons abil</w>
D ar
e ș
to ata</w>
so ţul</w>
ce lă
az i
să m</w>
investi g
con stat
ju că
tranz ac
Ric h
G lu
itu le</w>
folo sesc</w>
l at</w>
ac tivă</w>
acți une</w>
creş tere</w>
P RI
istr ul</w>
ti le</w>
9 8</w>
famili ei</w>
bi litatea</w>
punc tele</w>
sco ate</w>
neg ru</w>
carac ter</w>
de lor</w>
te amă</w>
aştep t</w>
aliz a</w>
num ăr
deciz ii</w>
nor melor</w>
propri i</w>
v al</w>
un itate</w>
ce rii</w>
investi ții</w>
du rii</w>
I T
Hai deţi</w>
v ent</w>
favo area</w>
v ită</w>
A ră
centr ul</w>
Apro ape</w>
u im
activită ți</w>
inter net</w>
ră nit</w>
can di
D on
proce dură</w>
ar ului</w>
atâ ta</w>
PREZ ENT
g ele</w>
arun cat</w>
gân di
L ui</w>
efec te</w>
g it
asigur area</w>
prieten e</w>
o z
on y</w>
ţion al</w>
d r</w>
an e
vi u</w>
op t</w>
Rah at</w>
compan ie</w>
tal ia</w>
urmă toare</w>
înde păr
re şte</w>
ț ină</w>
it y</w>
polit ice</w>
bă ut</w>
199 9</w>
ofici al</w>
su d</w>
ti s
secre t</w>
po ți</w>
al b</w>
câşti gat</w>
u sc
un g</w>
an ţa</w>
Joh n
ulbur ări</w>
condu s</w>
De z
s una</w>
asi st
pun eri</w>
dră go
exter ne</w>
AD OP
plan ific
domen iu</w>
com and
fe ti
a f</w>
că zut</w>
tu ş
întreprinde rilor</w>
func ţie</w>
car ne</w>
avan t
medic ul</w>
ăr â
n aş
cla sific
utiliz ării</w>
pre lun
Ţ ine</w>
ra po
Pri ma</w>
cli pă</w>
J en
în su
p asi
comi te
ist a</w>
b o</w>
cetă ţ
in chi
sub lini
asoci ere</w>
pi lo
ră j
înce pând</w>
produc ție</w>
L ă
nav ă</w>
Pre şedin
S P
in for
um ane</w>
Pe ter</w>
Di sp
maxim ă</w>
si ţi</w>
ter ori
ţion ale</w>
b ar</w>
proiec te</w>
mij locul</w>
N U</w>
rămâ n</w>
ro st</w>
o lu
to arelor</w>
lumin ă</w>
P are</w>
s ate</w>
i dio
cla sa</w>
câ ști
ju ca</w>
c ron
tat ălui</w>
ti puri</w>
ve ter
z eci</w>
te lui</w>
Că pit
v este</w>
3 7</w>
sfârş itul</w>
com plic
L E
cuno ştin
oc uri</w>
odi h
A ne
ast e</w>
dra ga</w>
polit icii</w>
cu re
Român ia</w>
redu cere</w>
adec vat</w>
dispozi țiile</w>
lo vit
SU A</w>
I talia</w>
po st
ț at</w>
t s</w>
stan dard</w>
Pa ul</w>
ADOP TĂ</w>
administr are</w>
E U</w>
Is ra
lat er
mo ară</w>
adop tate</w>
t abil</w>
consider at</w>
fon duri</w>
co lo
începu tul</w>
per spec
acți uni</w>
ju cat</w>
ast ru</w>
d s</w>
CO MI
grij a</w>
vehic ule</w>
Tre i</w>
3 00</w>
z ele</w>
sănă to
re ia</w>
fl ac
9 9</w>
A f
d am
adu ci</w>
P aci
ț ară</w>
zi l
V A</w>
frecven te</w>
de ze</w>
om or</w>
ag ent</w>
toar ce</w>
pre văzut</w>
lun gul</w>
Su b
sem n</w>
feri cită</w>
adă ug
in se
culo are</w>
Fran ța</w>
gen e
b ate</w>
pi el
Direc tivei</w>
com pati
no n</w>
J ames</w>
4 2</w>
an ul
legă tura</w>
cu i</w>
Ș tiu</w>
B ul
respec tivă</w>
ad er
re uni
V al
sp ați
T om
p au
ti l
angaj at</w>
cuno şti</w>
C ea</w>
at ur
ț inerea</w>
econom ic</w>
sor tate</w>
Ar ată</w>
um ul</w>
fu git</w>
pi st
pe trecut</w>
produ sului</w>
inclu se</w>
cu tan
pi s
re cep
int amp
se n</w>
p a
de ş
să i</w>
vinov at</w>
te şti</w>
lim it
r ata</w>
Moldo va</w>
pro viz
urmă toarea</w>
dure re</w>
semnific ativ</w>
L as</w>
ate ri
vol un
perioade i</w>
tori a</w>
partici pan
lip sa</w>
obiec tivele</w>
ex pi
cen tre
l or
T A
ti liz
com port
9 2</w>
inv it
t arul</w>
R y
mo tivul</w>
do vezi</w>
împrum u
r ot
9 6</w>
su se</w>
amb ur
ți une</w>
În totdeauna</w>
tre ia</w>
ap ie</w>
ap el</w>
anum itor</w>
au gust</w>
ev entu
M al
um e</w>
prieten a</w>
mi le</w>
ce lui</w>
petre ce</w>
l y
impac t</w>
to co
uș or</w>
ca ut</w>
în fiin
cuvân tul</w>
ace şti</w>
un c
en um
interes ant</w>
ţi va</w>
trat at</w>
gener ală</w>
pute ți</w>
Aș a</w>
afac ere</w>
vi ru
de asupra</w>
d ine</w>
Hen ry</w>
siste mele</w>
pri ce
min ci
creş terea</w>
T ab
jo acă</w>
par cursul</w>
vre mea</w>
modific ări</w>
sen z
d ac
a p</w>
inv est
in ainte</w>
M area</w>
t abilă</w>
cui va</w>
A mb
er s</w>
a spe
finanț are</w>
b li
car tea</w>
conclu zi
d na</w>
S to
tere n</w>
pri mi
e ţi</w>
no astra</w>
an ia</w>
efic ac
vi itorul</w>
cumpăr at</w>
supravie ţu
Av ând</w>
por to
misi unea</w>
artico lele</w>
ac ţion
Re pe
I r
celă lalt</w>
fu ri
re z</w>
depă șe
ta ie</w>
ist ru</w>
amin ti
grat uit</w>
fun dul</w>
poli ţia</w>
ară ta</w>
îndepl in
ce ai</w>
comun itare</w>
C asa</w>
proce duri</w>
cre deam</w>
exist at</w>
vorbe ască</w>
o h</w>
ch ine
Ado p
p om
gru pul</w>
ati on</w>
intere s</w>
9 1</w>
capit al</w>
k i</w>
imple ment
Num ărul</w>
supăr at</w>
CO M
industri a</w>
cal itatea</w>
cau ţi</w>
faci lit
I S
hotăr â
E chi
s area</w>
si ve</w>
i ar
4 7</w>
în drăgo
v ro
juridic e</w>
ver s</w>
căr ui</w>
medi a</w>
scă zut</w>
nebun ie</w>
maxim um</w>
sprij inul</w>
w are</w>
Do uă</w>
o arece</w>
proce durile</w>
P al
stic lă</w>
per mis</w>
z o
2 5
vi ața</w>
mai l</w>
val ori</w>
pi t</w>
e mb
U ne
f ața</w>
h ei</w>
B en</w>
parten eri
institu ire</w>
poli ţie</w>
su peri
Pari s</w>
de n</w>
S f
S lo
av or
consecin ță</w>
atin gere</w>
B ur
inter naționale</w>
ar ilor</w>
ocu p</w>
ga sit</w>
c lo
Me reu</w>
ale ge</w>
b ea</w>
iu a</w>
avo cat</w>
proce durii</w>
ţ ea</w>
Cur tea</w>
valo rii</w>
V eri
fron ti
păr țile</w>
oblig atoriu</w>
efici ent</w>
ot er
ne şti</w>
sin d</w>
siste melor</w>
p le</w>
ti tu
3 9</w>
trat aţi</w>
fi z
con st
furniz ate</w>
modific ă</w>
si vă</w>
t ari</w>
aferen te</w>
ar g
ră rii</w>
Z iua</w>
per i</w>
H i
pr ân
Dom ni
de pen
po por
in dică</w>
sin cer</w>
L A</w>
z ează</w>
S am
sluj ba</w>
as i</w>
T i</w>
do are</w>
v ada</w>
solic ită</w>
pl ac
l s</w>
inci den
în alt</w>
luc ra</w>
in struc
T E</w>
Totu şi</w>
reci pro
O per
h an
el i</w>
creș terea</w>
fap tului</w>
ner vo
civi le</w>
De oarece</w>
4 9</w>
ob ţine</w>
nenor oc
ită m</w>
C as
scă pat</w>
lucre z</w>
ave ți</w>
dific ul
su feri
pro ven
respec tarea</w>
ado le
Mi ş
Ter min
sur se</w>
inte lig
analiz a</w>
nor d</w>
intr are</w>
um plu
i on
4 4</w>
uni vers
K en
con ver
F lo
ascun s</w>
Ş e
un ică</w>
protec ția</w>
in tal
distru s</w>
Scu zaţi</w>
b ul
cul tur
ti mi
con f
G ân
pe le</w>
tal ii</w>
adau gă</w>
h ran
B I</w>
com it
chi rur
Ţ II</w>
tr ac
te aza</w>
ag re
ţi unea</w>
aten ţie</w>
evenim ente</w>
ati s</w>
3 8</w>
greşe ală</w>
u se</w>
p ah
0 5</w>
or aș</w>
leg i</w>
C au
z g
0 6</w>
pici oarele</w>
veter in
S ti
vide o</w>
di git
credi bil</w>
atin s</w>
tra fic
sur pri
di fici
recoman dă</w>
rec ent</w>
AT E</w>
6 8</w>
de ren
un ic</w>
me tab
su te</w>
ur b
Deschi de</w>
adev arat</w>
l an</w>
gestion are</w>
Bine înţeles</w>
Ur mă
tră iesc</w>
ra n</w>
pl u</w>
abi li</w>
t te</w>
F OR
autorită ților</w>
4 6</w>
A li
Lo u
ş oară</w>
bl u</w>
t t</w>
mode l</w>
inter nă</w>
în ghe
îngrij or
capă t</w>
armon iz
or o
înlocu iește</w>
acor dul</w>
mu ş
l are</w>
prom i
H u
A L</w>
Aju tor</w>
ţ ă
ultim ii</w>
încer care</w>
AN EX
sec țiunea</w>
polit ici</w>
ati va</w>
stân ga</w>
Pr om
ver de</w>
so f
lin g</w>
ş ul</w>
7 2</w>
în gro
adop tarea</w>
Gro z
ex ce
po artă</w>
lin ie</w>
zi lele</w>
W o
că ci</w>
or aș
Fe me
tr om
activită țile</w>
nor me</w>
vizi on
F er
mit ere</w>
O mul</w>
bă tut</w>
bătr ân
puter nică</w>
ex cel
promov area</w>
ener giei</w>
gar ia</w>
et h</w>
secun dă</w>
en telor</w>
V ă
ab solut</w>
f uri</w>
le ază</w>
na va</w>
neces ită</w>
car di
bor d</w>
stabi lită</w>
obiec tive</w>
He y</w>
ame stec
RE G
reac ţii</w>
mul tumesc</w>
z er
r in
me mo
compet entă</w>
atori e</w>
În apoi</w>
Pro gram
părin ţii</w>
fi zice</w>
Ch ina</w>
ac ti
natur ale</w>
J im
ba ie
rezul tat</w>
zon ele</w>
inclu d</w>
so area</w>
mențion ată</w>
radi o</w>
dor mi</w>
at ice</w>
C and</w>
A ten
că rii</w>
i ilor</w>
T el</w>
agri cul
oper a
w n</w>
înche ie
aju ţi</w>
înce p</w>
3 5
prezin te</w>
k o</w>
fer i</w>
si unii</w>
ru ş
deci de</w>
preşedin te</w>
d entă</w>
modific at</w>
de ti</w>
sal va</w>
jo cul</w>
pr u
st er
periculo s</w>
eli gi
int am
Pot i</w>
încer ci</w>
contribu ie</w>
pro spec
re trag
Al t
on ului</w>
y le</w>
A s</w>
cu lui</w>
Une ori</w>
P lec
țin ând</w>
mân cat</w>
sal ve
ţ are</w>
medic ului</w>
k en
inform ațiilor</w>
d ri
ţ ările</w>
feme ia</w>
s ap
câ m
în tele
V E
um ană</w>
ca me
in hi
Su d</w>
iz ol
fe tele</w>
ț ime</w>
rec ia</w>
im i
că rei</w>
G en
Mul țumesc</w>
gestion area</w>
sem ne</w>
avi on</w>
COMI SI
iden ti
op in
fi ule</w>
tre ilea</w>
comunic are</w>
las i</w>
G ră
o d</w>
con dam
Autori tatea</w>
it ară</w>
conce di
o vi
chest ii</w>
ş ter
întor ci</w>
J ack
tre c</w>
înţele ge</w>
Organ iz
Rapor tul</w>
meri tă</w>
tre cu
T ex
ser ă</w>
re ală</w>
n ia</w>
Ş I</w>
instru ment</w>
ma x
u ta</w>
ri fic
ad or
di ver
we e
câ ţiva</w>
impre sion
con textul</w>
ab ă</w>
mu ri
nat ura</w>
Min unat</w>
reg ă
Pri mul</w>
electri ce</w>
t ară</w>
di ag
situ ația</w>
Bi ro
resur selor</w>
A U
prom it</w>
stra dă</w>
psi ho
l au
desfăș ur
pe di
aceea și</w>
b re
st ăm</w>
produ ce</w>
de j
aspec te</w>
at o
an ța</w>
Şti ţi</w>
gă seşti</w>
U tiliz
intamp la</w>
con ferin
ans amb
verific at</w>
T V</w>
Ane xa</w>
lin ia</w>
exclu siv</w>
introdu cerea</w>
teri oară</w>
stabi li</w>
l le</w>
curen t</w>
difici l</w>
re fu
ru pt</w>
le mn</w>
s ala</w>
pi ele</w>
consumat orilor</w>
den u
te st</w>
ocaz ia</w>
I sus</w>
în drep
V rea</w>
săr bă
su ge
pli fic
su per</w>
Cre de</w>
cu tie</w>
efec tele</w>
ap ele</w>
d a
Fe licit
9 3</w>
că reia</w>
m ot
Pre ședin
ie se</w>
regi unea</w>
0 7</w>
cooper area</w>
u rii</w>
zi une</w>
D or
Bra vo</w>
un u</w>
im posibil</w>
s lă
oraş ul</w>
cân te
pro astă</w>
speci ală</w>
al ii</w>
AL E</w>
răspun sul</w>
a st</w>
întâmp le</w>
P O
pl ace
Isra el</w>
sal ari
studi ile</w>
reg re
folo site</w>
L ar
Sp ec
f ia</w>
implic at</w>
afl u</w>
reprezent an
C ase</w>
stabile ște</w>
s ch
0 8</w>
ie l</w>
as h
nu i</w>
d ru</w>
al ți</w>
ș itul</w>
vân zare</w>
g uno
des căr
medic ale</w>
efectu at</w>
ab ro
realiz area</w>
f um
speci fic</w>
tit ul
An ge
î t</w>
medic ală</w>
z ate</w>
conf lic
inv itat</w>
mpl ă</w>
pri vat</w>
tra g</w>
Înce arcă</w>
termin a</w>
pri mesc</w>
fiş ier</w>
J er
costu rilor</w>
monitori zare</w>
de pinde</w>
proiec tul</w>
Ale x</w>
dre aptă</w>
de poz
riscu rilor</w>
Glu me
ON U</w>
în cân
pan to
misi une</w>
contr act</w>
ajun gem</w>
Ul tima</w>
Groz av</w>
fiec ăr
Fo lo
Intr ă</w>
Ș I</w>
utiliz a</w>
cre deţi</w>
consi deren
ap ar</w>
i ată</w>
ve sc</w>
L an
nenoro cit</w>
o te
în co
ab a</w>
iub ito</w>
pă că
în tr
A E
ajun gi</w>
c rea</w>
pre n
pri mele</w>
acor date</w>
Ț I
obiec tiv</w>
câ ine</w>
ar hi
M ac
B I
pier d</w>
A du</w>
liber ă</w>
îm pu
eș anti
săr cin
rămân ă</w>
jude că
Prob le
de lic
con ex
ajun gă</w>
magaz in</w>
e st</w>
tox ic
condi ţiile</w>
mic ul</w>
v răj
zb or</w>
mu tat</w>
Mar y</w>
tre ci</w>
P ier
resur se</w>
I o
Do amnă</w>
schimb are</w>
transpor tul</w>
at ură</w>
M ari
întreprinde rile</w>
să l
che mat</w>
region ale</w>
afec tează</w>
F ac</w>
e d</w>
I ti</w>
degra bă</w>
guver nul</w>
comun itar</w>
direc tive</w>
Z o
consider ate</w>
Gu ver
Dan ny</w>
sk i</w>
aero por
produ sul</w>
do zei</w>
pă stra</w>
z bo
IM M</w>
for ței</w>
neces itatea</w>
drago stea</w>
rezi du
man u
ş apte</w>
pă stre
bol na
im poz
can ă</w>
K ar
Pre su
înregistr at</w>
F BI</w>
s înt</w>
căr uia</w>
ţion ală</w>
ale ge
dom in
cre şte</w>
R en
t al</w>
5 5</w>
cal cu
Ad min
Con form</w>
bărb aţi</w>
ve le</w>
legisl ația</w>
în sărcin
er ate</w>
compon ente</w>
pră j
l t;</w>
& lt;</w>
tre zit</w>
de ază</w>
ro ch
w w
ri t
pozi ţia</w>
dimine ata</w>
E m
ge ogra
pre ce
locu lui</w>
M uz
form area</w>
teh nică</w>
avi z</w>
con serv
împuş cat</w>
gră m
ist e</w>
d răz
fe der
înțele s</w>
interi or</w>
at ic</w>
du mp
intam plat</w>
C am</w>
socie tatea</w>
ab and
cur at</w>
0 2</w>
gro az
leg i
Uni vers
proce sului</w>
anim alelor</w>
c ent</w>
R U</w>
comple tă</w>
tră i</w>
7 1</w>
dispozi ții</w>
se te</w>
ameri can</w>
rapor tate</w>
re n</w>
co dul</w>
tra ordin
teh nic</w>
gra ve</w>
3 ,
materi al</w>
re ască</w>
țion ală</w>
memb rii</w>
tân ăr</w>
pără sit</w>
baz ează</w>
aştep tat</w>
ar teri
per mită</w>
funcţion ează</w>
cir cum
le n</w>
fă cută</w>
schimb ul</w>
dezvol tării</w>
trans fron
S tan
C in
uş ă</w>
G ă
de m
no r</w>
viz ită</w>
0 3</w>
Un ii</w>
b ic
memb ri</w>
Euro pei</w>
am bi
9 7</w>
ca b
Z e
s se
b uri</w>
lo ca
condu cere</w>
mulţ ime</w>
a și</w>
fotogra fii</w>
sluj bă</w>
prac tică</w>
f f
Jim my</w>
abord are</w>
securi tatea</w>
propri ul</w>
a log
intr area</w>
Încer c</w>
po e
hi dr
Păr in
labor ator</w>
u p</w>
rapi dă</w>
desp ăr
începe m</w>
ti te</w>
bate rea</w>
Z A
sfâr șitul</w>
propri u</w>
- Da</w>
Har ry</w>
ra dio
expor tat
cuvin tele</w>
tă rie</w>
L oc
e aza</w>
P ai</w>
respec tă</w>
pute am</w>
menţion ate</w>
Un a</w>
Cap it
l d</w>
favo ri
de talii</w>
sem ne
con comit
h ar
R ay</w>
poliţi st</w>
Wil li
pre g
lă m</w>
u t
olog ică</w>
efic ace</w>
al ţii</w>
socie tate</w>
su port</w>
Pu teţi</w>
hotăr ât</w>
gh t</w>
s la
l apte</w>
D U
a bu
vac cin
ter ul</w>
posibi lă</w>
tin eri</w>
S y
J os</w>
Şti am</w>
ex port</w>
M is
fă cute</w>
ki lo
ase ară</w>
3 75</w>
utiliz ată</w>
in o</w>
Sol ic
electron ice</w>
actu ale</w>
re mar
O k
ne v
Pro ce
r y
pl anu
docu ment
Aş tep
D A</w>
Econom ic</w>
P C</w>
con ţin
sufle tul</w>
cor p</w>
poli tic</w>
adu că</w>
ascul ta</w>
au to</w>
4 1</w>
rez on
condi ţii</w>
0 9</w>
e rilor</w>
con stan
muz ica</w>
v area</w>
do vede
de plin</w>
8 5</w>
spun ea</w>
ev ita</w>
fu gi</w>
u sa</w>
uti l</w>
stra da</w>
a loc
recuno aş
păre re</w>
ar ate</w>
bolna v</w>
societă ții</w>
su ma</w>
av ent
Pro fe
sp rez
În chi
o xi
ci lor</w>
drăgu ţă</w>
domen ii</w>
impl ică</w>
r un
te st
me ze</w>
loc al</w>
tre ze
aştep ta</w>
col abor
lini şti
întoar cem</w>
rela x
efectu ează</w>
an terioare</w>
Fi in
mat ică</w>
valo rile</w>
Sar ah</w>
J im</w>
sân gele</w>
înche iat</w>
com is
tă ţile</w>
L a
Lon dra</w>
gra d</w>
g rea</w>
zon e</w>
cheltuie lile</w>
S O
max im</w>
grăm adă</w>
De ja</w>
înregistr are</w>
protec ţie</w>
7 8</w>
o li
din ă</w>
f est
presu pune</w>
1 1.
regul ile</w>
S cot
mo artă</w>
caz urile</w>
Rich ard</w>
disp er
gr ame</w>
ţ ului</w>
con ține</w>
s ată</w>
semnific ative</w>
L ini
ener gia</w>
contribu i</w>
sim ti</w>
du cerea</w>
E A</w>
jo ci</w>
călă torie</w>
oo d</w>
no st
prote ja</w>
in si
S ha
public ării</w>
c atul</w>
h ol
Nor d</w>
ap ei</w>
o ara</w>
w ard</w>
adevăr ată</w>
0 4</w>
gr atis</w>
f u</w>
num ero
in apoi</w>
asisten ță</w>
S C
nic ă
s o</w>
ce am</w>
fruc te</w>
on ă</w>
Pro iec
excep ţia</w>
industri ei</w>
drep turi</w>
U nele</w>
man age
adop tă</w>
s ea</w>
b ac
cli matice</w>
P an
k s</w>
U I
ne şte</w>
g ime</w>
Nic k</w>
A frica</w>
ară ţi</w>
b ie</w>
Av ea</w>
criteri ile</w>
S en
con cep
f avor
Ă R
Sec re
oper aţi
rezer vare</w>
pi at
eri c</w>
T ony</w>
me tri
partic ul
st om
fac a</w>
îmbunătă ţi
8 7</w>
J ane</w>
6 1</w>
de vin</w>
ar s</w>
mul țumesc</w>
pă rea</w>
bă iatul</w>
F iul</w>
de vină</w>
m în
6 7</w>
naţion ală</w>
şe ful</w>
cado u</w>
analiz ă</w>
lar gă</w>
7 7</w>
băie te</w>
5 2</w>
disponi bil</w>
co d</w>
În să</w>
deschi se</w>
7 3</w>
proiec tului</w>
insul ină</w>
cam ere</w>
caz ului</w>
bo ală</w>
are stat</w>
acor dă</w>
pli c</w>
K el
înregistr ate</w>
S I</w>
Consili u</w>
........ ........
dub lă</w>
in cen
capit olul</w>
nav e</w>
se t</w>
6 6</w>
fiș ierul</w>
be n</w>
ză tor</w>
le g</w>
um ită</w>
antre n
prac tici</w>
g ol</w>
6 2</w>
rămâ i</w>
lim ită</w>
căsători t</w>
cău tat</w>
gaz e</w>
anu ale</w>
B AR</w>
pi aţa</w>
tin a</w>
Bil l</w>
B ob
vin de
pl ata</w>
leg ea</w>
du că</w>
na vig
ier ă</w>
comple x
san c
Do i</w>
verific a</w>
c ent
se r</w>
Con ven
gră si
M m</w>
tr o</w>
înce t</w>
siguran ta</w>
s ori</w>
g t;</w>
& gt;</w>
pune ţi</w>
v an</w>
utiliz aţi</w>
între g</w>
1 50</w>
urmă rit</w>
realiz ate</w>
al ia</w>
m ica</w>
dul ce</w>
cri ză</w>
5 1</w>
i an</w>
lu crezi</w>
k o
obiec tivelor</w>
Ch rist
ex traordin
vo ia</w>
ă ia</w>
compan ia</w>
ferici re</w>
S pania</w>
þ i</w>
fi ţi</w>
l ii</w>
imag ine</w>
ave au</w>
In stitu
dic e</w>
D ist
anu mit</w>
bo g
deranj ează</w>
contrac tan
con țin</w>
R el
col on
Iu b
li gen
dej un</w>
profe si
E li
scri min
c âr
10 00</w>
li br
l ap
emisi ilor</w>
Mar ia</w>
fec t</w>
u z</w>
tri mit</w>
sun teti</w>
posibi lită
în drăz
pozi ţie</w>
Comunită ţii</w>
ă nui</w>
deose bit</w>
Mer gem</w>
ur mat</w>
um a</w>
dove dit</w>
M ad
par iu</w>
rez olu
asc unde</w>
tic ă
di verse</w>
minim um</w>
jur n
inv ent
D estul</w>
ag e</w>
Rez ul
adă u
re ale</w>
sp ar
vo iam</w>
REG UL
scă z
afl ate</w>
întâlni m</w>
om ori</w>
defin ite</w>
pro punere</w>
co ş
Î N</w>
condu c</w>
L A
n econ
AD N</w>
situ aţie</w>
con şti
lic en
mar ca</w>
A bia</w>
supr a
rec ur
dez amă
pro pune</w>
celu le</w>
EN T</w>
si mb
vizi une</w>
corec tă</w>
Vo iam</w>
Om ule</w>
COMISI A</w>
sco t</w>
acţi uni</w>
g are</w>
V ine</w>
Republic ii</w>
as h</w>
docum ent</w>
întreb i</w>
il l</w>
nat ură</w>
nu mesc</w>
autorită ţile</w>
Ph en
vede ţi</w>
Ii suse</w>
At ât</w>
6 4</w>
caracteri st
lim ita</w>
tă rile</w>
al un
docu mente</w>
gra vi
I mag
x id</w>
juri dic</w>
minun ată</w>
T R
mondi al</w>
pede p
sin guri</w>
hi po
uci g
di scrimin
perman ent</w>
ți unile</w>
vech e</w>
drep tului</w>
din colo</w>
leg ii</w>
aer on
tic a</w>
gru puri</w>
ură sc</w>
alim ente</w>
U TI
E le</w>
cal d</w>
constru it</w>
M ie</w>
in tor
sp ori
ali st</w>
Ch ic
mun cii</w>
A ste
ab e</w>
se z</w>
ţ inerea</w>
frumo ase</w>
ne ască</w>
Bo b</w>
lic e</w>
P A</w>
compar ativ</w>
cel or
furniz area</w>
S ur
consoli darea</w>
E C
Th om
su la</w>
lo n</w>
pan tal
ce lei</w>
c .</w>
mă rii</w>
inform aţiile</w>
ofi ţ
J ocuri</w>
deschi să</w>
ve ti</w>
scu mp
5 6</w>
te ori
electri că</w>
de z</w>
inform are</w>
hâr tie</w>
intr u</w>
EURO PE
modific ată</w>
4 00</w>
tiv ului</w>
inter n</w>
U ş
d v</w>
eliber at</w>
gă sească</w>
direc te</w>
măr fu
or ală</w>
cunoaş te</w>
TO RI
respec t</w>
an o</w>
ți t</w>
individu ale</w>
tr adu
convin s</w>
Par că</w>
B on
Vă d</w>
place bo</w>
pro vin
medi ul</w>
a b</w>
organis m</w>
par l
im en
- Ce</w>
pur ta</w>
ţi ale</w>
s ca</w>
pă tr
zi lor</w>
L asa</w>
vă rii</w>
dr ă</w>
înă l
go rii</w>
for d</w>
anex ă</w>
pici orul</w>
mul ti</w>
i r</w>
st ei</w>
ste ri
su tă</w>
Pr inci
c y</w>
pri m</w>
gre ş
o d
destin at</w>
mo n</w>
Î N
be şte</w>
po ze</w>
pl aj
u sor</w>
REGUL AM
apart ament</w>
so diu</w>
e y</w>
distru ge</w>
de șe
vo t</w>
m ar</w>
pre tin
pro puneri</w>
in at</w>
Comun ic
sun teți</w>
că rile</w>
mo ş
mor ţi</w>
n ei</w>
F il
m ată</w>
10 .
lu ată</w>
c entru</w>
sp on
lu s</w>
9 4</w>
D l.</w>
viz ează</w>
G al
pre judic
artico le</w>
so sit</w>
distr activ</w>
re vi
mi ș
to c
M A</w>
apro pie</w>
recuno scut</w>
pre siune</w>
o le
riscu lui</w>
lă săm</w>
inte les</w>
regi une</w>
echi libr
gru pului</w>
Uni t</w>
di vor
acce sibi
tr ân
scri soare</w>
Solic it
sănă tatea</w>
monitori zarea</w>
te am</w>
bi litate</w>
m ori</w>
im a</w>
i st</w>
ad un
zah ăr</w>
ac id</w>
aliz ată</w>
per mit</w>
Reg atul</w>
U it
acor darea</w>
G ran
sem na</w>
ciu da</w>
un itatea</w>
condi ția</w>
M âine</w>
âmb ă
L ocul</w>
arg um
A T</w>
ren ală</w>
s an</w>
re şti</w>
pă cate</w>
cas ei</w>
vac anță</w>
pu le</w>
er ului</w>
ton e</w>
privin ţa</w>
at mo
fiecăr ui</w>
pozi ție</w>
Tom my</w>
mat ri
nică ieri</w>
se se</w>
gân di</w>
itu rile</w>
car ti
v esti
s uni</w>
hain ele</w>
ori unde</w>
fier bin
inim ă</w>
valo rilor</w>
pri mă</w>
dur e</w>
dump ing</w>
Poli ţia</w>
aplic e</w>
coe ren
no ile</w>
ridic a</w>
adec vată</w>
pier derea</w>
termin ă</w>
nec uno
se ze</w>
spectac ol</w>
n ica</w>
aspec t</w>
respons abilitatea</w>
P rea</w>
i di
fle xi
st on</w>
S PE
suferi t</w>
pă str
Su pr
Char les</w>
M are</w>
termen ul</w>
pr on
ai r</w>
7 9</w>
vehic ul</w>
activită ților</w>
M IN
caracteri stic
schim bă</w>
lu area</w>
exten sia</w>
t ent
mul ți</w>
ști a</w>
se m</w>
echip amente</w>
Phen 375</w>
ţ area</w>
cost uri</w>
ve ți</w>
ocu pă</w>
sub ven
c rat
Paci en
Ar un
F ar
cum pără
d ici</w>
tele viz
mili on</w>
M O
B re
av en
tr ul</w>
A jun
M ai
di seară</w>
Dra gă</w>
ser in
iz at</w>
îm pin
ne u
apro vizion
coman da</w>
Rob ert</w>
M ENT
regul i</w>
re li
L is
determin a</w>
zi ei</w>
intere sează</w>
fisc ale</w>
scump o</w>
T ră
tur ne
Ste ve</w>
De şi</w>
obiec tivul</w>
ţ ată</w>
n ation
i po
epi so
ș ase</w>
Ko so
aţi lor</w>
I er
ț ărilor</w>
fund amentale</w>
di e
Presu pun</w>
spor t</w>
ș tin
fac ul
Felicit ări</w>
b ită</w>
201 8</w>
circum stan
b el
cru ci
der og
por ţi</w>
il ă</w>
A B
f era</w>
Nor oc</w>
ul terior</w>
modific area</w>
aline atele</w>
at rac
S k
S a
C lar
acoperi re</w>
inhi b
Serv ici
crimin al</w>
Bu cure
resp in
8 9</w>
s ări</w>
St aţi</w>
um an
5 4</w>
standar de</w>
cl as
fil mul</w>
du cem</w>
ier ului</w>
am an
petre cerea</w>
tu ris
n o</w>
Bil ly</w>
Su per</w>
păr ul</w>
Doam na</w>
vor bă</w>
enum erate</w>
știin ți
iubi re</w>
efici entă</w>
ști e</w>
ur ât</w>
rezol va</w>
ten din
stă pân
Program ul</w>
ci f
S he
juridic ă</w>
zi lei</w>
efor turile</w>
plă ti</w>
tax e</w>
un chiul</w>
sca pe</w>
O dată</w>
des ea</w>
doc tore</w>
7 6</w>
re țele
so ara</w>
aplic ării</w>
ber t</w>
standar dele</w>
on ii</w>
re alitate</w>
f t</w>
vân z
w ood</w>
ave ti</w>
di ab
infor mează</w>
M da</w>
person ale</w>
cuprin de</w>
solic itat</w>
5 8</w>
riscu rile</w>
proce durilor</w>
P ENT
ţ ării</w>
Pot ri
C um
sprez ece</w>
propri ile</w>
ţi ţi</w>
U m</w>
insufici enţă</w>
Koso vo</w>
si mul
ar mele</w>
im pune</w>
Vorbe sc</w>
tin g</w>
ab sor
președin te</w>
la se</w>
stabile ască</w>
I ulie</w>
li are</w>
adole scen
elabor area</w>
co p
progra melor</w>
dur ată</w>
O p
Ru sia</w>
a sigur</w>
mi x
Ja ke</w>
efici ente</w>
can cer</w>
transfron tali
c rie</w>
continu e</w>
Fiin dcă</w>
Ave am</w>
gas se</w>
G recia</w>
am pren
sur să</w>
ț ea</w>
implic ate</w>
ob st
datori a</w>
plan uri</w>
g ol
vam ale</w>
Ju sti
tre acă</w>
scri p
s inte
Re ac
E mi
vân dut</w>
fă cea</w>
it ali
ME DI
John ny</w>
înţele gere</w>
paci ent</w>
în scri
afir mat</w>
impac tul</w>
or din</w>
cău tarea</w>
un d</w>
he mo
natur al</w>
fan to
nu mi
v ag
di stin
profesi oni
PENT RU</w>
olog ic</w>
clu b</w>
fl ori</w>
ing ton</w>
bi re</w>
S tri
In stan
s ho
com pu
În tre</w>
speci fică</w>
con cre
sti m</w>
meto de</w>
h ai
7 4</w>
pl acă</w>
Dan iel</w>
ST R
nim ănui</w>
cre dem</w>
aprob at</w>
flu x
întârzi at</w>
ex pre
bi m</w>
h t
po se
con vers
z ul</w>
Ch est
si re</w>
E T
docu mentele</w>
apart amentul</w>
m al</w>
îndo ială</w>
itori lor</w>
ha ine</w>
sur prin
Siste mul</w>
al d</w>
iube şti</w>
înco ace</w>
elimin area</w>
min ţit</w>
ie f
B l
încer căm</w>
ag ră</w>
ți ală</w>
h al
echi lib
ob ol
trans mite</w>
t ală</w>
st adi
şe sc</w>
c iti</w>
obişnu it</w>
5 3</w>
închi ri
cl or
ven iţi</w>
cap abil</w>
producă tori</w>
chest ie</w>
î ti</w>
fot bal</w>
folo sind</w>
plimb are</w>
in fl
princip ală</w>
în ve
pu t
ţ el</w>
întâl nesc</w>
sp ani
tim pului</w>
re zi</w>
experi enţă</w>
cl ari
in du</w>
rat at</w>
cat re</w>
mij loc</w>
S an</w>
norm ală</w>
fi b
Repe de</w>
Co dul</w>
ru gat</w>
ex pedi
te odată</w>
cere rii</w>
v ie</w>
rapor tat</w>
pri vate</w>
fur t
d ge</w>
C uno
re în
Aş adar</w>
rezi sten
com ent
lin g
plă tesc</w>
fru mu
U nu</w>
mân tului</w>
opin ia</w>
vin de</w>
min ţi</w>
ame ste
închi de</w>
urgen ţă</w>
z âmb
garan ta</w>
co bor
dore şti</w>
ve st</w>
demon strat</w>
meto da</w>
confi den
ț ă
sco ate
C R
ab sen
muz ică</w>
s âr
af lăm</w>
redu s</w>
îndepl inirea</w>
we b</w>
euro pen
Con tr
5 7</w>
mic u
înş el
6 3</w>
c al</w>
dan s</w>
na ș
to ale
ti ile</w>
ridic ă</w>
C ast
Y o
glu mă</w>
Tran s
f an</w>
D el
Frumo s</w>
bine cuvân
re structur
păr ților</w>
AU TORI
aface rea</w>
semnific ativă</w>
Lu aţi</w>
Admin istr
bat ere</w>
potri vită</w>
do uă
desfă ş
partici parea</w>
Potri vit</w>
ț ara</w>
săl bat
8 8</w>
e sc
intere sul</w>
cate gorii</w>
F ata</w>
recuno sc</w>
ză toare</w>
in am
ide i</w>
loc oten
ur at</w>
i si</w>
S .
G ol
rezult atul</w>
Vre me</w>
o rează</w>
sprij in
prac tic</w>
ț ine
în altă</w>
b ei</w>
i asă</w>
M y
profi t</w>
tiv i</w>
idio t</w>
Mă surile</w>
T ru
is m</w>
perfec tă</w>
copi lului</w>
Nici o</w>
prieten ă</w>
6 9</w>
legisla ției</w>
sim plific
vorb esti</w>
L UL</w>
co s
C ARE</w>
u lului</w>
of f</w>
man a</w>
a g</w>
H el
referi tor</w>
ț ului</w>
zg om
pă m</w>
i uri</w>
pu te</w>
cam pan
8 3</w>
bl este
accep tat</w>
pier zi</w>
S pi
h or
Ho tel</w>
L au
potri vă</w>
M ân
pr af</w>
T it
E rau</w>
Se m
St at
consider ată</w>
medic al</w>
trans fer</w>
se din
ter ape
tac i</w>
în con
conform e</w>
avi r</w>
A .</w>
t rii</w>
pron un
răsp ân
are i</w>
che ia</w>
r ambur
identific are</w>
distr ac
me z</w>
furniz ează</w>
efec tul</w>
con țin
în ca
chim ice</w>
st aţi</w>
progra mele</w>
of ere</w>
princip ale</w>
E ur
prezin t</w>
eli be
l t</w>
in credibil</w>
dispozi tiv</w>
Ad am</w>
mâ ini</w>
ră ni
te rele</w>
on oare</w>
b ai
cate va</w>
reg ener
nu iesc</w>
fiş iere</w>
benefic ia</w>
fon durilor</w>
so rii</w>
an o
simpto me</w>
di plo
Se curi
C ity</w>
si ei</w>
i p
vehicul elor</w>
aeri an</w>
ofici ale</w>
ga z</w>
f ule</w>
ti on</w>
Ry an</w>
iube şte</w>
exist e</w>
î mpl
de semn
ţine m</w>
reg e</w>
P A
cri mei</w>
do vadă</w>
amen d
tre cem</w>
mo are</w>
inse amna</w>
In dia</w>
ab ar</w>
st il
buz un
me zi</w>
carb on</w>
dra g
l ar</w>
wee ken
v ărul</w>
ti ei</w>
T ulburări</w>
el le</w>
politic ilor</w>
fin ală</w>
un d
v ara</w>
Ară ţi</w>
Com and
Wo w</w>
sec torului</w>
evenim ent</w>
che r</w>
R â
ME TE
a .
stu den
Ri dică</w>
b ec
a desea</w>
F amili
v alul</w>
ben z
z z
r ate</w>
H rist
pute ti</w>
fon durile</w>
Ast ăzi</w>
mă nă
tă ților</w>
obo sit</w>
8 2</w>
METE O</w>
iz are</w>
de şi</w>
ince put</w>
fil me</w>
Sin gur
expl ica</w>
El ve
ic le
anim al</w>
lo i
per fuz
istori a</w>
locu rile</w>
pier dere</w>
li on</w>
ie z</w>
Valo area</w>
di fuz
C I</w>
di scur
pre con
principi ul</w>
mar gin
pri me</w>
pro pus</w>
sufici ente</w>
ele ment</w>
acți unile</w>
pu rilor</w>
oraş ului</w>
Soci al</w>
apropi at</w>
T ele
aştep ţi</w>
- a</w>
con centre
inte ligen
Stu di
nume şte</w>
spaţi u</w>
ol ă</w>
i ai</w>
C li
miş care</w>
L il
tră it</w>
lo g</w>
se zi</w>
medi c</w>
A stea</w>
t ware</w>
păr ţi</w>
t ai
eg al</w>
aten ţia</w>
preşedin tele</w>
D un
Ban ca</w>
sc ară</w>
Disp ozi
t onul</w>
fo r</w>
vot uri</w>
i ate</w>
o ce
din ea</w>
înt in
et c.</w>
cum par
cuno știn
dispozi ție</w>
c înd</w>
v ară</w>
Vi aţa</w>
stri a</w>
ag o</w>
in ta</w>
person aj</w>
aplic ate</w>
Ok ay</w>
număr ului</w>
P regă
r ace</w>
Mar tin</w>
Bob by</w>
subiec t</w>
A g
detali ate</w>
H mm</w>
te at
dow s</w>
În toarce</w>
dur abilă</w>
în toc
autoriz at</w>
Lu cre
viz it
mul tor</w>
T y
sc ap
pă cat</w>
mul țime</w>
a e</w>
min im</w>
gra v</w>
AL Ă</w>
tă iat</w>
tat al</w>
con ținut</w>
ameri c
istori e</w>
tit lu</w>
te ren
person alului</w>
s orul</w>
5 9</w>
d nă</w>
profe sor</w>
Vre ţi</w>
scur tă</w>
acu mul
t ara</w>
fiz ică</w>
du r</w>
nu it</w>
li u</w>
B CE</w>
preț ul</w>
jude cată</w>
ină tatea</w>
indepen den
ch in
gh ic
buge tul</w>
aero port</w>
coman dă</w>
opre şte</w>
aju torului</w>
A zi</w>
Aju tă</w>
impre una</w>
sar cina</w>
ER E</w>
super i</w>
schim bu
ra spun
bun ă
ne po
âmbă tă</w>
8 1</w>
produc ția</w>
cunoştin ţă</w>
Ie şi</w>
gra dul</w>
ke y</w>
cli ent</w>
intere sat</w>
competi tiv
s ab
reg im</w>
direc tă</w>
Win dows</w>
e x</w>
fiec ă
anim alele</w>
8 4</w>
pache t</w>
de c
m aţi</w>
doam nelor</w>
pri zon
H ot
influ en
servici ul</w>
ame li
În seamnă</w>
blo cat</w>
T ă
Bi seri
ase le</w>
M as
ul ei</w>
Ti mes</w>
ist an</w>
măr turi
vehic ulului</w>
în groz
pie ţei</w>
mani fest
băie ţii</w>
tab elul</w>
lă saţi</w>
posibi le</w>
S chim
Ce re
p ct</w>
principi ile</w>
fierbin te</w>
lo cal
b altă</w>
dor mit</w>
D aţi</w>
în nebun
distan ţă</w>
is mul</w>
e tul</w>
Du pa</w>
v ere</w>
mijlo ace</w>
consu mul</w>
mod alitate</w>
Lă saţi</w>
memb rilor</w>
împăr tă
e ş
C le
profesion ală</w>
min ime</w>
inter național</w>
H IV</w>
gen un
între bă
pozi tiv</w>
ac tele</w>
proprie tate</w>
g ar</w>
G lo
4 ,
T RE
vite ză</w>
leg al</w>
dege tele</w>
Wil l</w>
P EN
atac at</w>
ste in</w>
Băie ţi</w>
ne bună</w>
opre sc</w>
folo seşte</w>
it h</w>
T or
N C</w>
and y</w>
ș an
in spi
g lon
autoriz ate</w>
menţion at</w>
au zi
ad u</w>
dic at</w>
r ată</w>
preț urilor</w>
feme ilor</w>
ge rii</w>
Rec uno
se diul</w>
pre al
apro pie
cere ri</w>
veterin ar</w>
o aspe
capac itate</w>
REGULAM ENT</w>
tran zi
or as</w>
chesti une</w>
centr ale</w>
mân ca</w>
Mer gi</w>
C lu
ob ținute</w>
ci ei</w>
reg ele</w>
dra gu
I mediat</w>
câşti ga</w>
u s
lar g</w>
alco ol</w>
ită țile</w>
S ăr
Căpit ane</w>
surpri ză</w>
or area</w>
discu tăm</w>
baz ate</w>
U ita</w>
Tri bun
Ascul ta</w>
bol i</w>
Bri tan
şe şte</w>
limit ată</w>
A .
ale gerea</w>
N enor
confrun tă</w>
aş ul</w>
ac ei</w>
ită ţi</w>
resur sele</w>
bi li</w>
vec inătatea</w>
R est
pacien ţilor</w>
6 00</w>
Rezul t
ob ţinut</w>
i ți</w>
Ch u
ig nor
al bu
A mân
apropi ere</w>
vă m</w>
te me</w>
anim ală</w>
ocu pa</w>
pro stie</w>
acor dată</w>
Dec i
fi zic</w>
strateg ie</w>
protec ţia</w>
K i
compen s
L U
tre p
redu să</w>
instru mentele</w>
energe tică</w>
P atri
cal en
intr i</w>
Mar k</w>
pau ză</w>
face ti</w>
du blu</w>
direc tor</w>
an ți</w>
auto mat</w>
popor ul</w>
person alul</w>
cir cu
mod alită
lucr ul</w>
discu tat</w>
piel ea</w>
or d</w>
be au</w>
B et
di spu
în tă
pah ar</w>
min a</w>
Ale x
scri u</w>
întârzi ere</w>
săr ă
gă tor</w>
aler g
pri v
tr ate
re venit</w>
n om
mani pul
PREZENT UL</w>
me lo
Tur cia</w>
D an</w>
Ch ris</w>
s m</w>
ap ară</w>
lucră torilor</w>
c ai</w>
af li</w>
ită ți</w>
imag ini</w>
dor m</w>
d dy</w>
N E
nervo s</w>
P l
at ate</w>
dat or
clin ic</w>
Le e</w>
8 6</w>
favo are</w>
som n</w>
ex am
M ur
descur c</w>
tur n
pe rea</w>
a o</w>
cerin țe</w>
ş i
sin uci
g est
Y P
noroco s</w>
bun uri</w>
re s</w>
industri ale</w>
An dre
0 .000</w>
pregăti tă</w>
C ra
neg ativ</w>
adul ţi</w>
m al
îngrij orat</w>
dore şte</w>
w i
Ed die</w>
cri terii</w>
P este</w>
af le</w>
centr al</w>
F ace</w>
Președin tele</w>
ore z</w>
vi ţi</w>
din g</w>
vo cea</w>
A s
inter naţionale</w>
en ţei</w>
Singur ul</w>
pici or</w>
an ce</w>
n ii</w>
sco puri</w>
măr furi</w>
po zit</w>
folo s
ch ii</w>
Ii sus</w>
con text</w>
V I</w>
ev acu
ru ti
decl an
bo ala</w>
încăl zi
mo tivele</w>
H al
gre di
preț urile</w>
ic o</w>
prân z</w>
să turat</w>
apăr are</w>
restaur ant</w>
rezult atelor</w>
autorită ții</w>
t abile</w>
p atul</w>
ot a</w>
P lă
ar tele</w>
ju ris
Contin uă</w>
prin d</w>
des en
Dez vol
it area</w>
I T</w>
pru den
Min ist
un ice</w>
din a</w>
u ităm</w>
rezer va</w>
urgen ță</w>
bătr ân</w>
W ash
pl ante</w>
uit aţi</w>
de şte</w>
anum ită</w>
J ap
energe tice</w>
w ell</w>
i lu
unită ți</w>
v est
nun ta</w>
p h</w>
Le gea</w>
s y</w>
h an</w>
an ti</w>
V IN
fr ac
E ric</w>
ruş ine</w>
Cam era</w>
perio ade</w>
identific area</w>
fac tori</w>
Veri fic
sf at</w>
pag ina</w>
mân dru</w>
Biro ul</w>
b an</w>
verific are</w>
Thom as</w>
administ rării</w>
str ate
producă torii</w>
leg ată</w>
canti tatea</w>
m ice</w>
ic k</w>
to ler
vite za</w>
an ilor</w>
oblig ația</w>
profesion ale</w>
liber tatea</w>
flac on</w>
Ex cel
spec ii</w>
țion area</w>
infl am
liz are</w>
e ti
examin are</w>
locu in
st in</w>
uti le</w>
ai re</w>
întâl ni</w>
siguran ţa</w>
T UL</w>
rel aţie</w>
ve n</w>
jo ace</w>
b loc
ace ştia</w>
AN Ă</w>
ni ște</w>
ar o
pro cur
uş oară</w>
bău tură</w>
indic at</w>
N O
plas matice</w>
cău ta</w>
sla b</w>
en ței</w>
căsă to
Fr atele</w>
ath an</w>
injec tabilă</w>
dis ci
bucă tărie</w>
in feri
vul ner
ş ii</w>
bic icle
oc ine
tri bun
reg istr
se ver
B ran
sk y</w>
scă dere</w>
pilo t</w>
frec vent</w>
ț area</w>
ca se</w>
mar tor</w>
ac he
ne regulă</w>
a k</w>
ca se
Cur ții</w>
C ul
z bur
G ri
z elor</w>
ţin ute</w>
ti pi</w>
scă pa</w>
ban că</w>
glob ală</w>
si mplă</w>
intro duce</w>
Fon dul</w>
D na</w>
Ju r</w>
st ran
h o</w>
scen ă</w>
rec lam
l unii</w>
ţi re</w>
v ra
exerci ți
pro a
Do n</w>
Centr ul</w>
col i</w>
miş ca</w>
raz i
asoci at</w>
ci u</w>
pu ţină</w>
accep ta</w>
ar ia</w>
realiz a</w>
r area</w>
uti l
ter min</w>
M en
C ali
numero ase</w>
al bă</w>
sf era</w>
discu ta</w>
w ar
vorb ind</w>
afec ta</w>
dori ţi</w>
preven irea</w>
puter nice</w>
inclu s</w>
Ră spun
vre odata</w>
Fr ate</w>
rapor tează</w>
di tate</w>
tehnolog ie</w>
groaz nic</w>
pat ri
gra de</w>
mac ar</w>
acor duri</w>
d ării</w>
ex plic</w>
Ab solut</w>
Par ti
Apro po</w>
so ţie</w>
plă cută</w>
PEN E</w>
cri me</w>
Tab elul</w>
scu zaţi</w>
Pu b
uim itor</w>
ab ona</w>
mom ente</w>
compan iei</w>
omolog are</w>
M P</w>
bri tan
Sco ate</w>
dure ri</w>
mes ajul</w>
bă tă
EURO PENE</w>
elec tor
ma im
glic e
uni ver
si unile</w>
fiecă rei</w>
fan t
Apro pi
arm ată</w>
frumu se
O C
d lui</w>
efectu ată</w>
Scot t</w>
arm ata</w>
A REA</w>
o şi</w>
public ului</w>
Fe der
substan țe</w>
superi or</w>
stat u
Pol it
Doam nelor</w>
Vorbe şte</w>
W or
iu le</w>
aştep tăm</w>
țin ere</w>
su puse</w>
aspec tele</w>
dispozi țiilor</w>
F ri
C iu
one s</w>
îndeplin ite</w>
Par tea</w>
an ţe</w>
M ex
e te</w>
O ra
maj ore</w>
producă tor</w>
fer ovi
prob e</w>
credi te</w>
efectu area</w>
v ali
L ei</w>
sar cină</w>
ur g</w>
A M</w>
secre te</w>
ansamb lu</w>
pe şte</w>
lan sat</w>
du ş
tit lul</w>
gu rile</w>
arun ca</w>
separ at</w>
ce sc</w>
gă du
Lis abona</w>
f ului</w>
europen i</w>
tehnolog ii</w>
for ţei</w>
co m</w>
S per
fo cul</w>
oter apie</w>
me ci</w>
ac h</w>
D nă</w>
lic eu</w>
de fec
fra u
întreb area</w>
An na</w>
ru g
Cin ci</w>
m ia</w>
căr ţi</w>
cl asă</w>
sec tor</w>
în că
el d</w>
con cer
A min
Mon di
Fran k
ţi ş
politic ile</w>
ale gere</w>
esen țiale</w>
refuz at</w>
o area</w>
b are</w>
ridic ol</w>
plă tească</w>
EUROPE ANĂ</w>
ast ro
ar gin
sever ă</w>
rac he
ab sol
anex ei</w>
ie ș
între gul</w>
obi ș
mat ic</w>
buc uro
sp unde</w>
precon iz
acoper ă</w>
e şte</w>
impor turilor</w>
pas ag
Ho te
seri a</w>
alo g</w>
în dată</w>
Ser bia</w>
D ori
administ rează</w>
w i</w>
ţi ală</w>
bin ele</w>
ech it
S il
eficac itatea</w>
y er</w>
num er
Gener al</w>
lucre ze</w>
Dre p
avan taj</w>
tar ziu</w>
f as
P S</w>
lic k</w>
mo tor</w>
intelig ent</w>
îmbunătăți rea</w>
Gru pul</w>
w ay</w>
îmb ă
gu st
z ati</w>
lu i
b on
situ ație</w>
greu tatea</w>
planu rile</w>
sof tware</w>
A ș</w>
ne agră</w>
Ră mâ
cheltuie lilor</w>
ce asul</w>
actu ală</w>
şe f</w>
n ea</w>
ven im</w>
alb astru</w>
Wash ington</w>
Wal ter</w>
organiz area</w>
B ec
combusti bil</w>
to p</w>
identific ate</w>
ine lor</w>
cheltuie li</w>
s u</w>
finanț area</w>
ofer ta</w>
respec te</w>
întoar că</w>
comerci al</w>
mo tiv
A S</w>
ur mat
K ate</w>
t ulbur
toco lul</w>
Ke vin</w>
A p
ni re</w>
o lului</w>
strân s</w>
sol dat</w>
econom ia</w>
Rom a</w>
întun eric</w>
Ac tiv
pă lă
prepar ate</w>
li p</w>
im obi
bo gat</w>
ăr e</w>
e ul</w>
A part
efec tiv</w>
M it
bi n</w>
ridic ate</w>
rezer vă</w>
parteneri at</w>
cre ierul</w>
S mit
later ale</w>
Ne w
ț ării</w>
norm ale</w>
g ât</w>
fo n</w>
certific at</w>
Bul garia</w>
consu m</w>
Şti m</w>
to dată</w>
an tului</w>
F rec
li ve</w>
S tep
cam pi
impac tului</w>
ţin ere</w>
societă ți</w>
olog ie</w>
Vor b
z eze</w>
li re</w>
Tri mite</w>
A dica</w>
detec tiv</w>
continu at</w>
Famili a</w>
ter mine</w>
du min
Tre ci</w>
tr ai
ca ți</w>
R am
proiec telor</w>
funcțion ează</w>
auto bu
M el
A N</w>
l ate</w>
S cri
uci u
F aci</w>
Sf ân
impor turile</w>
Per fect</w>
tr a</w>
cu p
ANEX A</w>
stri cat</w>
H y
propri e</w>
sap tam
rapor tare</w>
ur in
rezol vat</w>
limi tele</w>
Te h
vot at</w>
viz ate</w>
sexu al</w>
O pri
de pl
AUTORI ZA
Por tu
B a
T A</w>
gran i
ten siune</w>
ca uciu
mi lă</w>
păr ut</w>
disp une</w>
cor pului</w>
pă să
dure rea</w>
ştiin ţă</w>
z ată</w>
tu r</w>
N U
je fu
bă gat</w>
sc an
du ceţi</w>
Lu mea</w>
sufle t</w>
Ră zbo
guno i</w>
simil ar</w>
C at
C la
tri mitere</w>
V ro
o la</w>
e vre
E valu
reli gi
engle ză</w>
scen ari
recuno aș
mode lul</w>
Proble ma</w>
par ame
scă derea</w>
sprij ini</w>
fă când</w>
de leg
car to
rom an
extr ate
consu mului</w>
fi li
situ at</w>
pre ţu
P eri
vi lle</w>
tu al</w>
nive luri</w>
supliment ar</w>
tri st</w>
b s</w>
econom iei</w>
ţi unile</w>
de fic
scri soarea</w>
pur tat</w>
M ast
Înţele gi</w>
cooper ării</w>
b all</w>
confir mat</w>
pr u</w>
fe telor</w>
el ab
cumpăr a</w>
ad y</w>
j en
adop te</w>
S hi
respi ra
amă nun
denumi rea</w>
ave ai</w>
d atul</w>
vin eri</w>
lovit ură</w>
ŢI EI</w>
Ameri cii</w>
doc torul</w>
s se</w>
W ar
fe b
e rile</w>
S D</w>
mon o
S T</w>
Fi r</w>
inform at</w>
fotogra fi
bu cată</w>
Mă car</w>
glob al</w>
C at</w>
decizi ile</w>
UN I
an ja</w>
diferi tă</w>
Vre m</w>
ș co
ter i</w>
IN FOR
nav ei</w>
for fe
cerin țelor</w>
li er</w>
zer o</w>
at om</w>
modific ate</w>
e lui</w>
MEDI CA
obiec t</w>
ace lasi</w>
de ți</w>
încheie rea</w>
sur prins</w>
imag ine
t he
con tul</w>
A my</w>
pl astic</w>
mag ne
c m</w>
pi sc
Mul t</w>
cal cul</w>
prob ă</w>
P C
Fran ci
şti lor</w>
ocup area</w>
regi uni</w>
p omen
Inter pre
o pe
DE CI
gan t</w>
trans format</w>
lu rilor</w>
guver nului</w>
pre ţ</w>
bli ote
însărcin ată</w>
fri g</w>
fi eld</w>
pă dure</w>
num ere</w>
contr a</w>
comun itară</w>
po po
ar om
E vi
mor ţii</w>
A I
ace lor</w>
evalu ării</w>
al fa</w>
apă rea</w>
fal s</w>
meto dă</w>
b ast
respons abilită
E ST
opri m</w>
sca un</w>
po stul</w>
in gredi
vo ce</w>
f aza</w>
in ătate</w>
Dan e
p în
din am
manage ment</w>
volu mul</w>
min cin
De tec
E gi
er oare</w>
sarcin i</w>
g s</w>
ati ile</w>
întreprinde rii</w>
aliment ar</w>
tra fic</w>
rapor tului</w>
fere astră</w>
naş tere</w>
Lar ry</w>
în v
F O
schimbă rile</w>
ru p
dez vă
mo bil</w>
acor de</w>
g ori
ştiin ţi
moş ten
recipro c</w>
pl ast
o chi
in ilor</w>
depășe ște</w>
periculo ase</w>
conex i
not a</w>
f ul
pro puse</w>
nom in
car i</w>
medic amentele</w>
o asa</w>
supliment ară</w>
b area</w>
A ti</w>
f lă
E fec
ri ei</w>
funcțion are</w>
I l</w>
R ach
Apropi ere</w>
c ine
că torul</w>
identific at</w>
clădi re</w>
iz area</w>
P une
Bri an</w>
de fici
AT A</w>
s sa</w>
civi lă</w>
MEDICA MENT
risc uri</w>
cău tăm</w>
ş obol
lu ptă
Z i
de teri
cost um</w>
tu it</w>
Preşedin tele</w>
fri gi
mănân că</w>
înce apă</w>
întun ec
priori tate</w>
Dumneze ul</w>
maj ori
t le</w>
AUTORIZA ŢIEI</w>
siguran ța</w>
eligi bile</w>
le m
ci tesc</w>
indepen dent</w>
câ ini</w>
tari f
inov are</w>
supraveghe rea</w>
o are
societă ţii</w>
R a
public at</w>
oferi te</w>
Î ti</w>
ra ţi</w>
cul care</w>
de l
at ică</w>
weeken d</w>
solic ita</w>
fi er</w>
vi te</w>
Plan ul</w>
determin ă</w>
dove di</w>
si l
pat rul
com por
Maj oritatea</w>
ero u</w>
nive lurile</w>
D atori
cre adă</w>
mo bile</w>
benefici ază</w>
ic ile</w>
baie ti</w>
Sin cer</w>
at itu
pră bu
cer ul</w>
sublini ază</w>
mănân ci</w>
medi i</w>
as as
fil mate</w>
lip sit</w>
autori tate</w>
tre n</w>
W hi
se y</w>
dos arul</w>
D O
s ar</w>
man dat</w>
su perio
P AR
scen a</w>
pre umplu
ge am</w>
frumo asa</w>
maş ini</w>
denu mit</w>
per ce
aplic a</w>
te rie</w>
R oc
calcul atorul</w>
ordin ea</w>
N I
ileg al</w>
anche tă</w>
po f
Ori cine</w>
Echi pa</w>
recoman dată</w>
re por
plec aţi</w>
încon jur
căpit ane</w>
s hi
lup tat</w>
Reg i
li terele</w>
E le
co pac
re di
mo to
utiliz atorilor</w>
P la
rapo arte</w>
parten er</w>
te stul</w>
pă rii</w>
ț are</w>
Willi am</w>
tă tor</w>
pier du
fra g
Fran ței</w>
supăr ată</w>
su mă</w>
Pol onia</w>
acor dului</w>
E ner
ri ile</w>
am or
d ăr
b aţi</w>
săr u
Pă mânt</w>
între ba</w>
ti re</w>
de terminat</w>
T F
D C</w>
ie li</w>
u me
al ității</w>
Copi ii</w>
i era</w>
be at</w>
să rit</w>
bar ca</w>
îndrăgo stit</w>
ascul tat</w>
aj elor</w>
Me mb
ge ti</w>
mân carea</w>
are lui</w>
apar ate</w>
Î şi</w>
Ang lia</w>
B razi
me tru</w>
promo ve
b dare</w>
de și</w>
tân ără</w>
m ani</w>
E st</w>
si c</w>
J on
redu se</w>
legisl ative</w>
implement area</w>
Re zi
produc ţie</w>
Frec ven
ban dă</w>
se ște</w>
S tre
ori cărei</w>
Fu gi</w>
totu și</w>
pr ag
de sig
atâ tea</w>
i ro
B at
ur e</w>
sco ala</w>
pescu itului</w>
compan ii</w>
Comun itatea</w>
ace d
lim itate</w>
Lu x
pri mare</w>
Sun teți</w>
ră u
de l</w>
s lo
au de</w>
mon d</w>
i ri</w>
S S</w>
y n</w>
fap te</w>
baz at</w>
între agă</w>
ic ă
bi ţi</w>
o fer</w>
farmac ist
organis me</w>
an elor</w>
F ur
pri mite</w>
com baterea</w>
liber tate</w>
sti l</w>
de rile</w>
te d</w>
T he
Jer ry</w>
pre să</w>
amin tit</w>
PRI VIN
g ic
ce au</w>
acce ler
ascul t</w>
pune rile</w>
sub cutan
U cra
un ghi
Ir landa</w>
proa spă
lim itat</w>
între gi</w>
in f
ul are</w>
integr area</w>
Rach el</w>
Tra ge</w>
sc o</w>
do vada</w>
j ap
caracterist ici</w>
îndepline sc</w>
g h</w>
j i</w>
farmac ocine
Pri veşte</w>
PRIVIN D</w>
coordon are</w>
Co pii</w>
dumneavo astra</w>
S Ă</w>
apar ţine</w>
it orului</w>
gă m</w>
Luc rurile</w>
por un
de pozi
x ic
ent i</w>
C ân
țion ate</w>
on or
nave le</w>
demo crat
pere che</w>
neg ative</w>
li s</w>
Utiliz area</w>
fe le</w>
deş tep
M I</w>
ascul ţi</w>
nun tă</w>
ol an
amă nă</w>
ber g</w>
199 8</w>
te stare</w>
struc tura</w>
administr ată</w>
aju toare</w>
ră ni</w>
cre ască</w>
Pu r</w>
condu c
organiz at</w>
che ile</w>
Solicit ați</w>
SPE CI
experi ment
Pe te</w>
INFOR MA
ban ca</w>
con ge
bur g</w>
de pus</w>
ru bri
st ia</w>
lup te</w>
Hrist os</w>
rezul tă</w>
pe m</w>
adop tată</w>
s ate
At lan
principi u</w>
P unc
nec az
en ţi</w>
Fran ţa</w>
emisi i</w>
a .</w>
to s</w>
acele aşi</w>
al ti</w>
vân zarea</w>
be sc</w>
CO 2</w>
8 00</w>
Bi b
uci derea</w>
cep i</w>
L ocu
F l
temper atura</w>
lită ții</w>
trat ate</w>
abord area</w>
tre z
cu s</w>
J an
C U</w>
sân ger
Sim on</w>
emisi ile</w>
t ul
demo cra
caracteristic ile</w>
p asa</w>
opre ască</w>
par care</w>
hepat ică</w>
f ine
i ad</w>
Doc tore</w>
semn al</w>
ie rele</w>
veri fic</w>
tu ală</w>
şco ala</w>
sal vare</w>
L y
Per so
DI N</w>
stabile sc</w>
ipo te
ec ologice</w>
amb ul
st ice</w>
ve ge
gen e</w>
I .
Glume şti</w>
trans mis</w>
pri mă
h mm</w>
C Ă</w>
stu pi
co lor</w>
ţion ează</w>
y ou</w>
pă mântul</w>
S on
lin ii</w>
ex cur
og lin
consideren tul</w>
A ra
no stic
ocaz ie</w>
Pat ru</w>
sufici entă</w>
vic tima</w>
Tim pul</w>
Eur atom</w>
Emi ly</w>
Sin gura</w>
reac ţie</w>
fon d</w>
D ră
descur ci</w>
autoriz are</w>
C YP
ex terior</w>
sti lo
leg atura</w>
log ic</w>
şo ara</w>
Ja son</w>
T ar
ţ aţi</w>
pie țelor</w>
avi onul</w>
roş u</w>
efor turi</w>
V ân
pro to
tur e</w>
în să
şan sa</w>
dispozi ția</w>
he n</w>
apăr at</w>
aştep tam</w>
ne mer
cor up
ie tate</w>
cu plu</w>
presu pun</w>
Ma est
b ici
ex primat</w>
nenoro ci
Mic h
E ri
Sun teti</w>
M r</w>
ști ți</w>
O are</w>
T ati</w>
recuno scă
Adop tat</w>
Ch el
min istru</w>
O li
po arta</w>
or are</w>
reîn no
Sim t</w>
F ie</w>
Autori tățile</w>
, 5</w>
Înce tează</w>
institu țiile</w>
be lu
canti tate</w>
acor da</w>
Interpre tarea</w>
condi țiilor</w>
An dy</w>
intr aven
loc ală</w>
acoper i</w>
par ă</w>
benefic ii</w>
CON SI
inclu dă</w>
expl ică</w>
Mar tie</w>
pă strează</w>
cul cat</w>
câ inele</w>
ht t
Trat amentul</w>
gas i</w>
Ajun ge</w>
prive sc</w>
L im
e ască</w>
at are</w>
ti tă</w>
leg ale</w>
carac terul</w>
F ă
gă toare</w>
bun ica</w>
A h
răspun d</w>
proviz ori
P UN
sc l
prezent area</w>
cuno scută</w>
fa im
ti mă</w>
con stă</w>
cli pa</w>
ti s</w>
po ză</w>
Cal mează</w>
dispozi ţiile</w>
arteri ală</w>
să turi</w>
călă tori
ţi m</w>
leg ume</w>
gra vă</w>
lini şte</w>
țion at</w>
dispozi ţie</w>
structur ale</w>
cuno scute</w>
re for
pri vată</w>
10 7</w>
me ci
preg at
trag i</w>
ori zon
re țea</w>
ase mănă
exer c
ci une</w>
vo in
jude cător</w>
locu iesc</w>
av i</w>
or y</w>
nic ul</w>
ie ze</w>
ur me</w>
prezent are</w>
atmo s
ol d</w>
Mo dific
d am</w>
contro la</w>
an ţi</w>
prezen ţa</w>
qu e</w>
guver n</w>
fac tor</w>
d l.</w>
împrum ut</w>
pu şti
deschi derea</w>
viz ita</w>
cre ier</w>
asigur ări</w>
țion are</w>
C y
schimb e</w>
me te
ne s</w>
o anele</w>
Uit aţi</w>
stat utul</w>
por nit</w>
di stric
Ar th
modific ările</w>
m 2</w>
Str ateg
ofer tă</w>
glob ale</w>
respons abile</w>
de plas
recom pen
î ți</w>
i al</w>
s ați</w>
oblig atorii</w>
domen iile</w>
mor mân
G or
en ie</w>
comunic area</w>
ş eri
unită ţi</w>
gr i</w>
întreb am</w>
Gân deşte</w>
ţ ăr
So ţia</w>
2 50</w>
so arele</w>
S ora</w>
mun ici
ofici ală</w>
proiec tele</w>
nive lului</w>
folo sirea</w>
echip ei</w>
Chic ago</w>
transpor tului</w>
th a</w>
buge tare</w>
regim ul</w>
încre derea</w>
adân c</w>
PREZENT A</w>
SA U</w>
W h
S .</w>
vizi bile</w>
detali u</w>
tranz acțion
vo p
Amân doi</w>
Î mb
S tă
observ ate</w>
Vorbe şti</w>
milit are</w>
mu scul
chirur gic
Comun itate</w>
ati ei</w>
P ra
P un</w>
inclu zând</w>
ath er
pre cau
contrac tului</w>
c ati</w>
P ie
imagin ea</w>
furniz at</w>
ader are</w>
Su s</w>
nevo ile</w>
arhi tec
si guri</w>
acoperi t</w>
cio col
separ ate</w>
ba g</w>
Loc oten
region al</w>
oper atorii</w>
A si
B ăr
lic op
mărfu rilor</w>
g ului</w>
s w
Me di
las at</w>
Bă n
baz ată</w>
sac rific
f ici</w>
T VA</w>
V ie
calcul ator</w>
clin ică</w>
studi at</w>
In vesti
zil nic</w>
alu min
bol ii</w>
J am
transfer ul</w>
fi r</w>
Arth ur</w>
R S</w>
actu al</w>
tâ m
ven ituri</w>
im pul
maxim e</w>
Cl aire</w>
ag ă
A ia</w>
ar ca</w>
T an
în teme
apar at</w>
perspec tiva</w>
ru pe</w>
B ren
O ri</w>
Miş că</w>
in cre
aprob area</w>
ori când</w>
plaj ă</w>
obst aco
contrac te</w>
C ob
cri ma</w>
groz avă</w>
cl au
televiz or</w>
lit er
che ma</w>
A sigur
No ua</w>
biseri că</w>
DECI ZI
im pu
CONSI LI
producă torilor</w>
înregistr area</w>
P ic
transfrontali ere</w>
afec tate</w>
de b
sf ar
W ho
a prin
studi ul</w>
De și</w>
plân ge</w>
T en
relev ant</w>
omor î</w>
Ade văr
în cur
vic time</w>
K yle</w>
î r
Chest ia</w>
dimen siunea</w>
po lu
di stre
pede ap
An ul</w>
por c</w>
san sa</w>
mi ez
discu ţie</w>
ţ ăm</w>
contrac tul</w>
ieş im</w>
at er
bă taie</w>
ur â
fe min
plic ti
nop ţii</w>
fotogra fie</w>
piat ră</w>
ţine ţi</w>
mecanis m</w>
arti fici
folo sească</w>
p s</w>
adap tarea</w>
mp le</w>
tan eu</w>
parten erii</w>
Brazi lia</w>
tin ere</w>
face ți</w>
pie se</w>
sentim ent</w>
războ iul</w>
ră tă
tan t</w>
bărb aţii</w>
h ă
s une</w>
eliber area</w>
t arii</w>
Ven iţi</w>
f ine</w>
N A
L ista</w>
mode le</w>
studi ilor</w>
s fă
atra ge</w>
S cum
li ti
inter val</w>
comerci ală</w>
clari fic
co pie</w>
im p
fi gu
Bel gia</w>
cast i
mer geţi</w>
Câ ţi</w>
au dit</w>
nave lor</w>
Mat t</w>
D v
aranj at</w>
princip alele</w>
organis mele</w>
tre cerea</w>
sex y</w>
maim u
poli ţiei</w>
obser va
recomand ări</w>
uci dă</w>
Clar k</w>
raz bo
Kel ly</w>
et c</w>
acţi unile</w>
v estea</w>
Lou is</w>
In sul
br ân
re sor
stu rile</w>
instru mentelor</w>
Su b</w>
Mi ro
M S</w>
partici pat</w>
D atele</w>
cl ară</w>
scri se</w>
injec tare</w>
do log
deri vate</w>
rec ente</w>
Car tea</w>
îndepline ască</w>
desfăș oară</w>
secun dare</w>
L en
Alt fel</w>
deo parte</w>
cuprin se</w>
folo sim</w>
lip să</w>
U M</w>
S l
n tâ
li min
acți unilor</w>
produ cerea</w>
of en
Li sa</w>
y s</w>
In stru
A lice</w>
op timi
gre le</w>
pă strat</w>
comerci alizare</w>
respec tării</w>
A ri
sp art</w>
han dic
adu se</w>
Că u
parten erul</w>
me rit</w>
St ar
imag ina</w>
cri zei</w>
euro pa
deose bită</w>
Pacien ţii</w>
activită ţi</w>
ver siunea</w>
liz area</w>
tri me
cur te</w>
poten ți
pere te</w>
disponi bilitatea</w>
direc torul</w>
Do za</w>
judic i
Ade vărul</w>
constat at</w>
1 20</w>
d entul</w>
progre se</w>
cadav rul</w>
az il</w>
autobu z</w>
ptă rii</w>
institu ții</w>
categori e</w>
H or
g li
co b
CA S</w>
eg ală</w>
er at</w>
rec ru
de cor
ac c
ve lor</w>
echilib ru</w>
continu u</w>
prim ar</w>
obi s
ven ind</w>
t ulburări</w>
individu al</w>
A I</w>
ex punerea</w>
se zon
Slo ven
sec toare</w>
sprij ină</w>
fi n</w>
Rămâ i</w>
tempor ar</w>
PE SC</w>
vro iam</w>
plan ului</w>
um at</w>
Bu cur
par c</w>
ne uro
proven ite</w>
în corpor
diferi tele</w>
Comunic area</w>
re veni</w>
pre ţul</w>
decizi ei</w>
aeri ene</w>
A vi
ș tri</w>
vi re</w>
înce pi</w>
psi hi
min t</w>
ar dă</w>
avo catul</w>
Re prezent
chi ule</w>
plane ta</w>
CO M</w>
neg li
eri a</w>
pregăti ţi</w>
ob se
K im</w>
h er
Cali for
efectu a</w>
re volu
buge tului</w>
acoperi te</w>
htt p</w>
perform an
pi z
recoman dat</w>
pie pt</w>
dezvol tat</w>
Ve st</w>
introdu se</w>
ni za</w>
gâ tul</w>
mă m</w>
Do u
Re ve
ită ţile</w>
re vin</w>
aju st
Termin ă</w>
su ferin
dispozi tive</w>
distin c
Rezult atele</w>
înche ie</w>
pregăti rea</w>
aplic at</w>
linişti t</w>
în mormân
derog are</w>
H a</w>
vam pi
tat or</w>
transmi se</w>
p aş
că toare</w>
ca de</w>
An nie</w>
PI B</w>
Sto p</w>
Reg ele</w>
facilit a</w>
person ală</w>
In du
utiliz eze</w>
plic tis
s a
Le g
Em ma</w>
itu rilor</w>
B or
dimen siuni</w>
ine r</w>
încer carea</w>
ar on</w>
st ro
s ală</w>
ale gi</w>
fund ament
di z
urmă tor</w>
S ân
m ã</w>
A soci
Se an</w>
ter ap
n asul</w>
trom bo
răz bun
f at
di alog
Par k</w>
N at
partici pa</w>
Comunită ții</w>
Ni ve
comite tului</w>
bile t</w>
g as</w>
atin gerea</w>
miş to</w>
Oamen i</w>
ofiţ er</w>
adolescen ţi</w>
C ru
ac tivelor</w>
Nenor oc
o vă
cum păr</w>
ro ș
organis mul</w>
limb ă</w>
de part
cu tia</w>
f ază</w>
al ie</w>
H aw
H a
cal ității</w>
Fin an
no u
gravi dă</w>
A man
tot ale</w>
sper ăm</w>
întreprin dere</w>
Domni lor</w>
d va</w>
utiliz ând</w>
regi unile</w>
T ay
Hot ărâ
mănân c</w>
țion ează</w>
Mul te</w>
am ant</w>
nevo ia</w>
ţ ită</w>
jo curile</w>
efor t</w>
docum entul</w>
condu cerea</w>
salu t</w>
T ro
di spus</w>
ag entul</w>
no ilor</w>
ap en
ţe su
lip seşte</w>
TF UE</w>
cân tă
în ghi
întele s</w>
sublini at</w>
miş că</w>
t ându</w>
om un
ghe aţă</w>
de sc</w>
po za</w>
De mo
di rea</w>
tax ele</w>
Guver nul</w>
p ne
sti ut</w>
suge rează</w>
Ex e
ine ază</w>
re col
de pre
D ur
cri st
Câ te</w>
pre fera</w>
echival ent</w>
tehnolog ia</w>
pre ț</w>
trans forma</w>
sfâr șit</w>
pre limin
emi ei</w>
de fine
I de
A sh
ţin tă</w>
partici pare</w>
du rează</w>
oni ei</w>
g ară</w>
schimb ări</w>
usc at</w>
ac tor</w>
omor â
intro dus</w>
cetăț enilor</w>
pă ţit</w>
mes aje</w>
Jo se
li ere</w>
apu cat</w>
Obiec tivul</w>
un el
d arul</w>
R O</w>
N r</w>
Jack son</w>
a spi
C el
ni si
zon ei</w>
Univers itatea</w>
T OR
g on
cl are</w>
oper are</w>
par i</w>
căsă torie</w>
partici pă</w>
ț ate</w>
re viz
po dea</w>
buge t</w>
cân tat</w>
H il
meto dele</w>
l ac</w>
u tice</w>
cere br
fi re</w>
c ata</w>
b ră
inim ii</w>
di avo
Si gur
protej ate</w>
pre veni</w>
gesti une</w>
p ia</w>
dic ele</w>
u at</w>
TRE B
Pro punerea</w>
CA PI
diag nostic
activită ții</w>
re tro
deschi dere</w>
pozi tive</w>
r ã
vam al</w>
râ s</w>
institu irea</w>
cami on</w>
miez ul</w>
Vi r
t um
I A</w>
lun gi</w>
exploat are</w>
te ste
plec are</w>
no w</w>
specific ate</w>
exe mpl
contin ui</w>
i la</w>
cere rile</w>
te ma</w>
h uh</w>
e mis</w>
econom ie</w>
în se
it ui</w>
alege rile</w>
electron ic</w>
folo seşti</w>
dra gul</w>
Au stria</w>
an da</w>
car iera</w>
abilită ții</w>
u e</w>
desco peri</w>
e rele</w>
j e</w>
prefer at</w>
A Ţ
ze şte</w>
tră iască</w>
fl ash</w>
centr ală</w>
be m</w>
Evi dent</w>
n lo
inte lec
tre cere</w>
K are
C rist
De ce
Totu și</w>
C C
tr aver
g ul
S itu
gan dit</w>
caz are</w>
electri c</w>
ain tea</w>
Ţ IN
îndepl ini
re mun
descri ere</w>
v ast
man ag
Jo aca</w>
Lu ke</w>
V ec
diferen t</w>
în semna</w>
cop ac</w>
depen den
buz ul</w>
direc tiva</w>
confor tabil</w>
spu se</w>
origin al</w>
t ã</w>
dege tul</w>
pre vede
i os</w>
în colo</w>
ST A</w>
rest re</w>
re uș
pe tr
defin it</w>
num ită</w>
l area</w>
răspun suri</w>
ită rii</w>
contractan te</w>
acci dent
re ţe
Je ff</w>
na s</w>
superio ară</w>
so tia</w>
ger man
tră ieşti</w>
de puse</w>
mi re
întâlni rea</w>
reg ist
ot h
fur niza</w>
anu ală</w>
sănă tății</w>
ti z
mac ro
cri za</w>
form ate</w>
oblig ațiile</w>
pov est
ca ute</w>
regener abile</w>
descri se</w>
colo ana</w>
T ER
plane tă</w>
țin ută</w>
că rilor</w>
su f
grăsi me</w>
ce as</w>
măr tu
bi ju
f um</w>
dific ilă</w>
Lux emb
între abă</w>
abi la</w>
ic h</w>
ț el</w>
frigi der</w>
M aced
ati v
min ă</w>
den umită</w>
In diferent</w>
condu ci</w>
In di
A preci
minci ună</w>
â m
adop ta</w>
dur abile</w>
an te
Le o</w>
situ ații</w>
acoper e</w>
ţi mea</w>
re feri</w>
Con si
cultur ale</w>
so co
comple te</w>
minim ă</w>
moto cic
pier dem</w>
g ase
Can ada</w>
cânte c</w>
ră sc</w>
obiec te</w>
inov atoare</w>
că i</w>
cul tiv
Bu d
vie ții</w>
direc tivei</w>
sus ţine</w>
ade le</w>
matri cul
le s
facul tate</w>
evalu ări</w>
ţ uri</w>
refu gi
analiz ează</w>
i medi
Adop tată</w>
concedi at</w>
H am
tine rilor</w>
Te d</w>
E L
magaz inul</w>
al ităţii</w>
ot ule</w>
U ci
închi să</w>
nume rele</w>
ma ine</w>
ne vinovat</w>
le t</w>
dor m
trecu tul</w>
ti lor</w>
învă ţă
stră m</w>
z ap
urmă resc</w>
ine s</w>
Car l</w>
încer când</w>
rezi st
ather ine</w>
s fin
am s</w>
r ol
Par ten
ur g
verific area</w>
impre sia</w>
inte stin
complic at</w>
Li ber
tin i</w>
si on</w>
produc ției</w>
ec o
mu rile</w>
proprie tatea</w>
CI A</w>
cân du</w>
M aş
e va
p ing</w>
A gent</w>
com primat</w>
Dra ga</w>
scoate m</w>
Pr intre</w>
F ap
ăr a</w>
păre rea</w>
locu itori</w>
min gea</w>
gânde şte</w>
In te
zi ile</w>
T ine</w>
rel aţia</w>
rel ativ</w>
r ului</w>
oblig ații</w>
ciu dată</w>
la h</w>
s fo
infrastruc tură</w>
INFORMA ŢII</w>
Dec lar
furniz eze</w>
H abar</w>
pro stii</w>
acele ași</w>
der ul</w>
g y</w>
d ot
conce pute</w>
tră ieşte</w>
Serv icii</w>
poten ţial</w>
Ve ţi</w>
y o
gă seşte</w>
Cer in
d an</w>
apropie rea</w>
vre muri</w>
amb as
s âmbătă</w>
R ay
tax elor</w>
inter naţional</w>
gândi m</w>
control ate</w>
aju toarele</w>
dom nului</w>
tine re
gre sit</w>
cuprin să</w>
E P
Co re
S puneţi</w>
suspec t</w>
ro n</w>
alumin iu</w>
Închi de</w>
fi x</w>
introdu cere</w>
v ale</w>
ul terioare</w>
parten eri</w>
urm ări</w>
az ol</w>
vân ză
v ale
tion at</w>
eva luat</w>
conțin utul</w>
G h
regul at</w>
băie ți</w>
des crie</w>
mor ag
Luc y</w>
D ave</w>
ţ ate</w>
restructur are</w>
spune am</w>
pri mei</w>
li der</w>
negli j
mon stru</w>
scap i</w>
A ca
p est
folo sită</w>
de pozit</w>
de misi
region ală</w>
dure ro
d enta</w>
re fer</w>
h ăr
Califor nia</w>
Rel ax
piel ii</w>
uci d</w>
Rom ania</w>
P ho
inter națională</w>
L t
stră ine</w>
spiri tul</w>
capac ității</w>
tax i</w>
descur ca</w>
N AT
aten ție</w>
adu cem</w>
enti tăți</w>
ap aren
cum pere</w>
Vor bim</w>
sal v
ate lui</w>
p are
nation al</w>
contro lului</w>
P un
ww w
prelun gi
acce sului</w>
Po pul
enti tate</w>
S pre</w>
meto dolog
re vine</w>
ită ților</w>
constan t</w>
Sco pul</w>
de pune</w>
e dia</w>
D EN
între gime</w>
b as
administr ativă</w>
prelucr area</w>
strateg ia</w>
cauciu c</w>
ter ţe</w>
al in
Col on
sur sa</w>
tab lo
acuz at</w>
acor durile</w>
in sula</w>
al be</w>
w en</w>
o pere
l ată</w>
E liz
A par
n ast
s uro
oblig at</w>
Prom it</w>
reu şi</w>
to todată</w>
s este</w>
po ker</w>
bun icul</w>
fib re</w>
desfăş ur
supra fe
mă tuş
re parti
famil ii</w>
Con di
Cer ce
ni m</w>
dest ule</w>
at entă</w>
Gră beşte</w>
ore ze</w>
an dă</w>
iubi rea</w>
adev ar</w>
tru pul</w>
S t</w>
tot alitate</w>
tax a</w>
F a</w>
con te
F ra
ad ic
se vere</w>
che m</w>
Dră gu
CAPI TO
man ul</w>
defin ită</w>
explic at</w>
efec telor</w>
respons abilă</w>
ală p
bu lui</w>
glu me
fi ului</w>
or al</w>
fin ale</w>
sarcin ii</w>
E st
chesti ile</w>
In ce
Deci ziei</w>
analiz e</w>
I F
e licop
căl dură</w>
F unc
aliz ării</w>
ti rea</w>
au ton
altern ative</w>
dori m</w>
Rest aur
benefici ile</w>
om e</w>
dow nlo
ment ului</w>
nucle are</w>
dori ți</w>
Mul ţu
ce ri
Ori ent
fi ic
Mo ise</w>
ami ază</w>
emi se</w>
spați u</w>
V O
so ţ</w>
CAPITO LUL</w>
vi sul</w>
cre ște</w>
Su per
oraș ul</w>
fer mă</w>
Jap onia</w>
ci te</w>
mi er
muz ic
iniți ală</w>
fo stul</w>
civi liz
adăug ată</w>
mo l</w>
c lick</w>
pre aj
Â N
verific ă</w>
dis cre
pasag eri</w>
2 9
mi r</w>
E d</w>
fiş ierul</w>
circul ație</w>
di stra
const ată</w>
rin ic
Princi p
sp o
determin ată</w>
importan ţă</w>
D im
Al an</w>
lu ând</w>
I artă</w>
s mului</w>
Dane marca</w>
su pre
aju starea</w>
un uia</w>
ter apie</w>
b ară</w>
apari ţia</w>
Copi lul</w>
stil ul</w>
com en
tică lo
ur mele</w>
zgom ot</w>
at urile</w>
a fiș
Face m</w>
r ar</w>
organiz ate</w>
mar fă</w>
exter nă</w>
Ar m
resp unde</w>
provo ca</w>
le te</w>
sim ți</w>
reglement ate</w>
bi bliote
pro vin</w>
ju căm</w>
institu it</w>
sân ge
op h
ace știa</w>
M â
indu st
creș terii</w>
C ui</w>
Vic tor</w>
in tim
ma x</w>
6 ,
199 5</w>
pe n</w>
Nor ve
per misiunea</w>
ito area</w>
ale geri</w>
2 4
de legat</w>
T I</w>
oper ator</w>
reu sit</w>
s and
descri s</w>
lo t</w>
cetăţ enilor</w>
Ju de
stră lu
a a</w>
ure ch
condam n
abro gare</w>
et apă</w>
deose bire</w>
Ro se</w>
l la</w>
spi rit</w>
schimb area</w>
or b</w>
fă ceam</w>
amin ti</w>
re constitu
bru sc</w>
adău gat</w>
angaj ament</w>
ban c
ă tori</w>
persoan ei</w>
ot o</w>
Ul tim
D am
che t</w>
Ci teste</w>
consumat ori</w>
vo n</w>
h am
Chu ck</w>
for ţa</w>
renun ţat</w>
Lu p
I LE</w>
vân tul</w>
coe ziune</w>
Iub ito</w>
So lu
ti st</w>
af uri
afir m
dos ar</w>
pre st
Prieten ul</w>
conform ității</w>
tax ei</w>
ban care</w>
cul tură</w>
al it
numer ar</w>
oblig ațiilor</w>
v ant</w>
co ri
d d</w>
S pun</w>
dur at</w>
1. 1</w>
termen i</w>
V III</w>
d ney</w>
de ține</w>
siguran ței</w>
explo zi
di te</w>
ameste c</w>
sprij inirea</w>
disponi bilă</w>
demon stre
g ane</w>
P U
Pre mi
extin derea</w>
C lo
met al</w>
bom bă</w>
R E</w>
mijlo acele</w>
E LE</w>
organis melor</w>
re stitu
sentim entele</w>
och el
lo w</w>
constru i</w>
descur cat</w>
ol ice</w>
min i
teat ru</w>
standar delor</w>
iniţi ală</w>
t un</w>
Face ţi</w>
cur aj</w>
co respunde</w>
o uă</w>
referi re</w>
Car ter</w>
nu mite</w>
tri co
M eri
Vro iam</w>
le gen
iniți al</w>
afec tat</w>
o ul</w>
ac qu
aminte şte</w>
rezi den
președin tele</w>
Car ol
exist ența</w>
căpit anul</w>
ter s</w>
le agă</w>
mi gra
O n
v om
trat area</w>
lo vi</w>
ob ținut</w>
vic e
roch ie</w>
ş col
z eu</w>
ale g</w>
b lu
ex punere</w>
figu rează</w>
d era</w>
be belu
Tot i</w>
adăug ate</w>
Er ai</w>
vorbi ţi</w>
su par
ne buni</w>
st iti</w>
iub ita</w>
prim ii</w>
D y
con ţin</w>
Inter net</w>
an or
parl ament
Dra go
fu gă</w>
cur să</w>
an terioară</w>
o x
sus ține</w>
V ii</w>
ce ti</w>
di viz
d s
îndepline ște</w>
aloc ate</w>
I ni
înşel at</w>
ar itate</w>
prospec t</w>
mi rac
lan ga</w>
de con
m arele</w>
o i</w>
ca dă</w>
downlo ad</w>
ju cător</w>
Au str
P as
se g
maș ini</w>
Z i</w>
Minist erul</w>
sem nă
om oară</w>
Phi l</w>
program are</w>
sentim ente</w>
titu dine</w>
stabi litate</w>
fer mi
Sh el
de ai</w>
prelucr are</w>
invent at</w>
m ast
reprezent at</w>
- l</w>
d ator</w>
inter viu</w>
TREB UI
celor lalte</w>
public area</w>
Aten ţie</w>
O oh</w>
d ati</w>
cre ează</w>
Re d</w>
i zi</w>
PUN ERE</w>
su feră</w>
sca unul</w>
Că ci</w>
te lec
m o</w>
Reg ina</w>
P ac
nici unul</w>
integr ate</w>
cerce tării</w>
lim pe
de păr
L S</w>
ici an</w>
h omo
re aza</w>
ocu pare</w>
Su sp
electron ică</w>
provin cia</w>
Şti e</w>
elimin ă</w>
min er
co stul</w>
ști m</w>
ş a</w>
se i
ri u</w>
concuren ței</w>
Pro prie
pre siunea</w>
i lumin
M et
ru s</w>
rah atul</w>
metab o
co respon
. eu</w>
prospec tul</w>
ve ască</w>
aplic aţia</w>
Soci e
cerin ţele</w>
reflec tă</w>
multi ple</w>
contrac telor</w>
părin te</w>
consul t
Jen ny</w>
mi ere</w>
Ro ger</w>
Pro tec
În trucât</w>
v ând</w>
amănun tul</w>
tele viziune</w>
salve ze</w>
C ad
va s</w>
po ve
omen cl
e taj</w>
ol i</w>
Jo sh</w>
trafic ului</w>
F ac
b ran
g are
at om
intere se</w>
vac anţă</w>
protej at</w>
fo to
g no
glu co
ori cărui</w>
operați uni</w>
in ea</w>
for ţă</w>
cer c</w>
I C
Tay lor</w>
ab y</w>
0 .
sc and
cur suri</w>
se cu
pregăti re</w>
199 7</w>
incer cat</w>
remun er
avan s</w>
Nor mal</w>
r ati
Mul ţi</w>
pără si</w>
che f</w>
adre sează</w>
199 6</w>
con turile</w>
asisten ţă</w>
vehicul ele</w>
gre șit</w>
M ec
De scri
vizi unea</w>
origin are</w>
Per son
dez ă</w>
scăz ute</w>
il ar</w>
im puse</w>
W est
sc rii</w>
Feme ia</w>
Ț i</w>
Ucra ina</w>
las h</w>
fir ma</w>
sus ținut</w>
DECIZI E</w>
mu t
entr u
2. 1</w>
me tal
r am</w>
ab on
semn al
st ag
y o</w>
elimin a</w>
K ir
margin ea</w>
ră rile</w>
e ta
întă ri
e p
5 ,
consecin ţă</w>
ați lor</w>
Re spi
exer cit
ti pii</w>
z o</w>
g ay</w>
Pu teți</w>
potri veşte</w>
antic or
contrac tele</w>
ne apărat</w>
geogra fice</w>
fr atelui</w>
W ol
re ven
plă tite</w>
bucur a</w>
ban car</w>
concluzi ile</w>
E S</w>
între gii</w>
pul bere</w>
U răsc</w>
pist ol</w>
elimin at</w>
ai ba</w>
pie tre</w>
sor ă</w>
econom ii</w>
un gh
mu ta</w>
public ate</w>
arun c</w>
Min istrul</w>
seri oasă</w>
Mer ge</w>
tu i</w>
maș ină</w>
institu țiilor</w>
stic la</w>
se l</w>
si s</w>
D is
e pu
c ie</w>
în fri
secre tul</w>
t inerea</w>
as cu
ma est
îndepl ini</w>
lac ri
com puter
oc am
competen țe</w>
f az
câm p</w>
R on
Fi ica</w>
pă sări</w>
al ist
L os</w>
Han k</w>
Britan ie</w>
Lt d</w>
naș terii</w>
sim tă</w>
pân a</w>
milit ar</w>
Proiec tul</w>
In ca</w>
E LI
i o
me aza</w>
integr are</w>
bar bat</w>
ţi te</w>
Po zi
d t</w>
ANEX Ă</w>
St atelor</w>
pantal oni</w>
ob y</w>
val abil</w>
stră in</w>
sc at</w>
intr ăm</w>
şti ai</w>
Al ban
z ez</w>
te ște</w>
2 3
ver tic
in vo
cre sc</w>
Je an</w>
proble melor</w>
promov are</w>
ti purile</w>
serin gă</w>
Jo c</w>
E pi
spun ând</w>
p az
ti pului</w>
opre şti</w>
conţin utul</w>
pi le</w>
bile te</w>
aste apta</w>
199 2</w>
rapo artele</w>
dr am
închi d</w>
zi unii</w>
k ins</w>
Evalu area</w>
ridic ată</w>
mo duri</w>
H uh</w>
Co o
ie rea</w>
C ategori
rat ing</w>
lichi d</w>
dez astru</w>
ie si</w>
examin area</w>
G race</w>
ge anta</w>
porto fo
came rele</w>
b era</w>
gan d</w>
p âr
Hotărâ rea</w>
col or
C .</w>
confir mă</w>
n ing</w>
spe rie</w>
ure l</w>
schimbă rilor</w>
intere sele</w>
gre se
panto fi</w>
ocu pi</w>
de cur
dumin ică</w>
simp le</w>
miro s</w>
tu ale</w>
dezvă lu
autorită ţilor</w>
legă turi</w>
entu zi
s ic
f esti
Smit h</w>
ve ş
toale tă</w>
B lu
de cen
ordin ele</w>
rezon abil</w>
învă ţa</w>
securi tății</w>
să ri
â l
Ni k
E R</w>
tre nul</w>
angaj amentul</w>
sec tori
detali ile</w>
Un garia</w>
est ate</w>
petre c</w>
ado ptării</w>
cău tare</w>
comis ar</w>
Strateg ia</w>
EST E</w>
prime ască</w>
G EN
sim pat
protej area</w>
TREBUI E</w>
R ap
extraordin ar</w>
zi unea</w>
y e</w>
intr ării</w>
hran a</w>
soci ali</w>
e s
sexu ală</w>
iniţi al</w>
Dan s</w>
T ax
domni şoară</w>
re ște</w>
Dece mbrie</w>
sensibi litate</w>
s mul</w>
b ara</w>
por tul</w>
â ta</w>
A J
nu tri
vi r</w>
aplic abil</w>
condu că</w>
săr ut</w>
Me to
F i</w>
came rei</w>
lic ență</w>
popor ului</w>
al ei</w>
ar ile</w>
pro ste
notific are</w>
rur ală</w>
S ul
AŢ Ă</w>
mer si</w>
men i</w>
re produ
c ã
2 7
regul amentului</w>
substan ţe</w>
cadr ului</w>
strân să</w>
Instan taneu</w>
folo s</w>
servici ului</w>
scu ză</w>
Băn cii</w>
Aste apta</w>
ani vers
ciu date</w>
Datori tă</w>
ele le</w>
efectu eze</w>
îngroz itor</w>
o sul</w>
Inform aţii</w>
ner ă
digit ale</w>
V an</w>
ex ac
dan s
cli entul</w>
hidr at</w>
strateg ii</w>
paci entul</w>
determin area</w>
gal ia</w>
În ă
avent ură</w>
Con ferin
v echi
F le
su pus</w>
maj oră</w>
realiz ează</w>
ferici ţi</w>
gă rii</w>
relev antă</w>
coordon area</w>
V II</w>
Pub lic
one aza</w>
partici p
V E</w>
şti le</w>
ţin ută</w>
tin ut</w>
ob li
s ac</w>
Au to
price p</w>
vizi bil</w>
societă țile</w>
inte leg</w>
sem nele</w>
rapi de</w>
orient ări</w>
bin ei</w>
Su edia</w>
provo care</w>
W el
lită ţii</w>
călă to
Ple c</w>
par țial</w>
esen țial</w>
supraf aţă</w>
log od
Ex ista</w>
americ ani</w>
om at</w>
În tâ
cin d</w>
sp ân
mix t</w>
dom ici
evalu a</w>
fisc ală</w>
cum peri</w>
Re cep
ră dă
pro ces
ci unea</w>
ţin ând</w>
soli dar
pro aste</w>
absor b
Ar tic
S ho
ori bil</w>
insul ă</w>
pie țele</w>
asoci ată</w>
W oo
Biseri ca</w>
preț ului</w>
E F
pte ase</w>
co s</w>
Par i</w>
sar tan</w>
semn alul</w>
promo va</w>
lucră m</w>
dimin u
ay ne</w>
dezvol ta</w>
n ită</w>
colabor are</w>
U C
log ică</w>
er up
comport ament</w>
Gi b
aş ă</w>
Si r</w>
s că</w>
Jo ey</w>
Portu galia</w>
Mer g</w>
Gar y</w>
A di
stră zi</w>
amân două</w>
mo ale</w>
ag lo
proprie tarul</w>
pro stitu
p avi
combusti bi
corec te</w>
UTI LI
sigur e</w>
aştep taţi</w>
anti dumping</w>
gas m</w>
cadav ru</w>
PI AŢĂ</w>
Mar ie</w>
salu tă</w>
necaz uri</w>
H it
co stă</w>
ac telor</w>
v ia</w>
reg elui</w>
par in
ace lea</w>
m b</w>
K at
eliber are</w>
ocup ată</w>
sca p</w>
investi țiilor</w>
Opri ţi</w>
privin ța</w>
man dat
certific ate</w>
distan ță</w>
copi lă
concre te</w>
plă ți</w>
farmacist ului</w>
peri co
G abri
cal i
me d
culo area</w>
F ara</w>
cere mon
ain t</w>
a x</w>
can ii</w>
victi mă</w>
cur se</w>
o tră
pre vadă</w>
on ic</w>
concomit ent</w>
satis fă
-- --
z v
mun te</w>
juris dic
ă rea</w>
sf ân
bărb atul</w>
Ob serv
concentr at</w>
gal ben</w>
D OM
îmbunătăţi rea</w>
cin ste</w>
De sc
demon strează</w>
respons abilitate</w>
opera ționale</w>
d ați</w>
autorită ți</w>
z om
no ii</w>
eșanti on</w>
e go
S om
încre din
Bi r
uit am</w>
sub sol</w>
ser gent</w>
O l
sate lit</w>
protej eze</w>
u iti</w>
o țel</w>
ch ează</w>
prime şti</w>
capit ol</w>
h ră
Lucre z</w>
aju tăm</w>
ran a</w>
Ve gas</w>
Produ se</w>
cont amin
aband on
G il
E di
petr ol</w>
incen di
sp ati
N an
Ad un
o stat
con teaza</w>
A me
O c
subiec tul</w>
V ol
câşti g</w>
Mor gan</w>
mănân ce</w>
salve z</w>
evalu ate</w>
Dre apta</w>
Su san</w>
S at
zic em</w>
fabri carea</w>
m ut</w>
pl en
scăz ută</w>
energe tic</w>
w in</w>
D ie
P L
J ones</w>
în vâr
deschi d</w>
S tat</w>
Mâ inile</w>
du c
E ar
integr al</w>
clădi rea</w>
12 34</w>
in totdeauna</w>
eviden ţi
w it
bine înţeles</w>
F A
De an</w>
so ară</w>
lu am</w>
con sti
băn ci</w>
fic at</w>
l ag
su c</w>
ch ei</w>
Justi ție</w>
j ă</w>
profesioni st</w>
po l</w>
gener ate</w>
To ata</w>
Af gan
regim ului</w>
men ține</w>
Excel ent</w>
199 4</w>
po ş
hran ă</w>
1 5.
so s</w>
La ura</w>
cerce tarea</w>
mij loc
activită ţile</w>
Peri o
Ascul taţi</w>
ban da</w>
ge t</w>
li ul</w>
ur gent</w>
ş teşte</w>
gu rii</w>
So ţul</w>
dez batere</w>
tribun al</w>
iu rile</w>
IS O</w>
spe rii</w>
min une</w>
france ză</w>
genun chi</w>
sco ţi</w>
Pro tocolul</w>
ver siune</w>
ce ară</w>
materi alelor</w>
decizi ilor</w>
de au</w>
an s</w>
şe ască</w>
Rec om
nost ri</w>
aprob are</w>
recuper are</w>
cre scută</w>
identi tate</w>
su ger
he morag
UN IT
telefo ane</w>
anche tei</w>
comun ică</w>
I P</w>
identific a</w>
administr ate</w>
ope rează</w>
va ți</w>
men tează</w>
echip ament</w>
producă torul</w>
pier deri</w>
bar că</w>
Ab by</w>
ati vele</w>
sănăto s</w>
partic ule</w>
su sten
inform atii</w>
bucu rie</w>
at ã</w>
Ț II</w>
st ocu
forfe tare</w>
alo n</w>
in c
UNI UN
tr ata</w>
ie sit</w>
econom ici</w>
s itul</w>
Char lo
i de</w>
fiș ier</w>
Patri ck</w>
fo sta</w>
poten ţi
Ne g
disci pl
raz na</w>
ex ag
incre dere</w>
întreru pt</w>
Ban ii</w>
re tras</w>
F AR
prezent ată</w>
fil mat</w>
în fă
Reve lion</w>
w e</w>
antre pre
oport unitate</w>
înnebun it</w>
L it
d ale</w>
at ing</w>
ve lo
preț uri</w>
ag it
sec toarele</w>
Arun că</w>
ro bo
Sim p
car nea</w>
Bă nuiesc</w>
chesti uni</w>
re mor
De partamentul</w>
lan dul</w>
sun et</w>
scri să</w>
dez gu
V iz
îndo iesc</w>
ea h</w>
z dro
rec ic
artico lelor</w>
T ică
ordin ul</w>
im potriva</w>
aprovizion are</w>
şti ri</w>
um fl
iu s</w>
e mit
șco ală</w>
Gru pului</w>
199 0</w>
ocu pe</w>
incen diu</w>
Fo c</w>
i ala</w>
sim tit</w>
at urii</w>
am plas
T a</w>
S fin
Mex ic</w>
ate s</w>
aş e
- Am</w>
V ar
reg ina</w>
legisl ativ</w>
fere astra</w>
moder niz
solic itate</w>
gă siţi</w>
Mag gie</w>
cu ant
m ol
ie rii</w>
anun ţ</w>
contro le
aglo mer
kilo metri</w>
ce şte</w>
tu rist
termin ăm</w>
re vol
n ar
du ş</w>
no te</w>
asigur at</w>
e e</w>
bău turi</w>
i ri
fu rie</w>
M ier
M mm</w>
ven iturilor</w>
R A</w>
pu şi</w>
vi lor</w>
Câ teodată</w>
W at
AT I
pe te</w>
declar ație</w>
Ve deţi</w>
ad jun
A SC</w>
recunoaş te</w>
roch ia</w>
pîn ă</w>
me til</w>
caz urilor</w>
spă lat</w>
locu ieşte</w>
bate rii</w>
In dic
t ã
europa .eu</w>
Reac ţii</w>
ț ită</w>
diferi telor</w>
re lig
consul tan
Kare n</w>
în gră
ră i</w>
medic amentul</w>
comport amentul</w>
G I
câ sti
băn cii</w>
gen te</w>
ob tinerea</w>
C rac
ac tori</w>
Eliz ab
T al
util aje</w>
situ aţii</w>
CONSILI UL</w>
pe ște</w>
bag i</w>
Bi g</w>
elabor at</w>
C ab
J .</w>
per si
investi ţii</w>
pon der
execu tiv</w>
a ște</w>
gaz dă</w>
concomit entă</w>
Con stitu
însu şi</w>
provizori u</w>
ec ologică</w>
realiz ată</w>
standar di
ic ilor</w>
miro ase</w>
în dreaptă</w>
partici pe</w>
V il
rel aţii</w>
în matricul
injec tor</w>
maj or</w>
cu tii</w>
val or
w an</w>
con fuz
ul terioară</w>
oper atorilor</w>
ca fe
Li p
gru purile</w>
fr omat</w>
ado r</w>
Doc torul</w>
împie dică</w>
Fap tul</w>
aliz ează</w>
docu mentelor</w>
comun itatea</w>
NAT O</w>
M ami</w>
pen ie</w>
tr op
învă ță
referin ţă</w>
I i</w>
Bo s
Stre et</w>
Securi tate</w>
Acor dului</w>
îmbă trân
cal m</w>
a va</w>
declar aţie</w>
consi dera</w>
Tra ducerea</w>
respec tivul</w>
pas ăre</w>
obiș nu
M ac</w>
cin ci
pro pi
direc ţia</w>
D ATA</w>
B C
mul time</w>
SE C
piz za</w>
exportat ori</w>
ș i
mân căm</w>
urmări re</w>
clasific ate</w>
calcu lează</w>
lin ist
prelucr ate</w>
sac ri
inter vi
ace ia</w>
U lei</w>
Parl ament</w>
științi fice</w>
mar k
fant astic</w>
prece dent</w>
carti er</w>
ace e
supraf ață</w>
handic ap</w>
argin t</w>
30 .
ter ță</w>
inten sific
ev ad
or gane</w>
lucr ări</w>
că tură</w>
ci os</w>
respec tul</w>
dest i</w>
y d</w>
one zi</w>
anche ta</w>
recuno scute</w>
bre ve
n on
popul ație</w>
experi enţa</w>
acți unea</w>
legisl aţia</w>
coment arii</w>
por um
ar y</w>
implic area</w>
B lo
pă i</w>
ga ură</w>
cerce tă
ascun zi</w>
dă un
K u
tri mită</w>
br on
g ată</w>
c ran
organiz ații</w>
sper anţă</w>
num arul</w>
b ot
cu rilor</w>
2. 2</w>
solu ție</w>
rec l
mari time</w>
E LOR</w>
cur sa</w>
b it
ieş ire</w>
A dre
cere rilor</w>
condam nat</w>
ven iturile</w>
G he
Cre deţi</w>
ți unii</w>
ş te
înregist rează</w>
dă tor</w>
pi lor</w>
F eri
cin stit</w>
2 8
so arta</w>
poliţi şti</w>
ordon at</w>
bol navă</w>
en z
Punc tul</w>
autoriz ată</w>
scri sori</w>
garan ții</w>
1. 2</w>
dimen siune</w>
20 .
Ide ea</w>
în frun
po d</w>
stră inătate</w>
reprezent a</w>
vi er
in t</w>
L uci
pun ea</w>
liti gi
e tan
m ări</w>
diferen ţa</w>
Fre d</w>
volu m</w>
se aza</w>
mi lor</w>
Vin cent</w>
celor l
avi r
In spec
Apreci ez</w>
disp ari
Zo om</w>
P ul
înregistr ată</w>
ca sele</w>
ti san
s atul</w>
po arte</w>
p âine</w>
Aştep taţi</w>
Tim p</w>
coleg ii</w>
Com pania</w>
lib era</w>
B A
în frân
pen sion
Direc tor</w>
N athan</w>
S oph
O f
revizu ire</w>
pan ie</w>
în veţi</w>
AR Ă</w>
vâr f</w>
investi țiile</w>
negoci erilor</w>
teri bil</w>
de vii</w>
are ste
supor ta</w>
F abri
3. 1</w>
Sch en
excel ent</w>
de legate</w>
mecanis me</w>
ele n</w>
ador mit</w>
mu s</w>
provo cat</w>
Ă la</w>
jo i</w>
gol f</w>
fe lic
ne vinov
E th
L as
Ș ti
ci n</w>
ci d</w>
oper aţie</w>
în jun
min istrul</w>
pro punerii</w>
vân ătoare</w>
on are</w>
limb i</w>
- E</w>
ve y</w>
vân t</w>
căr ţile</w>
A men
pro fund</w>
cu sto
ast azi</w>
anun ţat</w>
păstre ze</w>
In tere
ști ut</w>
V ai</w>
răspun dă</w>
acor dare</w>
sk a</w>
prin dem</w>
no ștri</w>
Me s
e p</w>
An ne</w>
lucră rile</w>
ri ce</w>
po l
cre eze</w>
al că
inform atice</w>
ţ ărilor</w>
re put
Re spec
di alog</w>
dragu le</w>
Mis s</w>
din i</w>
aface rile</w>
co li
obişnu ită</w>
ger man</w>
ge ți</w>
Medic ul</w>
Af ară</w>
indic ate</w>
Charlo tte</w>
1 6.
R adi
Bă iatul</w>
pre sa</w>
k ing</w>
confi gur
ab solu
famili ile</w>
Î ți</w>
tarif are</w>
rom ân
că rie</w>
cân ta</w>
fi ii</w>
operați unile</w>
termin i</w>
U N</w>
T im</w>
viru s</w>
ace ști</w>
alt ora</w>
iub itul</w>
h u
L .
Feme ile</w>
altern ativă</w>
J um
de bar
num ără</w>
IN E</w>
cer ului</w>
râ u</w>
vorbe am</w>
St atul</w>
deșe uri</w>
iub i</w>
infrastruc turii</w>
certific are</w>
adă post</w>
Ultim ul</w>
Şti ai</w>
nu mi</w>
ambal aj</w>
ine l</w>
ai u
A plic
Lil y</w>
strateg ice</w>
în lă
ră pit</w>
w s</w>
schimb i</w>
pantal onii</w>
demon str
afir mă</w>
pen sii</w>
princi pii</w>
D ru
conflic t</w>
gru purilor</w>
de dic
Elizab eth</w>
h h</w>
fal se</w>
denu mite</w>
ab i</w>
z du
pi re</w>
S aint</w>
C ăr
înlocu ieşte</w>
lini ile</w>
bom ba</w>
pun ând</w>
di vers
L or
scu fun
provo cări</w>
păr ţile</w>
ce şti</w>
par al
tre az</w>
tit luri</w>
ly n</w>
ar unci</w>
No ul</w>
liv rare</w>
majori tate</w>
an ții</w>
Pă cat</w>
frecven ţă</w>
ici te</w>
si ile</w>
Contin u
aplic abilă</w>
pre ot</w>
echip amentele</w>
cap sule</w>
E lec
în ca</w>
C ase
fu sese</w>
mas s</w>
Ave ti</w>
vie ţile</w>
pat ra</w>
fer on</w>
lib ere</w>
atra s</w>
1 4.
averti zat</w>
Ho ward</w>
af ri
pie sa</w>
mi steri
h am</w>
prime şte</w>
coman dat</w>
cur ată</w>
an ne</w>
A min</w>
datori e</w>
B ea</w>
zic e
r ate
p y</w>
ț ată</w>
ob ţinute</w>
o se
iz o
guvern amentale</w>
biseri ca</w>
fra ţii</w>
analiz ei</w>
Ad ri
roş ii</w>
inter dic
în cu
recomand ările</w>
Ange les</w>
organis mului</w>
Înce pe</w>
s fer
pregă tesc</w>
form ula</w>
combin ate</w>
utiliz atori</w>
Re gre
ur cat</w>
EN ŢI
acţion ează</w>
arun că</w>
be lor</w>
acțion ează</w>
Frecven te</w>
ob tine</w>
L ady</w>
perform anță</w>
pasi une</w>
exper t</w>
eta pe</w>
resp ins</w>
mier curi</w>
er n
transp lan
tex tile</w>
in cat</w>
trans mit</w>
rezi sta</w>
Nici un</w>
C ir
pul mon
fabri că</w>
Po ți</w>
aplic ată</w>
Ră spunde</w>
Căpit anul</w>
fap tele</w>
mari tim</w>
consul tare</w>
tempor ară</w>
ni s</w>
identi tatea</w>
dom n</w>
tr ase
îm potrivă</w>
uci zi</w>
Câ teva</w>
Urmă torul</w>
re ch
deranj ez</w>
lan dei</w>
categori ile</w>
vi sat</w>
tră im</w>
gene tic</w>
B C</w>
ri b
hepat ice</w>
www .
memo ria</w>
cân dva</w>
societă ților</w>
puter nici</w>
or ale</w>
p ã
for mele</w>
Sloven ia</w>
B as
în cal
căpit an</w>
pe tro
m ain
posibi litate</w>
pomen it</w>
fă cu
in ic</w>
perio dic</w>
concuren ță</w>
tab ără</w>
on oarea</w>
afi li
nat urii</w>
l ici</w>
contribu ția</w>
cauz ate</w>
transpor tat
treze sc</w>
glic emiei</w>
ag reg
so ri
lu x</w>
deştep t</w>
J ulie</w>
G a
im peri
elec tro
Je sse</w>
situ ației</w>
CR R</w>
ze sc</w>
rămân em</w>
Valo rile</w>
activ at</w>
A nim
sto p</w>
pute rile</w>
accep t</w>
ex primate</w>
cetăţ enii</w>
practic a</w>
ar mat</w>
s ari</w>
Sh er
s am
in ven
chim i
stră luc
reuș it</w>
proto col</w>
prac tice</w>
b ată</w>
fi lo
lun gime</w>
cal ul</w>
bucuro s</w>
k er
ascun d</w>
de plină</w>
B ai
s ase</w>
întreprin derea</w>
mi ţi</w>
ex prim
w or
slă bici
coleg iu</w>
încălzi re</w>
E u
I st
pie să</w>
înca dre
ti g
cul tura</w>
fronti eră</w>
tă ţilor</w>
f ră
ocam dată</w>
inter zi
at oarele</w>
lan sarea</w>
Z ă
Lini şte</w>
S elec
c itate</w>
Schen gen</w>
menţion ată</w>
celu lele</w>
rețele i</w>
nev asta</w>
Ch lo
o ut</w>
ar bi
Că lă
u tului</w>
Jul ia</w>
solu ții</w>
E N</w>
mat ei</w>
Con stan
locu it</w>
ro z</w>
reci pi
or a
te mă</w>
I X</w>
w hi
We st</w>
R PC</w>
der anja</w>
A sia</w>
sensibi l</w>
h e</w>
D in
stabile şte</w>
resor tisan
B la
pro fun
cot a</w>
buzun ar</w>
pache tul</w>
ord an</w>
Capit olul</w>
sem nul</w>
sec olul</w>
uim itoare</w>
respec tiva</w>
w er</w>
le zi
ţ ui</w>
spân z
pic ă
încân tat</w>
transmi terea</w>
stabi litatea</w>
so ția</w>
efici ența</w>
S pune
Le on
pute ai</w>
in ului</w>
execu tarea</w>
plec am</w>
pacien ții</w>
In ima</w>
og le</w>
şan se</w>
câ ţi</w>
apen dicele</w>
Ciu dat</w>
Au zi</w>
cron ică</w>
na h</w>
Luxemb urg</w>
ot h</w>
re l</w>
plă teşti</w>
ami aza</w>
not ă</w>
a erul</w>
pie țe</w>
co me
fon ul</w>
veri fice</w>
jum atate</w>
Mun ten
aband onat</w>
mi st
arti st</w>
inter og
dat ei</w>
impor tat
furi os</w>
com una</w>
asigur ării</w>
su fl
memo rie</w>
g area</w>
v ascul
solicit area</w>
ne mai
echip amentul</w>
Scu zati</w>
ren a</w>
mar ke
Mulţu mim</w>
ieș ire</w>
computer ul</w>
preci zează</w>
materi alele</w>
e la</w>
me tro
teh nici</w>
e mite</w>
R ol
preci s</w>
târ fă</w>
Muz ica</w>
chi lo
geogra fică</w>
utiliz atorii</w>
ex punerii</w>
ridic e</w>
b ati</w>
Jack ie</w>
E v
mar ca
clu bul</w>
k n
aj a</w>
pre sedin
public ul</w>
ic ule</w>
aju stare</w>
compar ație</w>
K ing</w>
benefici ul</w>
bi lan
Tex t</w>
A aron</w>
ză p
strate giei</w>
B .</w>
privi t</w>
ciocol ată</w>
mul tu
fi ică</w>
decl ară</w>
cif re</w>
pro aspe
paci entului</w>
minci uni</w>
experi ență</w>
mărtu rie</w>
co n</w>
au dă</w>
UNIUN II</w>
k in
medic amentului</w>
li mite</w>
u lo
mă re
e vo
K it
urmă reşte</w>
turis m</w>
pag ină</w>
D al
ileg ale</w>
primi rea</w>
indic iu</w>
Mol ly</w>
întreb aţi</w>
carto fi</w>
dorin ţa</w>
I g
Agen ția</w>
su dul</w>
observ ații</w>
agricul tură</w>
îmbunătă ți</w>
s ant</w>
cetăț enii</w>
dat orează</w>
Părin ţii</w>
Opre ste</w>
cau ta</w>
F lash</w>
re dac
cutan ate</w>
I ra
cauz at</w>
im pozi
determin ate</w>
Afgan istan</w>
miro sul</w>
drag ut</w>
exist enţa</w>
stric t</w>
m ami</w>
vân du
k in</w>
inte gri
Oli ver</w>
L ic
i dent
C L
Adevăr at</w>
tică los</w>
aminte sti</w>
pl aci</w>
John son</w>
Ace l</w>
3 1.
ing s</w>
u ţi</w>
lu m
Mier curi</w>
tic i
meri ta</w>
efec tivă</w>
Ţ ine
micro grame</w>
ce s</w>
extrate re
sănă tăţii</w>
chim ică</w>
cap cană</w>
sc or
france z</w>
vo ştri</w>
războ iului</w>
îm puter
ge rile</w>
apăr area</w>
an gi
M an</w>
exper ți</w>
ca s</w>
capă tul</w>
înțele ge</w>
i este</w>
cu an
compar aţie</w>
A cu
cultur al</w>
E M
ţi unii</w>
defici en
aș teaptă</w>
indepen dente</w>
h om
natur ală</w>
închi se</w>
vie ţi</w>
o lic</w>
inv ită</w>
o st
obser vă</w>
men ite</w>
g ită</w>
ast ia</w>
ș apte</w>
începe rea</w>
e po
ten siunii</w>
p ice</w>
sf atul</w>
M au
pl ine</w>
pist olul</w>
pas age
acee asi</w>
măsur are</w>
moder ne</w>
sim ţiţi</w>
gen o
z ării</w>
ling vi
0, 5</w>
ram as</w>
luc ru
te s</w>
st ării</w>
M arele</w>
man n</w>
pute au</w>
statist ice</w>
reac ţiile</w>
m ane</w>
S -</w>
ver să</w>
entuzi as
con ta</w>
mar tori</w>
S ara</w>
Ro ss</w>
1, 5</w>
lu are</w>
suspen sie</w>
serv i</w>
men ţine</w>
apro pia</w>
ic ului</w>
plân g</w>
s ine
criteri ilor</w>
consi der</w>
ar h
re ţele
dobân zii</w>
demon stra</w>
Centr ală</w>
le ş
d afi
L ab
piat ra</w>
operați unilor</w>
puter i</w>
echip amentelor</w>
bi te</w>
stră ini</w>
Den umi
ț umi
şedin ţa</w>
ă tatea</w>
transpor turilor</w>
țe aua</w>
susp ici
câ teodată</w>
H un
F is
finan ţare</w>
câşti gă</w>
. europa.eu</w>
notific at</w>
Maş ina</w>
public itate</w>
h ol</w>
spectac olul</w>
de zi</w>
bo y</w>
pozi țiile</w>
bor dul</w>
Re bec
o chiul</w>
Ar t</w>
progre sul</w>
condi ţia</w>
A pl
ast ron
ad o</w>
Ric k</w>
g aţi</w>
sărbă tori
ec ran</w>
pe ten
elimin are</w>
ai ul</w>
îmbră cat</w>
ri n</w>
bu cat
rubri ca</w>
imp lor</w>
g ent
Austr alia</w>
solu ţia</w>
. com</w>
competen ța</w>
com pus</w>
a untru</w>
învă ţ</w>
Go ogle</w>
Conven ția</w>
notific area</w>
tific area</w>
bu tonul</w>
te ama</w>
Mă n
Pr ac
sexu ale</w>
tr as
pu tin
P ur
A ți</w>
mo dul
sprij ini
y l
so ţiei</w>
adev arul</w>
Rez er
lucră toare</w>
legisla ţiei</w>
consumat orii</w>
bo x
Amb ele</w>
Pu ţin</w>
Con turi</w>
18 0</w>
teren ul</w>
inter valul</w>
var ietate</w>
Ă TOR
patrul ea</w>
mincin os</w>
producă torului</w>
plo aie</w>
viru sul</w>
mar ul</w>
obic e
se amănă</w>
fu z</w>
die ta</w>
o rele</w>
echi pe</w>
profesion al</w>
injec ţie</w>
împie dica</w>
ion al</w>
poten țial</w>
tine rii</w>
Studi ile</w>
obser va</w>
nisi p</w>
At âta</w>
u tică</w>
continu area</w>
absen ța</w>
go ală</w>
feb ră</w>
b le</w>
ş at</w>
er o</w>
de ven
st oc
echival ente</w>
îngro pat</w>
ec at</w>
exploat area</w>
sprij ine</w>
co st</w>
op țiuni</w>
cor d</w>
ce ască</w>
Stri ptease</w>
ER CI
particul ar</w>
trag ă</w>
oblig atorie</w>
victi mele</w>
au tor</w>
adre să</w>
consul tarea</w>
Sub stan
Sim ilar</w>
În cep
iz a</w>
Car ol</w>
un itar</w>
pro sti
pr o</w>
lovit ura</w>
dispozi tivul</w>
Sl avă</w>
Echi p
zi ar</w>
ulti mă</w>
înche iate</w>
sc ar</w>
plân s</w>
întâlni ri</w>
urmă torii</w>
plac ut</w>
199 3</w>
d ară</w>
li ei</w>
j am
dispozi ţiilor</w>
consider abil</w>
co sta</w>
z on</w>
Chlo e</w>
C o</w>
proven ind</w>
urb are</w>
estim at</w>
intor s</w>
z gâ
pu şti</w>
gen iu</w>
capit alului</w>
antic i
AE LS</w>
p ina</w>
gr am</w>
curaj os</w>
sco ată</w>
politic os</w>
sca de</w>
revizu irea</w>
v u
mi ze
S ing
o lele</w>
Bar ry</w>
misi unii</w>
asist enta</w>
ince pe</w>
hor mon
ş ar
De pinde</w>
con ști
N ation
pute rii</w>
tat u
disp ară</w>
re k</w>
sarcin ile</w>
C af
ur u
san gu
ve ază</w>
in sec
șan să</w>
experi en
simil ară</w>
dispozi ţii</w>
sp ori</w>
N B</w>
un dă</w>
faci li
An d
cur ajul</w>
Aman da</w>
P lus</w>
Tică lo
conşti ent</w>
aprob ate</w>
2 2
urmă toarelor</w>
ine lul</w>
ap elor</w>
Fin landa</w>
trafic ul</w>
he mat
bă nu
lin iu
jur ă
tr at</w>
cunoaş tem</w>
garan teze</w>
îm par
pri vi</w>
totu si</w>
istori c</w>
an ei</w>
s abia</w>
bi la</w>
T S</w>
n it
manu al</w>
pre ună</w>
inclu derea</w>
in toarce</w>
................ ................
o cul
Chel tu
ți te</w>
tot alul</w>
bu mb
ro ck</w>
hotărâ rea</w>
ri at</w>
şe fu</w>
ST I
plan telor</w>
hain a</w>
t oni
Dou g</w>
B .
re țele</w>
eli bera</w>
g ate</w>
Iu da</w>
întrebă rile</w>
milit ară</w>
cumpără turi</w>
vânz ări</w>
tari fe</w>
d aţii</w>
accep tă</w>
bl on
ţe sc</w>
Parti dul</w>
Qu in
mulţu mit</w>
fan te
auto buzul</w>
de ținute</w>
ni rea</w>
mot orul</w>
mo le
mar cat</w>
A A
s k</w>
defini tiv</w>
cur tea</w>
principi ilor</w>
pi ardă</w>
o pi
mențion ează</w>
băn cile</w>
uti lă</w>
ti ti</w>
cre dea</w>
Băr b
tradu cere</w>
cas atori
fu gi
Ro bin</w>
brân ză</w>
rib avir
uni formă</w>
pri mului</w>
ri ton
jucă tori</w>
ief tin</w>
Co d</w>
campan ie</w>
Tex as</w>
examin ate</w>
de mi
V Ă</w>
îngrij ire</w>
tranzacțion are</w>
se ori</w>
gra s</w>
comer țului</w>
rela ţiile</w>
conform itatea</w>
proc ent</w>
O bi
volun tar</w>
L et
mări mea</w>
scum p</w>
re trage</w>
progre sele</w>
is mului</w>
g in</w>
B ay
ştiin ţa</w>
um ple</w>
gă zdu
ră scum
metab oli
jur at</w>
di ame
grat uite</w>
exercit area</w>
de co
I R
reprezent ând</w>
b ase
ur s</w>
Ch ri
inter oper
ze cea</w>
vorb ea</w>
S H
s otul</w>
gri jo
to ase</w>
sub ter
u d</w>
ban ilor</w>
hemo glo
D AC
poli ți
car d</w>
limpe de</w>
curen te</w>
tre n
Polit ica</w>
B ER
studi ului</w>
popo r</w>
hi s</w>
Or gasm</w>
to tii</w>
et ajul</w>
sigur a</w>
er n</w>
i ra
feti ţă</w>
der son</w>
cele b
tax ă</w>
re dre
panto fii</w>
soli de</w>
case ta</w>
C .
price put</w>
g amă</w>
le u
un it</w>
sentim entul</w>
semne ază</w>
trans form
fir mă</w>
depoz itare</w>
con venit</w>
e k</w>
D .
mon et
averti s
u th</w>
loc k</w>
achizi ții</w>
Perio ada</w>
indust rie</w>
O fi
C D</w>
câști gat</w>
abord ări</w>
excur sie</w>
Tot al</w>
oferi m</w>
func ţiei</w>
b unul</w>
Ist ori
simpto mele</w>
respec tivele</w>
ele gant</w>
cuno scu
antren ament</w>
x ie</w>
pis ica</w>
inten s
vâr ful</w>
oper area</w>
liz at</w>
aer ului</w>
Ed ward</w>
si lic
despăr ţit</w>
Părin te</w>
deci dă</w>
e ta</w>
viz itat</w>
sti am</w>
par curs</w>
oper atorul</w>
Fi ţi</w>
omun ic
pu ţine</w>
pre scrip
indic e</w>
STR ARE</w>
ch it
I I
conclu zia</w>
Par ker</w>
men ținerea</w>
I eri</w>
activită ţii</w>
G ura</w>
Je f
stră du
pe is
me se</w>
desig n</w>
1 12</w>
organiz ațiile</w>
ară şi</w>
mul ta</w>
in titul
E du
cor dan
pro st
hipo glice
Să ptămân
Con sul
w a</w>
contro ale</w>
diferen ţă</w>
Po sibi
I N</w>
so arelui</w>
produc ţia</w>
călă tori</w>
creş terii</w>
răspun zi</w>
observa țiile</w>
de rilor</w>
afec ţiuni</w>
com is</w>
cre ate</w>
clădi ri</w>
S pan
înce tează</w>
ş tea</w>
S UN
Con centr
Încep ând</w>
fur t</w>
T est
urm ată</w>
MIN I
en s</w>
situ ate</w>
continu ăm</w>
Plec aţi</w>
J o</w>
ţ o</w>
fas cin
cre scute</w>
încăr care</w>
3. 2</w>
mondi ală</w>
înțele g</w>
ne te</w>
Ri dic
Îm păr
lucră rilor</w>
principi ului</w>
inter naţională</w>
po t
muri m</w>
interes antă</w>
bu to
bai at</w>
bi ei</w>
ră mă
garan tate</w>
- De</w>
ac itatea</w>
Sper am</w>
părin ţilor</w>
ru lo
in are</w>
D est
min ori
antrepre no
ați unilor</w>
imagin at</w>
cul ori</w>
Mi j
tranz itorii</w>
ac tul</w>
R an
îm pră
om i
fac torii</w>
dezvol tate</w>
bi li
Car ac
tr ai</w>
fu g</w>
vot ul</w>
const itui</w>
ali m</w>
1 10</w>
administra ție</w>
temper atură</w>
victi mei</w>
acor durilor</w>
J ay</w>
st oc</w>
ne ss</w>
do bor
f ã
de şe
ra fin
şedin ţă</w>
lu mi</w>
intelig entă</w>
ro p</w>
fabri cate</w>
pozi tivă</w>
ir lan
po ta
compu ter</w>
oxi gen</w>
in ţa</w>
ar dere</w>
pedeap sa</w>
Bo ston</w>
Al i</w>
econom i
apar atul</w>
mar ine</w>
ot ice</w>
gră dină</w>
singur e</w>
b ari
Crac i
F an
Andre w</w>
den atur
civi l</w>
T âr
constru irea</w>
împrumu turi</w>
tin d</w>
fer ti
ac ului</w>
C AL
I .</w>
Du re
pag ini</w>
german ă</w>
p entru
din ainte</w>
interven ţie</w>
conec tat</w>
ci teşti</w>
indic atori</w>
su ver
cău taţi</w>
profe sorul</w>
clien ţii</w>
mag ie</w>
acţi ilor</w>
S um
Ră mân
er t
în grijo
în cadr
Norve gia</w>
contr ar</w>
W en
Al bert</w>
folo siţi</w>
ad unat</w>
imagine z</w>
T am
om i</w>
Fon dului</w>
extin de</w>
supr ado
re ședin
ve s</w>
te stele</w>
că torii</w>
H ay
pre zi
j af</w>
o gă
Ace la</w>
B O
solu ţii</w>
respec tate</w>
a e
Ber lin</w>
ol ică</w>
sol daţi</w>
consoli da</w>
ca re
F F
func ţia</w>
dat orez</w>
de semnat</w>
con curs</w>
H elen</w>
zah arat</w>
tehnolog ice</w>
acoperi rea</w>
N ate</w>
iz ate</w>
Hit ler</w>
Nive lul</w>
go ale</w>
acţi unea</w>
COM ERCI
Ser gent</w>
vi sele</w>
lu ați</w>
arun ce</w>
aline at</w>
ac ade
complex e</w>
sul f
sal vezi</w>
MA I</w>
în alte</w>
fiic ei</w>
W i
S P</w>
de mult</w>
cic lu</w>
tre zi</w>
m mol</w>
in grij
d ay</w>
2 6
Măn ân
E RI
C en
s ita</w>
rat ei</w>
rapor tor</w>
ex amen
inter zis</w>
2, 5</w>
intraven oasă</w>
Mast urbare</w>
Je ss
en ia</w>
Ty ler</w>
redu ceri</w>
comple ta</w>
sho w</w>
esen ţial</w>
nucle ară</w>
infec ţie</w>
nev astă</w>
Tribun alul</w>
spune ai</w>
aiu rea</w>
gase sc</w>
Servici ul</w>
ren ce</w>
corpor ală</w>
S un</w>
sur a</w>
ali g
evacu are</w>
gaz elor</w>
In tro
cost umul</w>
aco b</w>
U S</w>
că pă
bo ok</w>
ace lui</w>
le gu
re ţea</w>
sca dă</w>
gu rilor</w>
ap asă</w>
Ex peri
mă nu
doam ne</w>
F und
199 1</w>
produ c</w>
din ţi</w>
Sal ly</w>
Z ona</w>
liv ia</w>
s it
călă toria</w>
min ţile</w>
col ţ</w>
Qu e
pu m
psihi at
at aş
ale e</w>
trecu ta</w>
men aj
p ap
E L</w>
4 0
accesibi le</w>
organiz ată</w>
mo toare</w>
au tent
arteri ale</w>
înlocu it</w>
în dru
por tu
neu tr
mone da</w>
tim pu
colec tarea</w>
colec tare</w>
ai s</w>
P in
toxic itate</w>
inform aţie</w>
c ita</w>
recipro că</w>
practic ile</w>
U au</w>
m s</w>
no ului</w>
gi ile</w>
calcul area</w>
lap tele</w>
ş trii</w>
ver zi</w>
remar ca
ari ei</w>
Pă mântul</w>
s ci
institu ie</w>
eventu al</w>
câm pul</w>
S pen
Prez ent
garan tează</w>
respec ta</w>
Don na</w>
mo dă</w>
it ale</w>
Regre t</w>
PRO DU
credin ţă</w>
N o</w>
fisc al</w>
ob ținerea</w>
dezamă git</w>
C atherine</w>
secre tă</w>
se si
S el
bă ga</w>
accep te</w>
colec tate</w>
Ț ările</w>
s cu</w>
cu tre
Y e
într -</w>
et apa</w>
can ap
une ia</w>
miș care</w>
impl ica</w>
d ând</w>
celu lă</w>
unită țile</w>
stabi lă</w>
M R</w>
AM B
explo zie</w>
amenin ţare</w>
FAR MA
limi tează</w>
disp ar
K atie</w>
con ci
sol vent</w>
mur dar</w>
Ro y</w>
evenim entele</w>
Să nă
ser vit</w>
I den
7 ,
P L</w>
credi telor</w>
Wil son</w>
o so
ge los</w>
prezen ța</w>
A Z
13 6</w>
roş ie</w>
m are
trebu rile</w>
iub itule</w>
car ieră</w>
supor tate</w>
Inform ații</w>
sur at</w>
ca lo
r .
adap tare</w>
G A</w>
saptam ana</w>
institu ţiile</w>
Preşedin te</w>
vre unul</w>
lo v
ul ă</w>
importan ța</w>
Im peri
compon entele</w>
Ur că</w>
aur ul</w>
Mar cus</w>
Je re
omolog area</w>
comand ant</w>
vie tii</w>
re turn
autoriz aţiei</w>
U MI
bac teri
Un chiul</w>
mar in</w>
înţele geţi</w>
log ice</w>
ci fr
D il
aste pt</w>
uș a</w>
crimin alul</w>
sc ân
perspec tivă</w>
An ti
A pe
for mării</w>
ase m</w>
Con clu
pune rilor</w>
bucă ţi</w>
distru gă</w>
cre ierului</w>
Ru sse
Bro wn</w>
te au</w>
calen dar
z ați</w>
an ca</w>
speri ată</w>
Drăgu ţ</w>
Recom and
execu tare</w>
de ţine</w>
po ș
el la</w>
i gi
Coo per</w>
ă torul</w>
vi tro</w>
contribu it</w>
F al
renun ţa</w>
înlocu iesc</w>
com o
G hi
D .</w>
e tele</w>
do arme</w>
A F
Mar gare
exist ent</w>
Ter ry</w>
public ată</w>
contro alelor</w>
S pri
materi alul</w>
Gre g</w>
str ul</w>
al ții</w>
mone dă</w>
bom bar
râ de</w>
neg re</w>
mon oterapie</w>
bra ţul</w>
ug h</w>
fanto mă</w>
Mil ler</w>
ți unilor</w>
întreru perea</w>
inform aţiilor</w>
zil nică</w>
farm ace
în fi
jum ătă
oper atori</w>
po veşti</w>
co ca
Bru ce</w>
vo astra</w>
ino vării</w>
iniți ative</w>
in cin
pă c
vorb este</w>
inter ne
inciden ţă</w>
ist ic</w>
respi rat
Mo artea</w>
vechi ul</w>
ul i
orient ările</w>
intor c</w>
der s</w>
dio xid</w>
s ând</w>
b ele</w>
aş că</w>
Supr ave
modific a</w>
substan ței</w>
hemoglo binei</w>
est er</w>
an on
Uş urel</w>
Prin de</w>
scur te</w>
lim bile</w>
de pu
Egi pt</w>
r atele</w>
Z ece</w>
pl ă</w>
ită ţilor</w>
Str ate
car bur
antre nor</w>
amin g</w>
protec ției</w>
mi r
cre an
tră dat</w>
două zeci</w>
c ane</w>
D ob
ic u
aju toarelor</w>
S ab
elibe rează</w>
N -</w>
Im por
munici p
ci ti
an ților</w>
Bucur aţi</w>
trimi se</w>
Administr area</w>
îngrijor ată</w>
îm pache
bucur ă</w>
compan iile</w>
Fo togra
înce tat</w>
ren t
ier tare</w>
colon el</w>
can a</w>
adjun ct</w>
contac taţi</w>
san itare</w>
No aptea</w>
sarcin ilor</w>
mandat ului</w>
dro m</w>
bun urilor</w>
Flo ri
Păr țile</w>
au xi
sca den
sc ul</w>
mirac ol</w>
ac redi
redu că</w>
vre ti</w>
încadre ază</w>
Car los</w>
prez ente</w>
T rac
ur meze</w>
Jam ie</w>
ga ura</w>
ferovi ar</w>
autoriz area</w>
îm pă
as amb
S par
Core ea</w>
fi gura</w>
capac ităţii</w>
tat ii</w>
solicit antul</w>
p ată</w>
Mar ty</w>
A 4</w>
fre y</w>
oraș ului</w>
sin t</w>
Vic toria</w>
F lu
di tă</w>
W y
tele g</w>
exerci ţi
compon entă</w>
justific ate</w>
depășe ască</w>
că dea</w>
administ ra</w>
Mar sh
re alitatea</w>
in credi
ge lo
finanț ate</w>
aline atului</w>
se amă</w>
obiec tivului</w>
Ţ I</w>
TI C</w>
T ine
Mat the
rezolu ție</w>
curi os</w>
it ati</w>
apreci ez</w>
Cere rea</w>
at ile</w>
s esti</w>
cu r</w>
bun urile</w>
Sp ați
vic torie</w>
competen țelor</w>
st ic</w>
Wor ld</w>
redu cerii</w>
promove ze</w>
ochi lor</w>
com batere</w>
Who a</w>
neces ita</w>
aştep te</w>
Phi l
zb ura</w>
o asele</w>
K y
Apl au
L at
o v</w>
P ag
J .
R ata</w>
aspec tul</w>
analiz at</w>
M ah
Scum po</w>
dorm itor</w>
o me
iz eci</w>
Bi H</w>
au ten
A face
ur t</w>
atin gi</w>
utiliz ări</w>
sur sele</w>
razbo i</w>
A gri
pota si
Davi s</w>
agen ției</w>
Con su
medic in
refuz a</w>
Îm preună</w>
ª i</w>
control at</w>
K ra
h ul</w>
Y eah</w>
împăr atul</w>
h artă</w>
certific atul</w>
anex ele</w>
cle ar
averti zare</w>
Dezvol tare</w>
de bu
pre luat</w>
interes ată</w>
dezgu stă
ce rile</w>
Gen e
preal abil</w>
s arul</w>
L am
supravie ţui</w>
proaspe te</w>
iniți ativă</w>
ben zi</w>
între gului</w>
g asi
8 5
ăr ă
su feri</w>
popul ației</w>
b rut</w>
substan ță</w>
N el
ent at</w>
a in</w>
J ordan</w>
furniz orii</w>
afec tată</w>
întreprin se</w>
Ó n</w>
su mele</w>
relev anță</w>
perman entă</w>
credin cio
pas ul</w>
prin ţe
COM UNIT
O nor
E venim
on area</w>
ascun se</w>
ac tivele</w>
Trat atului</w>
El ena</w>
Ace ştia</w>
di an</w>
perfuz ie</w>
teori e</w>
roman tic</w>
plac ere</w>
c im
Bucure şti</w>
conex e</w>
Co le</w>
az e</w>
Tran spor
past ile</w>
g t</w>
n icii</w>
superi oare</w>
remar cat</w>
vân dă</w>
distrac ţie</w>
ase ază</w>
ton ă</w>
mijloc ii</w>
ie pur
den s
Mer geţi</w>
Lu cas</w>
înţele p
deșe urilor</w>
ast ero
vâr st
ţion ată</w>
co durile</w>
b ari</w>
fer ma</w>
ali as</w>
Inter national</w>
convin ge</w>
struc turi</w>
c î
n d</w>
DOM N
intre b</w>
descăr ca</w>
S crie</w>
ge am
ceil alti</w>
compar tim
fri p
mulţu mim</w>
apro po</w>
întâmpl are</w>
D ate</w>
struc tură</w>
minun ate</w>
canap ea</w>
Dy lan</w>
prosti ile</w>
grat uită</w>
gă site</w>
Şe ful</w>
ra dic
vo uă</w>
glon ţ</w>
seri oase</w>
na vi
încăl care</w>
re ve
P ak
încer ce</w>
defin irea</w>
M ateri
x ul</w>
ver te
pă puş
9 ,
reprezent ant</w>
in vers</w>
li an</w>
s at
riton avir</w>
me til
N apo
D UL</w>
sără ciei</w>
celu lelor</w>
ten siunea</w>
Ju stin</w>
comer țul</w>
A co
sex ul</w>
op ini
bărb ați</w>
F AB
zon elor</w>
A păr
săru tat</w>
ţ ân
lip sesc</w>
ri si
pro pul
cu pl
k et
st ică</w>
mb H</w>
leg ală</w>
P om
N omencl
Mo sco
B om
Ho use</w>
val abilă</w>
b au
cunoaş teţi</w>
avant aje</w>
8 ,
Te m
f ere</w>
Stă pân
uni vers</w>
destin ată</w>
deranj at</w>
spani olă</w>
S w
educa ţie</w>
inten ționează</w>
A vo
vă du
Rebec ca</w>
AD MINI
leg ile</w>
digit ală</w>
Do cum
profi l</w>
g ale
capit alul</w>
pu ri
plă mân
s mul
corespon den
În treabă</w>
de pună</w>
nor ocul</w>
mă su
S pui</w>
reuni une</w>
inter o
sur d</w>
reg iz
hote lul</w>
Jose ph</w>
ra si
privi rea</w>
mi z
locoten ent</w>
Frumo asă</w>
su m
j ul</w>
pier derile</w>
mi s
UR I</w>
între ținere</w>
îmb ol
consili ului</w>
cli c</w>
cic lo
n am</w>
diag nost
ĂR I</w>
prân zul</w>
A ah</w>
a ferent</w>
Ter men
Is ab
An aliz
lucr area</w>
me tale</w>
concluzi onat</w>
pozi ției</w>
cu mul
at aca</w>
R estul</w>
să rii</w>
rău tă
Jess ica</w>
câşti gi</w>
P T</w>
ţe ască</w>
motocic le
inte r</w>
că dere</w>
sche ma</w>
evenim entelor</w>
10 1</w>
fum at</w>
asemănă toare</w>
activită ţilor</w>
Ac cep
p t
en ți</w>
compati bile</w>
san ge</w>
buge tară</w>
ar ga</w>
ven e
st ului</w>
pro punerile</w>
mărfu rile</w>
H ong</w>
importan ţa</w>
ie m</w>
în ș
te ai</w>
meci ul</w>
inform ație</w>
cuno sti</w>
te ză</w>
stra ţi</w>
spă im
Înă l
Spri j
ec ran
sc apă</w>
er on</w>
adole sc
N E</w>
ag oni
C ate
Ban k</w>
părin ţi</w>
prote ine</w>
ap el
t ta</w>
Maced onia</w>
C uti
ruti er</w>
parten ere</w>
linişti tă</w>
comple x</w>
regul ilor</w>
e f
termen ii</w>
sl abă</w>
realiz eze</w>
facilit area</w>
cit o
az ã</w>
ţion area</w>
stom ac</w>
păstre z</w>
bumb ac</w>
ok ie</w>
ele mentelor</w>
comunic at</w>
turne u</w>
circul aţie</w>
proviz orii</w>
oare care</w>
mun i
strateg ic</w>
deschi zi</w>
că ile</w>
I tali
- Ai</w>
trag e
pără sesc</w>
necuno scută</w>
eri tro
de spă
B eth</w>
pac ea</w>
Re volu
mun cit</w>
cân tă</w>
dum nez
de dicat</w>
Lin da</w>
mas ini</w>
DE ŢIN
C ele
diab et</w>
Com pan
pregat it</w>
cu minte</w>
proce sele</w>
pretin de</w>
intere selor</w>
gan desc</w>
d ac</w>
acest i</w>
ghic esc</w>
tranzac ții</w>
lup t</w>
lo terie</w>
patri mon
iubi m</w>
îndeplini rii</w>
de curs</w>
reprodu cere</w>
son d
pe lor</w>
D ai
teritori u</w>
l ent</w>
cap ete</w>
conce put</w>
clien ţi</w>
V an
p ură</w>
ader area</w>
P lat
su g
DEŢIN ĂTOR
popul are</w>
benz ină</w>
for mează</w>
per tur
ascul te</w>
lib eri</w>
mize rie</w>
SE RI
Cre dem</w>
n az
P ai
tehnolog iei</w>
clasific area</w>
afl aţi</w>
sub lin
Har vey</w>
Arm ata</w>
sp eram</w>
răscum păr
recunoaș terea</w>
Hote luri</w>
respec tat</w>
fer me
evalu ează</w>
vro ia</w>
con turilor</w>
Fre e
educa ție</w>
cer tat</w>
C AR
aeropor tul</w>
vac cin</w>
proce se</w>
I suse</w>
ur ină</w>
prezin ta</w>
base ball</w>
r .</w>
az ei</w>
împu ș
infrastruc tura</w>
ă torii</w>
vorbe ști</w>
inte le
suge rez</w>
C max</w>
Ar ata</w>
tere nu
pu zz
mar in
A pri
dat orii</w>
sine ss</w>
p tul</w>
ine ze</w>
Io an</w>
usc ate</w>
premi u</w>
st ită</w>
privin ță</w>
Dom en
ascul taţi</w>
De b
plă cin
j ig
iar bă</w>
usc ată</w>
C Ă
An un
inteligen te</w>
datori ei</w>
st ere</w>
mo me
buge tar</w>
Dist ri
se l
ami dă</w>
infec ţii</w>
De rek</w>
simb o
Par don</w>
repar a</w>
P M</w>
supravieţu it</w>
Eth an</w>
treze şte</w>
olog ia</w>
j i
c ît</w>
băn cilor</w>
im par
că lu
a þ
Dre pt</w>
me ta
est a</w>
G mbH</w>
aliment ară</w>
M eu</w>
ş ă</w>
obis nu
negoci erile</w>
Alban ia</w>
St au</w>
Du ceţi</w>
s nic
lucră torii</w>
g ări</w>
repe tate</w>
examin at</w>
er aţi</w>
vehicul ul</w>
su t</w>
ate r</w>
T in
So lo
L una</w>
mete o</w>
apropi aţi</w>
y l</w>
dimine ața</w>
con spi
di are
compen sare</w>
are st
Gor don</w>
A i
mi sca</w>
antic ip
în te
regle mentează</w>
plas matică</w>
D S</w>
recunoscă tor</w>
rah am</w>
Geor gia</w>
vi c</w>
uci să</w>
comun itate</w>
P Ă
ŢI E</w>
auzi m</w>
N ame</w>
L ac
Între barea</w>
magaz ine</w>
k en</w>
bra ţe</w>
speci ile</w>
pen i
comand antul</w>
teori a</w>
Num ăr</w>
dezvol te</w>
Drago stea</w>
mot orului</w>
Vec hi</w>
P .
temper aturi</w>
se siune</w>
Organiz ației</w>
M aș
Com er
re vo
Cro aţia</w>
man ev
învin s</w>
trans formă</w>
i esti</w>
furniz or</w>
ran d
Ur mează</w>
zv on
m ascul
ş me
plă teşte</w>
moder ată</w>
inter zice</w>
B EI</w>
desfășur ate</w>
I L</w>
ţion are</w>
pri cepi</w>
anor m
al ini
bi rea</w>
Restaur ant</w>
5 0
în ţe
stric te</w>
l amin
inci dent</w>
Com ple
declar ația</w>
1 25</w>
restric tive</w>
h ă</w>
încăl carea</w>
fiș ierului</w>
2. 3</w>
implic ată</w>
esen ţiale</w>
Proce dura</w>
re formă</w>
puzz le</w>
in toar
efor turilor</w>
ră m</w>
premi ul</w>
lucru rilor</w>
locu rilor</w>
Frank ie</w>
gră din
z ică</w>
00 1</w>
si me</w>
C T</w>
part aj
mi la</w>
institu ţii</w>
aminti ri</w>
r ing</w>
M anu
GEN ER
protej ez</w>
odi vers
El li
sănăto şi</w>
favor abile</w>
șe dere</w>
ru la</w>
di s</w>
R U
prag ul</w>
cân t</w>
sec ţie</w>
A viz
privi leg
aţi -</w>
sus ţinut</w>
Strate giei</w>
de ţin
al mente</w>
St ar</w>
val abilitate</w>
potri vesc</w>
semne ze</w>
b ack</w>
ru p</w>
adevăr ate</w>
S tru
centr e</w>
De fin
răspun surile</w>
sti an</w>
plân gi</w>
noroco asă</w>
me d</w>
greş ită</w>
pu ţin
bom bo
b ân
renun ţi</w>
Ange la</w>
garan ție</w>
Tat al</w>
ţu le</w>
ră bdare</w>
pre văd</w>
cere ale</w>
P on
cur and</w>
S M</w>
later al</w>
avant ajele</w>
unel te</w>
ucig aş</w>
car dul</w>
Relax ează</w>
engle za</w>
il at</w>
origin ea</w>
DEN UMI
trep tat</w>
t to</w>
favor abil</w>
asc en
americ ane</w>
organiz ațiilor</w>
audi o</w>
min ge</w>
ăr ului</w>
po n</w>
mo dului</w>
ap lau
vrăj itoare</w>
per tin
ţ itul</w>
prin dă</w>
ab domin
Salu tare</w>
pre ia</w>
discur s</w>
R N</w>
prof it
oper a</w>
ser vesc</w>
modific e</w>
ac cent</w>
B au
- i</w>
auton om
nevo ilor</w>
cu ţit</w>
Con gre
h arta</w>
an du</w>
sec ven
min ist
indic a</w>
Pe g
A ero
Lo u</w>
mar ţi</w>
it atii</w>
inclu să</w>
aten ția</w>
7 00</w>
rur ale</w>
ri dici</w>
cul turi</w>
co astă</w>
porum b</w>
1. 3</w>
alege rilor</w>
amin tiţi</w>
îmbră ţiş
inte i</w>
dege te</w>
tin de</w>
est atea</w>
COMUNIT Ă
ş am
ovi c</w>
ap elul</w>
îmbol nă
fi da</w>
Săptămân a</w>
te l
ra ţie</w>
mi e
diab e
Le w
acoperi ş</w>
ți re</w>
on al</w>
labor atorul</w>
d y
s ent
interven ție</w>
eg ale</w>
w o
orient are</w>
li pi
dr omul</w>
C O</w>
agen ţi</w>
S una</w>
importan ță</w>
schimbu rile</w>
B is
ver bal</w>
per ă</w>
gra v
ap h
Gener ale</w>
us alim</w>
B ab
pacien ți</w>
func ti
Franci sco</w>
A k
zăp adă</w>
spăim ân
în semnat</w>
ar telor</w>
iniţi ativă</w>
Ang aj
dro gat</w>
vech ea</w>
Je ss</w>
ren ale</w>
cl oro
paral el</w>
St an</w>
te stat</w>
se rii</w>
Russe ll</w>
plă cerea</w>
n an</w>
der ul
Par iez</w>
dec ît</w>
ţ ează</w>
spaţi ul</w>
apor t</w>
N ar
succe sul</w>
log ie</w>
evi te</w>
Ţine ţi</w>
re le
gra fice</w>
autoriz ației</w>
z u
cap ului</w>
an der</w>
aeri ană</w>
Cau tă</w>
p apu
Po ker</w>
conclu zie</w>
Vin ce</w>
farm aco
exerciți ul</w>
disp are</w>
R .</w>
Pla yer</w>
Pa ște</w>
in direct</w>
tă ria</w>
soli d</w>
ori căror</w>
5. 000</w>
ace lei</w>
comite tul</w>
In clu
anul at</w>
am ină</w>
En ter
substan ța</w>
ac tri
D ac
telec omunic
im uno
stupi d</w>
vi ată</w>
C ame
spec ie</w>
gân durile</w>
su e
SI DA</w>
si ți</w>
ev it
Mic ro
A C</w>
k es</w>
mu r</w>
medic amentelor</w>
apro fun
tor t</w>
impoz itare</w>
armoniz ate</w>
spec ia</w>
c ani</w>
frec v
dr i</w>
Pu teti</w>
ly wood</w>
cir ca</w>
su me</w>
cado uri</w>
A V
aten ţi</w>
L itu
B A</w>
nenoroc itule</w>
mar fa</w>
t aco
fre e</w>
Ier usalim</w>
oport un</w>
dul ap</w>
cu v
bag ajele</w>
V la
Lini şteşte</w>
4. 1</w>
dator ate</w>
te ore
extr ac
i aţi</w>
cal dă</w>
pi on
fronti e
negoci eri</w>
acce sorii</w>
vizu al</w>
copac i</w>
st or
re pl
Hai deti</w>
ure che</w>
încer cări</w>
Institu tul</w>
In st
ș a</w>
o gen
inhib itori</w>
gori t
ambal ajului</w>
eliber ate</w>
O chii</w>
pro vine</w>
mecanis mul</w>
institu ție</w>
ce f
du rea</w>
ai l</w>
ag er</w>
K ong</w>
Dra g
ca vale
Vin eri</w>
țin tă</w>
meri tat</w>
ier ta</w>
convers aţie</w>
B N</w>
lan sare</w>
substan țelor</w>
parten erilor</w>
bi laterale</w>
se ful</w>
asisten ța</w>
artic ul
ur mar
Per mi
mun cit
S prin
sec olului</w>
do s</w>
cafe aua</w>
ure chi</w>
esti mează</w>
en i
baz eze</w>
exter n</w>
cu le</w>
atac ul</w>
asigur ăm</w>
Sh ar
stu dent</w>
aprob ă</w>
E va</w>
impor tul</w>
de pi
F IN
tr ului</w>
benefic ieze</w>
gi mea</w>
Uş or</w>
aten u
fix e</w>
disp un</w>
avant aj
Mi ami</w>
cep ti
judici are</w>
contro lează</w>
FAB RI
mo st
en s
Bro ok
p aș
at âr
N ina</w>
preven ire</w>
ini on</w>
tal ent</w>
Tribun alului</w>
proaspă t</w>
descri erea</w>
zbur at</w>
îndeplin it</w>
inciden ța</w>
Ó n
parti d</w>
gân duri</w>
atmos feri
CON DI
îndepăr tat</w>
odih nă</w>
Ca ut</w>
Aplau ze</w>
Apart amente</w>
A ir</w>
obo sită</w>
of era</w>
oce an</w>
adevăr ata</w>
integr at</w>
ş iţi</w>
în scen
titu dinea</w>
t z</w>
fen o
ca fen
tive ază</w>
direc ția</w>
de la</w>
O s
ți mea</w>
vo iai</w>
înfri coş
se ală</w>
proaspă tă</w>
a sc</w>
cu prins</w>
ex cre
de p
aju taţi</w>
trimi tem</w>
M E</w>
N atura</w>
ţe şte</w>
se me
to ză</w>
jo cului</w>
Regi unilor</w>
In tr</w>
distric tul</w>
1 60</w>
atin gă</w>
T U
tran zit</w>
te za</w>
ri dic</w>
op țiune</w>
diz ol
reglement ările</w>
ENT UL</w>
țion ată</w>
extin s</w>
UTILI Z
lini ilor</w>
indepen dentă</w>
T ai
ore zi</w>
f ura</w>
să vâr
ot ă</w>
frân are</w>
dove zile</w>
opri re</w>
gânde ască</w>
gal ben
do me
Direc torul</w>
obstaco le</w>
statist ic</w>
mân dră</w>
mân d
com promis</w>
Prieten ii</w>
N ațiunilor</w>
în cor
Comunită ţilor</w>
D ick</w>
con cordan
Mich elle</w>
hotăr ă
despă gu
che ta</w>
p ază</w>
St abi
înţele gem</w>
Vre o</w>
si di
cent ura</w>
Bos nia</w>
ţ â
so rile</w>
mobi liare</w>
prob a</w>
Bu t
Râ sete</w>
dege aba</w>
con feri
cap sul
Con tribu
sf aturi</w>
idi otule</w>
Soph ie</w>
senz aţie</w>
A pa</w>
Mec an
france ze</w>
condi ţiilor</w>
sin cron
estim ată</w>
Margare t</w>
in ch</w>
clor ură</w>
T a
B LI
ș ter
tra um
re medi
competen țele</w>
I an</w>
etiche ta</w>
prom ite</w>
suger at</w>
renun ţ</w>
regul ate</w>
câ inii</w>
conclu zii</w>
Hote lul</w>
în cruci
puşti ule</w>
finanț ării</w>
S til</w>
Muz eul</w>
so ţului</w>
at her</w>
înțele gere</w>
ră ul</w>
or to
ne am
iniți ale</w>
ing ine
aliz eze</w>
m p</w>
gra vit
evalu eze</w>
I LOR</w>
Alt ceva</w>
supraf ața</w>
at ei</w>
aju ti</w>
ur ca</w>
on ează</w>
exclu de</w>
Tre zeşte</w>
yn n</w>
prin zi</w>
H um
dure ze</w>
mă s
strân ge</w>
popul aţiei</w>
coment ari
P ici
averti zez</w>
scum pule</w>
st ând</w>
rit mul</w>
periculo asă</w>
ca bine
A sc
vin zi</w>
fo curi</w>
Produ c
8 4
pă mântului</w>
expl or
compati bil</w>
pro pusă</w>
e u
tă gădu
domici liu</w>
R al
sin dic
carti erul</w>
alu ri</w>
To dd</w>
CYP 3
Bra d</w>
di i</w>
ante ce
respi ra</w>
potri vite</w>
nici una</w>
lichi de</w>
ven ea</w>
gar aj</w>
W ayne</w>
satis fac
s în
C anti
dific ile</w>
Su cce
M om
sensibi le</w>
enti tățile</w>
calcul at</w>
sinuci dere</w>
pro so
dos arele</w>
întâl neşti</w>
bi odivers
la ți</w>
gră rii</w>
agen ții</w>
nu mim</w>
exportat or</w>
evolu ția</w>
v ară
cer ă</w>
D aw
ex puse</w>
P H
mor e</w>
cal ciu</w>
A fac
ti r</w>
provo acă</w>
p aşi</w>
evalu ată</w>
distr at</w>
vor ul</w>
glu mesc</w>
e cu
ST I</w>
impre sii</w>
astep tam</w>
împin ge</w>
z bor
folo sin
O .
par ul</w>
bl at</w>
plă tită</w>
dege t</w>
adul t</w>
avi oane</w>
ine vit
aş e</w>
F it
perioade le</w>
concer t</w>
ag an</w>
Tre aba</w>
î si</w>
prevede rile</w>
bol nav
J ar
preci zie</w>
rădă cin
rezol v</w>
agen ţii</w>
for ţele</w>
Bucure sti</w>
gre aţă</w>
gen era</w>
supraf aţa</w>
solicit ant</w>
cap tur
an om
Ken ne
DENUMI REA</w>
D er
răzbun are</w>
li derul</w>
consoli dare</w>
ie și</w>
vânz ările</w>
victi melor</w>
cri p
misi uni</w>
înjun ghi
recuno şti</w>
lin s</w>
fabri ca</w>
E S
t rilor</w>
transfer at</w>
reprezent ative</w>
competitiv itatea</w>
tă toare</w>
plân gere</w>
can al</w>
Li z</w>
ține rii</w>
utiliz ați</w>
an na</w>
S tră
Răspun sul</w>
c itat</w>
proble mei</w>
planific are</w>
calific are</w>
admi sibi
o uă
sc ări</w>
co ple
s ore</w>
Veri fică</w>
cli entului</w>
înăl ţ
notific ă</w>
p ică</w>
utiliz ator</w>
repe ti
arm ate</w>
sfar sit</w>
pi stă</w>
mat uri
exe mple</w>
Han nah</w>
Craci un</w>
preumplu tă</w>
Co st
T oby</w>
ora sului</w>
lumin ile</w>
F I</w>
du bi
flux ul</w>
alb astră</w>
S f</w>
in sig
contro alele</w>
ran ă</w>
gestion ării</w>
Nici odata</w>
spit alul</w>
credin ţa</w>
Y u
pre ten
leg ere</w>
an ţele</w>
R andy</w>
profi lul</w>
încer caţi</w>
O scar</w>
O S</w>
p aţi</w>
in registr
în ger</w>
uni forme</w>
con turi</w>
Do c</w>
Mij lo
Ș e
ne ază</w>
Mar k
E ro
E li</w>
Ba ie
o sân
h el
Român iei</w>
ade r</w>
Scu za</w>
ţion a</w>
sc âr
recu pere
consideren tele</w>
rezer v
regre t</w>
Centr ale</w>
în spăimân
exper ti
cetăţ eni</w>
spune ti</w>
AC TI
mi lo
psi h
demonstre ze</w>
ac ces
resp ir
pisc ină</w>
Luc r
atitu dine</w>
A G
di scut</w>
tre le</w>
ocu păm</w>
organiz aţii</w>
re tt</w>
priori tare</w>
pre ferin
be ta</w>
en zi
Par tici
comite t</w>
pro toco
Gib bs</w>
institu ţiilor</w>
hi bri
op ţiune</w>
I z
Bet ty</w>
BC N</w>
am plo
se mi
rug am</w>
mi zer
impresion at</w>
Oper ator</w>
ram ane</w>
impor tate</w>
Teh nolog
inim ile</w>
Al li
L aw
al ilor</w>
af a</w>
gra fie</w>
cuno ască</w>
sol icite</w>
defic it</w>
Gă seşte</w>
stabi liz
P I</w>
ţ elul</w>
rezer ve</w>
ţion ate</w>
va se</w>
pi n</w>
ca blu</w>
sp una</w>
guvern ament
ap te
plă nu
exer cită</w>
clo po
av ere</w>
M AR
Ace şti</w>
ro m</w>
marke ting</w>
ast r
ac v
efec tive</w>
înghe ţată</w>
princip alul</w>
do zelor</w>
V ul
S po
plictis itor</w>
importan ta</w>
ar bo
a socie
Fe tele</w>
aeron ave</w>
in util</w>
in hal
Case y</w>
Hol lywood</w>
decon tare</w>
contribu ție</w>
intre aga</w>
Wal ker</w>
Elve ţia</w>
ge o
zi d</w>
lucră tori</w>
agen ți</w>
înţele gerea</w>
agri col</w>
ocu pării</w>
între ţinere</w>
we en</w>
n as
- Bine</w>
păcă lit</w>
pi l
in ţă</w>
re țeaua</w>
jum ătatea</w>
accep tate</w>
tr are</w>
func ția</w>
P ap
trat amente</w>
im ig
D intre</w>
înche ia</w>
fu ria</w>
încuraj a</w>
ameri cană</w>
punc tului</w>
h at
MEDICAMENT ULUI</w>
Du b
pre vizi
con fuz</w>
ci pi
Stu diul</w>
îndrăz neşti</w>
di re</w>
A casă</w>
dificul tăţi</w>
O livia</w>
reg istrul</w>
fă r</w>
Ro y
ş e</w>
de țin
can tit
discur sul</w>
Proce sul</w>
simul tan</w>
Stat ist
K ri
pe ti
mai or</w>
distribu ție</w>
I au</w>
Di scu
G us</w>
Cri min
B ak
C ec
sto care</w>
Ne aţa</w>
Inform ațiile</w>
direc toare</w>
teste lor</w>
pun te</w>
Aviz ul</w>
păstre zi</w>
Demo c
Ş ase</w>
pis ică</w>
pi ata</w>
instal ații</w>
Har ri
participan te</w>
pl aca</w>
exprim ată</w>
spec taco
sun etul</w>
integr ată</w>
angaj ează</w>
acți unii</w>
SI S</w>
10 .000</w>
F ul
tran dafi
nemer nic</w>
mătuş a</w>
C RE
produc tiv
o ke</w>
inte legi</w>
F esti
ing o</w>
dru mului</w>
F un
jude cata</w>
esen țială</w>
clien ți</w>
implic aţi</w>
imedi ată</w>
par adi
V EN
va lului</w>
D V
bo lilor</w>
accep tabil</w>
Euro pe</w>
ș e</w>
t .
D ol
Reg atului</w>
imple mentare</w>
pne um
recuper area</w>
popul aţia</w>
Un chiule</w>
po fida</w>
me xic
bo ară</w>
198 9</w>
sanc țiuni</w>
or ule</w>
in u
dovede sc</w>
dispozi ţia</w>
disp ar</w>
An aliza</w>
tru c</w>
F eli
O wen</w>
on ez</w>
SPECI ALE</w>
Mosco va</w>
fon dul</w>
Vie t
reu şesc</w>
zil nice</w>
gno za</w>
căsă tori</w>
cardi acă</w>
Slo vac
SUN T</w>
H ill</w>
Ac ce
mobi litate</w>
Ci pru</w>
reg istru</w>
at o</w>
ase lor</w>
ţin ta</w>
ş u
ter ne</w>
poli ție</w>
func tion
auto mată</w>
int ar
feder al</w>
efici enței</w>
cri ze</w>
fl aco
direc ţie</w>
h ab
dificul tate</w>
R I</w>
Cor pul</w>
2 -</w>
peri feri
Le gă
or asul</w>
g entul</w>
cur vă</w>
întâl nească</w>
cap abili</w>
a inte
enti tăților</w>
refu z</w>
nume şti</w>
H as
CA U
sch ele
rezol văm</w>
one ză</w>
ură şte</w>
M ăr
ri că</w>
n esti</w>
o xid</w>
Pri viţi</w>
la ş</w>
bătr ână</w>
Urmă toarele</w>
ot ului</w>
inter vale</w>
plaj a</w>
dez bră
înt ins</w>
extin dere</w>
e m
G an
legisl ativă</w>
În vă
stat ut</w>
umplu t</w>
Pro stii</w>
bu rile</w>
ingredi ente</w>
S anta</w>
sânge lui</w>
In credibil</w>
aş ii</w>
sub ti
funcţion a</w>
angaj amentele</w>
ch ic
In ten
â u</w>
subcutan ată</w>
ist ul</w>
g n
di ţi</w>
poz ele</w>
ex primă</w>
Ma y
nomin ală</w>
vi se</w>
Disp ari</w>
scu i
constan tă</w>
cic atri
ş or</w>
bi om
retrag erea</w>
v ã</w>
negoci ere</w>
tehnolog iilor</w>
Cur ţii</w>
Autori tății</w>
actu alizate</w>
le sc</w>
Ber n
încăl cat</w>
calcul ată</w>
mpl ul</w>
ar matei</w>
protej ează</w>
agrico lă</w>
ST AN
vin g</w>
du le</w>
cere m</w>
in vi
Dezvol tarea</w>
O R</w>
elabor ate</w>
jun g
tri stă</w>
sec ţia</w>
s z
deschi dă</w>
ceil alți</w>
H z</w>
Cuno sc</w>
excel entă</w>
terape utice</w>
că derea</w>
cardi ace</w>
M P
ungh i</w>
tox ice</w>
maș ina</w>
it ură</w>
destin ație</w>
comer ț</w>
alt cuiva</w>
F en
Medi ter
Carol ine</w>
oz itate</w>
in fir
g ama</w>
Ale ge</w>
4. 2</w>
lit ere</w>
ști lor</w>
D ic
regi unii</w>
nenoroc ită</w>
imig ran
10 8</w>
urmă rește</w>
avant ajul</w>
nepo tul</w>
lu mân
trag eţi</w>
Mer ci</w>
bo gă
D istr
pozi ții</w>
institu ția</w>
Ste ven</w>
ri te</w>
rom an</w>
du cere</w>
desemn ate</w>
ide ile</w>
at ore
RE C
a ii</w>
Co lum
urech ile</w>
p tu
licen țe</w>
cul turii</w>
tab ăra</w>
O f</w>
lă rii</w>
it oarele</w>
sub sidi
de pusă</w>
albu m</w>
țion a</w>
p ină</w>
tu tun</w>
st ar</w>
emi sie</w>
ME A</w>
D ra</w>
naș tere</w>
dem n
aparen t</w>
observ ată</w>
corespun d</w>
z aj</w>
ist orice</w>
Ren un
R S
re acţiilor</w>
coleg i</w>
expl ici</w>
în jumătă
instal area</w>
constitu it</w>
tranzi ție</w>
o u
ie tul</w>
comi si
Vir gin
ş oc</w>
administr ativ</w>
aloc area</w>
situ aţiei</w>
răspun derea</w>
notific ate</w>
J acob</w>
di aliz
X X
interi oare</w>
m 3</w>
ge l
al ism</w>
Plec ăm</w>
C S
A ir
man datul</w>
industri ală</w>
P it
O ce
Gran t</w>
şobol an</w>
we b
ni fer</w>
AMB AL
t ti</w>
mu te</w>
li ste</w>
gh ie</w>
scri itor</w>
ad ul</w>
gân dul</w>
fur e</w>
Te ddy</w>
Ro ad</w>
ș om
D ră</w>
precau ţie</w>
na sol</w>
vir tu
can ul</w>
Marsh all</w>
îm pără
scenari u</w>
viz at</w>
vin ul</w>
tan a</w>
eg ru</w>
ampren tele</w>
furt ună</w>
consili ere</w>
Fran ce
satis face</w>
pri mim</w>
Mic key</w>
fe luri</w>
al ã</w>
metri ce</w>
Nan cy</w>
M ot
C i</w>
povest it</w>
amenin ţat</w>
vânză rilor</w>
pis ici</w>
dore ște</w>
bu s</w>
Ray mond</w>
justific ată</w>
cumpăr ă</w>
pre o
un ului</w>
rec entă</w>
C V
reglement ări</w>
fal sific
tă rilor</w>
tai l</w>
p per</w>
zi are</w>
Sa ul</w>
sin ucis</w>
c ator</w>
Don ald</w>
sezon ul</w>
pov este
g el</w>
fin alul</w>
n ori</w>
insul ina</w>
depen dent</w>
cetăț eni</w>
ș ten
inten ţionat</w>
le şte</w>
L ord</w>
uci şi</w>
detec tivul</w>
ag ul</w>
nec re
individu ală</w>
i on</w>
sub stitu
permi se</w>
inter feron</w>
mecanis mele</w>
două zecea</w>
Car rie</w>
af ul</w>
4 50</w>
Munten egru</w>
g or
pre lev
in auntru</w>
decur g</w>
mi gran
inter zic
des er
consili ul</w>
conserv area</w>
C D
acţi unilor</w>
I l
trate ază</w>
gene rează</w>
omo lo
ho p</w>
doam nei</w>
destin ul</w>
zb orul</w>
bro w
amestec at</w>
ON G</w>
uș ă</w>
nor dul</w>
dialog ul</w>
instal at</w>
cau ti</w>
Flori da</w>
10 6</w>
ţi os</w>
im br
Wh it
sol are</w>
pără sească</w>
no ti
e i
cobor â
CE UTI
gal ax
dul ap
industri al</w>
ape luri</w>
poli tie</w>
oper atorului</w>
ent an</w>
O ra</w>
im pun</w>
Ri ley</w>
grese ala</w>
depă şeşte</w>
confir ma</w>
s atur
nenoroc itul</w>
recomand are</w>
îmbră că
e d
19 .
mă du
k g
exist entă</w>
SU B
li stei</w>
Su pre
Gre en</w>
terap ia</w>
princip ala</w>
me seria</w>
fă ceai</w>
experi enta</w>
compet ent</w>
aştep tare</w>
par ca</w>
opere ze</w>
le p
a buz
Un itatea</w>
ş ilor</w>
înţele agă</w>
pătr un
pu la</w>
progre s</w>
fotogra fia</w>
3 9
simpto melor</w>
mate rii</w>
en ă</w>
as ha</w>
10 000</w>
îndrăz ne
zi ţi</w>
co ti
formul ate</w>
val abile</w>
sab ie</w>
El len</w>
cri tică</w>
ati ilor</w>
g erul</w>
ph y</w>
Do cu
ştiinţi fice</w>
împin s</w>
luptă m</w>
P apa</w>
sălbat ice</w>
cat astro
bra ţele</w>
Intr aţi</w>
subcutan at</w>
învă țat</w>
cânte cul</w>
cal ităţii</w>
ca d</w>
măsu rii</w>
absolu tă</w>
răspun dere</w>
popul ar</w>
ma ică</w>
A ha</w>
1 30</w>
rez umat</w>
cont abile</w>
PA C</w>
E .
stri ca</w>
introdu cerii</w>
A ver
ni ţi</w>
col ab
on ie</w>
mone de</w>
concuren ța</w>
caz ino
ran dom
ci de</w>
E liber
măr un
extin să</w>
re ver
emb ri
curen tă</w>
formul arul</w>
poli tia</w>
gă sită</w>
len ă</w>
domen iului</w>
Reprezent ant</w>
ci z
muscul are</w>
locoten ente</w>
I di
tar ului</w>
statu tului</w>
confor t</w>
cuant umul</w>
Sar cina</w>
sal varea</w>
destin at
Între prin
ok ay</w>
gândi re</w>
fo re
che n</w>
M AT
jo aca</w>
T ara</w>
oglin dă</w>
cau ze</w>
înve ţe</w>
tru pele</w>
afl ată</w>
ti pă
bile tul</w>
TE A</w>
Încer ci</w>
respons abili</w>
bi lor</w>
ac ol</w>
par ţial</w>
p ate
necuno scut</w>
situ ațiile</w>
b âr
uti c</w>
met for
esc ro
con cur
sc ru
ogra fie</w>
Pregă tiţi</w>
discu ţii</w>
pun gă</w>
su pusă</w>
puş că</w>
ad ica</w>
g ast
teri ile</w>
FARMA CEUTI
do x
cerce tări</w>
ap recia</w>
vându te</w>
administr atorul</w>
MO DUL</w>
ca ii</w>
to ții</w>
sper anţa</w>
dimine ață</w>
ti ilor</w>
lezi uni</w>
recuper at</w>
c ac
enti tatea</w>
Jo i</w>
Po vestea</w>
separ ată</w>
securi tăţii</w>
Afac eri</w>
stra ți</w>
men ţinerea</w>
influ enţa</w>
proiec tare</w>
intal nit</w>
Ho u
3. 3</w>
spați ul</w>
frun ze</w>
în car
reuni uni</w>
materi alului</w>
co leg</w>
ati vi</w>
săr aci</w>
comerci alizarea</w>
al bi</w>
g astro
con feră</w>
1 40</w>
detali ată</w>
ide al</w>
cadav re</w>
bo x</w>
su pune</w>
en d</w>
cor o
De loc</w>
expi rarea</w>
avan sat</w>
R IN
ra s</w>
fot o</w>
ferici rea</w>
cobor ât</w>
dac ã</w>
cerebr al</w>
u i
întele g</w>
ve se
secun da</w>
roș u</w>
cre aturi</w>
Jere my</w>
refuz ă</w>
an ie</w>
A z
ofer ind</w>
juris pruden
de ste</w>
sen i
G y
Ken ny</w>
san itar</w>
pi r
pe şti</w>
in ate</w>
Rez olu
in oc
apăr a</w>
ribavir ină</w>
Alex and
um ab</w>
indic ii</w>
s ã
buz ele</w>
Pre siunea</w>
ic e
F a
z er</w>
uni or</w>
Franci s</w>
înmormân tare</w>
presu pus</w>
organ ele</w>
ob ţinerea</w>
n est
indivi d</w>
închi dere</w>
per for
ca pr
L .</w>
preal abilă</w>
co ol</w>
învin ge</w>
produ să</w>
fil mele</w>
D AR</w>
A fri
recur s</w>
inde m
cami onul</w>
Pă mântului</w>
Pune ţi</w>
sus ţin</w>
al arma</w>
su gest
s mo
des cen
an ţii</w>
s ley</w>
abi lul</w>
Zo e</w>
cuno aș
acc entul</w>
9 11</w>
ne discrimin
indic ată</w>
ig h</w>
par a
p â
consul tări</w>
văr sături</w>
Li ber</w>
ține ți</w>
tu s</w>
er g
asist ent</w>
proiec tat</w>
Mon t
10 0
a fiş
S pe
ofer ul</w>
ac torii</w>
Înce pem</w>
ci lin
păstr area</w>
ment area</w>
apro pii</w>
Miro ase</w>
înv aţă</w>
t ase</w>
elimin ate</w>
18 .
grăsi mi</w>
Du min
ing ul</w>
conver sie</w>
A cid</w>
tre cute</w>
ot i</w>
fe tei</w>
A U</w>
abor da</w>
ste ază</w>
miner ale</w>
concentre ze</w>
Ameri can</w>
prieten ilor</w>
Su e</w>
post uri</w>
ghe ază</w>
re ști</w>
Lew is</w>
C T
în mul
secun dar</w>
ob raz
for ţat</w>
pl acea</w>
pi pi</w>
me arga</w>
B ag
președin telui</w>
olan zap
depă şit</w>
astep ta</w>
Ro ş
sfer t</w>
F R</w>
cifr a</w>
prelun gită</w>
se c</w>
go vina</w>
di son</w>
monet ară</w>
Na ţional</w>
ho use</w>
gă tit</w>
O r</w>
pi an</w>
Centr al</w>
Is landa</w>
Cap ul</w>
ter ului</w>
D ro
go spo
2 8.
di tatea</w>
contr actuale</w>
realiz ării</w>
preţu rilor</w>
pan ică</w>
at ra</w>
comunic ării</w>
a lui</w>
zbo ară</w>
stre s</w>
înde aproape</w>
vi m</w>
Step hen</w>
K h
Sco ate
Dv s</w>
în apo
di am
c ime</w>
Cre ş
sl abe</w>
g im
Înce p</w>
clien ților</w>
EP AR</w>
garan tarea</w>
nor ve
pen ale</w>
lac tate</w>
Ob lig
C lin
fa x</w>
cri tic
ară tăm</w>
u cen
A ran
polit ici
H o</w>
so le</w>
rache te</w>
at est
spor tive</w>
adevăr atul</w>
terori smului</w>
ti ro
plat formă</w>
hotărâ re</w>
Whi te</w>
stimul area</w>
concentr aţiilor</w>
Servici ile</w>
b este</w>
arun căm</w>
spi on</w>
ran d</w>
fin alizarea</w>
electri citate</w>
i aşi</w>
pe ţi</w>
in fin
pre sus</w>
credi tului</w>
Războ iul</w>
ro w</w>
prejudic iu</w>
Jon athan</w>
Biro ului</w>
ra d</w>
gener alul</w>
sacri fici
ghe ze</w>
tur nat</w>
CO D</w>
frau dă</w>
văr sat</w>
co asta</w>
be sartan</w>
Cro ația</w>
in utile</w>
mo toarele</w>
Virgin ia</w>
So fia</w>
n ol
d entului</w>
hi dra
ate sc</w>
2 7.
Co leg
un chiule</w>
rămân eţi</w>
P ana</w>
Obi şnu
c imi
zi arul</w>
D rac
k n</w>
că ri
Detec tiv</w>
justi fică</w>
fal să</w>
ti pa</w>
fă ceau</w>
chi ului</w>
Apart ament</w>
consoli date</w>
Bel grad</w>
în surat</w>
preşedin telui</w>
bătrân e</w>
bicicle ta</w>
U T</w>
vulner abile</w>
Har old</w>
Con nor</w>
A S
z ar</w>
ON ARE</w>
C ran
întin de</w>
verte br
ochel ari</w>
Vo astră</w>
SE Times</w>
EX P</w>
Clu b</w>
Cer tific
sus cepti
ste n</w>
urb ane</w>
ri d</w>
ch ie</w>
vizu ale</w>
uş oare</w>
episo adele</w>
adap tate</w>
i oasă</w>
mu sul
5 43</w>
atmo sfera</w>
Mondi al</w>
organiz a</w>
distru g</w>
crimin ali</w>
on ar</w>
din spre</w>
Hal lo
ti une</w>
k u</w>
inform a</w>
cap abilă</w>
S pit
maş inii</w>
ero izi</w>
baz e</w>
instan ţă</w>
Nenoroc itule</w>
Bă trân
calific at</w>
N ec
Comand antul</w>
interpre tare</w>
angaj amente</w>
ți oase</w>
sc ara</w>
intelec tuală</w>
fre d</w>
Willi ams</w>
Jul ie
x on</w>
răsp lă
din aintea</w>
britan ic</w>
Pu terea</w>
Ni şte</w>
Bl ack</w>
An th
re t</w>
pre t</w>
iar ba</w>
ident ice</w>
eviden ți
tr ase</w>
preconiz ează</w>
mi rare</w>
me l
I L
distru gerea</w>
combusti bili</w>
co adă</w>
con vul
Co un
lo calitate</w>
Pe tru</w>
vac ul
glu ma</w>
su cur
ob ţin</w>
10 4</w>
ar melor</w>
s ha
mobi lă</w>
chim ic</w>
Vi ra
2 9.
scă păm</w>
plă ților</w>
canti tăți</w>
Jen nifer</w>
câști ga</w>
Ace a</w>
ucig aşul</w>
faci lită
ari ul</w>
o p</w>
Pro te
ar tri
experi ența</w>
ur are</w>
cunoștin țe</w>
um atul</w>
K in
dori ti</w>
potasi u</w>
int un
digit al</w>
U mb
R .
Bib lia</w>
aler ga</w>
leg iu
jefu it</w>
îmbunătă țe
iar nă</w>
distre zi</w>
lucr are</w>
gă torul</w>
ve l</w>
gră be
avan sate</w>
ni ţă</w>
inst inc
exce siv</w>
2 2.
scul p
mor mânt</w>
itali an</w>
b arul</w>
Y o</w>
st el
com pl
trimi ţi</w>
ti al</w>
strateg ică</w>
sfân t</w>
L imi
Ear l</w>
îmb r
dificul tăți</w>
stă tea</w>
dr o</w>
situ ată</w>
prefer ată</w>
Ză u</w>
Pe g</w>
acqu is</w>
P V
supli ment</w>
im o
Kar l</w>
r ază</w>
fen omen
V H
flo are</w>
Cum păr
declar aţia</w>
su fo
dumne ata</w>
caracteristic ilor</w>
Tri mi
în scris</w>
transplan t</w>
COMERCI ALĂ</w>
indic ator</w>
in area</w>
spar ge</w>
în semne</w>
se men
absen ţa</w>
I S</w>
norve gi
9 0
TI T
Su s
c ker</w>
O ne</w>
pri man
conce diu</w>
ag ne
ş er
stadi u</w>
identific ă</w>
evidenţi at</w>
apăr ării</w>
Băie ţii</w>
tu le</w>
opera țional</w>
întoar cere</w>
mun c
So ut
o anelor</w>
CA ŢIE</w>
E D
mulţu me
greş eli</w>
fix area</w>
inte grării</w>
instru mentul</w>
Fi ș
at ră
vig il
cur ge</w>
conferin ţă</w>
4 14</w>
iz ată</w>
furniz ori</w>
ciu per
cab ina</w>
1. 4</w>
fu ziune</w>
urmă rească</w>
sinte tice</w>
vampi r</w>
ul t</w>
stilo u</w>
or n
diferen ța</w>
m am
atâ ţia</w>
ali şti</w>
M ine</w>
Maș ini</w>
IS BN</w>
sin g</w>
ne potrivit</w>
afec teze</w>
Sfin te</w>
B lac
adău ga</w>
Lin col
rezol ve</w>
esc or
efor tul</w>
concentr a</w>
fabri ca
câşti ge</w>
imen s</w>
Den nis</w>
li tri</w>
fundament al</w>
compon entelor</w>
înregist rările</w>
ră nesc</w>
alim ent</w>
cer uri</w>
consoli dată</w>
Pro cur
schimbă m</w>
pregă teşte</w>
DAC Ă</w>
mat ica</w>
dor mit
ai r
dispozi tivele</w>
Cl au
kg m</w>
bătrân ul</w>
ambal aje</w>
speci ilor</w>
ame n</w>
h abar</w>
che ama</w>
Tra vis</w>
Litu ania</w>
d nei</w>
com pli
Ven e
Sy dney</w>
pozi ţii</w>
lic ia</w>
fi gur
an tele</w>
Min istru</w>
încă pă
ti zare</w>
t ter</w>
bu curi</w>
termen ului</w>
judecă to
ff y</w>
organiz are</w>
verific ăm</w>
op ţiuni</w>
ne tă</w>
ge au</w>
fra ţi</w>
s iti</w>
iar na</w>
ace p
RI LOR</w>
H au
s av
rit m</w>
at aș
Ch ine
observ aţi</w>
explic aţie</w>
R it
ce ți</w>
di vul
P au
Domni şoară</w>
pre dic
I ran</w>
sur prinde</w>
me mor
i g</w>
ansamb lul</w>
vari ază</w>
fer m</w>
concentr aţiei</w>
s .
Moldo vei</w>
Li am</w>
dro gurile</w>
o tr
atac uri</w>
Sout he
1 3.
fra ge
contac tul</w>
religi oase</w>
elab oreze</w>
con strân
ple aca</w>
ocup aţi</w>
mun cesc</w>
in can
B ol
ă toarea</w>
căsători ţi</w>
Ira k</w>
B r
vinde ca</w>
re no
bog ată</w>
ileg ală</w>
gar d</w>
CA T</w>
Ang el</w>
lovit uri</w>
Ro b</w>
ri ght</w>
ra să</w>
pregăti te</w>
mo ara</w>
fe lor</w>
Gabri el</w>
s si
Ma x
Fi ind</w>
licit ație</w>
distru să</w>
căr ți</w>
Rob er
mondi ale</w>
declar ate</w>
che zi
poliţi ştii</w>
Mar tha</w>
vizi te</w>
iniți ere</w>
dezvol tă</w>
biju terii</w>
ne obişnuit</w>
ie lile</w>
feti ţa</w>
avi ren
Ori care</w>
ur ce</w>
cân te</w>
în scrie</w>
retrag ere</w>
de al</w>
impresion ant</w>
ie l
cam pania</w>
U E
conţin ând</w>
T AR
gândi ţi</w>
capac ul</w>
ați uni</w>
Ş ti</w>
gân du</w>
combin at</w>
chest er</w>
T w
restric ții</w>
man ii</w>
b â
zon ul</w>
medi ter
angaj aţi</w>
univers al</w>
rinic hi</w>
Cau za</w>
semn area</w>
pescu itul</w>
comunic ații</w>
atrac ţii</w>
ri gi
intr aţi</w>
descur aj
Southe ast</w>
µ g</w>
Poli ţi
ta ș
Agen ției</w>
var sta</w>
plă țile</w>
astep tat</w>
M arte</w>
prob ele</w>
prelimin are</w>
În tr
tab el</w>
iz buc
gro ază</w>
K ath
organiz aţiile</w>
însu mi</w>
posibi lul</w>
partici pării</w>
stân gă</w>
pri veste</w>
petre ci</w>
limit area</w>
exac tă</w>
de ste
Ph arma</w>
ure z</w>
mecan ic</w>
Prac tic</w>
Respi ră</w>
10 9</w>
repar at</w>
Pă strează</w>
Har ris</w>
distru gi</w>
M B
Al tele</w>
st abil</w>
d son</w>
Vo lu
To ți</w>
primi re</w>
inv este
de col
con vo
ch o</w>
chel l</w>
feri cita</w>
dru muri</w>
Adi o</w>
stră ină</w>
specific at</w>
ole t</w>
cuprin zătoare</w>
Prieten i</w>
Matthe w</w>
neu tro
E van</w>
AT ENŢI
transmi sie</w>
dre y</w>
No u</w>
pen sie</w>
po c
cumpar at</w>
G reg
mu s
Mi siunea</w>
secre tele</w>
se seră</w>
schimbu rilor</w>
repe tat</w>
ho ţ</w>
ci re</w>
ar ati</w>
oter ap
stru guri</w>
k ie</w>
demo n</w>
An toni
ţe am</w>
Mic ul</w>
Ie si</w>
blo care</w>
op țiunea</w>
amend amente</w>
știin ță</w>
ŢI LOR</w>
vit am
transfer ate</w>
ti r
in cal
Rom an</w>
Elve ția</w>
ec k</w>
dorin ţă</w>
ac vacul
Se min
gh t
ș col
al ban
CYP3 A4</w>
da une</w>
y i</w>
Pai ge</w>
N av
be rea</w>
Chri stian</w>
Spen cer</w>
Parten eri
stabili rii</w>
concentr aţiile</w>
Sem n
Socie tatea</w>
hote lului</w>
ris ca</w>
sectori ale</w>
emisi unea</w>
control ată</w>
depă ş
al aturi</w>
vre una</w>
fo l
simb ol</w>
certific atelor</w>
Sam u
L ov
ti ți</w>
ic h
ax a</w>
P lu
planific at</w>
person alitate</w>
ge s</w>
cast el</w>
împre una</w>
re per
al s</w>
Euro pă</w>
1 -</w>
situ atia</w>
mi sc
cre deai</w>
10 5</w>
transfrontali eră</w>
log o
chirurgic ale</w>
G un
În cântat</w>
slăbici une</w>
im ul</w>
j ert
D ul
candi dat</w>
preşedin tă</w>
in vit</w>
dol ar</w>
D ri
împre juri
cu pru</w>
provo cările</w>
poe tină</w>
ne fericire</w>
explic it</w>
Mo dul</w>
Ţ ie</w>
pavi li
ţin utul</w>
vi rea</w>
dur abil</w>
O landa</w>
mediter ane
se s</w>
sec ţiunea</w>
re forme</w>
interpre tarea</w>
fe l
con secu
disp re
Bar bara</w>
198 7</w>
form ată</w>
cură ţ
apropi ată</w>
Lincol n</w>
TR AN
ze ască</w>
inferi oară</w>
A pă</w>
si v
intermedi are</w>
de punerea</w>
dan sezi</w>
gă sirea</w>
sfă tu
fo sf
CH MP</w>
se zon</w>
Epi so
f ito
r ai</w>
ast ică</w>
ven til
mag ic</w>
ince arca</w>
compan iilor</w>
realiz are</w>
obst acol</w>
men it</w>
Or din
1. 5</w>
lo vesc</w>
lip sei</w>
asigur ată</w>
I M</w>
b eri</w>
K im
am abil</w>
încăr cat</w>
potenți alul</w>
finan ţarea</w>
alcă tu
O N</w>
spori tă</w>
c au</w>
S âmbătă</w>
R h
invest itorilor</w>
disp ens
aștep tare</w>
ev itarea</w>
disp ărea</w>
gh ici</w>
fiin ţă</w>
Quin n</w>
Pho e
Ne il</w>
in su
Solo mon</w>
univer sul</w>
Dv s.</w>
gh am</w>
do u
te starea</w>
par ano
gasi m</w>
Au drey</w>
inter conec
cul ci</w>
co ada</w>
armoniz area</w>
Co operarea</w>
confiden ți
avertis ment</w>
M alta</w>
să ge
opri ţi</w>
bru tă</w>
ţi rea</w>
ve deri</w>
fo i</w>
Mon ica</w>
izol ate</w>
man ieră</w>
soli dă</w>
ntâ mplă</w>
întreru p
cup tor</w>
C N
Dum ne
Aştep t</w>
garan tare</w>
lup ţi</w>
bi ologice</w>
B run
fe licit
Pă rea</w>
si r</w>
in ge</w>
R ab
Folo seşte</w>
ur mei</w>
sălbat ic</w>
iniţi ale</w>
adau gat</w>
Distr ac
A ven
public a</w>
iub esti</w>
Nation al</w>
Miş caţi</w>
amen aj
teritori ului</w>
re examinare</w>
i rile</w>
încăr că
indi an</w>
lec ţie</w>
fruc telor</w>
avent ura</w>
mi ster</w>
cu le
credi tele</w>
co duri</w>
perio dice</w>
eventu alele</w>
coordon ate</w>
Pre fer</w>
înde mân
supr ap
ha luc
dovede şte</w>
Sam an
N i</w>
m all</w>
Su biec
re vină</w>
p u</w>
ment ară</w>
a prins</w>
rezidu uri</w>
re trag</w>
cap turat</w>
aş te</w>
ac uma</w>
mat ogra
neg ativă</w>
at t</w>
car ton</w>
Spec i
Intere sant</w>
teh nica</w>
clo v
înde lun
ră su
im plan
etiche tă</w>
antece dente</w>
C PC</w>
preaj ma</w>
condi ţionat</w>
Lucre ază</w>
F iule</w>
Defin i
ru ga</w>
po lon
anticor pi</w>
Ple aca</w>
statist ică</w>
de seori</w>
P is
G PS</w>
echit abil</w>
am icul</w>
sol ven
depășe sc</w>
Indu stri
ţu rile</w>
sprijin ului</w>
cot ate</w>
în şe
trag em</w>
p ate</w>
gi ilor</w>
cre ării</w>
si rii</w>
in far
Lou ise</w>
stadi ul</w>
construc ții</w>
ur că</w>
încuraj ează</w>
buc ata</w>
bel gi
tă ia</w>
produc ţiei</w>
preaj mă</w>
ste m</w>
sin ceră</w>
go sl
Mănân că</w>
Z A</w>
Spați ul</w>
Războ i</w>
F ron
studi o</w>
bleste mat</w>
anche te</w>
ş om
st aţia</w>
obişnu ite</w>
m achi
cuno stin
ac ută</w>
aminti re</w>
răma se</w>
agen da</w>
pov esti
mpl at</w>
în ainte
toale ta</w>
re forma</w>
pre feren
păc atele</w>
Lo gan</w>
împuter nic
institu ite</w>
substan țele</w>
stom acul</w>
înregistr ări</w>
volun tari</w>
primă vară</w>
conexi une</w>
bo vine</w>
închi derea</w>
ag lip
Hallo ween</w>
nucle ar</w>
căr bune</w>
ce c</w>
atribu ire</w>
influ enţă</w>
v ar</w>
dra g</w>
ci tiţi</w>
că tori</w>
de ton
Is a
Cu vin
AMBAL AJ
des car
Di ane</w>
A G</w>
it ura</w>
concentre ază</w>
B ry
dat orezi</w>
selec tate</w>
consult ativ</w>
A bi
si n</w>
comple tează</w>
vec inii</w>
trans formarea</w>
prim ară</w>
lin k</w>
că snic
ati velor</w>
ve ște</w>
păr ții</w>
do m</w>
2 1.
mi re</w>
tiv ii</w>
spori rea</w>
pie sele</w>
diare e</w>
aface rilor</w>
ter mo
Spi ri
închiri at</w>
Cal ea</w>
omor at</w>
lă m
inciden ţa</w>
guver nat
Slovac ia</w>
S uz
Bi o
Ave ai</w>
Anth ony</w>
protej ată</w>
li m</w>
cu ţitul</w>
copilă rie</w>
obiș nuit</w>
altern ativ</w>
teh nic
mul țumi
c .
Inst al
cre scă
Amb as
înlocu i</w>
în clin
m ere</w>
produ că</w>
par iuri</w>
main ile</w>
dezgustă tor</w>
cântă re
ADMINI STRARE</w>
min us</w>
G E
saptam ani</w>
impl ice</w>
Gar an
st a
one y</w>
mă rit</w>
Încer cam</w>
Ex plo
îmbunătă ţi</w>
Mag az
C amp
rapor tată</w>
Jul ian</w>
cri mele</w>
colec tive</w>
mobi liz
mag ia</w>
aprob ată</w>
terori st</w>
la x
ier tat</w>
cumpar a</w>
g ton</w>
adu ceţi</w>
identific e</w>
alerg ice</w>
w ich</w>
ten is</w>
atribu ite</w>
selec tați</w>
respin ge</w>
con sac
înjumătă ţire</w>
ex i
benefici at</w>
Th ai
fin ali</w>
acci dente</w>
promove ază</w>
T AT
Pro gnoza</w>
dispar ut</w>
cre atin
FABRI CAŢIE</w>
înş eli</w>
cău tam</w>
T ari
E .</w>
revi sta</w>
i do
V âr
funcţion area</w>
durero s</w>
sănăto asă</w>
spi r
cin cea</w>
ș ii</w>
rapor tarea</w>
for ță</w>
comple tarea</w>
măsur ată</w>
mar că</w>
inten ţion
multi anual</w>
g ren
co te</w>
A duceţi</w>
te rile</w>
eficac itate</w>
2 3.
deschi deţi</w>
h ero
coş mar</w>
clien ții</w>
in do
Memb ru</w>
sp ore
19 80</w>
valo rific
b aia</w>
iniți ativa</w>
201 9</w>
puş cărie</w>
dez ast
defini tivă</w>
înregist ra</w>
salari u</w>
inv atat</w>
P ast
Di feren
democrat ice</w>
urâ tă</w>
medic amen
co dific
ale r</w>
Asi sten
im unitar</w>
porto cal
no tele</w>
x i</w>
so lului</w>
conver gen
col m</w>
bă tu
Mi les</w>
Al bă</w>
st aţie</w>
poli ti
later ală</w>
Mar co</w>
Leon ard</w>
lu ati</w>
im ă</w>
trebu iască</w>
moder n</w>
2. 4</w>
la v</w>
ero ul</w>
consili er</w>
institu ției</w>
An n</w>
ţin ea</w>
reglement area</w>
lo veşte</w>
echip ajului</w>
cla se</w>
fo sfat</w>
veterin are</w>
sec țiune</w>
î I</w>
vi itorului</w>
speci alizate</w>
por no</w>
ne drep
can t</w>
concentr aţia</w>
injec tabile</w>
Mal colm</w>
B ar</w>
9 00</w>
li ft</w>
Let onia</w>
nă scu
furniz orul</w>
antrepreno ri
Ke ith</w>
Cele lalte</w>
pregă ti</w>
B uz
van ia</w>
Di avo
încer cării</w>
Se x</w>
lă u
depă ș
Atlan tic</w>
2 4.
combin ată</w>
pedep sit</w>
ief tine</w>
alită ţi</w>
Lab ii</w>
F ant
p ită</w>
E t
şobol ani</w>
bău tura</w>
Christ op
L un
Ave ți</w>
distru gere</w>
pen e
st an</w>
sec ole</w>
ob ţină</w>
flaco ane</w>
Caz ul</w>
fur ă</w>
Denumi rea</w>
D intr</w>
Kit ty</w>
COMUNITĂ ŢILOR</w>
presu punem</w>
teritori ală</w>
scu zi</w>
recuper a</w>
p al</w>
flu x</w>
demon stra
pre dat</w>
feno men</w>
ce artă</w>
ar b
condi ție</w>
an ţei</w>
Phoe be</w>
10 3</w>
co incidenţă</w>
ri ck</w>
lumin os</w>
impul s</w>
ele mentul</w>
raspun s</w>
termen ele</w>
p ec
We b
le u</w>
C UM</w>
Agen ţia</w>
solicit antului</w>
vir ale</w>
cla sic</w>
vin d</w>
al armă</w>
enor m</w>
Te va</w>
îmb ogă
tru pa</w>
lichi dare</w>
iub ită</w>
az onă</w>
Am ice</w>
râ ul</w>
v acă</w>
combin ație</w>
al tii</w>
imobi liare</w>
gan desti</w>
zic ea</w>
pro li
co stat</w>
di sc
atitu dinea</w>
Elli ot</w>
C AN
w er
supăr a</w>
funcţion at</w>
V i</w>
R af
In struc
Doc tor</w>
m ale
gra dului</w>
recomand ate</w>
p la</w>
cal mează</w>
an ce
V am
program at</w>
adev arata</w>
Proble me</w>
stri gat</w>
in ând</w>
combin aţie</w>
respira ţie</w>
recuno ască</w>
S eth</w>
rezidu urilor</w>
An terior</w>
împl in
uş ile</w>
r ama</w>
fo si
Sti ti</w>
Roc k</w>
te mele</w>
din amice</w>
Ho mer</w>
prive şti</w>
perman ente</w>
Termen ul</w>
termin area</w>
comunic ate</w>
com pre
celorl alţi</w>
T r
so țul</w>
Se bast
ex puneri</w>
pri ză</w>
w boy</w>
Sh ane</w>
Dur ata</w>
recuno aște</w>
pub lici</w>
opin ie</w>
cal it
maj or
func ții</w>
distribu ţie</w>
comerci alizate</w>
L abor
tur n</w>
incer ci</w>
atmos feră</w>
disponi bi
bă nuiesc</w>
baz ele</w>
cumpăr are</w>
M ĂR
notific ată</w>
inov area</w>
gra bă</w>
Nat alie</w>
tre buri</w>
oni u</w>
B y
solidar itate</w>
emisi une</w>
z ec
tempor are</w>
M ării</w>
Bun ica</w>
, 000</w>
veri fici</w>
sprijin it</w>
l ace</w>
apart amente</w>
încer cam</w>
să -</w>
ră pi
b lan
Ce hă</w>
port bag
A ST
re st</w>
gluco ză</w>
Ch an
robo t</w>
Ar hi
unită ţile</w>
v apo
uri aş</w>
t av
shi re</w>
activ i</w>
S qu
stim ula</w>
pă mân
E V
Cerce tare</w>
va sele</w>
sp lat
mar ile</w>
d ca</w>
Bo oth</w>
contractan tă</w>
mijlo acelor</w>
at ro
Y ou</w>
trans formare</w>
P D
cot ă</w>
strân se</w>
comple tat</w>
Ch am
salari ul</w>
profun dă</w>
plane tei</w>
li derii</w>
fin is
cor tic
in timi
flexi bilitate</w>
bom be</w>
K en</w>
j al
Administr are</w>
celu la</w>
aviren z</w>
ș ul</w>
semn ate</w>
far me
diagnost ic</w>
constru ite</w>
vorb e</w>
pozi tie</w>
bog aţi</w>
FI A</w>
No uă</w>
4 -</w>
demisi a</w>
com ă</w>
instan ță</w>
ie șit</w>
for ța</w>
con vine</w>
i artă</w>
echilibr ul</w>
in dispens
I E</w>
concep tul</w>
b aby</w>
am u
compar abile</w>
au z
ap ere</w>
pă străm</w>
pe sc</w>
arbi tr
fotografi ile</w>
sti ere</w>
Termin at</w>
Pier re</w>
Lu mina</w>
In sula</w>
valo rează</w>
neră b
pat ie</w>
ma ți</w>
folo se
consoli deze</w>
conserv are</w>
cami one
- O</w>
respirat orii</w>
tr on</w>
U .
ME LE</w>
ar a
ce aţă</w>
de termine</w>
viol ent</w>
hai deţi</w>
Wen dy</w>
tre x
comi siei</w>
Enter pri
B o</w>
re ţinut</w>
plu mb</w>
inter cep
declan ș
recuno scută</w>
mas ca</w>
Na ţională</w>
ţ ând</w>
convin g</w>
accep ţi</w>
Consi der
g lume</w>
tari atului</w>
parlament are</w>
tranzac țiile</w>
unită ților</w>
justi ție</w>
cheltu it</w>
ar ã</w>
acți ilor</w>
Nor man</w>
per chezi
ar anja</w>
E E
s am</w>
pl a
al f
Ofici ul</w>
O m</w>
pasage rilor</w>
b loc</w>
ar it
Stat utul</w>
Parti dului</w>
Bar cel
ar do</w>
măsur area</w>
fin ă</w>
mulţ umită</w>
di feră</w>
se f</w>
pu și</w>
as ea</w>
mode lului</w>
i dă</w>
Ro s
K ent</w>
mu ș
gu stul</w>
pro tocolul</w>
contac tat</w>
P y
v at
ră b
Gh ici</w>
tin ei</w>
n .
Stan dar
Mit chell</w>
ală turat</w>
ul tr
Saman tha</w>
F C</w>
acc entu
Mo tivul</w>
l aş
gă tori</w>
Che amă</w>
ţ eşti</w>
metal ice</w>
pan o
les bi
b ină</w>
L -</w>
trans misi
re au</w>
lă n
împăr atului</w>
tu ia</w>
mor tal
astero id</w>
mas cu
per cep
Finan ci
D G</w>
examin ării</w>
Nic ol
apor tul</w>
Fur niz
lumin ii</w>
căsători a</w>
Sec țiunea</w>
împuș cat</w>
mu tăm</w>
esen ţială</w>
păsă rile</w>
h ten
diver sific
ave l</w>
vot a</w>
maş inile</w>
oare cum</w>
n este</w>
d one
capac ităților</w>
trez eşti</w>
evolu ţia</w>
echip ate</w>
v ent
dob it
d ley</w>
3 8
ex pus</w>
compar at</w>
Pe ter
Mi d
flac onul</w>
contr acep
Jul es</w>
an țe</w>
vârst nici</w>
blo ca
rezisten ţă</w>
J ocul</w>
3 50</w>
tu ber
man care</w>
i oase</w>
elector al</w>
kilo grame</w>
RI LE</w>
Ne u
asist entă</w>
stocu rilor</w>
por tre
Viet nam</w>
contribu ții</w>
bat eri</w>
Tele fonul</w>
J ur
mar k</w>
Bon nie</w>
iub este</w>
pu sul</w>
echip ajul</w>
alim entelor</w>
vari abile</w>
urmări rea</w>
Co lo
tic ii</w>
i arăşi</w>
explo dat</w>
Lu min
substan ţă</w>
i ve
căr nii</w>
CE S
tific are</w>
1 1
pre fer</w>
ra y</w>
inten ţia</w>
gru pe</w>
Me gan</w>
rec ap
lun ga</w>
cardi ac</w>
Lo is</w>
Apro ximativ</w>
sof t</w>
er v
CE S</w>
min ore</w>
contr adic
ar itatea</w>
verific ate</w>
sim țit</w>
rețele lor</w>
plat z</w>
acoperi tă</w>
pu tă</w>
deci d</w>
In chi
A STA</w>
H i</w>
minun ata</w>
e dem</w>
al ter
ace lui
Alli son</w>
z in
modific ărilor</w>
glo anţe</w>
intal nire</w>
confuz ie</w>
colec tiv</w>
UN I</w>
elec trom
Bran don</w>
um ului</w>
sol v
lichi di
intre bat</w>
gre ș
G oo
se di
de taș
autoriz ație</w>
an u</w>
Ora şul</w>
proc entu
si de</w>
scenari ul</w>
depozi te</w>
cur ate</w>
ELI BER
desfă şoară</w>
speci alitate</w>
Edu ca
moder nă</w>
recom bin
inform area</w>
vă tă
insi stat</w>
În țele
whi sky</w>
consumat orului</w>
P lân
Între aga</w>
mone tare</w>
C ale
at atea</w>
perfuz abilă</w>
asisten ței</w>
Blac k
17 .
monitori za</w>
lun gimea</w>
calcul ul</w>
di rij
tic ul</w>
sper at</w>
nop ţi</w>
aștep ta</w>
So arele</w>
Prieten a</w>
împrumu tat</w>
Face book</w>
sal văm</w>
to ci
notific ării</w>
inten s</w>
M .</w>
potri vi</w>
gospo dă
direc ție</w>
învin ovă
mes ajele</w>
Iu besc</w>
Com pon
sca une</w>
gener at</w>
cul c</w>
ave n</w>
gar da</w>
dez bate
For d</w>
3 7
plă ci</w>
nenoroc ita</w>
Ori unde</w>
vede ti</w>
se sem</w>
pre dau</w>
document ului</w>
Au di
po s</w>
ne gri</w>
direc torului</w>
a a
Rapor tor</w>
li ar</w>
zg omo
v estul</w>
SPECI ALĂ</w>
Hi per
G r
B ay</w>
regi unilor</w>
nas cut</w>
jude cat</w>
alt ar</w>
V ac
o arelor</w>
astep ti</w>
ampren te</w>
re abilit
g ag
Bar ney</w>
rec en
T ina</w>
ATENŢI ONARE</w>
Se zonul</w>
râ zi</w>
li r
umb ră</w>
planu rilor</w>
concep t</w>
ascun dă</w>
ger s</w>
etiche tarea</w>
şcol ii</w>
ap eri
I van</w>
poli tist</w>
chirur g</w>
sei f</w>
ain a</w>
ri e
no v
mur dare</w>
hipoglice mie</w>
cre deti</w>
de pun</w>
S H</w>
mag hi
aşe zat</w>
miz eria</w>
in ser
evo luat</w>
exam inează</w>
ec tor</w>
contr az
pr aj
scri sorile</w>
V ale
N ă
ven irea</w>
echival entă</w>
cân ţi</w>
Stan ley</w>
săptămân ii</w>
navig ație</w>
c rom
transpor turi</w>
inten ţionează</w>
ghe z</w>
Ma son</w>
inspec ție</w>
f it
cauz ată</w>
War ren</w>
0 2
Jer sey</w>
viol enţă</w>
ba ut</w>
agen ția</w>
suro rii</w>
C PA</w>
înscri se</w>
răni ţi</w>
b est
Hol ly</w>
prieten ului</w>
Fi r
Crăci unul</w>
in scrip
bibliote că</w>
Ace laşi</w>
meri ţi</w>
extraordin ară</w>
puşti ul</w>
ateri zare</w>
pe s</w>
Pre cum</w>
Mijlo ciu</w>
experi ment</w>
elector ale</w>
so fi
ob țină</w>
cre ată</w>
Mur phy</w>
şeri f</w>
zah ărului</w>
sărbători m</w>
Vi ena</w>
trebu iau</w>
me t</w>
ge rilor</w>
to vară
cic lului</w>
sur selor</w>
ale agă</w>
Par adi
M ade
cauz ele</w>
r aza</w>
ist ice</w>
concentr are</w>
restaur ante</w>
ele gan
cor ob
5 000</w>
ar te
Cu vântul</w>
C lă
proce selor</w>
g ăr
cen ti
K al
înş i
rela țiile</w>
rapo artelor</w>
econom iile</w>
cap ac</w>
Carac teri
y ton</w>
ck y</w>
Uni ver
Sha wn</w>
OM C</w>
Bla ke</w>
şan sele</w>
d .</w>
artifici ale</w>
acor dării</w>
Desc ăr
op inii</w>
înde mâna</w>
nevo it</w>
S av
st âr
ger mane</w>
ay a</w>
Urmă toarea</w>
Să u</w>
Aș tep
efici ență</w>
clădi rii</w>
asi n</w>
analiz ate</w>
preconiz ate</w>
zic eţi</w>
Sy l
Ce tă
Adri an</w>
A x
mp i</w>
șe f</w>
titu din
p aza</w>
et ty</w>
b ã
datori ile</w>
con ținând</w>
chimi oterapie</w>
alo cat</w>
stabi le</w>
expi rat</w>
ameli orarea</w>
L uni</w>
Har per</w>
local i</w>
Memb rii</w>
3 6
ruti ere</w>
petre ceri</w>
elicop ter</w>
cuprin d</w>
aminti rile</w>
Ori entul</w>
răz gândit</w>
gra fic</w>
ca po
Pre ss</w>
di semin
ai be</w>
C P</w>
îmbunătăți re</w>
pau za</w>
indu c
urmă reşti</w>
intestin ale</w>
cic lul</w>
Paci fic</w>
Cerin țe</w>
ord s</w>
mecan ice</w>
Sam my</w>
înmatricul are</w>
în răută
gu rele</w>
Pre sedin
de ocamdată</w>
transparen t</w>
asemănă tor</w>
M eli
Colum bia</w>
n t</w>
Mo de
Fran ce</w>
invest itori</w>
pre sei</w>
e lului</w>
AL I
o co
PI R
meto delor</w>
de vast
S F
surpri za</w>
comun ica</w>
as o</w>
Plec i</w>
tă re
scl av
ri ilor</w>
inhib itor</w>
efec tului</w>
sur ori</w>
de liber
sărbă tori</w>
pre domin
for mei</w>
bă i
bolnav i</w>
T P</w>
pro asta</w>
Pak istan</w>
Yo ung</w>
V ER
organiz ări</w>
fu zi
B art</w>
Aste p
vam ală</w>
di h
condi ţie</w>
reţe aua</w>
itori e</w>
afec ţiune</w>
transparen ță</w>
p ali
instruc ţiuni</w>
DV D</w>
soco te
rătă cit</w>
plat forma</w>
mări me</w>
fer ată</w>
de vi
Intr a</w>
teritori ale</w>
exce sivă</w>
ace y</w>
științi fic</w>
v ata</w>
cine matogra
alt undeva</w>
B lan
fil mului</w>
discu ție</w>
i ii</w>
ad vers
Mun ca</w>
cap abile</w>
întoar ceţi</w>
b la</w>
cos me
Hol mes</w>
Bel l</w>
10 2</w>
re al
scand al</w>
satisfă cător</w>
practic ilor</w>
Ash ley</w>
ran it</w>
vi d</w>
miş caţi</w>
gră bim</w>
Rezi stă</w>
Pozi ția</w>
ti azi
br ator</w>
N aţi
B ani</w>
gre șe
flo rile</w>
univer sului</w>
be ton</w>
Reac ţiile</w>
fiș iere</w>
Pier ce</w>
P at</w>
struc turii</w>
subiec ţii</w>
planific area</w>
dep ind</w>
i sprezece</w>
funcţion eze</w>
Ch er
şter s</w>
serin ga</w>
proc ent
go go
dăun ătoare</w>
gh ea</w>
locu i</w>
Drep tul</w>
u los</w>
ți rea</w>
L ane</w>
viz ă</w>
folo sește</w>
avi ației</w>
angaj a</w>
is h</w>
d al</w>
schimb uri</w>
b alul</w>
adre sate</w>
vâr ste</w>
jurn alul</w>
F arm
4. 3</w>
w ith</w>
at ule</w>
ape la</w>
Repe t</w>
le z</w>
exam ina</w>
restaur antul</w>
nim ic
L i</w>
Econom ice</w>
re van
prizon ier</w>
pie ţele</w>
le ze</w>
discrimin are</w>
dest ui</w>
U K</w>
S can
măr ci</w>
f iti</w>
at ilor</w>
str aturi</w>
mode lele</w>
Christop her</w>
electrom agne
Sf âr
P D</w>
vin ovă
p tului</w>
actu alizat</w>
In fec
înde ajuns</w>
supraf ata</w>
privin ţă</w>
eg alitatea</w>
de asemenea</w>
Mă tuş
Do resc</w>
test ului</w>
alo care</w>
00 .000</w>
distru se</w>
expre sia</w>
Ral ph</w>
D ex
Admin ist
formul ar</w>
d abil</w>
actu alizată</w>
Pe ar
judici ară</w>
instal are</w>
coca ină</w>
prezent ă</w>
ne drept</w>
al tuia</w>
Thai landa</w>
Mar ina</w>
în ch
de mar
w h
C R</w>
însă şi</w>
vo are</w>
mun tele</w>
mu tă</w>
du p
anti bi
Ri o</w>
tehnolog iile</w>
Maest re</w>
hăr ţu
de țin</w>
calcul ate</w>
Samu el</w>
t y
specific ațiile</w>
l ene</w>
R ory</w>
ură şti</w>
operaţi uni</w>
legă turile</w>
l era</w>
descri să</w>
co ace</w>
Ge e</w>
5. 1</w>
lec tură</w>
C înd</w>
T ak
ge st</w>
extin se</w>
certific atului</w>
ambal ajul</w>
Pa ul
supraveghe rii</w>
călători t</w>
baz ei</w>
O pt</w>
Ag entul</w>
recomand area</w>
canti tățile</w>
Prom ite</w>
volu mului</w>
sin er
protej ezi</w>
mit eri</w>
cost ume</w>
brow ser</w>
ate ază</w>
insul inei</w>
Pen ny</w>
dez bateri</w>
supar at</w>
muz eu</w>
guvern anță</w>
do zele</w>
ati vei</w>
reprezent antul</w>
ho t</w>
E ve
s ang
pen h
bucur at</w>
W ade</w>
ri re</w>
on s</w>
n ind</w>
benefici u</w>
căsăto resc</w>
comun ităţii</w>
bu ton</w>
rezer vat</w>
mas ura</w>
S punea</w>
Re e
Fe telor</w>
R on</w>
G reci
B ori
3, 5</w>
sp an
frumuse ţe</w>
Autori tăţile</w>
x ac
l ară</w>
glume şti</w>
elimin ată</w>
dan sez</w>
v ã
v ră
min tit</w>
infor meze</w>
Christ ine</w>
ţi gară</w>
mi şti</w>
W alt</w>
oblig aţia</w>
le ască</w>
evre u</w>
Stru c
Pu team</w>
Isa ac</w>
ni merit</w>
S car
Ne mer
dece s</w>
d ărâ
bun icii</w>
bru te</w>
pălă ria</w>
Feli x</w>
CONDI ŢII</w>
ex amen</w>
ci tească</w>
S we
ş tele</w>
O S
delic ios</w>
G in
B E
15 1</w>
chine z</w>
S ala</w>
Gener alul</w>
Al er
dialog ului</w>
o pune</w>
te c</w>
ote ște</w>
co ala</w>
cer t</w>
K on
râ d</w>
parame trii</w>
organiz aţiilor</w>
incer ca</w>
analiz eze</w>
Comand ante</w>
loca ţia</w>
di m</w>
custo die</w>
plă nuit</w>
Contr olul</w>
13 8</w>
tun el</w>
rezol varea</w>
recoman da</w>
gravi de</w>
fir mei</w>
vizit atori</w>
pică tură</w>
re amintesc</w>
po rec
h ar</w>
terenu rilor</w>
pag u
organ elor</w>
ferovi are</w>
locu ieşti</w>
Na va</w>
sion ale</w>
er ori</w>
pre stat
opre ste</w>
judecă torul</w>
incer c</w>
aler tă</w>
la ser</w>
H an</w>
E in
vac anta</w>
rever sibi
des ert</w>
y e
th at</w>
mi gr
du z
j o</w>
gâ tului</w>
auto vehicule</w>
v y</w>
supravie țu
ad ren
Glo ria</w>
rețele le</w>
mur dă
is l
g gs</w>
Ş eri
ofi ț
EUROPE AN</w>
Antoni o</w>
tan d</w>
Gre en
mark t</w>
h ex
chi p</w>
S ist
umb ra</w>
păstr are</w>
ne ll</w>
integri tatea</w>
exclu se</w>
cri tice</w>
Iub itule</w>
părin ții</w>
num ar</w>
că m
R ot
achizi ționarea</w>
tion al</w>
sp len
an ței</w>
Insul ele</w>
2 6.
nemai pomenit</w>
e gi
oth y</w>
lini ei</w>
g ariei</w>
cu vine</w>
S ac
Câ şti
lacri mi</w>
co ar
an velo
U SD</w>
Do ua</w>
de odată</w>
I ne
Locoten ente</w>
teren uri</w>
omolo gării</w>
inform a
aprob ării</w>
L iec
B ate</w>
rec ord</w>
feme ii</w>
Exe cu
Că tre</w>
pro pun</w>
O x
C ic
standar dul</w>
cu ş
concentr aţii</w>
Te at
M ist
desfășur are</w>
li f
int ai</w>
auto mate</w>
D imen
transparen te</w>
on ica</w>
Liec hten
pi do
T .
Sti am</w>
IN G</w>
aștep tat</w>
M asa</w>
medic ină</w>
expi rare</w>
îmbrăcă minte</w>
guvern ator</w>
fanto me</w>
ad versă</w>
UN EA</w>
K er
Bine inteles</w>
promi siune</w>
domni şoara</w>
aminte ște</w>
Lo t</w>
Dan ie
ţ o
vizi bilă</w>
pavili onul</w>
Folo sind</w>
A P</w>
te sti</w>
Categori c</w>
amin o
An derson</w>
prescrip ţie</w>
tre ime</w>
echip aj</w>
aplic ații</w>
statist icile</w>
on eze</w>
multi laterale</w>
e ter
angaj ați</w>
sco ală</w>
miş cat</w>
dv .</w>
cunoştin ţe</w>
noro i</w>
izol at</w>
hiper sensibilitate</w>
favor abilă</w>
Je s
pă cii</w>
co ast
clasific are</w>
are stare</w>
t une
serv ice</w>
legu melor</w>
apreci ază</w>
Pro fi
2. 5</w>
gen ial</w>
adi o</w>
Nenoroc itul</w>
Jen na</w>
ma d</w>
Tim i
sp eră</w>
Meto da</w>
super b</w>
prizon ieri</w>
V .</w>
Die go</w>
trans mită</w>
t aş
circumstan țe</w>
abord ate</w>
18 2</w>
în tru</w>
mo șten
O cu
Nel son</w>
aman doi</w>
S tate</w>
OM I</w>
Mi lo
st elele</w>
car cin
S ter
So uth</w>
împie dice</w>
str âm
re ţele</w>
guver nele</w>
an x
Me mo
pruden ţă</w>
min ti</w>
invest it</w>
e lu
F .
titul arul</w>
po de
ju st</w>
pălă rie</w>
or ă
j ache
ic at</w>
8 0
efici enţa</w>
ic ole</w>
âr i</w>
puţin i</w>
Perso anele</w>
dormit orul</w>
descur că</w>
an c</w>
adap tat</w>
relig ie</w>
defini tive</w>
apropi ate</w>
te li
pă m
lo ză</w>
su c
stră zile</w>
f ân
eg alitate</w>
s fi
excep ționale</w>
aș adar</w>
M ini
zgom otul</w>
dat ã</w>
tat ei</w>
i o</w>
g al</w>
Fi gura</w>
ist ică</w>
telefo anele</w>
obo seală</w>
dispozi tivului</w>
n r.
pro stu
so vie
biseri cii</w>
V ane
Descri erea</w>
vi den
dum itale</w>
construc ție</w>
auzi ţi</w>
ar ca
RS UE</w>
descăr care</w>
P lo
Ofi ţ
M .
Cla y</w>
2 b</w>
sti ţi</w>
lucre aza</w>
apu ca</w>
ran g</w>
cetă ţe
b ule
trag erea</w>
mor ti</w>
Bud ap
B ron
Vorb ind</w>
trop ic
pasi unea</w>
p ân</w>
mon um
i ţă</w>
dez baterea</w>
Vi ata</w>
Trac y</w>
drago stei</w>
R and
- o</w>
echit abile</w>
bombo ane</w>
Pu tea</w>
Domen iul</w>
bună starea</w>
inst ale
ier t</w>
he im</w>
SP O
H m</w>
Creş terea</w>
Al b
mer gea</w>
iepur e</w>
wee k</w>
pat uri</w>
exerciți ului</w>
destin aţie</w>
Ser biei</w>
ți va</w>
țin utul</w>
º ti</w>
imag inile</w>
campi on</w>
bo te
T C</w>
prin şi</w>
hidro gen</w>
Volu mul</w>
German iei</w>
i asca</w>
Re ducerea</w>
viz ând</w>
mi ei</w>
dragu ta</w>
distan ta</w>
ade zi
Win th
Produ sele</w>
to po
i .
te x</w>
proprie tar</w>
pen ală</w>
at it</w>
Mari o</w>
de de
Nici unul</w>
consecin ţele</w>
Sh h</w>
Jum ătate</w>
îngrij ora</w>
gi gan
en ce</w>
ce as
en do
cel al
casti gat</w>
Co penh
A licia</w>
ma s</w>
gas esti</w>
aprovizion ării</w>
amuz antă</w>
Ă ştia</w>
sur ă</w>
P P</w>
Gran d</w>
Bun icul</w>
Princip alele</w>
vit ale</w>
c ală</w>
K il
încân tată</w>
sangu ine</w>
in drago
fur ate</w>
Fon t</w>
ro su</w>
itali ană</w>
farmacocine tice</w>
Ru th</w>
n tre
Ric ky</w>
P R</w>
Barcel ona</w>
e şe
au x</w>
ină u</w>
in directe</w>
gra f</w>
cură ţat</w>
S andy</w>
Di ana</w>
întoar cerea</w>
sp in
frontie relor</w>
de sen</w>
contr ab
can ale</w>
H all</w>
îndo ieli</w>
Ve hic
zâmb et</w>
tiv itate</w>
t are
perform anța</w>
parin tii</w>
le ac</w>
infrastruc turi</w>
tradi ționale</w>
p .
co ag
ec a</w>
chine zi</w>
rân duri</w>
pache te</w>
b ell</w>
t her</w>
călă torii</w>
Pi per</w>
H on
Greci ei</w>
prime ște</w>
mobi litatea</w>
dra gi</w>
di vizi
compens atorii</w>
w al
v ici
s burg</w>
priori tățile</w>
si f</w>
de fal
col est
capit ala</w>
i b</w>
g ini</w>
încuraj area</w>
Întâ l
vag abon
re fere
min tele</w>
cri tic</w>
ad una</w>
trag ere</w>
ne tt</w>
bon us</w>
autoriz ații</w>
D a
f ani</w>
cost is
Ş apte</w>
on ale</w>
M ea</w>
Ex terne</w>
A CE
na lului</w>
I ata</w>
CON T
o o</w>
2 10</w>
z ări</w>
proce de
ko v</w>
aliz ări</w>
Onor ată</w>
N A</w>
Im posibil</w>
prez erv
lon g
antre nat</w>
v ul</w>
nervo asă</w>
diferen ţe</w>
S ale</w>
A j
Blu e</w>
ci or
bucat arie</w>
şti rile</w>
urm are
reg ină</w>
ne ur
car tu
tis ment</w>
spati u</w>
obse dat</w>
g on</w>
ru de</w>
inform aţia</w>
tat ori</w>
an este
Re d
D ana</w>
îndrăgo stită</w>
ane mie</w>
înjunghi at</w>
ve rii</w>
con sim
chirurgic ală</w>
tre zi
si unilor</w>
r ina</w>
nepo ata</w>
l ata</w>
expor turilor</w>
S cul
Nic ole</w>
Le x</w>
IF RS</w>
mascu lin</w>
NU MĂR
Me diu</w>
împie dic
inam icul</w>
J ill</w>
li ţi</w>
eli mine</w>
lu p</w>
Phi lip</w>
AC P</w>
ven ită</w>
modalită țile</w>
încorpor at</w>
închi soarea</w>
în spre</w>
v asul</w>
so sirea</w>
fiin ţe</w>
Mo ş</w>
H uman</w>
manag er</w>
inclu și</w>
ală ture</w>
sche me</w>
pre lua</w>
st ent</w>
ge antă</w>
Is land</w>
intre bare</w>
G esti
ri tă</w>
furniz orilor</w>
tehnolog ică</w>
P ru
Agen ţiei</w>
te restre</w>
furt una</w>
aeron ave
Winth rop</w>
Cre ș
scu zati</w>
re sa</w>
enti tății</w>
Ro sie</w>
R P
Le s
îngroz itoare</w>
i anj
di străm</w>
Im pac
vin decat</w>
bu curi
an cor
b ack
B S</w>
rel ație</w>
lucră rii</w>
bu le</w>
ur mezi</w>
au dio
transparen ța</w>
pe scă
adre sată</w>
tâ mp
gener os</w>
Pu teai</w>
Bo w
stimul are</w>
mar j
g le</w>
Val ent
zon t</w>
gle z
învăță mânt</w>
încre derii</w>
depre sie</w>
B ac
S ca
trimi terea</w>
le şti</w>
consul te</w>
aju tor
vaccin are</w>
s ni
pre siuni</w>
popul ația</w>
frecven ţa</w>
F ruc
gram ada</w>
pregă tească</w>
pozi tia</w>
iniţi ative</w>
căl cat</w>
ci dent
aspec telor</w>
bătrân i</w>
amin tim</w>
S înt</w>
Pune rea</w>
hi p
Intr area</w>
EX PIR
in tu
S ite</w>
NUMĂR UL</w>
K or
Ce il
ca dre
J acqu
s ai</w>
răci re</w>
re prezinte</w>
den un
pre face</w>
permi să</w>
alită ți</w>
St one</w>
selec ție</w>
reac ție</w>
po ie
i lele</w>
con fec
Ver de</w>
con ţinut</w>
Mondi ală</w>
pedeap să</w>
V ic</w>
Le gii</w>
substan ţa</w>
lan țul</w>
apropie m</w>
homo sexual</w>
ferici te</w>
CYP 2
Bu d</w>
Al lah</w>
urech ea</w>
mod alitatea</w>
fac torilor</w>
am on
Re spon
por umb
in fil
3 D</w>
stimul ente</w>
---- ----
dore sti</w>
P .</w>
are st</w>
agricul tura</w>
1 11</w>
sân ii</w>
s y
for ta</w>
bra ţ</w>
C av
at ît</w>
ag itat</w>
Cam eron</w>
măs line</w>
urmări m</w>
Locoten ent</w>
Adre sa</w>
turist ice</w>
revi stă</w>
Ma ya</w>
mis care</w>
intre bari</w>
Gro up</w>
telefon ice</w>
pr an
pal ma</w>
mon t</w>
Re u
vec inătate</w>
st ine</w>
Euro stat</w>
Col ec
imi gra
expl ice</w>
ci rea</w>
1 14</w>
ț urile</w>
ti pule</w>
stabi lizare</w>
prelungi rea</w>
er adic
înconjur ător</w>
z an
melo die</w>
i ra</w>
ob struc
desp ar
sofi stic
ateri zat</w>
cont abil</w>
O moară</w>
dem ia</w>
Sk y
Con ținutul</w>
simp la</w>
me te</w>
proli fer
haluc in
chesti unea</w>
Com par
ru tină</w>
Sebast ian</w>
to amna</w>
căsăto rească</w>
biro ului</w>
G len
plane te</w>
instal ată</w>
c y
Vo ia</w>
Re ferin
Bib lie</w>
sc ând</w>
proste sc</w>
oraş e</w>
inspec tor</w>
tre ază</w>
mân caţi</w>
dre i</w>
Jan et</w>
elab orează</w>
apar ţin</w>
1. 000</w>
întunec ată</w>
ghi d</w>
femin in</w>
ent al</w>
ad a
E ast</w>
gră beşte</w>
gar di
cru d</w>
Dori ți</w>
stic le</w>
promi siunea</w>
origin ale</w>
cre atură</w>
sti inta</w>
s apte</w>
proc ente</w>
pere tele</w>
da e</w>
R ade</w>
ă torilor</w>
solicit ată</w>
mi rea</w>
des ene</w>
Succe s</w>
înlocu irea</w>
trat are</w>
neră bdare</w>
ju cam</w>
il alt</w>
funcțion ării</w>
derog ări</w>
Pu şti
desfășur area</w>
Mit ch</w>
te leg
ne voi</w>
introdu c
h en
descăr carea</w>
bo s</w>
J i
discu ţia</w>
de fect</w>
alim entele</w>
şo fer</w>
mate matică</w>
că su
Situ aţia</w>
viru sului</w>
V ile</w>
tur area</w>
rambur sare</w>
uș oară</w>
ter mică</w>
porto felul</w>
instru ire</w>
Dist ru
pri cina</w>
gră bi</w>
G AR
intro duc</w>
constru ită</w>
reprezentan ţii</w>
potenţi alul</w>
episo d</w>
diame tru</w>
con fun
S or
C V</w>
st art</w>
rugă ci
no w
adân cime</w>
tin ul</w>
Por t
Amb er</w>
ban d
ascun să</w>
ak i</w>
Descri ere</w>
proiec tate</w>
comis arul</w>
Con struc
functi oneaza</w>
con tului</w>
Fo st</w>
exerciţi u</w>
N et
vinov ată</w>
jun c
Pr omo
apreci at</w>
Orient ările</w>
z ori</w>
uş ii</w>
transfer ului</w>
tan e</w>
pe sc
P ache
ob ţii</w>
cerin ţe</w>
sc h</w>
ră nită</w>
plen ară</w>
înso țită</w>
Î mp
plas mă</w>
inam ic</w>
A D</w>
mar ii</w>
fix ă</w>
eviden ţă</w>
can cerului</w>
întâr zii</w>
vizu aliza</w>
preţu rile</w>
prevede rilor</w>
lim fo
Lau ren</w>
G ir
încheie rii</w>
ră st
rol l</w>
infar ct</w>
Dai sy</w>
Simp to
re e</w>
pre scris</w>
d un
consecin ţe</w>
inchi soare</w>
angaj amentelor</w>
abord ării</w>
O fer
FOR MA</w>
Copenh aga</w>
Ac tul</w>
nu meri
Maj estate</w>
zvon uri</w>
vre murile</w>
s fe
ic ină</w>
ali ştii</w>
absol vit</w>
SUB STAN
G P</w>
Du hul</w>
îngrijor are</w>
tur ul</w>
tr y</w>
pri melor</w>
pierdu te</w>
ochel arii</w>
sin drom</w>
proc entul</w>
pre siunii</w>
el ă</w>
seri ei</w>
operaţi une</w>
n azi
lip si</w>
instal ațiile</w>
asoci ază</w>
dispozi tivelor</w>
defini ția</w>
şe fule</w>
re par</w>
Mă suri</w>
deş teaptă</w>
E i
verific ări</w>
tic he
cl aritate</w>
subiec ţi</w>
favo rit</w>
cab ină</w>
Cheltu ieli</w>
du m</w>
ag en</w>
carac tere</w>
cap etele</w>
Consi der</w>
u lui
pi eri</w>
organiz ație</w>
Con t
încăpă ţân
comun ice</w>
cer ne
b ări</w>
asu me</w>
J unior</w>
sp p</w>
vide oc
po gor
dr az
ar us</w>
Enterpri se</w>
Dra gu
sărbă to
bu ze</w>
angaj eze</w>
Est onia</w>
solu ționarea</w>
po dul</w>
introdu că</w>
inspi rat</w>
u şi</w>
rezon abile</w>
abilită ţii</w>
pl ina</w>
hidra ul
celu ilalt</w>
Am az
lo veşti</w>
e vrei</w>
G U
circu it</w>
Tit an</w>
E uro</w>
Cal cul
sub ordon
reviz uit</w>
diavo lul</w>
întun eri
în ot</w>
tari at</w>
pre vedea</w>
in toxic
închi dă</w>
St ân
sol ar</w>
re pau
provo cate</w>
g aci</w>
locu itorii</w>
jucă torii</w>
Lucr uri</w>
t ast
maest ru</w>
He ather</w>
s olul</w>
renun ţe</w>
par a</w>
h ard</w>
bas chet</w>
înălţ ime</w>
z of
v ap
plat forme</w>
nume ste</w>
mu ţi</w>
petre cem</w>
caz ut</w>
fix at</w>
I re
co c
S and
A A</w>
închi pu
terape utic</w>
încuraj eze</w>
tă ie
proprie tăți</w>
faim os</w>
te mi</w>
ro lului</w>
pre mii</w>
agricul turii</w>
gestion ate</w>
El lie</w>
protec ţiei</w>
can cerul</w>
ale y</w>
sub min
l ab
pest ici
h ec
I Î</w>
naş pa</w>
creş teri</w>
îndrep tat</w>
um ăr</w>
cre ste</w>
CH I
însu și</w>
serv ici</w>
b or</w>
actu aliza</w>
vop sea</w>
accep tată</w>
Step han
oport unități</w>
mire asa</w>
compati bilitatea</w>
Cor por
o ti
acti une</w>
N ob
rezon abilă</w>
între ținerea</w>
oten sin
din oz
ag ra</w>
de ten
carb uri</w>
certific atele</w>
Vi brator</w>
An a</w>
pl ay
flo xac
princip alelor</w>
zb oare</w>
on ilor</w>
disp ari</w>
in car
aten tie</w>
acci den
E s
tr ol
anivers are</w>
Nic hol
facili teze</w>
Recep ţionat</w>
B az
stân g</w>
st ar
in cu
for t</w>
ad ună</w>
TA IL</w>
st y</w>
po pon
at ace</w>
a on</w>
Re c</w>
Mon itori
Îmb unătă
trat ată</w>
consoli dării</w>
ra s
oport unitatea</w>
Fil mul</w>
sche mei</w>
Colon ele</w>
Vorb este</w>
þ ii</w>
Mă i</w>
societă ţi</w>
cerin ţelor</w>
P avel</w>
Ci teşte</w>
înce tezi</w>
ci oc
3. 4</w>
ţesu tului</w>
s che</w>
mat ur</w>
mas aj</w>
călăto resc</w>
si gi
ne tul</w>
jude ca</w>
blo ca</w>
Pre par
epi lep
solic itare</w>
et te</w>
comer ţul</w>
metro u</w>
fronti erele</w>
cen ţi</w>
ajust ări</w>
rel atie</w>
respi ră</w>
funcţion are</w>
Şe fu</w>
din ţii</w>
1. 6</w>
ar he
înţele pt</w>
rezidu ale</w>
S tic
H I
Ch ase</w>
An dro
se tările</w>
AT Ă</w>
trime stru</w>
plas at</w>
To k
întreru pe</w>
recomand ărilor</w>
in vin
clien ţilor</w>
te mplu</w>
prepar at</w>
co efici
reglement at</w>
o ver</w>
intar zi
Frank lin</w>
Bo x</w>
2 99</w>
ulti mei</w>
tri miteri</w>
t w
repe ta</w>
ele vi</w>
atmosferi că</w>
benefici ari</w>
am ic</w>
aeri eni</w>
re b
determin are</w>
mer i</w>
estim ate</w>
Ron nie</w>
K a
ir ul</w>
ieş iţi</w>
exam ineze</w>
depă şească</w>
an ten
Do ug
por ni</w>
o ţel</w>
inten ția</w>
re văd</w>
criteri u</w>
ta ică</w>
st ocul</w>
gh inion</w>
încal că</w>
trans mitere</w>
exerc ita</w>
de cursul</w>
L iz
- A</w>
Tur ner</w>
so ţii</w>
evenim entul</w>
Profe sorul</w>
Democ rat</w>
tâm pit</w>
prieten ie</w>
o pus</w>
Alex ander</w>
jum ate</w>
ele vii</w>
decen ii</w>
1 107</w>
ini b</w>
Cra ig</w>
Car ta</w>
iniţi erea</w>
şam panie</w>
satisfă cătoare</w>
pu st
ge ria</w>
fir me</w>
cutan ată</w>
înce tin
mar jă</w>
l lo</w>
fund al</w>
cif rele</w>
Posibi l</w>
străluc itoare</w>
b locuri</w>
simplific area</w>
do rea</w>
deş ert</w>
EF SA</w>
C ent
meto dei</w>
acţion a</w>
vorbe ște</w>
0 9.
ori cât</w>
mar o</w>
asemen i</w>
G ali
DI REC
ver ul</w>
canti tăţi</w>
St ati</w>
Cu lo
împre jur
h au
pe şter
mecanis mului</w>
încăl cări</w>
că tuş
Efec tul</w>
CE D
fac torul</w>
R az
permi teţi</w>
disper at</w>
exper ţi</w>
căsători m</w>
înt î
sără cie</w>
ouă le</w>
instru mentului</w>
istori ei</w>
aeropor tului</w>
inv ita</w>
co boară</w>
Tur ciei</w>
bi s</w>
Chi ş
urg entă</w>
elibe reze</w>
oblig ație</w>
m ã
frecven ță</w>
o aie</w>
engle z</w>
b agă</w>
Program ului</w>
Nor mele</w>
jen ant</w>
Tem per
Gene va</w>
supăr are</w>
ex pan
domni soara</w>
şe z</w>
urm aţi</w>
co opereze</w>
ap arte</w>
Span iei</w>
ş coli</w>
instal ațiilor</w>
J an</w>
tari atul</w>
sp era</w>
g ã
reflec ta</w>
mar cate</w>
fugi m</w>
b ord
Cale b</w>
ade n</w>
M O</w>
h ist
- Cum</w>
pavi lion</w>
T ATE</w>
inv ad
por ci</w>
lan sa</w>
expre sie</w>
cerin ța</w>
baie te</w>
ţi unilor</w>
uri aşă</w>
fon dului</w>
Dam on</w>
az ot</w>
întreru p</w>
vu dină</w>
comer ţului</w>
Ap aren
5. 2</w>
ţ eze</w>
tra iesc</w>
scu za</w>
pre da</w>
expre s</w>
fi bro
car itate</w>
Ti pii</w>
sol daţii</w>
pov esti</w>
justific at</w>
de semnează</w>
accep tarea</w>
T .</w>
împuş c</w>
reglement ărilor</w>
ne politicos</w>
nume ște</w>
cu ceri
E G
v esti</w>
ti pic</w>
siguran ţei</w>
par cul</w>
privi m</w>
plat it</w>
co inci
Har v
H ector</w>
dori te</w>
20 1</w>
tri bul</w>
im per
contribu ției</w>
înce tarea</w>
en ne</w>
Lu crezi</w>
tat orii</w>
pido gre
D ale</w>
propri ilor</w>
nor mă</w>
valu ri</w>
prim atele</w>
Ma ine</w>
su ri
preci zat</w>
T are</w>
Co sturile</w>
îmbunătăţi re</w>
mete or
com promi
urmat oarele</w>
ie zi</w>
car tuş
candi dat
su r</w>
interzi să</w>
ec h</w>
bu ds
bicicle te</w>
T Ă
contr apăr
manage mentul</w>
bi ologic</w>
vertic ală</w>
ec ologic</w>
az ie</w>
apari ţie</w>
ad s</w>
păstr ate</w>
proce dur
căr ă
apar atele</w>
N ora</w>
gr ast
confir marea</w>
b ru</w>
L ex
Ex pl
prive li
fi abile</w>
st răz
preci se</w>
av ute</w>
organiz aţie</w>
in ghe
ego ist</w>
ac tivează</w>
Miş to</w>
în armat</w>
străz ii</w>
m ame</w>
Im pre
şti ind</w>
u ţa</w>
gră dina</w>
fic are</w>
f umul</w>
ame st
um blat</w>
înconjur at</w>
semn ale</w>
je rie</w>
amân a</w>
No vo
un ica</w>
spe cul
apo artele</w>
6 0
ul tim</w>
rambur sarea</w>
[...]
