#version: 0.2
t h
t i
th e</w>
i n
a n
r e
o n</w>
e n
o f</w>
e r
o n
e d</w>
a r
o r
r o
an d</w>
t o</w>
a ti
e s</w>
i n</w>
i t
i s
e r</w>
a l
a t
in g</w>
o r</w>
o u
a l</w>
i c
e c
o m
a c
s t
ati on</w>
i s</w>
a p
o s
m en
p ro
s u
s i
l e</w>
a t</w>
t s</w>
a n</w>
f or</w>
e s
e l
c on
a s</w>
a s
u l
T h
p l
v e</w>
u r
i l
t r
s h
q u
u n
o l
@ -
@- @</w>
e m
b e</w>
a b
ti on</w>
2 0
on s</w>
ti c
men t</w>
a d
w h
e n</w>
d i
c e</w>
th at</w>
i m
c om
u s
it h</w>
al l</w>
a g
w ith</w>
n o
e x
e g
Th e</w>
d u
ap os
& apos
o p
l y</w>
a m
e t
e v
b y</w>
o t
it y</w>
c i
f or
at e</w>
C om
re s
n g</w>
v i
l o
r i
l i
Com m
p or
ou n
p ar
e re
p e
ar e</w>
c h
b er</w>
m e
t a
A r
si on</w>
20 0
f i
c l
sh all</w>
Ar tic
t ed</w>
er s</w>
no t</w>
a y</w>
i t</w>
f f
&apos ;
re c
Artic le</w>
n e
du c
l d</w>
th er</w>
en t</w>
ti ng</w>
i on</w>
p er
h a
t er
u ro
e t</w>
E uro
ou ld</w>
S t
th is</w>
er e</w>
em ber</w>
an ce</w>
qu ot
ul ation</w>
d ing</w>
quot ;</w>
& quot;</w>
a r</w>
R eg
g h
d e
ro m</w>
is sion</w>
th e
f rom</w>
d s</w>
at ed</w>
p os
o v
ac c
a i
d ed</w>
o u</w>
ic h</w>
re g
on al</w>
Reg ulation</w>
wh ich</w>
b e
Euro pe
p ec
ab le</w>
Europe an</w>
d er</w>
o w
ti es</w>
ti ve</w>
Comm ission</w>
ati ons</w>
ti ons</w>
at es</w>
men ts</w>
st r
20 1
t er</w>
ar y</w>
i es</w>
ur e</w>
c h</w>
pro duc
E C</w>
ou t</w>
d e</w>
M ember</w>
for m
it s</w>
b u
ha ve</w>
an t</w>
a u
&apos; s</w>
re d</w>
y ou</w>
l e
& #
&# 9
s e
es s</w>
w or
m a
N o</w>
c o
e st
f in
es s
d is
re s</w>
ap pl
p r
sh ould</w>
a v
u m
por t</w>
cl u
o ther</w>
g r
su b
ou r
&apos ;</w>
e ment</w>
U n
a f
o d</w>
w e
ou r</w>
on e</w>
c er
m e</w>
in g
m ar
qu i
r e</w>
lo w
in e</w>
k e</w>
an y</w>
E U</w>
l is
i c</w>
t u
o c
St ates</w>
t e
s o</w>
re f
com p
il l</w>
as e</w>
e p
A n
j ec
os e</w>
I n</w>
en ti
s ec
h as</w>
ar d</w>
s er
re l
i th
. .
i d
us e</w>
ic ation</w>
o b
w as</w>
w ill</w>
h i
m in
th or
s pec
gh t</w>
o g
or d
a y
an g
al ly</w>
u b
c re
ag e</w>
i r</w>
t h</w>
pro vi
k ing</w>
m ay</w>
v is
ati onal</w>
ic e</w>
as s
v er
an s
C oun
pro c
ci al</w>
d er
or e</w>
p re
e l</w>
p res
f ol
t en
op er
a su
s y
ci l</w>
us t</w>
Coun cil</w>
i r
e ar
au thor
D i
re n
p ri
u m</w>
the ir</w>
mar k
com m
ap pro
I n
Un ion</w>
i ties</w>
u p</w>
en ts</w>
me asu
w ith
W h
ic al</w>
Th is</w>
c oun
p o
in clu
f ac
ec is
be en</w>
t ec
ati ng</w>
r a
par tic
k s</w>
re at
e ff
pl e
i a</w>
ev el
u s</w>
fol low
P ar
form ation</w>
e d
ser v
tr ans
ic i
a in
ai d</w>
Di rec
m ore</w>
in ter
m an
ere d</w>
al so</w>
h e
g en
c es</w>
i v
t o
m on
el y</w>
a il
n ational</w>
t y</w>
Comm un
in v
1 9
es t</w>
spec i
al s</w>
ag r
es e</w>
re qui
su l
in to</w>
b le</w>
su p
c an</w>
g n
s t</w>
ow n</w>
g h</w>
con t
ti v
p h
s ti
3 ;</w>
&#9 3;</w>
ecis ion</w>
in formation</w>
1 ;</w>
&#9 1;</w>
b et
en ce</w>
th an</w>
p en
su ch</w>
un der</w>
for e</w>
u t
il ity</w>
si d
st e
str u
I t</w>
or y</w>
0 0</w>
ad e</w>
ati ve</w>
p ol
b o
or s</w>
ere n
en t
acc ord
d ic
s e</w>
men t
st an
ov er
u e</w>
Direc tive</w>
coun tr
T H
per i
ou s</w>
ul ar</w>
s o
T I
g o
m o
ne x</w>
Commun ity</w>
ic es</w>
pl ac
b as
ac h</w>
lis h
c ar
c y</w>
follow ing</w>
as t</w>
wor k</w>
v al
An nex</w>
measu res</w>
ti n
th ere
si gn
p ub
accord ance</w>
St ate</w>
g ro
w e</w>
am e</w>
r is
con cer
tr i
i f</w>
est ab
us ed</w>
i ons</w>
eff ec
produc ts</w>
i f
the y</w>
l a
fin an
agr ap
ta in
a d</w>
mark et</w>
p ur
in t</w>
fi ed</w>
r u
al l
e ar</w>
l es</w>
y our</w>
er red</w>
evel op
ti me</w>
n ec
we en</w>
i g
t ur
par agrap
p e</w>
d o
li c</w>
bet ween</w>
concer n
an s</w>
in t
t or</w>
l eg
m ust</w>
el l</w>
or der</w>
fi r
wh ere</w>
is t
ing s</w>
ar g
1 0</w>
w ere</w>
p on
a re
er al</w>
O N</w>
P ro
te e</w>
o w</w>
a men
estab lish
s el
en tr
su re</w>
w ould</w>
por t
ref erred</w>
f un
ta in</w>
C O
om e</w>
oun t</w>
C on
ac t</w>
bu t</w>
n o</w>
f o
os t</w>
com pl
th ese</w>
d et
s et</w>
1 .
th ose</w>
ne w</w>
d at
on ly</w>
O J</w>
u p
d evelop
paragrap h</w>
i ti
sti tu
u d
partic ular</w>
pro vis
with in</w>
1 0
an is
D ecision</w>
ste m</w>
d ec
ch ang
stru c
c or
m at
re e</w>
ev er</w>
p ati
res pon
C h
provi ded</w>
gr am
s ol
appl ic
per s
h n
ec on
e y</w>
t ly</w>
d own</w>
si ble</w>
reg ard</w>
am p
ta k
2 .
E U
con di
su r
in cre
fi c</w>
k no
m il
li a
g u
v en
f r
inclu ding</w>
i p
e w</w>
ar ds</w>
it tee</w>
u st
re ement</w>
is tr
c ap
ov er</w>
F or</w>
p a
un der
af ter</w>
ta ke</w>
im ple
r it
finan cial</w>
I I</w>
lo c
d ay</w>
l ev
dat a</w>
er g
om ic</w>
or g
t w
ro u
e f
o ff
ul es</w>
i tion</w>
jec t</w>
2 0</w>
di rec
d oc
in es</w>
sy stem</w>
wh en</w>
di ff
TH E</w>
f l
n um
ad op
c ur
d o</w>
on g</w>
is e</w>
pro pos
nec ess
peri od</w>
A N
ti c</w>
it ed</w>
Par lia
is ed</w>
4 .
il l
19 9
pol ic
t ure</w>
v e
th ere</w>
R E
Parlia ment</w>
for m</w>
i d</w>
s it
ti f
m ade</w>
countr ies</w>
su m
ex c
pro tec
ay s</w>
is su
Comm ittee</w>
I N
el l
n al</w>
pati ents</w>
tri bu
vi r
re qu
necess ary</w>
ar i
ti onal</w>
lev el</w>
tec hn
t y
requi re
ti on
c ol
h y
appro pri
lo w</w>
T E
d ur
et y</w>
author ities</w>
en g
ab ility</w>
.. .</w>
l l</w>
cont ro
re sul
em s</w>
I S
an n
200 6</w>
th er
en sure</w>
fir st</w>
condi tions</w>
y ing</w>
at eg
st s</w>
i ght</w>
w ay</w>
al ity</w>
serv ices</w>
f e
po int</w>
r ules</w>
I f</w>
ac h
h ol
pro gram
c ase</w>
ol og
v ing</w>
por ts</w>
res pec
pub lic</w>
ad min
pl o
f u
Y ou</w>
d el
u t</w>
d g
e ther</w>
l im
oper ation</w>
R O
wh o</w>
1 2</w>
ad di
i de</w>
b en
e ments</w>
av ing</w>
e ach</w>
c a
v es</w>
th rou
a m</w>
&apos; t</w>
m g</w>
in ation</w>
ear s</w>
v ed</w>
tr ac
re sid
200 7</w>
y ear</w>
o ds</w>
em b
is h
E C
T reat
ne ed</w>
m s</w>
ab out</w>
ai r
num ber</w>
produc t</w>
appl ication</w>
require ments</w>
E E
the m</w>
b ec
.. ..
f ul
A c
as es</w>
man ag
tic al</w>
appropri ate</w>
provis ions</w>
ir d</w>
y ears</w>
oun d</w>
rel ev
se e</w>
gh ts</w>
A g
d ate</w>
O F</w>
t reat
E EC</w>
tw o</w>
con tain
5 0</w>
3 0</w>
l ess</w>
cer tain</w>
3 .
eren ce</w>
av ail
200 4</w>
im port
A R
ma in
dur ing</w>
par t</w>
a st
h e</w>
ment ation</w>
tak en</w>
c ri
sup port</w>
Treat y</w>
w ell</w>
p tion</w>
vi ew</w>
rec e
H aving</w>
el ec
im um</w>
erg y</w>
org anis
develop ment</w>
200 5</w>
ac tion</w>
econ omic</w>
ic ul
1 5</w>
1 1</w>
t e</w>
de fin
ow ever</w>
ris k</w>
treat ment</w>
e e
200 9</w>
ac k</w>
er i
u ation</w>
plo y
n on</w>
bas is</w>
g iv
e qui
speci fic</w>
200 8</w>
M E
comm on</w>
ti m
me ans</w>
p er</w>
th ird</w>
stan d
there fore</w>
over n
W e</w>
s af
y s
s ame</w>
c al
con tin
polic y</w>
di es</w>
d es</w>
ver y</w>
me th
be fore</w>
appl y</w>
h el
ha d</w>
re port</w>
ed ure</w>
concern ed</w>
an d
ex t</w>
for ce</w>
throu gh</w>
is ation</w>
u tion</w>
comp et
b el
si ons</w>
Ag reement</w>
e ts</w>
D ec
applic able</w>
avail able</w>
relev ant</w>
ta king</w>
ff ici
ass ess
an ts</w>
pur pos
m y</w>
li ke</w>
ur ity</w>
as ed</w>
bas ed</w>
admin istr
plac e</w>
d ose</w>
vir on
l ec
in stitu
in ci
in dic
en d</w>
it ted</w>
cur ren
e qu
with out</w>
acc ount</w>
m ost</w>
ma ke</w>
con sid
it al</w>
in al</w>
p ow
c r
0 0
chang e</w>
enti al</w>
P resid
in iti
an im
ac ti
wh at</w>
s ch
me di
ob jec
op le</w>
f ur
doc u
p ay
o l</w>
provi de</w>
d es
ri ght</w>
ar m
M ar
sub m
res s</w>
Euro pe</w>
ac tions</w>
im p
A TI
c ould</w>
produc tion</w>
s ome</w>
1 4</w>
do es</w>
d em
l ine</w>
1 3</w>
ac k
in du
er y</w>
inv est
h ic
2 5</w>
countr y</w>
b ot
at er</w>
proc edure</w>
201 3</w>
i ed</w>
vi ties</w>
protec tion</w>
s ed</w>
or ig
E n
en cy</w>
pe ti
al th</w>
u al</w>
i z
an ti
d y</w>
t ors</w>
diff eren
re duc
h is</w>
amen ded</w>
5 .
d r
A s</w>
c our
on g
con tribu
pos sible</w>
ou t
b i
si de</w>
m p
por ted</w>
ai r</w>
acti vities</w>
l ed</w>
am e
ment al</w>
i ve</w>
A S</w>
s al
c ul
proc e
c an
me dic
op in
tur al</w>
in f
reg ul
a k
con sum
6 .
en ergy</w>
imple mentation</w>
b ility</w>
is l
R e
Dec ember</w>
em ploy
contro l</w>
s p
200 3</w>
b r
leg al</w>
re pres
are a</w>
li g
com e</w>
men ting</w>
en viron
a use</w>
1 2
h um
c entr
ve hic
sh i
om s</w>
res t</w>
so cial</w>
det er
ot al</w>
pen d
l in
M r</w>
d ecision</w>
r ang
201 1</w>
im pro
pe ople</w>
manag ement</w>
A u
id enti
E x
re ad
th ing</w>
it e</w>
a in</w>
sub ject</w>
la w</w>
us in
m i
val ue</w>
as s</w>
1 6</w>
S ec
at ure</w>
Wh at</w>
giv en</w>
sy st
there of</w>
ere as</w>
ro s
i l</w>
be ing</w>
if ic
shi p</w>
EU R</w>
com men
Presid ent</w>
un d</w>
1 8</w>
sup pl
tiv es</w>
ame work</w>
t re
compet ent</w>
respec t</w>
on d</w>
ty pe</w>
A L</w>
o f
201 0</w>
si ve</w>
rel ated</w>
P E
at ory</w>
d ro
l ab
ex is
kno w
O R
st u
in ten
adop ted</w>
U N
am ount</w>
ain st</w>
m any</w>
author ity</w>
com peti
co sts</w>
T r
an k</w>
establish ed</w>
leg isl
car ri
j o
d ra
e ting</w>
A l
un e</w>
wh ether</w>
k ed</w>
S I
ne e
at ely</w>
mat eri
o m</w>
u fac
comp an
concern ing</w>
ag ainst</w>
le ast</w>
comm un
ATI ON</w>
3 1</w>
H owever</w>
di vi
pr inci
b l
ati c</w>
re as
por ting</w>
com b
fur ther</w>
ri ghts</w>
a ff
tic e</w>
s k
ou s
consid ered</w>
opin ion</w>
A d
an t
o k</w>
ad ing</w>
l aid</w>
in ce</w>
plac ed</w>
g l
B A
bot h</w>
201 2</w>
o ve</w>
hi gh</w>
0 .
re commen
inter national</w>
con clu
c ed</w>
requi red</w>
kno w</w>
l ic
pr ice</w>
s ev
eg r
ag es</w>
th s</w>
CO M
b usin
n ing</w>
our ces</w>
hi gh
i onal</w>
ati s
I C
201 4</w>
str y</w>
o x
pur su
p ot
m ul
pos ition</w>
gen eral</w>
y l
1 7</w>
us ing</w>
a z
i an</w>
elec tr
con s
tr ade</w>
ad d
g overn
import ant</w>
b re
ac hi
co operation</w>
ul y</w>
a si
A D
sec tor</w>
li on</w>
saf ety</w>
techn ical</w>
gr an
ch il
tic s</w>
he alth</w>
2 1</w>
fun c
bo dy</w>
partic ip
sec urity</w>
c op
qu es
mon it
o d
ur al</w>
th ree</w>
o ci
e b
de sign
v al</w>
rece iv
I m
par t
program me</w>
establish ing</w>
or m
o t</w>
1 3
serv ice</w>
st ar
an al
In ter
at or</w>
An d</w>
j ust</w>
li f
inv ol
differen t</w>
i le</w>
r ate</w>
2 4</w>
in stru
R ep
po in
ep t
1 7
Wh ereas</w>
el s</w>
di t</w>
f ish
t ab
ad v
en s</w>
qu ality</w>
effec ts</w>
J une</w>
sign ific
acc ess</w>
m u
ob lig
1 8
at ors</w>
l ast</w>
syst ems</w>
ven tion</w>
incre ase</w>
u es</w>
assess ment</w>
proc ess
C o
m an</w>
t otal</w>
ab ove</w>
hum an</w>
ing le</w>
c ases</w>
h ow</w>
bec ause</w>
h al
trans port</w>
man ufac
d ers</w>
an u
v ari
t al
are as</w>
v ol
ma in</w>
du e</w>
propos al</w>
stan ces</w>
no w</w>
du res</w>
2 2</w>
tiv ity</w>
ref erence</w>
B r
A C
g o</w>
li ght</w>
per form
pr ac
F in
l and</w>
so ci
read y</w>
st at
emb ers</w>
ex clu
m is
divi du
200 2</w>
we e
m ov
a vi
ter m</w>
ac tive</w>
ag re
ear ch</w>
m et
fr amework</w>
con si
O n</w>
is h</w>
bu dg
c ust
c ing</w>
deter min
go ods</w>
no v
is t</w>
ub lic</w>
1 9</w>
COM M
p ut</w>
th en</w>
ros s</w>
ep t</w>
g et</w>
ti g
c ov
Wh ere</w>
f ication</w>
proce dures</w>
r y</w>
inclu de</w>
J anu
gro up</w>
y l</w>
mon ths</w>
u r</w>
A N</w>
sec tion</w>
o od</w>
t em
l ong</w>
I II</w>
ent ly</w>
h ere</w>
E S</w>
d re
indu stry</w>
Janu ary</w>
f il
equi p
O c
1 00</w>
in dividu
rit er
gen cy</w>
in te
l arg
h ar
j ud
amp ;</w>
& amp;</w>
proc ess</w>
&apos; re</w>
b ro
ar an
gro w
se qu
o p</w>
S C</w>
eff ici
&apos; m</w>
tr ain
str ateg
effec t</w>
cer tif
jec ts</w>
p i
cl os
0 00</w>
1 4
sec ond</w>
Th at</w>
a w
I S</w>
F r
ben ef
P ol
c riter
om e
t est</w>
n eg
lo od</w>
amp le</w>
a im
Un ited</w>
ou gh</w>
G en
l ing</w>
J uly</w>
7 .
ot e</w>
2 3</w>
s en
N E
direc tly</w>
ati on
addi tional</w>
fi t</w>
ev en</w>
or ing</w>
m es</w>
o le</w>
A p
pl es</w>
ag reement</w>
al low
cl ear</w>
s es</w>
n et
fi x
Th ere</w>
w ater</w>
l evel
resul ts</w>
p le</w>
ci r
inv es
d ays</w>
x imum</w>
t en</w>
n ess</w>
pursu ant</w>
aff ec
con trac
EE A</w>
P TE
in k</w>
1 5
Th ey</w>
Artic les</w>
carri ed</w>
en ter</w>
inte rest</w>
go od</w>
fo od</w>
pec i
in jec
lo b
2 8</w>
sel f</w>
re placed</w>
ass oci
busin ess</w>
effec tive</w>
ar ly</w>
cap ac
hi m</w>
level s</w>
200 1</w>
ati ves</w>
int egr
gen er
sit uation</w>
.... ....
C our
l et</w>
en d
N ov
comp any</w>
or ding</w>
Oc to
t ers</w>
Octo ber</w>
b lood</w>
ev al
il y</w>
requ est</w>
pr ices</w>
ac e</w>
ic ations</w>
inves tig
g s</w>
con sul
trans f
201 5</w>
de b
ol d</w>
st ri
i ther</w>
BA R</w>
l at
e ve</w>
1 6
bu il
m l</w>
legisl ation</w>
du ce</w>
M in
str ic
ti fied</w>
il ities</w>
pro f
ec h
b an
compan ies</w>
invest ment</w>
lis t</w>
ch arg
ha ving</w>
im port</w>
olog y</w>
incre ased</w>
pa ren
ti l</w>
des cri
ex peri
d ri
Th ese</w>
imp act</w>
al ready</w>
Cour t</w>
st ud
pers on</w>
e w
sch em
tu al</w>
T o</w>
f ree</w>
fi el
su g
og n
institu tions</w>
ay ing</w>
ma j
AN D</w>
t ;</w>
is ing</w>
st ance</w>
compl et
purpos es</w>
qu anti
gr ap
gran ted</w>
si bility</w>
rel ating</w>
Rep ublic</w>
2 9</w>
criter ia</w>
agr icul
oun ts</w>
est ed</w>
n er
di d</w>
dis e
O n
200 0</w>
s ingle</w>
gu aran
im ports</w>
ex am
Br us
M ay</w>
wor king</w>
curren t</w>
equip ment</w>
det ail
s m
sel s</w>
EU RO
defin ed</w>
af t</w>
subm itted</w>
ex ten
Brus sels</w>
cov ered</w>
ma ximum</w>
e a
ist ered</w>
int ro
ut e</w>
B o
struc ture</w>
lif e</w>
c all
mil lion</w>
4 0</w>
fl u
ta x</w>
par ties</w>
pers ons</w>
. e
de f
ad j
O ffici
anal ys
d on</w>
n orm
speci fied</w>
st ain
k in
dra w
col lec
rec ogn
cir c
con tr
ter rit
dre n</w>
or ies</w>
O N
d om
ici al</w>
S u
2 6</w>
res ources</w>
capac ity</w>
E S
ist ance</w>
ch ec
appro val</w>
n er</w>
ob serv
on ic</w>
k ey</w>
our nal</w>
2 7</w>
ut ure</w>
reg ards</w>
ic ally</w>
en ces</w>
reg ar
acc ording</w>
Mar ch</w>
U L
201 6</w>
e th
n ame</w>
i um</w>
ch ar
EURO PE
m embers</w>
stand ards</w>
Offici al</w>
J o
P l
EUROPE AN</w>
repres ent
en ing</w>
A ll</w>
ann ual</w>
res earch</w>
pres ent</w>
b ed</w>
J ournal</w>
est s</w>
ter ms</w>
se ts</w>
pre par
can not</w>
exis ting</w>
vehic le</w>
tion ing</w>
hi b
ther ap
resul t</w>
b al
u an
ai l</w>
t le</w>
issu e</w>
un til</w>
t es</w>
b in
objec tives</w>
g re
pay ment</w>
stu dies</w>
program mes</w>
pri v
our s</w>
i ble</w>
l os
no tif
on n
con stitu
wh ile</w>
cl in
r an
f uture</w>
ex pos
v er</w>
E R
hel p</w>
sur ance</w>
d ev
we ight</w>
entr y</w>
199 9</w>
ful l</w>
ti z
L ith
1 2.
6 0</w>
contain ing</w>
S T
s ing</w>
c y
EE SC</w>
A T
hal f</w>
A s
hy dro
an other</w>
addi tion</w>
tiv ely</w>
purpos e</w>
as si
signific ant</w>
h er</w>
nee ds</w>
ne t</w>
Nov ember</w>
Lith uan
cr im
wor k
pow er</w>
appl ied</w>
doc tor</w>
O ther</w>
S ept
S e
contro l
o re
c ateg
in ary</w>
su ffici
inten ded</w>
Sept ember</w>
ex port</w>
arm ac
b ack</w>
lis ted</w>
lis h</w>
tain ed</w>
s ince</w>
de pend
poin ts</w>
ren g
t or
go ing</w>
train ing</w>
Gen eral</w>
fin al</w>
P RO
chil dren</w>
ci tiz
employ ment</w>
con nec
G er
su stain
M an
p ass
s et
u c
b ur
i ance</w>
p ack
cre dit</w>
k g</w>
administr ation</w>
8 .
wor ld</w>
st ate</w>
t ation</w>
inter nal</w>
i gh
respon sible</w>
asi c</w>
pri l</w>
Au thor
9 .
loc al</w>
ques tion</w>
or ity</w>
t arg
pro m
anim als</w>
anim al</w>
amen d
w ant</w>
9 0</w>
pot ential</w>
sit e</w>
wor ks</w>
si mil
A pril</w>
er ing</w>
ap pe
G re
chang es</w>
s aid</w>
ic ate</w>
w ays</w>
E con
monit oring</w>
c ost</w>
H e</w>
econ om
an ds</w>
achi ev
og ether</w>
individu al</w>
ex pl
ac y</w>
budg et</w>
int ere
es sion</w>
re ported</w>
Wh en</w>
un i
con centr
t ro
e ither</w>
ex pec
H e
a red</w>
fu l</w>
bet ter</w>
S o
T S</w>
imple menting</w>
g ive</w>
cap ital</w>
appro ved</w>
i ous</w>
administr ative</w>
l or
s pe
pl an</w>
partic ul
sti ll</w>
ad ded</w>
F un
ear ly</w>
grow th</w>
H AS</w>
injec tion</w>
per vis
instru ments</w>
8 0</w>
stand ard</w>
m er
z e</w>
agricul tural</w>
intro duc
reg ional</w>
n at
pol i
it ure</w>
en ess</w>
measu re</w>
r ap
t ogether</w>
pro jects</w>
contin u
ev ery</w>
sol ution</w>
h ere
inclu ded</w>
val ues</w>
min imum</w>
environ mental</w>
up s</w>
u re
Im ple
re view</w>
adj ust
receiv ed</w>
simil ar</w>
pro g
ev er
ar rang
co ord
l ong
olog ical</w>
a ve</w>
fiel d</w>
d os
manufac tu
speci al</w>
s ome
b asic</w>
C I
G ro
tr an
ous ly</w>
ac tivity</w>
follow s</w>
en s
compl iance</w>
docu ments</w>
speci f
AD O
th ink</w>
ma king</w>
bo dies</w>
g reat
ad i
ord ers</w>
v ent</w>
su c
ac ter
e duc
TH IS</w>
PTE D</w>
m ission</w>
s w
Econ omic</w>
co de</w>
produc ers</w>
ADO PTED</w>
re stric
direc t</w>
stud y</w>
ur o</w>
ou se</w>
- -
pro ject</w>
w om
fac t</w>
f re
ver s
mul ti
ap ter</w>
l ar
ic ity</w>
en ted</w>
mark ets</w>
st reng
consi der
author isation</w>
provi des</w>
er c
in d
O R</w>
le ts</w>
port un
G u
form s</w>
ac ts</w>
in nov
grap h
polic ies</w>
ex ample</w>
id el
know n</w>
t able</w>
propos ed</w>
bel ow</w>
al i
dise ase</w>
therap y</w>
competi tion</w>
fix ed</w>
dis c
tre ated</w>
R es
r ing</w>
sel ec
clin ical</w>
1 ,
ben e
fun ds</w>
L i
al low</w>
ne w
ou th</w>
bel i
fish ing</w>
A gency</w>
cal cul
sub paragraph</w>
op portun
S tr
ill ed</w>
g n</w>
de si
pos i
lim ited</w>
contin ue</w>
suppl y</w>
ex pres
7 5</w>
n am
cor rec
amen ding</w>
er age</w>
do m</w>
7 0</w>
sh or
I V</w>
l ication</w>
d en</w>
x im
vi l</w>
l it
ic a</w>
environ ment</w>
is es</w>
f ound</w>
ai m</w>
m ech
orig in</w>
si on
ver se</w>
materi al</w>
cop e</w>
is ter</w>
o s</w>
citiz ens</w>
F eb
appro ach</w>
E R</w>
is m</w>
ro le</w>
t ow
en h
il it
Feb ru
SI ON</w>
cont ent</w>
ful ly</w>
y s</w>
Febru ary</w>
o ti
ass istance</w>
C H
at s</w>
fac e</w>
re pe
cor por
sm all</w>
p op
high er</w>
m ember</w>
O r
N or
s c
pro per
se e
oper ations</w>
pub lication</w>
Imple menting</w>
in s</w>
issu ed</w>
organis ation</w>
organis ations</w>
mu ch</w>
st oc
comm it
ci es</w>
tiv eness</w>
tim es</w>
m un
mar k</w>
ecis ions</w>
pa in</w>
ag ed</w>
us es</w>
al loc
U S
vehic les</w>
investig ation</w>
bin ding</w>
analys is</w>
docu ment</w>
u res</w>
c o</w>
ch em
3 4</w>
g e
AN NE
b est</w>
f ail
UN I
g as</w>
m ach
s or
ch o
im pl
pend iture</w>
sub stances</w>
A L
se par
poli tical</w>
sh ip
author ised</w>
b on</w>
b order</w>
im medi
issu es</w>
perform ance</w>
inf ec
pos ed</w>
9 5</w>
B el
materi als</w>
nat ural</w>
of f</w>
B ut</w>
rec or
ANNE X</w>
finan cing</w>
su pervis
pre vi
priv ate</w>
0 ,
gro ups</w>
9 6</w>
E N
con duc
c ris
Par t</w>
w ard</w>
bene fit</w>
le dg
exc ee
ter nal</w>
e .
le ase</w>
associ ated</w>
ee p</w>
ev id
m m</w>
men ted</w>
tur n</w>
oper ating</w>
provis ion</w>
p es</w>
9 8</w>
recommen ded</w>
ing ly</w>
in surance</w>
f am
p s</w>
Sec tion</w>
cust oms</w>
a k</w>
t om
g .</w>
j us
Tr ans
IN G</w>
th ough</w>
as h</w>
sub stance</w>
pub lish
A t</w>
co l</w>
w ast
w ar
c over</w>
ph armac
me eting</w>
D one</w>
IS SION</w>
er v
contain s</w>
s pen
av erage</w>
suc c
b le
D o</w>
av o
com par
C entr
diff icul
ol ution</w>
d ings</w>
dis tribu
oblig ations</w>
I tal
en ter
p aid</w>
ic k
if ication</w>
add res
c are</w>
Ch in
S y
du ty</w>
on ce</w>
COMM ISSION</w>
c ell
du mp
li k
c ent
tion ed</w>
j ur
ex change</w>
o graph
disc us
la w
Author ity</w>
pro bl
ig n</w>
ess ential</w>
reduc tion</w>
ter n
fo re
Th ere
ut es</w>
ex penditure</w>
tu res</w>
comp on
p at
princi ple</w>
in sul
ar ies</w>
medic inal</w>
adop t</w>
ang u
regar ding</w>
RE G
norm al</w>
g e</w>
particul arly</w>
tur ing</w>
h ear
ol s</w>
w at
soci ety</w>
op en</w>
in ed</w>
an ces</w>
objec tive</w>
add ress</w>
g lob
idel ines</w>
vol um
Jo int</w>
agre ements</w>
ar s</w>
strateg y</w>
to o</w>
tr y</w>
contribu tion</w>
know ledg
contr act</w>
b er
great er</w>
A f
manufactu re
Ch apter</w>
schem e</w>
ef for
c ross</w>
tr av
f ar</w>
et er
f av
ing dom</w>
rel ation</w>
b il
et ary</w>
st atis
A U
territ ory</w>
ab les</w>
mark eting</w>
A S
There fore</w>
si a</w>
suffici ent</w>
tran si
inf ra
detail ed</w>
cor respon
as sets</w>
wh ole</w>
H ow</w>
P h
probl ems</w>
e uro</w>
n u
re main
h ap
cont ext</w>
s ci
respon se</w>
cris is</w>
par ts</w>
3 2</w>
sh ow
is sions</w>
tr ad
h ours</w>
9 1</w>
net work</w>
me et</w>
rang e</w>
neg oti
hel d</w>
vi a</w>
me an</w>
in st
at t
experi ence</w>
3 5</w>
to col</w>
consum ption</w>
educ ation</w>
impro ve</w>
n ers</w>
lim it</w>
larg e</w>
on str
ad equ
com ple
pr im
&apos; ll</w>
comm er
princi ples</w>
sug ar</w>
in spec
R I
n ature</w>
3 3</w>
publish ed</w>
evid ence</w>
determin ed</w>
wom en</w>
maj or</w>
low er</w>
at ten
m ob
process ing</w>
invol ved</w>
si m
s cope</w>
tab lets</w>
s ay</w>
4 3</w>
wast e</w>
ail y</w>
up on</w>
dem onstr
design ed</w>
regul atory</w>
it ation</w>
G overn
So cial</w>
9 2</w>
ci vil</w>
et ed</w>
sh are</w>
in ated</w>
h and</w>
f requ
M a
in ating</w>
th em
arrang ements</w>
equi val
p an
d ecisions</w>
sustain able</w>
cour se</w>
3 6</w>
i al</w>
en e</w>
l ines</w>
d a
econom y</w>
bec ome</w>
ev ent</w>
K ingdom</w>
prog ress</w>
pro por
as ing</w>
8 7</w>
N e
ea h</w>
stan ding</w>
l aying</w>
in depend
ell ing</w>
ta x
wee ks</w>
compl y</w>
ant i</w>
indic ated</w>
mech anis
al e</w>
par ty</w>
char acter
h owever</w>
ME N
D U
cons is
pres sure</w>
men tioned</w>
0 1</w>
R ec
struc tion</w>
enti re
an ing</w>
vari ous</w>
E D</w>
mat ter</w>
l angu
under tak
d aily</w>
all eng
m ine</w>
re duce</w>
ex erc
go t</w>
1 1.
c e
over all</w>
our ce</w>
D e
w el
EC B</w>
ac id</w>
fac ilit
ser ious</w>
eval uation</w>
Ger many</w>
p ed</w>
ti al</w>
Comm on</w>
af f</w>
t as
es tim
vi ew
reg ulation</w>
pl as
sign ed</w>
reduc ed</w>
st aff</w>
sev eral</w>
ar ound</w>
hol ders</w>
f ru
provi ding</w>
expec ted</w>
el ig
S h
applic ations</w>
f y</w>
B y</w>
produc ed</w>
comb ination</w>
A n</w>
st or
ex ternal</w>
T O</w>
cl assi
ris ks</w>
spec ies</w>
requi re</w>
nee ded</w>
ch lor
sal es</w>
func tion</w>
meth od</w>
M on
e. g.</w>
pr e</w>
9 3</w>
circ um
P r
a x
pl ant</w>
th ro
W or
ch alleng
dec lar
pri or</w>
A T</w>
4 8</w>
indu stri
con fir
O L
S P
t ent</w>
du ties</w>
I T
call ed</w>
am ong</w>
p ing</w>
S o</w>
ex per
W ith</w>
f oc
M ed
es ting</w>
dec re
Gro up</w>
u l</w>
f our</w>
ON S</w>
expos ure</w>
10 .
n ed</w>
2 5
no tified</w>
er ies</w>
E F
s atis
commun ication</w>
i ded</w>
c at
Pro duc
st ed</w>
undertak ings</w>
UL ATION</w>
g t;</w>
& gt;</w>
a w</w>
A I
estab lish</w>
recommen d
F ur
ner ship</w>
4 5</w>
mo di
star t</w>
comp ared</w>
under taking</w>
Pro tocol</w>
trans paren
m ic
fun ding</w>
reg ions</w>
sh e</w>
l y
requ ested</w>
ar ity</w>
transf er</w>
tow ards</w>
h s</w>
l et
it ors</w>
S peci
ess els</w>
reas ons</w>
benef its</w>
me d
ar tic
cl aim
b eg
REG ULATION</w>
m a</w>
em issions</w>
pro mo
amend ments</w>
un ds</w>
sim pl
prof es
insul in</w>
oper ators</w>
mi gr
applic ant</w>
oc c
enti fic</w>
S ub
reg n
s am
em ia</w>
o th
institu tion</w>
v ely</w>
o il</w>
ach ed</w>
201 7</w>
ar if
v essels</w>
Lithuan ia</w>
F und</w>
ob tained</w>
r s</w>
D evelop
pre vent</w>
is tics</w>
re t
identi fied</w>
bo ard</w>
f er
s em
work ers</w>
Fin an
r adi
B ank</w>
meth ods</w>
6 5</w>
cl im
og ue</w>
3 0
ag ing</w>
re ports</w>
ty pes</w>
ou l
p ir
on es</w>
th us</w>
Inter national</w>
fi ve</w>
ap er</w>
Pro gram
O p
equ al</w>
infra structure</w>
establish ment</w>
an e
observ ed</w>
r ati
v o
de l</w>
electr onic</w>
p rec
o di
fin d</w>
off icial</w>
le ad</w>
e ed</w>
c ement</w>
t ext</w>
ex em
es peci
6 8</w>
ti s</w>
th y</w>
an tly</w>
Con vention</w>
I s
adop tion</w>
long er</w>
der iv
re porting</w>
commer cial</w>
prac tic
su spen
glob al</w>
equival ent</w>
f t</w>
M e
en cour
especi ally</w>
sy mp
ref lec
istr ation</w>
re al</w>
in form</w>
appro xim
Y eah</w>
r ates</w>
t on</w>
dump ing</w>
vis ion</w>
ad ap
B e
conclu ded</w>
effici ency</w>
sh own</w>
sur ing</w>
b or
bal ance</w>
reg ion</w>
d en
cont act</w>
20 20</w>
effici ent</w>
Fun c
volum e</w>
exc ep
Fr ance</w>
certif icate</w>
ch es</w>
comp ati
contrac ts</w>
an e</w>
har mon
n ext</w>
p ul
d ou
3 7</w>
per m
guaran tee</w>
mil k</w>
be half</w>
ro ad</w>
am ounts</w>
m ight</w>
pay ments</w>
los s</w>
us ers</w>
4 9</w>
A M
paragrap hs</w>
d am
achi eve</w>
pers onal</w>
m ed</w>
mon th</w>
tin gs</w>
in form
CO N
oc r
A G
re actions</w>
v acc
con f
G od</w>
ic s</w>
propos als</w>
con c
consum ers</w>
k ay</w>
evel op</w>
por te
e m</w>
ti n</w>
el ements</w>
pl ay</w>
e y
con fi
A mer
eg et
R om
D is
descri bed</w>
car ry</w>
entire ty</w>
P or
lab our</w>
represent ative</w>
e ding</w>
exclu ding</w>
E ach</w>
al ised</w>
immedi ately</w>
sec tors</w>
he ad
C l
innov ation</w>
medic ine</w>
lik ely</w>
f illed</w>
charg e</w>
T able</w>
f a
for ward</w>
con form
at h</w>
inst all
9 9</w>
sub si
b ers</w>
n i
Q u
in c
me at</w>
ca use</w>
knowledg e</w>
m or
prom ote</w>
Develop ment</w>
un g
D I
reg istered</w>
mi x
excee ding</w>
com es</w>
en cies</w>
ab ol
stor age</w>
consum er</w>
d evelop</w>
out side</w>
3 9</w>
en suring</w>
t oms</w>
comp ens
Finan cial</w>
d one</w>
tu ally</w>
TI ES</w>
oper ational</w>
medic ines</w>
re new
pres ented</w>
I M
c le</w>
org an
ec hn
ag ain</w>
admin istered</w>
del eg
k es</w>
ten ance</w>
previ ous</w>
adv ant
pl ann
l ater</w>
intere sts</w>
categ ory</w>
jo int</w>
gro und</w>
T R
to day</w>
prac tice</w>
manufacture r</w>
sol id
pur ch
3 5
al tern
complet e</w>
........ ........
9 7</w>
ab ly</w>
9 4</w>
si onal</w>
der og
al isation</w>
acc ounts</w>
stat us</w>
A P
e an</w>
as pec
initi ative</w>
dom es
pass eng
import ance</w>
wh ose</w>
posi tive</w>
co h
ten ce</w>
quanti ties</w>
clim ate</w>
lim its</w>
cl ose</w>
ul ations</w>
w ise</w>
ar ri
R us
F OR</w>
r o</w>
con sequ
me aning</w>
pre jud
develop ed</w>
ev ents</w>
circum stances</w>
ever y
an ced</w>
4 2</w>
con ver
Func tioning</w>
respon sibility</w>
agre ed</w>
lo o
centr al</w>
subm it</w>
Au g
curren tly</w>
notif ication</w>
v ement</w>
On e</w>
particip ation</w>
2 ,
sec ur
in corpor
O ff
8 5</w>
ag ement</w>
S U
th re
Af ter</w>
8 9</w>
&apos; ve</w>
exc ept</w>
N ot</w>
enter pr
ess es</w>
sk in</w>
t onn
re li
enti ty</w>
air s</w>
v eget
t ests</w>
ou ng</w>
ph ys
lo ok</w>
An n
cust om
7 1</w>
Mar k
Par ties</w>
c ut
imple mented</w>
instru ment</w>
4 4</w>
si ze</w>
S lo
wh y</w>
mon ey</w>
symp toms</w>
Aug ust</w>
beli eve</w>
he ading</w>
n ation
ed ings</w>
govern ment</w>
mo der
ac ross</w>
Program me</w>
un it</w>
contribu te</w>
4 6</w>
eval u
4 7</w>
i de
acc oun
ex tent</w>
an y
wee k</w>
adequ ate</w>
l t;</w>
& lt;</w>
prejud ice</w>
achiev ed</w>
buil ding</w>
is sion
guaran te
c all</w>
fru it</w>
pop ulation</w>
calcul ated</w>
t a</w>
dr aft</w>
med ical</w>
an c
pack age</w>
reas on
benef ici
w ide</w>
qu e</w>
sub stan
h en
t ell</w>
Bo ard</w>
pati ent</w>
ou ght</w>
oper ator</w>
ar ing</w>
elig ible</w>
di al
hol d</w>
qu al
draw n</w>
pl ay
sy n
ar t
IS I
del i
tem por
develop ing</w>
E N</w>
proce edings</w>
enti ties</w>
di um</w>
en z
8 8</w>
gre at</w>
orig inating</w>
fam ily</w>
f arm
ad verse</w>
l ack</w>
f ish</w>
al ways</w>
addres sed</w>
L E</w>
effor ts</w>
affec t</w>
shor t</w>
set ting</w>
porte ur</w>
del iv
E X
am p</w>
techn ology</w>
o red</w>
conform ity</w>
re si
p ay</w>
a ke</w>
in flu
li gh
N o
he ad</w>
en for
sev ere</w>
repe al
dec ided</w>
g ar
practic es</w>
O h</w>
fi le</w>
am es</w>
b ra
P er
li qui
distribu tion</w>
off ice</w>
ac compan
main tenance</w>
domes tic</w>
T el</w>
h and
S up
b ir
ill s</w>
mo ve</w>
me t</w>
7 2</w>
exc eed</w>
Ac cor
m en</w>
to x
Su ch</w>
Bel g
8 2</w>
ble m</w>
ari an</w>
u su
avo id</w>
ic k</w>
character istics</w>
h ist
olog ies</w>
6 2</w>
Centr al</w>
.e .</w>
sci entific</w>
en ed</w>
d ated</w>
p regn
8 4</w>
y et</w>
im e</w>
C F
oblig ation</w>
re main</w>
produc er</w>
re ven
le ar
over y</w>
si x</w>
desi gn</w>
i .e.</w>
20 0</w>
y oung</w>
pro blem</w>
v ot
ha em
sh ow</w>
h ome</w>
m b
com ing</w>
struc turing</w>
er ation</w>
e a</w>
w in
or al</w>
re mov
fu el</w>
f ri
os is</w>
lab or
arif f</w>
tr a</w>
st and</w>
pres cri
6 6</w>
coord ination</w>
fe ed</w>
fac tors</w>
da mental</w>
kin d</w>
con tain</w>
0 6</w>
consid ers</w>
si b
h o
v eter
7 7</w>
ul t</w>
Se e</w>
gu idelines</w>
b an</w>
5 5</w>
t le
ph en
il s</w>
P R
W ith
w rit
3 8</w>
fu sion</w>
control led</w>
Comm ission
V E</w>
di g
re ally</w>
TI C
un its</w>
e x</w>
sal e</w>
declar ation</w>
of ten</w>
k eep</w>
un less</w>
e u
F ir
d ence</w>
targ et</w>
N ational</w>
L I
pos t</w>
resul ting</w>
b ri
regul ations</w>
ve ill
D EC
l ands</w>
veill ance</w>
ch ing</w>
s on</w>
res olution</w>
DU C
cl early</w>
correspon ding</w>
ther wise</w>
N G</w>
Ac c
mo del</w>
lit tle</w>
e f</w>
we b
pers on
os ph
throu gh
onn a</w>
ne l</w>
0 5</w>
law s</w>
il i
br ing</w>
B al
P e
off er</w>
an cy</w>
vers ity</w>
expres sed</w>
sel ves</w>
ther more</w>
consi der</w>
as k</w>
trans actions</w>
avi r</w>
su s</w>
in hib
e tic</w>
cre ate</w>
r ing
it able</w>
h er
P o
P AR
fail ure</w>
it ary</w>
independ ent</w>
Ital y</w>
N ew</w>
f all
integr ation</w>
industri al</w>
In formation</w>
wor ds</w>
C N</w>
part ners</w>
cr aft</w>
id es</w>
deter mine</w>
dis orders</w>
ab ilities</w>
P re
ren al</w>
g en</w>
ment ary</w>
h or
cur red</w>
condi tion</w>
COMM UNI
au tom
S erv
un d
iz ed</w>
pol y
hol ding</w>
approxim ately</w>
sub sequ
receiv ing</w>
ex porting</w>
g onna</w>
jud g
v es
re turn</w>
ti s
t al</w>
ar ily</w>
bro ad
se en</w>
rece ive</w>
u tions</w>
6 1</w>
atten tion</w>
st age</w>
legisl ative</w>
pos sibility</w>
s ent</w>
I R
some thing</w>
l ate</w>
An y</w>
he al
L u
T echn
d ru
h ep
Accor ding</w>
O f</w>
ist ent</w>
ro w</w>
li ve</w>
p t</w>
opportun ities</w>
co ated</w>
M al
hol der</w>
6 7</w>
ec e</w>
ship s</w>
s ources</w>
I N</w>
coun ter
compon ents</w>
through out</w>
ti l
tas ks</w>
T ur
S ince</w>
in jur
gr ant</w>
dra w</w>
rel and</w>
Man agement</w>
to ok</w>
incre asing</w>
ri ting</w>
it self</w>
inclu des</w>
tem per
ob s</w>
7 8</w>
I reland</w>
chil d</w>
orig inal</w>
C E</w>
w w
allow ed</w>
oper ate</w>
s cal
hear t</w>
deb ate</w>
is on</w>
Sec urity</w>
pri ority</w>
requi res</w>
ak e
8 3</w>
I I
k e
i ds</w>
m ot
7 3</w>
quanti ty</w>
negoti ations</w>
chec ks</w>
men d
ri g
dec ide</w>
categ ories</w>
exerc ise</w>
se l</w>
pos al</w>
Par ty</w>
impl ement</w>
reg ular</w>
pro hib
w riting</w>
initi al</w>
de pen
dis crim
Govern ment</w>
S we
S P</w>
sum m
rec ent</w>
0 2</w>
connec tion</w>
pa red</w>
f ew</w>
4 1</w>
t ory</w>
fil m</w>
consul tation</w>
L E
v en</w>
t el
b ank</w>
dem and</w>
S w
mar g
L is
stoc k</w>
concern s</w>
separ ate</w>
Co de</w>
A fr
t ex
adjust ment</w>
L et</w>
J us
en able</w>
affec ted</w>
profes sional</w>
recommend ations</w>
P O
Y our</w>
aspec ts</w>
continu ed</w>
require ment</w>
facilit ate</w>
accord ingly</w>
M o
8 6</w>
reg istration</w>
am et
F or
on line</w>
acc ep
h ouse</w>
l an
fre ed
inform ed</w>
PRO DUC
c over
o therwise</w>
num bers</w>
dem ocr
8 1</w>
in come</w>
fol low</w>
E I
ple ase</w>
st ake
mov ement</w>
sp ace</w>
invest ments</w>
Commun ication</w>
L e
m y
om en
th ings</w>
ref eren
des tin
b a
appl ying</w>
mat ters</w>
A gr
d n</w>
det ec
protec t</w>
dur ation</w>
5 1</w>
Direc tor</w>
re structuring</w>
c ro
f air</w>
ec u
Chin a</w>
reas on</w>
g ame</w>
identi fication</w>
ter min
n ever</w>
so on</w>
R o
acc ept
w id
Off ice</w>
ro l
L o
c ru
or ities</w>
CO UN
Fur thermore</w>
sit u
rec overy</w>
ic an</w>
he sion</w>
intere sted</w>
A B
A R</w>
d y
trans mission</w>
integr ated</w>
st re
ag g
schem es</w>
appl ies</w>
ren ch</w>
li ghts</w>
A b
re d
Por tu
T A</w>
Ac tion</w>
as h
fore ign</w>
c el
st er</w>
ent ered</w>
defin i
dos es</w>
deb t</w>
neg ative</w>
ban ks</w>
sch o
AT E</w>
Amer ica</w>
tak es</w>
re ach</w>
c ar</w>
s ource</w>
COMMUNI TIES</w>
con struction</w>
l u
if y</w>
H um
vi ol
do ing</w>
i bility</w>
pow ers</w>
res er
maj ority</w>
com ments</w>
per cent
recogn ised</w>
n s</w>
at a</w>
F ol
E P
6 4</w>
7 9</w>
F rench</w>
em ic</w>
Jus tice</w>
5 8</w>
j obs</w>
t led</w>
mic ro
provis ional</w>
mach ines</w>
medi um</w>
ste p</w>
proper ty</w>
lo g
er n</w>
al ia</w>
bu t
ad s</w>
h op
CO M</w>
7 4</w>
5 2</w>
U R
En ergy</w>
perform ed</w>
stat ement</w>
langu age</w>
st ates</w>
Speci al</w>
ten der</w>
sug g
7 6</w>
tain ing</w>
pl ants</w>
og en
0 3</w>
defin ition</w>
5 4</w>
sy ring
let ter</w>
pl ans</w>
Pro c
S ch
ad vis
rap porteur</w>
spe ed</w>
bil lion</w>
Commission er</w>
Agr icul
Pol ic
ac qu
um in
ch ed</w>
st ep
no te</w>
electr icity</w>
t ariff</w>
compl ain
here by</w>
dev ice</w>
b loc
str ong</w>
As s
respec tive</w>
opportun ity</w>
sec on
O per
follow ed</w>
MEN T</w>
ge ograph
S ME
direc tive</w>
n it
5 6</w>
lic ence</w>
I P</w>
wh e
enterpr ises</w>
challeng es</w>
b on
C ol
cer tain
er o
initi atives</w>
ri c</w>
chang ed</w>
no tice</w>
ac ting</w>
contain ed</w>
chec k</w>
m ass</w>
fav our</w>
A re
H y
L O
a res</w>
i m</w>
cell s</w>
exam ination</w>
eb o</w>
fr on
W ell</w>
detail s</w>
i ting</w>
U S</w>
main tain</w>
frequ ency</w>
cl e
t i</w>
ec h</w>
t esting</w>
em er
lin ked</w>
v est
succ ess
Lithuan ian</w>
prim ary</w>
i i</w>
et c</w>
a way</w>
C y
M ore
ar m</w>
func tioning</w>
s l
dial ogue</w>
He alth</w>
ff s</w>
hy per
techn ologies</w>
SME s</w>
M ad
descri ption</w>
Lis bon</w>
S pain</w>
S p
re ci
Or g
I s</w>
pro te
R i
in ate</w>
re ment</w>
wh ite</w>
B ul
N C
C ar
net works</w>
d eg
Reg ulations</w>
T otal</w>
Fr amework</w>
transparen cy</w>
v ote</w>
c tion</w>
0 8</w>
c ulation</w>
respec tively</w>
M AR
a p</w>
enfor cement</w>
3 00</w>
i gn
s po
ste el</w>
op h
More over</w>
man ner</w>
Com e</w>
D es
an ks</w>
fi b
pre pared</w>
min utes</w>
we igh
F OR
e di
la un
ex es</w>
tempor ary</w>
complet ed</w>
met abol
temper ature</w>
i gh</w>
b ase</w>
0 7</w>
S af
compati ble</w>
n e</w>
5 3</w>
oth ers</w>
st ated</w>
4. 4</w>
ane ous</w>
0 4</w>
pro p
6 3</w>
signific antly</w>
inter vention</w>
le ft</w>
l ac
inspec tion</w>
l s</w>
e es</w>
al ities</w>
pos e</w>
val id
conclu sion</w>
jo b</w>
in ning</w>
air port</w>
vi al</w>
E m
wat ers</w>
indic ate</w>
m us
is ts</w>
compens ation</w>
gl ass</w>
st op</w>
w i
on ia</w>
d a</w>
stake holders</w>
pl at
tle ment</w>
D ur
dev ices</w>
P lease</w>
ac tual</w>
concentr ation</w>
derog ation</w>
effec tiveness</w>
streng th
air craft</w>
m ag
consider ation</w>
ac tually</w>
percent age</w>
y ond</w>
low ing</w>
recogn ition</w>
peri ods</w>
scal e</w>
op ening</w>
fun damental</w>
t ations</w>
Polic y</w>
sup porting</w>
TI ON</w>
veget ables</w>
AU TH
Fir st</w>
fac tor</w>
ro om</w>
arg u
p aper</w>
l ation</w>
collec tion</w>
propor tion
a u</w>
prepar ation</w>
au d
t op
lo t</w>
af fic</w>
s ence</w>
them selves</w>
rou ght</w>
AUTH OR
plac ebo</w>
Str ateg
veter inary</w>
E M
poin ted</w>
artic les</w>
ref und</w>
ass ess</w>
car bon</w>
I T</w>
F ood</w>
h t
commit ment</w>
ag ue</w>
lat est</w>
201 8</w>
A t
D el
s ample</w>
au gh
op tion</w>
af let</w>
-- --
c ere
Y es</w>
TI ONS</w>
occ ur</w>
sam pl
ca used</w>
5 9</w>
determin ing</w>
lic ences</w>
control s</w>
mechanis m</w>
ISI ON</w>
cul tural</w>
ma kes</w>
C or
L at
C ap
fish eries</w>
ques tions</w>
di a</w>
e p</w>
cl aim</w>
sup ported</w>
ph ase</w>
p u
assess ed</w>
in struc
Wh y</w>
el im
lat eral</w>
in ser
I U</w>
C C
re pl
phys ical</w>
P ati
to ols</w>
sup ple
ri a</w>
foc us</w>
clos ed</w>
ci d
Rom an
5 7</w>
in ter</w>
tr ading</w>
cre ation</w>
P L
quot a</w>
busin esses</w>
E ur
ta il</w>
fu c
eng ine</w>
re lease</w>
N ow</w>
tonn es</w>
g al</w>
ic ates</w>
z er
cons istent</w>
sur veillance</w>
sur face</w>
represent atives</w>
ab sence</w>
Sy stem</w>
amend ment</w>
p en</w>
chem ical</w>
impro ving</w>
fi l</w>
accep ted</w>
em ed</w>
c ent</w>
6 9</w>
R u
CI L</w>
D ate</w>
ser ies</w>
5 00</w>
um n</w>
E st
it er
injur y</w>
Ap pl
migr ation</w>
be yond</w>
ure ment</w>
contribu tions</w>
i on
ain ed</w>
r ying</w>
H ey</w>
li ver</w>
al one</w>
call s</w>
S he</w>
fl ex
re ad</w>
T y
COUN CIL</w>
accompan ied</w>
f f</w>
ves sel</w>
re p
ag ree</w>
ru le</w>
it ems</w>
design ated</w>
suppl i
rec ital</w>
secur ities</w>
pow der</w>
S A</w>
competi tiveness</w>
h ard</w>
ic t</w>
3 ,
n ight</w>
ra w</w>
C ha
comm ittee</w>
st ability</w>
Commun ities</w>
difficul t</w>
so dium</w>
E L
B ar
introduc tion</w>
fr ing
protec ted</w>
Min ister</w>
iz ation</w>
gen ce</w>
el ess</w>
T it
pri orities</w>
A F
D E</w>
clos ure</w>
imp air
conduc ted</w>
sit es</w>
uro pa
s ound</w>
IS ATION</w>
rel ations</w>
im posed</w>
ne ed
statis tics</w>
g ation</w>
istr y</w>
comp re
introduc ed</w>
competi tive</w>
subsi di
ish ed</w>
confir med</w>
ar t</w>
plas ma</w>
su ff
process es</w>
inter pre
claim s</w>
Th ose</w>
ver ification</w>
ra ther</w>
O kay</w>
cl ear
no tes</w>
V I</w>
sol utions</w>
er ous</w>
l eng
at ures</w>
ach es</w>
f all</w>
TI NG</w>
develop ments</w>
web site</w>
relev ance</w>
nu clear</w>
fac ilities</w>
freed om</w>
w ine</w>
CH A
sh ares</w>
reven ue</w>
infec tion</w>
t ol
Pol and</w>
a ther</w>
H ung
alloc ation</w>
ain s</w>
a .
C R
3 0.
ag encies</w>
de pos
val id</w>
res h</w>
in after</w>
accoun ting</w>
- -</w>
k ers</w>
at om</w>
compre hen
gl y
cal culation</w>
199 8</w>
alloc ated</w>
b ack
As soci
impair ment</w>
R ef
step s</w>
tr affic</w>
t un
H ol
se a</w>
diff erence</w>
IN AL</w>
G E
re form</w>
PTE R</w>
Chin ese</w>
measu red</w>
CHA PTER</w>
Pati ents</w>
am b
Ap pro
n or</w>
a x</w>
en ding</w>
Ap pen
conclu sions</w>
it em</w>
di men
geograph ical</w>
si an</w>
lo ans</w>
M i
in fring
altern ative</w>
stoc ks</w>
pro fit</w>
coun t</w>
estim ated</w>
D P</w>
jec ted</w>
vol un
con v
promo ting</w>
A B</w>
exten ded</w>
M y</w>
gr ad
a th
per man
D IC
d ates</w>
f la
sib ilities</w>
saf e</w>
a qu
struc tures</w>
here inafter</w>
AUTHOR ISATION</w>
reduc ing</w>
St and
Eur atom</w>
concer n</w>
S ol
CF SP</w>
Ch ar
bi o
Are a</w>
s mo
oun d
lo ad</w>
ans w
mo d
Sec ret
M embers</w>
1 50</w>
supervis ion</w>
gro unds</w>
commit ments</w>
le aflet</w>
writ ten</w>
star ting</w>
budg etary</w>
A ff
in de
rel ation
D en
con solid
eg u
m ing</w>
suspen sion</w>
T O
b rought</w>
ag ents</w>
us er</w>
iti onal</w>
tic ally</w>
e asi
constitu te</w>
e e</w>
statis tical</w>
c ou
p et
ex pen
syring e</w>
no ted</w>
pres ence</w>
ac cid
sk ills</w>
in fl
identi fy</w>
Med ic
notif y</w>
cl ass</w>
re ached</w>
Ne ther
f light</w>
z one</w>
process ed</w>
di x</w>
Y P
d ly</w>
en ough</w>
f low</w>
ol es
loc ated</w>
gener ally</w>
ot h</w>
advant age</w>
A TE
tin e</w>
i fied</w>
tr act</w>
et h</w>
in fusion</w>
B i
ox ide</w>
el ine</w>
am in
min d</w>
pre vention</w>
DEC ISION</w>
au dit</w>
V i
F rom</w>
le ave</w>
strateg ic</w>
exper ts</w>
cour t</w>
2 4
si z
Nether lands</w>
S ome</w>
ati c
tri als</w>
can c
dec la
id ance</w>
qu ar
co des</w>
K E
H ome</w>
M B
wh ereas</w>
Gre ece</w>
m ess
r un
view s</w>
in ing</w>
charg es</w>
de emed</w>
in ess</w>
I r
incorpor ated</w>
Ac t</w>
p ast</w>
hi le</w>
M s</w>
ph osph
I F
le ading</w>
k ra
SP EC
Fol lowing</w>
Re port</w>
plac ing</w>
ill ing</w>
Saf ety</w>
effec tively</w>
ef ul</w>
On ly</w>
hap pen
c ame</w>
pro duce</w>
P os
C an
b it
ow n
is c
Aff airs</w>
our g</w>
ic it</w>
compon ent</w>
sub jects</w>
it or</w>
govern ance</w>
Ann exes</w>
mechanis ms</w>
selec ted</w>
certif icates</w>
ra z
U se</w>
proc urement</w>
del ay</w>
manufac ture</w>
s ession</w>
In stitu
tab let</w>
adv ice</w>
o kin
modi fied</w>
lo dg
d ang
ach ing</w>
indic ators</w>
c ash</w>
gran ting</w>
pr in
su itable</w>
c lo
l ays</w>
T S
im al</w>
reason able</w>
Rus sia</w>
differen ces</w>
decre ase</w>
dam age</w>
main ly</w>
comb ined</w>
F e
l ad
G r
monit or</w>
c ell</w>
Lu x
jus tified</w>
A ust
ay er</w>
emer gency</w>
e tings</w>
particip ating</w>
R ev
por ter</w>
f lo
func tions</w>
ic h
E lec
c ut</w>
fin ance</w>
S ingle</w>
r .</w>
sh e
loc ation</w>
re vis
U kra
H igh</w>
car rying</w>
dis tor
op tions</w>
quot as</w>
mob ility</w>
pen sion</w>
C ust
dou b
si vely</w>
hy dr
Belg ium</w>
acc es
k ings</w>
pl an
dis t
trans m
C ro
ME DIC
al though</w>
su b</w>
ris e</w>
acc ession</w>
s cre
invol ving</w>
pre sid
ex pir
m al
n a
medi a</w>
conduc t</w>
M S</w>
con fl
N um
U N</w>
deli very</w>
ploy ment</w>
anis h</w>
c as
stu ffs</w>
ru n</w>
ver sion</w>
Mark et</w>
a king</w>
custom ers</w>
a ren
me etings</w>
em ission</w>
show s</w>
bir th</w>
R ules</w>
ent ation</w>
i e</w>
employ ed</w>
fi ght</w>
beg inning</w>
y e</w>
off ici
ac qui
l er</w>
r ating</w>
d on
comprehen sive</w>
en su
a emia</w>
te am</w>
certif ication</w>
to p</w>
usu ally</w>
ph ot
pre ven
it es</w>
T o
guarante es</w>
omen cl
remain s</w>
leng th</w>
d enti
saf egu
I C</w>
p tions</w>
ne y</w>
bo ok</w>
ist an</w>
enti tled</w>
MEDIC INAL</w>
m in</w>
Appen dix</w>
correc t</w>
0 9</w>
concentr ations</w>
aim ed</w>
V AT</w>
v it
targ ets</w>
trad itional</w>
Dur ing</w>
ex ports</w>
omencl ature</w>
ter r
bo o
chlor ide</w>
Tit le</w>
ag n
f a</w>
impro vement</w>
g t</w>
au th
Ad di
supervis ory</w>
St at
decla red</w>
cre ated</w>
subsequ ent</w>
re di
dis tin
S ta
Associ ation</w>
li ving</w>
t our
coh ol</w>
re in
plann ing</w>
curren cy</w>
a h</w>
streng then</w>
de al</w>
ic acy</w>
struc tural</w>
in a</w>
encour age</w>
am ine</w>
inclu sion</w>
ar r
cho ice</w>
Portu gal</w>
C AS</w>
lo ve</w>
restric tions</w>
Ad min
sign s</w>
4. 2</w>
se ed</w>
O b
fall ing</w>
reg ister</w>
fin dings</w>
C z
f resh</w>
impro ved</w>
ex plo
com pr
classi fication</w>
z z
ar dis
S al
under stand</w>
ti le</w>
ag end
classi fied</w>
h on
an ding</w>
l ying</w>
Par t
de al
w ood</w>
dic tion</w>
h ous
ast er</w>
pre ci
F ish
Un der</w>
A m
Strateg y</w>
C E
Roman ia</w>
wor d</w>
ass es</w>
&apos; d</w>
L aw</w>
c li
i o</w>
r onic</w>
Res earch</w>
pol l
igh b
pl us</w>
k ept</w>
In vest
Tr ade</w>
ha z
f low
r ural</w>
form er</w>
t ren
sol d</w>
ar d
En g
ri t</w>
mu tual</w>
im ported</w>
ag ency</w>
C o</w>
2 9
trav el</w>
ou se
ati vely</w>
ov ine</w>
pen al
los ses</w>
ph as
fe el</w>
hop e</w>
Hum an</w>
Den mark</w>
A C</w>
ing redi
ecu tive</w>
ur g
hydro x
S outh</w>
trans action</w>
de ath</w>
P ri
N U
posi tions</w>
du le</w>
3 1.
scho ol</w>
un to</w>
beli ev
hist ory</w>
thre sh
meth od
decre ased</w>
pro per</w>
P A</w>
exten sion</w>
it ting</w>
giv ing</w>
U K</w>
tic k
G e
ob tain</w>
cy cle</w>
D ata</w>
fun d</w>
ac ks</w>
res ol
I D
N O
g ir
as ked</w>
situ ations</w>
v ic
L eg
Inter net</w>
exem ption</w>
col umn</w>
passeng er</w>
u ally</w>
met al</w>
discrim ination</w>
199 6</w>
D on</w>
10 7</w>
mot or</w>
fi es</w>
prac tical</w>
L t
h in
y cl
V al
dru g</w>
di ed</w>
Slo ven
enti re</w>
ab sor
al cohol</w>
high ly</w>
purch ase</w>
art an</w>
Ger man</w>
W hile</w>
paren t</w>
star ted</w>
aim s</w>
st ore</w>
person nel</w>
is tic</w>
recor ded</w>
trac ting</w>
benefici ary</w>
ul ts</w>
out come</w>
in ery</w>
l em
ca ref
Gu idelines</w>
Lux emb
sen si
c ity</w>
th reat
Q U
es sive</w>
organ ic</w>
clos ely</w>
dig ital</w>
az ole</w>
ht t
specif ications</w>
centr e</w>
lat ter</w>
si ght</w>
v oc
recor ds</w>
reg ime</w>
a it</w>
u g
n a</w>
k en</w>
sul ph
a h
Cz ech</w>
jur is
p ic
T er
f ying</w>
ul ture</w>
se ar
langu ages</w>
exis tence</w>
em phas
destin ation</w>
crim inal</w>
mil itary</w>
bec om
appe ar</w>
2 8
acc ur
instruc tions</w>
gar ia</w>
s pre
T F
dr y</w>
agend a</w>
a i</w>
dise ases</w>
co hesion</w>
pub lic
G O
sp i
dri ve</w>
Bul garia</w>
cre d
199 5</w>
perman ent</w>
ati tis</w>
h ab
Ch ris
ar ms</w>
pharmac ist</w>
canc er</w>
si l
tw ice</w>
expir y</w>
b and</w>
r y
ref er</w>
eth yl
c ot
I L
S ur
st ly</w>
20 .
MAR KE
wh ere
k m</w>
amp s</w>
po st
J e
au di
t on
marg in</w>
UNI ON</w>
1. 1</w>
su m</w>
deliv ered</w>
ys is</w>
tis su
excep tion</w>
s we
re action</w>
ex tre
bur den</w>
rati o</w>
deg ree</w>
organis ed</w>
particip ate</w>
passeng ers</w>
en ced</w>
o es</w>
With out</w>
199 7</w>
En viron
C H</w>
hy p
comple x</w>
k a</w>
prepar ations</w>
terr or
adv ance</w>
Lt d</w>
c au
dis posal</w>
with draw
de ad
. .</w>
C YP
B u
ste ad</w>
Pro tec
employ ees</w>
s av
st ay</w>
ac tiv
ag o</w>
r are</w>
b at
ac et
collec ted</w>
ro w
b ul
he at</w>
Swe den</w>
she et</w>
di dn</w>
Wor ld</w>
bo x</w>
form al</w>
difficul ties</w>
lin k</w>
mi um</w>
compar ison</w>
gl uc
al most</w>
judg ment</w>
199 4</w>
tr ue</w>
og lob
plac ement</w>
y an
Presid ency</w>
renew able</w>
Centr e</w>
qu ali
part nership</w>
am s</w>
demonstr ated</w>
Ru le</w>
suppl ied</w>
lab el</w>
p age</w>
eff icacy</w>
Pl an</w>
Se a</w>
ran kings</w>
t ary</w>
tre at</w>
allow s</w>
en ting</w>
di ab
be ha
I AL</w>
al fa</w>
st ro
institu tional</w>
recor d</w>
govern ing</w>
at ur
ific ations</w>
part ment</w>
fix ing</w>
can di
R el
oc k</w>
success ful</w>
ist ers</w>
ther n</w>
avail ability</w>
V er
Num ber</w>
promo tion</w>
lear ning</w>
over ty</w>
p oul
need le</w>
ti lis
al ong</w>
lo an</w>
tal k</w>
ic ated</w>
2 3
erg ic</w>
uni form</w>
dou ble</w>
1 6.
fir m</w>
str ong
st op
exam ined</w>
p ite</w>
relation ship</w>
f ab
perm it</w>
oun ds</w>
p ack</w>
h ood</w>
f erence</w>
CO 2</w>
d own
repeal ing</w>
individu als</w>
ref unds</w>
incre ases</w>
m ac
2 7
f at</w>
R em
In du
H er
in curred</w>
Is ra
Fin ally</w>
S E
Org anis
htt p</w>
clear ance</w>
le ad
ti ally</w>
s pr
deleg ated</w>
il ing</w>
P ur
fin e</w>
farm ers</w>
consequ ences</w>
le ague</w>
C er
4 00</w>
Direc tives</w>
do or</w>
resid ence</w>
as y</w>
requ ests</w>
tic ip
grow ing</w>
off ic
beha vi
p y
comp u
plann ed</w>
amen d</w>
tox icity</w>
2. 1</w>
ab il
inser ted</w>
bre ast</w>
h ouse
k er</w>
b arri
Al though</w>
Th ank</w>
main tained</w>
provi ders</w>
PRODUC T</w>
N ame</w>
li ability</w>
inter medi
selec tion</w>
c ular</w>
specif ically</w>
off ered</w>
ass emb
if e</w>
finan ced</w>
g er</w>
hand ling</w>
as sum
et ting</w>
specif y</w>
Man ufac
ar ising</w>
connec ted</w>
Be fore</w>
norm ally</w>
re tail</w>
an cing</w>
ca emia</w>
harmon ised</w>
consis ten
adjust ed</w>
c u
he av
innov ative</w>
am m
enti ally</w>
M IN
A P</w>
Cust oms</w>
or i
summ ary</w>
S C
techn i
en ds</w>
ch e
ap s</w>
PR C</w>
Luxemb ourg</w>
car b
fo res
Un der
I cel
transi tional</w>
gram s</w>
G o
F ac
Ri ghts</w>
ex ported</w>
direc tion</w>
w ish</w>
ox y
manag ed</w>
gener ation</w>
Co operation</w>
Agricul ture</w>
jud icial</w>
docu mentation</w>
hep atic</w>
trav en
ul ly</w>
substan tial</w>
T w
Ukra ine</w>
J ust</w>
remain ing</w>
allow ing</w>
Rep res
meth yl</w>
S econ
b ab
subm ission</w>
occ up
repeal ed</w>
previ ously</w>
lab elling</w>
cl .</w>
S ci
Afr ica</w>
pharmac okin
vir us</w>
in e
ind ication</w>
atic ally</w>
TE R
ref er
Me asu
Pe ople</w>
up dated</w>
T ext</w>
fla g</w>
p il
exclu ded</w>
v ul
transparen t</w>
deriv ed</w>
h u
uropa .e
con sign
ap pointed</w>
V il
op ened</w>
ke ep
Ital ian</w>
at eral</w>
D S</w>
man date</w>
quali fied</w>
G H
ful fil</w>
iz e</w>
ur ren
m 2</w>
comm itted</w>
par amet
ex ha
Rec om
strength ening</w>
Slo v
Mad am</w>
or ial</w>
del eted</w>
particip ants</w>
h os
determin ation</w>
og s</w>
P P
ass et</w>
TI VE</w>
pres er
cover ing</w>
il d</w>
loo king</w>
Ar e</w>
part ner</w>
F ore
immedi ate</w>
mar i
pregn ancy</w>
accept able</w>
p overty</w>
00 00</w>
satis fac
D E
vot es</w>
S er
MARKE TING</w>
J ud
install ation</w>
vacc ine</w>
fiel ds</w>
cut aneous</w>
L ab
prec au
off ers</w>
Produc ts</w>
j u
G DP</w>
benefici aries</w>
se as
plac es</w>
m om
ent al</w>
inv itation</w>
cap able</w>
Aust ria</w>
1 4.
k id
no thing</w>
10 00</w>
fron t</w>
min im
sec tions</w>
prote in</w>
oc cur
4 ,
ser ve</w>
view ed</w>
resi du
un g</w>
fu els</w>
M ore</w>
wh om</w>
at us</w>
com it
prescri bed</w>
show ed</w>
li abilities</w>
monit ored</w>
mari time</w>
Produc t</w>
D oc
oglob in</w>
1 5.
is ion</w>
nam ely</w>
aren ess</w>
issu ing</w>
fi re</w>
iter ran
f ec
fir ms</w>
P ublic</w>
el low</w>
as signed</w>
o therapy</w>
Tur key</w>
N on</w>
dis p
Ty pe</w>
Cro ati
l ay</w>
ear li
Nor way</w>
v in
Lat via</w>
B ec
M E</w>
effor t</w>
rece ip
Con tracting</w>
c amp
s end</w>
G iv
Un i
Min imum</w>
C L
MB ER</w>
sec ure</w>
certain ty</w>
ten ts</w>
compet ence</w>
multi ple</w>
fo od
Serv ice</w>
p al</w>
sw it
Med iterran
set tlement</w>
sam ples</w>
cy cl
ben z
influ ence</w>
N et
compar able</w>
measu rement</w>
H IV</w>
re ments</w>
ra il
pregn ant</w>
Fin land</w>
ab sol
AM E</w>
b orders</w>
si gn</w>
RE C
gr am</w>
12 34</w>
B ure
Con tro
Mediterran ean</w>
cre ating</w>
bor n</w>
ter y</w>
form ul
In t
o kay</w>
S i
Stand ard</w>
isc al</w>
commun ity</w>
6 00</w>
fo ot
e tin</w>
SPEC IAL</w>
nation als</w>
Th en</w>
commun ications</w>
S k
f ro
er t</w>
A .
w an
fav our
stat ements</w>
mach inery</w>
transf erred</w>
F i
juris diction</w>
cri ption</w>
mark ed</w>
RE S
ad ults</w>
referen ces</w>
propor tion</w>
strateg ies</w>
so f
exis t</w>
ell ed</w>
M P</w>
s le
labor atory</w>
commun icate</w>
m ail</w>
anal y
Elec tr
secon d
im mun
dom in
dri ving</w>
A mend
ha ir</w>
ind ent</w>
1. 2</w>
B usin
et al</w>
th ank</w>
n om
ir on</w>
re al
ro r</w>
W H
y a</w>
V ery</w>
Isra el</w>
b ar
sev en</w>
r a</w>
r ail</w>
n ia</w>
sampl ing</w>
cop y</w>
br an
2 8.
Proc edure</w>
V II</w>
mark s</w>
EF TA</w>
th ought</w>
N ations</w>
n or
achiev ing</w>
opin ions</w>
at ric</w>
5. 1</w>
c in
p ig
manufac turing</w>
m ut
Je sus</w>
e ing</w>
ide a</w>
liqui d
aw areness</w>
ma x</w>
uropa.e u</w>
st ac
vot ed</w>
ver ti
fe atures</w>
claim ed</w>
aw are</w>
t old</w>
umin ium</w>
P H
out put</w>
w ent</w>
R T
nam es</w>
sh ap
high est</w>
z en</w>
OR D</w>
equ ity</w>
associ ation</w>
j un
ingredi ents</w>
electr ic</w>
O U
in king</w>
he ard</w>
2 6
en jo
G et</w>
st able</w>
jus tif
tw are</w>
de duc
Part nership</w>
pro b
form at</w>
r able</w>
el ement</w>
Sup pl
under taken</w>
2. 2</w>
techn ological</w>
prog res
reflec t</w>
inv o
TF EU</w>
tor al</w>
Bal tic</w>
A ir
re mun
en si
under lying</w>
air lines</w>
a b</w>
Giv en</w>
IS O</w>
C re
An imal</w>
sti mul
expos ures</w>
R ap
Fe der
it als</w>
St anding</w>
giv es</w>
en ab
pack aging</w>
str ain
oc ca
Techn ical</w>
ra ised</w>
V III</w>
sh are
par atus</w>
P S</w>
see k</w>
n ine</w>
gen t
r ul
in traven
T ri
oper ated</w>
buil d</w>
eren t</w>
repres ent</w>
si c</w>
og ly
i or</w>
di agn
b ound</w>
proper ly</w>
au d</w>
ri es</w>
ne ighb
................ ................
ww w
cere als</w>
fib res</w>
F l
Hung ary</w>
l a</w>
ch ain</w>
re tur
op tim
liqui d</w>
p ass</w>
ap ine</w>
in stance</w>
buil dings</w>
avi gation</w>
there to</w>
r ub
bas eline</w>
ever th
.e uropa.eu</w>
ar ch
indic ations</w>
o st
C S
pl en
fi gu
everth eless</w>
ati n</w>
tax ation</w>
gu idance</w>
enh ance</w>
att ached</w>
Invest ment</w>
artic le</w>
Protec tion</w>
deriv atives</w>
ang e</w>
Sw it
C i
agg reg
Repres ent
an a</w>
heal thy</w>
e k</w>
every thing</w>
rec ep
vi de
Bure au</w>
regul ated</w>
re m
er ship</w>
sur vi
lem en</w>
ne ur
N AME</w>
l t</w>
infec tions</w>
fil es</w>
cul ture</w>
199 2</w>
v ac
sear ch</w>
3. 1</w>
m outh</w>
contrac ting</w>
i b</w>
Reg ional</w>
s anc
mob ile</w>
e ous</w>
per form</w>
t ack
iti s</w>
ish ing</w>
adjust ments</w>
bi g</w>
am ide</w>
2 2
t ered</w>
haem oglobin</w>
ast ern</w>
Trans port</w>
L ORD</w>
Busin ess</w>
ch os
any thing</w>
Vil ni
suffici ently</w>
pi ents</w>
lodg ed</w>
ap paratus</w>
Bec ause</w>
4. 3</w>
Cy pr
enz y
evalu ated</w>
P C
ari at</w>
B E</w>
dis charge</w>
t ative</w>
pl ate</w>
O ver
A ir</w>
199 3</w>
Ph armac
B ri
qu ick
se at</w>
rec ently</w>
discus sion</w>
invol vement</w>
consis ting</w>
b one</w>
a c</w>
w r
eng en</w>
acc ept</w>
re ly</w>
Cypr us</w>
in duc
vi r</w>
Sch engen</w>
Com p
end ar</w>
f lights</w>
transi t</w>
trans lation</w>
S im
N ot
b all</w>
mix ed</w>
wel come</w>
gluc ose</w>
c ard</w>
dat ab
mo del
ver si
sel ling</w>
under standing</w>
invest ors</w>
1. 5</w>
re forms</w>
P al
con struc
qu es</w>
Op in
gre en</w>
e z
M ic
regul arly</w>
sur g
Addi tional</w>
democr atic</w>
regar ded</w>
g y
remov ed</w>
par tial</w>
acces sible</w>
fe eding</w>
withdraw al</w>
I X</w>
ey e</w>
th i
produc ing</w>
conc ept</w>
agricul ture</w>
D ep
f iscal</w>
5. 2</w>
we ak
pres sion</w>
In dia</w>
h ost</w>
discus sed</w>
sup ports</w>
sh aring</w>
el ing</w>
pro of</w>
tab ly</w>
dro me</w>
it ability</w>
B s</w>
aw ard</w>
appropri ations</w>
dist ance</w>
H ere</w>
all eg
excep tional</w>
fe es</w>
US E</w>
moder ate</w>
es tin
b ovine</w>
bel ong
Ex c
li p
r ac
exc essive</w>
cov ers</w>
gen der</w>
recommend ation</w>
a e</w>
re le
sol vent</w>
sti pul
receip t</w>
tr ust</w>
ad a</w>
augh ter</w>
gent lemen</w>
Wh o</w>
ad ult</w>
sen tence</w>
circ ulation</w>
um ul
A ud
m oun
T e
G ood</w>
cri tical</w>
deliv er</w>
be ar</w>
g ames</w>
exten d</w>
nam ic</w>
K eep</w>
Croati a</w>
food stuffs</w>
cru cial</w>
paramet ers</w>
Ex ecutive</w>
to ol</w>
l ess
st ored</w>
respon sibilities</w>
pro spec
proper ties</w>
il legal</w>
cre te</w>
Organis ation</w>
d ogs</w>
oc y
R ural</w>
sequ ently</w>
perm itted</w>
is s</w>
dis sem
ann oun
V E
us eful</w>
d il
depend ent</w>
Del eg
h our</w>
oc curred</w>
rap id</w>
proportion ate</w>
Rus sian</w>
govern ments</w>
f ast</w>
2 1.
p ted</w>
end or
earli er</w>
c ore</w>
model s</w>
h om
ord inary</w>
bre a
ful filled</w>
e ight</w>
0. 5</w>
cal endar</w>
figu res</w>
demonstr ate</w>
ne ither</w>
vic ti
avi ation</w>
j a</w>
4. 5</w>
ag ent</w>
FOR M
2. 5</w>
jus tice</w>
appe ars</w>
el d</w>
in stead</w>
electr ical</w>
pres s</w>
exam ine</w>
aw ar
mp le</w>
w ai
comple tion</w>
sen se</w>
2 50</w>
is ations</w>
wor ked</w>
our th</w>
our ing</w>
bre ak
revis ed</w>
lin ed</w>
TH ER</w>
sub stitu
S ev
P AC
mom ent</w>
D et
19 .
crim e</w>
expen ses</w>
initi ated</w>
si mple</w>
am ing</w>
M A</w>
on going</w>
am ber</w>
restric ted</w>
ust ed</w>
streng th</w>
tick ets</w>
ex ec
mon etary</w>
c m</w>
contin uation</w>
complet ely</w>
ali gn
appe al</w>
1 20</w>
if ying</w>
m ol
serv ation</w>
s aying</w>
m id
2 9.
provi der</w>
manufacture rs</w>
second ary</w>
Vilni us</w>
ru ption</w>
cap sul
shor t
bu d
simpl y</w>
2 4.
an k
poul try</w>
dat ory</w>
en vis
L im
ver ify</w>
d ar
E D
rel im
bil ateral</w>
l am
f em
J ap
ma p</w>
Opin ion</w>
sustain ability</w>
ser um</w>
inhib itors</w>
et es</w>
challeng e</w>
lic en
Nor th</w>
pro file</w>
vari ety</w>
dimen sion</w>
M O
B ud
char ac
dang erous</w>
repres ented</w>
reser ve</w>
er y
volun tary</w>
y our
succ ess</w>
l ost</w>
Serv ices</w>
cent res</w>
2 7.
ur ban</w>
flu or
all ergic</w>
N A</w>
er a</w>
ad d</w>
O ur</w>
he ar</w>
M R
addi tives</w>
sor ry</w>
in tra</w>
tol er
p um
eth yl</w>
re move</w>
collec tive</w>
at trac
Reg ions</w>
ex ac
W est
eu tic</w>
S m
Eng lish</w>
at tribu
ex trac
there by</w>
prohib ited</w>
consis ts</w>
conver sion</w>
remun eration</w>
p rece
4 14</w>
P ow
confi dence</w>
meth yl
in side</w>
tas k</w>
Fish eries</w>
M rs</w>
initi ation</w>
m iti
expl ained</w>
import ers</w>
plas tic</w>
C ateg
acqu is
fac ility</w>
tri al</w>
e asy</w>
v il
pre neur
loc k</w>
relim inary</w>
r im
prim arily</w>
E ff
der ing</w>
Th us</w>
Recom mend
4. 1</w>
no tably</w>
e .</w>
re jected</w>
dri ver</w>
C an</w>
C amp
method ology</w>
as ting</w>
quick ly</w>
mag ne
ex cl.</w>
in direct</w>
In f
mar ine</w>
democr acy</w>
em a</w>
Trans late</w>
M ul
hol dings</w>
th care</w>
w al
identi ty</w>
pos ing</w>
in put</w>
sec u
p ain
w ards</w>
b es</w>
3. 2</w>
l amps</w>
y st
chos en</w>
transi tion</w>
ro ute</w>
S E</w>
Fore ign</w>
S O
vers al</w>
tex tile</w>
dis closure</w>
R equi
mul ti</w>
defini tive</w>
t ested</w>
im bur
spre ad</w>
stu died</w>
fur n
Min istry</w>
ch i
b ing</w>
, 000</w>
Sp anish</w>
Af gh
dic ated</w>
tr a
fi g
is ol
ch ronic</w>
us h</w>
con tents</w>
re ve
all s</w>
constitu tes</w>
depen ding</w>
cho ose</w>
co m</w>
F ig
ban king</w>
T ake</w>
AN CE</w>
s s</w>
pa th
Lo ok</w>
desi rable</w>
P s</w>
def ence</w>
is o
custom er</w>
as yl
flow s</w>
nu tri
Est onia</w>
so il</w>
D ER</w>
v ers</w>
usu al</w>
ref ers</w>
hyp ogly
V ir
experi enced</w>
A G</w>
vul ner
al ed</w>
PRO V
equip ped</w>
ra ise</w>
es day</w>
tr u
si mul
Tw o</w>
G ames</w>
O m
capsul es</w>
Swit zer
z apine</w>
R S</w>
mis es</w>
vis a</w>
comm od
E u</w>
val uation</w>
M ari
offici als</w>
interpre tation</w>
ac tors</w>
asyl um</w>
p sy
valid ity</w>
prom ise</w>
g es</w>
ick ness</w>
radi o</w>
hor iz
ow s</w>
F il
bo x
v ail
s ation</w>
prepar e</w>
Switzer land</w>
e ties</w>
y ar
f ever</w>
trac k</w>
draw ing</w>
bre ak</w>
acc ess
inci dence</w>
tissu e</w>
ep h
cut ting</w>
or ation</w>
C ase</w>
l amp</w>
m al</w>
mo l</w>
gr ants</w>
Sub ject</w>
e en</w>
enz a</w>
vir al</w>
r on
reli able</w>
em erg
b es
B ased</w>
s aw</w>
design ation</w>
inter oper
spo t</w>
t ot
s pon
car di
Treat ment</w>
av es</w>
Th e
respon d</w>
spi rit</w>
dis h</w>
pres entation</w>
v als</w>
C al
Des cription</w>
ven cy</w>
inspec tions</w>
ass ist</w>
he ating</w>
AR S</w>
inv ited</w>
ad verti
Con sequently</w>
se ment</w>
harmon isation</w>
pl ane</w>
b s</w>
solid arity</w>
r ice</w>
sof tware</w>
wan ted</w>
Net work</w>
Afr ican</w>
eng ines</w>
M A
D em
stud ents</w>
thresh old</w>
fr aud</w>
co operate</w>
ev a</w>
territ ories</w>
4. 8</w>
wid th</w>
c os
Fun ds</w>
tax es</w>
inter net</w>
stand ardis
invol ve</w>
ob stac
barri ers</w>
G o</w>
st en
a ult</w>
qu ite</w>
mess age</w>
Aud itors</w>
re imbur
lo ading</w>
con ven
ent re
com position</w>
speci ally</w>
g etting</w>
st res
C ES
ph one</w>
pers ensi
ast ro
behavi our</w>
18 .
P aper</w>
AU C</w>
pe ace</w>
TE R</w>
suppli ers</w>
intro duce</w>
addi tive</w>
m emb
op s</w>
chang ing</w>
Euro system</w>
NU MBER</w>
defini tions</w>
um s</w>
ST R
Con di
sid es</w>
consul t</w>
sol id</w>
ex pan
S R</w>
lis ts</w>
PE R
easi ly</w>
Secret ary</w>
territ orial</w>
coord inated</w>
Fur ther</w>
Po int</w>
k et
if t</w>
hear ing</w>
l and
V I
val u
caref ully</w>
un employment</w>
H ouse</w>
V ol
S .
th ous
w o
continu ous</w>
In iti
pat ch</w>
fa ther</w>
siz ed</w>
sm all
f are</w>
par lia
defin e</w>
suppl ies</w>
B Y</w>
run ning</w>
g i
H or
ass is
con crete</w>
exc ell
syst em
b ia</w>
C op
buil t</w>
presid ent</w>
in ations</w>
hum an
rein for
sol ely</w>
multi lateral</w>
In de
z ones</w>
affec ting</w>
M at
corpor ate</w>
Pur su
precau tions</w>
wom an</w>
diab etes</w>
sh ared</w>
confl ict</w>
U p
intraven ous</w>
E r
en larg
answ er</w>
equ ality</w>
adv anced</w>
favour able</w>
def ici
play ers</w>
M r.</w>
sav ings</w>
re lig
ro und</w>
With in</w>
believ es</w>
con comit
M ac
f le
cer tified</w>
ic ing</w>
Contro l</w>
k il
H el
ten ders</w>
allow ances</w>
S pec
author isations</w>
B as
Or al</w>
some times</w>
mar king</w>
on avir</w>
flo or</w>
t um
tu red</w>
ey es</w>
consul tations</w>
4 0
il st</w>
poll ution</w>
repres ents</w>
s qu
o ts</w>
uc k</w>
Speci fic</w>
w on</w>
13 6</w>
up date</w>
sc en
mor t
man datory</w>
F R</w>
fro zen</w>
Ass ess
ble eding</w>
ba vir
M il
leg ally</w>
th ers</w>
om a</w>
rel ative</w>
ow ned</w>
f itted</w>
p y</w>
exper t</w>
fab r
h arm
vacc ination</w>
M ost</w>
g ave</w>
ap h
rail way</w>
hin d</w>
manag ing</w>
---- ----
ol der</w>
li ves</w>
8 00</w>
D ATE</w>
bavir in</w>
Represent ative</w>
p ip
fe e</w>
larg est</w>
infring ement</w>
go als</w>
le y</w>
where by</w>
Mal ta</w>
autom atic</w>
j our
techni ques</w>
b ad</w>
u n</w>
camp ai
at tem
ca uses</w>
pl aying</w>
m erg
fe ed
bro ad</w>
n ai
contrac tual</w>
1. 3</w>
h ot</w>
S um
h ands</w>
B et
g one</w>
extre m
hol ds</w>
e tics</w>
rub ber</w>
tour ism</w>
ov a</w>
awar ded</w>
sp ir
contr ary</w>
Pursu ant</w>
CR R</w>
compati bility</w>
l in</w>
bi odi
sal ary</w>
p .
tal king</w>
leg iti
al lo
heal thcare</w>
mo de</w>
repres enting</w>
jun ction</w>
be aring</w>
et e</w>
N ote</w>
B er
S .</w>
He ad</w>
s eg
s par
O D</w>
restric tive</w>
dos age</w>
or d</w>
lin ks</w>
Admin istr
your self</w>
hous ing</w>
fuc king</w>
ref rig
d uly</w>
H ar
flex ibility</w>
eng aged</w>
assess ing</w>
measu ring</w>
T E</w>
PAR TIC
Em ployment</w>
on tal</w>
PARTIC UL
inc enti
imp acts</w>
enh ouse</w>
Y ear</w>
Con ference</w>
re placement</w>
ic als</w>
st abil
keep ing</w>
inter action</w>
exclu sively</w>
viol ence</w>
man age</w>
ane ously</w>
ad oles
Cl ass</w>
gro ss</w>
acc el
T i
se ems</w>
pol ice</w>
d ys
t ob
mob il
PH AR
vis it</w>
st er
di c</w>
TI T
2. 3</w>
m em
Sloven ia</w>
v ey</w>
a .</w>
E l
liquid ity</w>
vide o</w>
f at
it arian</w>
charg ed</w>
Doc u
RE S</w>
der ly</w>
199 0</w>
protec tive</w>
T re
1 3.
M or
pet ro
L IS
weigh ted</w>
o ils</w>
sensi tive</w>
s an
mb H</w>
p ap
f ourth</w>
ri d</w>
m ate</w>
Par agrap
al uminium</w>
co operating</w>
suppli er</w>
pro long
m other</w>
fac ts</w>
g ets</w>
uni que</w>
pil ot</w>
L ev
D O
ai red</w>
there in</w>
Ge org
assi um</w>
st ood</w>
be hind</w>
PAC K
y m
a un
a ero
re place</w>
dis tur
17 .
A id</w>
Sup port</w>
ci um</w>
car s</w>
I A</w>
plen ary</w>
est er</w>
transf ers</w>
it ations</w>
M O</w>
i ding</w>
st ages</w>
fig ure</w>
Th ird</w>
laun ched</w>
in o</w>
dead line</w>
targ eted</w>
compu ter</w>
Ref erence</w>
mech an
har m</w>
lad ies</w>
c ents</w>
penal ties</w>
offic er</w>
plat form</w>
per fec
ca p</w>
tr ain</w>
L T
carri ers</w>
def icit</w>
c ros
read ing</w>
re insurance</w>
2 6.
ne ar</w>
entre preneur
propos e</w>
www .
but ter</w>
applic ants</w>
2 3.
po int
manufactu red</w>
stri al</w>
mach ine</w>
T ra
pre mium</w>
eg gs</w>
B R
Ann ual</w>
subsequ ently</w>
sch ed
ve ments</w>
Leg al</w>
Str uc
PARTICUL ARS</w>
ell ec
b lis
Pl ace</w>
6 ,
ben ch
amet er</w>
ac knowledg
inter fer
g g
bl ack</w>
B os
Char ter</w>
us al</w>
Comp any</w>
th ly</w>
assess ments</w>
re constitu
pow ered</w>
li ber
In nov
satis fy</w>
dump ed</w>
k n
G mbH</w>
spe ak</w>
incre as
dos ing</w>
ing ing</w>
Pro posal</w>
prepar ing</w>
sh it</w>
acc o</w>
edi atric</w>
ques tion
p reliminary</w>
enh anced</w>
bes artan</w>
confi d
et er</w>
Environ ment</w>
wel comes</w>
ti se</w>
gre enhouse</w>
Ad d
im age</w>
H OL
for ces</w>
s man</w>
ar ding</w>
L ot
war ning</w>
guarante ed</w>
W in
de ad</w>
consisten cy</w>
O THER</w>
L ist</w>
d in
ex port
up per</w>
sub s
cat ch</w>
des pite</w>
ex ed</w>
hep atitis</w>
Assess ment</w>
v is</w>
deleg ation</w>
remov al</w>
scen ari
every one</w>
Nor w
sid y</w>
exc ess</w>
b it</w>
fo rec
ag s</w>
Gre en</w>
NE R
E uro</w>
stre am</w>
enti c</w>
per spec
F RO
K ore
I D</w>
ak ia</w>
S hi
expl an
ac ute</w>
prece ding</w>
acquis ition</w>
re tro
rit onavir</w>
Sum m
te es</w>
2 2.
tr id
US A</w>
g ot
c am
d le</w>
associ ations</w>
accept ance</w>
go es</w>
fail ed</w>
B en
TE N
ex pi
v a</w>
li es</w>
hos p
consider able</w>
bu ty
Inter nal</w>
inde x</w>
as cular</w>
Suppl ement</w>
PACK AG
Bel ar
re member</w>
I F</w>
we ar</w>
di vision</w>
AC E</w>
T AR
inde ed</w>
S oci
oul dn</w>
tr ying</w>
ow ner</w>
iv es</w>
b un
EI B</w>
v ital</w>
m bo
Norw eg
industri es</w>
program ming</w>
s ory</w>
rec itals</w>
play ed</w>
pub lish</w>
wr ong</w>
IN FORM
CO D</w>
ere ly</w>
Recommend ation</w>
s ays</w>
Norweg ian</w>
ma b</w>
lan tic</w>
res istance</w>
complain t</w>
mus cle</w>
st ress</w>
i k
tain s</w>
cot ton</w>
difficul ty</w>
AC P</w>
influ enza</w>
s ex
m .</w>
rec ycl
co o
gr ade</w>
Condi tions</w>
199 1</w>
t ac
3 2
y outh</w>
fabr ics</w>
Gre ek</w>
c ab
re vision</w>
main taining</w>
INFORM ATION</w>
C I</w>
ten sion</w>
i az
con servation</w>
happen ed</w>
E duc
go al</w>
D o
M u
A .</w>
ellec tual</w>
dis ci
E ven</w>
install ations</w>
Afgh an
fol d</w>
conf erence</w>
V ice</w>
t ou
sub cutaneous</w>
5. 3</w>
v ar
therap eutic</w>
wee k
ci ties</w>
el ev
ad y</w>
victi ms</w>
du m</w>
ai ze</w>
g er
R yan
al le
Afghan istan</w>
exper tise</w>
MEN TS</w>
be au
ter ing</w>
exclu sion</w>
envis aged</w>
carri er</w>
po or</w>
n on
es el</w>
8 5
comb at</w>
ser i
hist or
3 A
incenti ves</w>
we b</w>
fin ding</w>
interoper ability</w>
fish ery</w>
en ia</w>
1 1
profes sion
col d</w>
Ryan air</w>
gener ated</w>
bot tle</w>
con junction</w>
adap t</w>
R en
bab y</w>
ow nership</w>
extrem ely</w>
ta il
contain er</w>
auth entic</w>
mis sible</w>
Medic inal</w>
A gen
ac ulture</w>
observ ations</w>
dru gs</w>
rele ased</w>
om iting</w>
Ch em
Slov akia</w>
10 4</w>
fri end
c k
sanc tions</w>
G lob
infec ted</w>
requi ring</w>
invest or</w>
the tic</w>
T A
ic king</w>
ten d
produc tive</w>
Agricul tural</w>
independ ence</w>
Fig ure</w>
enab ling</w>
res ource</w>
ec es</w>
th ou</w>
impro vements</w>
Un common</w>
10 3</w>
wor l
u ge
h n</w>
volum es</w>
increas ingly</w>
M et
acqui red</w>
appropri ation</w>
ogen ic</w>
datab ase</w>
separ ately</w>
mov ing</w>
es n</w>
transm itted</w>
air ports</w>
in sufficient</w>
Per s
ou red</w>
l en
conclu de</w>
qual ifications</w>
refrig er
C le
F o
we ap
m mol</w>
bet a</w>
P i
d l</w>
T AI
im pose</w>
injec tions</w>
hypogly caemia</w>
rel ate</w>
ut ro
6. 1</w>
e dule</w>
vis ions</w>
mil d</w>
su spec
he ight</w>
enti onal</w>
cre ati
Op en</w>
organis ms</w>
Re ad</w>
ograph ic</w>
det ail</w>
v ary</w>
inci d
M eth
vo ting</w>
IS TR
vulner able</w>
notif ications</w>
r ad
fi er</w>
v el
fl ying</w>
investig ations</w>
col labor
On ce</w>
fe eling</w>
u mab</w>
In tr
consequ ence</w>
hydr ate</w>
cl ean</w>
el se</w>
SI S</w>
reduc tions</w>
N omenclature</w>
exec ution</w>
acqu is</w>
bro ken</w>
ov ere
y es</w>
nov er</w>
hab it
es tion</w>
ol d
mic ro</w>
Deleg ated</w>
10 6</w>
dg e</w>
fl at</w>
di ameter</w>
princi pal</w>
em p
cons ent</w>
ri bavirin</w>
Con sum
conf erred</w>
5 ,
1 12</w>
re viewed</w>
re r</w>
Sta ff</w>
mar t</w>
m une</w>
d al</w>
H a
R E</w>
stan ds</w>
proc ee
elec tro
speci fication</w>
S H
kid ney</w>
sec toral</w>
expos ed</w>
min or</w>
residu es</w>
ti tle</w>
s ou
st at</w>
est er
reg im
A V
ell a</w>
ro un
migr ants</w>
sol vency</w>
c ep
N ING</w>
form ed</w>
inter ven
g ear</w>
W e
see king</w>
n ings</w>
satis fied</w>
u tr
whe at</w>
de par
bu y</w>
adoles cents</w>
autom atically</w>
mor ning</w>
int estin
an g</w>
syst emic</w>
inter im</w>
al y
Eff ec
Om bud
Techn ology</w>
t age</w>
with drawn</w>
H C
IC T</w>
i ances</w>
larg er</w>
str ai
tion ally</w>
an der</w>
harm ful</w>
C at
er r
Ci vil</w>
ligh ting</w>
gu ys</w>
ob ject</w>
back ground</w>
moder n
discus sions</w>
t ose</w>
bal anced</w>
IN T</w>
cover age</w>
divi ded</w>
sub sidy</w>
Str ong
vo ice</w>
fe der
pre mises</w>
ov ered</w>
rep air</w>
u k
id ly</w>
ish es</w>
M AN
no ise</w>
occur s</w>
nit ro
criter ion</w>
ac i
Oper ator</w>
detec tion</w>
resi due</w>
dr ink</w>
house hold</w>
ex tra</w>
E G
speci al
tu de</w>
ang i
com for
Categ ory</w>
for th
sc ru
ful fil
SU B
r h
di e</w>
E ast</w>
pre domin
u tilis
s ave</w>
econom ies</w>
fun ded</w>
1. 4</w>
safegu ard</w>
eren ces</w>
rel atively</w>
C T
2 5.
M ex
E astern</w>
ste in</w>
Det ail
establish ments</w>
00 1</w>
tr ic</w>
es tic
elim ination</w>
adap ted</w>
z o
mun ici
S EC
w n</w>
wel fare</w>
en th</w>
ov en</w>
dis cre
y er</w>
th al
ver ified</w>
y ed</w>
pu ts</w>
tex ts</w>
port fol
gr at
ethyl ene</w>
thre at</w>
Icel and</w>
oc k
adop ting</w>
terror ism</w>
car trid
Pol ish</w>
b acter
n avigation</w>
comp ounds</w>
vari able</w>
co al</w>
ous ness</w>
preven ting</w>
mis sions</w>
E L</w>
bir ds</w>
contin ues</w>
B an
St e
vis ible</w>
AD MIN
fri end</w>
di an</w>
B raz
assemb ly</w>
To day</w>
ot ed</w>
PRODUC TS</w>
tin y</w>
ist ant</w>
d i</w>
F re
f arm</w>
wat er
re ti
ner ships</w>
accompan ying</w>
st ers</w>
mix tures</w>
transf er
Under taking</w>
interfer on</w>
ann exed</w>
bi ological</w>
P L</w>
Bo x</w>
1 25</w>
commun icated</w>
becom es</w>
HOL DER</w>
at ell
ag on
continu ing</w>
En try</w>
D ef
r ash</w>
fac ing</w>
ADMIN ISTR
Ir an</w>
Acc ession</w>
ad es</w>
n omenclature</w>
small er</w>
M y
repl y</w>
al k
0 2
sib ly</w>
c k</w>
repe ated</w>
propos es</w>
Su pervis
horiz ontal</w>
bloc k</w>
ab sten
00 00
NC Bs</w>
do esn</w>
consolid ated</w>
vit ro</w>
trans l
loo ks</w>
prof itability</w>
w ait</w>
Camp ing</w>
ligh tly</w>
il ies</w>
appro aches</w>
te ach
calcul ating</w>
S ign
in ks</w>
ou ter</w>
p un
fl av
resid ent</w>
gr av
E T
n ur
def ault</w>
di versity</w>
12. 2006</w>
wh at
question nai
estim ates</w>
indic ator</w>
M ay
to m</w>
M us
hum ans</w>
v omiting</w>
f oun
cre w</w>
ut ting</w>
ph y
V is
ed ural</w>
Ad vis
tob acco</w>
P an
s .</w>
om atic</w>
B O
alle l</w>
advant ages</w>
ac king</w>
adap tation</w>
Strong est</w>
Res olution</w>
ensu red</w>
ON AL</w>
M F
w ar</w>
Medic ines</w>
bec ame</w>
r ats</w>
c ast</w>
us tion</w>
fr ag
arrang ement</w>
R O</w>
Al so</w>
u ty</w>
ty p
ub le</w>
coun ts</w>
N B</w>
ed ema</w>
M any</w>
C max</w>
o id</w>
tr aff
S T</w>
til ity</w>
tr ail
rap idly</w>
cour ts</w>
l ot
elec tions</w>
rec overed</w>
do g</w>
frequ ently</w>
dis til
consul ting</w>
acc red
TIC AL</w>
er ror</w>
om mun
tur nover</w>
declar ations</w>
3. 3</w>
off ering</w>
flex ible</w>
arm a</w>
Euro stat</w>
b ig
2. 4</w>
es h</w>
tion ary</w>
ic it
sign al</w>
Par ticip
z a</w>
gu y</w>
comb ating</w>
R ound</w>
resul ted</w>
play er</w>
k .
install ed</w>
fac es</w>
evalu ate</w>
charac ter</w>
Govern ing</w>
1 10</w>
disp ute</w>
K y
adverti sing</w>
Li ke</w>
18 0</w>
diagn os
M AC
indic ating</w>
indic ates</w>
form ing</w>
Dem ocr
pay ing</w>
si r</w>
ch ers</w>
human itarian</w>
absol ute</w>
tren d</w>
educ ational</w>
I denti
Ombud sman</w>
16 0</w>
expres s</w>
m el
3 8
lo x
M ission</w>
R is
substan tially</w>
ery thro
ound ation</w>
enter ing</w>
contribu ting</w>
discus s</w>
In sul
In stru
obstac les</w>
Pos ition</w>
urg ent</w>
de p
ar ti
B l
7 ,
laun ch</w>
bor ne</w>
I V
su per
CON DI
ex porter</w>
E gy
su me</w>
show ing</w>
v ince</w>
fores een</w>
R N</w>
ud ine</w>
cl ause</w>
fem ale</w>
pot assium</w>
consider ing</w>
us ea</w>
p al
dri ed</w>
ic ts</w>
inten tion</w>
ch ro
F orm
wh ilst</w>
W ater</w>
ex ci
el derly</w>
manag er</w>
C urren
bre eding</w>
nation ally</w>
adequ ately</w>
under take</w>
accid ent</w>
D C</w>
ur ine</w>
di oxide</w>
D A</w>
L ED</w>
eng ine
C ity</w>
pay able</w>
L oc
with standing</w>
O P
simul t
k i
o to</w>
g ain</w>
prescri ption</w>
jec tion</w>
establish es</w>
supple mentary</w>
sec re
comp ul
sched ul
pot entially</w>
persensi tivity</w>
u um</w>
func tional</w>
and om
absor ption</w>
do w</w>
det eri
h ot
RE P
B ur
ang le</w>
le um</w>
modi fication</w>
de stro
Sci entific</w>
ul l</w>
cons ist</w>
F IC
phosph ate</w>
s ought</w>
res erv
col lateral</w>
elec ommun
appl iances</w>
thro mb
g ate</w>
BA T
Cha ir
rol ling</w>
ra ising</w>
aqu aculture</w>
fi x</w>
consider ations</w>
tr um</w>
cli ents</w>
h ex
B re
le aving</w>
prob ably</w>
mu sic</w>
li able</w>
Com peti
clin ically</w>
let ters</w>
oth iaz
oper ative</w>
moder n</w>
exis ts</w>
bu s</w>
iti ous</w>
ati es</w>
st ation</w>
W S</w>
3 9
deal ing</w>
ac tively</w>
se x</w>
CONDI TIONS</w>
sampl ed</w>
f el
F OL
par allel</w>
exclu sive</w>
depen ds</w>
H ell
tren ds</w>
mark eted</w>
Manufac ture</w>
bit r
micro grams</w>
fri ends</w>
easi er</w>
s ell</w>
fi f
ob vi
W TO</w>
sur vey</w>
heav y</w>
mechan ical</w>
depos its</w>
Amer ican</w>
m 3</w>
ap point
pro ve</w>
har v
erg ies</w>
candi date</w>
intestin al</w>
excee ds</w>
addres sing</w>
res ear
tim ely</w>
in s
pr o</w>
Amend ment</w>
NC B</w>
achiev ement</w>
author ising</w>
R ight</w>
quanti tative</w>
es sions</w>
T V</w>
Pre par
surg ery</w>
so le</w>
O ut
A l</w>
hap pen</w>
dr af
c are
U B
Innov ation</w>
Can ada</w>
de ep</w>
t ap
contain ers</w>
st y
el i
sh o
cont am
b lin
amm ation</w>
amb itious</w>
fam ilies</w>
w all</w>
mix ture</w>
me ets</w>
re ality</w>
some one</w>
ol ing</w>
Acc ord
exac tly</w>
ac es</w>
syn drome</w>
br inging</w>
d ens
ter ies</w>
I ts</w>
sal ts</w>
mon o
at ories</w>
ne utr
M ag
a head</w>
explo itation</w>
ex cre
h un
enjo y</w>
farm ing</w>
veget able</w>
P C</w>
ot y
TO P</w>
disci pl
an aemia</w>
Mon it
carb ons</w>
pharmacokin etics</w>
R et
Wh ite</w>
estim ate</w>
P ack
gen u
allow ance</w>
C AR
satisfac tory</w>
n y</w>
Accord ingly</w>
TS I</w>
ch ance</w>
P en
with draw</w>
s lightly</w>
op a
ed ge</w>
cl arif
suspen ded</w>
sh ee
sex ual</w>
perspec tive</w>
e at</w>
assis ted</w>
tonn e</w>
N evertheless</w>
part ments</w>
ban kno
S il
renew al</w>
me al</w>
r andom
situ ated</w>
for tun
10 1</w>
mo tion</w>
Jap an</w>
ear th</w>
ho ea</w>
ran king</w>
Struc tural</w>
Ro ad</w>
DI REC
BAT CH</w>
I .
yar n</w>
confid ential</w>
cau tion</w>
a. k.
comm only</w>
C B</w>
fre ight</w>
bra ke</w>
10 9</w>
pre dic
seas on</w>
V e
hi bi
Educ ation</w>
Res pon
ro utes</w>
mat urity</w>
t an
friend ly</w>
IN I
off ices</w>
T ell</w>
multi pl
hydro gen</w>
s overe
mov ements</w>
re me
tor ate</w>
im porter</w>
Par ts</w>
subsi dies</w>
IC ES</w>
enterpr ise</w>
Int egr
CH MP</w>
it ec
D ecisions</w>
AR Y</w>
min ute</w>
T un
af for
remain ed</w>
p ine</w>
au ton
dis continued</w>
ach e</w>
chec ked</w>
Sw iss</w>
G N
cal cium</w>
b ar</w>
introduc ing</w>
h im
10 0
th anks</w>
protec ting</w>
direc tives</w>
Paragrap h</w>
cont ested</w>
De fin
P T</w>
D R
accel er
Secret ariat</w>
5 43</w>
profession als</w>
govern mental</w>
produc tivity</w>
ren t</w>
10 8</w>
y i
sci ence</w>
Con stitu
legiti mate</w>
Co hesion</w>
paren ts</w>
EU SR</w>
ch apter</w>
certain ly</w>
sp ent</w>
col our</w>
re l</w>
proportion ality</w>
identi fying</w>
expl ain</w>
W ed
d less</w>
West ern</w>
Ma ximum</w>
Monit oring</w>
tif ication</w>
rol led</w>
k ill</w>
dos si
si lic
bre ach</w>
author ise</w>
y n
EP AR</w>
fo rest</w>
s ors</w>
hap s</w>
E very</w>
reser ves</w>
ar ance</w>
fo ods</w>
af er
tel ev
sch edule</w>
a ur
cat ches</w>
recogn ise</w>
coh erent</w>
Kore a</w>
Administr ative</w>
A ut
proc edural</w>
EF SA</w>
ar th
rec ru
pig s</w>
discrim in
id en
U M</w>
At lantic</w>
secur iti
prof its</w>
k y</w>
circ u
id ity</w>
er n
f ications</w>
im migration</w>
enh ancing</w>
part nerships</w>
Author isation</w>
No .</w>
B oth</w>
re st
w ild</w>
pa ediatric</w>
K os
perform ing</w>
mon thly</w>
concomit ant</w>
com promise</w>
Belar us</w>
w ants</w>
Ch ec
consign ment</w>
9 0
ro oms</w>
argu ed</w>
Gre at</w>
dissem ination</w>
simpl ification</w>
po l</w>
S S</w>
stipul ated</w>
quar ter</w>
amin o</w>
es is</w>
ar ise</w>
E ver
C AP</w>
RE D</w>
so ft</w>
shee ts</w>
bra in</w>
cou pl
W AR
D r
de dicated</w>
head ings</w>
ri gh
TE D</w>
Bu il
import ation</w>
affec ts</w>
ch e</w>
s ity</w>
becom ing</w>
3A 4</w>
integr ity</w>
ad m
jo int
coun ter</w>
Reg ul
ol an
advis ed</w>
her it
prin ted</w>
5 0
orig in
ru p
Gro w
l ap
govern ed</w>
a er
strong ly</w>
im position</w>
H A</w>
ay ed</w>
ri d
GE NER
E qui
Dec lar
et able</w>
ES S
survi val</w>
mac ro
prohib ition</w>
cl asses</w>
3. 5</w>
or t</w>
y ro
ov o</w>
or row</w>
as surance</w>
tif ul</w>
MAC EU
N ew
2 -</w>
all ing</w>
C A</w>
subsidi ary</w>
infl ammation</w>
correc tion</w>
sec ret
un able</w>
In cre
F ree</w>
X X
1, 000</w>
fin ally</w>
re aching</w>
traff icking</w>
share holders</w>
distin gu
activ ated</w>
pe ak</w>
PHAR MACEU
chem otherapy</w>
EX P
an nex</w>
vi g
e able</w>
Appro pri
ide as</w>
par tly</w>
pass ed</w>
ir regul
ex ecu
schedul ed</w>
form in</w>
Inde ed</w>
w on
S am
emb ry
H R</w>
t .</w>
hel ping</w>
ap art
P u
public ly</w>
er ad
an o</w>
fi gh
th ickness</w>
joint ly</w>
correc ted</w>
ma ster</w>
fin ished</w>
concentr ate</w>
FOL LO
it ch
uni versal</w>
elig ibility</w>
H z</w>
Institu te</w>
FRO M</w>
sem i</w>
absten tions</w>
n ar
ar ities</w>
Portu gu
W om
ow ners</w>
de ployment</w>
ti ble</w>
IC AL</w>
re fin
int ellectual</w>
h am
multi annual</w>
access ories</w>
wi der</w>
i br
Gu aran
denti ality</w>
car ds</w>
b ic
fib re</w>
cycl es</w>
T em
win d</w>
re x
consul ted</w>
ad ed</w>
arr hoea</w>
zer o</w>
sw ine</w>
c ue</w>
predomin antly</w>
for get</w>
T C</w>
spec trum</w>
ref uge
In surance</w>
st e</w>
pr ud
ren z</w>
ch ol
oc ar
PHARMACEU TICAL</w>
facilit ating</w>
ri tis</w>
oles ale</w>
v o</w>
G al
conv entional</w>
10 5</w>
k i</w>
Mari time</w>
commun ities</w>
announ ced</w>
s aving</w>
o edema</w>
compl ied</w>
n one</w>
Dep uty</w>
him self</w>
13 8</w>
Ex ternal</w>
pan el</w>
m id</w>
iden tical</w>
ensu res</w>
see ds</w>
regar dless</w>
A no
ta r</w>
th ir
sugg est</w>
un known</w>
na usea</w>
m ph
auton om
Com pl
nom inal</w>
th inking</w>
pi ece</w>
IT Y</w>
la x
31. 12.
memb ership</w>
exerc ised</w>
the e</w>
pos sibly</w>
exam ples</w>
S I</w>
lo g</w>
im mune</w>
inten ds</w>
encour aged</w>
C ER
ri an</w>
formul a</w>
beg in</w>
ur ch</w>
pat h</w>
olan zapine</w>
j e
ex changes</w>
compul sory</w>
compl ies</w>
pi ent</w>
ann a</w>
week ly</w>
Y ah
fuc k</w>
Wed n
scre en</w>
Portugu ese</w>
ab dom
st ant</w>
excell ent</w>
clos er</w>
CES E</w>
idel ine</w>
C a
hydro chlor
hel ps</w>
bon ds</w>
we h</w>
dri ven</w>
2 99</w>
poin ting</w>
3 6
r ine</w>
D ut
Secon d</w>
hydro carbons</w>
den om
discrimin atory</w>
sh ar
al ysis</w>
wor th</w>
sw elling</w>
Com bin
pic ture</w>
enlarg ement</w>
ar bitr
analys ed</w>
Insul in</w>
belong ing</w>
here to</w>
St ud
GENER AL</w>
T Y</w>
m aize</w>
6. 2</w>
ten stein</w>
expres sion</w>
B .</w>
gir l</w>
ti er</w>
scru tiny</w>
restric tion</w>
Yah weh</w>
TE E</w>
un ion</w>
inten sity</w>
accur ate</w>
ac ted</w>
rel ates</w>
Ever y
in directly</w>
ro se</w>
p referen
fr ame</w>
weap ons</w>
ren tal</w>
PO S
telev ision</w>
l ending</w>
ten tion</w>
P ay
ch ann
appoint ment</w>
Sec ur
reflec ted</w>
G R
Mark eting</w>
at oes</w>
cl ar
Measu res</w>
tr ans</w>
fall s</w>
ar tif
ne um
bra king</w>
Reg ion</w>
RO U
biodi versity</w>
bran ch</w>
m ale</w>
as ti
Wedn esday</w>
A vi
com posed</w>
d wide</w>
J er
A O</w>
Rom a</w>
avi renz</w>
8 4
shap e</w>
I AS</w>
me an
E qu
ent ure</w>
ra in</w>
est ate</w>
Sim il
Stat ute</w>
chem icals</w>
s mart</w>
g ing</w>
lear n</w>
d ol
D G</w>
wh ol
suff ered</w>
p utting</w>
ATI ONS</w>
J O
IN G
2 1
Requi rements</w>
Grow th</w>
i ii</w>
concentr ated</w>
tack le</w>
ver tical</w>
oblig ed</w>
atell ite</w>
y ellow</w>
ti ll</w>
sign ature</w>
le aves</w>
co hol
bal ances</w>
othiaz ide</w>
19 87</w>
d ating</w>
H O
COMM IT
vol tage</w>
cro ps</w>
confir m</w>
ur y</w>
Cha in</w>
encour aging</w>
ed ly</w>
Braz il</w>
4 68</w>
D s</w>
f al
dep th</w>
Di d</w>
Coun try</w>
st om
boo ks</w>
S ME</w>
7. 5</w>
preser ved</w>
Jo hn</w>
Swe dish</w>
ox y</w>
pos sibilities</w>
inc en
for war
f it
pen ding</w>
e ast</w>
D ue</w>
em powered</w>
Lim ited</w>
Uni versity</w>
all ed</w>
prec ise</w>
en ever</w>
ID ED</w>
ER S</w>
A F</w>
ol ic</w>
vis ual</w>
rou gh</w>
Rev i
g ases</w>
pl ates</w>
ma y
cop ies</w>
.e .
al g
Li ech
Agen da</w>
tu s</w>
Li b
Hy dro
t les</w>
pop ular</w>
P a
4. 6</w>
i tions</w>
EX P</w>
sc ep
po i
siz es</w>
ap preci
under stood</w>
objec ts</w>
E ME
Liech tenstein</w>
Th ree</w>
hy po
T ime</w>
ment ally</w>
D u
Bos nia</w>
direc ted</w>
k illed</w>
f en
l ers</w>
P res
ex hib
dy namic</w>
gir ls</w>
prolong ed</w>
g ap</w>
po ol</w>
strai ght</w>
pir atory</w>
Wom en</w>
P V
pi eces</w>
h it</w>
w as
exten ding</w>
Advis ory</w>
pursu e</w>
S an
In stance</w>
volun te
lan ding</w>
n esses</w>
in compatible</w>
ri ed</w>
ag en</w>
ADMINISTR ATION</w>
recommen ds</w>
Ch amber</w>
subsidi arity</w>
ol ds</w>
scho ols</w>
cli ent</w>
ban k
sal t</w>
f on
T aking</w>
radi o
hu ge</w>
L ord</w>
ne utro
Dut ch</w>
ST ATE
al ph
portfol io</w>
ard ous</w>
z eg
s or</w>
met formin</w>
appe arance</w>
ATI VE</w>
doub t</w>
t ang
f illing</w>
requ esting</w>
hydrox y
win dow</w>
L on
T u
beau tiful</w>
w ing</w>
T est</w>
employ ers</w>
mov ed</w>
h ur
cle an
U AB</w>
0 4
w are</w>
avi an</w>
anti bodies</w>
Mi x
AP PE
n .e.
low est</w>
Wor king</w>
Kos ovo</w>
r ab
cl arity</w>
ex tract</w>
St reng
h orm
1 15
strong er</w>
P ress</w>
dis order</w>
a ment</w>
St atis
sl augh
ke ys</w>
DIREC TIVE</w>
hap py</w>
argu ment</w>
Ch il
W ee
Par is</w>
N u
s pl
ov ina</w>
S ome
P ak
sh op</w>
H A
pharmacokin etic</w>
TAI L</w>
0 9.
un anim
see m</w>
depos it</w>
Ser bia</w>
Egy pt</w>
di pl
n gs</w>
men tion</w>
ab use</w>
im possible</w>
Declar ation</w>
res ting</w>
op e</w>
detec ted</w>
lip tin</w>
N R
ref use</w>
rec ording</w>
vac uum</w>
p ality</w>
T ali
inter vals</w>
oc curren
D ay</w>
re ver
derog ations</w>
accur acy</w>
P E</w>
deli ver
compr ising</w>
Sur veillance</w>
az one</w>
op position</w>
exci pients</w>
Mul ti
petro leum</w>
M ain</w>
distribu ted</w>
4. 2004</w>
B ro
dro p</w>
Hung arian</w>
Cap ital</w>
alleg ed</w>
invol ves</w>
id al</w>
ap parent</w>
ce iling</w>
radi ation</w>
ill u
Tali ban</w>
10 2</w>
s per
Add ress</w>
m ir
di zz
um ulation</w>
in land</w>
ac ids</w>
oci dal</w>
analys es</w>
U F
w ife</w>
Ph arma</w>
18 2</w>
questionnai re</w>
o z
ac in</w>
Combin ed</w>
Au str
F er
I P
correc tive</w>
tax able</w>
F R
ME TH
CYP 3A4</w>
worl dwide</w>
ut ory</w>
f ill</w>
s y</w>
reven ues</w>
confi dentiality</w>
zeg ovina</w>
al cohol
ab road</w>
i b
e ds</w>
lot tery</w>
expec t</w>
gl u
nu ts</w>
can cell
ir a</w>
differen ti
Her zegovina</w>
indic ative</w>
aspec t</w>
break down</w>
l ayer</w>
li e</w>
ut ely</w>
an ticip
inhib itor</w>
whe el</w>
correc tly</w>
tom orrow</w>
Ve hic
Ch ange</w>
analy tical</w>
ac commod
S or
simpl ified</w>
dis play</w>
particul ars</w>
argu ments</w>
accid ents</w>
s outh</w>
mis sing</w>
commit tees</w>
lin ing</w>
j ust
an ese</w>
al ogue</w>
par tially</w>
depar ture</w>
administr ations</w>
Fun damental</w>
sk i</w>
c it
S cho
Nor thern</w>
competi tors</w>
export ers</w>
ol ive</w>
comb ustion</w>
Produc tion</w>
pro mp
D anish</w>
or atory</w>
W est</w>
p in</w>
consolid ation</w>
at ch</w>
COMMIT TEE</w>
re strain
standardis ation</w>
cons ci
For um</w>
termin ation</w>
pow er
co ast
pack ages</w>
collec t</w>
Vir afer
wat ch</w>
li ons</w>
ch an
mat ch</w>
im posing</w>
refer ring</w>
O ver</w>
ell s</w>
us ting</w>
necess arily</w>
out standing</w>
S elec
G en</w>
war ran
n ice</w>
entire ly</w>
ail and</w>
ES MA</w>
int el
con stant</w>
avo ided</w>
respec ted</w>
preferen tial</w>
F u
am mon
ab normal</w>
elecommun ications</w>
depen d</w>
WAR NING</w>
r ated</w>
ar ia</w>
ili ation</w>
initi ate</w>
Feder al</w>
Appl ication</w>
equ ally</w>
selec tive</w>
magne tic</w>
yl ene</w>
stu ff</w>
fortun ately</w>
spr ing</w>
fi able</w>
S ust
M I</w>
medi an</w>
sur ve
201 9</w>
inclu sive</w>
V eter
rul ing</w>
g old</w>
dis tr
recycl ing</w>
incen tive</w>
EC R</w>
respon ses</w>
eph one</w>
Georg ia</w>
t own</w>
ax is</w>
lim itations</w>
aud its</w>
re tain</w>
be am</w>
inv est</w>
an ol</w>
Th ailand</w>
ad ding</w>
op tional</w>
entr ies</w>
Lat vi
emerg ing</w>
cour ses</w>
H is</w>
Ano ther</w>
s .
D avi
exem pt</w>
termin al</w>
veter in
p ill
fo ot</w>
conver gence</w>
Th anks</w>
P ub
trans position</w>
trans port
bot tom</w>
air y</w>
wor ding</w>
a to</w>
am oun
sh ops</w>
C hi
cre am</w>
S TE
ISI ONS</w>
C S</w>
I mp
re ar</w>
gro up
star ch</w>
consequ ently</w>
P ass
St ore</w>
ad er</w>
eng age</w>
al ert</w>
struc tured</w>
Com pet
p estic
FOLLO WS</w>
Un it</w>
GH T</w>
syn thetic</w>
AL S</w>
chec king</w>
Con tin
c in</w>
EC D</w>
ici an</w>
Admin istration</w>
col or</w>
cap e</w>
capac ities</w>
St u
1. 6</w>
doub ts</w>
Belg ian</w>
t ability</w>
selec t</w>
a sts</w>
D IS
st one</w>
resear chers</w>
ti les</w>
design ate</w>
U r
astro intestinal</w>
T eva</w>
Direc torate</w>
foc used</w>
reli ef</w>
ic o</w>
su le</w>
on a</w>
exten sive</w>
gen e
fore stry</w>
our hood</w>
i re</w>
se where</w>
grad ually</w>
on azole</w>
le ads</w>
Revi ew</w>
s k</w>
enzy me</w>
do ors</w>
3 7
jo in</w>
dimen sions</w>
K ar
weigh ing</w>
ly mph
L s</w>
od y
U ru
LT 0000
En ter
w ind
represent ation</w>
reci pient</w>
os la
strength ened</w>
car ton</w>
20 1</w>
impl ications</w>
expl os
ch air
Acc ess</w>
mi x</w>
pos ite</w>
D F</w>
m it
cre di
cr yst
conclu des</w>
vir tu
tox ic</w>
r ich</w>
Org an
F ri
renew ed</w>
on ing</w>
F an</w>
writ e</w>
cor ruption</w>
confl icts</w>
Sy st
Re porting</w>
exem ptions</w>
en sus</w>
bun al</w>
C PA</w>
3. 4</w>
w ash
prin ting</w>
inter val</w>
Hor iz
DEC IDED</w>
individu ally</w>
4 4
cro ch
su n
haz ardous</w>
ex it</w>
cas ting</w>
calcul ate</w>
di arrhoea</w>
cau ght</w>
Y ug
comp res
what ever</w>
smo oth</w>
Sh ould</w>
sp p</w>
retur ned</w>
h a</w>
S D</w>
FOR M</w>
ir respective</w>
d ex
V ER
se ats</w>
any one</w>
Guaran tee</w>
9 ,
vi ability</w>
W IT
Pro f
D NA</w>
flu id</w>
tempor arily</w>
v ents</w>
quar ters</w>
id ay</w>
a fil</w>
hous es</w>
candi dates</w>
O ECD</w>
pr icing</w>
ov is
w it
R D</w>
P RI
kn itted</w>
ref usal</w>
fle et</w>
cle aning</w>
success fully</w>
IF RS</w>
reimbur sement</w>
on ian</w>
clarif y</w>
s port</w>
The ir</w>
4 50</w>
ti a</w>
coord inate</w>
sit ting</w>
particip ant</w>
S atur
clos ing</w>
T AB
ci vil
ab ine</w>
Yug osla
erythro poi
compet ences</w>
e sia</w>
measu rements</w>
emphas is</w>
mod ules</w>
Europe ans</w>
M ob
Con t
Wor k</w>
P eg
tend ere
l ose</w>
W A
voc ational</w>
justif y</w>
el sewhere</w>
ri ver</w>
µ g</w>
ea p</w>
Indu strial</w>
Ass emb
imp aired</w>
bl ue</w>
19 89</w>
N at
Lon don</w>
spen ding</w>
perfec t</w>
ovis ual</w>
odi c</w>
s in
org an</w>
a.k. a.</w>
ev ol
A sia</w>
RE N
Euro pol</w>
Buil ding</w>
haz ard</w>
b ru
manag ers</w>
ag liptin</w>
ur gency</w>
occa sion</w>
co efficient</w>
Is lands</w>
m L</w>
con g
EME A</w>
leg e</w>
Imple mentation</w>
on ed</w>
excee ded</w>
AR TIC
eu tical</w>
stat utory</w>
law ful</w>
M old
issu er</w>
pass ing</w>
new s</w>
intermedi ate</w>
al bu
fir m
scenari o</w>
Tra ining</w>
Gu ideline</w>
14 0</w>
w age</w>
whol ly</w>
h ell</w>
w anna</w>
bu ying</w>
infra structures</w>
in ts</w>
ul ate</w>
ma xim
4. 2.
pro gram</w>
Ris k</w>
I ris
AL L</w>
sum mar
men s</w>
car go</w>
F ather</w>
Davi d</w>
6 0
tr ies</w>
enti eth</w>
croch eted</w>
as tic</w>
ro b
bo y</w>
an i</w>
an dic</w>
se as</w>
B lack</w>
en ship</w>
Icel andic</w>
l ing
Detail ed</w>
squ are</w>
ed onia</w>
O B
su d
res istant</w>
offici ally</w>
d ered</w>
counter party</w>
broad band</w>
lo ts</w>
correspon d</w>
bankno tes</w>
over dose</w>
Rap porteur</w>
tw entieth</w>
larg ely</w>
genu ine</w>
cu ts</w>
acet ate</w>
10 ,000</w>
id ine</w>
car cin
op ol
St ability</w>
C D</w>
st ations</w>
Iris h</w>
head s</w>
C ulture</w>
stop ped</w>
s ick</w>
coh erence</w>
bo ost</w>
approxim ation</w>
p ers</w>
got ta</w>
com ment</w>
Min isters</w>
seri ously</w>
phen yl</w>
al ism</w>
se iz
tun a</w>
gener ate</w>
B .
sle ep</w>
sem en</w>
arch itec
creati nine</w>
bl ing</w>
acc umul
Uru gu
bur g</w>
ver sus</w>
Y outh</w>
Glob al</w>
E s
ob taining</w>
mess ages</w>
Con sul
fo ster</w>
lim itation</w>
histor ical</w>
illu str
subsidi aries</w>
my self</w>
cy lin
cont acts</w>
tem plate</w>
n r</w>
li gence</w>
fer tilis
Comm er
pro jec
conc ep
w ines</w>
veterin arian</w>
am a</w>
Urugu ay</w>
Docu ment</w>
gu ide</w>
STR U
ter n</w>
ep id
ch eap</w>
thous and</w>
subs cri
Not withstanding</w>
1 107</w>
8 0
prohib it</w>
organ ization</w>
cul tiv
en ded</w>
fel t</w>
A D</w>
ow ing</w>
0, 5</w>
call ing</w>
ax el</w>
t oc
campai gn</w>
Hell o</w>
ov e
hy bri
Feder ation</w>
res cue</w>
exha ust</w>
. com</w>
dev i
APPE AR</w>
Ph il
miti gation</w>
frequ ent</w>
L T</w>
vi als</w>
serv ed</w>
m erely</w>
M id
secu red</w>
pot en
penal ty</w>
le ather</w>
Avi ation</w>
dens ity</w>
ca using</w>
o k
att ack</w>
Secon dly</w>
H ave</w>
Di g
fre ez
be an</w>
Appro val</w>
wh olesale</w>
terror ist</w>
be ef</w>
speci alised</w>
pe p
marg ins</w>
lit er
ev olution</w>
d ness</w>
min eral</w>
d ecis
ain ing</w>
pop ulations</w>
metabol ism</w>
expec tations</w>
stric t</w>
anal ogue</w>
employ ee</w>
ar k</w>
Secur ities</w>
secon ds</w>
blin d</w>
o g</w>
ple ased</w>
tru th</w>
Assemb ly</w>
um b
pl ays</w>
ev en
man ual</w>
furn iture</w>
P ot
off ences</w>
su scep
-- -</w>
s li
v an</w>
e ase</w>
un likely</w>
in hal
dri vers</w>
x th</w>
enzy mes</w>
Con clu
an te</w>
C au
ri x</w>
employ er</w>
00 000</w>
feder ation</w>
Over all</w>
D ER
is ely</w>
great est</w>
S chem
g ed</w>
dis posed</w>
pres erv
carri age</w>
F ound</w>
vail ing</w>
II I
nutri tion</w>
1 14</w>
pum p</w>
ti an</w>
summ er</w>
la z
PAR T</w>
Tre aties</w>
Sy n
h ec
US ED</w>
rec urren
procee ding</w>
inv ent
separ ation</w>
M P
wor th
fac ed</w>
Ex port</w>
tu bes</w>
tr im
suff ering</w>
Sal es</w>
G l
constitu tional</w>
comp ound</w>
valu able</w>
de pression</w>
WIT H</w>
nor th</w>
di versi
blis ter</w>
hosp ital</w>
comm and</w>
repl ies</w>
S ha
s n
initi ally</w>
chil d
al es</w>
infring ements</w>
St op</w>
Veter inary</w>
ord ination</w>
in tr
tr ation</w>
L and</w>
but ton</w>
att acks</w>
sur roun
feed ing
there after</w>
PROV ISIONS</w>
Bal k
pursu ed</w>
17 8</w>
ST O
Pro ject</w>
W ait</w>
am in</w>
s en</w>
con grat
car bon
D G
IR Y</w>
2 b</w>
Environ mental</w>
defin ing</w>
over sight</w>
ligh ted</w>
con strain
V A</w>
s tic
R are</w>
phen omen
per cent</w>
Sm all</w>
integr al</w>
B or
contribu ted</w>
as sive</w>
elim inate</w>
T el
W el
addres ses</w>
ab led</w>
in su
system atic</w>
sh eep</w>
i ans</w>
appro ve</w>
So dium</w>
dis patch</w>
AC H</w>
refriger ator</w>
c c
Ad just
suspec ted</w>
p neum
6. 3</w>
for th</w>
8 ,
s atellite</w>
r ace</w>
ad just</w>
re tention</w>
o ting</w>
f os
nitro gen</w>
Tr an
Ex change</w>
EC E</w>
R adi
IM O</w>
chann els</w>
Chec k</w>
dis pen
them e</w>
fe et</w>
distin c
C .</w>
ep iso
Indu stry</w>
wid ely</w>
r ic
ph eral</w>
ty res</w>
figh ting</w>
M os
ste ady</w>
mat ely</w>
g ur
ship ping</w>
un certainty</w>
in ject</w>
tab led</w>
num erous</w>
bi ocidal</w>
organ iz
Hol der</w>
occup ational</w>
11. 2007</w>
dec line</w>
1, 5</w>
C O</w>
tain ment</w>
utilis ation</w>
swit ch</w>
appe ared</w>
mat ure</w>
s ports</w>
T ai
Y Y
complain ant</w>
Im pro
spar e</w>
si um</w>
Chil dren</w>
L .</w>
sal aries</w>
gen tly</w>
EXP IRY</w>
g am
S S
connec tions</w>
1 30</w>
arth ritis</w>
u de</w>
Des pite</w>
complain ts</w>
z i
k new</w>
ess entially</w>
an ded</w>
spe ak
Pri v
ot ox
I B
bor row
tur ned</w>
ship ment</w>
ast ers</w>
mat ory</w>
i tical</w>
artif icial</w>
Tun is
p o</w>
icit ly</w>
s ac
a j
st o
ri f
C ir
it us</w>
inten sive</w>
egr ad
threat s</w>
collabor ation</w>
beg an</w>
gro w</w>
g est</w>
Mac edonia</w>
G ar
b y
vari eties</w>
METH OD</w>
Austr alia</w>
mis sed</w>
em ail</w>
plat el
Pack age</w>
def ec
author ized</w>
an ch
Sust ain
dizz iness</w>
benef icial</w>
am bi
contrac ep
pr is
g ained</w>
forwar ded</w>
Ap pe
brea thing</w>
In don
correspon ds</w>
s er</w>
Pr inci
H i</w>
T ru
lig ible</w>
C D
PL Y</w>
lead ers</w>
coast al</w>
CYP 2
thro p</w>
3 4
Lev el</w>
high lighted</w>
aff airs</w>
engine ering</w>
dossi er</w>
2, 5</w>
bl u
virtu e</w>
exclu de</w>
PACKAG ING</w>
Bo ok</w>
12 3</w>
attrac tive</w>
caref ul</w>
inte resting</w>
Win throp</w>
ec os
accommod ation</w>
an o
sev er
pr int</w>
fix es</w>
de struction</w>
asti m</w>
2 10</w>
cartrid ge</w>
as king</w>
M ach
ong ue</w>
citiz en</w>
fr ac
compl ying</w>
met ers</w>
met als</w>
coord in
May be</w>
relig ious</w>
Satur day</w>
col our
TE N</w>
Pro vi
.. ..</w>
CON TEN
TIT LE</w>
13 9</w>
v or
oph il
on y</w>
a us
prepar atory</w>
mo dule</w>
tab les</w>
occurren ce</w>
AG E</w>
sh ing</w>
of i</w>
charg ing</w>
Mold ova</w>
Con cer
re iter
B on
ME T</w>
17 2</w>
tle ments</w>
ann ually</w>
AS E</w>
reve aled</w>
simult aneously</w>
T 2</w>
provis ion
d u</w>
tern s</w>
am ong
MR Ls</w>
Ag re
modi fications</w>
h us
J os
entr usted</w>
e uro
bloc ks</w>
per haps</w>
buty l</w>
AC T
om er
g el
C as
7 0
ag eing</w>
Fin ance</w>
C s</w>
gene tically</w>
M un
ro ll</w>
resid ents</w>
ep o
il e
cons ensus</w>
al t</w>
JO INT</w>
pres ents</w>
err ors</w>
en ty</w>
en tic
s low
loo ked</w>
di et</w>
al ist</w>
PRO CE
F ax</w>
I G
on to</w>
log ical</w>
Mon ten
E th
PROCE DU
vis its</w>
deal t</w>
O F
sugg ests</w>
Mon etary</w>
eri al</w>
construc ted</w>
Ar t</w>
du pl
no tic
desi red</w>
um p</w>
erad ication</w>
cell ul
ot echn
s ph
bu re
observ ation</w>
Im port</w>
Monten egr
Inf ra
v ill
phen yl
compr ise</w>
Amend ments</w>
stres sed</w>
Stud y</w>
sustain ed</w>
Con federation</w>
thresh olds</w>
em i
S et</w>
defici ency</w>
S en
L iv
3 -</w>
Al ban
exem pted</w>
aqu atic</w>
. 1</w>
s low</w>
S on</w>
C ar</w>
ti li
invo ice</w>
f ear</w>
we ak</w>
suff er</w>
w ishes</w>
f ail</w>
ad mission</w>
tis h</w>
w in</w>
st ory</w>
out comes</w>
RI P</w>
labor atories</w>
hydro chloride</w>
ens in</w>
no t
H u
Pak istan</w>
P A
Identi fication</w>
destin ations</w>
M el
herit age</w>
poll ut
o dy</w>
fil ter</w>
among st</w>
M ech
plat forms</w>
ch ick
fif th</w>
incorpor ating</w>
sign ing</w>
man if
du al</w>
acces sibility</w>
OR T</w>
In dian</w>
bo at</w>
subsi dis
mon ary</w>
for ced</w>
bro ther</w>
Ob jec
3 50</w>
econom ically</w>
wh enever</w>
res piratory</w>
absol utely</w>
en cing</w>
compl ex
experi ences</w>
S pr
Ac count</w>
tu be</w>
In dic
re verse</w>
occur ring</w>
ur s</w>
every body</w>
F oundation</w>
y eah</w>
l ay
exc ise</w>
CI P
tr y
bench mark</w>
T ax</w>
poten sion</w>
inten si
comple mentary</w>
Chris t</w>
expan sion</w>
cl ari
ti ous</w>
om ide</w>
lox acin</w>
bran ches</w>
Ma ke</w>
LI C</w>
reflec ts</w>
en tion</w>
it ment</w>
an cies</w>
valid ation</w>
perm its</w>
ST OR
qual ification</w>
new ly</w>
irregul arities</w>
sh ore</w>
ir besartan</w>
H ep
De partment</w>
Con tent</w>
p el
l un
contribu tes</w>
12 2</w>
comb in
Th ur
hyper tension</w>
ev ening</w>
trans ported</w>
c umul
Th er
und red</w>
af ter
accred itation</w>
work er</w>
m osph
el ong</w>
web sites</w>
horm one</w>
ec .europa.eu</w>
T im
wai ting</w>
6. 6</w>
coun ting</w>
D ose</w>
cro p</w>
rein force</w>
extrac tion</w>
ab ove
b id
transm it</w>
op id
b ound
Pr ice</w>
wi re</w>
og rel</w>
C iti
d ens</w>
sh ed</w>
reti rement</w>
stimul ate</w>
distor tions</w>
S un
in c</w>
house holds</w>
mo des</w>
eg g</w>
F O
disp utes</w>
O K</w>
reci proc
ra rely</w>
Pow er</w>
Con si
serv ants</w>
mort ality</w>
re rs</w>
organis ational</w>
abdom inal</w>
1 .</w>
12 6</w>
co ins</w>
Ch ang
freed oms</w>
P regn
f ellow</w>
15 7</w>
N S</w>
regim en</w>
ain t</w>
Pro vince</w>
reason ably</w>
UR E</w>
opid ogrel</w>
lis ten</w>
duc tion</w>
p H</w>
J HA</w>
L et
g ue</w>
v enture</w>
Instru ment</w>
Bud get</w>
Institu tions</w>
B S</w>
ic in</w>
foot note</w>
de partments</w>
D om
resol ve</w>
ure ly</w>
C lin
resol ved</w>
Montenegr o</w>
ther mal</w>
Compet ent</w>
l asting</w>
tax pay
B A</w>
A IN
pre t
ec o</w>
diff er</w>
Scho ol</w>
3 18</w>
as is</w>
sol ar</w>
ap hy
ho c</w>
dis continuation</w>
Dig ital</w>
n evertheless</w>
injec ted</w>
ros is</w>
consider ably</w>
OU T</w>
CONTEN TS</w>
above mentioned</w>
r an</w>
Manufac tu
versi ties</w>
R ed</w>
co ff
in solvency</w>
ef avirenz</w>
1 11</w>
requ is
Fil m</w>
pat tern</w>
dis aster</w>
pat terns</w>
k W</w>
foun ded</w>
safegu ards</w>
gr astim</w>
est ers</w>
H am
ma kers</w>
k ids</w>
h undred</w>
bo ys</w>
p. m.</w>
il ed</w>
vig il
om as</w>
ograph y</w>
is n</w>
al ise</w>
ox e
sh ift</w>
may be</w>
ty re</w>
forth with</w>
enti s</w>
cl es</w>
si t</w>
calcul ations</w>
surve ys</w>
distr ict</w>
O r</w>
K aun
35 4</w>
U CI
g ains</w>
Or der</w>
L ast</w>
suppl ement</w>
prec isely</w>
St re
Mor oc
wor se</w>
conduc ting</w>
L in
sub str
UB LIC</w>
A M</w>
haem at
gly cer
dis abled</w>
justif ication</w>
v as
om et
o dic
lev y</w>
b ol
F IN
iz z
ra p</w>
Chem ical</w>
bri dge</w>
T é
p ts</w>
ill ary</w>
cap sule</w>
tri p</w>
over come</w>
s co
S ou
No tice</w>
ref used</w>
reas ing</w>
p it
ac ad
1. 7</w>
im ages</w>
Pol y
sugg ested</w>
residu al</w>
gl and</w>
OU TER</w>
advis ory</w>
happen s</w>
ter ly</w>
A A</w>
contr ast</w>
N S
C MO</w>
pr ise</w>
cap it
bu ff
agre es</w>
audi ovisual</w>
ti mately</w>
cor tic
F E</w>
5 9
br and</w>
Cor por
C lim
ap pointing</w>
lis ting</w>
UCI TS</w>
fin ds</w>
at mosph
pen sions</w>
con form</w>
wo ol</w>
l as
activ ation</w>
ARTIC LE</w>
organis m</w>
S ource</w>
N ACE</w>
g ress</w>
neighb ouring</w>
assum ed</w>
sti c</w>
compl ement</w>
1 15</w>
priv acy</w>
un used</w>
nation ality</w>
D S
purch ased</w>
peri odic</w>
ex act</w>
vacc ines</w>
M er
y r
partic les</w>
inv al
expl icitly</w>
S em
re combin
At omic</w>
oxe tine</w>
Cer tif
w est</w>
preven tive</w>
ba g</w>
Cont act</w>
oper ates</w>
fe ature</w>
4 -</w>
stom ach</w>
big gest</w>
RES S</w>
uni verse</w>
ot ensin</w>
fu n</w>
recombin ant</w>
p acks</w>
reconstitu ted</w>
alcohol ic</w>
ag on</w>
infl ation</w>
reinfor ced</w>
investig ated</w>
1 18</w>
p ure</w>
know s</w>
soci eties</w>
u v
ou gh
s ail
qual ify</w>
suspen d</w>
it ory</w>
SUB ST
rang ing</w>
minim ise</w>
ROU TE</w>
A ver
Pregn ancy</w>
SEC TION</w>
Cre dit</w>
f air
cl ass
che ese</w>
C F</w>
consign ments</w>
N ext</w>
mo stly</w>
s om
4. 7</w>
organis e</w>
18 5</w>
tou ch</w>
or rh
aggreg ate</w>
Form er</w>
Mic ro
p ped</w>
hy persensitivity</w>
as c
Appl ic
metabol ites</w>
simpl ify</w>
20 th</w>
rec over</w>
m ation</w>
head ache</w>
mbo l</w>
emp ty</w>
G A</w>
pap er
cardi ac</w>
M aster</w>
plas tics</w>
care er</w>
am ic</w>
sub jected</w>
spe aking</w>
deriv ative</w>
bat ch</w>
specif ying</w>
pre mi
alph a</w>
counter parties</w>
t ar
ap point</w>
adj usting</w>
2. 6</w>
forec ast</w>
ev i
ol ate</w>
di ver
chan nel</w>
arri val</w>
re tained</w>
ti tude</w>
reason ed</w>
ter ial</w>
random ised</w>
peri pheral</w>
ri de</w>
confi gur
t elecommunications</w>
it ai
Sustain able</w>
Min utes</w>
e ze</w>
eli hood</w>
ag ues</w>
pret ty</w>
di esel</w>
C he
tri ed</w>
restric t</w>
cent ury</w>
S an</w>
altern ate</w>
O rig
ann ing</w>
min ing</w>
T ariff</w>
dec reasing</w>
TR AN
En ti
rem ote</w>
threat ening</w>
og le</w>
N L</w>
Su b</w>
Pol itical</w>
merg er</w>
reflec ting</w>
cat aly
i us</w>
Horiz on</w>
en ables</w>
condi tional</w>
excre ted</w>
12 1</w>
cred itors</w>
sem in
et te</w>
deteri oration</w>
ati gue</w>
a sive</w>
treat ments</w>
p ages</w>
bi om
auth entic
d or
W il
ol er
dem ands</w>
cur y</w>
syn ergies</w>
M ee
t s
2 70</w>
sup posed</w>
purch asing</w>
C am
S om
Lab our</w>
LIS T</w>
Al tern
un changed</w>
on ate</w>
Nat ural</w>
discre tion</w>
au l</w>
wal k</w>
fa ith</w>
le uk
pro lif
post al</w>
au t
M em
An ti</w>
30. 4.2004</w>
3, 5</w>
parlia mentary</w>
O ption</w>
reci pients</w>
conv in
a es
i ant</w>
electr on
dec ides</w>
condi tioning</w>
t m
sl aughter</w>
ant agon
W ar
D O</w>
AC TIVE</w>
spe ech</w>
pro ven</w>
op tical</w>
Slov ak</w>
cop per</w>
Tri bunal</w>
re views</w>
qu in
oxy gen</w>
clear ing</w>
Citi z
toler ance</w>
th yro
i di
box es</w>
Stu dies</w>
stan tly</w>
demonstr ation</w>
sen ding</w>
elec ted</w>
e br
cir cul
D ar
LI A
restrain t</w>
Schem e</w>
refuge es</w>
reli ability</w>
mot or
as m
inter face</w>
de partment</w>
recep tion</w>
mac ro</w>
dam aged</w>
dang er</w>
am ed</w>
hot el</w>
secret ariat</w>
ir rit
y ers</w>
l uc
clu b</w>
d am</w>
spl it</w>
r i</w>
prote ins</w>
ac tor</w>
Belg i
descri be</w>
RE F
constrain ts</w>
a side</w>
ten ing</w>
Meth od</w>
7 00</w>
Soci ety</w>
h at
un necessary</w>
anti bio
securiti sation</w>
fail s</w>
B ayer</w>
te aching</w>
negoti ated</w>
b is</w>
Agre ements</w>
se es</w>
P M</w>
te m</w>
pro tocol</w>
pre n
am az
nur se</w>
w a
tissu es</w>
TAR GE
vi able</w>
set tled</w>
un desirable</w>
Wee k</w>
Li ber
-------- --------
supple menting</w>
il eg
I .</w>
teach ers</w>
le agues</w>
contam ination</w>
C r
S us
ste ering</w>
complex ity</w>
ex p
yi eld</w>
rati ngs</w>
pass port</w>
Yugosla v</w>
worth iness</w>
see ks</w>
endor sed</w>
4 8
broad er</w>
Chair man</w>
ten sive</w>
hydrochlor othiazide</w>
om y
Z one</w>
e u</w>
S pi
Am ount</w>
Constitu tion</w>
in qui
co oling</w>
B e</w>
es c
az ine</w>
d airy</w>
ro lim
sol ve</w>
inser t</w>
re payment</w>
P at
ung er</w>
acknowledg ed</w>
0, 1</w>
psy ch
design ations</w>
ber ries</w>
gr ading</w>
In te
D an
lim iting</w>
de ep
asu re</w>
priv ileg
ci ally</w>
5 5
1 17</w>
Clim ate</w>
dis per
C R</w>
rolim us</w>
Appropri ations</w>
tel ephone</w>
arm ed</w>
Ad d</w>
fer tility</w>
reconstitu tion</w>
pen ia</w>
re store</w>
inter actions</w>
dis ability</w>
PAR LIA
recep tor</w>
finan ces</w>
swe et
Go ogle</w>
aim ing</w>
ul ated</w>
b id</w>
M ain
G ive</w>
Alban ia</w>
and a</w>
10. 2003</w>
po sts</w>
out lined</w>
E ar
thous ands</w>
im ag
Reg arding</w>
uni versities</w>
st a</w>
lik elihood</w>
Est ab
16. 11.2007</w>
satisfac tion</w>
hy potension</w>
hydrox ide</w>
tom atic</w>
reme dy</w>
offic ers</w>
jour ney</w>
dead lines</w>
un acceptable</w>
P V</w>
vol ati
ea red</w>
ap p
U E</w>
vis ibility</w>
pos s
gen etic</w>
dis abilities</w>
cor relation</w>
Bo dy</w>
mon otherapy</w>
et axel</w>
V en
ure a</w>
stric tly</w>
ch air</w>
fat al</w>
deli ber
mid dle</w>
1 16</w>
org ans</w>
og ues</w>
S ud
N GO
entrepreneur ship</w>
diab etic</w>
budg ets</w>
B LE</w>
p ment</w>
f er</w>
S ar
sy mbol</w>
st atic</w>
M erc
es tiv
ann ul
k itch
th r
Mil k</w>
v ice</w>
a f</w>
ME DI
ES A</w>
T P</w>
Consum er</w>
sen ior</w>
L ong</w>
T ab
iv udine</w>
U sing</w>
n ic
1, 3</w>
S a
H S</w>
b ever
S F</w>
dis asters</w>
av a</w>
k er
phys ician</w>
p referred</w>
exha usted</w>
I ra
trav elling</w>
al tered</w>
P RE
RE ACH</w>
f arms</w>
PARLIA MENT</w>
n ish</w>
c enter</w>
G I</w>
ome tric</w>
T al
20 6</w>
spir it
ody namic</w>
collec ting</w>
Competi tion</w>
p refer
com ed</w>
trac tor</w>
top ic</w>
12. 2013</w>
was n</w>
comfor t</w>
syring es</w>
ero ids</w>
pos es</w>
Electr onic</w>
li vest
n d</w>
S har
NGO s</w>
n aph
livest ock</w>
transport ation</w>
on set</w>
ic ks</w>
Latvi an</w>
evalu ations</w>
vers ely</w>
lac tic</w>
ag u
un due</w>
ro aming</w>
trans national</w>
dil ution</w>
coff ee</w>
peri odic
tim ate</w>
O pen
ign ition</w>
apart ment</w>
1. 8</w>
as ks</w>
B ut
9 9
p an</w>
ex ecutive</w>
clo thing</w>
3. 6</w>
sensi tivity</w>
suc rose</w>
kil o
SU P
15 6</w>
provision ally</w>
Fac ility</w>
glob alisation</w>
P act</w>
s our
1 13</w>
pe ac
TH AT</w>
sign als</w>
radio active</w>
un fair</w>
at er
F I
oty pe</w>
macro economic</w>
ist ure</w>
Jer us
attem pt</w>
me tic</w>
Z e
US T</w>
ne uro
deleg ations</w>
te en</w>
ten dering</w>
K al
pr a
SUP PLY</w>
P op
lead ership</w>
hy gi
ne arly</w>
sh ot</w>
Ma x</w>
war nings</w>
i j
Y or
In clu
red ness</w>
A E
pati al</w>
un lawful</w>
t ant</w>
g a
sp aces</w>
s a</w>
d res
OP INI
Cl assi
preci ous</w>
plan es</w>
environ mentally</w>
Di ff
fulfil ment</w>
di al</w>
sy mb
induc ed</w>
loc ations</w>
5 6
u ted</w>
t ree</w>
del ays</w>
itai .
e um</w>
docu mented</w>
Gre itai.
tr e</w>
angi otensin</w>
allo y</w>
tum our</w>
str ain</w>
Sor ry</w>
campai gn
sever ity</w>
ph r
3 47</w>
pum ps</w>
character ised</w>
tr uly</w>
initi ating</w>
gener ating</w>
da e</w>
Not es</w>
pres sed</w>
kin ds</w>
continu ously</w>
Val ue</w>
Un less</w>
Ir besartan</w>
ro ot</w>
dis closed</w>
brea ks</w>
en ic</w>
separ ated</w>
Infra structure</w>
ut sch
S G</w>
M L</w>
FIC ATION</w>
receiv es</w>
f ell</w>
trad ers</w>
inf ants</w>
D ING</w>
i tive</w>
1 19</w>
pur ity</w>
our selves</w>
h ath</w>
no w
ch urch</w>
tion ality</w>
ap art</w>
Jud g
BA T</w>
S Y
re es</w>
ou d</w>
n ic</w>
liber alisation</w>
ill ness</w>
hand le</w>
pe t</w>
confir mation</w>
pul monary</w>
yl ate</w>
cellul ose</w>
D ub
diagn osis</w>
V ari
dec l
Gen er
grow n</w>
des er
tribu tion</w>
p ush</w>
Com ments</w>
op a</w>
ammon ium</w>
Comm ander</w>
reser ved</w>
ap ters</w>
ch illed</w>
6. 5</w>
tot ally</w>
reduc es</w>
ma d</w>
recommen d</w>
Thur s
D er
prospec ts</w>
signific ance</w>
see ing</w>
Fir stly</w>
qu e
par ti
vigil ance</w>
b ate</w>
op en
isol ated</w>
soci o</w>
qual it
or an
excep tions</w>
me ant</w>
fr ame
Imp act</w>
col leagues</w>
B P</w>
progres sion</w>
lac tose</w>
ju ice</w>
ov ascular</w>
feeding stuffs</w>
T our
har d
Syst ems</w>
public ations</w>
ch est</w>
Mo ham
pro ved</w>
Par k</w>
gu ests</w>
ris ing</w>
pro sper
AS S
pl y</w>
as sume</w>
ren e</w>
por tion</w>
5 4
5 000</w>
Summ ary</w>
cou ple</w>
distin ction</w>
H o
diagnos tic</w>
C e
sulph on
cre ative</w>
ak es</w>
IN STRU
K l
loc ks</w>
2 a</w>
V .</w>
ner v
P OL
in adequate</w>
seg ment</w>
fil ament</w>
defici encies</w>
dec om
Bri tish</w>
control ler</w>
c ited</w>
ax le</w>
it ely</w>
en de
1 a</w>
sci enti
H igh
Aver age</w>
n al
epo etin</w>
Direc t</w>
lo aded</w>
hy th
w illing</w>
re productive</w>
pr acti
em y</w>
Sev eral</w>
pl ant
attribu ted</w>
seas onal</w>
m on</w>
effici ently</w>
6. 4</w>
analy se</w>
12 8</w>
f aster</w>
Loc al</w>
Effec ts</w>
17 84</w>
am i
t os
remov ing</w>
on ally</w>
Qu ality</w>
D ru
O il</w>
w er</w>
Bar ro
low ering</w>
broad casting</w>
Pol ice</w>
d ust</w>
N et</w>
be ings</w>
Lib ya</w>
inten d</w>
t ons</w>
Thurs day</w>
St abil
p ping</w>
br ings</w>
te ams</w>
poly m
je op
an ia</w>
L ac
trans formation</w>
par king</w>
inv ite</w>
Equi pment</w>
s ake</w>
rec alled</w>
moun ted</w>
inter ference</w>
B U
presid ency</w>
sel ler</w>
progres sive</w>
Nov o
form ulation</w>
fit tings</w>
ED F</w>
substan ti
rel ess</w>
p in
ori ented</w>
m align
L L
K O
ren der</w>
prom ised</w>
g al
os ing</w>
12 7</w>
coord inating</w>
sh el
sti m
st ones</w>
Le ader</w>
AS A</w>
con azole</w>
w an</w>
T RI
avo iding</w>
summ it</w>
L atin</w>
ce iv
OPINI ON</w>
wel comed</w>
17 1</w>
k in</w>
grap es</w>
F requ
Mex ico</w>
continu ity</w>
be d
F uck</w>
licen sing</w>
Lot to</w>
E V
foc using</w>
fi re
power ful</w>
h ence</w>
p a</w>
hibi tions</w>
C ur
prom ot
pro sec
Indon esia</w>
w are
exam ining</w>
W ill</w>
sur plus</w>
N ature</w>
sol ved</w>
R A</w>
dr inking</w>
S he
sh r
elec tion</w>
r aid</w>
hel ped</w>
S W
ick el</w>
as th
met res</w>
hon ey</w>
en tail</w>
al em</w>
jo ined</w>
PV C</w>
L AB
sk a</w>
S cot
sty le</w>
c s</w>
bul k</w>
S how</w>
re vo
phot os</w>
sc ore</w>
isl and</w>
propos ing</w>
ang er</w>
c us
b its</w>
Pro ce
H E
real istic</w>
sub heading</w>
12 4</w>
re n</w>
14 7</w>
volunte ers</w>
AD D
18 31</w>
o fo
pos session</w>
co ast</w>
P ost</w>
whe els</w>
n am</w>
l es
M ATE
K ey</w>
un related</w>
f um
ess ed</w>
Jerus alem</w>
decl are</w>
qu ick</w>
acc umulation</w>
5 75</w>
ul i
2 30</w>
o tic</w>
cri tic
Moroc co</w>
wh ich
subm itting</w>
ende av
conc iliation</w>
P eri
po etin</w>
co di
T AL</w>
pip es</w>
lead er</w>
ro t
deduc tion</w>
Mex ican</w>
Comm it
1, 4</w>
SI BLE</w>
N avigation</w>
D ri
termin ated</w>
STATE MENT</w>
L ow</w>
F lu
t ank</w>
J EC
trac tors</w>
fre ely</w>
cam era</w>
H ot
Air port</w>
obvi ous</w>
n ations</w>
com ings</w>
appro ving</w>
ul timately</w>
smo king</w>
Tur k
S ER
M ot
prop ylene</w>
Ti er</w>
independ ently</w>
es tions</w>
ec ological</w>
chair man</w>
stres ses</w>
ly mp
anis m</w>
et tlement</w>
fru its</w>
2 18</w>
suffici ency</w>
ne e</w>
elim inated</w>
Simil arly</w>
we ather</w>
H on
C rim
stri p</w>
er ly</w>
2 .</w>
relig ion</w>
di ox
ra m</w>
ca emic</w>
explan ation</w>
ati s</w>
techni que</w>
num b
g au
D oes</w>
13 5</w>
oran dum</w>
mort g
introduc tory</w>
b a</w>
star ts</w>
is tering</w>
fre eze</w>
bio fuels</w>
ne ys</w>
nat ur
R ot
optim al</w>
con fusion</w>
bre l</w>
M C</w>
view ing</w>
prom oted</w>
adv oc
W izz
pat ent</w>
ari ffs</w>
P D</w>
A mon
premi ums</w>
deg rees</w>
cap ability</w>
tap e</w>
sle ep
answ ers</w>
anc illary</w>
prof loxacin</w>
ch er</w>
PROCEDU RE</w>
En brel</w>
tw el
r ation
ro ots</w>
Bet ter</w>
mis s</w>
f atigue</w>
lin ear</w>
ni b</w>
belong s</w>
g ol
cal ibr
Bl ue</w>
r ich
Tu esday</w>
be st
min ority</w>
Pr ime</w>
00 2</w>
fo reg
con secu
Ex per
De utsch
e ti
ur inary</w>
o ate</w>
biom ass</w>
citiz enship</w>
M M</w>
ter most</w>
ten d</w>
tri g
recru itment</w>
St ar
Mal ay
3. 2.
enh agen</w>
bel ong</w>
HA VE</w>
z er</w>
retur ns</w>
con stantly</w>
14 5</w>
scre ening</w>
Fr on
Ass istance</w>
prop yl</w>
de als</w>
unanim ously</w>
distor t</w>
S F
lit azone</w>
happen ing</w>
g rid</w>
No thing</w>
stain less</w>
af raid</w>
S K</w>
20 7</w>
Tunis ia</w>
B V</w>
Sci ence</w>
AR D</w>
supervis ed</w>
ess ing</w>
civil ian</w>
x i
erythropoi etin</w>
preven ted</w>
o grap
Yor k</w>
preser ve</w>
bel t</w>
IC AO</w>
Clin ical</w>
g ent</w>
X III</w>
P lat
mer cury</w>
pi g</w>
cap abilities</w>
fulfil s</w>
t ancy</w>
D am
2 20</w>
Cha ir</w>
Stabil isation</w>
cre ates</w>
campaign s</w>
ME AS
dem ographic</w>
Spec ies</w>
sor t</w>
depend ence</w>
deb tor</w>
am matory</w>
Def ence</w>
rec over
num er
conc essions</w>
ati nib</w>
Cop enhagen</w>
ca st
bur dens</w>
adm itted</w>
prop ag
appropri ately</w>
14 2</w>
them atic</w>
fac tory</w>
distil lation</w>
Mark ets</w>
C C</w>
short comings</w>
clari fied</w>
PO L</w>
pre sum
P hy
5 10</w>
ir regular</w>
H old</w>
AP PRO
sol uble</w>
X I</w>
mo isture</w>
mil lions</w>
in take</w>
X II</w>
k id</w>
desi re</w>
at e
Kaun as</w>
g ri
Fr ank
CL AS
qual ifying</w>
grad u
au c
R ob
per missible</w>
16 9</w>
re production</w>
inform al</w>
ast e</w>
an tic
Up on</w>
M is
tre ating</w>
R iv
li fe
de tri
Econ om
ro ads</w>
L ife</w>
interven tions</w>
acqui re</w>
SUBST ANCE</w>
Com ple
B asic</w>
14 9</w>
haem orrh
S pe
im pe
az ol
typ ically</w>
pi pe</w>
constitu ents</w>
S el
Par tic
retro viral</w>
W OR
Tran si
In struc
ome th
ic ed</w>
w oven</w>
Pre vi
ro ad
s in</w>
pre me</w>
invent ory</w>
ili ary</w>
distor tion</w>
Summ it</w>
Ad verse</w>
princi p
9 00</w>
7 50</w>
MAN UF
rou gh
Ber lin</w>
neutro penia</w>
for um</w>
b ance</w>
Re sul
or a</w>
dial ysis</w>
Euro just</w>
s cr
modern isation</w>
ex tra
An y
v ity</w>
serv ing</w>
ch ron
O PER
MANUF ACT
B ab
long it
op posed</w>
b ars</w>
al ising</w>
................................ ................................
mono hydrate</w>
control ling</w>
Rem ove</w>
ton ight</w>
it y
my el
h ed
z e
s a
decis ive</w>
recogn ises</w>
ab or
y lic</w>
tin ib</w>
requis ite</w>
N EC
C ases</w>
0, 000</w>
17 0</w>
pre ad</w>
st eri
p eg
dr inks</w>
D EN
pres sive</w>
lif elong</w>
Re pe
paper board</w>
l ung</w>
in h
constitu ted</w>
16 8</w>
N a
1 st</w>
ogen icity</w>
extre me</w>
deduc ted</w>
enti tlements</w>
com partment</w>
Estab lish
ru it</w>
mem ory</w>
g as
Tai wan</w>
M an</w>
so far</w>
e ability</w>
bo ards</w>
secre t</w>
over view</w>
conven i
S OL
Nu clear</w>
IN TER
administr ator</w>
R os
13 08</w>
cred its</w>
ce ase</w>
compl iant</w>
assum ptions</w>
barri er</w>
intermedi aries</w>
y early</w>
judg ments</w>
coun ted</w>
relation ships</w>
compar ative</w>
1 -</w>
Supervis ory</w>
ó n</w>
2 16</w>
prof itable</w>
o .
metabol ite</w>
cop y
ag er</w>
In spec
proce ed</w>
lab els</w>
dis count</w>
consisten tly</w>
atis ation</w>
ocy top
f in</w>
conver ted</w>
19 88</w>
repe at</w>
n ation</w>
gro und
Pl ayer</w>
high light</w>
3 96</w>
counter fe
up dating</w>
toc ols</w>
D V
trail ers</w>
broad ca
aud itors</w>
L am
Con nec
y oun
t anks</w>
im migrants</w>
Char acter
dar k</w>
S H</w>
pres enting</w>
di pine</w>
sovere ign
interpre ted</w>
atten d</w>
N AT
migr ant</w>
int oler
conc ession</w>
substitu tion</w>
st ering</w>
inter nationally</w>
Fri day</w>
se al</w>
D ad</w>
pre clu
c ats</w>
Fin nish</w>
su n</w>
MATE RI
il ings</w>
fe wer</w>
sulph ur</w>
respec ting</w>
circu it</w>
PACKAG E</w>
m ur
c .</w>
hygi ene</w>
al ing</w>
An ti
compet e</w>
O s</w>
phosph or
L ic
freez ing</w>
Institu tion</w>
v ine</w>
tox ic
propor tional</w>
F P
spen d</w>
respec ts</w>
person ality</w>
asm us</w>
st ating</w>
s ons</w>
olog ically</w>
f ar
w ouldn</w>
C V
conven tions</w>
6 8
frame works</w>
B rit
ev il</w>
ati n
f ats</w>
be at</w>
Is su
T RE
cortic ost
p m</w>
H U</w>
try meat</w>
si l</w>
typ ical</w>
infl ammatory</w>
RE QU
Im port
wor ry</w>
Est onian</w>
Gre en
d aughter</w>
b ought</w>
N atur
ti um</w>
raz y</w>
b ags</w>
Fish ing</w>
Chang es</w>
9 99</w>
S EC</w>
ES F</w>
grap e</w>
Re al</w>
prec ed
it alisation</w>
ME S</w>
den afil</w>
al ter</w>
T RO
4. 9</w>
sub system</w>
cros sing</w>
z y
W o
3 43</w>
u d</w>
consecu tive</w>
at or
ac ity</w>
C all</w>
l us
tr ap
r al</w>
la h</w>
dys function</w>
reg isters</w>
re vol
Democr atic</w>
cel ebr
EP A</w>
valid ated</w>
car ded</w>
train ed</w>
m es
av entis</w>
T ax
P il
odi ties</w>
Ad v
e astern</w>
d .
eth anol</w>
eng agement</w>
in ity</w>
C RI
tre es</w>
sy m
pharmac eutical</w>
los ing</w>
am us
Tr av
pr ison</w>
k o</w>
14 8</w>
ti gh
less ons</w>
h em
L Y</w>
Inf o</w>
ic tion</w>
Er asmus</w>
ilit ary</w>
wor sen
san ofi</w>
id osis</w>
d ine</w>
S O</w>
Off ic
cho ices</w>
ab norm
u ph
ne ts</w>
enti tlement</w>
del ayed</w>
g astrointestinal</w>
direc tor</w>
autonom ous</w>
nec k</w>
sev enth</w>
el ed</w>
ath ered</w>
aci fic</w>
T om
Pr ac
need les</w>
ent an
F inal</w>
adap ting</w>
T 1</w>
P re</w>
CI AL</w>
12 60</w>
mo tiv
cep hal
un common</w>
cumul ative</w>
au ction</w>
POS AL</w>
techn ically</w>
row s</w>
cultiv ation</w>
par k</w>
lig ent</w>
Strateg ic</w>
off set</w>
r he
Ne ighb
L a</w>
Coun c
suscep tible</w>
reg re
an th
Cer tain</w>
tu ber
Li et
AI F
L ist
w et</w>
p urely</w>
5 28</w>
m ar</w>
hyper tensive</w>
M ov
Pro visions</w>
Aust rian</w>
S cope</w>
Hel p</w>
g aps</w>
I ES</w>
Al ways</w>
Defin itions</w>
inhib ition</w>
farm er</w>
r d</w>
ori entation</w>
ou termost</w>
co ating</w>
al in</w>
quar terly</w>
expen sive</w>
di visions</w>
Un til</w>
P acific</w>
pri or
ann ed</w>
nam ed</w>
under going</w>
seiz ures</w>
p ical</w>
defin itely</w>
Balk ans</w>
exhib ition</w>
R equ
C U
congrat ulate</w>
L ast
Ban king</w>
vari ation</w>
sh ock</w>
princip ally</w>
de ploy
con train
F IR
statis tically</w>
x y
silic on</w>
se af
episo des</w>
1, 2</w>
tm as</w>
s z
expl ains</w>
ta ste</w>
sk illed</w>
ce ilings</w>
ban ces</w>
Mo del</w>
Ma j
negoti ating</w>
inter ru
in ner</w>
bo ats</w>
u red</w>
off ence</w>
grad ual</w>
HC V</w>
17 6</w>
Ex am
Amon g</w>
18 7</w>
reg istry</w>
p up
distur bance</w>
R ome</w>
L angu
Ky oto</w>
J ord
ox id
detec t</w>
a rest</w>
ici ans</w>
s patial</w>
port able</w>
o pro
necess ity</w>
parlia ments</w>
log ic</w>
inter f
K E</w>
convin ced</w>
32 23</w>
pot atoes</w>
op i
r ay</w>
ill a</w>
dam n</w>
altern atives</w>
On line</w>
chol ester
pres su
is tence</w>
Sy ria</w>
og litazone</w>
en n
M Hz</w>
bro m
and is</w>
k al
in puts</w>
anti body</w>
pro files</w>
mar row</w>
configur ation</w>
b ourg</w>
L ot</w>
z ed</w>
Inte rest</w>
B at
stro ke</w>
stre et</w>
is ting</w>
ast atin</w>
19 75</w>
tack ling</w>
great ly</w>
eth nic</w>
Coun tries</w>
thro mbo
kitch en</w>
en vel
di gn
4 5
str ing
8 7
re dem
are r</w>
Ac tions</w>
o ing</w>
exerc ising</w>
concep ts</w>
I O
I EN
ha ven</w>
M ove</w>
z inc</w>
swe et</w>
et us</w>
Con struction</w>
distur bances</w>
Jap anese</w>
to ys</w>
integr ate</w>
effec ted</w>
Chris tmas</w>
0. 1</w>
mean ing
S M
sum s</w>
gu ess</w>
expi re</w>
y ard</w>
fal se</w>
T ex
15 2</w>
ful filling</w>
17 5</w>
objec tion</w>
evalu ating</w>
min isters</w>
Ther ap
Sk in</w>
warran ty</w>
Sub cutaneous</w>
run s</w>
crim es</w>
US D</w>
Wizz air</w>
tim etable</w>
modi fy</w>
Judg ment</w>
5. 4</w>
sovere ign</w>
op hen
cardi ovascular</w>
W i
D I</w>
poly ethylene</w>
c able</w>
ver i
ven ue</w>
in ea</w>
anti retroviral</w>
W ind
Po st
Di vision</w>
d ul
author ization</w>
accoun ted</w>
B G</w>
N 1</w>
Hy per
E P</w>
rob ust</w>
por ary</w>
hybri d</w>
frequ encies</w>
ad missible</w>
Stre et</w>
14 3</w>
hor se</w>
a ks</w>
ES CB</w>
prud ential</w>
Mid dle</w>
REP UBLIC</w>
bever ages</w>
air space</w>
N one</w>
Ren al</w>
form alities</w>
Roman ian</w>
Al l
w arm
ot a</w>
N orm
L B</w>
rati fication</w>
p ick</w>
nov el</w>
Ch ild</w>
th es</w>
fr action</w>
conf erences</w>
us age</w>
o v</w>
on e
lo dipine</w>
en .
w il
ut ers</w>
Vi et
w ill
fi ers</w>
List en</w>
y ours</w>
L ad
v ap
colour less</w>
A 00
reat h</w>
deliver ing</w>
acc ru
re strial</w>
natur ally</w>
Curren t</w>
surroun ding</w>
supple ments</w>
sul f
sh ad
Reg ister</w>
G as</w>
ch amber</w>
I M</w>
im balances</w>
connec t</w>
I E</w>
sud den</w>
red und
ab and
f ly</w>
em o
Har mon
m ell
al and</w>
fi ting</w>
curren cies</w>
26 58</w>
it ching</w>
car box
bal ancing</w>
at ers</w>
ar ks</w>
Integr ated</w>
negoti ation</w>
induc tion</w>
gl ing</w>
aes the
L and
I U
t ness</w>
Intr on
3 a</w>
lab elled</w>
gr ain</w>
Wh ich</w>
pos iti
odi um</w>
ap peti
al ive</w>
Str as
Concer ning</w>
Ar ch
5 40</w>
19 80</w>
lev erage</w>
Author ities</w>
MATERI ALS</w>
pill ar</w>
el etal</w>
demonstr ating</w>
ST E</w>
enab led</w>
weak ness</w>
12 55</w>
tro uble</w>
c tu
denom inated</w>
co w</w>
co ol</w>
An im
trail er</w>
pers istent</w>
jeop ardis
Intron A</w>
16 5</w>
share holder</w>
M ilitary</w>
P I</w>
ve in</w>
compr ises</w>
v enti
organiz ations</w>
B C</w>
vacc inated</w>
particul ate</w>
in correct</w>
commod ity</w>
advant aged</w>
14 1</w>
Ter ms</w>
In dividu
D A
0. 3</w>
lac t
es pread</w>
X X</w>
co a</w>
fe els</w>
dis proportionate</w>
Stras bourg</w>
P REC
Ira q</w>
iz ing</w>
nerv ous</w>
destro yed</w>
cere al</w>
tim ing</w>
stimul ating</w>
platel et</w>
bri ef
regim es</w>
se aled</w>
phenomen on</w>
dis close</w>
equival ence</w>
en ta
L ear
G U
magne sium</w>
ack ed</w>
Ex peri
vail able</w>
standardis ed</w>
reve al</w>
op ping</w>
li br
Oper ational</w>
M en</w>
mut atis</w>
exam inations</w>
ut ation</w>
mut andis</w>
ali as</w>
Com b</w>
supple mented</w>
Appe al</w>
er as</w>
draf ting</w>
6 4
of the</w>
K in
sy l
re tail
sk y</w>
ha m</w>
Streng th</w>
vi vo</w>
neg ligible</w>
Com par
13 2</w>
sulph ate</w>
domin ant</w>
M T</w>
Reg istration</w>
I tem</w>
Com b
slow ly</w>
periodic ally</w>
T H</w>
Chi ef</w>
2 34</w>
sh oul
issu ance</w>
Mech anism</w>
p hi
os s</w>
spirit ual</w>
l t.</w>
fore sts</w>
dre w</w>
bu yer</w>
Pe g</w>
expi red</w>
vin yl</w>
twel ve</w>
viol ations</w>
L igh
opa thy</w>
Initi ative</w>
o vigilance</w>
f ast
top ics</w>
d ance</w>
sub cut
impl ies</w>
intermedi ary</w>
LE T</w>
fat ty</w>
1 19
s and
produc es</w>
adv ances</w>
C ere
sum an</w>
re min
B lood</w>
te l</w>
os up
in sofar</w>
Ar g
i er</w>
reci pes</w>
purch ases</w>
In suman</w>
viol ation</w>
me als</w>
ti de</w>
subcut aneously</w>
pen s</w>
fam ili
answ ered</w>
tu m</w>
Pro gress</w>
G az
EG F</w>
Ph ot
si le</w>
s car
la d</w>
Co ordination</w>
For ce</w>
op ath
b reath</w>
IL D
C AT</w>
s ly</w>
ill icit</w>
fin alised</w>
AI D</w>
25 1</w>
ten ed</w>
Fin d</w>
saf ely</w>
i ghts</w>
cred itor</w>
ag ic</w>
wid espread</w>
der mal</w>
u x</w>
pl ug
b and
isl ands</w>
F EC
edi ble</w>
det ention</w>
R C</w>
ph y</w>
min us</w>
WA STE</w>
En gland</w>
ame th
surg ical</w>
smo ke</w>
T or
B est</w>
lap se</w>
Ph ase</w>
treat y</w>
ish ment</w>
dra ul
achiev ements</w>
trad ed</w>
I RE
PREC AU
G S</w>
inf o</w>
bene fiting</w>
L eb
fos sil</w>
Greitai. lt.</w>
th esis</w>
con dem
NO T</w>
recurren ce</w>
13 3</w>
cru de</w>
P en</w>
Chris tian</w>
1 31</w>
om er</w>
lit res</w>
g ar</w>
ew ise</w>
au x
30 4</w>
16 2</w>
invest ed</w>
2, 4</w>
2 80</w>
P ut</w>
in sufficiency</w>
anticip ated</w>
origin ally</w>
cl a
STOR AGE</w>
L U
5 a</w>
6 6
thor ough</w>
re act</w>
gener ations</w>
M UST</w>
Malay sia</w>
ADD RESS</w>
transi ent</w>
sovereign ty</w>
en a</w>
Gal ile
d ents</w>
ord ered</w>
Rap id</w>
17 82</w>
B ir
qualit ative</w>
lac tation</w>
NEC ESS
C ot
ann i
pro pri
estiv al</w>
corpor ations</w>
G lax
ong side</w>
NECESS ARY</w>
Ab out</w>
12 9</w>
there for</w>
confir ms</w>
in k
For m</w>
rest aur
clar ification</w>
al er
Jord an</w>
n.e. c</w>
ar rest</w>
absor bed</w>
20 2</w>
prolif eration</w>
pris on
hydro us</w>
ha ir
16 4</w>
redem ption</w>
poul trymeat</w>
ip s</w>
Neighb ourhood</w>
3 3
perman ently</w>
ef in</w>
bro w
Sol id
foot wear</w>
PRECAU TIONS</w>
E AG
Appl ications</w>
t ling</w>
W h</w>
RE N</w>
cul osis</w>
EU R
. 2</w>
dis c</w>
sou l</w>
j i</w>
execu ted</w>
dom ain</w>
ang a</w>
P et
Barro so</w>
pestic ides</w>
an aphy
up dates</w>
obvi ously</w>
Nov ar
30 2</w>
qu an
met al
ai ds</w>
scenari os</w>
lo ves</w>
im porting</w>
Sud an</w>
no ti
guarante eing</w>
Virafer on
t es
C ard</w>
t ariffs</w>
preserv ation</w>
coupl ing</w>
vari ations</w>
bur ning</w>
Open ing</w>
land s
commer ce</w>
com pe
we alth</w>
ograph ical</w>
Fu el</w>
fron tier</w>
firm ly</w>
T ow
Statis tical</w>
Exc ept</w>
A 2</w>
p ace</w>
embry os</w>
ph ases</w>
Mee ting</w>
18 4</w>
20 30</w>
w ave</w>
tendere r</w>
es tive</w>
at ro
S of
comm odities</w>
b al</w>
audi o</w>
as one</w>
Th rough</w>
R T</w>
fab ric</w>
under mine</w>
re alised</w>
port al</w>
un ions</w>
gener ic</w>
est ation</w>
stre am
flow ers</w>
Viraferon Peg</w>
E f
C enter</w>
Oper ation</w>
DIS POSAL</w>
A O
prosper ity</w>
par c
an ium</w>
pe o
h an
Un fortunately</w>
R ail
SC R</w>
advis e</w>
L an
bot tles</w>
Col lec
em atic</w>
E valuation</w>
un employed</w>
s atur
fail ing</w>
are t
He ad
wi reless</w>
Pay ment</w>
Pl us</w>
Classi fication</w>
C ould</w>
15 80</w>
Ukra in
Col lege</w>
sk im
re medi
E TS</w>
il ly</w>
Last ly</w>
C TIONS</w>
20. 12.2013</w>
fores ee
em plo
deploy ed</w>
ATE D</w>
N O</w>
D im
ycl es</w>
mov able</w>
di ure
de preci
bo iling</w>
dis advantaged</w>
c razy</w>
Qu anti
charac ters</w>
be ans</w>
es hi
ling u
dy nam
SU CH</w>
i v</w>
fe asi
Novar tis</w>
um e</w>
, 5</w>
vis as</w>
cla uses</w>
Galile o</w>
U p</w>
ER DF</w>
res sive</w>
T ON</w>
Im ports</w>
pursu it</w>
discipl ine</w>
gam bling</w>
align ment</w>
coo ked</w>
identi fier</w>
em ea
circu its</w>
arg e</w>
B B</w>
Ad voc
PO SI
1. 0</w>
C ross</w>
AP PROV
2 11</w>
um ns</w>
bacter ial</w>
D eb
1. 9</w>
tim ber</w>
gl omer
forec asts</w>
cris es</w>
Ste el</w>
hol iday</w>
ber g</w>
Dec ree</w>
B ot
trad em
under gone</w>
pollut ants</w>
got ten</w>
egrad ation</w>
u ous</w>
ew s</w>
Intr on</w>
CO R
cap rine</w>
Indu stri
pic tures</w>
form ally</w>
fa x</w>
bure au
s is</w>
P ap
worsen ing</w>
string ent</w>
om eter</w>
f ound
0 8
S aint</w>
IM I</w>
3 70</w>
prof ession</w>
compens ate</w>
E AF
war r
pre mature</w>
p references</w>
W ord
Lot teries</w>
le g</w>
al i</w>
incid ents</w>
Program mes</w>
an es
16 1</w>
mar ried</w>
forth coming</w>
D istr
defin es</w>
war m</w>
emphas ise</w>
F I</w>
fin es</w>
demonstr ates</w>
bo il
09. 4
thre ad</w>
p ar</w>
down stream</w>
chem ically</w>
decre ases</w>
rang es</w>
in complete</w>
K i
14 4</w>
od en</w>
Solid arity</w>
s ickness</w>
rever sible</w>
circ le</w>
Vehic le</w>
Trans fer</w>
Th ir
7. 1</w>
tw enty</w>
comm it</w>
F am
CLAS SI
6 7
reserv ation</w>
nar row</w>
al ter
affor d
Gr ade</w>
E d
Ac ting</w>
serv er</w>
R ol
si xth</w>
co cc
UN USED</w>
S OR
objec tions</w>
EAF RD</w>
Con ver
clean er</w>
set tings</w>
ingredi ent</w>
2. 7</w>
y al</w>
uni versity</w>
ox ides</w>
atten ing</w>
Previ ous</w>
IM UM</w>
compl icated</w>
EN TR
fe a
experi encing</w>
e k
Tour ism</w>
te dly</w>
method ologies</w>
gly caemia</w>
dec ades</w>
T T</w>
re ject</w>
19 86</w>
dec entr
Com pan
wind ows</w>
tur ning</w>
Al uminium</w>
d ental</w>
AS T</w>
5. 5</w>
em et
F ull</w>
ceiv ed</w>
bas es</w>
Per man
Cau tion</w>
Ac tive</w>
sil ver</w>
li ved</w>
K u
3 37</w>
on om
log istics</w>
fo il</w>
Pos sible</w>
sen ten
feasi bility</w>
ep il
con vention</w>
30. 6.
pul sion</w>
N ation
entrepreneur s</w>
pre val
fea sible</w>
Sou thern</w>
Ex penditure</w>
te x</w>
aggreg ated</w>
Re form</w>
Commun ications</w>
peac eful</w>
albu min</w>
N es
Leg isl
expres sly</w>
c a</w>
architec ture</w>
P F
psy cho
al ized</w>
remain der</w>
an hydrous</w>
As k</w>
m esh</w>
don ors</w>
st ake</w>
a ths</w>
mar ri
3. 7</w>
blis ters</w>
b les</w>
B anks</w>
incorpor ation</w>
P G</w>
C NS</w>
promp tly</w>
mo re
in habit
di verse</w>
L y
fo stering</w>
the ore
F eed</w>
2 nd</w>
inves ting</w>
entan yl</w>
ash ion</w>
HO W</w>
APPRO PRI
c en
16 7</w>
steri le</w>
read ily</w>
hydr o</w>
gr ation</w>
de pri
appro vals</w>
tang ible</w>
inter connection</w>
extra ordinary</w>
Priv ate</w>
Peg Intron</w>
encour ages</w>
Spr ing</w>
r us</w>
ord inated</w>
excell ence</w>
epil ep
bloc king</w>
Stand ards</w>
IS A</w>
w ages</w>
v ast</w>
reg istr
mol lus
metabol ised</w>
In stead</w>
w est
urg es</w>
deb ts</w>
cos metic</w>
ox ib</w>
autom ated</w>
TE X
sor i
ma z
bat tery</w>
substan tive</w>
col oured</w>
jud ge</w>
ici de</w>
g athered</w>
consum ed</w>
17 7</w>
work force</w>
up take</w>
e tr
be et</w>
W aste</w>
shor ter</w>
pl unger</w>
lear ned</w>
bo dy
16 6</w>
rup t
re voc
min orities</w>
li th
co operative</w>
T arg
Re ally</w>
20 4</w>
19 5</w>
C ON</w>
sh ell</w>
TO TAL</w>
CH ILD
tri gg
U l
trig ger</w>
hydrox y</w>
trad er</w>
distinc t</w>
TAB LE</w>
P a</w>
ti tu
li ance</w>
compl ications</w>
win ter</w>
rec ap
occa sions</w>
carri es</w>
b und
porte urs</w>
is terial</w>
geograph ic</w>
CHILD REN</w>
respon ding</w>
pro pan
all ine</w>
cr y
vit amin</w>
e ans</w>
In tro
Fre ed
p d
R F
μ m</w>
my cin</w>
l um
P O</w>
allo ys</w>
rim p</w>
WH AT</w>
Sta r</w>
AI L
ci g
b ond</w>
C Y
dis played</w>
7. 2</w>
is ure</w>
flu ctu
er o</w>
comfor table</w>
Pan el</w>
ex changed</w>
Ref erences</w>
Inde x</w>
115 1</w>
INSTRU CTIONS</w>
19 85</w>
ver te
T I</w>
Proce dures</w>
I l
D on
am lodipine</w>
Objec tive</w>
MEAS U
reg en
our se</w>
hu h</w>
distribu tors</w>
R A
wash ing</w>
ul in</w>
dil uted</w>
RE V
17 4</w>
th a</w>
hor ses</w>
copy right</w>
N ice</w>
Appl ause</w>
n m</w>
Pri or</w>
A men
ph thal
k as</w>
isol ation</w>
exac er
ere s</w>
at tract</w>
Rel ations</w>
L ight</w>
IM P
Dub lin</w>
Distr ict</w>
0. 9</w>
min ation</w>
elev ated</w>
Go ods</w>
trac eability</w>
direc tors</w>
ar a</w>
accoun tability</w>
M G</w>
o ste
leg s</w>
high lights</w>
deteri or
under cutting</w>
epid emi
Ar ab</w>
fa ult</w>
correc tions</w>
E ffici
ofo vir</w>
expen se</w>
cat tle</w>
al tar</w>
X VI</w>
S hel
C la
C ari
prior iti
oc ks</w>
equi dae</w>
cor rid
auth or</w>
Brit ain</w>
stud ent</w>
Ze aland</w>
ograph s</w>
abnorm alities</w>
pan cre
ol ence</w>
foresee able</w>
bio availability</w>
an as</w>
a. m.</w>
New s</w>
execu ting</w>
a g</w>
ear ing</w>
coo king</w>
contr ad
SI GHT</w>
ul timate</w>
sho ot</w>
RE LE
slaugh ter
SER V
PL IC
multipl ied</w>
P .
Ear th</w>
P ath</w>
stic k</w>
cylin der</w>
O thers</w>
observ er</w>
inh erent</w>
bri ef</w>
appeti te</w>
al arm</w>
20 3</w>
arbitr ation</w>
particip ated</w>
diversi fication</w>
wast es</w>
le th
j ack
In st
oun ded</w>
os es</w>
sc rap</w>
hur t</w>
rou tine</w>
In ves
o tive</w>
dam ages</w>
cholester ol</w>
13 7</w>
draul ic</w>
cor n</w>
A k
per id
miti gate</w>
in struction</w>
fil grastim</w>
emphas ised</w>
Lab oratory</w>
H al
sh ut</w>
p acking</w>
net working</w>
er ated</w>
wor st</w>
val ve</w>
dis pat
Sm ith
L og
swit ching</w>
investig ate</w>
in avir</w>
fish er
f itting</w>
bacter ia</w>
Op ti
F ar
under lined</w>
under ing</w>
lam ivudine</w>
dipl omatic</w>
comb inations</w>
Commer cial</w>
Adjust ment</w>
Cl u
pe er</w>
metabol ic</w>
K az
Fol low</w>
expl icit</w>
ell ers</w>
ac idosis</w>
AL T</w>
tuber culosis</w>
rol ls</w>
cancell ation</w>
Offic er</w>
C .
umin ous</w>
thyro id</w>
he sive</w>
foc uses</w>
weak nesses</w>
ent ers</w>
ap ping</w>
which ever</w>
incid ent</w>
don or</w>
Ma ur
LE AF
or o
n an
adequ acy</w>
yst ems</w>
leg ality</w>
cl ick</w>
PE N
l ity</w>
H ence</w>
EF FEC
Arg enti
d op
air line</w>
P age</w>
A v
ver sions</w>
op t</w>
back ed</w>
W I
where ver</w>
mol ec
fur t</w>
d ad</w>
co d</w>
al og</w>
Turk ish</w>
Hy persensitivity</w>
ous es</w>
n ickel</w>
expl ore</w>
Nes po</w>
atmosph ere</w>
ach ment</w>
Em ploy
Perman ent</w>
grav ity</w>
au tical</w>
LEAF LET</w>
col umns</w>
bench marks</w>
datab ases</w>
E .
D ou
gly col</w>
exp and</w>
cy clo
Ukrain ian</w>
d in</w>
meaning ful</w>
c ouldn</w>
acad emic</w>
ti e</w>
system atically</w>
mat ching</w>
c tic</w>
ad o</w>
O lymp
DER IV
Selec t</w>
disper sible</w>
sou thern</w>
v ascular</w>
or ous</w>
fam ous</w>
d .</w>
ol ine</w>
Pl ant</w>
Manufactu rer</w>
harv est</w>
ti vities</w>
skim med</w>
ic ular</w>
di methyl
PE T</w>
Pre vention</w>
Bul g
med ication</w>
special ist</w>
ak h
Ha em
Gu idance</w>
ple asure</w>
gu n</w>
resol utions</w>
compens atory</w>
MIN IMUM</w>
thor ough
out break</w>
as sign
Me dia</w>
CLASSI FICATION</w>
connec ting</w>
youn ger</w>
ran dom</w>
counter vailing</w>
compe ting</w>
chi atric</w>
ant a</w>
poli tic
ow ns</w>
Pal estin
H and
vari ables</w>
CYP2 C
A sh
3 000</w>
st an</w>
gu ard</w>
cartrid ges</w>
Té l</w>
vill age</w>
prefer ably</w>
ot rex
mix ing</w>
liquid ation</w>
f attening</w>
M om</w>
13 4</w>
0. 2</w>
0. 0
spo ke</w>
r up</w>
comm ission</w>
ac r
Man ual</w>
A z
bur n</w>
N on
ro g
L ea
Gr and</w>
2 25</w>
pan els</w>
l o</w>
vis itors</w>
b ow
P eter</w>
pd f</w>
hom ogen
APPROPRI ATE</w>
deb ates</w>
temper atures</w>
on wards</w>
ax es</w>
aud itor</w>
suppl ying</w>
re placing</w>
Su preme</w>
E .</w>
hus band</w>
dis par
19 70</w>
19 2</w>
cam eras</w>
main tains</w>
contrac tors</w>
Pro per
K line</w>
Inter action</w>
pul p</w>
pro jected</w>
n t</w>
M L
G all
p ist
f ai
train s</w>
ren dered</w>
RE SP
F our</w>
or ally</w>
intel ligence</w>
II .
A x
ne arest</w>
form ity</w>
believ ed</w>
B E
F ive</w>
Bi o
2 90</w>
peo ples</w>
otrex ate</w>
lia ison</w>
Mon day</w>
Measu re</w>
inst al
Con go</w>
Compan ies</w>
trad ition</w>
class ical</w>
Ch o
CC P</w>
destro y</w>
T 2
sav ed</w>
res sion</w>
Pers ons</w>
incorpor ate</w>
W rit
и я</w>
in i</w>
Bet ween</w>
t ongue</w>
heav en</w>
soci etal</w>
munici pality</w>
le ak
c up</w>
ad versely</w>
sub paragraphs</w>
minim is</w>
injur ious</w>
cour age</w>
Vehic les</w>
TS O</w>
J ack</w>
15 3</w>
29 13</w>
Word Press</w>
B en</w>
0 7
ocytop enia</w>
c ann
G ICAL</w>
8. 1</w>
lax is</w>
in cl.</w>
discipl inary</w>
reinfor cing</w>
ic onazole</w>
W ould</w>
fin ish</w>
ket o
biodi esel</w>
bank rupt
ban ds</w>
Pharmac okin
35 8</w>
0. 4</w>
cryst alline</w>
L D
FIN AN
secur ing</w>
gar den</w>
Smith Kline</w>
Mun ici
F lo
them es</w>
ti me
br on
ac etic</w>
tex tiles</w>
te tr
g all
St ock</w>
IN TE
jo ints</w>
c ks</w>
pack ed</w>
inter n
pap ers</w>
low s</w>
Anim als</w>
a. m</w>
S olution</w>
Mar ine</w>
C Y</w>
under go</w>
neutr al</w>
l ar</w>
de hy
cont em
Ac ad
24. 12.
def end</w>
16 3</w>
pul l</w>
fir stly</w>
es cape</w>
Y et</w>
lif t</w>
g in</w>
spo ken</w>
plant ation</w>
cul tures</w>
O M
mu tually</w>
ig a</w>
dis h
antibio tics</w>
E RE
sy rup</w>
sup por
see kers</w>
od opa</w>
bat teries</w>
an on</w>
rec ast</w>
du m
C PC</w>
pres sing</w>
infec tious</w>
D eter
Con taining</w>
trans plant</w>
buff er</w>
Re as
evid ent</w>
EI T</w>
Character istics</w>
per mission</w>
Pro mo
Conclu sion</w>
CL U
cros s
contrain dicated</w>
carbon ate</w>
T s</w>
rap porteurs</w>
precau tionary</w>
n ose</w>
ambi ent</w>
Radi o</w>
4 7
targ eting</w>
p ation</w>
dec or
y cle</w>
de aths</w>
ther ing</w>
st em
reme dies</w>
regul ate</w>
organis ing</w>
m ic</w>
ht m</w>
dispen s
character istic</w>
ag e
Spi rit</w>
Resul ts</w>
OL AF</w>
0. 6</w>
observ ance</w>
ap le</w>
subsidis ed</w>
Ac counting</w>
work shops</w>
Kl ai
20 9</w>
kilo grams</w>
RESP ON
attribu table</w>
shad ow</w>
loc ally</w>
dec iding</w>
clo thes</w>
Ter rit
19 0</w>
taxpay ers</w>
mobil isation</w>
impl y</w>
resi li
con stru
c ine</w>
PP E</w>
2 40</w>
m atic</w>
en rich
Sh it</w>
F lights</w>
18 3</w>
17 3</w>
12 49</w>
15 1</w>
symp tomatic</w>
EC SC</w>
Certif icate</w>
w s</w>
re pos
construc tive</w>
10 000</w>
Wh ether</w>
p ays</w>
eu tic
beg ins</w>
G i
O lan
alloc ations</w>
20 8</w>
projec tions</w>
Inves tig
prospec tus</w>
path ogenic</w>
an cement</w>
transl ated</w>
Re structuring</w>
te a</w>
in ding</w>
Olan zapine</w>
12. 5</w>
ecos ystems</w>
T V
P aul</w>
C P</w>
per for
cig aret
certif ying</w>
E T</w>
vis ited</w>
pursu ing</w>
exerc ises</w>
STO RED</w>
p alities</w>
S R
IC CAT</w>
tor que</w>
EL L
stop per</w>
it ri
found ations</w>
concomit antly</w>
as ser
any where</w>
Merc k</w>
Initi al</w>
identi fies</w>
duc t</w>
alg ia</w>
u tili
ol i
ell er</w>
Gu inea</w>
at titude</w>
M ON
. int</w>
C el
B order</w>
ex tin
ar c
MO s</w>
dec k</w>
bre ad</w>
0. 00
vers ary</w>
ti ght</w>
or age</w>
ne uropa
memb ran
en orm
ac compl
St art</w>
sp ac
cast le</w>
Hol y</w>
0 1.
xi ety</w>
po t</w>
consci ousness</w>
CAR TON</w>
B T</w>
G ross</w>
rec ourse</w>
fil ed</w>
amoun ted</w>
Is lam
Cari b
X IV</w>
Au di
z ing</w>
v astatin</w>
h lor
endeav our</w>
c ad
cong estion</w>
Sun day</w>
22. 12.
eth eless</w>
enfor ce
Glax o
3 20</w>
c and
T ro
com a</w>
St ock
Proc ess</w>
He ads</w>
thorough ly</w>
t elling</w>
pro vince</w>
al ongside</w>
K ing</w>
sur faces</w>
lodg ing</w>
accid ental</w>
min ent</w>
me tric</w>
ER A</w>
5 7
Green land</w>
hand led</w>
GO C</w>
D r.</w>
feed back</w>
NAT O</w>
constru ed</w>
re jection</w>
no on</w>
cap ture</w>
cap tain</w>
ad ine</w>
Glaxo SmithKline</w>
st amp</w>
2, 2</w>
15 8</w>
ob serve</w>
2. 8</w>
Carib bean</w>
insu red</w>
inhabit ants</w>
h ole</w>
er ic</w>
al is
fu r</w>
dis pose</w>
credi bility</w>
cap tive</w>
TEX T</w>
Man ager</w>
2 200</w>
5 8
refin ed</w>
min imal</w>
integr ating</w>
contrac ted</w>
aero plane</w>
accred ited</w>
doc etaxel</w>
I L</w>
ro ck</w>
sph ere</w>
seri ousness</w>
fair ly</w>
experi mental</w>
amoun ting</w>
s artan</w>
in di
group ing</w>
admin istering</w>
notif ying</w>
en coun
Su gar</w>
D .</w>
y stem</w>
recep tors</w>
ester day</w>
chi ef</w>
teach er</w>
immun ity</w>
A syl
inc in
be er</w>
ad dy</w>
a a</w>
C A
ph il
dign ity</w>
S ir</w>
ter ri
Ne o
CS D</w>
Ar ab
Hot el</w>
k ingdom</w>
20 5</w>
mis artan</w>
k illing</w>
ch ains</w>
Leb anon</w>
w alls</w>
stake holder</w>
CF P</w>
stabil isation</w>
ol ed</w>
anes p</w>
Ex pos
Ar anesp</w>
f oundation</w>
LI FE</w>
DERIV ED</w>
CIP IEN
as pir
Citiz ens</w>
Frank furt</w>
Bulg arian</w>
shap ed</w>
negoti ate</w>
expan ded</w>
c ess
f ashion</w>
s cri
or th
Integr ation</w>
ol e
Ir on</w>
safegu arding</w>
St ep</w>
ill us</w>
discus sing</w>
car cases</w>
any more</w>
an avir</w>
Mi gration</w>
even tually</w>
Electr ic</w>
subm issions</w>
Ar men
0 10</w>
m ouse</w>
Viet nam</w>
Statis tics</w>
Sec tor</w>
off al</w>
slaugh tered</w>
jo ining</w>
aud ited</w>
or ph
ess or</w>
U h</w>
Pr im
tig mine</w>
amus cular</w>
H ist
Asyl um</w>
s light</w>
mon ella</w>
Virafer on</w>
25 8</w>
ter restrial</w>
t aneous</w>
car c
L it
work place</w>
h r</w>
Re ports</w>
h ate</w>
expl oratory</w>
emea .</w>
AP PLIC
b ad
nit ude</w>
flav ouring</w>
0, 2</w>
la undering</w>
explan ations</w>
bu b
X V</w>
im per
Sp ace</w>
Ex em
substanti ated</w>
V .
ã o</w>
v aries</w>
ur ia</w>
pressu res</w>
QU AL
Pow der</w>
14 6</w>
s al</w>
dec ent</w>
Ob serv
Mic ha
K r
ATI ONAL</w>
sh alt</w>
amin o
CIPIEN TS</w>
AIN EN</w>
substr ate</w>
law yer</w>
Pl ay</w>
seg ments</w>
satis fies</w>
meth otrexate</w>
Pl ants</w>
O U</w>
R ou
w ishing</w>
observ ers</w>
judg es</w>
ic ating</w>
Main tenance</w>
0 3
spr ay</w>
compar e</w>
Rail way</w>
M .</w>
min ors</w>
verte br
MF Is</w>
Organ ization</w>
Instruc tions</w>
19 77</w>
b ones</w>
N r.</w>
mo vi
Mo der
Man aging</w>
hom es</w>
electron ically</w>
assemb led</w>
U .
suppor tive</w>
2, 3</w>
er als</w>
R IS
Exc use</w>
plan et</w>
o ids</w>
haz ards</w>
conform ing</w>
ad al
Regul atory</w>
18 8</w>
ver ifying</w>
tur b
en cephal
cer amic</w>
Incre ased</w>
aero drome</w>
Par kin
H IC
Curren tly</w>
1 C
reci pe</w>
petro l</w>
car dia</w>
adap tations</w>
comp uters</w>
anc er</w>
alloc ate</w>
EX CIPIENTS</w>
m os
graph ic</w>
C ES</w>
tow ard</w>
bankrupt cy</w>
f ed</w>
Per form
P P</w>
G ul
F F
en comp
al ty</w>
K S</w>
im en</w>
tic aria</w>
id ae</w>
au s</w>
W AL</w>
Mad rid</w>
s ister</w>
ass ay</w>
SOR AINEN</w>
sub period</w>
Appro xim
E F</w>
constitu ting</w>
ac tu
ac company</w>
Sloven ian</w>
Rec overy</w>
ph oto</w>
cur ve</w>
ab el</w>
u h</w>
lar s</w>
ad or</w>
tak e
r at</w>
pain ting</w>
mortg age</w>
fac tual</w>
Oper ations</w>
compar ing</w>
west ern</w>
practic able</w>
mil es</w>
hol m</w>
aesthe sia</w>
N ob
J u
C arri
nu cle
M c
eth ical</w>
dis pos
al ine</w>
II a</w>
2 24</w>
stop ping</w>
or g</w>
fail ures</w>
R NA</w>
w ound</w>
ic op
go od
frag mentation</w>
exis ted</w>
D EF
tif y</w>
m ice</w>
dre ds</w>
per cep
benef ited</w>
mell itus</w>
la g</w>
marri age</w>
j an</w>
con ve
circum vention</w>
Z im
ti p</w>
re mind</w>
PL N</w>
instruc ted</w>
h id
transfer ring</w>
tr aw
depreci ation</w>
Sev enth</w>
AD R</w>
A h
4 9
rec re
promot es</w>
est ations</w>
R econ
M IR
un ity</w>
ti tan
ocar dial</w>
d egradation</w>
circ ular</w>
thro at</w>
pl ing</w>
com posite</w>
ip p
Advoc ate</w>
re conciliation</w>
du ci
compu ter
broad ly</w>
Qu al
POSI TION</w>
18 6</w>
sign alling</w>
phen ol</w>
av er
IM F</w>
Ar t.</w>
Sev ere</w>
ci a</w>
Tr ading</w>
Hum ira</w>
Democr ats</w>
ro of</w>
ock et</w>
devi ation</w>
compar ability</w>
Experi ence</w>
theore tical</w>
repe at
r in
p sori
n olence</w>
eri als</w>
di min
MEASU RES</w>
p iv
a sion</w>
sur pr
af ts</w>
win ding</w>
uc ks</w>
T en
EU RES</w>
v an
pi oglitazone</w>
P R</w>
B ra
L ES</w>
3. 8</w>
yi el
der ful</w>
Z Z</w>
Bri g</w>
ru pt</w>
respon ded</w>
fr actions</w>
A th
25 6</w>
odi alysis</w>
ass is</w>
rab bits</w>
munici palities</w>
speci fies</w>
G B</w>
ro les</w>
COMMUNI TY</w>
p .</w>
if ts</w>
dre am</w>
t est
re stor
os ting</w>
fisher men</w>
e uropa
dec e
stipul ates</w>
laun ching</w>
en se</w>
autonom y</w>
2 47</w>
19 76</w>
hel p
excre tion</w>
B ack</w>
ur gently</w>
preval ence</w>
direc tions</w>
Particip ation</w>
symb ols</w>
semin ars</w>
invo ked</w>
conf er</w>
ad ise</w>
regul ating</w>
WH O</w>
ern ity</w>
grad es</w>
g lad</w>
c is
4 6
ici ous</w>
Natur a</w>
M e</w>
p are
gau ge</w>
cle ans
Lad ies</w>
C ul
resid ential</w>
le isure</w>
sul fon
sac rif
process or</w>
po sted</w>
contam inated</w>
Pil ot</w>
L V</w>
IN E</w>
tick et</w>
pro ud</w>
ar my</w>
Oc ean</w>
AIL LE</w>
V it
ot ro
BR AILLE</w>
c asu
serv es</w>
en ue</w>
14 93</w>
col ours</w>
A sian</w>
ro ds</w>
repres sion</w>
24 54</w>
gen e</w>
ger ia</w>
Enter prise</w>
19 72</w>
y ach
op posite</w>
moun tain</w>
mon y</w>
il le</w>
ic on
end ant</w>
dr am
Re duc
ide al</w>
fur thermore</w>
fr ames</w>
satis fying</w>
pres s
ol ym
bureau cr
preser ving</w>
epidemi ological</w>
C ru
Al geria</w>
met ast
En d</w>
aut umn</w>
Ste ering</w>
AD E</w>
introduc es</w>
b et</w>
scienti sts</w>
ery them
ass e</w>
are n</w>
TAR IC</w>
resi ding</w>
p reference</w>
m ere</w>
ES S</w>
lic k</w>
differenti ated</w>
head quarters</w>
In jection</w>
7 7
righ tly</w>
St .</w>
wai ver</w>
pestic ide</w>
fin ed</w>
dehy de</w>
az ep
jus ti
Pub lic
K en
I TS</w>
sal ic
rhe um
life time</w>
he im</w>
ast ed</w>
Glob alisation</w>
am bers</w>
mus cles</w>
acceler ate</w>
pe l</w>
end point</w>
head lamp</w>
recogn ized</w>
pro tocols</w>
do x
ann exes</w>
Pal anga</w>
intoler ance</w>
Stat ement</w>
o ks</w>
europa .</w>
om ers</w>
F ro
tum ours</w>
more over</w>
fl our</w>
ar re
So vi
victi m</w>
s and</w>
i .</w>
eutic als</w>
titan ium</w>
fertilis ers</w>
P y
AT A</w>
ur ge</w>
Maj or</w>
Au dit</w>
afford able</w>
Hol iday</w>
Ac tivities</w>
3 rd</w>
MEDI ATE</w>
2 68</w>
un usual</w>
aqu eous</w>
tre m
st ear
clos ures</w>
IL O</w>
Rec ogn
Hydro chlor
E col
Compl iance</w>
hyper glycaemia</w>
M ill
15 5</w>
t ants</w>
succ essive</w>
p as
longit ud
ket ball</w>
hibi ting</w>
Med ical</w>
2 26</w>
subm its</w>
su sp
for gotten</w>
IC H</w>
EN TI
ser ial</w>
polic y
electro magnetic</w>
procee ds</w>
dec ade</w>
cess ation</w>
B ru
recogn ising</w>
prescri be</w>
og en</w>
neighb ourhood</w>
mark etable</w>
P ack</w>
termin ate</w>
ow ed</w>
Pers onal</w>
E l</w>
Competi tiveness</w>
ö r
ME MBER</w>
trans plantation</w>
d ili
Ar rang
st ain</w>
off shore</w>
car bo
arg ues</w>
D ex
A Z</w>
TARGE T2</w>
F ruit</w>
y y
L ive</w>
Phy s
ation ary</w>
ail s</w>
L e</w>
Individu al</w>
some body</w>
pr on
e ating</w>
V ic
RE STR
un loading</w>
otox icity</w>
hy persensi
dic es</w>
coupl ed</w>
liter ature</w>
chick ens</w>
K ING</w>
fil ms</w>
extrac ts</w>
equ ine</w>
sequ ence</w>
pre vents</w>
lith ium</w>
constitu ent</w>
Trav el</w>
N G
tac rolimus</w>
purch as
aux iliary</w>
Presid ents</w>
W al
Instru ments</w>
Bud g
famili ar</w>
ear nings</w>
cy to
Wind ows</w>
O S</w>
Air lines</w>
ou ghts</w>
Uni versal</w>
Every thing</w>
un fortunately</w>
Pass port</w>
indu ce</w>
appe aring</w>
annul ment</w>
Perform ance</w>
APPROV AL</w>
mod al</w>
gr and
Sy rian</w>
o res
Fi re</w>
3 86</w>
ro tation</w>
sit agliptin</w>
regul ators</w>
Y Y</w>
Ch lor
xim ab</w>
a ul
S anc
Pay ments</w>
A I</w>
De pos
3 .</w>
o a</w>
lev odopa</w>
Transi tional</w>
fi br
Micha el</w>
thir ds</w>
privileg es</w>
in appropriate</w>
00 3</w>
speak ers</w>
Reg istr
N -</w>
Int ere
AI DS</w>
Sec tions</w>
sh opping</w>
hypersensi tive</w>
cor ro
Pr in
EE AS</w>
inform ing</w>
Cor rec
envel ope</w>
comb ine</w>
c ables</w>
FIR ST</w>
th es
olog ic</w>
co ag
accumul ated</w>
reg ab
9 51</w>
con signed</w>
Con tract</w>
tour ist</w>
regab alin</w>
o ic</w>
descri bes</w>
Simil ar</w>
re aches</w>
ab sent</w>
D .
Bar cel
ta u
real ise</w>
n as
N .
B ER
influ enced</w>
gr y</w>
T AC
ME Ps</w>
thro w</w>
nov ads</w>
S ave</w>
Jud ah</w>
D own
Cl opidogrel</w>
tal ks</w>
farm ed</w>
determin es</w>
Prof es
An alysis</w>
retail ers</w>
c lic</w>
w ake</w>
imp regn
W atch</w>
ten ofovir</w>
par a</w>
est ro
Prepar ation</w>
P SC</w>
Pharmacokin etic</w>
preclu de</w>
GH z</w>
vir uses</w>
on ym
occup ation</w>
ni e</w>
enorm ous</w>
c m3</w>
bloc kers</w>
2 97</w>
bi og
anni versary</w>
Vol ume</w>
red ress</w>
m assive</w>
Ch urch</w>
swit ched</w>
ul c
sal mon</w>
Sub total</w>
Fi x
ASS ESS
ven ess</w>
tran shipment</w>
inter active</w>
ero id</w>
en force</w>
d ap
REQU IRE
munici pal</w>
Dr aft</w>
A le
align ed</w>
N ig
simult aneous</w>
pub lik
obstac le</w>
inter ruption</w>
explo it</w>
R est
s ounds</w>
out breaks</w>
leak age</w>
dr ying</w>
credi ble</w>
cl eared</w>
Under standing</w>
Proc urement</w>
4 32</w>
prote ase</w>
down load</w>
D ev
af fixed</w>
W ife</w>
Ret ur
AT T</w>
ve al</w>
Barcel ona</w>
W eb
W N</w>
Categ ories</w>
B I
lif ting</w>
2 48</w>
nit rate</w>
vi br
compres sion</w>
LE G
B AN
2 60</w>
pa thy</w>
in os</w>
17 0
а р
sugg estions</w>
restor ation</w>
mor al</w>
air worthiness</w>
C riter
it ro
S ul
Elec tro
we ights</w>
r .
net ting</w>
lo go</w>
Gro ups</w>
new sp
th in</w>
y an</w>
tic ul
oper atives</w>
fl esh</w>
W eight</w>
Freed om</w>
val ent</w>
Invest ments</w>
30 9</w>
th oughts</w>
pol lu
ol a</w>
F F</w>
19 82</w>
rul ed</w>
F ail
mis leading</w>
eng th</w>
apart ments</w>
admin ister</w>
Detail s</w>
Un its</w>
Pl ay
17 9</w>
Res ources</w>
tin g
s ca
ha r</w>
decentr alised</w>
E le
val ves</w>
man ip
harv ested</w>
exacer b
Budg etary</w>
30 5</w>
repe al</w>
hi re</w>
A qu
00 4</w>
RE L
P DO</w>
Ital ia</w>
Inter institutional</w>
He ight</w>
ta p</w>
inst all</w>
emer gence</w>
bound ary</w>
e str
diagnos ed</w>
bre aking</w>
ad ds</w>
19 6</w>
ing ness</w>
fav or
S eri
8 8
1. 1.
sti pation</w>
plug in</w>
M etal</w>
Frequ ency</w>
COM P
b lo
S V</w>
ee ds</w>
Cl ose</w>
person ally</w>
asth ma</w>
ki ren</w>
V eget
M T
s essions</w>
nutri tional</w>
ent ations</w>
ar di
st aple</w>
lo ads</w>
big ger</w>
o x</w>
fun ny</w>
Palestin ian</w>
N E</w>
sev erely</w>
pl atin</w>
Clu b</w>
Ar ti
Add res
comple ting</w>
Wor kers</w>
harmon ise</w>
8 53</w>
amp ou
At t
tendere rs</w>
simpl ifying</w>
b om
trac ts</w>
N ic
8 81</w>
3 01</w>
rati fied</w>
prec ision</w>
defec ts</w>
K ong</w>
H ong</w>
G BP</w>
yl an</w>
it ter</w>
In tel
tr adi
inter view</w>
cab in</w>
F ine</w>
F ile</w>
B SE</w>
0 5
water way</w>
repl ied</w>
k ey
T EC</w>
H az
some what</w>
inspec tors</w>
encoun tered</w>
distingu ish</w>
emphas ises</w>
are rs</w>
loc ked</w>
interf ere</w>
enta ils</w>
bel ts</w>
35 7</w>
corticost eroids</w>
c up
Pro vision</w>
Inter im</w>
6. 2011</w>
e h
bar ley</w>
N ever</w>
25 3</w>
to s</w>
ord in
g nee</w>
III a</w>
Exam ples</w>
Ex clu
hun dreds</w>
K h
revis e</w>
is s
intel ligent</w>
calibr ation</w>
ap pen
dis solved</w>
6 9
speak er</w>
re marks</w>
pro mis
ph ones</w>
Accor d</w>
re af
d B</w>
b i</w>
Sovi et</w>
P erc
Finan cing</w>
Ag ainst</w>
19 78</w>
we igh</w>
haemorrh age</w>
d an
ar ction</w>
analys ing</w>
B a
neighb ours</w>
el les</w>
best os</w>
3 49</w>
x in</w>
radi us</w>
my ocardial</w>
assis ting</w>
Pet ro
rec y</w>
le sions</w>
fo etal</w>
dis su
d ress</w>
v ec
tr uck</w>
su itability</w>
star s</w>
py ro
interru pted</w>
c ub
b us
L AN
cou p
Vi ew</w>
chlor o
avo idance</w>
F uture</w>
4 20</w>
mag nitude</w>
a emic</w>
vi c</w>
stri ke</w>
se p
man ure</w>
to il
loc king</w>
L ine</w>
volati lity</w>
it a</w>
conver t</w>
Shel f</w>
Ch apters</w>
6 48</w>
innov ations</w>
bi o</w>
serv ant</w>
Sk y</w>
Respon se</w>
law fully</w>
am i</w>
WI TH
process ors</w>
il ateral</w>
borrow ing</w>
UN ECE</w>
Sus pension</w>
an xiety</w>
M D</w>
Impro ving</w>
ul tr
iz umab</w>
dis carded</w>
bre aches</w>
ak ed</w>
YY YY</w>
licen sed</w>
f lower</w>
N i
stim ulation</w>
i os</w>
d as</w>
contrac tor</w>
O l
μ g</w>
at tained</w>
ast a</w>
REQUIRE MENTS</w>
8. 2</w>
b ill</w>
Jud ge</w>
Addi tionally</w>
under lines</w>
inter ior</w>
im s</w>
es cal
ur ticaria</w>
priv atisation</w>
mat ches</w>
W oven</w>
S AL
will ingness</w>
mon opol
maxim ise</w>
F ish</w>
Al liance</w>
reimbur sed</w>
QU AN
19 9</w>
comm ission
Sh ort</w>
Fo ot
v s</w>
sto res</w>
m m
in stances</w>
Olymp ic</w>
Appro ach</w>
7 5
19 67</w>
18 1</w>
wal king</w>
stem ming</w>
mod alities</w>
li p</w>
inspec ted</w>
col lege</w>
P GI</w>
OR E</w>
20 50</w>
wor thy</w>
inf arction</w>
fol lic
draf ted</w>
bit ch</w>
RESTR IC
un a</w>
pip eline</w>
longitud inal</w>
al ign</w>
V ide
vo id</w>
sec recy</w>
o de</w>
lo s</w>
19 3</w>
yl ated</w>
won derful</w>
sol di
ry lic</w>
F resh</w>
1. 7.
Commer ce</w>
pren avir</w>
id a</w>
gen ital</w>
fin ger
En h
19 07</w>
spec imen</w>
plan ting</w>
Jo hn
G AR
tr ucks</w>
tr o</w>
is er</w>
Stock holm</w>
Dis tribution</w>
14. 12.2006</w>
practi tion
inqui ry</w>
Tal k</w>
sk ins</w>
conclu ding</w>
F UN
ong s</w>
edi tion</w>
cro w
brom ide</w>
an itary</w>
Fam ily</w>
un authorised</w>
ov arian</w>
W ood</w>
G ra
et tes</w>
righ te
immun osup
under ground</w>
sw ap</w>
broadca sters</w>
V o
M yan
Langu age</w>
3 60</w>
mis sion
V acc
E BA</w>
is ch
export ation</w>
Fl ex
C ash</w>
s ing
func tionality</w>
enter tainment</w>
tos anitary</w>
cl opidogrel</w>
Equ ity</w>
C ub
C it
ut a</w>
marg inal</w>
it ably</w>
intraven ously</w>
g ift</w>
T ables</w>
GN I</w>
6 5
4 a</w>
bro wn</w>
U RI
O ff</w>
z h
mollus cs</w>
Zim bab
ici ary</w>
foreg oing</w>
arg ue</w>
J ean</w>
D e</w>
v ol</w>
appreci ate</w>
irrit ation</w>
arti sts</w>
al ization</w>
audi ting</w>
ti red</w>
pro pulsion</w>
phr ase</w>
in dispens
gas eous</w>
Gen der</w>
ATI NG</w>
bound aries</w>
af ore
toler ated</w>
G F</w>
18 33</w>
lev ied</w>
excep tionally</w>
su it</w>
speci mens</w>
se ments</w>
De sign</w>
enlarg ed</w>
J .</w>
som nolence</w>
refer ral</w>
fil ters</w>
Appropri ate</w>
ol y
at oid</w>
Be sides</w>
0. 8</w>
w ash</w>
pill ars</w>
Corpor ation</w>
A RE
tradi tions</w>
trad es</w>
ilit ation</w>
L ef
warr ant</w>
sco res</w>
aler ts</w>
Un desirable</w>
program s</w>
pot ent</w>
fall en</w>
Gul f</w>
G EN
ch er
4, 5</w>
defini tively</w>
assum ption</w>
acqui ring</w>
RESPON SIBLE</w>
3 27</w>
in spi
dili gence</w>
abol ition</w>
3 28</w>
ti bility</w>
dupl ication</w>
Armen ia</w>
work shop</w>
tau ght</w>
il ian</w>
attem pts</w>
Sta y</w>
Sanc tions</w>
roun ded</w>
dev oted</w>
Y oung</w>
De sign
5. 6</w>
notic es</w>
beli ef</w>
affor d</w>
accel eration</w>
S AF
lay ers</w>
bi e</w>
post pon
form ats</w>
dic hlor
te eth</w>
las er</w>
inhib it</w>
19 68</w>
T AC</w>
blu efin</w>
afore mentioned</w>
W ash
RELE ASE</w>
Por t</w>
rep utation</w>
id ov
fem ales</w>
el ines</w>
cataly tic</w>
ad hesive</w>
L aughter</w>
z umab</w>
str a</w>
Me an</w>
re viewing</w>
C L</w>
ASSESS MENT</w>
col league</w>
chro me</w>
IC E</w>
transfer able</w>
pa st
ill um
develop s</w>
25 5</w>
re publik
audi ence</w>
ac ent</w>
30 8</w>
perfec tly</w>
g ather</w>
at tain</w>
In fec
haem odialysis</w>
explan atory</w>
euro s</w>
SI DE</w>
H D
refuge e</w>
rati os</w>
mis take</w>
bic ycles</w>
15 9</w>
indispens able</w>
ac knowledge</w>
Mach inery</w>
3 75</w>
reserv ations</w>
rem it</w>
autom otive</w>
id omide</w>
arrang e</w>
acceler ated</w>
Som alia</w>
C T</w>
lin king</w>
M I
out door</w>
G E</w>
pist on</w>
al a</w>
D K</w>
Approxim ately</w>
ol ed
lands cape</w>
ar ises</w>
SPEC IF
Econom y</w>
sp ite</w>
os k
observ es</w>
cancell ed</w>
ap est</w>
rec all</w>
pharmac ovigilance</w>
op harm</w>
in ev
ec an</w>
st on</w>
Parkin son</w>
AB LE</w>
19 1</w>
ta res</w>
al dehyde</w>
2 28</w>
ut or</w>
ing ton</w>
dispat ched</w>
contin ent</w>
REG ARD</w>
L S</w>
sh es</w>
L ow
re nov
ere l</w>
S earch</w>
15 00</w>
centr alised</w>
Vol un
J on
Li qui
i dis
histor ic</w>
comple mented</w>
certif y</w>
SH ALL</w>
O H
az ol</w>
FINAN CIAL</w>
recycl ed</w>
Constitu tional</w>
19 4</w>
tur ns</w>
t ere
sail ing</w>
publish ing</w>
M R</w>
AN T</w>
ecos ystem</w>
ash es</w>
ar omatic</w>
var ying</w>
spre ading</w>
docu mentary</w>
ER IC</w>
Cle ar</w>
2 23</w>
ys or
reflec tion</w>
Ex pl
Enti ty</w>
sion ally</w>
dis continue</w>
2 14</w>
met er</w>
as bestos</w>
Mob ile</w>
s owing</w>
l ub
Si xth</w>
rel ap
ati tude</w>
V O</w>
Plat form</w>
progres sively</w>
dic ations</w>
Ag e</w>
succ eed</w>
gener alised</w>
di am
adj acent</w>
ut most</w>
trans dermal</w>
ce ased</w>
Tr ad
M en
35 1</w>
kid neys</w>
cons or
b ird</w>
Po ints</w>
Del ete</w>
ven ted</w>
it i</w>
M .
N F
H ague</w>
A ung</w>
o res</w>
bo osting</w>
all evi
aff ili
doc tors</w>
cas ino</w>
be poetin</w>
M ess
clu bs</w>
al an
st aying</w>
prud ent</w>
in equ
as su
G astrointestinal</w>
st up
assemb lies</w>
vari ability</w>
hib ition</w>
fl u</w>
aero planes</w>
re financing</w>
mobil ise</w>
b is
Import ant</w>
hol id
fa thers</w>
Par adise</w>
CH AR
rap e</w>
Can ary</w>
en ers</w>
de plo
M ary</w>
foot ball</w>
explos ive</w>
ag ram</w>
ad h
A ri
r am
hy draulic</w>
g ast
explos ives</w>
R h
sh ir
phen y
idov udine</w>
O therwise</w>
Ex plan
agu e.
C lick</w>
Bel ow</w>
ob struc
ex ole</w>
00 5</w>
per taining</w>
nor thern</w>
ci ent</w>
C are</w>
2 62</w>
sa ith</w>
or na
o h</w>
hel icop
facilit ated</w>
destin ed</w>
b .</w>
am ip
Le ague.
I PA</w>
Conclu sions</w>
f an</w>
Proper ty</w>
soci ally</w>
d ent</w>
correspon dence</w>
Car di
W C</w>
IM MEDIATE</w>
35 2</w>
y esterday</w>
r ors</w>
help ful</w>
E E</w>
sp ouse</w>
aran tine</w>
Every one</w>
advis able</w>
Sof tware</w>
G h
substitu te</w>
se am
poss ess</w>
hon our</w>
d der</w>
En sure</w>
ysor bate</w>
summar ised</w>
c lock</w>
V OL
L A</w>
str ains</w>
00 6</w>
ste am</w>
fun gal</w>
amb ition</w>
acknowledg es</w>
u si
b ath</w>
assign ment</w>
O S
pop ul
im pression</w>
im er</w>
den ly</w>
c ough</w>
a o</w>
Inst all
In v
warran ted</w>
otechn ical</w>
g el</w>
for d</w>
OR Y</w>
D y
Pl astic</w>
t ese</w>
ag ons</w>
IN N</w>
meth oxy
ic its</w>
ef ully</w>
concentr ates</w>
a .europa.eu</w>
QUAN TIT
Argenti na</w>
phosphor us</w>
inf ant</w>
far in</w>
T ob
profes sions</w>
prob ability</w>
den ds</w>
announ cement</w>
amip exole</w>
shar p</w>
g li
Le aflet</w>
Hum alog</w>
D ra
su peri
s i</w>
co gn
N either</w>
3. 2004</w>
we d
is ted</w>
em ul
au x</w>
Sel f</w>
Mem orandum</w>
16 05</w>
til l
s pa
res ort</w>
m oul
l é
Wh ilst</w>
G ran
special ists</w>
d ere
adop ts</w>
19 79</w>
ra ises</w>
kil omet
k o
2 98</w>
18 9</w>
te ach</w>
set tle</w>
mo m</w>
inv ites</w>
S K
paren tal</w>
hid den</w>
A 1</w>
water ways</w>
comb ining</w>
E u
thromb osis</w>
lingu istic</w>
ir ub
dispar ities</w>
dig it</w>
UN SCR</w>
S ing
D D</w>
trac tion</w>
crim in
H en
Establish ment</w>
w ell
ic ked</w>
en qui
S mo
Defin ition</w>
am pl
Zimbab we</w>
Te am</w>
Pos ology</w>
Paragrap hs</w>
Crim inal</w>
t our</w>
st ar</w>
prim e</w>
over seas</w>
g ers</w>
lit re</w>
def endant</w>
co coa</w>
or ange</w>
gener ators</w>
eg a</w>
ag as
Rem arks</w>
oc olate</w>
issu ers</w>
ack erel</w>
7. 2005</w>
2 201</w>
ten s</w>
promis ing</w>
bank as</w>
N R</w>
D os
Al ex
rex ed</w>
os oph
o king</w>
min es</w>
dro pped</w>
M ab
E ASA</w>
lat er
g un
L R</w>
vir tual</w>
val sartan</w>
regre t</w>
h edge</w>
gr ains</w>
T am
R ate</w>
M W</w>
impregn ated</w>
Recom men
Chem icals</w>
C M</w>
4 25</w>
2 B
man n</w>
bre ed</w>
N eg
28. 11.
ch aired</w>
arri ve</w>
V IS</w>
dispos able</w>
att ach</w>
antagon ists</w>
up grading</w>
sweet ening</w>
pri ests</w>
libr ary</w>
0. 7</w>
ou ts</w>
Min sk</w>
st ret
og luc
Registr ar</w>
pl a
pare dness</w>
draw s</w>
7 th</w>
t one</w>
del ete</w>
Let ter</w>
C AP
authentic ity</w>
Cere als</w>
z ation</w>
pre vailing</w>
moun ting</w>
less er</w>
emet rexed</w>
Mal tese</w>
Mag ne
19 74</w>
viol ent</w>
boo k
Princi ples</w>
H os
6 42</w>
aw n</w>
ST RI
G MOs</w>
3 63</w>
Partic ular</w>
12 90</w>
w ro
reg on</w>
Com pon
Col om
t ells</w>
recap italisation</w>
L ink</w>
selec ting</w>
ro d</w>
rati opharm</w>
a ments</w>
T U
Cap tain</w>
ur itus</w>
thromb ocytopenia</w>
phot ographs</w>
lo ved</w>
asu ry</w>
K o
poly propylene</w>
mi le</w>
enfor ced</w>
bat tle</w>
2 31</w>
10 49</w>
tradem ark</w>
politic ians</w>
descri ptions</w>
atic s</w>
ak er</w>
Fix ed</w>
prolong ation</w>
m o</w>
j e</w>
inequ alities</w>
am prenavir</w>
Profes sional</w>
B ase</w>
vi ro
Qu ota</w>
ens is</w>
Tow ards</w>
n .
estim ation</w>
c at</w>
RESTRIC TIONS</w>
G A
Con comit
rec alls</w>
neuropa thy</w>
al ties</w>
Over dose</w>
OB D</w>
Kaz akh
Commit tees</w>
shor tly</w>
ju ven
extrac ted</w>
et a</w>
diure tics</w>
POL IC
E mer
un limited</w>
repeat edly</w>
ir s</w>
go ats</w>
en shr
arr hyth
WH ICH</w>
M Y
Dis cus
head ed</w>
R a
pack aged</w>
jo y</w>
di methyl</w>
def icits</w>
d end</w>
EC U</w>
u tionary</w>
Reg istry</w>
B 1</w>
th an
oled ronic</w>
min erals</w>
O x
Kazakh stan</w>
19 58</w>
reciproc al</w>
lam inated</w>
dg es</w>
cell aneous</w>
Mus eum</w>
Islam ic</w>
3 38</w>
substitu tes</w>
pro ph
por in</w>
af en
Therap eutic</w>
R ati
sen sor</w>
li que
Concomit ant</w>
C ab
1 200</w>
u ter
ocy tes</w>
lev ies</w>
formul ated</w>
atten ded</w>
t ase</w>
satur ated</w>
k ling</w>
ju red</w>
cor ner</w>
Retur n</w>
rel ax
re sum
medi ated</w>
hydro gen
g a</w>
ai re</w>
C ENTR
og y</w>
fore ver</w>
char ter</w>
V EN
I ran
18 29</w>
www .</w>
ar i</w>
comple ment
amaz ing</w>
He al
Dep ending</w>
2 35</w>
bed ded</w>
y le</w>
respon dents</w>
p assive</w>
d n
concer t</w>
b in</w>
W ar</w>
STATE S</w>
us able</w>
syn chron
Tab let</w>
inten se</w>
glob ally</w>
T ox
6 59</w>
so ever</w>
opin avir</w>
imag ine</w>
pro mises</w>
ac le</w>
S impl
ogluc ose</w>
ligh t
arri ved</w>
Ab sol
AN D
7, 5</w>
dis comfort</w>
consolid ate</w>
computer ised</w>
W ine</w>
Con c
f entanyl</w>
acet am</w>
C G</w>
O CT
ar ate</w>
Ar ctic</w>
oun ced</w>
osk eletal</w>
hear t
R iga</w>
NO x</w>
Gen eva</w>
A K
19 73</w>
san itary</w>
op es</w>
hon est</w>
han dic
ad en
UR ING</w>
G Y</w>
Public ations</w>
E CO
Comple tion</w>
Al t
ground water</w>
G ame</w>
i ja</w>
co stly</w>
AIF M</w>
trac king</w>
ot ecan</w>
Vi en
Electr ical</w>
r is</w>
G 20</w>
E di
26. 6.
secon ded</w>
mun ition</w>
miti g
ent ally</w>
electro ly
ch amp
ocy te</w>
et ongue</w>
esc .europa.eu</w>
broad cast</w>
Ma king</w>
H U
C min</w>
15 4</w>
Mad agas
L AG</w>
polym ers</w>
per ceived</w>
col i</w>
We b</w>
Li k
Appen dices</w>
A maz
interven e</w>
Met abol
Comm and</w>
arti st</w>
acet yl
S it
la p</w>
hec tares</w>
din ner</w>
Sh ut</w>
Pri ority</w>
Particip ants</w>
H 5
Docu ments</w>
inter governmental</w>
C los
н а</w>
trans late</w>
op hy
in jured</w>
ber ry</w>
tonn age</w>
th inks</w>
rheum atoid</w>
Gl ass</w>
3 40</w>
19 84</w>
diff ers</w>
a ine</w>
S ure</w>
Aut om
o C</w>
de x</w>
contracep tion</w>
US E
whe el
licen se</w>
f its</w>
ag grav
vari ed</w>
incin eration</w>
g gling</w>
dic t
boo king</w>
b ai
alleg edly</w>
e v</w>
P sy
3. 9</w>
z om
c t</w>
arrang ed</w>
3 91</w>
l i</w>
enh ancement</w>
b o</w>
Promo ting</w>
AI F</w>
ti ed</w>
stre aming</w>
no body</w>
Pro jects</w>
Con duct</w>
z in</w>
incre mental</w>
R s</w>
P ic
Oper ating</w>
N erv
K on
enjo yed</w>
dis covered</w>
design s</w>
Orig in</w>
6 50</w>
3 25</w>
identi fiable</w>
h all
L ess</w>
Be au
pe di
e i</w>
Madagas car</w>
A li
fin ite</w>
deriv ing</w>
any way</w>
Ch an
B un
un expected</w>
referen dum</w>
cul oskeletal</w>
b ilities</w>
Some times</w>
A vailable</w>
20 21</w>
ref rain</w>
Me at</w>
L illy</w>
C hile</w>
C V</w>
w av
perid one</w>
mal es</w>
m ass
divi dends</w>
He ading</w>
im movable</w>
gly caemic</w>
tre aties</w>
coup on</w>
- 2</w>
P fi
M ir
sh oes</w>
es tic</w>
comm ander</w>
T l
H BV</w>
Equi valent</w>
AF O</w>
3, 4</w>
in sec
EM AS</w>
liqui ds</w>
l uck</w>
b alls</w>
ag eous</w>
M aize</w>
Cle an</w>
tin al</w>
c amp</w>
C ED</w>
7. 3</w>
in i
he aters</w>
dol lars</w>
A E</w>
21. 10.2003</w>
y ards</w>
ee ding</w>
compens ated</w>
Com pu
reg ion
pe ts</w>
es .
U s</w>
S M</w>
Pa ediatric</w>
ρ ο
tri glycer
cust ody</w>
S t</w>
7 9
hat ching</w>
gu il
any body</w>
M ass</w>
J ur
E G</w>
3 11</w>
sen sors</w>
NU TS</w>
2 21</w>
lin er</w>
gr ass</w>
ci profloxacin</w>
Y OU</w>
Gu ide</w>
mb ass
compati bilities</w>
ME D</w>
2 96</w>
threat ened</w>
tal ked</w>
A h</w>
wro te</w>
dis bur
attem pted</w>
Re stric
RE NE
L if
B lu
paramet er</w>
olym er</w>
counterfe iting</w>
Mos es</w>
ti ps</w>
pup ils</w>
detri mental</w>
F IS
8 83</w>
zo otechnical</w>
p air</w>
d. o.
Vide o</w>
Direc tors</w>
2. 0</w>
sour ced</w>
k a
ich lor
dissu asive</w>
Pharmac odynamic</w>
Pfi zer</w>
K ING
streng ths</w>
revo ked</w>
eng er</w>
amb ig
O ld</w>
B atch</w>
p and
occup ied</w>
heav ily</w>
ap pra
H ex
valu ed</w>
subscri bed</w>
res ettlement</w>
p ic</w>
le asing</w>
dis appear</w>
at tainment</w>
asi a</w>
Cap acity</w>
lun gs</w>
stri ps</w>
qu arantine</w>
percent ages</w>
creati vity</w>
accep ting</w>
G L
republik a</w>
fl ag
en. htm</w>
aggreg ation</w>
Let ters</w>
3. 1.
prin ts</w>
depri ved</w>
acc e
n is</w>
h amp
co operatives</w>
as sure</w>
H ur
1 H</w>
F INAL</w>
l en</w>
TE S</w>
Riv er</w>
Hydrochlor othiazide</w>
E missions</w>
3 21</w>
spir its</w>
reg i
out look</w>
meth oxy</w>
G M</w>
ur ic</w>
e igh
dis ruption</w>
C ell
el a</w>
dis man
ac rylic</w>
Su per
MA H</w>
AT C</w>
3 88</w>
imper ative</w>
el abor
Pu regon</w>
M F</w>
C Z</w>
und uly</w>
V an</w>
Per haps</w>
fun g
Mu sic</w>
Di men
mov es</w>
ic idal</w>
ed y</w>
conver ting</w>
S tri
L arge</w>
B LIS
vap our</w>
e c</w>
toil et</w>
stric ter</w>
fu sions</w>
chang e
Tem porary</w>
se emed</w>
retur ning</w>
la ke</w>
chick en</w>
b ly</w>
- I</w>
exha us
Pre clinical</w>
CO LO
re location</w>
pri est</w>
extin gu
T EU</w>
E p
Ch ic
C ASE</w>
revoc ation</w>
molec ular</w>
it ate</w>
el ap
ca usal</w>
ap p</w>
V O
im balance</w>
Wel come</w>
T ak
Pers on
pre v
ev ed</w>
Mos cow</w>
Li pro
D um
2 38</w>
tin ation</w>
ex changing</w>
contin gent</w>
T ogether</w>
Lipro log</w>
Lab or
pol y</w>
pass es</w>
Cal culation</w>
T ask</w>
Rem ember</w>
s son</w>
alis kiren</w>
Shar p</w>
R as
inhal ation</w>
Pl ac
Lear ning</w>
syn thesis</w>
pneum onia</w>
duc tor</w>
Munici pality</w>
endor ses</w>
be l</w>
as ant</w>
Targ et</w>
Ren ew
termin als</w>
cle arer</w>
categ or
W EI
No tification</w>
GE I</w>
19 71</w>
11. 2005</w>
pack ings</w>
op o
is oglucose</w>
Phil ipp
B MS</w>
8 82</w>
spe eds</w>
refin ing</w>
every where</w>
cur r
MANUFACT U
M odi
IR B</w>
I g
sc ene</w>
ograp h</w>
b red</w>
war farin</w>
tom atoes</w>
ship ments</w>
b acking</w>
Micro soft</w>
un k</w>
tr icit
fa eces</w>
un t</w>
Ne der
Nation ality</w>
H PV</w>
35 3</w>
metal lic</w>
cl ou
Recommen ded</w>
m ia</w>
holid ays</w>
R .</w>
8 50</w>
1, 1</w>
fin ger</w>
dam aging</w>
Wh at
M ON</w>
pos ting</w>
ith ro
corpor ation</w>
O u
M 1</w>
2 12</w>
ophil ia</w>
haemat ological</w>
c um
sud denly</w>
sk ill</w>
fo dder</w>
expan ding</w>
dro w
Nerv ous</w>
M ol
EN P</w>
7 6
re construction</w>
pro pi
Myan mar</w>
Dur ation</w>
2 22</w>
malign ant</w>
s ations</w>
institu tes</w>
confir ming</w>
cho osing</w>
ca th
COM POSITION</w>
sulphon yl
Tur n</w>
Intro duction</w>
won der</w>
ware house</w>
ro ck
gr ass
concer ted</w>
bi al</w>
al umin
Thir dly</w>
Co sts</w>
lu x</w>
dul oxetine</w>
SP C</w>
tr am
h i</w>
30 3</w>
wit ness</w>
substr ates</w>
n ch
at re</w>
S ide</w>
2 33</w>
el le</w>
coordin ator</w>
bu ck
2. 2.
sl ud
habit ats</w>
elec toral</w>
2 95</w>
V II
O ut</w>
E ye</w>
CS F</w>
AG R
2 15</w>
some where</w>
re hab
har dly</w>
applic ability</w>
Chair person</w>
tel misartan</w>
reiter ates</w>
lodg e</w>
invo ices</w>
ch ment</w>
all et</w>
un justified</w>
t am
n i</w>
facilit ation</w>
Streng th
r on</w>
mor ph
ev asion</w>
au to
DEF INI
1 10
wat ching</w>
og ens</w>
investig ating</w>
hi de</w>
U. S.</w>
I R</w>
Coun ter
reg ation</w>
pat ches</w>
finan cially</w>
evol ving</w>
T ATION</w>
ter at
rac ing</w>
organ ized</w>
ca us
aer on
te tra
ess ence</w>
em ies</w>
V. Part</w>
qui et</w>
Wor ks</w>
S even</w>
Loc ation</w>
Ecol abel</w>
recurren t</w>
Is land</w>
su its</w>
stup id</w>
se d
promp t</w>
pro v
on ium</w>
om al
no tion</w>
kal aemia</w>
e or
wo oden</w>
est ly</w>
QUANTIT ATIVE</w>
D 6</w>
é s</w>
w ere
ver ifications</w>
sw im
se wing</w>
mo thers</w>
er ative</w>
TER S</w>
F T</w>
shoul der</w>
c us</w>
Sol vency</w>
Re production</w>
Philipp ines</w>
Exper t</w>
8 9
under stand
the ory</w>
gl it
O TC</w>
Iran ian</w>
re paid</w>
ithro mycin</w>
ec tion</w>
comp il
col ouring</w>
bil irub
Si x</w>
Pro sec
G ibr
C u
7 68</w>
venti lation</w>
remedi al</w>
pre paredness</w>
enshr ined</w>
agg age</w>
Dru g</w>
Con train
Be hold</w>
partic le</w>
coag ulation</w>
r umin
ac illus</w>
Gaz a</w>
Fi eld</w>
Deutsch land</w>
T N
quot ed</w>
F on
D r</w>
A zer
lis tening</w>
expi res</w>
Rep air</w>
Cat alogue</w>
&apos; S</w>
Up dated</w>
L ou
Ac tivity</w>
3 13</w>
12 24</w>
u va</w>
REP ORT</w>
G ONAL</w>
EM U</w>
taxpay er</w>
su ited</w>
s now</w>
poli tics</w>
er nal</w>
em en</w>
du s</w>
1 c</w>
sol ving</w>
beau ty</w>
Consum ers</w>
no ea</w>
mon es</w>
TI V
lin en</w>
irregul arity</w>
suspec t</w>
saf er</w>
pe d
op raz
e esc.europa.eu</w>
cas inos</w>
Ph en
O wn</w>
CL IN
mis sibility</w>
gran ules</w>
cor d</w>
ar b
Scot land</w>
6 71</w>
30 7</w>
li ps</w>
est i</w>
assi gn</w>
D PR
sh rimp</w>
orig inate</w>
C ars</w>
Ma j</w>
Corpor ate</w>
pr azole</w>
Aut omatic</w>
pul se</w>
phil osoph
lad en</w>
impro ves</w>
con stipation</w>
Electr icity</w>
s mu
pain ful</w>
lin ide</w>
ban anas</w>
S GEI</w>
K e
Gibr altar</w>
ov ens</w>
conf isc
be it</w>
E arly</w>
at adine</w>
anti hypertensive</w>
Sal monella</w>
AI Ds</w>
2 61</w>
le af</w>
hos ting</w>
hear ts</w>
all ergy</w>
PP P</w>
Consum ption</w>
2. 9</w>
oro dispersible</w>
cigaret tes</w>
Mul ti</w>
vor iconazole</w>
t ories</w>
t are</w>
ri ding</w>
al ists</w>
O PS</w>
Altern atively</w>
trac e</w>
inv asive</w>
im a</w>
fil ing</w>
c on</w>
ang ible</w>
Ver ification</w>
Inter ior</w>
paren tly</w>
DPR K</w>
B ER</w>
ogen ous</w>
o date</w>
emb ol
conv ul
NS AIDs</w>
Contro l
3 A</w>
è re</w>
tricit abine</w>
psy chiatric</w>
gu ards</w>
gen ous</w>
c .
b arg
D IT
3 84</w>
po ds</w>
phthal ate</w>
or i</w>
met ro
ci f</w>
am ines</w>
Rec i
sal ted</w>
ob enz
beg un</w>
accep ts</w>
DO B</w>
p refer</w>
discre pan
cover ings</w>
P F</w>
Int ellectual</w>
Consi dering</w>
2 36</w>
bra kes</w>
Sy mp
Mob ility</w>
M AN</w>
vi d</w>
u .int</w>
enforce able</w>
agg ressive</w>
V AL
Di alogue</w>
m er</w>
fun da
V R</w>
Pow er
P 450</w>
L NG</w>
3. 2005</w>
worl ds</w>
res ale</w>
phys ically</w>
di hydrate</w>
coo k
EE E</w>
Con formity</w>
5 0000</w>
threat en</w>
es tine</w>
consul ar</w>
Tl f</w>
TR A</w>
f ans</w>
effici ents</w>
e ure</w>
be hold</w>
ad ian</w>
accoun table</w>
J ac
ti ers</w>
injur ies</w>
in th</w>
ap or
EI F</w>
AT M</w>
ea e</w>
Parlia mentary</w>
H g</w>
wor n</w>
pel lets</w>
h as
form ations</w>
ear th
sug ars</w>
ri gen
il legally</w>
resili ence</w>
otechn ology</w>
on i</w>
hal er</w>
gl ut
Prepar atory</w>
PRO PER
Azer bai
3 00
wa ste
ti redness</w>
gen otype</w>
ga thering</w>
ab is</w>
a e
S L
3 66</w>
phy tosanitary</w>
iv al
gre y</w>
Represent atives</w>
G ol
20 81</w>
inter faces</w>
RENE WAL</w>
Dri ving</w>
B ack
trav ellers</w>
poly ester</w>
cell ular</w>
bo w</w>
pi x
o ag
Vol vo</w>
Ob lig
H er</w>
5 -</w>
mat ernity</w>
lu gg
guaran tor</w>
gl ory</w>
carcin ogenic</w>
T2 S</w>
ST S</w>
re b
mus ical</w>
law yers</w>
k B</w>
am ins</w>
PROPER TIES</w>
Conver gence</w>
4 21</w>
prosec ution</w>
mobil ised</w>
st ories</w>
m acy</w>
l ens</w>
jec ting</w>
de hydr
m ad
e ira</w>
Writ ten</w>
L en
s ong</w>
mor tal</w>
h me</w>
elim inating</w>
don ation</w>
D anu
ur anium</w>
ear marked</w>
As sets</w>
x il</w>
S et
Emer gency</w>
Counc il
á n
z idovudine</w>
co ach</w>
C 1</w>
Altern ative</w>
21 st</w>
r in</w>
8. 3</w>
se di
rec tang
ot ting</w>
he y</w>
direc tory</w>
dig its</w>
w is
al is</w>
F AO</w>
DV D</w>
ur a</w>
tri fu
rig id</w>
hydro l
distingu ished</w>
Re si
DR C</w>
D R</w>
Cap e</w>
w ax</w>
mic ros
gu ided</w>
cad mium</w>
Th ro
Ch amp
x y</w>
deleg ate</w>
commer cially</w>
ad ver
H ER
Am ster
terri ble</w>
explo ited</w>
dis advantage</w>
Mo dule</w>
pur ities</w>
pri ze</w>
g ears</w>
every day</w>
5 46</w>
what soever</w>
sil k</w>
Organ ic</w>
4 70</w>
bon us</w>
arg o</w>
Rel ated</w>
H R
Danu be</w>
CLIN ICAL</w>
am munition</w>
tran che</w>
foc al</w>
cl er
blu etongue</w>
seaf arers</w>
fluctu ations</w>
Stand ardis
L AND</w>
Are as</w>
sil ent</w>
q q
men tia</w>
draw ings</w>
def erred</w>
ari al</w>
after noon</w>
3 17</w>
b os
Mat erial</w>
erythem a</w>
bir th
n ap
c ic
Com position</w>
CO L</w>
sub headings</w>
att achment</w>
Fl at</w>
2 29</w>
val d</w>
ord ering</w>
nom inated</w>
consi gnee</w>
Z o
Res er
G D</w>
Contrain dications</w>
Co al</w>
str o</w>
s word</w>
in herit
30. 12.2006</w>
10 ,
r ings</w>
hol y</w>
h ang
gal ac
ar row</w>
QUAL IT
re board</w>
micro gram</w>
differen tly</w>
clim atic</w>
ain ting</w>
FP 7</w>
3 72</w>
ac comm
35 9</w>
3 30</w>
circul ating</w>
P la
MEN D
Amster dam</w>
t an</w>
k Pa</w>
en ergies</w>
connec tivity</w>
Re duction</w>
Eng ine
po oled</w>
p. m</w>
maj eure</w>
Ro yal</w>
E A</w>
r ational</w>
plan ted</w>
Sub stances</w>
QUALIT ATIVE</w>
H as</w>
F UR
un clear</w>
person als</w>
gr ace</w>
coordin ates</w>
accomm odate</w>
T op</w>
S port</w>
O DS</w>
H S
slaughter house</w>
or ith
nal ists</w>
im aging</w>
dec lined</w>
at ured</w>
ar ts</w>
Vien na</w>
REF ER
M ylan</w>
In come</w>
G rap
on i
jun c
id ation</w>
cl oud</w>
N N</w>
LT0000 8
Deter mination</w>
CC S</w>
dem anding</w>
bub bles</w>
as y
T ags</w>
G AN
3 12</w>
2 17</w>
regi mens</w>
ophen yl</w>
intr amuscular</w>
19 7</w>
spon sors</w>
mot ors</w>
l ump</w>
en closed</w>
u sion</w>
specif ic
lor atadine</w>
Fur n
EE S</w>
7 4
3 14</w>
η λ</w>
reason ing</w>
b ye</w>
Car bon</w>
stat utes</w>
r hyth
pl ain</w>
assum ing</w>
3 71</w>
tiv e
swe ating</w>
pot ato</w>
not withstanding</w>
S ize</w>
Recommend ations</w>
Industri es</w>
Effec tive</w>
2 32</w>
pain t</w>
di r
TE CH
Ph one</w>
Alt mark</w>
Fron tex</w>
C ast
3 19</w>
b right</w>
alloc ating</w>
Jud ges</w>
E vi
predic table</w>
doub tedly</w>
TIC S</w>
C in
B I</w>
opath ic</w>
judg ement</w>
T T
REV ISION</w>
Mot or</w>
there on</w>
prec ur
can e</w>
Res .</w>
2 45</w>
org e</w>
inval idity</w>
hor mones</w>
Sign ature</w>
High er</w>
Ch er
A part</w>
3 65</w>
str ange</w>
st ad
challeng ing</w>
ba thro
accur ately</w>
ab s</w>
Sing ap
Ligh ting</w>
C ath
10 th</w>
rul ings</w>
road map</w>
pro xim
em bedded</w>
cleans ing</w>
attrac tions</w>
SY STE
IL ITY</w>
weigh ting</w>
paren cy</w>
fit ness</w>
di vor
Tr y</w>
TS Os</w>
For ces</w>
C ô
w agons</w>
dro ps</w>
Char les</w>
3 15</w>
st airs</w>
occa sionally</w>
bi ds</w>
1 A2</w>
otox ic</w>
co efficients</w>
Respon sible</w>
MANUFACTU RE
IC s</w>
vide os</w>
ren ce</w>
es oph
TR AC
s h</w>
pro ves</w>
p ting</w>
em a.europa.eu</w>
Pe ace</w>
Im mun
y alty</w>
tic a</w>
n avi
Trans mission</w>
P ul
G ATT</w>
public ity</w>
cocc us</w>
co in</w>
amp icin</w>
Compl ete</w>
3 31</w>
yl on</w>
trac ks</w>
entr icular</w>
depos ited</w>
DE M</w>
shi re</w>
pr uritus</w>
k ar
Y E
Azerbai jan</w>
AR E</w>
ten ded</w>
re mission</w>
i .
consolid ating</w>
Manufactu rers</w>
Dom estic</w>
D ays</w>
B enz
19 83</w>
sleep ing</w>
positi oning</w>
pig meat</w>
ev ac
deliver ies</w>
Con tribu
volati le</w>
on o</w>
anti gen</w>
I t
F SH</w>
D a
short age</w>
f asting</w>
codi fication</w>
adj uv
Exem ption</w>
pr ises</w>
m amm
keep s</w>
here after</w>
dis pu
Lea ve</w>
HC T</w>
H all</w>
Con tents</w>
to in</w>
sh if
ov al</w>
lad y</w>
bas ically</w>
AG RE
pre hen
he imer</w>
ar in
Trans parency</w>
MR L</w>
A U</w>
35 6</w>
ï ve</w>
o .</w>
den ied</w>
H C</w>
Deb t</w>
jeopardis e</w>
eg ra
Sup ple
Ro ad
Contin ue</w>
th at
sup pression</w>
feder al</w>
d egr
ac avir</w>
T ren
Effici ency</w>
tend ency</w>
os ide</w>
3 10</w>
imple ments</w>
et an
ap ers</w>
---------------- ----------------
lac king</w>
fla kes</w>
col ors</w>
abdom en</w>
Fo rest</w>
m ang
lay out</w>
k et</w>
el i</w>
br ack
ad ec
Norm al</w>
en emies</w>
cor on
Initi ation</w>
Er ror</w>
A Z
prospec tive</w>
prison ers</w>
open ness</w>
Colom bia</w>
B ang
9 66</w>
transfer ase</w>
our al</w>
b aggage</w>
TECH N
REN E</w>
Ad ap
str ap</w>
sour cing</w>
as certain</w>
su icide</w>
stop s</w>
spon sor</w>
presum ed</w>
ord erly</w>
hard ware</w>
tic es</w>
redund ant</w>
pay er</w>
in organic</w>
e ply</w>
wed ding</w>
w rap
di vine</w>
at eness</w>
percep tion</w>
me tr
k Wh</w>
P .</w>
grad ed</w>
Strength ening</w>
Qu estion</w>
OCT s</w>
Ci profloxacin</w>
k el</w>
h ast</w>
Recogn ition</w>
F C</w>
C ali
un ited</w>
g laz
bre ast
antic oag
an onym
TRE AT
GN SS</w>
E O
titu des</w>
res in</w>
r acetam</w>
m ackerel</w>
emerg ed</w>
AE A</w>
2, 6</w>
ter ior</w>
sor ption</w>
descri bing</w>
azol am</w>
anaphy lactic</w>
acc used</w>
POLIC Y</w>
N AT</w>
Mal i</w>
Do hme</w>
Commission ers</w>
ledg e</w>
hosp itals</w>
e in</w>
Per son</w>
deser ve</w>
E MENT</w>
1. 10</w>
а н
sw ift</w>
ov ol
n igh
k r
embry o</w>
Singap ore</w>
5. 7</w>
12 ,
we aring</w>
under p
reiter ated</w>
eti racetam</w>
ech es</w>
13 01</w>
re per
medic ations</w>
gly co
der ive</w>
de ems</w>
U ser</w>
Requi rement</w>
Acad emy</w>
23 77</w>
18 98</w>
sw if
pro vin
m ust
dis placement</w>
Oper ators</w>
N ATIONAL</w>
2 39</w>
19 81</w>
ship ped</w>
qual ities</w>
associ ate</w>
a is</w>
tail ored</w>
hop es</w>
F RE
Exc ep
lo op</w>
dist ress</w>
dish es</w>
app ell
S ard
S G
tic ated</w>
mat ernal</w>
go d
benz oate</w>
ap ple</w>
What ever</w>
S etting</w>
Q T</w>
stre ets</w>
op pose</w>
icon ductor</w>
fer ry</w>
clean ed</w>
P ig
Govern ments</w>
Ben ef
00 7</w>
ten ds</w>
re places</w>
lan ded</w>
fi bro
complement arity</w>
Sem ester</w>
OL O
sk á</w>
oty pes</w>
medi ation</w>
k s
PHAR MA
MF I</w>
An dor
win ning</w>
ut able</w>
decom mission
appe als</w>
5 48</w>
19 64</w>
author s</w>
Mo de</w>
4 01</w>
tol l</w>
gen s</w>
b ac
Shi pping</w>
M iss</w>
F ourth</w>
3. 2006</w>
19 66</w>
weigh ed</w>
s inc
off en
mi gh
hi p</w>
for cement</w>
N T1</w>
J ames</w>
Hep atic</w>
Dru gs</w>
fac to</w>
environ ments</w>
cis platin</w>
Kore an</w>
y cin</w>
v et</w>
id able</w>
endor se</w>
TI ONAL</w>
IB B</w>
Con centr
secon dly</w>
our able</w>
fre sh
det erg
Vis a</w>
TIT U
In compatibilities</w>
COLO GICAL</w>
Ar ts</w>
stear ate</w>
es sively</w>
el e
divi de</w>
tour na
mil li
int .</w>
gre w</w>
ax les</w>
at lantic</w>
Supervis or</w>
Out turn</w>
Georg e</w>
Ex isting</w>
E vent</w>
9. 1</w>
tot ox
sub ordinated</w>
renew ables</w>
l av
aud i</w>
Li ghts</w>
2 87</w>
ocar b
h all</w>
ath ers</w>
28. 2.
o des</w>
juris dic
bi od
Liet uva</w>
Ex ci
on el</w>
it ant</w>
ag en
S ES
Perc ent
En ter</w>
23 71</w>
en rolled</w>
ef s</w>
acc or
CON CER
supervis or</w>
PHARMA COLOGICAL</w>
Harmon ised</w>
C 00
25 9</w>
merg ers</w>
lo ose</w>
h ad
e book</w>
attrac tiveness</w>
ang les</w>
R am
Bur ma</w>
un paid</w>
tri ps</w>
b uses</w>
Install ation</w>
supervis ors</w>
oph osph
mo od</w>
angi oedema</w>
H om
F en
bure au</w>
V el
M r
pers ist</w>
loc ate</w>
is ers</w>
hybri ds</w>
down ward</w>
Th omas</w>
pl ated</w>
p pm</w>
oblig atory</w>
inherit ance</w>
eng aging</w>
conveni ent</w>
con fined</w>
stru gg
ind ents</w>
igh ted</w>
hydrochlor ic</w>
be ach</w>
bas ketball</w>
b .
My int</w>
weap on</w>
sub division</w>
se ating</w>
scal es</w>
s lots</w>
pat ri
im purities</w>
emplo y</w>
an cient</w>
abol ished</w>
B ye</w>
sulphonyl urea</w>
st en</w>
out puts</w>
he ated</w>
grap h</w>
fol der</w>
aw ards</w>
Prim ary</w>
F oc
p ag
o b</w>
low ers</w>
i es
hec tare</w>
glit azone</w>
S AN
bot t
Rec ent</w>
Mi x</w>
Ef avirenz</w>
4 24</w>
transm itting</w>
restaur ant</w>
quot ations</w>
polym er</w>
harv esting</w>
gast ric</w>
eri an</w>
con fron
access ing</w>
Dex ia</w>
CI A</w>
200 00</w>
b age</w>
az z</w>
G I
u ity</w>
Metabol ism</w>
G ly
B EF
movi e</w>
flag ship</w>
dis k</w>
2 19</w>
un c
survi ve</w>
s au
platel ets</w>
hum idity</w>
depos itary</w>
ple a</w>
our ings</w>
dr illing</w>
El derly</w>
r ue</w>
op ens</w>
flo ating</w>
co operated</w>
ch apters</w>
T ub
S ES</w>
L ar
senten ces</w>
f locks</w>
de ar</w>
Rou te</w>
zz le</w>
phy laxis</w>
le ep</w>
fav oured</w>
be ars</w>
SEC URI
Exper ts</w>
En tre
Effec t</w>
CC Ps</w>
Bi g</w>
Afgh an</w>
pneum atic</w>
out line</w>
mir rors</w>
fluor o
co ding</w>
ab und
Sen ior</w>
IN V
Gu ard</w>
Al i</w>
2 75</w>
ro si
re alisation</w>
hypogly caemic</w>
assu red</w>
Stat us</w>
S mart</w>
G ot</w>
13 03</w>
oti de</w>
mark et
M B</w>
19 8</w>
ur ing</w>
trigg ered</w>
psych ological</w>
in door</w>
ic ro
cap s</w>
re ward</w>
fore most</w>
exten ds</w>
de eply</w>
capit a</w>
R P</w>
design ing</w>
countr y
T a
Bab y</w>
s at</w>
bab ies</w>
Proc essing</w>
l or</w>
instal ments</w>
Seri ous</w>
Pl as
Intere sted</w>
C os
BEF ORE</w>
n as</w>
group ed</w>
b all
ar tery</w>
acquis itions</w>
N or</w>
Mar k</w>
G ab
Eng ine</w>
detri ment</w>
Tr affic</w>
Can adian</w>
z o</w>
salic ylic</w>
phenomen a</w>
inc umb
expres sing</w>
egra vir</w>
Fr an
tem plates</w>
al beit</w>
W ow</w>
Aut onom
restric ting</w>
rem emb
measu rable</w>
be dro
PC Bs</w>
4 04</w>
č ius</w>
rad ar</w>
iti sation</w>
flu ids</w>
S QU
E g
Der og
2 27</w>
mon keys</w>
earli est</w>
ag glomer
S audi</w>
S L</w>
OPER ATION</w>
M ur
J RC</w>
G SP</w>
pre requisite</w>
iti onally</w>
acti vis
Bro ad
2 43</w>
sp ouses</w>
pow ders</w>
mem orandum</w>
dupl icate</w>
c umulation</w>
V ia</w>
S TITU
Ref uge
New castle</w>
Al z
vin ey
j ew
arri ving</w>
REFER RED</w>
3 22</w>
2 83</w>
micro biological</w>
de mentia</w>
co inci
boil ers</w>
bloc ked</w>
C P
is ons</w>
av y</w>
Citiz enship</w>
hin der</w>
fum arate</w>
2 84</w>
13 33</w>
reli ed</w>
il ine</w>
ñ a</w>
sugg esting</w>
5 24</w>
rosi glitazone</w>
pen sation</w>
ameth asone</w>
Le ad</w>
L uc
E QU
Andor ra</w>
0, 3</w>
un doubtedly</w>
rough ly</w>
portfol ios</w>
oc ular</w>
at ri
ans opraz
SI RENE</w>
8 6
seiz ure</w>
promo tional</w>
JEC T</w>
Develop ing</w>
pro ving</w>
o therapeutic</w>
lik ewise</w>
consci ous</w>
c enti
auc tions</w>
S anta</w>
Rel ev
O s
N os</w>
L I</w>
2 81</w>
parc el</w>
i a
cal m</w>
an es</w>
ac o</w>
P TION</w>
Ad ult</w>
7. 1999</w>
10 37</w>
mean time</w>
frag ile</w>
en emy</w>
Des tination</w>
scre w</w>
ol ysis</w>
l opinavir</w>
bi an</w>
b ills</w>
appl es</w>
S ac
Pub lish
l as</w>
genu in
dar bepoetin</w>
ap one</w>
CC C</w>
Ac counts</w>
questionnai res</w>
im umab</w>
St orage</w>
F if
know ing</w>
dossi ers</w>
cri p
COM MENTS</w>
0. 001</w>
sz á
gen cies</w>
M it
Cô te</w>
y el
is ot
carc asses</w>
bro mo
4 .</w>
tro pical</w>
t as</w>
go xin</w>
es k
diff ering</w>
GO VER
9 22</w>
hep at
d al
collec tively</w>
Ac ute</w>
tow ns</w>
recre ational</w>
inten tions</w>
g eared</w>
c ups</w>
Kal e
IU U</w>
CC MI</w>
9 50</w>
trans posed</w>
suscep tibility</w>
noti fier</w>
i x</w>
fl at
Administr ator</w>
30 6</w>
warm ing</w>
tor ture</w>
ob sol
e tration</w>
dis missed</w>
h o</w>
fl ash</w>
deb it</w>
Té lé
I Z
Ash ton</w>
9. 2</w>
2 64</w>
electron ics</w>
dis counts</w>
Nob ody</w>
Neder land</w>
Ge ographical</w>
G MES</w>
Expos ure</w>
subs istence</w>
sm ell</w>
pol ar</w>
mis use</w>
metast atic</w>
elev ations</w>
ed ges</w>
approxim ate</w>
Prac tice</w>
N A
Gar den</w>
F estival</w>
Bas el</w>
practic ally</w>
oun ding</w>
mod elling</w>
exec ute</w>
at az
Me dium</w>
H an
Deutsch e</w>
DS M</w>
D ES
ul a</w>
mir ror</w>
deduc tions</w>
S co
P reliminary</w>
Mr s.</w>
E 172</w>
ship building</w>
phy si
it abine</w>
inhib its</w>
bas in</w>
W all</w>
TA KE</w>
legiti macy</w>
is al</w>
in no
in n</w>
Con solid
tro ops</w>
pro du
inv itations</w>
agg ing</w>
rele ases</w>
kilomet res</w>
in ia</w>
alg orith
VE LO
St al
č i
ev es</w>
di etary</w>
dec lining</w>
Vari ous</w>
Belgi que</w>
ъ л
é r
ataz anavir</w>
TO L</w>
15. 6.2011</w>
rehab ilitation</w>
lis pro</w>
habit at</w>
episo de</w>
dur able</w>
dop amine</w>
comp iled</w>
Rev enue</w>
Liet uv
26.6. 1999</w>
е н
oc ean</w>
i x
er to</w>
ch ips</w>
0 s</w>
st eroids</w>
opro xil</w>
dis oproxil</w>
BAN K</w>
rest oring</w>
ot er
expl aining</w>
el and</w>
S ri</w>
ter t</w>
constitu tion</w>
behavi oural</w>
tu b
prece ded</w>
perform ances</w>
o be
con vers
c ows</w>
Sur vey</w>
L aw
In c</w>
psori asis</w>
po ols</w>
nar row
exhaus tive</w>
anti psycho
ad missibility</w>
soldi ers</w>
pass age</w>
or ages</w>
com promised</w>
ca ine</w>
ation s
arti stic</w>
y n</w>
tor ily</w>
jo s</w>
dar k
cop ic</w>
fin ishing</w>
d ication</w>
contin gency</w>
cl ay</w>
Tr ans</w>
15. 12.
emo tional</w>
Tax ation</w>
J ews</w>
wis dom</w>
transl ator</w>
m aps</w>
favor ite</w>
aggreg ates</w>
S s</w>
sh ake</w>
complet eness</w>
R ad
EAG GF</w>
protec tion
piv otal</w>
head lamps</w>
grat eful</w>
ex trap
cont est</w>
bankno te</w>
acr ylate</w>
SO C</w>
Measu rement</w>
Mar tin</w>
pir acy</w>
g loves</w>
appropri ateness</w>
RT P</w>
Chic ago</w>
strai gh
str a
smo ked</w>
ner ve</w>
3 48</w>
0 6
show er</w>
genuin ely</w>
ell o</w>
bl ack
W ing</w>
tin a</w>
ti tration</w>
pl ur
optim ise</w>
mod est</w>
T YP
1. 2.
read s</w>
na ïve</w>
am or
Pharmac eutical</w>
Percent age</w>
Cul tural</w>
ti ans</w>
sur prise</w>
repos itory</w>
regul arity</w>
re tri
col lapse</w>
Kale tra</w>
5. 8</w>
ė s</w>
jour nalists</w>
he ts</w>
distribu te</w>
der ness</w>
ca b</w>
x ia</w>
vir tually</w>
re stored</w>
pot enti
indi genous</w>
ep ine</w>
confid ent</w>
up grade</w>
sub systems</w>
semin ar</w>
pe de
et c.</w>
chlor o</w>
appl iance</w>
I TER</w>
emb olic</w>
conf ers</w>
Rot ter
L a
Deleg ation</w>
rec ession</w>
ic able</w>
Dos age</w>
12 72</w>
v ag
st amp
p est</w>
ic urity</w>
endor sement</w>
buil ds</w>
an tim
V III
Tr ust</w>
O ri
DG s</w>
men u</w>
embol ism</w>
I AEA</w>
E li
Can di
Arab ia</w>
wr ong
propri et
hol es</w>
graph y</w>
adi ol</w>
Priv acy</w>
G RO
E poetin</w>
y me</w>
s oph
en ė</w>
anch orages</w>
S CH
&apos; I
p ile</w>
men to</w>
en th
e tion</w>
curr icul
ble ached</w>
Rotter dam</w>
FUR THER</w>
proxim ity</w>
jud iciary</w>
inter act</w>
ere c
MANUFACT URING</w>
29. 6.
2 73</w>
vit amins</w>
inter institutional</w>
hy cardia</w>
entrepreneur ial</w>
Sam pling</w>
AN IM
ear ned</w>
divi ding</w>
c ils</w>
Enter prises</w>
Con tribution</w>
1 b</w>
mark ings</w>
glycer ol</w>
ep tic</w>
ap pren
ELL ING</w>
C ost</w>
17 66</w>
V C</w>
R ed
Pr ices</w>
Del i
Ch ronic</w>
7 77</w>
2 63</w>
perspec tives</w>
min i</w>
interoper able</w>
ent an</w>
deliv ers</w>
bilirub in</w>
Ro che</w>
K now
BR IS
G reat
7. 4</w>
sw aps</w>
rang ed</w>
er os
N V</w>
Lef t</w>
En forcement</w>
with held</w>
se als</w>
mark er</w>
coron ary</w>
com partments</w>
bro thers</w>
am ate</w>
Ven ez
Mon ey</w>
Inter pre
E stim
tour ists</w>
tis ation</w>
tic us</w>
tax ed</w>
superi or</w>
shap es</w>
respon sive</w>
lugg age</w>
gun s</w>
ex tern
enti onally</w>
ST ATE</w>
Ch un</w>
judg ed</w>
ex er
ali ke</w>
W as</w>
3 44</w>
z es</w>
u sian</w>
min ister</w>
fib rosis</w>
change over</w>
T op
EF SI</w>
C ris
u el</w>
rel ax</w>
oc t
impe de</w>
control lers</w>
ME MO</w>
Legisl ative</w>
In gel
rac es</w>
ment s
in ward</w>
il li
ep ing</w>
consul tative</w>
L AR
4 71</w>
trans porting</w>
pen etration</w>
in oc
differenti ation</w>
d agliptin</w>
BRIS TOL</w>
12 91</w>
un treated</w>
revis ions</w>
con ce
Mad eira</w>
E Q
Con fi
B row
read mission</w>
mat ched</w>
inspec tor</w>
entr ance</w>
a z</w>
T M
SQU IBB</w>
MY ERS</w>
In vented</w>
B B
sca red</w>
pun ishment</w>
pr ay</w>
flav ourings</w>
f estival</w>
eshi ps</w>
child care</w>
as ys</w>
R ub
Coun ty</w>
- 3</w>
poli tically</w>
il a</w>
che aper</w>
ch ocolate</w>
br ine</w>
b low</w>
Sol o
Lik ewise</w>
t ough</w>
h anded</w>
frag mented</w>
fer mented</w>
draw back</w>
D ys
CO UR
v on</w>
jour n
fer ro
con serv
naph tha</w>
monit ors</w>
g on
epilep sy</w>
Un bound</w>
Oc cup
K A</w>
An gel
6 00
ur g</w>
survi v
stac eans</w>
manif est</w>
bl ank</w>
S av
S CO
OR S</w>
Mu tual</w>
tr ic
regen eration</w>
mu sh
W all
S am</w>
oun ce</w>
lif ted</w>
her d</w>
E quality</w>
Bas al</w>
Amaz on</w>
notic ed</w>
import antly</w>
emb ar
an tine</w>
Road map</w>
Multi ple</w>
Gener ally</w>
Ap ple</w>
2 69</w>
nas al</w>
k ill
ind ex
corrid ors</w>
A ar
4 th</w>
trans form</w>
Trans lation</w>
P har
L A
IS T
ES As</w>
8. 5</w>
sho oting</w>
p ac
gl asses</w>
fr aud
distingu ishing</w>
bro ke</w>
be ar
TYP E</w>
Ha qq
Every body</w>
y lox
ultr as
fla x</w>
dre ams</w>
d ay
aeron autical</w>
ab at
Suppl y</w>
C ent
rigen dum</w>
injec ting</w>
anti viral</w>
Provi de</w>
zom ib</w>
up coming</w>
re side</w>
gu iding</w>
ep h</w>
Swe et</w>
Inspec tion</w>
D ating</w>
time frame</w>
run way</w>
rab ies</w>
SU M
AI R</w>
A bra
14 08</w>
ur b
min al</w>
brow ser</w>
G ER
Dis ease</w>
10 0000</w>
pass word</w>
modern ise</w>
j ack</w>
int angible</w>
Some thing</w>
R ail</w>
H un
p ink</w>
orna mental</w>
om on</w>
e h</w>
be ds</w>
Pro motion</w>
P reven
Con tracts</w>
struc k</w>
spo ts</w>
satisfac torily</w>
ro l</w>
predic ted</w>
in activated</w>
detec table</w>
alan ine</w>
Pol ska</w>
practition ers</w>
V ac
Sign ific
Low er</w>
Balk an</w>
A ci
thi az
pand emic</w>
ic am</w>
her bal</w>
ap ost
Cal cium</w>
8 a</w>
comb ed</w>
arm ing</w>
U V</w>
EU POL</w>
1. 2004</w>
Τ ηλ</w>
por cine</w>
an i
Offici als</w>
6 th</w>
exten sively</w>
equ itable</w>
SI s</w>
In ser
5 39</w>
4, 4</w>
un certain</w>
tro ub
su rely</w>
o o</w>
j i
cat chment</w>
ab acavir</w>
TI s</w>
SERV ICES</w>
ON E</w>
Haqq ani</w>
tec h</w>
perm itting</w>
len ec
aph ane</w>
LE MEN
Fail ure</w>
E lev
nat al</w>
f i</w>
dec imal</w>
R ic
E esti</w>
press ants</w>
on in</w>
o on</w>
mil est
dissem inate</w>
aband oned</w>
Su n</w>
Nor dic</w>
LAB EL</w>
Fr ank</w>
Es pa
shi eld</w>
py rid
po oling</w>
peti tion</w>
if ene</w>
M IU</w>
K ur
AM S</w>
3, 3</w>
er arch
comm anded</w>
alter ation</w>
Q T
O M</w>
No .
L PG</w>
Im mune</w>
H ab
o otic</w>
en erg
contracep tive</w>
Ret ail</w>
M other</w>
Y ellow</w>
DO M</w>
Alz heimer</w>
specific ities</w>
ri m</w>
disc ard</w>
co caine</w>
Op tions</w>
Mat erials</w>
E ry
Belar usian</w>
2 67</w>
2 13</w>
birth day</w>
Pl ans</w>
EX PEN
B ah
mer its</w>
lub ric
lu x
ing er</w>
h ang</w>
expl oration</w>
ber t</w>
ab r
EAG F</w>
ri vas
ig e</w>
eter nal</w>
Pol l
Enti ties</w>
n ut</w>
R ental</w>
Im age</w>
H b
UL N</w>
T M</w>
Pre pared</w>
P OR
B N</w>
9. 5</w>
ä r
vis iting</w>
mus eum</w>
hy nch
heal ing</w>
fo g</w>
derog ating</w>
dece ased</w>
ari um</w>
rivas tigmine</w>
ref rac
neutr ality</w>
sched ules</w>
numb ering</w>
mat rix</w>
gh um</w>
cas el
c av
adal afil</w>
7 3
un controlled</w>
u tility</w>
opi oid</w>
j ug
em itted</w>
ang ina</w>
ai ting</w>
UNI TS</w>
H av
under line</w>
in active</w>
gr ave</w>
critic ism</w>
are ly</w>
VE T</w>
SM ALL</w>
Gro unds</w>
Eff icacy</w>
Ath ens</w>
0 20
reserv o
emerg e</w>
to l</w>
reti no
pro t
hed ging</w>
gen us</w>
end ang
claim ing</w>
ch ambers</w>
TARGE T</w>
S NC
Croati an</w>
.. ...</w>
prospec t</w>
dg ing</w>
UNI T</w>
P el
Ex tract</w>
EFFEC TS</w>
Counc ils</w>
Con ven
x yl
prop yl
incre di
hall uc
favour ing</w>
INTE RES
B ay</w>
2 93</w>
v i</w>
th ine</w>
soph is
inspi red</w>
cust om</w>
compil ation</w>
bru cell
Fr anc
25 4</w>
waste water</w>
s on
pl asia</w>
ot age</w>
eor ological</w>
c z
ass ica</w>
B lock</w>
AI N</w>
pro minent</w>
pharmac ological</w>
cyto chrome</w>
Reg ular</w>
Know ledge</w>
Fl av
10 6
undertak es</w>
rif ampicin</w>
hi ves</w>
de pu
avo idable</w>
3 78</w>
thir ty</w>
tack led</w>
antibio tic</w>
Spe ed</w>
Dec re
kid ding</w>
En suring</w>
Doc etaxel</w>
ti ary</w>
th ful</w>
pr iced</w>
ogen ated</w>
mis takes</w>
min ed</w>
fer mentation</w>
expec ts</w>
che stra</w>
T ar
jur y</w>
Pro te
F L
An aly
res ins</w>
posi tively</w>
Jos eph</w>
5 50</w>
trans posing</w>
sim ulation</w>
pollut ant</w>
m i</w>
keto conazole</w>
deep er</w>
RIS K</w>
LAB ELLING</w>
H ouse
F U
sil denafil</w>
rectang ular</w>
fe el
en e
d or</w>
S par
N .</w>
Moham mad</w>
CON CLU
C W</w>
Ad verti
4 93</w>
sup er</w>
migh ty</w>
I so
4. 1.
2 92</w>
2 91</w>
toxic ological</w>
swif tly</w>
clu sters</w>
Y emen</w>
Entre preneur
é e</w>
differen tial</w>
decommission ing</w>
aer os
2 41</w>
vo y
competi tions</w>
char t</w>
antagon ist</w>
Tex tile</w>
SI ONS</w>
REG AR
RE Y
MAR Y</w>
Fro zen</w>
uni ver
ma them
consis ted</w>
29 0
- What</w>
sur render</w>
subsidis ation</w>
p noea</w>
flu shing</w>
dis advantages</w>
der m
clarif ying</w>
agg ed</w>
Tru dex
R .
Prosec utor</w>
Ingel heim</w>
A 1c</w>
5 00
st y</w>
overn ight</w>
in ability</w>
distribu tor</w>
V ar
Observ atory</w>
O w
IC ATION</w>
CON TRO
8 000</w>
1, 0</w>
- You</w>
path ways</w>
frac tures</w>
facilit ates</w>
bin d</w>
Selec tion</w>
Govern or</w>
Go als</w>
F air</w>
Autonom ous</w>
pron ounced</w>
i ers</w>
ch ew
Opti Set</w>
MANUFACTURE R</w>
Incre ase</w>
stoc k
T om</w>
Relev ant</w>
Min isterial</w>
G C</w>
3 41</w>
0 -</w>
ne ph
lo com
it ex</w>
fru c
f ate</w>
cont acted</w>
Pres sure</w>
EUR .1</w>
un stable</w>
t rough</w>
stor m</w>
op or
luc ky</w>
ir rig
Cot on
subs cription</w>
o zone</w>
log ged</w>
os sed</w>
in ned</w>
h at</w>
fi red</w>
Lietuv os</w>
Jos é</w>
Ex cell
to y</w>
s avi
hun ting</w>
amaz epine</w>
Quanti ty</w>
5. 2005</w>
2 82</w>
re purchase</w>
rail ways</w>
protec ts</w>
m m3</w>
iz es</w>
enn ium</w>
U sed</w>
S ound</w>
N AFO</w>
Klai pe
EXPEN DIT
Coton ou</w>
4 000</w>
3 33</w>
vac ant</w>
consign or</w>
E CON
wor ried</w>
w af
tr ated</w>
se c</w>
fores ees</w>
benz ene</w>
ay a</w>
Consul tation</w>
vo ire</w>
un preced
re actor</w>
le an</w>
dol lar</w>
disc over</w>
al idomide</w>
F A</w>
Bre ez
serv icing</w>
sen i
s wee
o eu
conf used</w>
ca ke</w>
Sci ences</w>
Consul tative</w>
Br an
4. 1.1</w>
stabil ise</w>
j ump</w>
gu est</w>
en ant</w>
cylin ders</w>
canc el</w>
WEI GHT</w>
LE X</w>
ec itabine</w>
Sh o
C TION</w>
secre tion</w>
jurisdic tions</w>
hi erarch
commen cement</w>
CYP2 D6</w>
5. 9</w>
ev ing</w>
ee ded</w>
bott lenec
be es</w>
4, 6</w>
ä n
uni fied</w>
mal t</w>
leuk aemia</w>
equ ili
dum my</w>
ap parently</w>
WH ERE
EXPENDIT URE</w>
s ers</w>
parc els</w>
lo zin</w>
gr inding</w>
gluc agon</w>
des k</w>
attribu te</w>
ak a</w>
Pot assium</w>
John son</w>
G ir
te d
sem iconductor</w>
neg atively</w>
los porin</w>
lor d</w>
lif lozin</w>
jack ets</w>
it ories</w>
elec t</w>
aqu inavir</w>
ad ren
R e</w>
EF F</w>
Co R</w>
7 98</w>
multi national</w>
in comes</w>
g p</w>
dis plays</w>
authentic ation</w>
ad der</w>
REY AT
REYAT AZ</w>
Criter ia</w>
C as</w>
с т
win ner</w>
random ized</w>
ot ted</w>
3 16</w>
spon taneous</w>
amen to</w>
vil le</w>
unpreced ented</w>
under signed</w>
thrombo tic</w>
brucell osis</w>
benz yl</w>
ampou le</w>
Peri od</w>
J U
Gall us</w>
Engine ering</w>
Dou ble</w>
00 8</w>
substitu ted</w>
re sume</w>
lo be</w>
electr on</w>
de pl
ECON OM
&apos;I voire</w>
suspen ding</w>
simpl er</w>
ord inate</w>
m apping</w>
ad y
V inc
Trudex a</w>
G ard
Breez haler</w>
ADMINISTR ATIVE</w>
stre ams</w>
pro hibiting</w>
fire arms</w>
dy e</w>
ar ose</w>
UL ES</w>
Mov ement</w>
therap ies</w>
tail ed</w>
ish able</w>
ht ml</w>
deliber ations</w>
b anned</w>
agr i</w>
Mill ennium</w>
y o</w>
su icidal</w>
shap ing</w>
ple asant</w>
fi res</w>
ev o</w>
em tricitabine</w>
conveni ence</w>
consor tium</w>
anticoag ul
a.k. a</w>
Ben e
z ine</w>
tr au
te zomib</w>
restaur ants</w>
ost er
casel aw</w>
Pu gh</w>
Hb A1c</w>
C EL
eth ane</w>
dom ains</w>
bl ades</w>
activ ate</w>
S A
u als</w>
institu te</w>
ge o
com pos
bre vi
astro ph
ag liflozin</w>
H5 N1</w>
lif est
en er</w>
bus y</w>
b n</w>
G li
2 49</w>
pol ysorbate</w>
out set</w>
in consistent</w>
el on</w>
S ettlement</w>
M ethyl</w>
Ex ample</w>
top ical</w>
ob ic</w>
ig no
es es</w>
cat ching</w>
Pop ulation</w>
Au to</w>
0 2.
г ар
rad ical</w>
W in</w>
Th ink</w>
PAR TIES</w>
1 182</w>
less ness</w>
g os
am id
S qu
S ep
reg ret
prov el</w>
break fast</w>
Lo ans</w>
Kar ve
Consi der
A provel</w>
sur ances</w>
pl u
man dates</w>
juven ile</w>
illustr ated</w>
e g</w>
conv ic
alk aline</w>
Peg asys</w>
wav el
trad itionally</w>
tal ent</w>
resol ving</w>
re use</w>
eg ar</w>
dis odium</w>
awar ding</w>
Hy p
4 02</w>
tin es</w>
indic es</w>
he ater</w>
ch ose</w>
and ers</w>
accru ed</w>
Techn ologies</w>
J a
un ning</w>
ir relevant</w>
h eter
distor ted</w>
cit rate</w>
9 6
ring er</w>
main streaming</w>
dec itex</w>
N az
Belgi en</w>
erg er</w>
dram atic</w>
ad apter</w>
ach lor
LIS H
sti n
elecommun ication</w>
e -</w>
divi dend</w>
dimen sional</w>
cy totox
cataly st</w>
az o</w>
accid entally</w>
VOL U
Sk ills</w>
val dy
spar kling</w>
sol vents</w>
dex amethasone</w>
chem istry</w>
F E
ques tioned</w>
hynch us</w>
depend ency</w>
Objec tives</w>
DEN A</w>
C lar
un like</w>
s lic
optim um</w>
n ative</w>
mis sile</w>
imp etus</w>
conver ter</w>
V or
Ru n</w>
Dan i
Agen cies</w>
AN Y</w>
A ST
27. 6.
1. 25</w>
mag ic</w>
Re sid
Phys ical</w>
Great er</w>
st ationary</w>
occa sional</w>
ab uses</w>
Web site</w>
Bo dies</w>
tur keys</w>
pede stri
pa ths</w>
intensi fied</w>
her ring</w>
Wh enever</w>
ъл гар
ro m
revo ke</w>
objec tively</w>
bre eds</w>
um ps</w>
ul ty</w>
regul ator</w>
po o
compar ator</w>
challeng ed</w>
POS SIBLE</w>
N orge</w>
GAR DENA</w>
membran e</w>
kin s</w>
fl ora</w>
Hist ory</w>
H ot</w>
Cla ims</w>
Б ългар
ow ls</w>
k it</w>
di goxin</w>
defin ite</w>
agr ams</w>
adm it</w>
M arg
Govern ance</w>
Dis orders</w>
14. 12.
rol ler</w>
parlia ment</w>
conven ed</w>
au g
L t</w>
Col onel</w>
ha ul</w>
PRODUC TION</w>
IS CED</w>
ü r
p ell
li ked</w>
ent a</w>
def en
Sol omon</w>
Requ est</w>
AR T</w>
sk i
receip ts</w>
land ings</w>
incumb ent</w>
del etion</w>
de em</w>
codi fied</w>
attribu tes</w>
ab u
D ogs</w>
Be ing</w>
3 95</w>
oeu v
migr atory</w>
har b
denom ination</w>
ch icks</w>
W ol
Li abilities</w>
Lan ka</w>
Hol ding</w>
D ATA</w>
reve als</w>
re pay</w>
om at
cyclo hex
cop hen
bu yers</w>
E co
Cer tification</w>
ven ues</w>
S take
E NER
2 44</w>
t ful</w>
contracep tives</w>
affili ated</w>
St age</w>
On cor
Liv ing</w>
sh ut
or ly</w>
malign ancies</w>
go ds</w>
en cry
at um</w>
PRO TE
threat ens</w>
ref using</w>
mur der</w>
TAC s</w>
KING DOM</w>
25 7</w>
prescri bing</w>
itri le</w>
explo iting</w>
cred ited</w>
ci le</w>
ch assis</w>
V IR
Ty re</w>
Sol ar</w>
S eries</w>
S MS</w>
tem ple</w>
techn ic</w>
radio activity</w>
int entionally</w>
in spir
dres sing</w>
d ying</w>
chro mium</w>
certain ties</w>
T an
Oncor hynchus</w>
E lim
C RE
Bal ance</w>
199 0s</w>
v ou
ov ers</w>
om nia</w>
adjust able</w>
Ur ban</w>
PRO GR
Orig inal</w>
sp inal</w>
sh ouldn</w>
e j
Post al</w>
Fre ight</w>
Compar e</w>
Ab u</w>
19 69</w>
sph eres</w>
re new</w>
ic ion</w>
Soci alist</w>
E 171</w>
Amer ic
stri ve</w>
sci ences</w>
fl ags</w>
ammon ia</w>
Rec ital</w>
M anu
Liqui d</w>
I B</w>
succ eeded</w>
reinfor cement</w>
ou stic</w>
origin ator</w>
marg in
is ter
ass ing</w>
ap ped</w>
E vents</w>
CENTR AL</w>
AS I</w>
l atitude</w>
ep tion</w>
di o</w>
Re portable</w>
P UR
H erc
Cop per</w>
mer cy</w>
lim e</w>
em itting</w>
at al</w>
VOLU ME</w>
J obs</w>
Fron t</w>
tran ship</w>
att estation</w>
ash ing</w>
appreci ation</w>
alter ations</w>
Regul ators</w>
R B</w>
A zo
A ye</w>
t ung
gar lic</w>
bud dy</w>
b ė</w>
b acks</w>
C AL
vers a</w>
ur red</w>
mo ther
Télé com</w>
Liv er</w>
GH G</w>
Cho ose</w>
9. 2002</w>
6. 7</w>
mon u
SPECIF IC</w>
Pri ze</w>
Ad am</w>
t elec
res ses</w>
reli eve</w>
pro jection</w>
contem porary</w>
albu m</w>
ac eae</w>
Le ague</w>
DE VELO
AU C
3 35</w>
1 A</w>
step ping</w>
ren dering</w>
phi l</w>
c ure</w>
Se par
S till</w>
Equ al</w>
E ligible</w>
Bre ak
An g
30. 12.
sh an</w>
re plac
pep per</w>
pat ents</w>
ometh yl</w>
in os
C old</w>
vil dagliptin</w>
t une</w>
surpr ised</w>
obsol ete</w>
ind inavir</w>
dispu ted</w>
cop olymer</w>
anal ogues</w>
N ar
prop elled</w>
T ol
Res ource</w>
En larg
f lood</w>
ex pedi
at o
af lu
Sub section</w>
P ull</w>
Maur it
K no
J an</w>
7 65</w>
sp ices</w>
sign atures</w>
li b
feel ings</w>
G R</w>
D aily</w>
22.12. 2009</w>
res or
agon ist</w>
Com pati
BER EC</w>
3 76</w>
0 30</w>
h ose</w>
cy an
ag us</w>
V A
T esting</w>
Measu ring</w>
susp icion</w>
po ker</w>
hon ourable</w>
en do</w>
an ical</w>
administr ators</w>
Pharmac euticals</w>
Collec tion</w>
y t
ver t</w>
rh osis</w>
Sur name</w>
Cop y</w>
Adv anced</w>
í a</w>
utilis ed</w>
pro phylaxis</w>
pen sion
ici ally</w>
gar ments</w>
f .</w>
ea u</w>
dr um</w>
Sol vent</w>
PROGR AM
F s</w>
it ol</w>
hot els</w>
fil tration</w>
ch ances</w>
brief ly</w>
T elecommunications</w>
CYP 1A2</w>
C li
step ped</w>
rumin ants</w>
par in</w>
off s</w>
as a</w>
SUM MARY</w>
3 b</w>
sw allowed</w>
des c
Non etheless</w>
H T
Bl ack
peg interferon</w>
ox o</w>
orm on</w>
her ds</w>
gr aft</w>
dis placed</w>
ad e
Particip ating</w>
CO DE</w>
yiel ds</w>
vulner ability</w>
vis ually</w>
poo rest</w>
pharmac odynamic</w>
M SC
In dependent</w>
8 52</w>
up stream</w>
ro bo
rel la</w>
purchas er</w>
lif ts</w>
gu t</w>
enrich ment</w>
ar ded</w>
an ce
Neo Rec
ste ad
modi fying</w>
intern ally</w>
impl ant
ill in</w>
dur ability</w>
cann abis</w>
am ble</w>
UR AL</w>
2 O</w>
2 85</w>
1. 11.
navi g
il es</w>
commen ce</w>
at en</w>
Res piratory</w>
EC O</w>
th ick</w>
par ks</w>
out let</w>
in coming</w>
experi ments</w>
chec k
asi l</w>
Pat ent</w>
N om
10. 2012</w>
olog ous</w>
inval id</w>
glu cur
gen ic</w>
form erly</w>
boil er</w>
T aj
Pass enger</w>
A venue</w>
ver tically</w>
u k</w>
tin s</w>
d owns</w>
complain ants</w>
bl adder</w>
acqu ain
Prepar ations</w>
Che ap</w>
sor ting</w>
od a</w>
la sts</w>
exha ustion</w>
distinc tive</w>
ch airs</w>
br ush</w>
arre sted</w>
ad ata</w>
W ater
P ir
NO S</w>
ARE A</w>
sophis ticated</w>
omen tum</w>
justif ying</w>
is tical</w>
absor b</w>
Prin ting</w>
Al most</w>
str aw</w>
pheny toin</w>
man ually</w>
le ment</w>
fac ial</w>
competi tor</w>
col later
Sup porting</w>
Pl anning</w>
PC R</w>
D ro
Cre ate</w>
CER TI
B L
6 000</w>
3 45</w>
veri fier</w>
swit ches</w>
rig orous</w>
presum ption</w>
neg lec
lymph oma</w>
ic on</w>
collabor ative</w>
Y ar
C 3</w>
B ad
8. 4</w>
ul ent</w>
inst ability</w>
formul ae</w>
flex icurity</w>
doc k</w>
del ighted</w>
Wh e
trans formed</w>
Rom â
Fun ding</w>
Dan mark</w>
szá g</w>
im atinib</w>
diox in</w>
barg aining</w>
6. 8</w>
5 49</w>
yar ns</w>
th el
t ance</w>
regre ts</w>
mm Hg</w>
cru staceans</w>
contrad ic
ari ans</w>
aci ón</w>
SU R
Pub lication</w>
Ne u
Lo oking</w>
Ch ick
2 88</w>
w rought</w>
o ever</w>
min isterial</w>
consul tancy</w>
WHERE AS</w>
thal ene</w>
monopol y</w>
mil led</w>
im id
exclu des</w>
Supple mentary</w>
Su cc
PER S
L au
Fl ash</w>
B il
represent ations</w>
propag ating</w>
inter cultural</w>
coun cil</w>
con duci
compres sed</w>
ati ngs</w>
E asy</w>
0, 05</w>
stat ute</w>
ru ps</w>
pe el</w>
l au
clo ts</w>
Ri o</w>
3 36</w>
&apos; Article</w>
numb ered</w>
li ed</w>
cre atures</w>
In fl
3 62</w>
2 72</w>
wor rying</w>
st al
phys icians</w>
in ic</w>
fruc tose</w>
R ever
PE RI
NO K</w>
CER A</w>
trans pose</w>
sol es</w>
mil ling</w>
li tig
hem p</w>
g em
STE CF</w>
Inser t</w>
CI F</w>
Българ ия</w>
ul cer
sacrif ice</w>
pr an
g ifts</w>
e z</w>
S ay</w>
Multi annual</w>
MIR CERA</w>
19 24</w>
simil arly</w>
sear ching</w>
re valuation</w>
im poses</w>
REGAR DING</w>
en doc
el eration</w>
cir rhosis</w>
ac onazole</w>
RE X</w>
Pro file</w>
G y
CYP2C 9</w>
Applic able</w>
9. 2006</w>
13 80</w>
serv ic
mer ch
justi fies</w>
i one</w>
h l</w>
emplo ying</w>
conduci ve</w>
co ats</w>
Lo an</w>
In traven
seam less</w>
sanc tion</w>
h ides</w>
child bearing</w>
adi ene</w>
W at
Op portun
n ity</w>
min ced</w>
after wards</w>
Br and
plo t</w>
int ent</w>
corrid or</w>
P M
un avir</w>
se y</w>
ou tw
motiv ated</w>
fin gers</w>
down turn</w>
cor ner
cl otting</w>
Pi er
N ex
DEVELO P
C lo
3 90</w>
tr ine</w>
ph asing</w>
pen dic
man oeuv
ev ir
de ple
Symp toms</w>
STOR E</w>
Col umn</w>
BA S
B lis
4 15</w>
su stain</w>
slud ge</w>
idis m</w>
fair ness</w>
exten sions</w>
arin ux</w>
K G</w>
AD V
tac hycardia</w>
stabil ised</w>
s mar
ol ab
her self</w>
et o
cophen olate</w>
Reas ons</w>
Hon ey</w>
mut ations</w>
meth ane</w>
isol ates</w>
hy dri
harmon ising</w>
f loo
enth usi
ell ular</w>
TS E</w>
N y
G T</w>
mid st</w>
manag es</w>
con current</w>
cic losporin</w>
c ef
Mo z
Egy p
Comb ination</w>
Cas ino</w>
7 26</w>
25 00</w>
week end</w>
un certainties</w>
ol ol</w>
ati ne</w>
WOR K</w>
Rel ease</w>
4 79</w>
g um</w>
Evi dence</w>
ion ship</w>
bic ycle</w>
Th era</w>
R an
O P</w>
Nov o</w>
Mach ines</w>
J am
D addy</w>
Compu ter</w>
APPLIC ATION</w>
strugg le</w>
off spring</w>
li po
gr and</w>
for a</w>
em at
dissem inated</w>
an ted</w>
Ter r
S ah
y li
per pendic
liber ty</w>
high lighting</w>
expres ses</w>
compu ting</w>
O 2</w>
IS TA</w>
9 4
ne ar
k top</w>
horiz on</w>
h ran</w>
ec o
B ol
ter tiary</w>
le z</w>
Re g</w>
P rec
NR As</w>
M oun
E B
6. 2004</w>
uni form
fish ed</w>
appen dix</w>
16 98</w>
. 3</w>
vis ional</w>
savi valdy
m omentum</w>
less on</w>
dem arc
dap arinux</w>
carcin ogenicity</w>
advant ageous</w>
Rob ert</w>
Power ball</w>
Lit tle</w>
on ide</w>
hu a</w>
earth qu
d z
am ics</w>
Tr ac
Me ans</w>
1. 11</w>
tun nel</w>
or szág</w>
cat al
cab in
Lic ence</w>
L C</w>
Azo res</w>
7 8
tr ap</w>
small est</w>
en c
do z</w>
derm atitis</w>
TV 2</w>
T OR</w>
L eu
[...]
