#version: 0.2
a n
a n</w>
e r
e n
a k
an g</w>
l a
d a
k a
y a</w>
i n
e m
m en
t a
u n
k an</w>
s e
a r
i t
b a
y ang</w>
p a
d i
s a
b er
t i
k u</w>
la h</w>
d a</w>
g a
ak an</w>
k e
d i</w>
p a</w>
p er
t u
n ya</w>
k a</w>
m a
da k</w>
h a
@ -
@- @</w>
l i
b i
m u</w>
m em
o r
ak u</w>
b u
A ku</w>
it u</w>
an g
s u
d an</w>
in i</w>
K a
s i
j a
ti dak</w>
en g
m er
ka u</w>
. .</w>
a h</w>
a pa</w>
e l
t er
s a</w>
e ka</w>
t u</w>
or ang</w>
r i</w>
o t
i n</w>
it a</w>
t i</w>
men g
ta h
in g
mer eka</w>
tu k</w>
. ..</w>
t e
an ya</w>
d eng
k u
q u
i a</w>
un tuk</w>
qu ot
quot ;</w>
& quot;</w>
g i</w>
h ar
d u
m a</w>
y a
un g
b e
m i</w>
o n
l e
a p
Ka u</w>
an a</w>
p u
deng an</w>
a t</w>
di a</w>
em u
da ri</w>
k ita</w>
u s</w>
a da</w>
a r</w>
A n
S e
k i
h i
ak u
pa da</w>
l u
bi sa</w>
i k</w>
la m</w>
tah u</w>
r a
k e</w>
j u
pa t</w>
t a</w>
g a</w>
an nya</w>
b en
i m
r u
s i</w>
ka r
ta k</w>
An da</w>
A pa</w>
l i</w>
m e
a k</w>
a da
j a</w>
l u</w>
r i
B a
ang an</w>
D ia</w>
da h</w>
T i
D an</w>
ja di</w>
ada lah</w>
p i
ar a</w>
p en
a m
ha t</w>
p e
Ti dak</w>
aku kan</w>
men y
t ang</w>
I n
h an</w>
da lam</w>
w a</w>
in ya</w>
ka mu</w>
li an</w>
te lah</w>
m el
S a
ba ik</w>
sa ya</w>
m u
t an</w>
t em
o s
men ga
a ta
in g</w>
har us</w>
w a
i ka</w>
s ini</w>
per ti</w>
g u
b an
M a
un ya</w>
g i
Y a</w>
A l
o n</w>
p i</w>
l a</w>
sa ja</w>
k em
ka mi</w>
l an</w>
su dah</w>
ka lian</w>
a l</w>
s emu
ing in</w>
ben ar</w>
t en
In i</w>
li hat</w>
d e
ke pada</w>
s en
c u
k er
se perti</w>
si h</w>
r a</w>
un g</w>
t akan</w>
i k
im ana</w>
Ka mi</w>
ga t</w>
Al lah</w>
el u
en a</w>
h kan</w>
ar i</w>
c a
kar ang</w>
bi h</w>
su a
an mu</w>
J a
l ang</w>
ap os
apos ;</w>
& apos;</w>
la gi</w>
m ak
h u
I tu</w>
tah u
ta pi</w>
la lu</w>
c ara</w>
t kan</w>
per gi</w>
o l
ak ah</w>
mem bu
ap i</w>
u h</w>
semu a</w>
da pat</w>
h anya</w>
ga imana</w>
h nya</w>
er i
le bih</w>
l akukan</w>
s an
en ga
k annya</w>
K ita</w>
r e
ha l</w>
di ri</w>
pu n</w>
on g</w>
b un
sua tu</w>
ung k
i s
se orang</w>
b o
i li
men c
p unya</w>
T api</w>
A y
M er
ber i
b ar
s an</w>
o m
s em
pi ki
T u
t an
a p</w>
ungk in</w>
O h</w>
har i</w>
ba h
sa ma</w>
se ba
Mer eka</w>
S i
bu kan</w>
sa tu</w>
ka li</w>
per n
j ika</w>
a s
k an
ata u</w>
g u</w>
le h</w>
ung gu
ya k</w>
kar ena</w>
P er
d ang</w>
p an</w>
men jadi</w>
p em
Sa ya</w>
m pa
san gat</w>
la in</w>
ma t</w>
ju ga</w>
an ak</w>
b elu
bah wa</w>
sa lah</w>
n a
b a</w>
H e
se karang</w>
hi du
K e
k i</w>
kem ba
ar kan</w>
t nya</w>
ing ga
pern ah</w>
B er
e la
ke lu
pa d
r o
ka h</w>
mem ba
d o
piki r</w>
da tang</w>
s unggu
s ana</w>
se suatu</w>
m an
kemba li</w>
Ja di</w>
bi l</w>
w ak
sa r</w>
A p
i t</w>
ma u</w>
ten tang</w>
ban yak</w>
me lihat</w>
k o
se bu
k en
a l
mel akukan</w>
Ap akah</w>
m ana</w>
i s</w>
i l
a sa</w>
ga i</w>
h e
la u</w>
y ak
an ta
g itu</w>
J angan</w>
ber apa</w>
p eng
du a</w>
K u
ka t</w>
mem ili
enga r</w>
p o
ter jadi</w>
B u
r an</w>
sa at</w>
h en
ka sih</w>
t o
belu m</w>
pa s
ak hi
m an</w>
Ba gaimana</w>
J ika</w>
eri ma</w>
t ak
g er
m ungkin</w>
tem pat</w>
si a</w>
h an
be gitu</w>
o leh</w>
wak tu</w>
ma ti</w>
0 0
an j
c i
ka ta</w>
la ma</w>
A da</w>
bi lang</w>
l kan</w>
ba t</w>
S u
tahu n</w>
ti ka</w>
in ta
N ya</w>
g us</w>
s er
in ta</w>
a t
d it
u s
sunggu hnya</w>
membu at</w>
da pa
m o
c e
i kan</w>
i r</w>
men u
ja lan</w>
te r</w>
Ay o</w>
a i</w>
u n</w>
ung gu</w>
M ak
b ang
e n</w>
t ang
su k</w>
sen diri</w>
be sar</w>
l an
me la
a pa
ar an</w>
bi cara</w>
mem beri
h a</w>
t inya</w>
a s</w>
memili ki</w>
pa da
an ku</w>
bun uh</w>
s o
ta r</w>
ma sih</w>
ata s</w>
ba h</w>
g un
M en
r kan</w>
se kali</w>
ma lam</w>
He i</w>
ik lah</w>
si apa</w>
se dang</w>
B i
ma h</w>
b u</w>
di an</w>
ti kan</w>
L a
d un
sa mpa
u m</w>
la i</w>
d engar</w>
bar u</w>
w an</w>
ba gi</w>
men emu
ak i</w>
Y ang</w>
hidu p</w>
l ang
men ja
a f</w>
seba gai</w>
ma suk</w>
mem per
Tu han</w>
on g
su d
kelu ar</w>
K en
menga takan</w>
T erima</w>
tu h</w>
el e
ka takan</w>
be berapa</w>
M u
R a
D i</w>
meng u
ar nya</w>
Ka mu</w>
men dapa
Ba iklah</w>
ha m
n e
u sia</w>
a ya
pada mu</w>
di ri
ba gaimana</w>
L i
ingga l</w>
D i
r ang</w>
meng e
se di
a y
l o
pad aku</w>
an da</w>
ka lau</w>
ber i</w>
mak a</w>
ra sa</w>
c o
akhi r</w>
sampa i</w>
un ju
a tan</w>
li ha
p ak
la m
ki t</w>
T ak</w>
gi an</w>
sebu ah</w>
meny e
a ga
Y e
ha da
emu dian</w>
Se karang</w>
L e
m bil</w>
ung an</w>
per lu</w>
& #
&# 9
ke tika</w>
D a
b el
ca ya</w>
s kan</w>
B e
in kan</w>
ker ja</w>
a m</w>
a sa
i ku
K ar
ru mah</w>
Ken apa</w>
e r</w>
ti ap</w>
T er
s t
ta ma</w>
i r
bu at</w>
meng er
T en
Si apa</w>
T e
i an</w>
ba gus</w>
S emu
ber u
dun ia</w>
w an
p r
l ing</w>
ber ada</w>
se lalu</w>
c ar
y g</w>
ber kata</w>
O ke</w>
ang kan</w>
ku p</w>
ol ong</w>
mendapa tkan</w>
ma salah</w>
a la
i ki
c k</w>
an lah</w>
h mu</w>
B en
j angan</w>
k kan</w>
aku kannya</w>
c i</w>
ba r</w>
ber sama</w>
ot a</w>
U n
pad anya</w>
man usia</w>
se ben
ru k</w>
Kar ena</w>
ta p</w>
t anya</w>
d ak
un tu
tahu i</w>
tem an</w>
s ak
ha si
M enga
per caya</w>
di sini</w>
h ku</w>
mel akukannya</w>
su ka</w>
M ungkin</w>
e l</w>
pas ti</w>
ha ti</w>
n ya
Se sungguhnya</w>
la mat</w>
t unya</w>
j u</w>
j ela
sedi kit</w>
p an
it u
t aku
em ba
h ing
e s
i mu</w>
da ri
n a</w>
ru h</w>
ar ah</w>
k on
t inggal</w>
h o
m i
da ra</w>
m in
tem u</w>
mem ban
d er
anta ra</w>
r u</w>
ci l</w>
menemu kan</w>
d e</w>
sa la
menga mbil</w>
ba ha
p in
t mu</w>
ta s</w>
o lah</w>
mu lai</w>
m akan</w>
o r</w>
se belum</w>
hing ga</w>
da r
am an</w>
men ya
an an</w>
im an</w>
N a
du r</w>
menger ti</w>
h i</w>
di s</w>
lu ar</w>
ke cil</w>
du k</w>
semu anya</w>
wan ita</w>
Menga pa</w>
H anya</w>
cu kup</w>
ang ka
p un
m nya</w>
se ga
b i</w>
be kerja</w>
mer asa</w>
meng en
meny u
Ye ah</w>
O rang</w>
c a</w>
o ba</w>
ja m</w>
yak in</w>
bu ruk</w>
ber pikir</w>
mem u
untu k
r an
e t</w>
c er
k emudian</w>
mem bunuh</w>
ber temu</w>
p ara</w>
se telah</w>
n i</w>
Ma af</w>
ba hkan</w>
Ba ik</w>
se seorang</w>
hen ti</w>
z a
mem a
h e</w>
apa pun</w>
ter i
d em
k anmu</w>
j i
ingga lkan</w>
h on</w>
ja k</w>
ta u</w>
ap akah</w>
M ar
a f
j anj
te tap</w>
b in
an ti</w>
ti k</w>
memba wa</w>
na ma</w>
0 0</w>
Ay ah</w>
Mak a</w>
ce pat</w>
P en
us nya</w>
pr ia</w>
Un tuk</w>
mak sud
tak kan</w>
mel e
b ak
y o
b ang</w>
bun u
hada p</w>
se lama</w>
t ing
e k</w>
menc ari</w>
se tiap</w>
l nya</w>
a an</w>
ter lalu</w>
gun akan</w>
me liha
a si</w>
r un
per tama</w>
D eng
T unggu</w>
r at</w>
Ma ha</w>
Semu a</w>
sen ang</w>
k ota</w>
w ah</w>
kelu ar
tan pa</w>
i c
i lah</w>
m p
T a
ta r
M em
mem beri</w>
s y
in gat</w>
u ang</w>
se sungguhnya</w>
taku t</w>
in d
- -</w>
in ga
P ak</w>
P e
r en
Ka lian</w>
li s</w>
t angan</w>
p ro
kan lah</w>
ta m
pe la
t ing</w>
ker ja
u sa
La lu</w>
ang gi
ber iman</w>
t lah</w>
har usnya</w>
ja uh</w>
Ten tu</w>
ter hadap</w>
s ta
ke ku
in an</w>
ka f
su s</w>
v i
memberi kan</w>
an i</w>
l aki</w>
p ar
menc oba</w>
u ru
sebu t</w>
ba gian</w>
M e
tu an</w>
He y</w>
p akan</w>
n i
D e
b an</w>
ya itu</w>
M eng
r nya</w>
pa ling</w>
m ili
bi arkan</w>
p on</w>
Li hat</w>
y i</w>
Bu kan</w>
to r</w>
ja r</w>
k ha
la s</w>
bu tuh</w>
H ar
hasi l</w>
yak ni</w>
pen y
t unju
su l</w>
hu b
ing an</w>
l e</w>
ga dis</w>
Su dah</w>
a lan</w>
c an
a ir</w>
ba wah</w>
ken apa</w>
ak a</w>
Se lamat</w>
ta ra</w>
R o
r inya</w>
g e
ti ga</w>
is t
li t</w>
J o
l em
m pu
ti dur</w>
si ap</w>
meny er
bi asa</w>
aga r</w>
a h
tu hkan</w>
e s</w>
ber bicara</w>
L u
deng anmu</w>
Mak sud
li si</w>
ma in</w>
c H
w at</w>
de pan</w>
men dengar</w>
menge tahui</w>
har ap</w>
bo leh</w>
se lu
diri mu</w>
1 ;</w>
&#9 1;</w>
m inta</w>
u t</w>
e h</w>
3 ;</w>
&#9 3;</w>
ger a</w>
w ar
I bu</w>
Se perti</w>
bu mi</w>
ing inkan</w>
ti an</w>
pen ga
gi la</w>
ti r</w>
Ka lau</w>
inta h</w>
t ung</w>
sega la</w>
in nya</w>
seben arnya</w>
D u
e k
te tapi</w>
hu ku
si k
pi r</w>
i ka
a li</w>
B o
ang nya</w>
di kan</w>
se cara</w>
aya t</w>
Y ah</w>
E n
ke pa
a li
pe kerja
l angan</w>
tu s</w>
du lu</w>
Deng an</w>
ong an</w>
H al
ter us</w>
t on</w>
or ma
tu a</w>
beri kan</w>
men dapat</w>
H ai</w>
ma ta</w>
ga h</w>
bi la</w>
ap kan</w>
anj ang</w>
hidu p
in a</w>
wa b</w>
m bu
ya i</w>
memban tu</w>
kaf ir</w>
ar ti</w>
i l</w>
pu la</w>
bi car
c inta</w>
Ben ar</w>
sa u
bu ku</w>
meng i
P a
g an
han cu
M ari</w>
di per
ber henti</w>
itu lah</w>
ter lihat</w>
ar tinya</w>
ma af</w>
du duk</w>
se le
sak it</w>
pu lang</w>
m un
R e
ta an</w>
em pu
se gera</w>
iku t</w>
s on</w>
ga s</w>
D engar</w>
a di
belu mnya</w>
kha wa
a lah</w>
pa i</w>
ter akhir</w>
ja lan
per bu
k om
T olong</w>
a tnya</w>
A kan</w>
de kat</w>
bo do
ha k</w>
k un
se hingga</w>
ti ba</w>
si si</w>
B ar
bu k
ca m</w>
bu lan</w>
ma sa</w>
bel ak
ya an</w>
i ku</w>
meng ha
membu at
ti dak
ke padamu</w>
teri ma</w>
o k</w>
Ba gus</w>
sa yang</w>
li k</w>
mem er
u r</w>
selu ruh</w>
mo bil</w>
f a
t emu
tu p</w>
ba ik
kan ku</w>
s nya</w>
mem ak
men inggalkan</w>
Ay olah</w>
ke ben
k nya</w>
af kan</w>
c e</w>
j ar
cu ali</w>
se ki
la innya</w>
sele sa
sunggu h</w>
dari pada</w>
pa k</w>
ber hasil</w>
pen ting</w>
menu ru
menga pa</w>
hi r</w>
S am
n er
bo h
t ku</w>
A N</w>
ang ga
ha i</w>
g o
r y</w>
sa h</w>
mem bunu
j en
ke hi
nya ta</w>
di ba
per tinya</w>
ya r</w>
sen ja
C e
I s
ela ma
asa an</w>
f al</w>
tu lah</w>
v e</w>
za b</w>
pa tan</w>
I a</w>
ma s
tan da</w>
Hal o</w>
Ku rasa</w>
menc inta
ba k</w>
J u
ber dua</w>
la hkan</w>
S an
j akan</w>
ay ah</w>
D imana</w>
an ak
pe du
se harusnya</w>
mem ang</w>
men ar
mer u
ba han</w>
H a
i p
jela s</w>
se belumnya</w>
da r</w>
men unju
hi lang</w>
bu ah</w>
keluar ga</w>
men deng
ya lah</w>
meny en
o ke</w>
meliha tnya</w>
Maksud ku</w>
c ana</w>
ke se
ker as</w>
ber sa
pi li
kem a
janj i</w>
bodo h</w>
p el
po lisi</w>
ner aka</w>
y akan</w>
ki ra</w>
P u
em pat</w>
tu r</w>
pa gi</w>
ele pon</w>
p anjang</w>
kehi langan</w>
pekerja an</w>
ang g
ber arti</w>
K em
a zab</w>
ber jalan</w>
f f
men unggu</w>
li kan</w>
ke ada
a ja
A tau</w>
run kan</w>
h er
hidu pan</w>
a wa
i kat</w>
menyu ka
S em
ma r</w>
n am
Ke tika</w>
meny elama
ten gah</w>
N e
ke ja
ku at</w>
Sa at</w>
lu i</w>
untuk mu</w>
b kan</w>
sa tunya</w>
su d</w>
ha m</w>
a d
ap an</w>
do sa</w>
ju m
Tu an</w>
l y</w>
n anti</w>
a mat</w>
si s
ol o
f s
cH 00
di mana</w>
ger ak</w>
per tan
bang un</w>
ten tu</w>
S en
ing gu</w>
b ung</w>
tu ju
mo hon</w>
t r
j i</w>
bi s
mem ber
t e</w>
I tulah</w>
ke dua</w>
ka p</w>
men a
ri m</w>
an d
lang it</w>
ter sebut</w>
min um</w>
pedu li</w>
ter baik</w>
tah an</w>
la fal</w>
ka s</w>
ber tanya</w>
meng gunakan</w>
p on
se ko
khawa tir</w>
ken al</w>
pa ya</w>
pun yai</w>
i bu</w>
B eri
keben aran</w>
A r
ra sul</w>
mem inta</w>
dit u
ta di</w>
H al</w>
be ba
p or
iku ti</w>
huku m</w>
k ak
su r
di rinya</w>
buk ti</w>
so k</w>
ka u
m e</w>
Sa tu</w>
t o</w>
seben tar</w>
el l</w>
an c
ti f</w>
he bat</w>
mem punyai</w>
ting gi</w>
g ela
ke hidupan</w>
men it</w>
o o
be da</w>
la k</w>
im p
perbu atan</w>
men du
ik sa</w>
b r
P em
k os
B an
mak sud</w>
t he</w>
K emudian</w>
da tang
si kan</w>
bu t</w>
selesa i</w>
Ka takan</w>
g en
ru n</w>
o w</w>
N am
K u</w>
ke sem
F F
t unggu</w>
Na bi</w>
Si al</w>
te pat</w>
H en
g ra
seki tar</w>
am bil</w>
meny ak
tunju k</w>
m in</w>
per ang</w>
ba ikan</w>
an eh</w>
j e
belak ang</w>
bu k</w>
senja ta</w>
t ra
li a</w>
bar ang</w>
ta b</w>
C u
meny em
T n</w>
pin tu</w>
mem e
ku r
ke ber
ke padanya</w>
ala san</w>
bicar akan</w>
pas kan</w>
jalan an</w>
g ara</w>
g ang</w>
ga l</w>
menunju kkan</w>
g ang
ri s</w>
pe tunjuk</w>
s in
ti h</w>
mu dah</w>
P o
iki an</w>
te n</w>
Ce pat</w>
kan kah</w>
seko lah</w>
m m</w>
bu r</w>
be la
ke cuali</w>
ja tuh</w>
k or
P ada</w>
men erima</w>
ber gerak</w>
meng h
ba la
ber main</w>
mi si</w>
d y</w>
se lain</w>
dar ah</w>
pen uh</w>
men i
c h</w>
ba gi
di lakukan</w>
as akan</w>
ma la
is ti
y e
- -
angka p</w>
keada an</w>
s eri
. ...</w>
ang kat</w>
men cu
mela lui</w>
Semu anya</w>
so al</w>
on a</w>
tu gas</w>
K i
ber buat</w>
sem a
tan ah</w>
ta mu</w>
N ah</w>
tu bu
j ak
ti s</w>
anggi l</w>
a ma
per intah</w>
it an</w>
p anta
si k</w>
Ma afkan</w>
c ari</w>
ber beda</w>
Sa yang</w>
te k
d en
s ta</w>
K elu
di sana</w>
Te tapi</w>
ser ta</w>
men em
men e
l akan</w>
Bi sa</w>
C ar
ham pir</w>
emba k</w>
D o
s ung</w>
ha la</w>
D ari</w>
da lam
meng hen
a g
su lit</w>
M o
kesem patan</w>
la r</w>
C an
v er
boh ong</w>
c el
su paya</w>
m y</w>
ke sala
pa s</w>
c k
kepa la</w>
ga m
ba wa</w>
R u
da ra
Se telah</w>
l o</w>
deng annya</w>
P as
Y a
1 0</w>
dem ikian</w>
s ar
tu kan</w>
l anya</w>
co ba</w>
menar ik</w>
ja hat</w>
r us</w>
hub ungan</w>
beru bah</w>
in f
A h</w>
mu su
f f</w>
ing ka
ham ba</w>
ke du
pe r</w>
in dah</w>
memberi tahu</w>
Per gi</w>
u mu
ang anlah</w>
8 0</w>
tu san</w>
M i
A ya
ber akhir</w>
mak anan</w>
pu t
maksud nya</w>
cu ma</w>
p ri
L o
menyelama tkan</w>
in e</w>
ak i
f n
y ah</w>
f il
Da lam</w>
ay o</w>
sur ga</w>
wa ja
T o
yo u</w>
bu ka</w>
mem bel
g em
pa l</w>
ta h</w>
Se ben
Men uru
T U
b y</w>
lu k</w>
ra s
Sam pai</w>
An ak</w>
n y</w>
si alan</w>
si r</w>
t el
lu kan</w>
me n</w>
ka um</w>
A mer
mala ikat</w>
la ri</w>
C h
si n</w>
dem i</w>
men ang
lang sung</w>
B is
y u
da hu
meru pakan</w>
dalam nya</w>
bu r
g h
Se ba
gi lah</w>
t un
ak annya</w>
g g
ku l</w>
su ara</w>
C o
kos ong</w>
po k</w>
l om
Ber apa</w>
a hkan</w>
sa ha</w>
ja ga</w>
deng anku</w>
l ing
k ter</w>
menc ip
jela skan</w>
A sta
am pu
ka wan</w>
ar kah</w>
seba gian</w>
pen u
G u
t kannya</w>
p kan</w>
t olong</w>
ben tuk</w>
meng ikuti</w>
se lamat</w>
f i
sa t</w>
h luk</w>
mem biarkan</w>
ger i</w>
menu ju</w>
g ar
ha ti
an kan</w>
akhi rnya</w>
Asta ga</w>
ka bar</w>
ta si</w>
mpa h</w>
la h
c u</w>
H u
sem bun
beri tahu</w>
su kan</w>
g ung</w>
Jo h
t h</w>
ma mu</w>
men er
hancu rkan</w>
baha ya</w>
mas ing</w>
ha bi
ber harap</w>
be sok</w>
beru saha</w>
ke ka
Se pertinya</w>
Ba hkan</w>
se jak</w>
ang ka</w>
p u</w>
U h</w>
bak ar</w>
00 0</w>
b nya</w>
ma d</w>
de n</w>
keku atan</w>
lam bat</w>
ha tan</w>
be r</w>
empu an</w>
Amer ika</w>
ak in</w>
H i
s ter</w>
m inggu</w>
Se buah</w>
G a
a mu</w>
diri ku</w>
le r</w>
r .</w>
o t</w>
ci p
la t</w>
can tik</w>
y ang
H AN</w>
k aki</w>
mel u
tu han</w>
menyen angkan</w>
cer ita</w>
T he</w>
Mu ham
si al</w>
om ong</w>
San gat</w>
lan ju
ne gara</w>
Muham mad</w>
s un
Bi arkan</w>
m arah</w>
bu ru</w>
en tara</w>
b 1</w>
tak anlah</w>
cH00 00
ban tuan</w>
peng e
ga k</w>
Bu kankah</w>
C la
memili h</w>
de r</w>
men inggal</w>
per jalanan</w>
S o
sa l</w>
memberi tahu
sa an</w>
han yalah</w>
membu tuhkan</w>
pe san</w>
cH0000 00</w>
a H
TU HAN</w>
4 aH
4 cH000000</w>
h it
4aH 80</w>
fn Can
fnCan dara</w>
se tan</w>
se s</w>
ra ha
memba w
l l</w>
M an
it akan</w>
kem ari</w>
j aran</w>
pu r
v er</w>
j ingan</w>
ka mar</w>
tu run</w>
i de</w>
da i</w>
ti m</w>
ha di
se k
ne geri</w>
ru ang</w>
su k
T em
menyak it
aga ma</w>
ber si
ol ongan</w>
Le bih</w>
el a</w>
di ke
un t
mencip takan</w>
kesala han</w>
S h
se ku
inga tan</w>
b ung
ki tab</w>
pak a
men an
mengen ai</w>
mu da</w>
be lah</w>
memak ai</w>
per empuan</w>
di am</w>
m im
sau dara</w>
dun gi</w>
m ar
d aki</w>
lu h</w>
ku lakukan</w>
in dungi</w>
Y o
pertan yaan</w>
Ben arkah</w>
lu pa</w>
di s
membuat ku</w>
du k
S unggu
piki rkan</w>
mpa k</w>
k hi
imp in</w>
iki rkan</w>
Q u
n is</w>
ak al</w>
En g
r ik</w>
ter masuk</w>
Sunggu h</w>
Bis akah</w>
ya t</w>
an i
lu ka</w>
K er
tu skan</w>
m on
me s
kema tian</w>
or ang
bala san</w>
si s</w>
p re
ka pal</w>
o h</w>
mak hluk</w>
ka pan</w>
anta i</w>
dahu lu</w>
su rat</w>
bela jar</w>
ka li
J e
li ma</w>
menja wab</w>
u mat</w>
t in
lam anya</w>
u pun</w>
pili han</w>
su mpah</w>
ban tu</w>
diri an</w>
si on
ba y
maksud mu</w>
a ya</w>
ren cana</w>
A pa
ka dang</w>
g e</w>
i si</w>
j ara</w>
S er
bun gi</w>
P eng
menja dikan</w>
ber diri</w>
ber ita</w>
le y</w>
mer e
A l</w>
apa bila</w>
mela wan</w>
p ot
n ik
raha sia</w>
g ia</w>
de ka
ka sus</w>
bu mu</w>
usa ha
d ung</w>
beri ku
mele wa
o s</w>
o b
f ir
mem in
ma inan</w>
am p
W a
ki amat</w>
h or
j ari</w>
ke la
h anmu</w>
seri us</w>
he r</w>
ist ri</w>
k ku</w>
ama l</w>
i b
pan as</w>
ja wab</w>
ke r</w>
men ang</w>
na ik</w>
m ari</w>
An g
il l</w>
ot o</w>
pu luh</w>
ten ang</w>
la ma
membu atnya</w>
n is
in tah
an d</w>
temu kan</w>
Seben arnya</w>
ta mpak</w>
as anya</w>
te m</w>
j anganlah</w>
meni kah</w>
musu h</w>
6 0</w>
ele sa
se sua
Hen tikan</w>
kan an</w>
ke baikan</w>
t annya</w>
p ten</w>
per ka
tu mbu
ot o
ri s
k ot
wa s</w>
d in
A N
s pe
sy ar
d akan</w>
Ber henti</w>
D em
pen jara</w>
ben ci</w>
hub ung
N i
sa ling</w>
sen dirian</w>
pak nya</w>
a tu
kun ci</w>
y ikan</w>
p nya</w>
ba di</w>
c h
si ang</w>
t elepon</w>
memban tu
s e</w>
T an
u lang</w>
P r
ku s</w>
mp u</w>
dapa tkan</w>
ti n</w>
ki pun</w>
su m
Ra b
se panjang</w>
ber c
t y</w>
un ia</w>
meng elu
om or</w>
H ari</w>
har ta</w>
mim pi</w>
ker jakan</w>
n ak</w>
pa r</w>
ju al</w>
ka l
ma mpu</w>
da m</w>
ang gu
Se tiap</w>
k mu</w>
mun cu
ha ya</w>
s u</w>
awa l</w>
u l</w>
pe sta</w>
g en</w>
u ku
un tung</w>
P ar
sem pur
ru ma
F ran
J en
g an</w>
s takan</w>
t eng
bu kanlah</w>
men en
Se orang</w>
menuru t</w>
Ka takanlah</w>
kem ana</w>
bin tang</w>
Du a</w>
or an</w>
ba tas</w>
ang i</w>
angga p</w>
meng un
a lam</w>
sik sa</w>
han ku</w>
k o</w>
jen is</w>
u tama</w>
sem akin</w>
T am
C a
y an</w>
pem bunu
orma si</w>
ben da</w>
f e
ra ja</w>
gun a</w>
2 0</w>
se l</w>
Joh n</w>
Beri kan</w>
sa wat</w>
ak a
ka y</w>
li m</w>
menja ga</w>
ka si</w>
ja wa
u dara</w>
W ak
per u
pem er
li n</w>
si m</w>
Eng kau</w>
bang k
i z
untuk ku</w>
ke padaku</w>
ke pu
li e</w>
ter i</w>
g anya</w>
f or
c an</w>
o ga</w>
tah ari</w>
nik mat</w>
c ar</w>
K emba
or i</w>
akhi rat</w>
u c
sa k</w>
anj ing</w>
ho a</w>
usaha an</w>
D apa
membuat mu</w>
meng hancurkan</w>
su kkan</w>
keku asaan</w>
per ingatan</w>
baha gia</w>
F F</w>
ta l</w>
Ku mohon</w>
kem ar
aya hmu</w>
ke lom
muncu l</w>
se k</w>
t h
sion al</w>
menu lis</w>
asa l</w>
ber at</w>
b ra
memba ca</w>
har ga</w>
memba yar</w>
mem en
tu ju</w>
baha sa</w>
t ro
meng har
tak annya</w>
ker a
ber ba
pa tnya</w>
tidak nya</w>
membunu hnya</w>
Li ha
sembun yi</w>
tubu h</w>
G e
it ik</w>
ke bu
pu ra</w>
sem entara</w>
ke su
W ow</w>
da f
s inya</w>
E m
d an
u man</w>
d angkan</w>
y u</w>
w i
piki ran</w>
n o
a tang</w>
diba ca</w>
mencinta imu</w>
la man</w>
pa ham</w>
d on</w>
si f
P ro
ba jingan</w>
ter lambat</w>
si sa</w>
eng sek</w>
be l</w>
u an</w>
hu bungi</w>
Per gilah</w>
Ra ja</w>
tar ik</w>
u p</w>
keja hatan</w>
paka ian</w>
E R
ri ku</w>
kelom pok</w>
sesua i</w>
Liha tlah</w>
ka r</w>
mer a
menemu kannya</w>
ti f
Sen ang</w>
di beri</w>
ba yi</w>
W al
P ara</w>
sempur na</w>
tahu an</w>
ha tikan</w>
aya hku</w>
Per misi</w>
la ut</w>
se per
p elu
ber untung</w>
ba tu</w>
mer asakan</w>
s t</w>
h annya</w>
ber ga
ta m</w>
do kter</w>
ak si</w>
mu lu
pak ai</w>
fil m</w>
meliha tmu</w>
mengu bah</w>
C har
R i
w e
on ton</w>
Mu sa</w>
le s</w>
Si alan</w>
Ku pikir</w>
on e</w>
ti mu</w>
H o
l us</w>
men ca
ma cam</w>
menyuka i</w>
m bi
memu tuskan</w>
po hon</w>
di a
ta pa</w>
Be berapa</w>
m kan</w>
emu kan</w>
lu cu</w>
ku rasa</w>
c ata
in c
ti ada</w>
S te
g anti</w>
bu tuhkan</w>
hen dak</w>
jum lah</w>
ser ing</w>
Se seorang</w>
m is
gam bar</w>
r e</w>
di katakan</w>
o lak</w>
mendeng arkan</w>
t aku</w>
pe sawat</w>
o f</w>
bin atang</w>
ku rang</w>
mel indungi</w>
mem ikirkan</w>
sis tem</w>
j an
a w
Meng e
ber tahan</w>
j an</w>
sema cam</w>
jum pa</w>
B ang
l lah</w>
bersa m
memper ca
Di am</w>
ko r</w>
ber ani</w>
sega lanya</w>
ju ta</w>
d o</w>
ak nya</w>
mu r</w>
mu k
ma tahari</w>
membaw anya</w>
menja lan
mendapa tkannya</w>
d ingin</w>
n e</w>
K o
or e</w>
hidup ku</w>
pembunu han</w>
ja dikan</w>
Ka pten</w>
ju ju
da ya</w>
n y
men am
ke las</w>
men embak</w>
mili k</w>
an ju
gang gu</w>
H an
mendu stakan</w>
l aku</w>
mengha bi
membel i</w>
gun ung</w>
Sa m</w>
Bi ar</w>
b angan</w>
nis caya</w>
hada pi</w>
u hi</w>
mem as
o per
g o</w>
ik annya</w>
ri kan</w>
menye ba
beriku tnya</w>
bis nis</w>
Ja ck</w>
c ak</w>
Nam un</w>
meng hi
mem bi
ti m
anak ku</w>
la mi</w>
ir im
ber kas</w>
ang lah</w>
per usahaan</w>
berc anda</w>
l in
men j
men im
p e</w>
y e</w>
ol ong
D ar
seba bnya</w>
3 0</w>
do a</w>
ta i</w>
s h
beba s</w>
ditu runkan</w>
le wat</w>
se belah</w>
k hu
si m
A mbil</w>
uru san</w>
dari ku</w>
ko k</w>
beru pa</w>
ki r</w>
i m</w>
l mu</w>
f oto</w>
wak tunya</w>
ra h
M ic
er ah</w>
men jelaskan</w>
tuju an</w>
ca haya</w>
mu ka</w>
E l
Di alah</w>
B u</w>
n omor</w>
kedu anya</w>
la wan</w>
l en
k emu
i ra
ku mpu
ay olah</w>
fs 60</w>
da g
Pas ti</w>
ber hala</w>
l eng
si den</w>
r ak
mengi rim</w>
se pertinya</w>
J er
â n</w>
P re
l ku</w>
sak si</w>
or i
men angkap</w>
k in</w>
il mu</w>
FF FF</w>
per mainan</w>
ke li
a han</w>
h lah</w>
atu ran</w>
g el
di berikan</w>
d angan</w>
Le paskan</w>
inf ormasi</w>
Ba wa</w>
menga lami</w>
d or
amp ;</w>
& amp;</w>
Kelu ar</w>
ka lah</w>
kan tor</w>
Ye sus</w>
ter dapat</w>
P enga
ru t</w>
membu ka</w>
ye ah</w>
ber sumpah</w>
se tengah</w>
pela jaran</w>
f u
mencu ri</w>
meny elesa
em as</w>
Be gitu</w>
Cu kup</w>
ke ter
W ell</w>
sun gai</w>
c he
I ya</w>
K ak
seba gaimana</w>
ma sala
ti lah</w>
lang i</w>
in du
om b
ung nya</w>
daf tar</w>
peny e
o bat</w>
Ra sul</w>
g olongan</w>
ber salah</w>
pern ika
nam anya</w>
K e</w>
ter bang</w>
waja h</w>
pem bunuh</w>
hen tikan</w>
te s</w>
mili ki</w>
ke ju
gh t</w>
ra hat</w>
pa tkan</w>
ber bohong</w>
D r.</w>
g ini</w>
tang gung</w>
s ing
di si</w>
Ka pan</w>
L akukan</w>
intah kan</w>
g et</w>
hi tam</w>
seba b</w>
. 000</w>
ki r
i bumu</w>
be tu
bagi mu</w>
M u</w>
g inya</w>
a tkan</w>
su ci</w>
bang un
Sem oga</w>
N ona</w>
mu r
men elepon</w>
di sebut</w>
c on
sa dar</w>
c ing</w>
menghabi skan</w>
Ma u</w>
ah li</w>
fir man</w>
an da
Q ur</w>
eri kan</w>
bang sa</w>
bur ung</w>
ke sini</w>
se tuju</w>
Ten ang</w>
z at</w>
t t</w>
mu sim</w>
da sar</w>
ar annya</w>
c ang</w>
b akan</w>
ha mi</w>
meng irim
ak at</w>
ban yakan</w>
p inta
H el
menger jakan</w>
ta wa</w>
ber bahaya</w>
ba tan</w>
ap un</w>
5 0</w>
e ta</w>
O kay</w>
tu tup</w>
seba bkan</w>
mem an
ba lik</w>
B r
u m
ma an</w>
la gu</w>
gem bi
kepu tusan</w>
bu ang</w>
la han</w>
bu s</w>
Tu hanmu</w>
in ter
ga gal</w>
da s
O K</w>
In gg
ala t</w>
pili h</w>
pri badi</w>
p lah</w>
deng arkan</w>
Ban yak</w>
O k</w>
sa mp
S c
na bi</w>
Ne w</w>
ji wa</w>
M es
s annya</w>
ber ta
aja an</w>
u r
cel ak
im pan</w>
di sebabkan</w>
u t
se sudah</w>
unt ungan</w>
mela inkan</w>
i alah</w>
ri an</w>
me sin</w>
M r</w>
Si lakan</w>
menyuka inya</w>
menang is</w>
mem anggil</w>
inga tkan</w>
1 9
t or
co k</w>
n g
si apapun</w>
kor ban</w>
C on
ru f</w>
Ingg ris</w>
Is ra
ber janji</w>
aga k</w>
melewa ti</w>
en am</w>
isti rahat</w>
ika si</w>
ingga l
bo l</w>
ber se
pin dah</w>
Menge tahui</w>
di la
da hkan</w>
en ang</w>
da erah</w>
se lamanya</w>
an a
be tapa</w>
menye sal</w>
ka la</w>
hen daki</w>
tu run
tumbu h</w>
s to
li r</w>
ing in
W il
en g</w>
panta s</w>
ra mbu
pu tus</w>
per ca
s s</w>
p anggi
u l
pa sukan</w>
angg ota</w>
ak kan</w>
ka m
ter luka</w>
e d</w>
ang mu</w>
ker en</w>
meng erikan</w>
peng h
olo gi</w>
meng inginkan</w>
men olak</w>
p emu
lem ah</w>
pa hala</w>
menuru tmu</w>
am anan</w>
t inggalkan</w>
hu jan</w>
b os
ku katakan</w>
menyer ang</w>
gan tung</w>
do lar</w>
ber asal</w>
ras anya</w>
pu tih</w>
P i
d u</w>
c at</w>
J an
tah lah</w>
u j
A ku
da ma
di gunakan</w>
s anya</w>
rah mat</w>
li har
mo bi
de tik</w>
M on
e kor</w>
b e</w>
ter buka</w>
k s</w>
Ma sih</w>
tem anku</w>
Sa ma</w>
berga bung</w>
Ba h
meng hilang</w>
Al qu
z e
ber guna</w>
mak na</w>
ga r</w>
Alqu ran</w>
t ele
menyem bah</w>
T ar
gra m</w>
se n</w>
mencinta i</w>
A le
ke t</w>
C oba</w>
menc ar
bang kan</w>
ri mu</w>
se dangkan</w>
In ilah</w>
ku da</w>
ki sah</w>
p ra
N ak</w>
W hoa</w>
h kannya</w>
Mu lia</w>
hu di</w>
Pr ia</w>
man is</w>
liha tan</w>
baik nya</w>
celak aan</w>
hi m</w>
ber la
U m</w>
menghen tikan</w>
menc er
si hir</w>
pada hal</w>
hu ruf</w>
i buku</w>
H mm</w>
mer ah</w>
ki ri</w>
he wan</w>
memer iksa</w>
bo la</w>
ni e</w>
g h</w>
1 2</w>
k si</w>
E N
cu r</w>
mengelu arkan</w>
bagi ku</w>
mengen al
ik nya</w>
per asaan</w>
c ah</w>
le t</w>
Ha ti</w>
ku lit</w>
1 5</w>
tang anmu</w>
ke sana</w>
Tu hanku</w>
menya dari</w>
baik i</w>
n ah</w>
l ind
membu k
ten tara</w>
men datang
T empat</w>
menye bu
it kan</w>
ber nama</w>
Ya hudi</w>
yo nya</w>
u kah</w>
war na</w>
un i</w>
h u</w>
ba iklah</w>
am pir</w>
memu lai</w>
s h</w>
Te tap</w>
men el
pen duduk</w>
temu an</w>
tem bak</w>
mel em
Po lisi</w>
hadi ah</w>
ang ku</w>
de o</w>
po sisi</w>
Y u
penge tahuan</w>
adi l</w>
mem be
pinta r</w>
B elu
mem ben
f o
mu sy
cata tan</w>
aki bat</w>
it i
se pa
tuju h</w>
da s</w>
ber tak
ru angan</w>
peng ar
si buk</w>
ku bilang</w>
ra si</w>
l antai</w>
sik o</w>
en angan</w>
di se
tem pu
men aku
s mu</w>
Ti dak
da han</w>
i b</w>
Tem an</w>
en ak</w>
piki r
di mulai</w>
ad anya</w>
D an
d ing
un i
en ek</w>
pem impin</w>
j arah</w>
ka i</w>
eng kau</w>
ka ca
in i
kem ampu
k r
taku tan</w>
Kemba li</w>
v o
membunu hmu</w>
C he
menyelesa ikan</w>
ang siapa</w>
dit emukan</w>
N o</w>
la yak</w>
Da sar</w>
Belu m</w>
co cok</w>
Na ma</w>
Y or
maksud ku</w>
G re
Cla r
Bu ka</w>
tam bah</w>
Se suatu</w>
sem es
s ang</w>
tunju kkan</w>
Men y
Deng arkan</w>
si mu</w>
ka l</w>
ti han</w>
K on
s itu
sebu tkan</w>
Isra el</w>
H i</w>
Ber i</w>
ar d</w>
ing gi
me s</w>
gela p</w>
K om
ti ku</w>
di o</w>
mengh in
pernika han</w>
memba y
d ing</w>
ot ong</w>
anak nya</w>
E h</w>
na si
lan et</w>
menu runkan</w>
s aran</w>
ter tarik</w>
Ru mah</w>
di u
ap os</w>
c ak
m inta
ter li
mendeng ar
pi sa
wa mu</w>
menye di
S eri
En tahlah</w>
in ilah</w>
dar inya</w>
khu sus</w>
ka bar
b ing
ber sih</w>
memper oleh</w>
Wa hai</w>
Se lama</w>
kemar in</w>
der ita</w>
j ek</w>
A da
ang in</w>
perka taan</w>
kar unia</w>
p si</w>
la hir</w>
Bah wa</w>
hancu r</w>
su am
ma buk</w>
pu s</w>
s itu</w>
se sat</w>
membantu mu</w>
Si lahkan</w>
se t</w>
r mu</w>
man di</w>
si hkan</w>
orma l</w>
ran s
meng hadapi</w>
wa hai</w>
menyer ah</w>
bu ran</w>
sedi h</w>
mem anggi
ka ya</w>
ungk inan</w>
ker ajaan</w>
mer a</w>
ku t</w>
du t</w>
k tur</w>
ker eta</w>
mem bangun</w>
a d</w>
a u
s ya
menca pai</w>
ke takutan</w>
ju ang</w>
lama tkan</w>
men inggal
ak ku</w>
i sa
V i
t s</w>
h on
ber maksud</w>
sa leh</w>
menga takannya</w>
ha tian</w>
la tan</w>
ya taan</w>
ik mati</w>
A gen</w>
menemu i</w>
Seba b</w>
w n</w>
wa ji
ke ce
kar tu</w>
A d
Per tama</w>
sik saan</w>
ko tak</w>
dag ing</w>
ingka ri</w>
p anggil</w>
M ana</w>
t kah</w>
to ko</w>
Hi du
ni lai</w>
pem ili
meng in
na f
la si</w>
sa l
G ra
nam un</w>
m il
N o
menga lahkan</w>
janj ian</w>
C hi
h ana</w>
A R
car anya</w>
musy rik</w>
meng ingat</w>
sau dar
lu an</w>
S ha
ke tahui</w>
A li
man fa
terli bat</w>
ind ing</w>
ba l</w>
Wak tu</w>
pi hak</w>
ri t</w>
ke amanan</w>
ke banyakan</w>
lanju tnya</w>
oper asi</w>
men olong</w>
bi asanya</w>
panggi lan</w>
har apan</w>
pa l
ta pkan</w>
S t
I N
mes kipun</w>
c o</w>
min uman</w>
da an</w>
W an
orma tan</w>
me li
cu ri</w>
se lanjutnya</w>
ser angan</w>
aku i</w>
sa ha
Menuru tmu</w>
umu r</w>
ind akan</w>
apa an</w>
sif at</w>
huku man</w>
mer en
d ela</w>
bin asakan</w>
la por
i d</w>
mu sik</w>
gembi ra</w>
ot el</w>
mela rikan</w>
ke celakaan</w>
juju r</w>
yak it</w>
a cara</w>
tu t</w>
men jual</w>
hor mat</w>
S ang</w>
M m</w>
angga r</w>
Seba gai</w>
Sa lah</w>
en si</w>
B oleh</w>
B el
yo l</w>
ti kannya</w>
ki rim</w>
i ran</w>
K ris
Aya hku</w>
menyem bun
di k</w>
hu tan</w>
ung kan</w>
mpu lkan</w>
pem a
ke h
dari mu</w>
he y</w>
Ke cuali</w>
l t</w>
ha el</w>
mengi ra</w>
G o
le bi
keber atan</w>
ber paling</w>
per temuan</w>
co ba
menc e
membi ar
ber doa</w>
f ak
M un
re ze
Ti ga</w>
mer indu
g or
br engsek</w>
a u</w>
tang ga</w>
di buat</w>
ke c
su f</w>
re s
kem enangan</w>
usa k</w>
t ra</w>
da li</w>
jawa ban</w>
1 00</w>
sa atnya</w>
t itik</w>
Mu k
bis akah</w>
ren can
an yi</w>
b lo
ti on</w>
ma lu</w>
and ung</w>
ba ga
ka bur</w>
g er</w>
a san</w>
o tak</w>
am kan</w>
K an
Kem ar
je bak</w>
pa h
membunu hku</w>
menyeba bkan</w>
mu s
û s
e y</w>
y s</w>
teri ak</w>
Se belum</w>
ung si</w>
ser ah</w>
im an
ri p</w>
men onton</w>
B un
it i</w>
keja dian</w>
ru sak</w>
kal inya</w>
M ûs
Wan ita</w>
menc i
M or
menga wa
put ri</w>
k ena</w>
memberitahu mu</w>
Mûs â</w>
ju kan</w>
di ser
M c
Mem ang</w>
o k
hu h</w>
ak san
ber ka
M el
anju tkan</w>
sua mi</w>
d om
mema hami</w>
Kelu ar
P in
Si r</w>
ga mu</w>
Yor k</w>
menga tur</w>
menem patkan</w>
ke sa
In gat</w>
enga h</w>
vi deo</w>
menu tup</w>
bang ga</w>
am pun</w>
it y</w>
de wa
ga la</w>
menjalan kan</w>
anc aman</w>
sa m
se hat</w>
mena han</w>
tidak lah</w>
mengen al</w>
lang kah</w>
c apkan</w>
reze ki</w>
gar is</w>
bi r</w>
C er
ma yat</w>
habi s</w>
bar an</w>
Si ap</w>
i hir</w>
seku tu</w>
peru bahan</w>
janj ikan</w>
s w
so r</w>
memberi mu</w>
se r</w>
ber angkat</w>
he i</w>
menga mbi
za lim</w>
meng andung</w>
cH00 FFFF</w>
di lah</w>
pu kul</w>
wa h
r o</w>
der hana</w>
bar kan</w>
di bunuh</w>
meng ganggu</w>
tin dak</w>
menya mpa
sum ber</w>
b or
h kah</w>
k y</w>
M in
t indakan</w>
p lanet</w>
kau mnya</w>
g aku</w>
mendeng arnya</w>
situ asi</w>
il y</w>
bersa mamu</w>
ag en</w>
an gat</w>
la p
da ta</w>
tem anmu</w>
syar akat</w>
Muk min</w>
Ma lam</w>
pen dapat</w>
mel anggar</w>
cer itakan</w>
B I</w>
se jarah</w>
pen yakit</w>
bung a</w>
it h</w>
mem akan</w>
sy uku
d s</w>
berba gai</w>
as ing</w>
it er</w>
Su a
di l
tah anan</w>
gu ru</w>
e a</w>
sampa h</w>
ju rit</w>
S i</w>
tem en</w>
kom pu
le pas</w>
tam paknya</w>
o l</w>
ter dengar</w>
meny impan</w>
gu e</w>
w akan</w>
ber hak</w>
lu si</w>
Da vi
ter ang</w>
dor ong</w>
gu an</w>
Clar k</w>
ber hubungan</w>
ata p</w>
st ru
seba iknya</w>
G ar
Mic hael</w>
men un
si un</w>
l y
R ic
memas tikan</w>
tu lis</w>
iki r
ak mu</w>
wa l</w>
ke bi
dewa sa</w>
g in</w>
i e</w>
Menuru t</w>
jen dela</w>
d inya</w>
pen de
i ya</w>
en er
Te pat</w>
ak e</w>
G i
kali mat</w>
me ja</w>
h h</w>
lu rus</w>
men derita</w>
du h</w>
bo s</w>
si an</w>
meng emba
ba ta
lu r</w>
hidup mu</w>
k ang</w>
S ta
membu tu
1 1</w>
om e</w>
n ormal</w>
me r</w>
hada pan</w>
Apa pun</w>
ke ta
per janjian</w>
u i</w>
tang kap</w>
ting kat</w>
mi l</w>
ja u</w>
pi sto
ku lihat</w>
Ja lan</w>
meng hubungi</w>
Har us</w>
pisto l</w>
ind ung
di sebutkan</w>
mun dur</w>
kar an</w>
ber senang</w>
O li
tek tif</w>
ka an</w>
bel i</w>
ku pikir</w>
B ra
su ki</w>
pah lawan</w>
aya hnya</w>
kese pak
r ah</w>
at annya</w>
d inding</w>
pot ong</w>
samp ing</w>
Dapa tkan</w>
m pun
d ingan</w>
I b
sem bah</w>
k ini</w>
am pi
a ba
G er
Ku kira</w>
v an</w>
Pre siden</w>
i ma
Se di
na mamu</w>
ik ma
hen dak
ka mera</w>
u kan</w>
suk lah</w>
men angka
der al</w>
ba ginya</w>
nya man</w>
ken can</w>
Davi d</w>
l s</w>
kabar mu</w>
ku mohon</w>
ker u
se tidaknya</w>
y ek</w>
F re
r em
lu bang</w>
di ma
ma lah</w>
me ter</w>
khawa ti
se derhana</w>
bersam aku</w>
d anya</w>
iz in</w>
kem ungkinan</w>
meng hubung
pen jaga</w>
jak sana</w>
M r.</w>
c y</w>
ra gu</w>
memba ha
Pe ter</w>
par at</w>
pin tunya</w>
n ar
di ka
D is
mer usak</w>
pas ang</w>
W e
ga tlah</w>
lu b</w>
be las</w>
Ke pa
Fran k</w>
la par</w>
menyu ruh</w>
us akan</w>
un dang</w>
am pun
pal su</w>
ber tanggung</w>
ke ing
Bu r
ma upun</w>
a wan</w>
men ak
a j
c hi
ter sisa</w>
meng ingkari</w>
bo m</w>
anta r</w>
ger akan</w>
liha tannya</w>
s ti
S im
tar ung</w>
ber firman</w>
o p
A b
me yak
Ma suk</w>
Ga dis</w>
p os
im aka
hasi lkan</w>
l elu
tu lang</w>
li knya</w>
ek s
c inta
ten tang
ga an</w>
ku asa</w>
memu kul</w>
Mes kipun</w>
M il
menyakit i</w>
Ku harap</w>
mengu capkan</w>
bertak wa</w>
keka l</w>
te was</w>
Do kter</w>
Da tang</w>
ang kah</w>
ke sen
t ri</w>
meng ga
ma syarakat</w>
Ge or
j ele
sem angat</w>
Dem i</w>
B ro
j in</w>
ber laku</w>
ter kenal</w>
ber harga</w>
s ha
a c
bi t</w>
mem o
ba ju</w>
pemer intah</w>
Dapa tkah</w>
L A
n ow</w>
ke turun
Se jak</w>
deng arannya</w>
mem bicarakan</w>
ek si</w>
du kan</w>
meng an
C ha
e ja</w>
ke tiga</w>
per minta
le lah</w>
si apkan</w>
seper timu</w>
semes ta</w>
da l</w>
anak mu</w>
Hel lo</w>
ko pi</w>
t ri
G un
Se harusnya</w>
E d
menyampa ikan</w>
be gini</w>
ren dah</w>
P aman</w>
ban tu
kar a</w>
peng u
c em
si kap</w>
s anmu</w>
menge jar</w>
T im
di luar</w>
sen ga
pu tar</w>
ne r</w>
bu h</w>
imaka sih</w>
bersi kap</w>
N yonya</w>
K or
ter tawa</w>
tahu inya</w>
mengu mpulkan</w>
dike hendaki</w>
memba las</w>
oo d</w>
a tor</w>
se ja
mele paskan</w>
v a</w>
di lan</w>
A khi
meny ing
Is lam</w>
ki rkan</w>
mili kku</w>
Sedi kit</w>
men deka
kelu arkan</w>
kebu n</w>
p la
Bu mi</w>
meme gang</w>
H a</w>
Tan pa</w>
J es
Ma ha
ya p</w>
di maksud</w>
se orang
z z
O r
han tu</w>
Se tidaknya</w>
mulu t</w>
P at
ba tnya</w>
mem otong</w>
untuk nya</w>
ke lak</w>
hi rkan</w>
mis kin</w>
Mi ke</w>
c inya</w>
ter nyata</w>
pela jari</w>
p ol
kemba likan</w>
ol d</w>
ne t</w>
melu pakan</w>
T V</w>
I st
F e
ter besar</w>
ke kaf
er an</w>
ke boh
ci an</w>
Gu ru</w>
per hatian</w>
lo kasi</w>
a un</w>
si ku</w>
l aku
bu ta</w>
F ir</w>
d ra
ber tindak</w>
s ku</w>
men ikmati</w>
k ungan</w>
p arkan</w>
ber perang</w>
ata l</w>
am bi
ba u</w>
tek n
sim pan</w>
C as
rambu t</w>
per gilah</w>
ya l</w>
y um</w>
bi n</w>
se jauh</w>
liha tkan</w>
di h</w>
A k
ra b</w>
Kem ana</w>
F BI</w>
Aya hmu</w>
Ta hu
t kanmu</w>
P el
be li
kaca u</w>
p ku</w>
Char lie</w>
per mu
manfa at</w>
f ungsi</w>
b ing</w>
a hnya</w>
pen er
l el
w i</w>
kesepak atan</w>
f er</w>
lihar a</w>
ji zat</w>
der a</w>
Ni ck</w>
si lakan</w>
kesu l
I bra
menyembun yikan</w>
ker usakan</w>
memberi ku</w>
ip u</w>
en cana</w>
lapor an</w>
v in</w>
l annya</w>
Tu tup</w>
lebi han</w>
du r
da likan</w>
membantu ku</w>
angg ung</w>
p h
gela pan</w>
meng iku
pi l</w>
per t
ha laman</w>
mengambi lnya</w>
ke ten
ge dung</w>
Jo e</w>
m it</w>
S M
N y</w>
Mu lai</w>
P ela
j er
iki anlah</w>
Beri tahu</w>
pi sah</w>
W ar
mel indung
Ibra him</w>
ber juang</w>
di re
bu at
ter bunuh</w>
meng gun
memberitahu ku</w>
n o</w>
ban k</w>
ri d</w>
pas angan</w>
Rab b
dit erima</w>
asa i</w>
menge tahuinya</w>
kompu ter</w>
dike tahui</w>
g itulah</w>
memperca ya
Ale x</w>
se ekor</w>
Qu ran</w>
cip takan</w>
Lu pakan</w>
Tidak kah</w>
po r</w>
ah u</w>
Per setan</w>
e t
membu ang</w>
masala hnya</w>
se ti
w ell</w>
g n</w>
ras akan</w>
Ki tab</w>
kemampu an</w>
sa pi</w>
das arkan</w>
B A
ko de</w>
t ong
memper hatikan</w>
bangk itkan</w>
ter a</w>
wa y</w>
A dam</w>
c on</w>
menyu ru
Se lalu</w>
ju bkan</w>
mencer itakan</w>
anggu r</w>
Me kah</w>
s angka</w>
menim pa</w>
kesul itan</w>
it nya</w>
se puluh</w>
sala t</w>
Rab b</w>
n u
men de
per kara</w>
peng ikut</w>
p mu</w>
kot oran</w>
keing inan</w>
k re
se kali
senga ja</w>
mili kmu</w>
pe tugas</w>
di kenal</w>
member sihkan</w>
muk jizat</w>
na m</w>
men ari</w>
ali h</w>
Hidu p</w>
ut k</w>
Apa bila</w>
pi an</w>
bangun an</w>
B en</w>
H ol
cip taan</w>
inggi r</w>
di ra
per iksa</w>
gu gu
r ing</w>
sin ar</w>
k inya</w>
u d</w>
ri bu</w>
di ban
meng anggap</w>
tro l</w>
mere ka
ber teriak</w>
pelu ru</w>
k la
Ka ta</w>
1 0
coba an</w>
- Aku</w>
Maksud mu</w>
menyak sikan</w>
menem bak
l or
lu as</w>
Ter us</w>
ter tentu</w>
r angan</w>
memba wamu</w>
Akhi rnya</w>
pem balasan</w>
Se lain</w>
la yah</w>
mer o
V ic
hidup kan</w>
hubung annya</w>
member inya</w>
pa si
Meng er
pela cur</w>
Nam aku</w>
ir e</w>
Ta han</w>
ber sembunyi</w>
keboh ongan</w>
de sa</w>
selesa ikan</w>
hidup nya</w>
adi lan</w>
s omb
aksan akan</w>
ingka r</w>
lang kan</w>
mengu rus</w>
pa car</w>
t rans
beba skan</w>
4 0</w>
C hu
memper baiki</w>
pe gang</w>
un gi</w>
tun duk</w>
ter jebak</w>
se olah</w>
ber dosa</w>
la pan</w>
n enek</w>
menga dakan</w>
pert olongan</w>
To m</w>
ta t
peny ihir</w>
w arkan</w>
Per ca
Pen ya
pra jurit</w>
b on
umu m</w>
membuk tikan</w>
Ka u
n an</w>
khi an
Ten tang</w>
bi e</w>
a ga</w>
kesen angan</w>
D unia</w>
li st
k ri
ala mi</w>
Ti m</w>
Sua tu</w>
I buku</w>
u angnya</w>
pro ses</w>
Bang un</w>
ber ke
S un
M is
mun af
g in
ber tahun</w>
menyen tuh</w>
pak sa</w>
Bi la</w>
us kah</w>
menang ani</w>
as li</w>
memen uhi</w>
kon disi</w>
1 6</w>
us kan</w>
u si
hit ungan</w>
ani aya</w>
menu tu
ist rinya</w>
ber lari</w>
N or
Wal ter</w>
meny i
t on
du ga</w>
memperca yai</w>
ma s</w>
C or
o le
nya wa</w>
A f
h mm</w>
menghen daki</w>
menga ca
Bar u</w>
kur si</w>
mema tikan</w>
v es
jele k</w>
ib unya</w>
ju d</w>
te ta
tan ku</w>
Kepa la</w>
J anganlah</w>
keju t</w>
munaf ik</w>
pi lkan</w>
pa ti</w>
pu sat</w>
per asa
B ung</w>
2 0
pu k</w>
he n</w>
bi lan</w>
ber terima</w>
ap ar
mem bakar</w>
H uh</w>
wan an</w>
sen tuh</w>
ka si
le paskan</w>
A T
jan tung</w>
dit im
tam bahan</w>
om pat</w>
kese sa
F or
pro gram</w>
ke lihatan</w>
pu b
du sta</w>
ber cinta</w>
her e</w>
Ter lalu</w>
Le e</w>
seorang pun</w>
tu ga
Yo u</w>
Perca yalah</w>
h o</w>
na pas</w>
penga cara</w>
g t</w>
hu r</w>
men ika
I ku
t ung
menye but</w>
gu h</w>
Ma x</w>
tu rut</w>
bu ru
B la
P hi
Me sir</w>
menyer ahkan</w>
kau m
ber kem
bar is</w>
aki m</w>
ma ju</w>
ki e</w>
Hen ry</w>
ter bakar</w>
se berapa</w>
Se kali</w>
t om
ba yar</w>
K el
inga tlah</w>
Kemar ilah</w>
sek s</w>
O oh</w>
b annya</w>
I t</w>
ta ru
ja u
per be
uku ran</w>
Ju ga</w>
Ja mes</w>
ar i
ta at</w>
la tihan</w>
lu pakan</w>
mem impin</w>
ot t</w>
penga dilan</w>
p aran</w>
per se
d dy</w>
j em
ke ba
v e
ba pak</w>
iki r</w>
ba tkan</w>
p ang</w>
mengirim kan</w>
dar at</w>
duk lah</w>
war ga</w>
meng gan
panta i</w>
Ya itu</w>
Ma s
sem bahan</w>
bar u
mendatang kan</w>
C ari</w>
d ana</w>
ampu r</w>
ff ff</w>
di r</w>
di e</w>
Pen y
b ri
K un
tah ankan</w>
lel aki</w>
den dam</w>
ber e
j o
jar ak</w>
re ka
ben cana</w>
keh ormatan</w>
ja h</w>
sa mbil</w>
sen yum</w>
S y
F a
ba ca</w>
P ili
Jan e</w>
5 5</w>
tem patnya</w>
In dia</w>
men olong
kot or</w>
k li
ber an
C ol
Mar y</w>
us e</w>
usa h</w>
pen jahat</w>
syuku r</w>
ruma hku</w>
ka yu</w>
san ku</w>
ter asa</w>
A h
tunju kan</w>
pel an</w>
ot i</w>
tempu ran</w>
mendu k
har apkan</w>
s pi
ik kan</w>
bersam anya</w>
mi rip</w>
lam pu</w>
la mu</w>
tu kang</w>
gi e</w>
S arah</w>
tem bakan</w>
se kalian</w>
meng akui</w>
l er
pen jela
meng inga
s it
M us
bi ru</w>
aw ak</w>
D on
u tan</w>
t ruk</w>
temu i</w>
se waktu</w>
perminta an</w>
bo t</w>
con to
sa bar</w>
ber t</w>
a ja</w>
T om
menan yakan</w>
kekaf iran</w>
gun anya</w>
keter angan</w>
dit e
c ol
menyakit kan</w>
sepa tu</w>
v a
ti pu</w>
pengh uni</w>
meng hasilkan</w>
mengu tus</w>
iti f</w>
de lapan</w>
h otel</w>
ma tamu</w>
te l</w>
pas tikan</w>
kumpu l</w>
m pun</w>
usa ha</w>
mpa ui</w>
ter kejut</w>
de l</w>
aba d</w>
Menger ti</w>
H er
kom un
memen angkan</w>
ener gi</w>
diba wa</w>
v en</w>
tang annya</w>
bu dak</w>
v en
Geor ge</w>
se banyak</w>
Se dang</w>
sema lam</w>
D ani
ken al
ing nya</w>
i den
t le</w>
baha gi
B il
A K
tat kala</w>
Penya yang</w>
kar en
hi s</w>
ca hkan</w>
lind ungan</w>
ist riku</w>
le m</w>
bay angkan</w>
la y
s tan
r ku</w>
os e</w>
memu ku
t elu
ta ran</w>
Ma h
Ka wan</w>
un a</w>
bang kit</w>
im anan</w>
lan d</w>
ku e</w>
O m
Me lihat</w>
h in
ak an
S E
ol on
keluar ganya</w>
j arkan</w>
pe l</w>
pen ting
elu ruh</w>
keturun an</w>
ben ar
mengemba likan</w>
da h
bo le
ta annya</w>
sa si</w>
yak nya</w>
fo kus</w>
L or
A ah</w>
mu lia</w>
p ing
d eri
unju kkan</w>
si lahkan</w>
De an</w>
al l</w>
di dalam</w>
wi layah</w>
meng ingin
L ari</w>
menya takan</w>
menak jubkan</w>
kedu dukan</w>
S hi
O leh</w>
mema suki</w>
t hat</w>
kon yol</w>
meng emu
ib lis</w>
di ambil</w>
penga laman</w>
keluar gaku</w>
ma afkan</w>
J on
j ung</w>
e f
se lamatkan</w>
ke le
bu lkan</w>
betu lan</w>
Ra su
mon ster</w>
kesesa tan</w>
ke imanan</w>
cH 5
t kanku</w>
list rik</w>
cu t</w>
ak ses</w>
memer lukan</w>
Se baiknya</w>
memo hon</w>
al nya</w>
su dut</w>
Nam anya</w>
pel angg
bicar aan</w>
M mm</w>
as kan</w>
t .</w>
memba c
u tusan</w>
so bat</w>
t anmu</w>
ke l</w>
ten g</w>
I bumu</w>
ri bu
gi gi</w>
c inc
M an</w>
k it
mela mpaui</w>
Cu ma</w>
sem inggu</w>
isti me
w e</w>
menyebu tnya</w>
lanju t</w>
menya yang
ber tarung</w>
w .</w>
ku cing</w>
to p</w>
Li ma</w>
tif kan</w>
Ma suklah</w>
sa tu
s te
hu tang</w>
K ota</w>
A la
mil iter</w>
R usia</w>
Mun dur</w>
gi gi
dit en
B on
uc apan</w>
S ing
on t</w>
olo s</w>
pu s
pa tlah</w>
iman apun</w>
c or
tang anku</w>
g on
Yu suf</w>
ang eran</w>
Ba gi</w>
ho o</w>
mel anjutkan</w>
bak aran</w>
p ung
v or
l inya</w>
ke untungan</w>
c am
pisa u</w>
S el
da ru
Joh n
meng anta
F u
r anya</w>
em o
b le</w>
s hi
pe dang</w>
Jer man</w>
Har uskah</w>
Seben tar</w>
saudar aku</w>
per ahu</w>
ke jam</w>
ang annya</w>
L on
ke gelapan</w>
l on</w>
ra m</w>
F i
Tam paknya</w>
bi ar</w>
W ill</w>
be k</w>
vi si</w>
ber bagi</w>
hati mu</w>
d re
ata snya</w>
menga gu
ind ung</w>
p arah</w>
ta man</w>
ken dali</w>
In gatlah</w>
B os
y angnya</w>
diper lukan</w>
W o
su ruh</w>
su r</w>
f t</w>
o m</w>
se kar
J im
per sis</w>
menghar apkan</w>
ka sar</w>
sa tkan</w>
an inya</w>
pem bu
menyedi hkan</w>
kepa lanya</w>
F o
E li
T embak</w>
menga lir</w>
ne y</w>
w u
pertan dingan</w>
Sem entara</w>
Je pang</w>
uj ian</w>
cer das</w>
d k</w>
dama ian</w>
de p
pen ya
penu hnya</w>
ka tanya</w>
bah wa
ol ok</w>
on y</w>
mp ang</w>
li lah</w>
naf as</w>
di antara</w>
T inggalkan</w>
habi san</w>
p s</w>
yo ur</w>
f er
j ungi</w>
beba san</w>
ruma hnya</w>
r in
Menuru tku</w>
bata san</w>
Tu hannya</w>
per tempuran</w>
An d</w>
c en
menaku tkan</w>
Rasu lu
La u
Di sini</w>
lap angan</w>
p le
w ar</w>
ke perca
P ak
t he
pe dih</w>
ling kungan</w>
be kas</w>
aya m</w>
I A</w>
hi jau</w>
b by</w>
hati ku</w>
do ku
mela y
dari padanya</w>
mem binasakan</w>
j ikan</w>
be s
sa w.</w>
mobi lnya</w>
R asanya</w>
to bat</w>
y ung</w>
tu mu</w>
meng angkat</w>
per buat</w>
cip ta</w>
pengar uh</w>
La gi</w>
ti pe</w>
ser u
ha d</w>
de wa</w>
in s</w>
Bun uh</w>
ir us</w>
su ku</w>
tan aman</w>
ru p</w>
De tektif</w>
S A
je jak</w>
cinta i</w>
d ri
mele takkan</w>
ha tinya</w>
f in
ta li</w>
nar ko
N atal</w>
na fs
ke da
H ah</w>
su ar
sampa ikan</w>
wa lah</w>
mema sukkan</w>
la upun</w>
A ir</w>
A s
li ah</w>
h ak
r n
p anya</w>
li di
s ore</w>
su l
V er
Rasulu llah</w>
ja lur</w>
i h</w>
s or
y o</w>
j ian</w>
Da ud</w>
mengha langi</w>
T ra
per lindungan</w>
ong kan</w>
Mem buat</w>
keli ling</w>
mengawa si</w>
ba bi</w>
b ro
po t</w>
Har ry</w>
pro fe
kak ak</w>
h ina</w>
menja di
betu l</w>
Al lah
daru rat</w>
ber siap</w>
Pa ul</w>
se hari</w>
pa car
tam pan</w>
pi s</w>
ga si</w>
R am
r im
ber hati</w>
Ra tu</w>
bar at</w>
ke y</w>
keluar gamu</w>
tar get</w>
t nan</w>
gen er
bi aya</w>
pem bicaraan</w>
ar e</w>
tang gal</w>
pon nya</w>
war d</w>
H ampir</w>
u tara</w>
tu runkan</w>
ikma tan</w>
Bar angsiapa</w>
han am</w>
pu ku
ker ing</w>
perbe daan</w>
pa tung</w>
per a
di jadikan</w>
pen olong</w>
it anya</w>
ber ge
anda inya</w>
mel ompat</w>
sau dara
der aja
S eluruh</w>
J ela
ta lkan</w>
ber syukur</w>
menggun akannya</w>
is an</w>
ga ga
ru san</w>
Em ily</w>
keber untungan</w>
mengu r
ken yataan</w>
gi s</w>
ker tas</w>
pema in</w>
o ff</w>
A m
mem ikir
Ba jingan</w>
tekn ologi</w>
menghar gai</w>
ni at</w>
N ic
F in
pu lau</w>
pan dangan</w>
har d</w>
f a</w>
Be sok</w>
pe t</w>
tah un
li tas</w>
ding kan</w>
d gn</w>
ang ku
2 5</w>
w or
Dan ny</w>
ist rimu</w>
im anya</w>
lem but</w>
k lub</w>
H am
K ini</w>
menen tukan</w>
ke temu</w>
tan yakan</w>
put ra</w>
Sa udara</w>
sen i</w>
cu n</w>
conto h</w>
somb ong</w>
or is</w>
or gan
se penuhnya</w>
z a</w>
Ma ma</w>
meliha tku</w>
ampun an</w>
Ba y
ber kumpul</w>
C ina</w>
pen el
Per tan
ist ana</w>
bar angsiapa</w>
memili kinya</w>
Dem ikianlah</w>
ku tukan</w>
M akan</w>
di ku
oto l</w>
ham il</w>
menga jar
re kan</w>
a su
si p</w>
ke adilan</w>
i ban</w>
meng em
Jim my</w>
Ja ga</w>
menghen tikannya</w>
te h</w>
h el
member ikannya</w>
tah il</w>
di pe
P emu
ke parat</w>
ing kat</w>
fs 55</w>
D am
memak sa</w>
as aran</w>
as e</w>
t ina</w>
dama i</w>
Om ong</w>
di sa
ung ka
s kannya</w>
C inta</w>
Ten anglah</w>
kera san</w>
ber de
muk min</w>
du l</w>
D it
Tahu n</w>
Dani el</w>
kenal kan</w>
Man usia</w>
l d</w>
di ot</w>
J im</w>
ter dahulu</w>
Br engsek</w>
seja ti</w>
b on</w>
a ti</w>
akhi ri</w>
T y
Ke dengarannya</w>
ra dio</w>
ik saan</w>
ber pura</w>
w anya</w>
re s</w>
ter sembunyi</w>
ken ikmatan</w>
D en
dit angkap</w>
s o</w>
kepa lamu</w>
h kanmu</w>
pem beri</w>
menel pon</w>
berse dia</w>
s anggu
Z a
gu kan</w>
ka w
du ka</w>
T A
v asi</w>
bak at</w>
Se gera</w>
na sional</w>
Pu tri</w>
s tik</w>
hendak lah</w>
pro yek</w>
v is</w>
menci um</w>
diten tukan</w>
Ki m</w>
ck y</w>
tel pon</w>
or ban
keber ada
reka man</w>
B apa</w>
men dorong</w>
menge ce
menj empu
lelu con</w>
Ter imakasih</w>
bantu anmu</w>
sek si</w>
membay angkan</w>
1 8</w>
meng hidupkan</w>
di bawah</w>
penjela san</w>
li ar</w>
o ut</w>
ger bang</w>
tubu hnya</w>
f or</w>
mulu tmu</w>
cel ana</w>
ng omong</w>
u pa
uj ung</w>
1 4</w>
m or
ber dasarkan</w>
Kris tus</w>
ru mit</w>
menar uh</w>
ber ken
rak yat</w>
mencar inya</w>
Kem ari</w>
komun ikasi</w>
aja iban</w>
ma si</w>
jar ingan</w>
her an</w>
P an
Penga mpun</w>
t dk</w>
men da
Ma ukah</w>
En tah</w>
1 3</w>
se tahun</w>
men ju
fil e</w>
gi li
pub lik</w>
w hoa</w>
ti mur</w>
olong lah</w>
per i
adi k</w>
sala hku</w>
f at</w>
che l</w>
istime wa</w>
tem annya</w>
ja lang</w>
tel ing
ge lam</w>
mengu asai</w>
m it
Lu ar</w>
san tai</w>
kese lama
In gin</w>
meny imp
- Apa</w>
peng er
ta u
ditim pa</w>
f re
F ira
Pa gi</w>
mengha pus</w>
2 4</w>
sala hnya</w>
D A</w>
A u
fak ta</w>
sem bilan</w>
da hnya</w>
un d</w>
khawati rkan</w>
V e
menja uh</w>
seti a</w>
pu r</w>
b otol</w>
sembun yikan</w>
ti kus</w>
di percaya</w>
d on
adi kku</w>
L em
min yak</w>
r oti</w>
mengen dalikan</w>
ny anyi</w>
kece patan</w>
menga mpun
Le tnan</w>
Ka dang</w>
bing ung</w>
sa mu</w>
ma tanya</w>
ira at</w>
K ha
peny er
bahwa sanya</w>
a la</w>
ter sesat</w>
bu kankah</w>
p inya</w>
u rat</w>
pa tah</w>
Lon don</w>
er s</w>
ja dilah</w>
Ma t
mak si
gela s</w>
q iraat</w>
ber lebihan</w>
Oli ver</w>
, 000</w>
st ra
por kan</w>
P al
ter se
put riku</w>
Cla ire</w>
wa laupun</w>
mener imanya</w>
A was</w>
sa lnya</w>
la an</w>
W ah</w>
bar ing</w>
khi ana
Per ka
AN G</w>
e m</w>
menyu su
si l</w>
man tan</w>
la hnya</w>
ber su
keju tan</w>
Di re
S I
bu kit</w>
ma hal</w>
anc is</w>
p y</w>
men untu
ke betulan</w>
1 7</w>
Ba ga
per isti
r in</w>
l ot
di anggap</w>
be si</w>
I I</w>
meme lihara</w>
B ill</w>
Sc ott</w>
s ho
hi d
S is
men ji
mendeka ti</w>
sin yal</w>
or angnya</w>
ala mat</w>
S ak
L y
b ungan</w>
m ot
an dan</w>
uc apkan</w>
mem benci</w>
l it
ke habisan</w>
diper intahkan</w>
Be sar</w>
pen cu
mena warkan</w>
ba lah</w>
membel a</w>
du han</w>
ka langan</w>
J i
po li
L an
Bo b</w>
menga jak</w>
teng gelam</w>
fa vor
ti e</w>
nam aku</w>
deraja t</w>
tumbu han</w>
re st
mence gah</w>
mel aksanakan</w>
M a</w>
keka ca
narko ba</w>
menangka pnya</w>
Sa l
waji ban</w>
ri l</w>
iki ran</w>
mengh it
dan sa</w>
Jen deral</w>
liha tlah</w>
l on
se y</w>
se latan</w>
ku r</w>
v ampir</w>
A rab</w>
pr ot
mele dak</w>
pemili k</w>
kela paran</w>
i us</w>
di t</w>
J ar
tem pa
beriku t</w>
Ra chel</w>
kan dung</w>
B ri
tu li
beru mur</w>
N uh</w>
ke kerasan</w>
S ar
telu r</w>
te d</w>
t re
ter kena</w>
Ada lah</w>
meny iksa</w>
di ha
Bu at</w>
ber usia</w>
keperca yaan</w>
te kanan</w>
khian at</w>
Ser san</w>
l ak
meru bah</w>
pende k</w>
Du duk</w>
5 00</w>
r om
k s
S tar
pem beri
su kai</w>
lo kal</w>
Fira un</w>
selu ru
at e</w>
tong kat</w>
pel indung</w>
menya la</w>
ger eja</w>
pi t</w>
me dis</w>
Ja m</w>
menduk ung</w>
ke hendak</w>
Ker ja</w>
ber lalu</w>
a badi</w>
v irus</w>
ad akan</w>
D A
di ta
ter hormat</w>
W as
Kak ak</w>
menghi langkan</w>
res mi</w>
Ba gian</w>
A man
2 1</w>
han gat</w>
ce patnya</w>
pela yan</w>
olon el</w>
g angan</w>
r on
membaw aku</w>
dit er
P or
ga ya</w>
suk ses</w>
il le</w>
hub ung</w>
s y</w>
cinc in</w>
as akannya</w>
ter tutup</w>
memer intahkan</w>
it ian</w>
su b
tim bangkan</w>
meng g
k anya</w>
bangk itan</w>
ra an</w>
ma tis</w>
ka tan</w>
ba dan</w>
kela hi
menc ob
ber kuasa</w>
mencinta inya</w>
lo ve</w>
ber langsung</w>
ti l</w>
un cu
Se berapa</w>
ing kan</w>
men unggu
Y o</w>
pu ti</w>
kekaca uan</w>
ol ly</w>
Ang kat</w>
sekar at</w>
f an</w>
ke yak
P ada
s lah</w>
i d
ri ka</w>
ha lnya</w>
as nya</w>
waja hnya</w>
li c
pasi en</w>
menen tang</w>
mencob anya</w>
hi t</w>
sing kat</w>
pon sel</w>
mengenal nya</w>
Se belumnya</w>
menyeba lkan</w>
r y
meng ingatkan</w>
melay ani</w>
P ikirkan</w>
ke bahagi
da y</w>
lu ki
ak tif</w>
D r</w>
peristi wa</w>
si tas</w>
pe kan</w>
ken dara
C ara</w>
se baik</w>
Lo u
ter gantung</w>
ang kut</w>
am lah</w>
ta lah</w>
pu ji</w>
mene tapkan</w>
ma sukkan</w>
ba b</w>
U tara</w>
pa sar</w>
ba wa
Ke dua</w>
nasi b</w>
ak tifkan</w>
se si</w>
N g
di atas</w>
car ian</w>
ter buruk</w>
meyak inkan</w>
1 9</w>
ku liah</w>
ra ta</w>
l tu</w>
du luan</w>
tu m</w>
sa p</w>
Y er
tah kan</w>
ber ang</w>
menge ju
bra k</w>
Se cara</w>
He bat</w>
3 5</w>
n ona</w>
N A</w>
In ter
l unya</w>
W hit
Ban tu</w>
Sa u
An da
ber darah</w>
tar ungan</w>
nafs u</w>
ke ajaiban</w>
di kembalikan</w>
angka sa</w>
E M
r annya</w>
T unjukkan</w>
A t
D on</w>
ber teman</w>
Re d</w>
- Ya</w>
pen dapa
C en
an ti
Bar ry</w>
2 00</w>
ter hada
g akan</w>
ba dai</w>
M ela
B ye</w>
per aturan</w>
ber mimpi</w>
Per ancis</w>
T ho
per tunjukan</w>
Ma g
sta siun</w>
be ban</w>
M inggir</w>
Ma y
P ra
sanggu p</w>
mer am
menutu pi</w>
f ikir</w>
a ikan</w>
Tu ju
Be gitulah</w>
t ingga
di butuhkan</w>
z i
ke dalam</w>
penu hi</w>
la utan</w>
wah yu
ber fungsi</w>
hit ung</w>
T he
br o</w>
ruma hmu</w>
li pat</w>
j in
sa w</w>
p ing</w>
menjalan i</w>
ba dah</w>
Keluar ga</w>
l ine</w>
ter tangkap</w>
ver si</w>
P anggil</w>
te bak</w>
meng aku</w>
Aku lah</w>
pen deri
pak kan</w>
lo e</w>
li kasi</w>
ke e
in ves
ke dar</w>
pen curi</w>
gi pula</w>
f i</w>
di kirim</w>
2 00
L ang
dun i
menja tuhkan</w>
Em pat</w>
j inkan</w>
Co balah</w>
or mati</w>
mem anc
E ro
kema ti
Par is</w>
Bil ly</w>
en tah</w>
El ena</w>
Be gini</w>
ter ka
l olos</w>
en t</w>
Wil li
Iku ti</w>
De wa</w>
a inya</w>
G o</w>
su h</w>
Du duklah</w>
o w
Ma tt</w>
un ta</w>
mener us</w>
ken ya
A S</w>
ter senyum</w>
menghin dari</w>
mengemu di</w>
lidi ki</w>
kerja an</w>
ba hnya</w>
ro h</w>
per ala
ti ket</w>
meren can
b s</w>
pen asaran</w>
si f</w>
ka takanlah</w>
nasi hat</w>
s aku</w>
c us</w>
U N
mengampun i</w>
men ele
ka mar
R en
per angkat</w>
mer ay
ma k</w>
per ut</w>
menga jukan</w>
mema inkan</w>
mengingin kannya</w>
mela cak</w>
ya m</w>
o mi</w>
mengi si</w>
sega r</w>
ter nak</w>
h î
ditu tup</w>
ma in
waja hmu</w>
tu aku</w>
A mbi
merindu kanmu</w>
Ter nyata</w>
Allah lah</w>
te ori</w>
V al
Aya t</w>
mo r</w>
meng ar
Ma l
keten tuan</w>
dit em
B ER
ran i</w>
ber nyanyi</w>
mengagu mkan</w>
Ka tanya</w>
pen ciptaan</w>
meng gang
sa yang
o batan</w>
An na</w>
as ta
s .</w>
kar ak
v el</w>
ber tambah</w>
ar lah</w>
ser aya</w>
su al</w>
meman dang</w>
i diot</w>
du s</w>
Mu r
sa sa</w>
T h
wahyu kan</w>
se pak
hadi r</w>
ber encana</w>
pon mu</w>
it e</w>
per si
lu tut</w>
ten aga</w>
kun o</w>
c in
Bi bi</w>
pe ta</w>
menyen tu
wah yu</w>
se pe
berkem bang</w>
and angan</w>
ribu an</w>
per sen</w>
di pilih</w>
Se latan</w>
ga inya</w>
wa s
mengh ormati</w>
c ampur</w>
Per ang</w>
ci uman</w>
bo k</w>
Ber kas</w>
w ood</w>
so pan</w>
im pin
un it</w>
mengen akan</w>
do k</w>
memanggi lku</w>
du kkan</w>
f oto
pot ongan</w>
pan dai</w>
A T</w>
ber tobat</w>
Ra y</w>
Ku r
perbu atannya</w>
D or
Ch ris</w>
ke tidak
a jaran</w>
menga jarkan</w>
t ong</w>
kumpu lkan</w>
diri kan</w>
M EN
tom bol</w>
ru an</w>
bay aran</w>
emba tan</w>
cu a
l inta
di pakai</w>
bole hkan</w>
N anti</w>
an s</w>
Ba ha
ungk inkan</w>
di sembah</w>
ci kan</w>
menghit ung</w>
ke hendaki</w>
ah annya</w>
Si apakah</w>
menam bah</w>
ke sak
N as
Ku bilang</w>
u lar</w>
pener bangan</w>
li kannya</w>
ba las</w>
de s</w>
se pu
penge cut</w>
mur ah</w>
n an
n akal</w>
kon tak</w>
ak unya</w>
ku a
meme cahkan</w>
melewa tkan</w>
hi asan</w>
î l</w>
w ek</w>
H y
sis wa</w>
menyedi akan</w>
berta ruh</w>
at anmu</w>
pa tut</w>
memikir kannya</w>
keselama tan</w>
Se hingga</w>
dom ba</w>
ak anlah</w>
hî m</w>
das arnya</w>
Ma sa</w>
menemu imu</w>
Wak tunya</w>
par temen</w>
Rabb mu</w>
Gun akan</w>
tu ku</w>
ga m</w>
g emu
di lihat</w>
S ara</w>
ter sangka</w>
meninggal kannya</w>
br â
I brâ
per ak</w>
p ele
man apun</w>
bun yi</w>
mer asakannya</w>
H ap
pro duk
B ru
pan ik</w>
datang nya</w>
man akah</w>
Ero pa</w>
la inya</w>
kun cinya</w>
pa c
gra tis</w>
pu tuskan</w>
keda tangan</w>
ar ea</w>
H or
memper tahankan</w>
Af rika</w>
o kay</w>
ik anlah</w>
U ang</w>
se kedar</w>
ber on
Ibrâ hîm</w>
ja lah</w>
j anya</w>
le n</w>
Bi jaksana</w>
T I
po s</w>
Te lah</w>
Ar tinya</w>
o d</w>
ke san</w>
T angkap</w>
pern yataan</w>
om bang</w>
meman fa
ra di
car amu</w>
La fal</w>
pe cah</w>
br ik</w>
Su ara</w>
C ity</w>
u hkan</w>
C ho
si e</w>
meng khiana
per il
kir akan</w>
kese hatan</w>
L ar
lu lus</w>
seba liknya</w>
v ia</w>
bos ankan</w>
mengun jungi</w>
mero kok</w>
peng an
ungka pkan</w>
mele pas
wa wan
ter tulis</w>
ang anku</w>
N ya
es t</w>
menyuka imu</w>
blo k</w>
beri si</w>
so sial</w>
mem pelajari</w>
ka tamu</w>
Perka sa</w>
gugu p</w>
Per iksa</w>
tr ik</w>
Kem a
pun yaan</w>
bersi hkan</w>
S ini</w>
ra ga</w>
t ru
me dia</w>
gu a</w>
ber istirahat</w>
v ali
saudara mu</w>
go t</w>
b ara</w>
ter n
ma lang</w>
gener asi</w>
su su</w>
kec il
kebahagi aan</w>
ke lihatannya</w>
r kannya</w>
ha h</w>
ta sinya</w>
gigi t</w>
di cu
ji had</w>
ol f</w>
per am
kepa laku</w>
ck ing</w>
Bo s</w>
tu duhan</w>
su sah</w>
w s</w>
berla tih</w>
K olonel</w>
le dakan</w>
kr im
G ot
pen ju
hati lah</w>
ang anmu</w>
Le wat</w>
j ing</w>
lanju tkan</w>
kur lah</w>
bos an</w>
bu hkan</w>
memberitahu kan</w>
mpa maan</w>
ma l</w>
Pada hal</w>
habi skan</w>
se umur</w>
meng ganti</w>
gang guan</w>
el d</w>
saudar anya</w>
memban tunya</w>
keyak inan</w>
ke bangkitan</w>
P apa</w>
Tom my</w>
s on
men ipu</w>
eri ff</w>
pre si</w>
apar temen</w>
Seri us</w>
pol itik</w>
ma taku</w>
kem an
ja d
be serta</w>
u ger
sa ya
T ER
M emba
Seri kat</w>
mema lukan</w>
le wa
os t</w>
mengu ru
M it
mo hon
iden ti
doku men</w>
sedi kit
S yu
ter lebih</w>
spe si
Tar ik</w>
u k</w>
ber enang</w>
mengu sir</w>
po pu
y le</w>
c is</w>
a tus</w>
mpa hkan</w>
s eng
d ong</w>
Se bagian</w>
Ste ve</w>
wa san</w>
ter tidur</w>
G en
Sh h</w>
panta t</w>
k now</w>
Se ki
seri gala</w>
per hatikan</w>
se kelompok</w>
menya lahkan</w>
ak ar</w>
w enang</w>
pem ak
pa dang</w>
asta ga</w>
Le takkan</w>
ha p</w>
ber putar</w>
ri ck</w>
ng gak</w>
ke wajiban</w>
menga jak
Se dangkan</w>
di bangkitkan</w>
ti si</w>
di hukum</w>
Ta di</w>
di janjikan</w>
Per nah</w>
Men ye
mengan cam</w>
lu ran</w>
ber teng
to i
satu pun</w>
per tam
A S
ke gi
bu lu</w>
mus tahil</w>
gu dang</w>
men jela
tu r
ke penting
t ungnya</w>
rest oran</w>
ingka tkan</w>
Y A</w>
Bo bby</w>
g ung
Ter serah</w>
Ja wab</w>
G or
Du lu</w>
lind ung</w>
ku bur</w>
vo lusi</w>
per hitungan</w>
tang ani</w>
SM A</w>
N enek</w>
- Tidak</w>
dak kan</w>
beran takan</w>
kela hi</w>
ke kasih</w>
ja man</w>
in aan</w>
gi kan</w>
ali tas</w>
T ony</w>
P ri
B in
B ada
ke bebasan</w>
g anda</w>
Pem er
G am
si apakah</w>
di ciptakan</w>
D NA</w>
hen tilah</w>
ak tor</w>
J us
par a
meng hukum</w>
beru rusan</w>
membiar kannya</w>
ser u</w>
dite tapkan</w>
kau lah</w>
Ma salah</w>
merencan akan</w>
diban dingkan</w>
le gal</w>
L in
mo del</w>
ber pakaian</w>
pemu da</w>
la p</w>
mem bebaskan</w>
pu t</w>
Bo le
. .
cak apan</w>
Maksud nya</w>
c undang</w>
Ib lis</w>
hi k
lo w</w>
tempu r</w>
asa k</w>
tahu ilah</w>
pe kerja</w>
jawa bannya</w>
tu ran</w>
f ont</w>
D ah</w>
tel anjang</w>
ok si
menyi apkan</w>
A gar</w>
per angan</w>
pa yah</w>
saha bat</w>
ka gak</w>
t ;</w>
mpu t</w>
menggang gu
Jela s</w>
ga skan</w>
N omor</w>
p h</w>
ku bantu</w>
o ba
menyebu tkan</w>
h akim</w>
Ma ti</w>
Ad akah</w>
ka pten</w>
menye satkan</w>
ori tas</w>
men darat</w>
Se gala</w>
m ia</w>
memben arkan</w>
S elesa
hancu ran</w>
G ran
C al
pa sir</w>
mu rid</w>
mengaca ukan</w>
le takkan</w>
ja t</w>
ele k
r ingan</w>
ol nya</w>
melem parkan</w>
mela hirkan</w>
perasa anmu</w>
pan an</w>
krim in
hasi lnya</w>
meng go
ka ca</w>
ima m</w>
penger tian</w>
mp angan</w>
ind u</w>
ampi lan</w>
ala sannya</w>
Ma la
syar at</w>
menga jar</w>
membiar kanmu</w>
mela porkan</w>
S w
tang guh</w>
perala tan</w>
Per hatikan</w>
duk ung</w>
sem buh</w>
menyer u</w>
mencinta iku</w>
Mo bil</w>
mengelu ar
bar nya</w>
P angeran</w>
Le x</w>
La gipula</w>
ra hasi
leng kap</w>
berteng kar</w>
ti kel</w>
at han</w>
L ap
Ker en</w>
kasi han</w>
da da</w>
seba ha
sekali pun</w>
om o
ka cang</w>
ha wa</w>
J ake</w>
o lah
ic e</w>
tek s</w>
ber buru</w>
Kelu arkan</w>
men dekat</w>
d ge</w>
bu kannya</w>
Ri ck</w>
penel itian</w>
n anya</w>
pertan ya
permu kaan</w>
si on</w>
ku n</w>
ter la
da pur</w>
Ch loe</w>
pon ku</w>
lo t</w>
karen anya</w>
ce k</w>
vali d</w>
datang ani</w>
k ing</w>
ma inkan</w>
kaum ku</w>
c ita</w>
ten ga
ber hutang</w>
ha la
c ker</w>
n ia</w>
Ric hard</w>
Ce patlah</w>
ter pisah</w>
ter ben
pen carian</w>
John ny</w>
usa lem</w>
s ter
an ian</w>
ik h
D I
mema afkan</w>
ka in</w>
is h</w>
do r</w>
d ong
seku tukan</w>
pu tr
is nya</w>
tu l</w>
tem a
se cepatnya</w>
ru kan</w>
peng en
peril aku</w>
per cobaan</w>
menga tasi</w>
di si
c akan</w>
membutu hkannya</w>
r anmu</w>
Ja son</w>
mem bentuk</w>
menu li
isa si</w>
di makan</w>
Pa sukan</w>
su per</w>
kendara an</w>
bo cah</w>
u mu</w>
suam iku</w>
N n</w>
n ada</w>
Men dengar</w>
M r
C om
dit an
sem oga</w>
aj er</w>
ar a
O w</w>
sedi akan</w>
ke bakaran</w>
W in
mem bosankan</w>
tak dir</w>
keber anian</w>
il mu
Ke lihatannya</w>
pa man</w>
ken angan</w>
is e</w>
Aman da</w>
rak sasa</w>
spe sial</w>
pel akunya</w>
inf eksi</w>
A P
y et</w>
ber kelahi</w>
ber es</w>
per tarungan</w>
ang ga</w>
A M
za li
peng lihatan</w>
mencar imu</w>
de bu</w>
pre siden</w>
pak et</w>
karak ter</w>
Kak ek</w>
peng iku
ti p</w>
ap lah</w>
Ter kadang</w>
sala hmu</w>
ko lam</w>
suam inya</w>
meng akhiri</w>
ling i</w>
a a
S in
li h</w>
pa pan</w>
mendengar ku</w>
mem ungkinkan</w>
P unya</w>
ju r</w>
mem asak</w>
Ta urat</w>
in t</w>
har ian</w>
diba yar</w>
dara tan</w>
si t</w>
mendu ga</w>
Bi cara</w>
in ci</w>
el o
penderi taan</w>
D er
ter oris</w>
J am
puku lan</w>
ge li
sal ju</w>
ma m
pu an</w>
Y û
w ith</w>
ti on
sar apan</w>
pri ba
pon se
kak imu</w>
teling a</w>
an y
pikir anmu</w>
F il
s c
L am
n on</w>
do h</w>
Tu r
T ha
mem bicar
ke u
menuru tku</w>
beru ang</w>
ter utama</w>
bo k
tentang mu</w>
Ke ku
mbu t</w>
diu tus</w>
le her
Ta e</w>
gen da</w>
pe perangan</w>
baga ikan</w>
mem inta
ku kira</w>
adi kmu</w>
Bi g</w>
ting kah</w>
aga m</w>
Ta hu</w>
dima sukkan</w>
Z o
l un
l ni</w>
Sa yangnya</w>
ter biasa</w>
angg ang</w>
B ani</w>
to m</w>
mpu lan</w>
mema suk
Kor ea</w>
ungk in
un an</w>
j embatan</w>
per hati
Su lit</w>
pem e
c om
meng hadap</w>
ju k</w>
ce r</w>
T inggal</w>
Ter tawa</w>
u mnya</w>
mu si
di dikan</w>
tra k</w>
memper lihatkan</w>
pun cak</w>
p si
Mu dah</w>
Chu ck</w>
per gian</w>
jalan kan</w>
ber baring</w>
ar gu
ter ja
penu lis</w>
mengeju tkan</w>
Ba pak</w>
ju d
at lah</w>
Seki tar</w>
Har usnya</w>
mengga li</w>
memas ang</w>
Yer usalem</w>
toi let</w>
ko h</w>
fer ensi</w>
ambi lkan</w>
spi rasi</w>
meny angka</w>
ar is</w>
mele bi
f e</w>
berba lik</w>
uc ap
olo l</w>
Mar ia</w>
ko p
D ra
memer angi</w>
Ja hanam</w>
pengar uhi</w>
a bu</w>
se p</w>
membaha s</w>
Car l</w>
ra pat</w>
m lah</w>
keta t</w>
tu n</w>
ter kandung</w>
pen a
mi salnya</w>
lem ari</w>
Ke pada</w>
Em ma</w>
se cepat</w>
peru mpamaan</w>
pus tak
ni h</w>
ba sah</w>
t han</w>
ka mp
Ar t
u bah</w>
Bole hkah</w>
ver sitas</w>
keka yaan</w>
S an</w>
D el
ma h
meny el
ri e</w>
pa brik</w>
kan tor
member ik
Da pat</w>
mo yang</w>
Men jadi</w>
kli en</w>
r na</w>
e p</w>
La in</w>
z u
Pro fe
Pen cipta</w>
E L
luki san</w>
pu as</w>
pekerja anmu</w>
Ba l
gem ar</w>
Pili h</w>
t ha</w>
juju rnya</w>
c emas</w>
Tu runkan</w>
T ing
ra s</w>
du an</w>
c ang
mem bangun
Ja dilah</w>
y anya</w>
re n</w>
j ang</w>
be sar
b o</w>
ter kunci</w>
meng ger
ber duka</w>
Ma ta</w>
per an</w>
jak annya</w>
gam barkan</w>
be saran</w>
Te ta
Pe tugas</w>
Men u
peng aku
tah anlah</w>
mempercaya inya</w>
j ikkan</w>
sedikit pun</w>
per intah
ot h
memin taku</w>
ga p</w>
mengur angi</w>
ma yan</w>
d ol
tu amu</w>
kar ya</w>
C ap
le tak</w>
ga me</w>
dil akukannya</w>
T angan</w>
ra ya</w>
lang lah</w>
e kon
v ille</w>
ta wan</w>
is inya</w>
J in</w>
mela rang</w>
sem bah
re l</w>
Sa lam</w>
kak inya</w>
er a</w>
Hu bungi</w>
menying kirkan</w>
am an
wa an</w>
is tan</w>
z e</w>
u rus</w>
t ch</w>
Un i
Su ci</w>
memben ci
Qu e
Art hur</w>
col or</w>
aya an</w>
Bar ang</w>
bu n</w>
Y un
per lahan</w>
par kir</w>
ik i</w>
d el
Kun ci</w>
membutu hkanmu</w>
ek st
keta atan</w>
ja lannya</w>
T akkan</w>
pen i
men di
melindung imu</w>
kan d
Mar tin</w>
profe sional</w>
An dre
te patnya</w>
asa lnya</w>
Pas tikan</w>
melu pak
ju taan</w>
Ka mi
wa l
meng hancu
t ori</w>
ki mia</w>
a b
ro w</w>
menyelama tkannya</w>
do wn</w>
d ra</w>
M inggu</w>
Ka te</w>
keku fu
sim bol</w>
len yap</w>
R os
sebaha gian</w>
K la
z inkan</w>
fi sik</w>
li lingi</w>
as inya</w>
Me k
A L
kece wa</w>
har am</w>
ce wek</w>
bung kan</w>
teta plah</w>
r ap
kera guan</w>
mur ni</w>
di jelaskan</w>
Tim ur</w>
syar i
kak ek</w>
ber tugas</w>
b ong
ter hubung</w>
ser uan</w>
b eng
Dire ktur</w>
wak i
fir masi</w>
na ga</w>
menim bulkan</w>
baik 2</w>
pekerja anku</w>
meminta mu</w>
li buran</w>
Mar yam</w>
C han
sis ten</w>
ak ti
S tan
baik inya</w>
se besar</w>
menika hi</w>
E ri
ter kadang</w>
g n
bu atan</w>
angka l</w>
s tu
n yonya</w>
Kom andan</w>
su snya</w>
pem bohong</w>
di pa
ber kat</w>
menyakit imu</w>
meng aniaya</w>
ru mput</w>
kepenting an</w>
ra tusan</w>
la yar</w>
tu anya</w>
l li
a tur</w>
p ung</w>
ping san</w>
per batasan</w>
Bu ku</w>
kam bing</w>
C IA</w>
R us
lu mpu
k rim</w>
ku beritahu</w>
stru ksi</w>
lo ck</w>
Do u
per angkap</w>
ber semangat</w>
an o</w>
Sen ja
D at
ber sinar</w>
in tahan</w>
membac anya</w>
le her</w>
mem pe
ja mak</w>
ra l</w>
paka i
ong nya</w>
Ro ma</w>
meninggal kanmu</w>
Kemba lilah</w>
ro bot</w>
Willi am</w>
T ak
Mar k</w>
menjadi kannya</w>
diser ang</w>
G oo
sar ankan</w>
J o</w>
Ter akhir</w>
t his</w>
bu ahan</w>
A i
ri ght</w>
mengu ji</w>
Yû suf</w>
S pan
ber senjata</w>
Ada pun</w>
sa luran</w>
per intahkan</w>
mpu s</w>
kon trol</w>
Pe te</w>
I r
iz inkan</w>
ilmu wan</w>
da p</w>
Ste fan</w>
Teta plah</w>
Dis ana</w>
sya itan</w>
ba ca
T ri
H adi
ya tnya</w>
kur ban</w>
k lah</w>
per hiasan</w>
kebu rukan</w>
Ja wa
Men teri</w>
beru tang</w>
di ken
Bu tuh</w>
poli sian</w>
ke lem
bon eka</w>
l ly</w>
Mah aku
mengiku tinya</w>
memper ingatkan</w>
e z</w>
Sim on</w>
Baha sa</w>
to pi</w>
memper baikinya</w>
ber jihad</w>
S her
An jing</w>
ter serah</w>
li hkan</w>
Dam on</w>
si asi</w>
an yikan</w>
lan dia</w>
Ma ster</w>
al d</w>
r indu</w>
An akku</w>
gel ombang</w>
Profe sor</w>
i ca</w>
dila rang</w>
Sem akin</w>
da hlah</w>
awa lnya</w>
a ter</w>
9 0</w>
sa lam</w>
S pe
S empu
menam bahkan</w>
d d
ya tim</w>
penye li
Sak it</w>
maksud kan</w>
ber a
Mis s</w>
v o</w>
ja min</w>
tan i</w>
kebi asaan</w>
ke sal</w>
cH5 b
cH5b ffff</w>
pen du
pem beron
menyuru hku</w>
di tahan</w>
par uh</w>
im pi
w o
mengun dang</w>
kese pian</w>
ko l</w>
W ala
menyayang imu</w>
men ingkatkan</w>
S k
Ke vin</w>
keku rangan</w>
W hoo</w>
maksi at</w>
g el</w>
bin asa</w>
I T
produk si</w>
pem buru</w>
gemu k</w>
s ki</w>
Di amlah</w>
tu hi</w>
mengenal mu</w>
f ormasi</w>
dipe cat</w>
dila hirkan</w>
ter buat</w>
pe cundang</w>
ke ingin
duk ungan</w>
E nam</w>
Ber sama</w>
ker i
kekufu ran</w>
ber niat</w>
Bar at</w>
li kop
sunggu han</w>
li mu
Ku dengar</w>
tem bok</w>
ik sanya</w>
Phi l</w>
Bo doh</w>
seki tar
Par k</w>
ter tembak</w>
te tangga</w>
menuntu t</w>
is teri</w>
U R
ra tu</w>
memanggi lnya</w>
ku k</w>
S par
ic h</w>
dit inggalkan</w>
O R
memer intah</w>
tr on
terse dia</w>
mengen ali</w>
te kan</w>
peny em
har ganya</w>
Ed die</w>
peng har
melem par</w>
Tho mas</w>
menyimp annya</w>
mela w
krimin al</w>
ga tif</w>
ban yaknya</w>
li bur</w>
ja min
fi eld</w>
C am
Te puk</w>
Dar imana</w>
A li</w>
per cakapan</w>
ow ongan</w>
taru hkan</w>
san kan</w>
B rian</w>
ka m</w>
im ba
leng an</w>
Ka li</w>
sem pat</w>
ek ku</w>
a .</w>
C D</w>
h akan</w>
dit embak</w>
bi dang</w>
y aku</w>
sum si</w>
se d</w>
men atap</w>
Pin tu</w>
ter buru</w>
senja tamu</w>
D un
sen tra
ke hidup
be tina</w>
i f</w>
beri tahu
kak akku</w>
Pe gang</w>
ten tulah</w>
me dan</w>
benar 2</w>
Ke tua</w>
menemu inya</w>
m mu</w>
lang nya</w>
se l
for d</w>
Se ko
lo r</w>
ke sedi
per damaian</w>
Cer itakan</w>
tif ikasi</w>
sem bahkan</w>
pin dahkan</w>
meme san</w>
elu k</w>
da si</w>
Ro bert</w>
ku dengar</w>
menye bar</w>
w aku</w>
cH 8
Su rat</w>
z aman</w>
kebu tuhan</w>
ho l</w>
di panggil</w>
pr ak
ber napas</w>
Per na
7 0</w>
pro se
Kema tian</w>
un t</w>
menga tasinya</w>
O s
kon trak</w>
Bu k
rencan akan</w>
pen didikan</w>
lo bal</w>
f it
lan car</w>
kenya taannya</w>
dis ku
J os
menye lidiki</w>
di keluarkan</w>
T re
Si apapun</w>
Ju li
a mi</w>
Ting gi</w>
su p</w>
is me</w>
bu a
sw t</w>
k tori</w>
ban d</w>
menunggu mu</w>
ali en</w>
Mala ikat</w>
rem aja</w>
merindu kan</w>
Sempu rna</w>
lu m
berla yar</w>
r os
M olly</w>
kor an</w>
tr ia</w>
da t</w>
bi ar
ma i</w>
ber manfaat</w>
H o</w>
F la
per awa
n ing</w>
S on
at her</w>
tak si</w>
ku tahu</w>
pan dang</w>
memak ainya</w>
Ne gara</w>
men dirikan</w>
membicar akannya</w>
Wala upun</w>
T E
Ja tuhkan</w>
men ata
H it
ung kapan</w>
ter batas</w>
sa yap</w>
ra k</w>
S impan</w>
membaha yakan</w>
F ar
or nya</w>
menemu kanmu</w>
menghubung imu</w>
Tu anku</w>
memin dahkan</w>
deng aran</w>
bu rkan</w>
se su
perca yalah</w>
ju n</w>
asa p</w>
Hu ku
sis anya</w>
Wo o</w>
T w
se te
re siko</w>
St re
Re be
ja bat</w>
A pi</w>
r it
men janjikan</w>
menye wa</w>
la b</w>
ki s</w>
mu la</w>
gu l
di bangun</w>
pa mu</w>
P ER
z o</w>
L anjutkan</w>
s me</w>
ra cun</w>
mema ham
har gai</w>
c t</w>
R on
Pemu rah</w>
uru sanmu</w>
O per
teri kat</w>
datang lah</w>
c ha
re t</w>
kir im
ke hancuran</w>
ju st</w>
ar t</w>
- Kau</w>
st ri</w>
h aka</w>
Baga imanapun</w>
A tas</w>
re pot</w>
du anya</w>
pel aku</w>
ga un</w>
L .
di penuhi</w>
Mem angnya</w>
hik mah</w>
cu ku
V o
Ke parat</w>
t ran
C oo
sit us</w>
pe ti</w>
li ke</w>
la ba</w>
ku pikirkan</w>
Da ve</w>
Al kitab</w>
t olol</w>
Pe kerjaan</w>
ju ara</w>
Z e
sekali gus</w>
pi st
musu han</w>
du knya</w>
Lu cy</w>
pengu asa</w>
bo y</w>
bar lah</w>
p anggung</w>
se sama</w>
kom pe
ko le
ben teng</w>
dis itu</w>
l l
nu k
cer ai</w>
car aku</w>
ber warna</w>
pemer iksaan</w>
I ta
olah raga</w>
ir nya</w>
hing ton</w>
I sa
I m
v el
sebu lan</w>
Rabb ku</w>
D in
Ali ce</w>
em en</w>
aja ib</w>
Su r
Mel akukan</w>
pemer intahan</w>
jen ius</w>
I .
ke si
ber lindung</w>
kun ing</w>
ban dara</w>
W at
Span yol</w>
A us
gu ys</w>
bi an</w>
Ro h</w>
Ja ck
ter paksa</w>
mengkhiana ti</w>
Ku asa</w>
pan ah</w>
memper lakukan</w>
hu da</w>
si han</w>
keben arannya</w>
ili k</w>
Ke banyakan</w>
so lusi</w>
sebu ruk</w>
Senja ta</w>
M emu
ta jam</w>
pen aw
c hi</w>
An eh</w>
d z
Se andainya</w>
tu mpu
dur haka</w>
3 00</w>
ar o
0 .000</w>
penyeli dikan</w>
pro duk</w>
Su m
S top</w>
Bi lang</w>
sin ilah</w>
memak annya</w>
po la</w>
men ta
bel an
Jes se</w>
tubu hmu</w>
lem bah</w>
ef ek</w>
E r
ung mu</w>
st on</w>
jar ang</w>
Ty ler</w>
ta snya</w>
rencan anya</w>
mendengar mu</w>
Perna hkah</w>
y ar
di rkan</w>
M in</w>
Ber diri</w>
ti me</w>
menga lah
m s</w>
I sa</w>
ta w
s akan</w>
pr in
sen i
mobi lku</w>
ka bel</w>
an uger
aku t</w>
Pertan yaan</w>
4 5</w>
ti du
per lukan</w>
ditu lis</w>
S .
sy u
k lat</w>
buru knya</w>
membel inya</w>
man tra</w>
likop ter</w>
ber pisah</w>
g on</w>
bi jaksana</w>
H an</w>
wa i</w>
t ho
meng on
Lor d</w>
suam imu</w>
linta s</w>
c ap
R yan</w>
F er
C i
p t</w>
Ye huda</w>
Pa ham</w>
mot or</w>
h .</w>
gun aan</w>
ber n
Was hington</w>
Ma salahnya</w>
mem bangkitkan</w>
pende ta</w>
mene kan</w>
men ahannya</w>
E x
Bi car
ga l
be gitulah</w>
Sh eriff</w>
meray akan</w>
K E
E s
z akat</w>
sepe da</w>
ori um</w>
menyelama tkanmu</w>
ro m</w>
g itu
Be tapa</w>
ji d</w>
pikir anku</w>
ku buran</w>
keada annya</w>
h m</w>
po in</w>
par u</w>
c tor</w>
T anda</w>
Mahaku asa</w>
D o</w>
cu ri
BA R</w>
w er</w>
ma tema
ada m</w>
B I
meng arah</w>
cata t</w>
Mo hon</w>
kemati annya</w>
H akim</w>
Mo m</w>
G anti</w>
mak in</w>
K hu
pu jian</w>
ber satu</w>
Vic tor
T elepon</w>
sa lan</w>
keru gian</w>
Tam pilkan</w>
se jen
Mak sud</w>
L E
syari at</w>
sek sual</w>
masala hmu</w>
emo si</w>
de tektif</w>
bay angan</w>
mam pir</w>
bak al</w>
Ba t
Bru ce</w>
ke can
fi si
Mag gie</w>
kaum mu</w>
di tam
di beritahu</w>
d d</w>
seper tiku</w>
r lah</w>
n ot</w>
as t</w>
ter akhi
pen g</w>
Ale x
se jumlah</w>
Ma tikan</w>
men tal</w>
mel angkah</w>
ku tuk</w>
di buang</w>
I tu
sa mu
ma hasi
o kan</w>
mem pengaruhi</w>
cH5 E
cH5E FFFF</w>
bertak walah</w>
per men</w>
pacar mu</w>
membay arnya</w>
w ang</w>
ta gi
pos itif</w>
G ro
Ta wa</w>
S he
m bang</w>
Mek siko</w>
A di
E l</w>
ta ruh</w>
seki ranya</w>
din am
cua ca</w>
an tis</w>
m on</w>
kamp ung</w>
c ia</w>
to p
ju an</w>
du stakan</w>
Char les</w>
sema ta</w>
menji jikkan</w>
kak akmu</w>
kan ker</w>
ga ib</w>
ra han</w>
du m</w>
di minta</w>
T K
O N
di p
d aku</w>
ber kedudukan</w>
menyem buhkan</w>
identi tas</w>
menga baikan</w>
Sa ul</w>
ga y</w>
memba talkan</w>
anju tnya</w>
A my</w>
mem isa
Ber arti</w>
z i</w>
mengun ci</w>
har i
ben arkah</w>
C ali
pen ja
v al</w>
pelangg an</w>
p o</w>
Ju jur</w>
2 3</w>
bes arnya</w>
Ka m
s wa</w>
jan tan</w>
Seko lah</w>
sen apan</w>
m anya</w>
ko hol</w>
ke bin
C ra
put rimu</w>
lay anan</w>
bi s</w>
le zat</w>
ku berikan</w>
Su b
M y
hi e</w>
An dy</w>
memu ji</w>
Bi asanya</w>
seru pa</w>
mendatang i</w>
li aan</w>
ke punyaan</w>
Sel anjutnya</w>
P es
pan ye</w>
menya darinya</w>
menembak nya</w>
ha lus</w>
po kan</w>
is y</w>
ber keli
C re
r itu
om bie</w>
her ine</w>
dur lah</w>
ro da</w>
pelangg aran</w>
jamin an</w>
buat ku</w>
S ho
D al
tung gal</w>
pemberi an</w>
anta ranya</w>
I kut</w>
Car ter</w>
Car ol
in ap</w>
cem buru</w>
b tu</w>
stru ktur</w>
gu la</w>
di hi
da ran</w>
ber cerita</w>
tuju i</w>
ol l</w>
ling ku
T el
pelu ang</w>
kon firmasi</w>
ba ck</w>
L ana</w>
w er
da san</w>
bu han</w>
w r
sa ham</w>
bel aka</w>
Mem ili
meru gi</w>
memper siapkan</w>
k in
ing ku</w>
Te d</w>
t kanlah</w>
di rumah</w>
W aja
T olonglah</w>
u langi</w>
ter kesan</w>
ter owongan</w>
penu tup</w>
kan tong</w>
j arnya</w>
A duh</w>
mes ti</w>
memba la
melebi hi</w>
ber sedih</w>
sepak at</w>
di tambah</w>
Sa atnya</w>
Per intah</w>
penye bab</w>
W e</w>
Jon es</w>
B re
ri st
per tahanan</w>
mela m
do k
d ro
bu san</w>
M y</w>
u hnya</w>
ha lo</w>
em a
anda lkan</w>
e x
Bicar alah</w>
kumpu lan</w>
de sa
aw i</w>
In i
A w
u gh</w>
meny ar
gon na</w>
melu kai</w>
l anta
in te
K ing</w>
Ber si
bes arkan</w>
ke ji</w>
argu men</w>
Seba liknya</w>
un duk</w>
Ben da</w>
t t
E than</w>
ga ji</w>
perawa tan</w>
pengaku an</w>
pemak aman</w>
apa 2</w>
Victor ia</w>
May or</w>
l anmu</w>
b re
S han
ser atus</w>
do m</w>
S .</w>
D arah</w>
seba gainya</w>
v ing</w>
tele ponnya</w>
per misi</w>
di buka</w>
ser ahkan</w>
inter net</w>
Lu cu</w>
uni tas</w>
tu knya</w>
pen e
menyelesa ikannya</w>
Yo ung</w>
tun ai</w>
tah unya</w>
tun angan</w>
pa yu
i ri</w>
dit ak
Mu l
y angkan</w>
Ma c
i dah</w>
C el
ste in</w>
ri salah</w>
le bar</w>
h inya</w>
c ca</w>
Pat rick</w>
Selesa i</w>
R ose</w>
t untu
mu ak</w>
la lim</w>
ala man</w>
em y</w>
Mem a
La ut</w>
K ang</w>
ber kencan</w>
sta bil</w>
mencu ri
i la</w>
f anta
W oo
meram pok</w>
pa tuh</w>
ki ta
da rkan</w>
r antai</w>
ne g
be pergian</w>
G aga
ke ah
nuk lir</w>
an .</w>
Se an</w>
U l
D E
ter baru</w>
h y
U gh</w>
pen siun</w>
p per</w>
ter imakasih</w>
men ara</w>
Mer e
ri siko</w>
in tinya</w>
b ta
mel inta
ber fikir</w>
ber amal</w>
K it
ru panya</w>
ku l
ta rian</w>
ke di
bel a</w>
te lit</w>
s ona</w>
peng gemar</w>
kirim kan</w>
ha l
dit i
K ir
menggan tikan</w>
ge sa</w>
bern ur</w>
I n</w>
menga si
f es
Ka pal</w>
C ro
mele pas</w>
Ita lia</w>
dol lar</w>
c her</w>
I de</w>
wawan cara</w>
peng un
nya la</w>
a sih</w>
Pa u
Ja uh</w>
kepu tu
ke teta
Keku atan</w>
I D</w>
na hkan</w>
kemar ahan</w>
ke te
pengan tin</w>
ra d</w>
menen dang</w>
ma du</w>
impin an</w>
i legal</w>
bo h</w>
berkeli aran</w>
Per u
Ke ja
pela y
la rut</w>
gela mkan</w>
E d</w>
po hon
me wah</w>
kak iku</w>
Bla ck</w>
v es</w>
sw t.</w>
peng guna</w>
ul d</w>
pa jak</w>
menja uhi</w>
meng orban
man ku</w>
Men cari</w>
Lu th</w>
sor ak</w>
os ok</w>
te pi</w>
sing a</w>
per sa
beri lah</w>
Bu lan</w>
ser agam</w>
gun ungan</w>
C y
Y i</w>
Ter utama</w>
T or
G il
ot ot</w>
member ka
sentra si</w>
Min um</w>
meli puti</w>
Ka i
la bor
le e</w>
jad wal</w>
in dahan</w>
d os
1 8
r ia</w>
mo der
menja ganya</w>
Ban k</w>
sta l</w>
mengen dara
ku inginkan</w>
ber da
Tu run</w>
Kla us</w>
te guh</w>
bersa bar</w>
oo h</w>
Ma d
L is
for nia</w>
menju alnya</w>
M ele
Ka t
Ber su
fa si
se akan</w>
gam baran</w>
D V
2 2</w>
di sediakan</w>
ca dangan</w>
B lo
pem ikiran</w>
An nie</w>
keberada an</w>
Dem ikian</w>
t te</w>
pengiku tnya</w>
mer i
mak an
cen der
gi g
penu mpang</w>
meng angga
melindung inya</w>
ben arkan</w>
Se belah</w>
om o</w>
memanfa atkan</w>
G ri
pengh ormatan</w>
gen g</w>
em e
di li
Men ar
memper timbangkan</w>
dag angan</w>
d angnya</w>
bta da</w>
W i
O N</w>
w hat</w>
ck s</w>
pacar ku</w>
meny omb
ma g
u san</w>
mene tap</w>
it ku</w>
g anj
ter s</w>
pi da
mema tahkan</w>
belak angan</w>
Jer ry</w>
v ak
p annya</w>
me war
co klat</w>
ca cat</w>
p le</w>
buat mu</w>
ber makna</w>
ata upun</w>
w in</w>
pung gung</w>
ing mu</w>
Kris ten</w>
Keluar lah</w>
menun dukkan</w>
di mu
spe sif
ha f
u paya</w>
wak tumu</w>
sal inan</w>
per im
F al
meng hada
ekon omi</w>
Har ap</w>
tam bang</w>
mar kas</w>
E un</w>
A H</w>
go l</w>
jem ahkan</w>
at orium</w>
menolong mu</w>
mengem bangkan</w>
h kanku</w>
ci ri</w>
b ol
al o
se e</w>
sa han</w>
memu tar</w>
memisa hkan</w>
J ung</w>
Bu kannya</w>
sar ang</w>
organ isasi</w>
ke dengarannya</w>
jar inya</w>
f ikasi</w>
Har v
n om
menge jek</w>
ke seluru
ar ap</w>
Ja lan
su n</w>
cer min</w>
bay inya</w>
R encana</w>
kua tir</w>
an e</w>
A wa
A man</w>
ra i</w>
mere but</w>
co w
ber nafas</w>
K AN</w>
gu hkan</w>
Meny ing
Ber tahanlah</w>
re ken
ha ve</w>
ha man</w>
ber tingkah</w>
W ay
TK P</w>
N er
Mus lim</w>
mereka m</w>
menya lakan</w>
it is</w>
vi tas</w>
ber tempur</w>
and y</w>
mon yet</w>
Li sa</w>
1 1
mele dakkan</w>
gu run</w>
bah tera</w>
V an</w>
te puk</w>
ap likasi</w>
melupak annya</w>
im pian</w>
Ch ris
mem al
i de
han an</w>
IN G</w>
men ingkat</w>
memanggi lmu</w>
kesedi han</w>
Ber gerak</w>
r m</w>
R uang</w>
Ma sukkan</w>
H il
e go
hendak nya</w>
Ja e</w>
ung ku</w>
se lagi</w>
mengorban kan</w>
ku per
mener angkan</w>
s hi</w>
pi pa</w>
oto matis</w>
Meng en
Mar i
stan dar</w>
sayang ku</w>
rom antis</w>
â t</w>
peng khianat</w>
pe tu
di penjara</w>
Pen jaga</w>
ter bit</w>
pa t
memer iksanya</w>
dar imana</w>
ter dekat</w>
ser ver</w>
cer itanya</w>
ca p</w>
us lah</w>
ro kok</w>
pela tihan</w>
kemu liaan</w>
har inya</w>
bi ji</w>
O hh</w>
I ma
B ran
si pil</w>
r ela</w>
sa saran</w>
menyomb ongkan</w>
laku an</w>
di hancurkan</w>
bersa maan</w>
pustak aan</w>
oksi gen</w>
beru lang</w>
al kohol</w>
ter bangun</w>
sta tus</w>
fs 35</w>
Su per
Ber hentilah</w>
ika tan</w>
Be th</w>
ir ing</w>
N ar
Me sin</w>
taw aran</w>
diper bolehkan</w>
cang kir</w>
L ily</w>
Bos s</w>
û h</w>
ta il</w>
se ler
per mohon
Pel an</w>
H I
Ber ita</w>
waja hku</w>
di bakar</w>
cu cu</w>
se andainya</w>
por t</w>
peng ganti</w>
bi a</w>
tem en
l kannya</w>
kau lakukan</w>
dise lamatkan</w>
bo r</w>
ag ung</w>
tan tangan</w>
g rup</w>
bu suk</w>
L I
H ong</w>
Be tul</w>
mencu lik</w>
mem and
baga imanapun</w>
ol der</w>
mera wat</w>
ma il</w>
L a</w>
hu m</w>
Bay angkan</w>
sua sana</w>
favor it</w>
J ak
A L</w>
per ju
kaw in</w>
gg y</w>
Cali fornia</w>
waki li</w>
dan au</w>
W el
Sis tem</w>
Ch ina</w>
û d</w>
kar ya
ba by</w>
tak a</w>
T rans
um lah</w>
menyuru hmu</w>
I .</w>
ber gu
ba wakan</w>
f il</w>
Se jauh</w>
no l</w>
menan datangani</w>
li m
la dang</w>
R E
Pu kul</w>
Gra y
pu taran</w>
pekerja annya</w>
S A</w>
Di a
su per
memaham inya</w>
hala l</w>
menyentu hnya</w>
dara hnya</w>
Jen ny</w>
perka sa</w>
memu lainya</w>
u ji</w>
ran si</w>
nya .</w>
cender ung</w>
Vic tor</w>
ra mah</w>
fu cking</w>
bala sannya</w>
Sun gai</w>
per tu
ku tu
ber dansa</w>
S o</w>
S antai</w>
mendu s
ter penting</w>
s tis</w>
r ing
mim pi
menginga tnya</w>
men tar</w>
de wan</w>
wu jud</w>
ma lam
wu jud
ol e</w>
meli batkan</w>
Nas rani</w>
A .
ritu al</w>
menem bus</w>
belak angmu</w>
Bon nie</w>
saha batan</w>
ek mu</w>
S har
pi ring</w>
bersi fat</w>
keteta pan</w>
Yun ani</w>
Beri kut</w>
D om
permu laan</w>
emu an</w>
asa m</w>
mema af
Pemer intah</w>
Pal ing</w>
Jo on</w>
peny im
menu run
Su ruh</w>
S ti
seri bu</w>
la rangan</w>
di ikuti</w>
B lu
tuli san</w>
pem bawa</w>
memin tanya</w>
ko sa</w>
datang kan</w>
berta s
memberi tahunya</w>
keben cian</w>
da mu</w>
ar y</w>
O p
pedu likan</w>
mobi lmu</w>
ir iman</w>
Ja y</w>
tek si</w>
mili knya</w>
kera bat</w>
wi ra</w>
ti ang</w>
matema tika</w>
ber gantung</w>
Ng omong</w>
man ajer</w>
ke besaran</w>
K os
put rinya</w>
San ta</w>
sa b</w>
mu dahan</w>
men in
Han k</w>
sa hkan</w>
mun tah</w>
membay ar
ka taku</w>
j angka
di lem
Ka bar</w>
pen em
N ûh</w>
li b</w>
J ib
cam nya</w>
taru han</w>
c angan</w>
bong kar</w>
tubu hku</w>
ter tinggi</w>
memanc ing</w>
indu stri</w>
S co
P usa
menguru snya</w>
jak san
al angan</w>
Per caya</w>
kre dit</w>
gi r
DV D</w>
AN DA</w>
ung annya</w>
men ol
ada an</w>
P on
Eri c</w>
ta rkan</w>
memper sekutukan</w>
la pi
k n
ber lian</w>
Dat anglah</w>
ta ris</w>
se potong</w>
ole hmu</w>
ka mpus</w>
han nam</w>
Que en</w>
P ol
berge gas</w>
T han
A v
was pada</w>
se pasang</w>
spesi es</w>
orang 2</w>
men on
ker janya</w>
ha b</w>
beli au</w>
ter jatuh</w>
menyel inap</w>
menghen ti
ling karan</w>
mahasi swa</w>
he likopter</w>
ek tif</w>
ter pe
ti adalah</w>
meninggal kanku</w>
ko knya</w>
keba jikan</w>
kamar ku</w>
ic u</w>
kele dai</w>
pem buat</w>
anj i</w>
Mes ki</w>
or din
Syu kurlah</w>
N ik
Ist ri</w>
suar anya</w>
moder n</w>
ela mat</w>
Tuju h</w>
Per mainan</w>
Jack son</w>
sak iti</w>
T at
Pe san</w>
m ore</w>
empu h</w>
deng an
ber akal</w>
awa si</w>
mengu bahnya</w>
dar aku</w>
I l
bi sa
Per lu</w>
Jib ril</w>
z ona</w>
ra tus</w>
ma tikan</w>
k ru</w>
ek seku
ba d
T a</w>
Su am
Rab bnya</w>
ten anglah</w>
sem en
fa sik</w>
ken cing</w>
ir ah</w>
dire ktori</w>
T ay
S pi
Kau lah</w>
Ban û</w>
tuga smu</w>
men anggung</w>
kom unitas</w>
bi o
ber keliling</w>
M U
Ju mat</w>
r â</w>
mere kalah</w>
lot te</w>
kemar ilah</w>
Na ik</w>
ta hap</w>
men af
lor ong</w>
berde bat</w>
a ib</w>
Fin n</w>
E ar
memin um</w>
per baikan</w>
pem bantu</w>
p ha</w>
mengganggu mu</w>
pa m
meng ham
j eng
S we
de ta</w>
Mak anan</w>
Mem bunuh</w>
C at
menc ata
hi dung</w>
ap i
aku ti</w>
menjela skannya</w>
ma suklah</w>
So o</w>
pi lan</w>
bu ahnya</w>
T ru
Per usahaan</w>
Ang katan</w>
kla im</w>
dra l</w>
N y
diban ding</w>
bo ok</w>
beli h</w>
Se tuju</w>
Lu ke</w>
Ke ber
AN G
t it
spe ktur</w>
mengelu h</w>
T emukan</w>
Ah li</w>
ne gatif</w>
keseluru han</w>
du li</w>
ter sing
pe ga
kebin asaan</w>
gaga lan</w>
R O
t ty</w>
ke per
da un</w>
ber bangkit</w>
W or
R A
Ba yi</w>
se berang</w>
meng gigit</w>
mencu ci</w>
mon d</w>
ikh las</w>
be danya</w>
Y aku
zz a</w>
sema camnya</w>
V ir
Kan tor</w>
Ka li
bu tan</w>
r hak
putr aku</w>
per s</w>
bawa hnya</w>
Ti ada</w>
th ing</w>
s ingga
pi lot</w>
senja tanya</w>
sem pit</w>
j aku</w>
angka tan</w>
Sa btu</w>
pendapa tmu</w>
kan ak</w>
ek nya</w>
Ber aninya</w>
per so
per kem
hi d</w>
Pusa t</w>
N yalah</w>
to peng</w>
s ky</w>
pela tih</w>
ong mu</w>
ja tuhkan</w>
P un
s ang
ko p</w>
keka si
geli sah</w>
ak anmu</w>
Re g
terja dinya</w>
ha pus</w>
gili ran</w>
Ro ger</w>
De partemen</w>
t ter</w>
meng ungkapkan</w>
lu t</w>
i badah</w>
b ru
Ak hir</w>
K ong</w>
K I
mena ati</w>
kam p</w>
Ki rim</w>
war is</w>
t olonglah</w>
ki k</w>
A ta
y n</w>
memper kenalkan</w>
bu lan
L en
rencan amu</w>
per jalan
ku harap</w>
Ambi llah</w>
. ....</w>
ka pa
ka hkan</w>
di kumpulkan</w>
ba i</w>
ata ukah</w>
Ti ap</w>
Ke hidupan</w>
tuga sku</w>
pas tinya</w>
fi gu
c ampu
R a</w>
perse li
penghar gaan</w>
J i</w>
mo men</w>
menya lah
menjempu t</w>
ka mu
ba s</w>
kri psi</w>
ken a
er at</w>
S pen
ing ga</w>
menja min</w>
U S</w>
ter nya</w>
a lis</w>
P indah</w>
Is â</w>
usa hakan</w>
j ung
de gan</w>
beritahu kan</w>
angga pan</w>
Kemba likan</w>
v aku
menam pakkan</w>
peram pokan</w>
e f</w>
Pak ai</w>
peng em
lu rkan</w>
R ak
ha r</w>
eng gan</w>
mengh ina</w>
di miliki</w>
Lou is</w>
Aya hnya</w>
il mi
pe tani</w>
bu daya</w>
ber hadapan</w>
Se puluh</w>
Char lotte</w>
u angku</w>
pu ku</w>
gi ku</w>
kema juan</w>
in ti</w>
diper kirakan</w>
Memili ki</w>
Ka mar</w>
ce tak</w>
ber masalah</w>
be th</w>
Ber kata</w>
mempercaya imu</w>
bi sik</w>
bersi keras</w>
belan ja</w>
L it
mem bung
kan dang</w>
ka dar</w>
gin da</w>
c ome</w>
R asa</w>
teng gor
ke p
ke lin
ba li
Stre et</w>
Cer ita</w>
ser i</w>
keada anmu</w>
di ca
La dy</w>
di curi</w>
li at</w>
di inginkan</w>
Sen ator</w>
du ri</w>
din ya
ch o</w>
z ah</w>
pro jek</w>
n en
kelem ahan</w>
K yle</w>
sta an</w>
sak sikan</w>
ob ro
belak angnya</w>
F it
li p</w>
bu atnya</w>
bang nya</w>
Ju mlah</w>
un ik</w>
pr oto
per ta
kon sentrasi</w>
cer ah</w>
A w</w>
A sia</w>
si dik</w>
on line</w>
ku ran</w>
bala pan</w>
Jer emy</w>
F is
ma wi</w>
ditu jukan</w>
V en
sen s
sala hkan</w>
pera wat</w>
le genda</w>
ju st
ik lan</w>
ber jumpa</w>
al ly</w>
tra disi</w>
lu gin</w>
Z u
pendu duknya</w>
Pili han</w>
pe gunungan</w>
meng gambar</w>
baru san</w>
Mak hluk</w>
v i</w>
mengi kat</w>
kehi lang
ak rab</w>
Pu t
sa telit</w>
on an</w>
gela r</w>
meny anyi</w>
h ot
g s</w>
meng o
ne go
mendapa ti</w>
g unya</w>
buk tikan</w>
and o</w>
membuk anya</w>
lapi san</w>
Te x
T H
w ill</w>
ter letak</w>
si r
pem andangan</w>
ken ankan</w>
at h</w>
Whit e</w>
Peng e
penyim panan</w>
Qu in
Mar cus</w>
inc ol
fasi litas</w>
Tay lor</w>
S U
P la
Bang un
ni ka
menge sankan</w>
emu i</w>
ca go</w>
Sam u
wan t</w>
penga wasan</w>
mengendara i</w>
memberik anmu</w>
kecil ku</w>
pen onton</w>
ku temukan</w>
ban kan</w>
Ma ju</w>
Car rie</w>
Per hatian</w>
pu isi</w>
1 .
pun ya
k kannya</w>
j en</w>
ada lah
W ali
Oli via</w>
yak annya</w>
bang sat</w>
a ch</w>
P aka
pa si</w>
keba ti
incol n</w>
w ow</w>
t y
di simpan</w>
Lo is</w>
ang sa</w>
D I</w>
pen dusta</w>
em an</w>
Pes ta</w>
Der ek</w>
m ku</w>
ku ku</w>
di gi
berta wak
W hat</w>
Ib unya</w>
E .
A d</w>
A bu</w>
j ungan</w>
deka tan</w>
menga da</w>
gan ja</w>
di har
ber tiga</w>
Ye p</w>
Chi cago</w>
n as
ad akah</w>
Oper asi</w>
tempa tmu</w>
di jual</w>
Is râ</w>
z z</w>
mera gukan</w>
menang aninya</w>
pin jaman</w>
ma yatnya</w>
el ang</w>
Pem bunuh</w>
A bra
te k</w>
i a
f le
kesa baran</w>
di binasakan</w>
Su dahlah</w>
ter ob
pe tern
ke empat</w>
b ot
Gaga l</w>
terka it</w>
menghubung kan</w>
kebati lan</w>
Hap us</w>
D a</w>
se la
r anku</w>
ob jek</w>
mis teri</w>
Ker ajaan</w>
D ela
p angeran</w>
kir anya</w>
g re
asu ransi</w>
N a</w>
Ber siap</w>
ki lo
tentang nya</w>
qu e</w>
M i</w>
L incoln</w>
waji b</w>
sa y</w>
p aku</w>
Ten tara</w>
v ag
to l</w>
su jud</w>
s sa</w>
mem ori</w>
m ith</w>
lo gam</w>
is yar
B ren
Ang gap</w>
ten tangan</w>
sa tria</w>
di harapkan</w>
meng gambarkan</w>
memba gi</w>
ma sak</w>
tu lus</w>
tr on</w>
pen dengaran</w>
mpa l</w>
l n
ha langi</w>
h em
di su
I T</w>
or a</w>
menyar ankan</w>
me to
Un tu
Ter lihat</w>
tidak kah</w>
aku lah</w>
Ma son</w>
ke pon
ke ju</w>
bu m</w>
Men coba</w>
Har un</w>
Fre d</w>
C ata
A sh
la hmu</w>
gan dum</w>
wr ât</w>
s ing</w>
penye salan</w>
menja uhkan</w>
menj eng
meng antar</w>
ha us</w>
Ta wrât</w>
Gray son</w>
Di katakan</w>
is co</w>
a in</w>
ilmi ah</w>
In dah</w>
kelin ci</w>
diri lah</w>
G alat</w>
mene pati</w>
just ru</w>
g lobal</w>
r unya</w>
orban an</w>
menye barkan</w>
ha t
cu rang</w>
tin ju</w>
per e
me wakili</w>
in di
Ala san</w>
ter diri</w>
s tar
ot e</w>
menyembun y
menya mbut</w>
mak e</w>
ba gai</w>
Y ak
Sem a
ye ong</w>
w on</w>
run tuh</w>
pen is</w>
la lai</w>
ce lah</w>
Bersu lang</w>
tek nis</w>
ditak dirkan</w>
Ja c
wa si
to tal</w>
j ang
ber pegang</w>
ber daya</w>
Mor gan</w>
z ina</w>
terben am</w>
ter pilih</w>
pan d
lang ka</w>
imba lan</w>
d nya</w>
per ayaan</w>
melinta si</w>
an o
Way ne</w>
san dera</w>
pr omo
permohon an</w>
men u</w>
im pi</w>
gra f
Ke sala
lingku h</w>
tuntu tan</w>
di kur
u tang</w>
men je
kompe tisi</w>
kam arnya</w>
dicu lik</w>
an si</w>
Mer ah</w>
H ingga</w>
te lat</w>
per tanda</w>
mu m</w>
dia tur</w>
di annya</w>
reken ing</w>
n u</w>
mur ka</w>
menger jakannya</w>
membaw akan</w>
tingga lan</w>
te bal</w>
cer a
Ter uskan</w>
Tahu kah</w>
G ol
se harian</w>
jaksan aan</w>
Se olah</w>
G al
Fu ck</w>
menyelama tkanku</w>
bu l</w>
Ku rang</w>
tra l</w>
t ine</w>
per sahabatan</w>
le bah</w>
di men
ta to</w>
ta ta</w>
dem ikianlah</w>
Ho ward</w>
z ombie</w>
u angmu</w>
dri ve</w>
cow ok</w>
Se tan</w>
Ro bin</w>
Bersi aplah</w>
sem i</w>
du lunya</w>
d r</w>
Peng u
P ran
inta i</w>
a tif</w>
Me i</w>
D y
A hh</w>
Ba ginda</w>
tu mpangan</w>
k on</w>
ce t</w>
ata r</w>
Ban tuan</w>
A min</w>
tu li</w>
upa h</w>
pisa han</w>
menim pakan</w>
kem ak
lewa tkan</w>
st itu
s tan</w>
cel aka</w>
pen embak</w>
ka k</w>
berka talah</w>
De wan</w>
v ari
beri badah</w>
ber serah</w>
Gun ung</w>
Ber bicara</w>
pida to</w>
je bakan</w>
eri t</w>
diba cakan</w>
bun yikan</w>
ber aksi</w>
Gor don</w>
Al an</w>
mena brak</w>
ing i</w>
can du</w>
A ma
teri us</w>
mo le
gem pa</w>
ber komunikasi</w>
Da d</w>
w en</w>
se wa</w>
menghancu rkannya</w>
mende sak</w>
men t</w>
gen e
Bu t</w>
ung kap</w>
mes ki</w>
kee saan</w>
W on</w>
Su la
Mu sik</w>
uru sanku</w>
tam pil</w>
pi zza</w>
dit empat</w>
di besarkan</w>
Menga mbil</w>
Ki ra</w>
F oto</w>
di siksa</w>
ba til</w>
tagi han</w>
r on</w>
Jam ie</w>
sejen ak</w>
pertam aku</w>
perka ta
ni ght</w>
keh inaan</w>
har tanya</w>
V inc
Sema cam</w>
H ay
menata pku</w>
ma umu</w>
hu l</w>
di ber
Na ga</w>
ku tu</w>
in er</w>
baik ku</w>
ten tunya</w>
po si
pe gangan</w>
mela tih</w>
Tar uh</w>
o bos</w>
mema tuhi</w>
isti lah</w>
di l</w>
Bur ung</w>
uru tan</w>
per pustakaan</w>
peny u
p d</w>
ku tunjukkan</w>
keu angan</w>
dira gukan</w>
T in
ter tinggal</w>
pikir annya</w>
ba ja</w>
ter an</w>
ru m</w>
pas tilah</w>
mencata t</w>
g akkan</w>
S ch
C O
A gung</w>
di belakang</w>
pemberon tak</w>
ny i
b ye</w>
mili ar</w>
menolong nya</w>
la san</w>
kebi jakan</w>
I N</w>
re aksi</w>
menuru ti</w>
menc ela</w>
membu ru</w>
Ke ben
saha ba
pen ari</w>
man u
V a
Mr s</w>
perso alan</w>
perasa anku</w>
menga zab</w>
mel un
Ro y</w>
00 0
ter ai</w>
pi so
menggo da</w>
menc em
i jinkan</w>
c ra
Lu ci
peng iriman</w>
l indungi</w>
ke tinggalan</w>
ke tahuilah</w>
ham ir</w>
Su paya</w>
pen ampilan</w>
n onton</w>
menye kutukan</w>
kon eksi</w>
menya mar</w>
dit olak</w>
ba ju
T hat</w>
Pe sawat</w>
Or ang
Ken t</w>
te la
stra te
pe tir</w>
ku il</w>
en ce</w>
ber ju
Huku m</w>
ren ang</w>
pen emuan</w>
ke ti
k akan</w>
gal aksi</w>
ber cerai</w>
Sing kirkan</w>
Da f
kelahi ran</w>
R as
. I.
st re
san gatlah</w>
membac akan</w>
m ik
labor atorium</w>
ko mentar</w>
ba si</w>
apar temen
N athan</w>
Le on
ma lukan</w>
hor mati</w>
S tu
pen ipu</w>
J or
r d</w>
mene bak</w>
baha s</w>
Ma tahari</w>
Ge dung</w>
Ed ward</w>
ya .</w>
waji bkan</w>
t here</w>
p in</w>
lu mayan</w>
R S</w>
tersing gung</w>
bangk ang</w>
Tu gas</w>
P anggi
tim bangan</w>
om pa</w>
mengece wakan</w>
men dalam</w>
bu atkan</w>
2 5
olo gis</w>
memu at</w>
lan ku</w>
la tar</w>
gu ruan</w>
Gra ce</w>
semu la</w>
ma tnya</w>
dika lahkan</w>
d w
Menar ik</w>
Mak asih</w>
B or
vaku asi</w>
perbu atanmu</w>
ke baik
haf kan</w>
pac arnya</w>
mer eme
Sam pa
prin sip</w>
meng unt
ku alitas</w>
Mar ty</w>
Al pha</w>
menca but</w>
men dor
kar bon</w>
D im
3 2</w>
um pan</w>
pa su
keka lahan</w>
ego is</w>
Re d
Ka tie</w>
mendus takannya</w>
di bebaskan</w>
a b</w>
Ser ahkan</w>
G ill</w>
tang nya</w>
pem enang</w>
menge jar
memban tah</w>
ke n</w>
O k
. S.</w>
wak anmu</w>
ba gu
Mas ing</w>
un du
Jes s</w>
pa gar</w>
per wira</w>
kar ir</w>
ber nilai</w>
P elu
tempa tku</w>
ma ukah</w>
hi l</w>
h y</w>
pan pun</w>
em ber</w>
di st
Rebe cca</w>
ter kutuk</w>
ph y</w>
menye tir</w>
ly n</w>
ke hadi
Be kerja</w>
B ela
vak sin</w>
uncu rkan</w>
s yat</w>
pro perti</w>
pi a
ker ingat</w>
keku atannya</w>
Tex as</w>
ser angga</w>
pe juang</w>
mengemba likannya</w>
dos anya</w>
di alah</w>
o d
ko koh</w>
i .</w>
g t;</w>
Su e</w>
4 0
& gt;</w>
ter api</w>
re pu
S ong</w>
Pen deta</w>
sa d</w>
anc ang</w>
ali ran</w>
Star k</w>
Ke amanan</w>
K anan</w>
se paruh</w>
ban ding</w>
Gam bar</w>
Ber hati</w>
su ri</w>
musi bah</w>
di dukung</w>
ber bakat</w>
Gi la</w>
B ung
vi tasi</w>
mpun an</w>
mor al</w>
menu duh</w>
lem ak</w>
Ner aka</w>
Ber ka
ba ll</w>
E le
Carol ine</w>
mengiku timu</w>
kelahi an</w>
de kah</w>
Ye s</w>
vo lu
ku pu</w>
ja hanam</w>
f ah</w>
Tem anku</w>
T eri
man an</w>
Eng kaulah</w>
ma jalah</w>
di sem
boh on
Gar y</w>
ter ta
si kannya</w>
mengin ap</w>
kos tum</w>
ci um</w>
ce patlah</w>
ber g</w>
an e
suar amu</w>
menyuka iku</w>
menu mbu
Sh el
Sau daraku</w>
uni or</w>
Kar en</w>
kesak sian</w>
hi c</w>
S hu
Pu tih</w>
kegi atan</w>
a hi</w>
T ro
Con n
Ca sey</w>
per dagangan</w>
c ho
Ste p
pot ensi</w>
per musuhan</w>
pe jabat</w>
ling kan</w>
di ksi</w>
d n</w>
ak anku</w>
Pen ye
ter jaga</w>
ber hi
b ra</w>
T al
Lis bon</w>
Ba gu
mengiku tiku</w>
kun jung</w>
e sa</w>
ber saksi</w>
ba s
H as
membe dakan</w>
gugu r</w>
P S</w>
2 7</w>
ter ganggu</w>
kom ple
j empu
g eng
ala rm</w>
ya annya</w>
EN G
pe sa
mer awa
P emba
Mal col
M A
unggu lah</w>
ren ce</w>
P ot
Jos h</w>
ot her</w>
z ar</w>
n ga
memin jam</w>
ja mkan</w>
Se jujurnya</w>
C H
se um</w>
empu rn
R om
war tawan</w>
menam pilkan</w>
kerja sama</w>
inves tasi</w>
dong eng</w>
Malcol m</w>
ter infeksi</w>
meme ca
it mu</w>
in ci
Kel ly</w>
sedi aan</w>
dah syat</w>
Mem per
Ap ril</w>
y ur</w>
sens itif</w>
meng ing
ban ta
su hu</w>
coba lah</w>
cel a</w>
tekn ik</w>
ra y</w>
mengu mu
et te</w>
dra ma</w>
der ma
ba la</w>
H otel</w>
lem en</w>
aki batnya</w>
Kemar in</w>
tar anya</w>
ro ck</w>
k ins</w>
ja di
Ti ba</w>
Mak anlah</w>
ra ma</w>
meny empurn
mengon trol</w>
m bing</w>
kon f
kebi jaksanaan</w>
Si apkan</w>
Kai sar</w>
A ri
ba jak</w>
D ong</w>
menga jari</w>
ma ma</w>
Ma ya</w>
petern akan</w>
mis terius</w>
ca iran</w>
bersu jud</w>
R I
meyak ini</w>
men dahu
ke bodo
b lo</w>
kesu ka
janj ilah</w>
f u</w>
da dari</w>
Ist riku</w>
on i</w>
mengi zinkan</w>
Pran cis</w>
N u
u tus</w>
man i</w>
G la
A ra
z er</w>
mencu rinya</w>
kesu sahan</w>
ir o</w>
Ja co
Is ti
Ba tu</w>
par t
jak et</w>
hi ku</w>
gu m</w>
ac tion</w>
meren dahkan</w>
laku kanlah</w>
la wanan</w>
ke cer
inter o
i jin</w>
dep anmu</w>
a tanku</w>
Al angkah</w>
2 8</w>
menyembuny ikannya</w>
u lah</w>
im bang</w>
bi jak</w>
Se ung</w>
ta wanan</w>
pu asa</w>
pe taka</w>
nego siasi</w>
la ian</w>
ja an</w>
es e</w>
ema il</w>
r anjang</w>
la ilah</w>
fa at</w>
Pu langlah</w>
Car ol</w>
se u
leng ka
kena bian</w>
ke damaian</w>
Tan ah</w>
Andre w</w>
sembun y
se keliling</w>
par tai</w>
meni lai</w>
ki sa
ding inan</w>
di hentikan</w>
berke hendak</w>
Ul tra</w>
O ne</w>
L i</w>
u ma</w>
se saat</w>
p anj
lun ak</w>
jar um</w>
Ke se
tenga han</w>
per duli</w>
mem beba
dep anku</w>
bo dy</w>
aku n</w>
Men jauh</w>
J anji</w>
menun aikan</w>
menghin akan</w>
di izinkan</w>
ben sin</w>
M os
An ne</w>
upa cara</w>
li sih</w>
la bel</w>
ke indahan</w>
V an
se sembahan</w>
bar isan</w>
Wali kota</w>
U S
Ka sus</w>
4 00</w>
ter tipu</w>
ku coba</w>
ke gagalan</w>
Inter net</w>
y ut</w>
ti c</w>
ro r</w>
menganta rmu</w>
d g</w>
ber jaga</w>
angka pan</w>
Ja uhkan</w>
per i</w>
pe lihar
karya wan</w>
P eri
Di mengerti</w>
meny ia</w>
it ch</w>
u a</w>
per pisahan</w>
payu dara</w>
der ing</w>
mengu atkan</w>
menemu iku</w>
ma sukan</w>
In spektur</w>
Bin tang</w>
z in
k lin
da gang</w>
Mar s</w>
ter bukti</w>
ter balik</w>
meru gikan</w>
kom it
kemba lilah</w>
Vinc ent</w>
Ch rist
s ha</w>
mo de</w>
meng khawatirkan</w>
men empuh</w>
ir u</w>
er gi</w>
W en
Tan yakan</w>
K il
leher nya</w>
pem besar</w>
meny anyikan</w>
men ung
hada p
S mith</w>
O l
I i
E ver
D ok</w>
menangka pmu</w>
a c</w>
Yaku b</w>
Peny ihir</w>
G an
C E
o batnya</w>
menge tuk</w>
l emba
ko ordin
ken cang</w>
gra fi</w>
ber pa
ber dusta</w>
ar tikel</w>
ah kannya</w>
penga wal</w>
bersa barlah</w>
19 9
san an</w>
me wujud
e ver
ap el</w>
Ni kita</w>
s he
popu ler</w>
p sik
lem baran</w>
f la
a jak</w>
Ke lak</w>
Ka um</w>
A Ku</w>
tel an</w>
seluru hnya</w>
li ft</w>
la lui</w>
gor eng</w>
terhada pnya</w>
ne s</w>
du gaan</w>
ak er</w>
wa bah</w>
ju ri</w>
gg er</w>
di sampaikan</w>
su kar
n go
At lan
kemu sy
ke lat</w>
ha ji</w>
as linya</w>
Men ya
F i</w>
menemu kanku</w>
ki kir</w>
fak tor</w>
der s</w>
sam pel</w>
inf o</w>
T rim
u p
ra mpa
r kanmu</w>
peng orbanan</w>
peng obatan</w>
pega wai</w>
ko in</w>
kedi aman</w>
emo sional</w>
at mu</w>
o f
di wahyukan</w>
Mur phy</w>
H e</w>
menci um
ken tang</w>
aj arkan</w>
I an</w>
DA K</w>
orang mu</w>
menghi bur</w>
bang et</w>
P D</w>
tu kar</w>
mengaca u
bi kin</w>
Ke las</w>
Daf tar</w>
men ikma
Sen in</w>
Le o</w>
Jo se
mengenal ku</w>
ma y
kamar mu</w>
f ra
o nya</w>
mero bek</w>
fu ck</w>
e in</w>
dep annya</w>
cu ti</w>
su m</w>
se x</w>
sar af</w>
inter nasional</w>
La ma</w>
Jen is</w>
berga ul</w>
an der</w>
Men jau
M impi</w>
su ra
sepu pu</w>
j angka</w>
de s
ada ban</w>
M ir
Kesala han</w>
Ja hannam</w>
D .</w>
Bos ton</w>
za beth</w>
y es</w>
tang gung
pla stik</w>
A ar
2 .
sa yangnya</w>
l t;</w>
angka lan</w>
V ik
Ti dur</w>
Per empuan</w>
Fil m</w>
& lt;</w>
wa lau</w>
ter putus</w>
jangka uan</w>
e je
pac aran</w>
nyi akan</w>
gan tinya</w>
din as
di potong</w>
b ran
C ha</w>
u tuh</w>
t her</w>
si dang</w>
mengasi hi</w>
ma teri</w>
ke tua</w>
sekitar nya</w>
menolong ku</w>
membala snya</w>
keli ru</w>
k lik</w>
ha sia</w>
ber ki
Ti arap</w>
Ne w
nam pak</w>
menga lihkan</w>
meng han
keberada annya</w>
per lihatkan</w>
ke zali
gaga san</w>
fe deral</w>
ce book</w>
anc y</w>
Bo y</w>
A n</w>
ti gasi</w>
di n</w>
ca han</w>
bi bi</w>
C le
un d
R ol
penju alan</w>
menja wa
a cak</w>
man kan</w>
Trim s</w>
ti mbu
por tasi</w>
pembunu hnya</w>
cin taku</w>
b lah</w>
War na</w>
Pa blo</w>
mem us
ka lo</w>
jau hnya</w>
en o
ang kanlah</w>
M AN</w>
menen angkan</w>
m annya</w>
seba r</w>
per guruan</w>
pem i
Kem ungkinan</w>
mem iku
is ter
P ikir
Eli zabeth</w>
na an</w>
diha pus</w>
si ca</w>
kur us</w>
k tor</w>
ar us</w>
AK U</w>
vi e
sembah lah</w>
pu tusan</w>
per awan</w>
or gan</w>
Jen dral</w>
4 8</w>
sha ll</w>
pe candu</w>
ele s</w>
Sing h</w>
Se panjang</w>
Lang sung</w>
Ima m</w>
ten taranya</w>
sa wan</w>
eng an</w>
Yo on</w>
Pem bunu
t ol
per kelahian</w>
mole kul</w>
mem bing
berka itan</w>
D .
Bu ang</w>
Ab by</w>
A .</w>
2 6</w>
menan tang</w>
kemba r</w>
eks presi</w>
Abra ham</w>
v an
menikma tinya</w>
ha lang</w>
g ha
TI DAK</w>
Pra jurit</w>
AK AN</w>
tra mu</w>
penga was</w>
ku bunuh</w>
ke polisian</w>
a sisten</w>
tro li</w>
ti ara</w>
sis inya</w>
san di</w>
fa jar</w>
M inta</w>
1 ,
sya faat</w>
semes tinya</w>
ne gar
menele ponmu</w>
mem ot
ke khawati
membenci mu</w>
jum lahnya</w>
j rah</w>
hi u</w>
Sua mi</w>
Jo o</w>
ung u</w>
piso de</w>
Bangun lah</w>
- Dia</w>
ba yang</w>
a degan</w>
Ga bri
Cen tu
s wa
d angmu</w>
ap inya</w>
Sam my</w>
SM S</w>
ter angan</w>
pu tu
wa jar</w>
menja u
kese ti
Mul der</w>
Ali son</w>
9 11</w>
pertan ian</w>
penyer angan</w>
men angga
bi bi
ber lutut</w>
belak angku</w>
t ha
rambu tmu</w>
perim en</w>
me kan
m b
lom ba</w>
Wal ker</w>
H m</w>
Fran kie</w>
Bu atlah</w>
ting gian</w>
melepas kannya</w>
gem e
V in
Le t</w>
Je ff</w>
ke datang
jan tung
ingka tan</w>
hi mu</w>
g imana</w>
Mo bi
F ak
in struksi</w>
i lan</w>
berse lisih</w>
ata si</w>
a irnya</w>
Lo s</w>
lu san</w>
eng gelamkan</w>
diu sir</w>
ba tang</w>
adi knya</w>
Sur ga</w>
Ko de</w>
Jalan kan</w>
IN G
tak h
sa jalah</w>
ole hnya</w>
mulu tnya</w>
it ing</w>
g ro
f ia</w>
b y
Se tengah</w>
j ana</w>
ber kunjung</w>
L A</w>
F ili
k m</w>
di paksa</w>
bel ok</w>
b aku</w>
atu rannya</w>
Ger eja</w>
1 5
perkem bangan</w>
il nya</w>
g le</w>
di undang</w>
c ro
ber bunyi</w>
angka ian</w>
Pen u
P us
Ke tahuilah</w>
Ke celakaan</w>
ple ase</w>
per tengahan</w>
menun da</w>
li mu</w>
kemu r
La gu</w>
ol o</w>
li dah</w>
fit nah</w>
Ter masuk</w>
Je sus</w>
Con rad</w>
Aw ak</w>
r t</w>
n al</w>
menghada pinya</w>
ku beri</w>
kla sik</w>
j o</w>
he ad</w>
bu rnya</w>
ter duga</w>
tan am</w>
pun yaku</w>
kesu dahan</w>
ka ta
gh t
Pu tar</w>
Ka sih</w>
syuku ri</w>
pelu kan</w>
me l</w>
l m</w>
har imu</w>
ber pesta</w>
Men unggu</w>
menyakit inya</w>
ko menda
San s</w>
D C</w>
ter na
seni or</w>
T engah</w>
Ro mawi</w>
pemu ka</w>
mer ing
Dela pan</w>
sen anglah</w>
prose dur</w>
hasi lan</w>
foto nya</w>
bak arnya</w>
G rim
ny en
mu an</w>
mengunt ungkan</w>
L û
Clar ke</w>
Bra vo</w>
sa buk</w>
mera ih</w>
menol aknya</w>
el emen</w>
ca lon</w>
bang gakan</w>
Ra hasia</w>
B o</w>
q i
pe n</w>
mengirim nya</w>
kec ilmu</w>
is s</w>
in ir</w>
p anggang</w>
menel an</w>
m o</w>
di pindahkan</w>
Pela tih</w>
La w
Ha w
s kala</w>
ru te</w>
menyimp ang</w>
jau hkan</w>
ca s</w>
and u</w>
per empu
li lin</w>
dak wa</w>
Uni versitas</w>
T anya</w>
Mi si</w>
te ga</w>
mengu si
le vel</w>
ko ma</w>
Bat man</w>
uni versitas</w>
on s</w>
mengumu mkan</w>
ing s</w>
cH00 ffff</w>
ter hebat</w>
mas ter</w>
m bu</w>
den tifikasi</w>
00 .000</w>
ho p</w>
hasi akan</w>
Po koknya</w>
pertanya annya</w>
mener obos</w>
mene bus</w>
c al</w>
Lin da</w>
se pak</w>
iman akah</w>
ber saudara</w>
N ata
G ood</w>
i h
Pr in
Hen dak
v y</w>
r oll</w>
mengajar iku</w>
memper inga
Han nah</w>
Du de</w>
unju k</w>
sesu dahnya</w>
pemili han</w>
mer eng
memberka ti</w>
ke jar</w>
ber ja
a a</w>
Sula iman</w>
7 5</w>
kema uan</w>
hi buran</w>
ber lanjut</w>
Lû th</w>
la w
ja mu</w>
an --
Su n</w>
Beri ku
komit men</w>
ka get</w>
Mu sim</w>
Hal lo</w>
F ir
- Yeah</w>
sa u</w>
membiar kanku</w>
mela por</w>
lu m</w>
ke bang
d t</w>
apa lagi</w>
Su per</w>
Pen er
kon tr
Lar ry</w>
- Oh</w>
ya pkan</w>
ru mor</w>
bi dadari</w>
Jes sica</w>
Centu ry</w>
tan pamu</w>
se ter
menyu cikan</w>
Pak istan</w>
Jo ey</w>
terhada pmu</w>
lom pat</w>
kri sis</w>
hi dangan</w>
gel ang</w>
ga tan</w>
d ney</w>
ca bang</w>
Menjau hlah</w>
Gre en</w>
w hen</w>
tumpu kan</w>
lewa ti</w>
keten angan</w>
kemusy rikan</w>
i annya</w>
baca an</w>
meng gantung</w>
at hafkan</w>
N ikmati</w>
i i</w>
cu ci</w>
ber tentangan</w>
Per nika
An gg
menja gamu</w>
memuku lnya</w>
m os
D U
gar asi</w>
dis k</w>
Se la
Han na</w>
t z</w>
ke dinginan</w>
di selesaikan</w>
ber li
Pro gram</w>
D ana</w>
Can tik</w>
kesak itan</w>
i c</w>
ha dis</w>
c han</w>
ber macam</w>
ta ri</w>
k aku</w>
ba unya</w>
ba d</w>
Pe tr
th in
tele visi</w>
mpa i</w>
so fa</w>
la lat</w>
kaca mata</w>
duni awi</w>
an cam</w>
Ke n</w>
K A
wa li</w>
tu pi</w>
pengh inaan</w>
menge ks
eje kan</w>
di be
bi k</w>
baru mu</w>
Spen cer</w>
ga lah</w>
a tom</w>
nyen yak</w>
keli ling
Pem ilik</w>
P R</w>
menye sa
In formasi</w>
mel en
e go</w>
di sekitar</w>
Ye on</w>
ta in</w>
se limu
e w
ti puan</w>
pin jam</w>
per sediaan</w>
musu hmu</w>
me te
ef ektif</w>
R on</w>
t eka</w>
pe pohon
anc am
Tam bah</w>
sta si</w>
ri but</w>
per baiki</w>
mengeluar kannya</w>
dihar amkan</w>
de partemen</w>
an na</w>
Ke duanya</w>
G ili
B old</w>
raha tlah</w>
menyayang i</w>
mengha diri</w>
k tif</w>
M I
Ju lia</w>
y n
vi sion</w>
su mur</w>
keluar lah</w>
in o</w>
hi lah</w>
Ya .</w>
Do c</w>
Beriku tnya</w>
ran cang</w>
co kelat</w>
c aknya</w>
P E
sar ung</w>
memasuk kannya</w>
keman usi
He e</w>
sem alaman</w>
o us</w>
mencip takannya</w>
memper taruhkan</w>
Val en
spesif ik</w>
ha s
dis ka</w>
c ha</w>
aki batkan</w>
T akut</w>
St .</w>
un dangan</w>
sen iman</w>
re si
petu alangan</w>
gan tian</w>
Tar get</w>
Ke ju
unt ung
ta ri
pre sen
lo g</w>
desa in</w>
c re
Ni lai</w>
Got hic</w>
ter lepas</w>
peny elamat</w>
naf kah</w>
im bangan</w>
I ah</w>
Hy un</w>
te ki</w>
penting nya</w>
diba talkan</w>
c tion</w>
mp ing</w>
lumpu r</w>
keru mah</w>
bala p</w>
Gu bernur</w>
Col e</w>
A lat</w>
pus ing</w>
menge lilingi</w>
li han</w>
di depan</w>
ah lah</w>
L aku
te busan</w>
pol it
po l</w>
mengar ahkan</w>
S now</w>
R asakan</w>
Mil ler</w>
Hi tam</w>
mala petaka</w>
ma a</w>
c he</w>
Sc ot
Sa la
por ter</w>
melu ka
is o
do psi</w>
b bie</w>
zali mi</w>
pi rang</w>
Vi deo</w>
So bat</w>
Lap oran</w>
I a
s arkan</w>
li jen</w>
dika takannya</w>
In dian</w>
mewar isi</w>
mer es
mel aku
di maksudkan</w>
kemur kaan</w>
ba l
gir l</w>
w in
unt ungnya</w>
ter san
pa hami</w>
ot aknya</w>
mu .</w>
la lkan</w>
kon seku
gra vitasi</w>
se jam</w>
peny elama
membu angnya</w>
buk unya</w>
b ari</w>
Kan ada</w>
Jak sa</w>
ter simpan</w>
pu la
per adaban</w>
lum ba</w>
ja la</w>
Fa cebook</w>
10 11
tentang ku</w>
s we
menge jarnya</w>
ku biarkan</w>
bis nis
El li
d angku</w>
Har old</w>
Ber lin</w>
peng khian
f on
cH 1011
cH1011 FF</w>
S e</w>
- --</w>
rampa san</w>
meyak in
menyempurn akan</w>
du rkan</w>
mereme hkan</w>
menuru n</w>
Meny en
seter usnya</w>
o ver
fs 16</w>
Be gitu
menginga tkanku</w>
membing ungkan</w>
ke tinggian</w>
hi da
fn Gill</w>
di pikirkan</w>
den sed</w>
ber pindah</w>
Con densed</w>
4 cH1011FF</w>
x y</w>
seler a</w>
sau rus</w>
ru gi</w>
ima jin
fn Century</w>
el s</w>
cH8 000
bung kus</w>
O ri
Ku da</w>
G ib
tam bahkan</w>
se jenis</w>
le s
ku ra</w>
Ter engah</w>
In tinya</w>
Br it
mak anlah</w>
in o
im pu
Su san</w>
ta smu</w>
dike lilingi</w>
tre k</w>
pem berani</w>
menyer amkan</w>
ku duga</w>
keah lian</w>
fs 21</w>
st res</w>
mem bangkang</w>
ke lebihan</w>
bah u</w>
Hadi ah</w>
st anya</w>
in spirasi</w>
f rom</w>
en ya</w>
Pu lau</w>
Ma c</w>
nan tinya</w>
lu n</w>
ber seru</w>
ali sasi</w>
Un it</w>
meto de</w>
e e</w>
T un
B U
o boh</w>
menyu sul</w>
mempercaya iku</w>
ke tahuan</w>
angga l</w>
O bat</w>
menembak mu</w>
la luan</w>
g ran
ber bentuk</w>
Ro ck</w>
Fla sh</w>
menging kar
kezali man</w>
ff ffff</w>
Khu sus</w>
G ir
per mata</w>
per main
ny aris</w>
ha bat</w>
Man is</w>
Ki sah</w>
si de</w>
se golongan</w>
ro e</w>
kun jungan</w>
keku atanmu</w>
de k</w>
cel an
Per jalanan</w>
Meny er
D re
19 8
terob sesi</w>
mem baik</w>
Mela lui</w>
LA H</w>
K ara</w>
A K</w>
ser ang</w>
pi e</w>
pertu karan</w>
mence tak</w>
ga han</w>
f older</w>
Ve gas</w>
Ba u</w>
y l</w>
lo ka
ka mer
hit ungkan</w>
So p
Quin n</w>
Al l</w>
t s
ra mu</w>
peng gunaan</w>
menghar amkan</w>
di bicarakan</w>
W hi
To dd</w>
ungkin kah</w>
rin cian</w>
r api</w>
menda dak</w>
cH ffffff</w>
berka ti</w>
Y akin</w>
Po hon</w>
Hap py</w>
strate gi</w>
ri wa
l ong
kesa daran</w>
ji l</w>
Bu dd
A kankah</w>
z y</w>
ru sa</w>
oba ti</w>
mem bo
lelu hur</w>
el la</w>
ditem patkan</w>
cH8000 ff</w>
as h</w>
G ak</w>
war isan</w>
si pasi</w>
rhak ai</w>
mendu rhakai</w>
ku bawa</w>
keja p</w>
Kami lah</w>
K in
Dou g</w>
r na
di ganti</w>
be dah</w>
ba se</w>
U dara</w>
Mic hel
Don ald</w>
wak tuku</w>
konf lik</w>
bel eng
su lap</w>
pa us</w>
membenci ku</w>
han i</w>
curi ga</w>
ber angi</w>
a annya</w>
K han</w>
ter pen
se imbang</w>
peng hi
mencuri gakan</w>
indi vi
ber bulan</w>
ar kanlah</w>
ang kali</w>
Ke adaan</w>
Aar on</w>
st ri
menganta rkan</w>
dinam akan</w>
bro l</w>
MEN G
Cu r
ter jun</w>
per isa
penga mpunan</w>
kebodo han</w>
dia jarkan</w>
c angkan</w>
ba dat</w>
SA YA</w>
Na sional</w>
Mu m
Bro dy</w>
sur ah</w>
ja y</w>
f ar
ar ia</w>
an t</w>
an ali
w n
u dah</w>
tion al</w>
se gelas</w>
ca u</w>
ampun i</w>
a set</w>
S qu
meni up</w>
mengacau kannya</w>
la hi</w>
ja h
har ap
der son</w>
ber alih</w>
T emui</w>
Ca haya</w>
tim bang</w>
peny emba
menaf kahkan</w>
melewa tinya</w>
man usi
he art</w>
pen ampi
orang tua</w>
Sk y
Lit tle</w>
Kur t</w>
I S</w>
Han tu</w>
menunju k</w>
menga mati</w>
kon sep</w>
keja diannya</w>
Me li
st ro
pem bela
menye tujui</w>
meng angka
keman apun</w>
ga dis
ar aan</w>
Kel om
menumbu hkan</w>
mengha lang</w>
Tem bakan</w>
P lanet</w>
L angkah</w>
mengajak ku</w>
in siden</w>
dimen si</w>
di dalamnya</w>
d ley</w>
am bulan
Ser angan</w>
H un
G ener
tuju annya</w>
tong ka
mener ta
ko nya</w>
kesem pa
ekseku si</w>
Ke sem
C ran
persi apan</w>
meng aku
li san</w>
is kan</w>
e ter</w>
a bo
Se lamatkan</w>
An dai</w>
menaku t</w>
me z
ku it</w>
it or</w>
ari o</w>
Laku kanlah</w>
keter laluan</w>
har us
di biarkan</w>
ber baris</w>
ag re
st rasi</w>
lic ik</w>
bak nya</w>
N ancy</w>
v in
Pu lang</w>
ta makan</w>
ke priba
Sher lock</w>
- Anda</w>
kemak si
kedu staan</w>
campu ran</w>
bar angnya</w>
a jar</w>
Ter jadi</w>
L il
Kha bar</w>
Chi ef</w>
-- dengan</w>
sen tuhan</w>
sa i</w>
pem an
mem eluk</w>
kal ung</w>
i um</w>
Qu ra
or g</w>
menj erit</w>
mem bohon
ber san
S cu
ti u
ini .</w>
ben dera</w>
an 2</w>
Ng gak</w>
Hol mes</w>
psi ko
for mat</w>
c ke
ber ada
P am
Ku lihat</w>
orang ku</w>
kon ferensi</w>
ganj aran</w>
diper iksa</w>
datang i</w>
bun tu</w>
ba dut</w>
Un tungnya</w>
Fran cis</w>
su an</w>
pen ingga
menyuru hnya</w>
menuli skan</w>
mene gakkan</w>
m mm</w>
ge di</w>
bo i</w>
Ka k</w>
A bi
min e</w>
ke ke
anak 2</w>
Per ingatan</w>
Mar gar
Itu kah</w>
Ber dasarkan</w>
sem ak</w>
re gi
menu kar</w>
kon sul
ambi llah</w>
U kuran</w>
F ri
mu tiara</w>
membe sarkan</w>
memal ingkan</w>
l la
hin dari</w>
du duklah</w>
diper baiki</w>
di kerjakan</w>
bertas bih</w>
N ate</w>
ti pis</w>
so kan</w>
si ka
menya m
Ly dia</w>
Gabri el</w>
0 1</w>
yang ku</w>
perse tujuan</w>
mendengar kanku</w>
mak nanya</w>
il la</w>
eks perimen</w>
c unya</w>
ba paknya</w>
T hor
Harv ey</w>
ter sebar</w>
se belu
kemaksi atan</w>
ka ra
d ini</w>
ah anmu</w>
Se ekor</w>
Ang eles</w>
menghubung iku</w>
menem pa
le b</w>
hida yah</w>
diba lik</w>
O b
K A</w>
Ju lie</w>
Bang sat</w>
menyakit iku</w>
mena wan</w>
mel eng
ke tu
e ver</w>
bere aksi</w>
berc ampur</w>
bera cun</w>
nik mati</w>
meny angkal</w>
memus nahkan</w>
man i
le ga</w>
bin cang</w>
anj akan</w>
Mu suh</w>
M E</w>
D e</w>
AR A</w>
tak di
si g
memben cinya</w>
lu kkan</w>
lah .</w>
cak ap</w>
buat lah</w>
Mar shall</w>
Be li
re la
di pan</w>
Ber senang</w>
2 ,
tak kannya</w>
ta war</w>
h kanlah</w>
er o
berhi jrah</w>
Hit ler</w>
Al li
st ring</w>
Coo per</w>
mu k</w>
kesa maan</w>
ditu gaskan</w>
ang kannya</w>
Tidak lah</w>
Ra j</w>
A I
wa li
si aran</w>
proto kol</w>
menjawa bnya</w>
memper sembahkan</w>
ke bing
kar et</w>
j et</w>
in de
ca ha
Waja h</w>
T samu
Is tif
se kejap</w>
ra him</w>
olo m</w>
kom bin
c han
Pu tra</w>
Mer asa</w>
Bagu slah</w>
ter lahir</w>
pist ol
men anti</w>
memuku lku</w>
memanfa at
R es
Ne geri</w>
st one</w>
deka tnya</w>
as tron
T ina</w>
Pas ang</w>
Che n</w>
pu skan</w>
per ken
menga bulkan</w>
l ake</w>
kantor ku</w>
Sop hie</w>
K ra
Gre g</w>
AP A</w>
tam pilan</w>
si ran</w>
pem bayaran</w>
Se sudah</w>
Pem impin</w>
Mu btada</w>
Fe lic
Ber jalan</w>
Bada l</w>
B E
s pon
ong res</w>
menu suk</w>
ga lanya</w>
ag ungan</w>
Y ANG</w>
Pe dang</w>
M om
x i</w>
ter uskan</w>
le ss</w>
it o</w>
gu t</w>
T as
Lo u</w>
B ell</w>
A z
2 nya</w>
ol om
dil indungi</w>
cH8 0
E m</w>
Bung a</w>
memin umnya</w>
intero gasi</w>
di d</w>
am s</w>
Y an
N i</w>
Memba wa</w>
ngo brol</w>
mengen da
ben arnya</w>
W u</w>
W es
penju ru</w>
men zalimi</w>
kom andan</w>
F lor
C her
se tempat</w>
san alah</w>
pen angkapan</w>
membayar mu</w>
me dali</w>
ca cing</w>
b mu</w>
Se p
Pau lus</w>
Lu cas</w>
Kelom pok</w>
Budd ha</w>
tin dak
teri akan</w>
ta l
seki an</w>
cH80 FFFF</w>
bu di</w>
Sal ly</w>
R A</w>
L ak
sw or
persa maan</w>
lu han</w>
kur ma</w>
jempu t</w>
P otong</w>
Ja s
se keliling
po lis</w>
peny i
peny anyi</w>
membuk tikannya</w>
mem i
ke lam
jan tungnya</w>
han ya
b aki</w>
mengh em
menembak ku</w>
ma tang</w>
li akan</w>
kan .</w>
L O
I e
Aus tra
û n</w>
yak ini</w>
wasi at</w>
vi l</w>
teng kor
re sep</w>
mer us
din ah</w>
Su ster</w>
se jujurnya</w>
re y</w>
pen a</w>
komple ks</w>
bar angmu</w>
T o</w>
Pin dahkan</w>
M E
H in
gel angan</w>
d h</w>
Lau ra</w>
Jaco b</w>
so me
per lakuan</w>
menangka pku</w>
kilo meter</w>
diu bah</w>
Wal t</w>
Da isy</w>
turun nya</w>
ma ut</w>
c hu
W A</w>
Cas s</w>
ta warkan</w>
sua ikan</w>
ku tebak</w>
hu lu</w>
figu rasi</w>
aman at</w>
akti vitas</w>
Mi les</w>
Ma dinah</w>
to wn</w>
mpa r</w>
men g</w>
berken aan</w>
C li
n n</w>
kemampu anmu</w>
d y
bersu lang</w>
S tar</w>
Ru panya</w>
Ra y
Ka mera</w>
Di tambah</w>
Cro w
Ber janjilah</w>
1 6
memili ki
la yaknya</w>
f ri
de tail</w>
bur g</w>
bo ard</w>
V ol
Ne il</w>
Bro wn</w>
w inan</w>
pem in
memiku l</w>
ly wood</w>
lem par</w>
di de
da mpak</w>
bicar alah</w>
ber diam</w>
T ele
Keben aran</w>
John son</w>
Da ta</w>
merindu kannya</w>
es s</w>
bi bir</w>
ama lan</w>
war e</w>
tran saksi</w>
to k</w>
perta mamu</w>
ke bun
ce s</w>
c eng</w>
be ku</w>
Tsamu d</w>
To by</w>
Mat the
L aki</w>
Got ham</w>
u psi</w>
u han</w>
ne ver</w>
le t
kam panye</w>
bur ger</w>
Se pa
B akar</w>
y d</w>
penaw aran</w>
jak nya</w>
el son</w>
di bersihkan</w>
ber wenang</w>
Mon roe</w>
Ke polisian</w>
4 2</w>
t ana</w>
menj er
dia jak</w>
Wak il</w>
un sur</w>
ta dinya</w>
ta bung</w>
neg ro</w>
menying kir
en d</w>
di alo
Per cy</w>
O t
- Itu</w>
u ma
per oleh</w>
ng ga</w>
mencar iku</w>
m is</w>
ke lkan</w>
gi annya</w>
er o</w>
awa y</w>
Si l
Jen na</w>
En ak</w>
semu t</w>
ke timbang</w>
he m</w>
dw ich</w>
M ona</w>
Ata ukah</w>
nam e</w>
men daftar</w>
li x</w>
ku buat</w>
ha jar</w>
go od</w>
di ucapkan</w>
au dio</w>
Tat kala</w>
Goo gle</w>
mpa han</w>
d har
Wel ls</w>
I kan</w>
un nya</w>
tuga snya</w>
ka panpun</w>
ka mi
fi ra
tel iti</w>
pung gung
menaku ti</w>
i x</w>
gu r</w>
M e</w>
Bo la</w>
A st
tak nya</w>
or mu</w>
na si</w>
membu ruk</w>
lo s</w>
Je ff
Austra lia</w>
A ga
w is
tem bak
ra mai</w>
berken dara</w>
beleng gu</w>
W est</w>
meng andalkan</w>
ku ambil</w>
kesala hanku</w>
b la
ah .</w>
Q a
sin ting</w>
se kuat</w>
penga turan</w>
pela buhan</w>
mengi jinkan</w>
mem icu</w>
al terna
a ti
Bla ck
min al</w>
ke somb
ber te
ta bel</w>
o ver</w>
kebing ungan</w>
gra si</w>
cuku plah</w>
anta m</w>
Pro yek</w>
x on</w>
us ton</w>
syu kurlah</w>
meny angkut</w>
mengeluar kanmu</w>
meng ge
cer oboh</w>
bang sawan</w>
anta s</w>
Wil son</w>
Gu ys</w>
menunju kan</w>
kemanusi aan</w>
it annya</w>
dem am</w>
bela han</w>
Pembunu han</w>
tho r</w>
pada t</w>
melem par
bu g</w>
S tra
me o</w>
kegi laan</w>
k ung</w>
Tuju an</w>
Den nis</w>
D ingin</w>
D es
Ap anya</w>
4 7</w>
sen yu
perca yai</w>
per son
pa ha
mpa manya</w>
melaw annya</w>
dinya takan</w>
di suruh</w>
a hmu</w>
Michel le</w>
E u
10 .000</w>
ot akmu</w>
go da</w>
g la
we en</w>
untu t</w>
sen si</w>
mengu tu
mengh orma
ma af
Per dana</w>
Ki ri</w>
I si</w>
Cata tan</w>
sing kirkan</w>
pist olnya</w>
pelay anan</w>
pe tang</w>
ber turut</w>
Ma u
Di vision</w>
Angg ota</w>
t hey</w>
membu suk</w>
din o
d r
beri sik</w>
ber ry</w>
ber pikiran</w>
Jen ni
A gak</w>
or y</w>
mengingkar inya</w>
makan annya</w>
inf orma
ekst ra</w>
di cari</w>
de fin
H on
E ks
y er</w>
ter daftar</w>
selimu t</w>
por no</w>
menurun kannya</w>
mengajar imu</w>
men daki</w>
dara hmu</w>
ban mu</w>
sha lat</w>
mas sa</w>
ke depan</w>
ff in</w>
di manapun</w>
di cintai</w>
bang ku</w>
T eng
Samu el</w>
Bi r
sete lahnya</w>
pencu likan</w>
ku ensi</w>
keper luan</w>
emu di</w>
elo la</w>
ben tuknya</w>
Hel en</w>
Ba by</w>
ten si</w>
pre diksi</w>
pe cahan</w>
mengganggu ku</w>
mengangga pnya</w>
ke s</w>
ic o</w>
Kesem patan</w>
Buk ti</w>
r angka</w>
p py</w>
p lin</w>
m ung
kekhawati ran</w>
ambulan s</w>
W ard</w>
Ko tak</w>
J uni</w>
1 50</w>
pencu rian</w>
mit ra</w>
g olf</w>
Z ak
Mengen ai</w>
Jenni fer</w>
J unior</w>
te gang</w>
mu t
mes tinya</w>
li st</w>
bol anya</w>
angku k</w>
an ne</w>
a sikan</w>
H .I.
Ear l</w>
E van</w>
terka lahkan</w>
si hi
pen am
ko per</w>
kesala hanmu</w>
ja go
j ir</w>
der man</w>
Ra dio</w>
Mit ch</w>
Ma y</w>
se dekah</w>
pan el</w>
li kanmu</w>
klin ik</w>
keingin anmu</w>
it akannya</w>
e skan</w>
ap anya</w>
Sum ber</w>
S u</w>
Gre at</w>
ru bah</w>
menye berangi</w>
mengi dentifikasi</w>
l ori
ha s</w>
di bilang</w>
Lu thor</w>
Lu mayan</w>
L indungi</w>
D z
Ang in</w>
pri oritas</w>
mu l
meng akibatkan</w>
chi p</w>
Pernika han</w>
Ju lian</w>
Fran k
Dy lan</w>
tu re</w>
tu al</w>
trans fer</w>
pu tramu</w>
pu lih</w>
ong ku</w>
menya tukan</w>
meng akses</w>
kar uni
Te kan</w>
Istif ham</w>
ter akhirnya</w>
pen en
menunju ki</w>
Gran t</w>
sub jek</w>
sik nya</w>
p lugin</w>
lam punya</w>
il and</w>
baga si</w>
Har ri
3 1</w>
ru pa</w>
o p</w>
g or</w>
ba terai</w>
am un
Ne d</w>
Ba giku</w>
2 9</w>
1 7
tak e</w>
seper ti
pen dara
l engah</w>
j unya</w>
ho use</w>
g ing</w>
Y u</w>
Sha w</w>
Kor ban</w>
D AN</w>
pesa wa
pertam anya</w>
pengkhian atan</w>
pele dak</w>
ku .</w>
ka gum</w>
di tarik</w>
bua hku</w>
Mi ami</w>
Hi lang</w>
Du ke</w>
Cho i</w>
Af g
ra ma
per masala
jalan lah</w>
gu s
dise gerakan</w>
ber pengaruh</w>
I zinkan</w>
Berka talah</w>
A sy
ra u</w>
peng ga
la lu
ke agungan</w>
gen dut</w>
ber kali</w>
D O
Av atar</w>
menele ponku</w>
l os
kole ksi</w>
ba bnya</w>
an ga
Lan ce</w>
t hi
sta f</w>
sa mar</w>
per usaha
per ki
meng klaim</w>
memer lu
kli en
den ya</w>
d ha</w>
ca pai</w>
b ku</w>
ar ti
V ar
Le w
Ke hi
Jus t</w>
J un
top ik</w>
rambu tnya</w>
mu rahan</w>
meman jat</w>
mem elu
Ter ry</w>
Ke gelapan</w>
Jon athan</w>
Ber sihkan</w>
B ang</w>
sa dari</w>
ot h</w>
mengger akkan</w>
memak saku</w>
kom p
ho t</w>
e sia</w>
Te ddy</w>
Di ck</w>
An th
we ather</w>
ta sku</w>
sto p</w>
menja tu
mengajak mu</w>
dire ktur</w>
di rancang</w>
ber mu
Maha tinggi</w>
ya min</w>
tif ikat</w>
st r
pu lasi</w>
pa in</w>
l N
j us</w>
f am
er i</w>
bu lat</w>
apa lah</w>
P le
Hu jan</w>
He h</w>
sur ya</w>
m p</w>
ker e
ga jah</w>
c ket</w>
c eng
bur onan</w>
ber hentilah</w>
N am</w>
Je an</w>
prot ein</w>
pro fil</w>
perisa i</w>
per lawanan</w>
pemili knya</w>
mengha jar</w>
meng gu
memper olok</w>
keja ha
di es</w>
S yu</w>
K ot
usa i</w>
pepohon an</w>
mu ri
li da
ju rang</w>
di e
The a</w>
Ha tiku</w>
C os
re al</w>
menem pel</w>
manfa atkan</w>
d lm</w>
ar tis</w>
Tu han
C han</w>
ter kuat</w>
nya lakan</w>
ju dul</w>
h omo</w>
a der</w>
Suam iku</w>
De v
penga man</w>
p ton</w>
obro l</w>
l la</w>
San dy</w>
Sa ya
K im
Jac kie</w>
Iku tlah</w>
uncu ran</w>
umu mnya</w>
sin asi</w>
perka winan</w>
mer ek
menye berang</w>
gembi raan</w>
en tahlah</w>
di duga</w>
ber kurang</w>
Q .S.</w>
Par ker</w>
Mon ster</w>
9 9</w>
yu ran</w>
terla rang</w>
sa m</w>
pisa hkan</w>
mengu bur</w>
memu su
gar am</w>
am nya</w>
Y g</w>
Mus tahil</w>
L antai</w>
B ol
penyemba han</w>
men do
mah kota</w>
lanta ran</w>
kema han</w>
ba bak</w>
C in
3 6</w>
â r
te gas</w>
inggi kan</w>
bi sikan</w>
a gen
u tam
peru tnya</w>
pemberi tahuan</w>
g angnya</w>
diu ji</w>
Menu ju</w>
Lo ve</w>
Br o</w>
ris h</w>
p ras
mena iki</w>
en s</w>
b itkan</w>
Ken ny</w>
melindung iku</w>
kese imbangan</w>
ela an</w>
ber khianat</w>
Kat herine</w>
J ang</w>
H oo
A gen
ku temui</w>
keri daan</w>
S. H.I.
Ba bel</w>
ten tukan</w>
menghi sap</w>
menar uhnya</w>
berta u
I rak</w>
thin k</w>
n akuti</w>
ber santai</w>
be likan</w>
ban jir</w>
W hen</w>
Ter gantung</w>
Te kn
Ho uston</w>
Ak tifkan</w>
- Apakah</w>
tar nya</w>
le d</w>
h ome</w>
fs 19</w>
Te bak</w>
Menying kir</w>
Ch o</w>
putr anya</w>
mengin jak</w>
kha ya
bangk rut</w>
aja l</w>
Tu buh</w>
Su mpah</w>
No lan</w>
N ina</w>
Margar et</w>
y ce</w>
prot es</w>
mengun jung
membangun kan</w>
mela yang</w>
lem bu</w>
fre d</w>
f ru
di mengerti</w>
bu as</w>
Pas tinya</w>
L el
Dar i
ter aan</w>
mer angka
meng harap</w>
do g</w>
di ag
ba an</w>
Na zi</w>
I f</w>
se kadar</w>
pi ano</w>
menar iknya</w>
in jak</w>
i par</w>
i 1</w>
ga pan</w>
g emba
Ku katakan</w>
pen jual</w>
ke lima</w>
dima tikan</w>
di angkat</w>
bok ong</w>
Sta siun</w>
R ang
J A
I ris</w>
C ome</w>
Al len</w>
- Ini</w>
tr ak
menjeng kelkan</w>
menang guhkan</w>
ma da</w>
bu tkan</w>
ber ikanlah</w>
Ter dengar</w>
Lo kasi</w>
La y
E. L.
Ambi lkan</w>
un af
sa ja
s ung
po kok</w>
f on</w>
T O
Re publik</w>
Nya lakan</w>
Meng u
Kar tu</w>
o g
man tel</w>
e tnya</w>
P is
Ma habi
K a</w>
swa sta</w>
per setan</w>
peny iksaan</w>
al angkah</w>
Ba d
semu dah</w>
per sembahan</w>
pembu angan</w>
pema haman</w>
mengirim mu</w>
ku cari</w>
is ku</w>
ind y</w>
en sik</w>
di sukai</w>
di sembunyikan</w>
ber sorak</w>
Sem bilan</w>
Peru bahan</w>
Pem e
H at
Da vis</w>
terakhi rku</w>
sahaba tku</w>
ker s</w>
iku tilah</w>
Lau rel</w>
Lang it</w>
H ak</w>
tang ki</w>
profe sor</w>
peningga lan</w>
ni m</w>
menye suaikan</w>
menghin dar</w>
elek tron
do sis</w>
baju mu</w>
Mar ie</w>
Alex ander</w>
ti val</w>
per sembuny
per gerakan</w>
ku minta</w>
di datangkan</w>
bu an</w>
bar unya</w>
Su l
S.H.I. E.L.
S D</w>
K aki</w>
Ca leb</w>
Ba y</w>
Adi kku</w>
wor ld</w>
pela cak</w>
menyer et</w>
lin s</w>
jad wa
ha lu
gg s</w>
am but</w>
Hu bungan</w>
AS A</w>
zz y</w>
w it
ro ket</w>
re tak</w>
perhati kanlah</w>
pa troli</w>
dem ok
D ol
Ber hasil</w>
tra gedi</w>
tim pa</w>
man en</w>
Ke cil</w>
In jil</w>
IN I</w>
Ha sil</w>
seja h
pu ing</w>
panta tku</w>
ne ss</w>
memu askan</w>
kekaf ir
a wat</w>
Sh in</w>
Per janjian</w>
th y</w>
ter gesa</w>
min um
la a</w>
ke atas</w>
ir ik</w>
f ase</w>
di bu
cu r
ber tan
a bel</w>
U lang</w>
Hu tan</w>
-- yang</w>
tau hid</w>
mez bah</w>
meng ancam
ga tkan</w>
doku men
bu tnya</w>
S tor
S to
Pem beri</w>
3 7</w>
un ting</w>
sayang i</w>
penya ir</w>
memper kuat</w>
li ku</w>
li ght</w>
it un</w>
impi kan</w>
ff ff
de h</w>
aro ma</w>
B a</w>
6 00</w>
p no
menyusu n</w>
mak am</w>
do samu</w>
disku si</w>
di sional</w>
amun isi</w>
Ric ky</w>
A s</w>
se benar</w>
memper hati
isyar at</w>
du de</w>
da hkannya</w>
I d
Fin ch</w>
peram pok</w>
penyelama tan</w>
lo ad</w>
el ak
derma ga</w>
Sela sa</w>
S car
Cen tral</w>
s tian</w>
ji wanya</w>
inves tigasi</w>
go yang</w>
Se sua
R em
Petr us</w>
Lew is</w>
Ker eta</w>
1 000</w>
radi asi</w>
pern ah
perintah ku</w>
keri butan</w>
is u</w>
gan dakan</w>
do o</w>
br akan</w>
ar ahnya</w>
S itu
Panggi lan</w>
tu rnya</w>
p inggir</w>
mete or</w>
hu jah</w>
du ki</w>
dise satkan</w>
di hormati</w>
bak teri</w>
Step hen</w>
Me gan</w>
Le s
J ill</w>
Bis nis</w>
ten da</w>
peni puan</w>
mo tif</w>
mer ancang</w>
lam inya</w>
i ght</w>
di bagi</w>
di ali
Har ris</w>
Con to
tr o</w>
pub li
pu l
po p</w>
ph one</w>
pakai anmu</w>
nya wanya</w>
mengaku inya</w>
men teri</w>
geme tar</w>
Tra vis</w>
A ki
tu i</w>
tiu pan</w>
tah an
re gu
popu lasi</w>
ma las</w>
ma d
lu inya</w>
ja l</w>
dis inya</w>
bri lian</w>
bi us</w>
ar s</w>
a anmu</w>
Tha iland</w>
Sa lom
pi ala</w>
m inggir</w>
ka wanan</w>
ka su
itu .</w>
am annya</w>
S S</w>
Mor ty</w>
Kali mat</w>
Isra il</w>
wak il</w>
sa ins</w>
prak tek</w>
huku mnya</w>
hen g</w>
cua lian</w>
Sy l
Se kre
Fran c
A ka
y y
ol akan</w>
e sar</w>
diper lakukan</w>
ber bisik</w>
baik mu</w>
alterna tif</w>
Os car</w>
C ru
Afg han
A dik</w>
st ing</w>
sesua tu
pem adam</w>
pe tarung</w>
or ku</w>
mengha lang
mener uskan</w>
me t</w>
la pis</w>
ke co
al bum</w>
Nic e</w>
ru tan</w>
puku li</w>
pa pa</w>
menan am</w>
mel ele
me ta
biar kanlah</w>
ala matnya</w>
I P</w>
pe dagang</w>
mele takkannya</w>
lu put</w>
leng kapan</w>
C inc
sh h</w>
sa us</w>
per gelangan</w>
lu man</w>
la r
favor itku</w>
banta ian</w>
So al</w>
G em
Bo m</w>
ty pe</w>
terakhi rmu</w>
se penuh</w>
ponse lnya</w>
memasuk inya</w>
gel inci
g ele
c oran</w>
ben ih</w>
M A</w>
Jor dan</w>
A R</w>
âr ûn</w>
u e</w>
sek tor</w>
mak ar</w>
ca st</w>
F lo
pe sanan</w>
meng obrol</w>
janj inya</w>
h ost</w>
anggi h</w>
Ke punyaan</w>
CE O</w>
par tikel</w>
p impinan</w>
menga b
men syukuri</w>
melu kis</w>
ji waku</w>
cu rkan</w>
buk tinya</w>
Reg ina</w>
G el
Anth ony</w>
unggu l</w>
to o</w>
kal eng</w>
ka but</w>
j inya</w>
gh s</w>
Hol lywood</w>
Ber ga
w here</w>
taku ti</w>
o psi</w>
menunggu ku</w>
menuli snya</w>
ika tnya</w>
fin al</w>
do t</w>
a si
R al
Men emukan</w>
M ungkinkah</w>
Ist ana</w>
AR I</w>
ter perangkap</w>
jalan i</w>
ja hi</w>
an -</w>
T anggal</w>
Afghan istan</w>
ph ia</w>
kehilang anmu</w>
indivi du</w>
ha tnya</w>
di aktifkan</w>
ang ani</w>
Pela cur</w>
terla tih</w>
ter son</w>
su lkan</w>
se sa
menghubung inya</w>
memper kenankan</w>
ku miliki</w>
kecan tikan</w>
is aris</w>
hati n</w>
P ikiran</w>
tra uma</w>
su ka
khu susnya</w>
emba hnya</w>
di jalankan</w>
ber operasi</w>
Mahabi jaksana</w>
ti knya</w>
bua hmu</w>
ana san</w>
Yo u
Tu bu
L ong</w>
E mas</w>
ta s
se pi</w>
hu j
e sok</w>
dah sya
Lan e</w>
per manen</w>
p li
dor ongan</w>
Kehi langan</w>
Ir landia</w>
se cangkir</w>
psi ki
n at</w>
meny embahnya</w>
lori da</w>
ge jala</w>
fira sat</w>
be t</w>
at mos
ar sit
anuger ahkan</w>
anc amkan</w>
P ho
G PS</w>
Ba walah</w>
va lu
si al
me di
kehadi ran</w>
ka te
is k
hid ro
f ur</w>
disku sikan</w>
Tam bahkan</w>
Sa yangku</w>
M P
Ka p
6 5</w>
3 0
s hu
mendahu lui</w>
kand ungan</w>
di ja
Menyen angkan</w>
Ang ela</w>
mewujud kan</w>
har a</w>
U bah</w>
S tan</w>
Ch ang</w>
wali kota</w>
tahu lah</w>
su bur</w>
r ong
kon ser</w>
kemampu annya</w>
jar imu</w>
ding ton</w>
ak ting</w>
ak ap</w>
H ill</w>
ta pan</w>
t ris</w>
mi e</w>
mene gaskan</w>
kr itis</w>
h ang</w>
gili ranmu</w>
ata smu</w>
Seba stian</w>
S or
S n
S la
Ke tiga</w>
Dal e</w>
ul son</w>
repu tasi</w>
pengun jung</w>
mengen ali
S I</w>
Ro meo</w>
Man tan</w>
Isa ac</w>
Hal lo
D ri
Conn or</w>
wa ti</w>
kecil nya</w>
ja gung</w>
j anda</w>
ffff 00</w>
dit anya</w>
di isi</w>
berkem as</w>
ban teng</w>
S ma
Dit erima</w>
Blu e</w>
tahun nya</w>
sy irik</w>
min at</w>
menjempu tmu</w>
menghabi si</w>
ma hu</w>
ampi re</w>
Ser ang</w>
Bra d</w>
membutu hkanku</w>
diser tai</w>
bar angku</w>
P il
q û
mendi dih</w>
kem e
gig itan</w>
ani e</w>
Ma x
Cran e</w>
Ca esar</w>
Bo cah</w>
penga wa
men a</w>
ku kenal</w>
kak ala</w>
di hitung</w>
ber gembira</w>
baru ku</w>
Ra m</w>
P ah
N an
Man ajer</w>
An tara</w>
s ara</w>
re volusi</w>
kun jungi</w>
ke e</w>
L ing
ti sipasi</w>
ter belah</w>
sin yur</w>
p angkalan</w>
o id</w>
o de</w>
nya wamu</w>
mem pela
ke gembiraan</w>
k satria</w>
gene tik</w>
ber libur</w>
ar ahkan</w>
Bo o
A lam</w>
u x</w>
priba di
perseli sihan</w>
pen ce
in duk</w>
ber ambut</w>
T as</w>
to s</w>
timbu l</w>
ta atlah</w>
su buh</w>
seku mpulan</w>
panta tmu</w>
lin k</w>
c uni</w>
In don
ter tu
ter timpa</w>
nya li</w>
memusu hi</w>
kesi mpulan</w>
ing o</w>
dar anya</w>
bi langan</w>
ban tal</w>
Sh in
ter u
san dwich</w>
sam bung</w>
ke pan
dilem parkan</w>
Tem anmu</w>
T ingkat</w>
Gran d</w>
st ra</w>
sin o</w>
semen jak</w>
rambu tku</w>
perju angan</w>
mem bakarnya</w>
f ir</w>
eri f</w>
di ker
d ang
ban i</w>
an imu</w>
3 3</w>
mengirim ku</w>
memper cepat</w>
li fe</w>
ki ran</w>
jer nih</w>
fre kuensi</w>
deka de</w>
bere skan</w>
Se bagaimana</w>
Pengu asa</w>
G imana</w>
war as</w>
tidak .</w>
ti vasi</w>
pan ti</w>
member si
dra matis</w>
ca tan</w>
bak ti</w>
abo ut</w>
Ru ma
K ry
Ha bi
ter cela</w>
taku tkan</w>
mengece k</w>
isk inan</w>
hak ikat</w>
bi ologi</w>
ber dering</w>
Son ny</w>
Put riku</w>
Men de
J un</w>
riwa yat</w>
membi mbing</w>
keter ampilan</w>
kesala hannya</w>
kem unaf
kele lahan</w>
ka d</w>
ju rna
ditim pakan</w>
blo g</w>
bi litas</w>
Wa lau</w>
Po sisi</w>
A g
y angan</w>
ter hina</w>
sek re
per tumbuhan</w>
per kemahan</w>
om p
mpu l</w>
ko ki</w>
ik lim</w>
P ap
Ku beritahu</w>
Jawa ban</w>
Awa lnya</w>
Alli son</w>
w hi
pemili kan</w>
on is</w>
o ul</w>
m pok</w>
is mu</w>
da hi</w>
c y
b it
So u
Sesua i</w>
P o</w>
lapor kan</w>
ka lahkan</w>
dok teran</w>
di ungkapkan</w>
S kot
R i</w>
M EM
Fit z</w>
pri hatin</w>
no mer</w>
no da</w>
kebang gaan</w>
diku asai</w>
ang sur</w>
Ju li</w>
penga suh</w>
ju ru</w>
hi sab</w>
fe el</w>
di ingat</w>
Jela skan</w>
ta b
t ungan</w>
c anggih</w>
Se jarah</w>
S T
P I
Is hak</w>
E in
A DA</w>
menc ampu
keseti aan</w>
kemu dahan</w>
e volusi</w>
di rencanakan</w>
bo lan</w>
au disi</w>
ak ah
a hku</w>
E k
merawa tnya</w>
kemba li
du kannya</w>
dit h</w>
ce dera</w>
TA H
Lor en
A turan</w>
se gi</w>
pan asnya</w>
mu n</w>
mengalah kannya</w>
lit tle</w>
lemba ga</w>
keku atanku</w>
Z i
Pa us</w>
Min umlah</w>
Meng gunakan</w>
Me x
La tin</w>
x ter</w>
sy n
seng sar
ma cet</w>
ka sur</w>
gu n</w>
gam bar
dila tih</w>
c it
Y ah
Ber main</w>
tan k</w>
sang kakala</w>
ponse lmu</w>
mu seum</w>
cu kur</w>
Se lamanya</w>
M adam</w>
to koh</w>
ta cus</w>
rahasi akan</w>
per tunjukkan</w>
mem bongkar</w>
manu al</w>
kehidup anku</w>
defin isi</w>
d man</w>
d hamir</w>
ber antai</w>
Da e</w>
Ber pikir</w>
ter atur</w>
tenggor okan</w>
situ asinya</w>
menga mankan</w>
mencer itakannya</w>
membe ku</w>
hubung kan</w>
Salom o</w>
H A
El lie</w>
E s</w>
z in</w>
stu dio</w>
pen da
mengaca u</w>
men jebak</w>
gel andangan</w>
Skot landia</w>
Ka l
J on</w>
ra hkan</w>
peni laian</w>
menghar gainya</w>
mempe kerjakan</w>
ker a</w>
berc akap</w>
O n
Ma sukan</w>
Ben arkan</w>
v or</w>
ter kendali</w>
su b</w>
paha lanya</w>
ko kain</w>
ja mur</w>
g ungnya</w>
Ron nie</w>
penge cualian</w>
pe stanya</w>
menyer ahkannya</w>
ki lat</w>
ga mpang</w>
g inilah</w>
di amlah</w>
Super man</w>
Man ny</w>
Luci fer</w>
F r
Elli ot</w>
olo g</w>
mence ga
melu mpu
gus tus</w>
Cat herine</w>
su lan</w>
mengawa sinya</w>
ja sa</w>
gam barnya</w>
dit un
ang is</w>
z im</w>
te tapkan</w>
pem be
meng aktifkan</w>
kantor nya</w>
ja s</w>
ha an</w>
d son</w>
co r</w>
Wen dy</w>
Penga cara</w>
K U
Bi arlah</w>
ur o</w>
seti mpal</w>
per sak
ku ceritakan</w>
ke bawah</w>
do w</w>
de presi</w>
Sekre taris</w>
Felic ity</w>
pela rian</w>
mem ada
ma tan</w>
im i
da m
be s</w>
Menga takan</w>
Ke ce
se i</w>
se harga</w>
man aj
go sip</w>
di deka
anta u</w>
a za
Ti durlah</w>
Se kiranya</w>
Maha perkasa</w>
tahun an</w>
per gi
mus nah</w>
ika sikan</w>
go o</w>
ce l</w>
Su ka</w>
war nanya</w>
vi e</w>
or bit</w>
oo m</w>
hen tian</w>
g arkan</w>
Bis hop</w>
tem patkan</w>
stitu si</w>
pur nama</w>
mes innya</w>
menye lam</w>
ih wal</w>
gi mu</w>
buru an</w>
ber keringat</w>
ber bakti</w>
be gitu
Penga dilan</w>
Cu ku
th ro
sy i
sau dari</w>
per cera
f t
f ini
di wajibkan</w>
Per sia</w>
Ba ca</w>
y .</w>
res pon</w>
pu mu</w>
ne ed</w>
ke ping</w>
ji lah</w>
ik o</w>
cu cu
Se galanya</w>
Ko pi</w>
G ela
s si</w>
li p
len cana</w>
kem iskinan</w>
di dn</w>
Zo e</w>
Keju tan</w>
so pir</w>
re r</w>
men eri
ma war</w>
lumpu h</w>
it ter</w>
di jaga</w>
blo kir</w>
as rama</w>
Ter uslah</w>
Seri gala</w>
Men inggalkan</w>
Beli au</w>
men iru</w>
ku maksud</w>
kem bang</w>
g rid</w>
b ong</w>
Se o</w>
Paka ian</w>
Ka tamu</w>
3 8</w>
turun lah</w>
pu luhan</w>
pras angka</w>
mengha jar
ku jelaskan</w>
her o
dikur angi</w>
di saat</w>
dapa ti</w>
bo x</w>
L as
I y</w>
19 7
omb ongan</w>
menying gung</w>
k yo</w>
elektron ik</w>
dia baikan</w>
Gre en
Eli jah</w>
8 00</w>
umu rnya</w>
umu rmu</w>
tuju anmu</w>
ti up</w>
penye babnya</w>
menyem belih</w>
meny impu
lang ka
la ri
kesomb ongan</w>
iso lasi</w>
U langi</w>
Sw t.</w>
Spar tacus</w>
M o</w>
memaaf kanmu</w>
kelu han</w>
kecer dasan</w>
ka bin</w>
hadi rin</w>
fes sor</w>
dit el
Ta dinya</w>
Pan as</w>
Mu da</w>
Ash ley</w>
Apa lagi</w>
kepriba dian</w>
h ol
bere dar</w>
ber pendapat</w>
awa s</w>
T his</w>
No v
Na mamu</w>
Ke sini</w>
umu man</w>
mengu tuk</w>
ku mu</w>
Ste ven</w>
Re x</w>
Pu ku
Lam pu</w>
C lub</w>
â b</w>
lu tu
kombin asi</w>
ka run</w>
c anda</w>
T ara</w>
Ri ley</w>
Nic ho
M ia</w>
teng karan</w>
te lah
tahu kah</w>
sempur n
pon en</w>
keturun annya</w>
inter nal</w>
di r
b lu
anta rkan</w>
F lorida</w>
A sal</w>
s per
pem bangunan</w>
kon struksi</w>
ju bah</w>
bel l</w>
Li on
1 .000</w>
tim bang
teri ku</w>
pe k</w>
mas jid</w>
dipa hami</w>
di son</w>
besar lah</w>
ber jumlah</w>
Per minta
Mar tha</w>
J .</w>
B lake</w>
B O
wi sa
wa ys</w>
tenga hnya</w>
sa s</w>
merangka k</w>
menyer u
ja dinya</w>
che n</w>
U mum</w>
P .
Hallo ween</w>
Car los</w>
vie w</w>
suk se
ri ce</w>
mimpi ku</w>
ken c
kekafir annya</w>
K ri
ti a</w>
mil yar</w>
ma lu
kur ung</w>
h ong</w>
for mu
da hkah</w>
anju rkan</w>
Pen jara</w>
Mi salnya</w>
IT U</w>
He ctor</w>
-- dan</w>
to ber</w>
ter cinta</w>
sho w</w>
sa lib</w>
pen dukung</w>
pembu luh</w>
pem anasan</w>
mun an</w>
menghenti kanku</w>
ling lah</w>
inte lijen</w>
el o</w>
Ral ph</w>
Co ulson</w>
lang s
fanta stis</w>
es ta
dil aksanakan</w>
bantu anku</w>
To ko</w>
Ta h
Pa i
Fo kus</w>
Dor ong</w>
Ba bi</w>
membu atkan</w>
gh ts</w>
dom pet</w>
ber ganti</w>
asa lmu</w>
Wat ch</w>
U N</w>
Na si
A sa
os hi
ne l</w>
min umlah</w>
kapa lnya</w>
j el
dinas ha
ba t
SI M</w>
Ber ani</w>
sak anlah</w>
ri ba</w>
mengu ku
ka susnya</w>
berse lingkuh</w>
Men ak
Maha suci</w>
Ke bi
tri bu
ta se</w>
ta mp
ku ad
f ik
dom pe
anti asa</w>
Tu kang</w>
Nic ky</w>
Le wi</w>
Ka i</w>
F ra
Dun ham</w>
- Terima</w>
s itulah</w>
liha tnya</w>
ku kan</w>
ja sad</w>
fa ce</w>
che ck</w>
P B
O wen</w>
Meli ssa</w>
Ka ya</w>
F ly
E sa</w>
Do ku
vag ina</w>
tem ber</w>
sen dirinya</w>
he e</w>
ela hkan</w>
di p</w>
cer it
bun tu
ben da
be bek</w>
Be t
An akmu</w>
pembu kaan</w>
n ge
dara hku</w>
T aman</w>
Bar bie</w>
Al bert</w>
re e</w>
os kop</w>
mit os</w>
min ist
memper mainkan</w>
kon figurasi</w>
kan annya</w>
han duk</w>
ditam bahkan</w>
diku bur</w>
ce h</w>
c eri
ber pengalaman</w>
Dit er
t inggal
pem bela</w>
ke keja
i ri
gi l</w>
T api
Ros s</w>
Mex ico</w>
Ma sh
Hal l</w>
ter de
sak itnya</w>
ros s</w>
member eskan</w>
mag ne
go daan</w>
Ro sie</w>
olo kkan</w>
mut lak</w>
fisi ka</w>
anj ingnya</w>
a jakan</w>
Ten tunya</w>
Par a
P at</w>
C hi</w>
1 4
te gak</w>
sti l</w>
po int</w>
pa hit</w>
mer an</w>
ma lkan</w>
ku dapatkan</w>
kak aknya</w>
ger s</w>
ga li</w>
diba las</w>
ang sang</w>
Yo o</w>
T here</w>
T .
Scu lly</w>
N elson</w>
Meng ingat</w>
A sh</w>
.. ..
memper malukan</w>
mempela jarinya</w>
di pasang</w>
ce y</w>
Qura isy</w>
Nicho las</w>
Ku cing</w>
I ran</w>
Be cky</w>
Ba ik
p angan</w>
menc am
mena war
l ong</w>
kor bannya</w>
di pukuli</w>
ba wang</w>
aki mi</w>
Ro b</w>
Per i</w>
Jus tin</w>
ton nya</w>
se lama
per lengkapan</w>
li kkan</w>
la hi
ja m
i anmu</w>
de on</w>
ar sip</w>
ag e</w>
Mem buatku</w>
Mar inir</w>
M am
sa tuan</w>
ru dal</w>
pen dekatan</w>
ne s
mema ta</w>
ku butuhkan</w>
kamer anya</w>
diper oleh</w>
di berkati</w>
Pi er
Ke putusan</w>
G us</w>
ti lasi</w>
tahun ku</w>
r ele
pel uncuran</w>
meng ela
he ster</w>
di putuskan</w>
bo coran</w>
be n</w>
T it
Loren zo</w>
K ena</w>
Ji wa</w>
H uru
sum sikan</w>
r er
po und</w>
pa h</w>
mengu tamakan</w>
mengu kur</w>
meng khawati
ji wamu</w>
di visi</w>
ak lah</w>
Ya a</w>
Matthe w</w>
Hol ly</w>
Cuku plah</w>
mere tas</w>
menangga pi</w>
kon tes</w>
Untu kmu</w>
To kyo</w>
N O
untu han</w>
saudara an</w>
re porter</w>
re m</w>
pem andu</w>
menci umnya</w>
kan kan</w>
k h
diku tuk</w>
di ikat</w>
bu kkan</w>
bis u</w>
berba u</w>
ber jam</w>
Vir gin
Kam is</w>
yak inkan</w>
posi simu</w>
pema buk</w>
membersi hkannya</w>
la gi
B run
za itun</w>
se telan</w>
juju ran</w>
j ok</w>
ada h</w>
Al lahmu</w>
sen antiasa</w>
sek ong
pi mu</w>
ga lkan</w>
dz ak
di hada
ad y</w>
Tu ga
Ro cky</w>
Keber atan</w>
Huru f</w>
Ay e</w>
5 0
u ch</w>
tra gis</w>
meng elola</w>
kema lu
ber tunangan</w>
angg aran</w>
ang an
al ergi</w>
T on
Men e
Li z</w>
Kom pu
C ham
Beri lah</w>
Ba unya</w>
penem bakan</w>
melem ahkan</w>
k ong</w>
j ik</w>
bersa ing</w>
ay anya</w>
S ya
Cha se</w>
peng usaha</w>
ken ario</w>
keku asa
ho w</w>
ber bisnis</w>
W ang</w>
Sis anya</w>
Sep tember</w>
I C
tele ponmu</w>
s angka
o ur</w>
menghenti kanmu</w>
memili hmu</w>
lan das</w>
jago an</w>
f as
er lang</w>
digi tal</w>
di adakan</w>
baha gian</w>
P A</w>
Crow ley</w>
tar ge
sh eriff</w>
se p
oth y</w>
dialo g</w>
ber bahasa</w>
b lat</w>
anta ramu</w>
aku p</w>
Tel pon</w>
Pu teri</w>
Keja dian</w>
B lan
A c
menyimpu lkan</w>
mena ikkan</w>
mela r
da tar</w>
berde tak</w>
anta r
Su ar
IT A</w>
ny any
menunju kkannya</w>
memper laku
ku lasi</w>
kon ta
e fisi
co m</w>
berla wanan</w>
Jose ph</w>
Bo o</w>
Begitu kah</w>
Awa si</w>
tidu rnya</w>
membeba s
Shan e</w>
Go d</w>
A lamat</w>
turun an</w>
tion s</w>
ter tekan</w>
s kor</w>
pela jar</w>
ni si</w>
inf or
ber im
be en</w>
ar wah</w>
a ah</w>
X ia
Wat son</w>
Pertan yaannya</w>
Ku at</w>
pem bantaian</w>
part ner</w>
m otel</w>
ke t
ka wasan</w>
k man</w>
g y
a ca</w>
U r
Tu a</w>
K an</w>
mu btada</w>
mu atan</w>
menga baik
lo k</w>
lem bar</w>
kon sumsi</w>
gha ib</w>
el le</w>
agre sif</w>
Grim m</w>
G lee</w>
Bada i</w>
v ar
tra disional</w>
na lu
di sentuh</w>
di dengar</w>
bor gol</w>
P y
Mr s.</w>
ya ma</w>
wawan car
utam anya</w>
ti t</w>
tengkor ak</w>
per ingatkan</w>
per de
m aran</w>
konseku ensi</w>
ini si
g ri
g he
fini sikan</w>
Vi et
Nata lie</w>
Gar is</w>
we b</w>
w o</w>
s by</w>
pertanya anku</w>
perse gi</w>
lo p</w>
kri stal</w>
kar na</w>
i o</w>
dipa lingkan</w>
bur n</w>
Virgin ia</w>
UN TU
Per angkat</w>
Mem bantu</w>
E pisode</w>
Bar bara</w>
Ba wakan</w>
tom bak</w>
mo s</w>
mengi zin
hi langnya</w>
her o</w>
ditan dai</w>
ber bincang</w>
aku rat</w>
Ho use</w>
E R</w>
sukar ela</w>
s he</w>
menyesa li</w>
mengu lang</w>
menan dai</w>
le k</w>
kehidup anmu</w>
kar ung</w>
k olom</w>
ing er</w>
i si
i lusi</w>
i bu
hel m</w>
dak annya</w>
Per lahan</w>
Nor man</w>
Menak jubkan</w>
K lub</w>
Ga ya</w>
De v</w>
w ini</w>
ter hin
peng halang</w>
or s</w>
ken akan</w>
kabar nya</w>
hadap anku</w>
en der
bole hkah</w>
a ta</w>
Ti pe</w>
Mem er
In f
Dim u
Bin atang</w>
Bang sa</w>
Bada r</w>
ter tua</w>
sa yuran</w>
ru ku</w>
n it
lu kanya</w>
jadi kanlah</w>
dem on
Ber lutut</w>
Bel ok</w>
An na
tt g</w>
se lam</w>
run an</w>
membe likan</w>
kha mar</w>
kelu arnya</w>
di dapat</w>
Dari pada</w>
D ap
v eri
si den
memuku lmu</w>
meli mpahkan</w>
K ing
ya taannya</w>
ta sikan</w>
p kannya</w>
p inggi
mendengar kannya</w>
ku punya</w>
fanta si</w>
berken alan</w>
Pe ar
Na iklah</w>
Law rence</w>
Bro ok
unt y</w>
nafs unya</w>
mu lah</w>
m ân</w>
kedatang annya</w>
ke sengsar
kal bu</w>
i g</w>
dili mpahkan</w>
di kunci</w>
cu rian</w>
c la
O n</w>
B y</w>
v al
na ungan</w>
meram pas</w>
la ted</w>
ko boi</w>
ker jak
ka itannya</w>
j ir
f ana</w>
bok ongmu</w>
bera sumsi</w>
ber puasa</w>
Ru by</w>
N Y
Men ara</w>
Gi deon</w>
Car ilah</w>
su mpa
p angkan</w>
mengawa simu</w>
in sinyur</w>
f un
di aniaya</w>
War ga</w>
Tur ki</w>
Men dapatkan</w>
ver s</w>
te bing</w>
tang mu</w>
s pa
mering ankan</w>
mengg ele
me wahyukan</w>
masala hku</w>
lN G</w>
kesem pur
be kerjasama</w>
Za ck</w>
Op pa</w>
Ken ne
He wan</w>
Ca mer
Bar ney</w>
ter catat</w>
ter baikku</w>
sul itnya</w>
sen ti
psiko pat</w>
meres pon</w>
dit unjukkan</w>
ar ena</w>
Pai ge</w>
G il</w>
Al fred</w>
si mpa
pem impin
os ter</w>
min us</w>
mik ro
ber lipat</w>
N at
Maha tahu</w>
Fe lix</w>
Del hi</w>
De wi</w>
Da ging</w>
st e</w>
pan en</w>
menyampa ikannya</w>
mengenda likannya</w>
keah li
hu d</w>
f lu</w>
di kem
Leon ard</w>
F ont</w>
2 000</w>
taku tlah</w>
pon dok</w>
per inga
pendara han</w>
pe si
memer intah
kir lah</w>
ga irah</w>
for ensik</w>
Flor ence</w>
u tu</w>
pemberon takan</w>
menuntu n</w>
mel elahkan</w>
ditam pilkan</w>
da danya</w>
Penga sih</w>
usi amu</w>
trak tir</w>
se s
pen ingkatan</w>
mes jid</w>
menjadi kanmu</w>
mengin car</w>
memper kirakan</w>
en tasi</w>
diken dalikan</w>
di jauhkan</w>
di athafkan</w>
ber sungguh</w>
bang kai</w>
at ku</w>
Hidu pku</w>
Franc isco</w>
6 4</w>
ter jer
ra ukan</w>
permasala han</w>
pa haman</w>
n ger
menyentu hku</w>
ke dokteran</w>
h ang
de bah</w>
ber abad</w>
ba pak
Pen ny</w>
Ja di
I o
I e</w>
jalan ku</w>
el li</w>
di lupakan</w>
bersan dar</w>
Sti les</w>
Ne g
Men em
Fo x</w>
Da ddy</w>
ter cepat</w>
ponse lku</w>
musy ri
me gah</w>
kelam in</w>
ka wat</w>
er deka
elek tron</w>
dila porkan</w>
c il
beba tuan</w>
angku h</w>
K li
Ba itu
ucap anmu</w>
perkata anmu</w>
os an</w>
ong annya</w>
merus aknya</w>
meng im
m angkuk</w>
ik anmu</w>
chi e</w>
c s</w>
aku --</w>
K i</w>
Ama z
tele ponku</w>
re tt</w>
ra wa</w>
p ompa</w>
nom ornya</w>
mengangka tnya</w>
menak lukkan</w>
ku rasakan</w>
bos s</w>
U hh</w>
Lion el</w>
E v
Di visi</w>
Ap ple</w>
ter ap
min asi</w>
mengi jin
m m
lin d</w>
len e</w>
kem ah</w>
inter aksi</w>
hari mau</w>
di am
Ber untung</w>
x t</w>
sir kus</w>
ro bek</w>
qû b</w>
per tengkaran</w>
mu ran</w>
menjer umu
mendor ongnya</w>
ke pada
dist ribu
Pu r
Kak akku</w>
Jen dela</w>
F u</w>
w il
tak an
su knya</w>
promo si</w>
ku ingat</w>
kre atif</w>
in asi</w>
asu han</w>
Red dington</w>
Pi hak</w>
ti ve</w>
t unggulah</w>
pelihar aan</w>
no vel</w>
ku percaya</w>
ist rik</w>
gang i</w>
dapa tkah</w>
d eka</w>
ba lon</w>
Di ego</w>
ti ran</w>
per ingkat</w>
mu at</w>
melun cur</w>
lam aku</w>
khaya lan</w>
kekeja man</w>
j itu</w>
in ten
h rer</w>
cem erlang</w>
Keja hatan</w>
Bel anda</w>
mengun durkan</w>
gan tikan</w>
Sa leh</w>
Mi key</w>
tra dara</w>
te ater</w>
tang ku</w>
pri vasi</w>
p lo
menyer tai</w>
mel on
mar ta
karen amu</w>
jar ing</w>
ba ta</w>
Perminta an</w>
Mo on</w>
Hun ter</w>
Han ni
2 .000</w>
vi et</w>
men datang</w>
ka p
k ia</w>
do alah</w>
deng ki</w>
cak ar</w>
ban tah</w>
as mu</w>
ap akan</w>
Ah l</w>
pembu atan</w>
mengagu mi</w>
ler i</w>
ku bah</w>
koordin at</w>
kesengsar aan</w>
itu r</w>
diper buat</w>
belu lang</w>
baca annya</w>
W he
D IA</w>
C lo
ron de</w>
pernika hannya</w>
p lat</w>
ken da
kemunaf ikan</w>
habi si</w>
ever y
dit or</w>
anuger ah</w>
3 .
t kan
per kenalkan</w>
melen yapkan</w>
halu sinasi</w>
f eno
e d
d ka</w>
Sepa tu</w>
O tak</w>
Lu ka</w>
C isco</w>
C C
s kan
s ari</w>
p ang
menguku hkan</w>
mbi lan</w>
kon spirasi</w>
ker aja
ke ker
gin al</w>
bo cor</w>
Men deng
M ili
Hendak lah</w>
Gre gor</w>
pen amp
mera gu
la u
kecan duan</w>
hu a</w>
dit ipu</w>
ber sekutu</w>
aba dian</w>
Ter bang</w>
T hu
Bu l
ti stik</w>
ta g</w>
seba ll</w>
presen tasi</w>
organ ik</w>
kur angnya</w>
ku hubungi</w>
di dorong</w>
berkem ah</w>
a sin</w>
Z at</w>
Wil lie</w>
TH E</w>
Hadi rin</w>
Ger bang</w>
Ben yamin</w>
3 4</w>
su a</w>
seu mpamanya</w>
sen dok</w>
pro m</w>
pr im
percera ian</w>
pa lu</w>
han es</w>
g ori</w>
Si hir</w>
Per temuan</w>
Mum bai</w>
D ik
C at</w>
4 3</w>
tu anku</w>
su han</w>
pen olong
o o</w>
nya waku</w>
menu du
menc elak
memper tanyakan</w>
her s</w>
ben ang</w>
ala s</w>
Viet nam</w>
Tam pak</w>
Ray mond</w>
Pah lawan</w>
Col lins</w>
su cikan</w>
pakai annya</w>
memberik anku</w>
ha a</w>
disi plin</w>
di lepaskan</w>
c anggung</w>
a o</w>
a ir
W ol
Per tahanan</w>
Juli ette</w>
B ha
B ar</w>
y yah</w>
syu ting</w>
pu langlah</w>
meng akhi
e vakuasi</w>
bertau bat</w>
al lu
Se pu
Cla y</w>
ter minal</w>
re kor</w>
pung gungnya</w>
pen cipta</w>
pada m</w>
musu hnya</w>
man n</w>
leher mu</w>
it ed</w>
diser ahkan</w>
R U
P an</w>
K y
ver y</w>
s tin</w>
ru mu</w>
rama lan</w>
o let</w>
mengin tip</w>
ke d</w>
ka sikan</w>
k olon
g ot
car ikan</w>
bersi han</w>
P O
Ke ka
Hu d</w>
r ang
mengejar mu</w>
membaha snya</w>
ku fur</w>
es sa</w>
bung lah</w>
ber oleh</w>
aku .</w>
Pen uh</w>
Bo om</w>
An derson</w>
wak anku</w>
trans portasi</w>
si aga</w>
s kanlah</w>
on er</w>
memak samu</w>
kese jah
gul ung</w>
di mak
co uld</w>
b ba</w>
Situ asi</w>
Na z
Ein stein</w>
ter ancam</w>
su t</w>
so da</w>
se ketika</w>
per to
mon s</w>
menje bak
la in
kelu aran</w>
hi langkan</w>
c har
Tu run
Ok tober</w>
Menga gu
Men ang</w>
Fe deral</w>
y ton</w>
pro y
pena hanan</w>
par ano
meny ik
me d</w>
ker anjang</w>
ch ang
ber agama</w>
am arah</w>
Bu t
pas tian</w>
pa duan</w>
mela luinya</w>
ma hir</w>
kesa tuan</w>
gu bernur</w>
S ana</w>
P anjang</w>
O psi</w>
M ata
Ke betulan</w>
Bel le</w>
tak tik</w>
seng sara</w>
meri am</w>
menta ati</w>
loka sinya</w>
disem belih</w>
ba ma</w>
ata san</w>
M ot
Ha si
Ang el</w>
tun da</w>
regi ster</w>
pas por</w>
o ut
kar ir
gi tar</w>
ber pihak</w>
Su ku</w>
S pr
Frank lin</w>
vi er</w>
sa mbu
re kanku</w>
perken an</w>
pem bebasan</w>
mel uncurkan</w>
fi f</w>
ber tukar</w>
bata lkan</w>
Si las</w>
G rup</w>
E va</w>
D il
se g
ri r</w>
mengga bungkan</w>
ma ti
kemu rahan</w>
keke h</w>
kec ender
in stru
h hh</w>
ber negosiasi</w>
UNTU K</w>
So viet</w>
Pa car</w>
Nam e</w>
Harv ard</w>
Cas tle</w>
takh ta</w>
sti c</w>
spe k
pro du
nas kah</w>
meny apa</w>
menggan tinya</w>
mela ju</w>
m y
in ja</w>
de tak</w>
an tik</w>
Menying kirlah</w>
Mar cel</w>
uku r</w>
u pkan</w>
tidu rmu</w>
ter pengaruh</w>
se ll</w>
pen ca
n atal</w>
mener bangkan</w>
di um</w>
cer dik</w>
car ilah</w>
ber kulit</w>
aga in</w>
Indon esia</w>
D S</w>
Cha d</w>
valu asi</w>
u ra</w>
tah ta</w>
s dh</w>
meray u</w>
menika hinya</w>
lem parkan</w>
kepa l
kedu dukannya</w>
has rat</w>
er ror</w>
elu suri</w>
e da</w>
da damu</w>
T A</w>
Sw iss</w>
Por ter</w>
Pal mer</w>
P ay
He i
Har ta</w>
Gu e</w>
Don nie</w>
tan danya</w>
pa manku</w>
meng gig
erdeka an</w>
ba da
Tim e</w>
R ap
Cur tis</w>
ya mu</w>
ung gang</w>
memper lambat</w>
ker ana</w>
kar pet</w>
fak tanya</w>
cinta mu</w>
bi lah</w>
Tw itter</w>
Pel indung</w>
Mi ck</w>
Meny elama
Brook lyn</w>
stu di</w>
punya mu</w>
pem ba
li l</w>
ku ketahui</w>
dinasha bkan</w>
dika sikan</w>
bah lah</w>
T sam
Syu aib</w>
N ow</w>
Juli et</w>
A re
menya lahi</w>
mengi sap</w>
menga li
mela por
mela pangkan</w>
kesempur naan</w>
bru tal</w>
Yo hanes</w>
Mak anya</w>
Ke jar</w>
Ka tr
K E</w>
Gu y</w>
t -</w>
peng umuman</w>
memili hnya</w>
kha s</w>
keputu sanmu</w>
i ra</w>
e tmu</w>
berke dip</w>
ba sis</w>
Ra gn
Min uman</w>
Gra ham</w>
tenggor o
suar aku</w>
se lingkuh</w>
persembuny ian</w>
pen olakan</w>
pen car</w>
p tasi</w>
p it
mere pot
mengu langi</w>
mengajak nya</w>
har uskah</w>
di pukul</w>
ap kannya</w>
Ma in</w>
Kom un
s ni
re d</w>
men enggelamkan</w>
mele set</w>
ma han</w>
la ce</w>
ker ama
ke y
bere siko</w>
ampun ilah</w>
T ingga
Sa l</w>
SE MU
Kit âb</w>
Kece patan</w>
K ongres</w>
Bi ru</w>
Ar row</w>
A cara</w>
melele h</w>
lo w
ka tak</w>
imajin asi</w>
di salahkan</w>
di le
berpa linglah</w>
Wi layah</w>
Ve ga</w>
P inta
O .
Ci um</w>
Aya m</w>
u kur
te tang
se tinggi</w>
pada lah</w>
ong g
muk anya</w>
mer deka</w>
mengu asa
memuku li</w>
ber perilaku</w>
ber api</w>
ter ingat</w>
tela pak</w>
prak tis</w>
perjalan annya</w>
pe dangnya</w>
panta tnya</w>
lanju tan</w>
k lan</w>
in kannya</w>
hi pot
ha f</w>
en ix</w>
demok rasi</w>
ce han</w>
ca use</w>
bo man</w>
a mer
î s</w>
z el</w>
sam bungan</w>
mera hasiakan</w>
memer as</w>
la hku</w>
ar ing</w>
anda l
Mengagu mkan</w>
H ic
w ho</w>
tan duk</w>
so si
per timbangkan</w>
om bolan</w>
meren ungkan</w>
lom baan</w>
ja batan</w>
di ru
S mur
No ah</w>
M ik
La m</w>
An n</w>
A tur</w>
vi sual</w>
usi anya</w>
terpe sona</w>
sik lus</w>
ri knya</w>
penaw ar</w>
menem baki</w>
mem ung
lap top</w>
di hidupkan</w>
d h
bri dge</w>
bas ket</w>
Men en
Kompu ter</w>
D us
D F
- Kita</w>
za idah</w>
pinta s</w>
p tis</w>
mela caknya</w>
ki blat</w>
kar at</w>
di pastikan</w>
di dat</w>
Si si</w>
Pe gangan</w>
An gie</w>
A gustus</w>
. -</w>
- Bagaimana</w>
u una</w>
ter en
q a
perseli sihkan</w>
menu mpahkan</w>
kor upsi</w>
keru munan</w>
cu cunya</w>
ala sanmu</w>
Wal l</w>
Tidak .</w>
Han curkan</w>
Ham ba</w>
si us</w>
peng in
ne tt</w>
mengenal inya</w>
menge k
men tasi</w>
i ley</w>
hat tan</w>
ga gak</w>
dit angani</w>
di sebelah</w>
ber alasan</w>
b b</w>
S pa
ter dakwa</w>
kesuka anku</w>
dino saurus</w>
di sengaja</w>
cak e</w>
W is
Sma ll
Ragn ar</w>
Camer on</w>
Ca use</w>
mo dul</w>
meng ot
meng konfirmasi</w>
meme lihar
m ing
ku li
kem eja</w>
bu snya</w>
Tsam ûd</w>
Ram but</w>
B ak
vari abel</w>
t ry</w>
sen sor</w>
rahasi anya</w>
penge dar</w>
p ra</w>
om bak</w>
mus nahkan</w>
menghem at</w>
menem ani</w>
meliha t
kepal suan</w>
keber untung
ke sukse
irim kan</w>
ekst rim</w>
ca tur</w>
berge tar</w>
bagi annya</w>
Y ap</w>
Ber sa
Ben ny</w>
tongka tnya</w>
ter sayang</w>
ru tin</w>
pe di
musyri kin</w>
melumpu hkan</w>
k lu
je pit</w>
ber kah</w>
Nor a</w>
Jar ed</w>
s k
perki raan</w>
pen jar
on ica</w>
la rang</w>
ing kali</w>
g g</w>
di hasilkan</w>
allu q</w>
Se oul</w>
Per asaan</w>
Jer sey</w>
peri ode</w>
mencium ku</w>
memin dahkannya</w>
meme gangnya</w>
le bat</w>
ku ambilkan</w>
khu sy
Ra bu</w>
Kom isaris</w>
Ki d</w>
Dra gon</w>
Da hulu</w>
Bel la</w>
sar ana</w>
rap uh</w>
kesejah teraan</w>
k no
ger bangnya</w>
T itik</w>
Sh â
ter gelinci
mengh antam</w>
mendengar kanmu</w>
memin jamkan</w>
di catat</w>
dar nya</w>
bis bol</w>
ber damai</w>
T n
Per lihatkan</w>
F a</w>
9 5</w>
ya sa</w>
ter ungkap</w>
ter s
san tun</w>
rn al</w>
mer ek</w>
mendeka tkan</w>
memanc arkan</w>
b anya</w>
Ter lambat</w>
Sul tan</w>
Pen duduk</w>
Katr ina</w>
G lobal</w>
Chu n</w>
tu hnya</w>
sem ber</w>
se tara</w>
s s
pengen dali</w>
or n</w>
menjela jahi</w>
men inggikan</w>
la war</w>
kerja mu</w>
ker jaku</w>
eri maan</w>
deka ti</w>
buru klah</w>
Re ese</w>
Per hati
Mem berikan</w>
Fre ya</w>
Diter jemahkan</w>
Del ta</w>
Be tty</w>
ter pasang</w>
se t
pia tu</w>
pem en
meng obati</w>
lin t</w>
kon tribu
ka sino</w>
fak ir</w>
di pu
ci e</w>
ber kuda</w>
W a</w>
Tre vor</w>
P h
K no
G ot</w>
Fak tanya</w>
per ang
meny ira
mengingin kanmu</w>
membu juk</w>
da lian</w>
am bang</w>
Te kanan</w>
O c
C .</w>
vi de
ung anmu</w>
ren tan</w>
ra muan</w>
perde batan</w>
pemu la</w>
na men</w>
mereka --
mende teksi</w>
lu ar
kecender ungan</w>
ke cu
graf ik</w>
em bung</w>
ber ciuman</w>
Un h</w>
T ai</w>
Sc hu
Ma f</w>
K yung</w>
Har apan</w>
Fili stin</w>
D ay
5 .000</w>
ung anku</w>
ti ka
tem a</w>
psiki ater</w>
perintah nya</w>
mengha lalkan</w>
meng angkut</w>
menar ik
mem ar</w>
kom ando</w>
in tel</w>
caha yanya</w>
bi oskop</w>
Nov ember</w>
we b
ser tifikat</w>
mem bodo
li on</w>
komenda sikan</w>
gen ap</w>
er al</w>
ela yan</w>
St one</w>
P I</w>
Men ji
C BI</w>
ter or</w>
ru m
mengejar ku</w>
mengan uger
kebaik annya</w>
he batnya</w>
U capkan</w>
Ro ber
Ib nu</w>
Ber ada</w>
u ap</w>
menyem bu
meni puku</w>
bersa habat</w>
b la</w>
Te ss</w>
Stan ley</w>
Rak yat</w>
Phi lli
Mic key</w>
Keluar gaku</w>
Ini kah</w>
H ârûn</w>
Ber tahan</w>
y un
pistol mu</w>
pernika hanmu</w>
perkata anku</w>
pen cer
na a</w>
mu siknya</w>
mimpi mu</w>
memikir kanmu</w>
ma j
la ser</w>
kha bar</w>
ke pemilikan</w>
f al
diti up</w>
di ijinkan</w>
di alami</w>
Sa int</w>
Ju m
Hanni bal</w>
C ri
uru sannya</w>
ter gila</w>
tam pilkan</w>
persak sian</w>
pas okan</w>
mengalah kanmu</w>
membung kuk</w>
kem en
ik on</w>
i kah</w>
bersi aplah</w>
Than ks</w>
T unju
Me dia</w>
Da erah</w>
ta mat</w>
ta bi
r ombongan</w>
pasi en
mengirim kannya</w>
ma fia</w>
keju araan</w>
diag no
ber anggapan</w>
an tun</w>
Po p</w>
Lou ise</w>
I m</w>
Ho pe</w>
tau bat</w>
t land</w>
sam panye</w>
rin ci</w>
pi h
menjatu hkannya</w>
memu tu
jantung mu</w>
gun cang</w>
di fikasi</w>
Wor ld</w>
Se th</w>
Man hattan</w>
Hel ena</w>
An ton
- Saya</w>
tuli skan</w>
se botol</w>
per sekutukan</w>
pe e</w>
ot an</w>
menying kir</w>
menga turnya</w>
keu ta
janj iku</w>
as y
T P</w>
Mer unduk</w>
Ku lit</w>
Don na</w>
D itu
y ard</w>
pem beli</w>
kenya manan</w>
ke tujuh</w>
ing g
i rim</w>
do ck</w>
di ampuni</w>
adi li</w>
Willi ams</w>
Su dahkah</w>
S po
R at
Men unduk</w>
J U
Ber balik</w>
A du
ya tt</w>
ter wujud</w>
sejah tera</w>
pili hanmu</w>
persi mpangan</w>
penga jaran</w>
peng emudi</w>
menya pu</w>
men imp
ma tilah</w>
kec em
dira wat</w>
aksan akannya</w>
W inc
Me tro
ucap annya</w>
li fah</w>
diser et</w>
bu sur</w>
berli mpah</w>
atu ral</w>
Tom bol</w>
Mash dar</w>
rele van</w>
rela tif</w>
pem bi
menon tonnya</w>
di azab</w>
cu p</w>
bawa an</w>
Te s</w>
Mon ica</w>
Ja i</w>
y on</w>
tu pan</w>
tingga lnya</w>
ti kkan</w>
tergelinci r</w>
menga laminya</w>
mar k</w>
ku lit
khu su
ke tak
dip lo
ber lebih</w>
Pa car
Ma yat</w>
G et</w>
un inya</w>
rencan aku</w>
pe waris</w>
mem ani
kele lawar</w>
da ta
angku tan</w>
S H
Mu lailah</w>
G len
D ana
sembah yang</w>
pasu kannya</w>
pak anlah</w>
na pas
mas akan</w>
i tas</w>
dike jar</w>
d get</w>
W on
R an
Ist rimu</w>
sel f</w>
pendapa tan</w>
pemi lu</w>
pela ut</w>
on ly</w>
menyu sahkan</w>
li min</w>
ki kan</w>
kekasi hku</w>
dira mpok</w>
da ian</w>
da annya</w>
ca but</w>
as annya</w>
T an</w>
Sy dney</w>
Ke sepak
ter bentuk</w>
ta t</w>
syn c</w>
sepu puku</w>
promo sikan</w>
penamp ungan</w>
mer in
mengab di</w>
meng gi
menc akup</w>
melewa tkannya</w>
manfa atnya</w>
mag net</w>
ma tinya</w>
ma tai</w>
jak sa</w>
den yut</w>
Shâ lih</w>
Sc re
S aksi</w>
Ro bot</w>
R andy</w>
Per aturan</w>
P os
P antai</w>
Mere ka
Mar et</w>
I d</w>
H us
Gib bs</w>
Ai goo</w>
5 2</w>
terpen cil</w>
ta pi
pa meran</w>
meme gang
ku bicarakan</w>
i badat</w>
ga bungan</w>
ca bik</w>
bi arlah</w>
ber sen
T ang
S ada
R ip
Lo ck
Li u</w>
Les lie</w>
Har ga</w>
C indy</w>
te or
su p
menung gunya</w>
in lah</w>
disa yangkan</w>
bertawak al</w>
berju di</w>
Vin ce</w>
E nya
ter pikir</w>
s ka</w>
perbu dakan</w>
op s</w>
mera yakannya</w>
memba wakanmu</w>
eng eri
di beli</w>
an tha</w>
Small ville</w>
Se t</w>
G y
G ali
Deng arlah</w>
D ENG
Co dy</w>
3 ,
terhin dar</w>
sepa dan</w>
s pt</w>
mulu tku</w>
kejaha tannya</w>
ke jang</w>
iden tifikasi</w>
co kan</w>
bar angan</w>
Si d</w>
Ru angan</w>
Pis tol</w>
M ada
K ung</w>
Ha wa
De sember</w>
Bel ak
the m</w>
i la
ge s</w>
dima inkan</w>
ch ing</w>
c elaan</w>
an tu
Selesa ikan</w>
P oo
Jan u
H ada
sif ik</w>
sebelu mmu</w>
mengakhi rinya</w>
menembak kan</w>
men tega</w>
h pahaman</w>
ditu duh</w>
c ted</w>
benda har
ban tahan</w>
W olf</w>
T unggulah</w>
R .</w>
Ma a</w>
H alaman</w>
4 4</w>
sua p</w>
sebu tan</w>
ran cangan</w>
polit isi</w>
pen an
pem bagian</w>
e st
bi hlah</w>
Un ited</w>
St ri
om ong
menele ponnya</w>
la ci</w>
be a
atmos fer</w>
a salah</w>
TER TA
S he</w>
Pin tunya</w>
E f
pra l</w>
om pet</w>
ma gang</w>
langs ungan</w>
la tor</w>
bertas bihlah</w>
Sam antha</w>
Pener bangan</w>
O R</w>
For d</w>
B EN
7 2</w>
ra dar</w>
por tal</w>
penge tahu
meng gen
mener angi</w>
mema inkannya</w>
keja yaan</w>
hu man</w>
Ti kus</w>
Tekn ologi</w>
Sh ak
P it
L ompat</w>
H ob
G uru
Ber temu</w>
to lik</w>
ting ginya</w>
tak wa</w>
su pir</w>
si ze</w>
se gel</w>
ri ah</w>
mem bin
kom ik</w>
e yes</w>
Ter puji</w>
S ki
Rus sell</w>
O i</w>
Mem beri</w>
Ja lang</w>
ter sentuh</w>
pinggi ran</w>
mengece wakanmu</w>
lak sana</w>
ister inya</w>
fa tkan</w>
bu tir</w>
ber putus</w>
ama lnya</w>
Sk ye</w>
Pho enix</w>
Fly nn</w>
Abi ga
ting katan</w>
ter mu</w>
t rian</w>
pu ter
pen cari</w>
mele kat</w>
ini --</w>
ban ci</w>
Y up</w>
Tim es</w>
Li v</w>
Lel aki</w>
Ir on</w>
Dana u</w>
A th
v ampire</w>
to lak</w>
sem en</w>
s tar</w>
mengh akimi</w>
meng ungkap</w>
mem b
lak nat</w>
kem a</w>
k ra
gan tungan</w>
d ler</w>
ca bul</w>
H ow</w>
Che ster</w>
ke ha
di k
der han
dem u</w>
ber itanya</w>
bar angkali</w>
ang .</w>
Ver onica</w>
Te ks</w>
Pela yan</w>
Or le
Ber harap</w>
Ar ah</w>
permain annya</w>
peng ungsi</w>
nen ekku</w>
ne w</w>
menyeru pai</w>
menyak sikannya</w>
member itakan</w>
for m</w>
cin tanya</w>
as s</w>
a ba</w>
Kak iku</w>
Fre e
F ul
Che ers</w>
Ben jamin</w>
Ap akah
Ali cia</w>
ter kubur</w>
sun tikan</w>
menel ponmu</w>
mem banggakan</w>
meluka imu</w>
gemba la</w>
dihada pkan</w>
bah mu</w>
War ren</w>
SEMU A</w>
Isa bel
Goo d
F I
Be ba
z an</w>
trans misi</w>
ter baring</w>
suk kanlah</w>
pu cat</w>
menutu pinya</w>
melaw anmu</w>
lic in</w>
la ikan</w>
ka pak</w>
is t</w>
is h
ga t
bagu snya</w>
am ing</w>
Un dang</w>
Par tai</w>
P EN
Lay anan</w>
Ku berikan</w>
Isti rahat</w>
u b</w>
persi dangan</w>
p lan
menun duk</w>
meng intai</w>
mena war</w>
ku periksa</w>
di benarkan</w>
ci annya</w>
bon us</w>
a at</w>
W yatt</w>
TE R</w>
Ku e</w>
Abiga il</w>
per saudaraan</w>
os h</w>
menan ya
ke abadian</w>
ka us</w>
ima ge</w>
ga gah</w>
ceri tamu</w>
Ter sangka</w>
TERTA WA</w>
Meng erikan</w>
Fal ls</w>
Doku men</w>
- Oke</w>
pen in
mengan ali
le e
g ungan</w>
g anan</w>
en can
dan ce</w>
Ter esa</w>
Tak dir</w>
M ing</w>
I jinkan</w>
F on
2 50</w>
ye on</w>
sis ten
pam anmu</w>
mengen c
j imu</w>
es h</w>
Sen yum</w>
Orle ans</w>
Ba ek</w>
y ong</w>
ter ku</w>
tem ba
semes ter</w>
par tisi</w>
p ita</w>
meme cat</w>
marta bat</w>
h --</w>
fil mnya</w>
di ceritakan</w>
bunu hnya</w>
ber suara</w>
ba dal</w>
Ras akanlah</w>
R I</w>
Mak na</w>
Ma syarakat</w>
Ja tuh</w>
Da w
za a</w>
wak annya</w>
t ell</w>
s ome</w>
ot oritas</w>
menaku tiku</w>
m anmu</w>
li s
ke bocoran</w>
el derman</w>
bangun lah</w>
an tina</w>
Swe dia</w>
Sco field</w>
Mela wan</w>
Ke en</w>
Is land</w>
A C</w>
we wenang</w>
thro ugh</w>
teng gelamkan</w>
peri hal</w>
peme lihar
menyalah kanmu</w>
meng gem
leng annya</w>
l aki
keker ingan</w>
ge tkan</w>
di id
di ce
d hi
ber lepas</w>
Yak ni</w>
Sun ny</w>
Pu tr
Per awat</w>
Pelu ru</w>
Mir anda</w>
L U
Car men</w>
19 6
peme gang</w>
mem produksi</w>
ma hluk</w>
kon disinya</w>
ken dalikan</w>
kemu daratan</w>
kemba linya</w>
jer uk</w>
di letakkan</w>
ci pi</w>
be kal</w>
as lah</w>
ar mu</w>
J an</w>
Hi gh</w>
Dis ka</w>
Dimu lai</w>
Bran don</w>
Bi ro</w>
ves ter</w>
v ich</w>
ter hitung</w>
t lemen</w>
so lu
seper empat</w>
se sekali</w>
s ms</w>
pan c
mu lailah</w>
menyusu p</w>
meme cah</w>
mem eng
i ah</w>
hu mor</w>
da d</w>
cor kan</w>
b inya</w>
ad o</w>
a lang</w>
Ni ght</w>
Gir l</w>
C K</w>
tel ponnya</w>
s ong</w>
re ferensi</w>
ra sakanlah</w>
ra lah</w>
pi sang</w>
memot ongnya</w>
mema tikannya</w>
dahu luan</w>
berken an</w>
akan kah</w>
Mil iter</w>
Cinc in</w>
tahun mu</w>
penu runan</w>
par tisipasi</w>
obro lan</w>
mpa lan</w>
ma l
ke syi
b ster</w>
an ya
an y</w>
ak un
v ensi</w>
sion er</w>
m ang
lu ck</w>
lon ceng</w>
kesyi rikan</w>
ka yak</w>
en sinya</w>
Pe ti</w>
M ilik</w>
I k</w>
Di ana</w>
Cla u
ti dur
ter jadilah</w>
ta skan</w>
ser o</w>
pos ting</w>
per lombaan</w>
pa san</w>
ong kr
om an</w>
nu rani</w>
meme tik</w>
lim bah</w>
lan dasan</w>
diper intah</w>
co de</w>
besar mu</w>
bela ti</w>
aya i</w>
au la</w>
Wal lace</w>
Turun lah</w>
Se at
Ple ase</w>
N is
Le a
Ken yataannya</w>
Jawa bannya</w>
w ara</w>
sika pmu</w>
pem bakaran</w>
p angkat</w>
meng gel
kun ci
kesala hpahaman</w>
k engeri
g y</w>
con dong</w>
ca ll</w>
ay e</w>
V irus</w>
Pro fessor</w>
L eng
In du
E ag
yak anlah</w>
tru m</w>
singga sana</w>
sekong kol</w>
rahasi amu</w>
perka taannya</w>
kon dom</w>
keber hasilan</w>
ff y</w>
as on</w>
UR L</w>
Pi per</w>
Ku yakin</w>
Harri son</w>
H P</w>
G on
ul t</w>
t hor
ra guan</w>
os o
oper a
memba yang
k top</w>
gi ving</w>
ge o
e tku</w>
anc ing</w>
Wa de</w>
Teri malah</w>
Sampa h</w>
H ood</w>
Geor gia</w>
se lo
sala d</w>
pr em
menyer angku</w>
menduk ungmu</w>
li d</w>
ke ham
ka os</w>
en der</w>
el y</w>
da taran</w>
ben ua</w>
ba tuk</w>
ba sa</w>
ah kanlah</w>
ag o</w>
Sen i
Memu lai</w>
Ku beri</w>
Ist rinya</w>
I K</w>
E z
C ut</w>
x ie</w>
temba ga</w>
sau dariku</w>
na sehat</w>
menyer ta
menutu pnya</w>
menghajar mu</w>
memper main
le en</w>
kom ponen</w>
keda laman</w>
di m
bendahar aan</w>
ben der
Za ch</w>
Mendeng us</w>
Fil e</w>
sis tem
seni lai</w>
pro gra
per tunju
pem baca</w>
pe da</w>
orang tuaku</w>
merek rut</w>
menyer bu</w>
mencu ku
men engah</w>
ma ha</w>
kutu b</w>
keing karan</w>
h n</w>
gra fer</w>
ar anmu</w>
S O
R anda
Pe kerja
O ff
Mom my</w>
M ER
I diot</w>
ter n</w>
tan an</w>
sen ator</w>
sekitar mu</w>
pu tera</w>
pi on</w>
perhati annya</w>
penda mping</w>
l ose</w>
ke jujuran</w>
ja ti</w>
in ku</w>
di coba</w>
de d</w>
bertawak kal</w>
ber peran</w>
PB B</w>
P U
O to
Ju les</w>
I lmu</w>
Cra ig</w>
w ski</w>
u sus</w>
tu b</w>
meny un
ko denya</w>
keh orma
kan didat</w>
d ku</w>
c ik</w>
al mu</w>
Tingga llah</w>
Sal ju</w>
Pen curi</w>
L u</w>
Gen e
Fre ddy</w>
s kenario</w>
olom bia</w>
menel iti</w>
mela ti
inta lah</w>
hin aan</w>
ger ombolan</w>
dima afkan</w>
di siapkan</w>
ber korban</w>
ber belanja</w>
U saha</w>
T ruk</w>
Le pas</w>
Kon disi</w>
Kak akmu</w>
Ja lur</w>
H ûd</w>
H yung</w>
G A
Enya hlah</w>
Da v
Ba ju</w>
7 00</w>
sit e</w>
sepa tumu</w>
sekeliling nya</w>
samp ingnya</w>
pem balap</w>
nya --</w>
musu hku</w>
mer pati</w>
menan yakannya</w>
kor bankan</w>
je jaknya</w>
g ok</w>
dica but</w>
che s</w>
bo om</w>
ber musuhan</w>
B .</w>
x us</w>
teri malah</w>
tahu .</w>
sem barangan</w>
perintah mu</w>
men tah</w>
memerlu kannya</w>
mem antau</w>
malam nya</w>
ko k
kehidup annya</w>
feno mena</w>
dica pai</w>
di sin
da yakan</w>
da te</w>
bang annya</w>
ba seball</w>
Re ally</w>
O ld</w>
I s</w>
For t</w>
C all</w>
wer ew
wa ll</w>
sekre taris</w>
oth ing</w>
menye gerakan</w>
mendapa tkanmu</w>
kera gu</w>
keingin annya</w>
kand ungnya</w>
infor man</w>
he ad
del anya</w>
dak wah</w>
bangun kan</w>
anali sis</w>
Z ha
M s.</w>
Cha p
B ong</w>
wor k</w>
s ya</w>
per bendaharaan</w>
ot e
ongkr ong</w>
mera cuni</w>
mengha bis
menge j
mencium mu</w>
melaku kan
ha d
di dunia</w>
di andalkan</w>
di adili</w>
conto hnya</w>
bo tak</w>
Yo sua</w>
Sim mons</w>
S lo
Pot ter</w>
Le ster</w>
L ind
L and
Kit ty</w>
Ki ta
Kem ampu
wan na</w>
ter buang</w>
stra k</w>
r .
perjalan anmu</w>
pen erima</w>
n elayan</w>
mo tivasi</w>
menghi lang
kema luan</w>
hidro gen</w>
e san</w>
dit akuti</w>
dak wa
Th omp
Rebe kah</w>
Perhati kanlah</w>
Pen yakit</w>
Neg ro</w>
Mar ilah</w>
Ku dus</w>
Jar ak</w>
Ab bas</w>
uru skan</w>
terhada pku</w>
r kanku</w>
pesawa tnya</w>
per kumpulan</w>
menerta wakan</w>
mendu duki</w>
memak sakan</w>
lebi hkan</w>
d rum</w>
ara hmu</w>
Van essa</w>
P lugin</w>
Bu ruk</w>
Bu ah</w>
Ber kat</w>
un der</w>
ti ke
ter pecah</w>
sepa tah</w>
n g</w>
men oleh</w>
kemati anmu</w>
ber bulu</w>
at on</w>
Yo ur</w>
S tr
Penge tahuan</w>
M s</w>
H E
G ru
Ar jun</w>
- Hei</w>
w l</w>
ta rikan</w>
ping gang</w>
pen af
la gunya</w>
kr it
ister imu</w>
har fi
ber ko
Winc hester</w>
Ta i
Randa ll</w>
Mar ley</w>
L im
Kem enangan</w>
Kar en
z o
tur basi</w>
se berat</w>
pen erimaan</w>
menye sal
menga wini</w>
mem buntu
maksi mal</w>
kesepak atannya</w>
ingka tnya</w>
gor it
f lo
en ti
dara mu</w>
ber tepuk</w>
Seat tle</w>
Re ka
Ra ma</w>
Ra hul</w>
Pen jahat</w>
Le dakan</w>
Ki amat</w>
Hi gh
Gili ranmu</w>
4 6</w>
yu k</w>
tela dan</w>
se dia</w>
sa pu</w>
sa mana</w>
pi ku</w>
n ak
mu darat</w>
mengu sa
mem angnya</w>
lengka pi</w>
kan tung</w>
es ter</w>
c le</w>
ba tin</w>
ara hku</w>
ap annya</w>
an ia</w>
ada t</w>
W ong</w>
Ter asa</w>
Scot ty</w>
Sa lin</w>
Pen carian</w>
Pa si
L ing</w>
Iku tilah</w>
Ha jar</w>
Ba wah</w>
ANG AN</w>
ser vasi</w>
menginga tkanmu</w>
k h</w>
ji mat</w>
diri kanlah</w>
di gantung</w>
ban yak
anta h</w>
Sa ja</w>
Pi sau</w>
Na tional</w>
Mem inta</w>
Co lin</w>
pr eman</w>
pla y
pa tri
lo g
ke lo
ke langsungan</w>
karuni akan</w>
fes tival</w>
ber minggu</w>
ber as</w>
ad u</w>
Per tarungan</w>
Mobi lnya</w>
Ma j
Lo gan</w>
Jo y</w>
G old</w>
G H
Bu ddy</w>
Bar is</w>
sar jana</w>
s osok</w>
rer untuhan</w>
ot s</w>
on aktifkan</w>
menji jikan</w>
mempe sona</w>
jud lah</w>
ja mnya</w>
im ut</w>
beng kak</w>
Reg gie</w>
N A
Lem bah</w>
Bu kalah</w>
A wal</w>
- Dan</w>
wa ter</w>
meng hidup
me lia</w>
leng anmu</w>
ki lah</w>
i ler</w>
en sial</w>
ela wan</w>
ber cahaya</w>
ber atnya</w>
Ti ger</w>
Sen dirian</w>
O ke
M AN
K olombia</w>
G us
Ez ra</w>
C an</w>
B y
t her
sta tistik</w>
pernika hanku</w>
on e
neg eri
mp akan</w>
mengemu kakan</w>
dro p</w>
diper ca
di ganggu</w>
api dana</w>
Sh erif</w>
Puku lan</w>
D J</w>
Ba las</w>
tun an</w>
tang kan</w>
t ru</w>
ren e</w>
po sisinya</w>
mo dal</w>
menjerumu skan</w>
menjempu tnya</w>
keter li
el nya</w>
dit anggu
diali ri</w>
ber hari</w>
We i</w>
Shel don</w>
Pak et</w>
Menyelama tkan</w>
Ma ck</w>
Li am</w>
waki lan</w>
tang i</w>
sura tnya</w>
s n
ren t</w>
pen daratan</w>
menyusu ri</w>
ku c
kan anmu</w>
ho u</w>
di hkan</w>
di an
bi ara</w>
Tu be</w>
T hey</w>
Se ol</w>
Pertan dingan</w>
Me di
tan dus</w>
sim panan</w>
ser san</w>
s hal</w>
re li
penya maran</w>
pena si
memu lihkan</w>
ke dai</w>
janj imu</w>
itu kah</w>
is ma</w>
h akannya</w>
f um</w>
diper lihatkan</w>
ce des</w>
Se per
Sco o
R oti</w>
E i
D hamir</w>
Co unty</w>
Cer itanya</w>
Ber n
vin si</w>
ven ue</w>
ti us</w>
tanggung jawab</w>
si c</w>
pasi tas</w>
parano id</w>
ni f
men o
kar nya</w>
ka stil</w>
is aran</w>
di gigit</w>
Wo ong</w>
Sem alam</w>
Eu gen
ti mpakan</w>
sper ma</w>
sif atnya</w>
menyu m
ki rinya</w>
ken alan</w>
itu --</w>
gi ve</w>
apartemen nya</w>
ani ayaan</w>
a y</w>
Ta ta</w>
T aku
T U</w>
N ASA</w>
Mem buka</w>
De kat</w>
Da h
Ca o</w>
Be i
wis ki</w>
un der
po jok</w>
pan y</w>
on tak</w>
memba tasi</w>
har mon
gon cang</w>
efisi en</w>
a zah</w>
a anku</w>
Tra cy</w>
Star ling</w>
Pro perti</w>
G ala
Ba u
tersan dung</w>
su dah
si um</w>
perto batan</w>
penyem bah</w>
menganta rnya</w>
ko v</w>
ka set</w>
ima l</w>
di war
ba junya</w>
ag er</w>
S wa
Ol lie</w>
Metro polis</w>
Le c
Jar ingan</w>
Hi jau</w>
E as
wawancar ai</w>
ter amat</w>
s ka
pr os
pno tis</w>
pence gahan</w>
memak sanya</w>
mel aksanakannya</w>
kak ekmu</w>
k hot
f atal</w>
diper ingatkan</w>
dikur ung</w>
d ungan</w>
baga imanakah</w>
b le
Valen tine</w>
Sa sha</w>
Mema lukan</w>
I van</w>
E ve</w>
A ksi</w>
- Ayo</w>
î n</w>
ter baikmu</w>
te gu
punggung ku</w>
n nya</w>
mengham pi
ma teri
le a
lay mân</w>
lang inya</w>
ka annya</w>
it em</w>
in mu</w>
ga tal</w>
formu lir</w>
dili puti</w>
bu ddy</w>
ber sekongkol</w>
Su laymân</w>
Ren can
Mat ty</w>
G u</w>
Bar nes</w>
n ongkrong</w>
mon itor</w>
menghin darkan</w>
lebi h
kesukse san</w>
her ankan</w>
di rasakan</w>
Na omi</w>
H iro</w>
E st
Bela jar</w>
Are a</w>
volu me</w>
r angkaian</w>
na if</w>
mpa u</w>
mpa s</w>
mer el
menj elang</w>
membeba skannya</w>
kamu lah</w>
k g</w>
di hargai</w>
ber tu
Ye ah.</w>
W ho
Te h</w>
Syl vester</w>
K satria</w>
G I</w>
yo ur
ter kemu
re fle
pu teri</w>
oper ator</w>
menganuger ahkan</w>
gu mpalan</w>
er nya</w>
diker jakannya</w>
bi ayanya</w>
ad minist
W u
U rusan</w>
Tur ner</w>
M ika
Hawa ii</w>
H AN
Br on
AL L</w>
wa fat</w>
tan ahnya</w>
sum ber
se banding</w>
sa bun</w>
rem ote</w>
pr o</w>
pos ter</w>
pengem bangan</w>
pem buka</w>
o la</w>
ne d</w>
mena br
ma ta
kesu cian</w>
k .</w>
he h</w>
di cam
at h
an na
U si
Sh ang
S a</w>
Peme lihara</w>
E ast</w>
tek nisi</w>
se suka</w>
panj angnya</w>
menel ponku</w>
mas h
lang gar</w>
iku m</w>
hubung anmu</w>
ham batan</w>
ber du
and akan</w>
a tilah</w>
a baikan</w>
U lar</w>
Se l</w>
Sampa ikan</w>
An dari</w>
Adu hai</w>
ter percaya</w>
sa ma
mela ta</w>
li ve</w>
ker asnya</w>
jem ahan</w>
ja hi
inf ra
diba wanya</w>
bo mnya</w>
an dia</w>
T u</w>
T indakan</w>
Pinta r</w>
P anta
Mon yet</w>
Gri ffin</w>
ung lah</w>
seri kat</w>
semu a
qi q</w>
par it</w>
ne ur
meng ak
kee p</w>
elo kasi</w>
cap ek</w>
Yor dan</w>
T elu
S W
S C
N ikma
Lu bang</w>
K ru
Ba haya</w>
An d
v ol
swor d</w>
peru mahan</w>
ole hku</w>
menan yai</w>
li ck</w>
han dal</w>
gili ranku</w>
c lo
ak alnya</w>
P ikir</w>
P ic
Or gan
Mem ak
Lu cky</w>
Kir k</w>
yo u
terkemu ka</w>
ta lak</w>
ta anmu</w>
se li
penga mbilan</w>
peng hubung</w>
pen un
pem impinan</w>
op le</w>
mo od</w>
mengga galkan</w>
memen jar
melepas kanmu</w>
long gar</w>
ko saan</w>
di h
bay iku</w>
ban dingan</w>
a lun</w>
Sen i</w>
P A
L ong
Ger akan</w>
to mat</w>
teri si</w>
sa haya</w>
os ongkan</w>
o ff
melaw anku</w>
li tasi</w>
kebaik anmu</w>
k ang
gan as</w>
di samping</w>
ar do</w>
Sta tus</w>
Ko pral</w>
Hor mat</w>
Ba talkan</w>
4 1</w>
0 2</w>
ti mi
re alitas</w>
ingka i</w>
fik si</w>
di lihatnya</w>
ba tmu</w>
aro und</w>
Tu cker</w>
G ong</w>
Bal q
.. ....</w>
- Jangan</w>
su dahlah</w>
stan d</w>
pen ak
mu sisi</w>
mu lasi</w>
menem pati</w>
mencu kur</w>
memba likkan</w>
im por</w>
hel p</w>
h omo
dit engah</w>
data base</w>
ban ku</w>
Wak tumu</w>
Ri g
Re ed</w>
M intalah</w>
F anta
Bon d</w>
5 7</w>
tu annya</w>
ter si
ter engah</w>
pe s</w>
ob yek</w>
memperinga tkanmu</w>
manaj emen</w>
kemu di</w>
ke aman
i sim</w>
harfi ah</w>
gel embung</w>
di awasi</w>
cel aka
W it
T I</w>
Pa c
Janu ari</w>
Her cu
v ir
tit le</w>
ti rai</w>
ta war
ta ble</w>
se sak</w>
pa inya</w>
oper an</w>
ke semuanya</w>
ka i
jem aat</w>
h â
di sun
da tor</w>
bu aya</w>
Ro hit</w>
R he
Bi asa</w>
te st</w>
su sun</w>
memanfaat kannya</w>
lo ok</w>
ku atnya</w>
i z</w>
di puji</w>
ber konsentrasi</w>
aga an</w>
Z T</w>
C .
Ba han</w>
3 9</w>
ti kanmu</w>
peng intai</w>
memper luas</w>
membayar ku</w>
khiana ti</w>
f ul</w>
br on
bergu rau</w>
ba y</w>
Mer cedes</w>
Men yak
La tihan</w>
Ka bir</w>
F or</w>
u ku</w>
ta sy
se lir</w>
psik ologi</w>
mung kar</w>
mu kamu</w>
konsul tasi</w>
ker ing
jo b</w>
jantung ku</w>
gran at</w>
elek tro
bali kkan</w>
bad anmu</w>
V inci</w>
Seni or</w>
O mar</w>
O key</w>
La b</w>
K lik</w>
K aran</w>
K O
De ath</w>
Ber uang</w>
wer e</w>
ukur annya</w>
sya fa</w>
r akan</w>
pin dahan</w>
peng inta
ic h
ger akkan</w>
di et</w>
der as</w>
an ting</w>
V ampir</w>
Per sis</w>
Pa sifik</w>
Ma lah</w>
Ka sihan</w>
In j
Be ginilah</w>
- Siapa</w>
ten der</w>
ta linya</w>
su tra</w>
su ar</w>
per gantian</w>
pem ot
p pet</w>
ja lanmu</w>
f ar</w>
di minum</w>
berga irah</w>
Peng en
N en
N SA</w>
Men jaga</w>
Mar co</w>
Ka tolik</w>
H AR
Go d
Dun can</w>
Bo hong</w>
ter sendiri</w>
perasa annya</w>
penyer ang</w>
peny el
mengutu smu</w>
menge pung</w>
mener apkan</w>
memper kosa</w>
membohon gi</w>
le tt</w>
ku tangani</w>
kontribu si</w>
ingg ris</w>
You Tube</w>
Nor th</w>
Jo ker</w>
Gi gi</w>
D ro
B aker</w>
B .
A baikan</w>
z ikir</w>
tinggal kanlah</w>
r ell</w>
pre stasi</w>
pembela an</w>
pe cahkan</w>
mu lus</w>
men eng
mas sal</w>
kul kas</w>
ku dapat</w>
ku bayangkan</w>
han d</w>
diper hitungkan</w>
an dai</w>
ambi si</w>
ak sen</w>
M .
Kesepak atan</w>
Dal las</w>
C amp
0 3</w>
wan i
v ed</w>
t inta</w>
ser ahlah</w>
penyer u</w>
p akah</w>
oksi da</w>
menga g
ma f</w>
bu buk</w>
Lem par</w>
Lak samana</w>
L o</w>
G I
D ash</w>
Ber teriak</w>
v at
ti kal</w>
ter bawa</w>
se izin</w>
peng emba
menyesal inya</w>
meni duri</w>
mengancam ku</w>
melepas nya</w>
melem p
lam annya</w>
kul itnya</w>
kam annya</w>
ka pi</w>
jurna lis</w>
g aran</w>
ditun da</w>
ang 2</w>
a tion</w>
U m
Sem angat</w>
S ing</w>
Rang er</w>
Nic ole</w>
Be at
B om
Ali h</w>
um us</w>
s st</w>
per ginya</w>
nalu ri</w>
len ya
l ya</w>
kengeri an</w>
ju di</w>
ji ku</w>
hi o</w>
gu l</w>
ga bung</w>
e ve</w>
diper taruhkan</w>
diken akan</w>
X i
Ma dison</w>
K irimkan</w>
F older</w>
Cas ti
Ar ia</w>
umu mkan</w>
u ser</w>
ter lupakan</w>
ta bah</w>
si kkan</w>
member ontak</w>
kor i
j is</w>
i gh</w>
do u
di dustakan</w>
ce takan</w>
ak tris</w>
T ate</w>
S ang
Pon sel</w>
Nasi b</w>
Ma inkan</w>
Gener al</w>
A venue</w>
1 00.000</w>
sihi rnya</w>
penga matan</w>
pen enang</w>
menjempu tku</w>
ku cintai</w>
ks giving</w>
ki an</w>
keba lan</w>
jar iku</w>
bo hkan</w>
bis ingan</w>
bantu annya</w>
ap ian</w>
Y O
T her
S.H.I.E.L. D.</w>
Ro bbie</w>
Ric hie</w>
Pem ain</w>
Alex and
wisa ta</w>
t hing
ser angkaian</w>
se bela
s ki
pia de</w>
mus lihat</w>
li man</w>
ker en
iden ya</w>
ger o
er ja</w>
e pi
di dapatkan</w>
bertan ding</w>
Rig sby</w>
Peny antun</w>
Pas angan</w>
Mil ls</w>
Eugen e</w>
y en</w>
shi t</w>
seba giannya</w>
pe sona</w>
mengha puskan</w>
men diskusikan</w>
membu al</w>
memal sukan</w>
lida hmu</w>
ko per
kemu dhar
aku tkan</w>
Ru th</w>
Pem buru</w>
La a</w>
Kan sas</w>
Ak ses</w>
wo o</w>
tur n</w>
qu e
pengin apan</w>
pen dingin</w>
pem icu</w>
minta lah</w>
h na</w>
asa t</w>
Tu lang</w>
Si sa</w>
Ra h
Her o
werew olf</w>
sesu kamu</w>
pen si
membel anjakan</w>
kekasi hmu</w>
diru gikan</w>
celak alah</w>
Za idah</w>
T eluk</w>
Ro sa
N ak
Kun cinya</w>
Kar l</w>
F ro
D as
Bur t</w>
Bro ad
satu 2nya</w>
ru una</w>
pengar u
ni lainya</w>
maksi mum</w>
ka snya</w>
ja muan</w>
it lin</w>
er son</w>
bu skan</w>
beng kok</w>
bel nya</w>
Vi olet</w>
V E</w>
TER I
T ran
S p
Mar kas</w>
Lu ki
I kat</w>
He ather</w>
El sa</w>
Bla ine</w>
Bel i</w>
B C</w>
A melia</w>
v ice</w>
tidur ku</w>
terjer umus</w>
pengen dalian</w>
ot akku</w>
orang tuanya</w>
menguru si</w>
magne tik</w>
kete gangan</w>
kepon akan</w>
f ung
e tika</w>
at inya</w>
am p</w>
ali n</w>
Pro ses</w>
Li ber
Ku lakukan</w>
H em
Ang gur</w>
An a</w>
ser ingkali</w>
re gu</w>
re ali
per siapkan</w>
pak at</w>
menu lar</w>
menger ahkan</w>
ho bi</w>
f ana
cor re
T anganku</w>
Re kan</w>
Pas kah</w>
New ton</w>
J in
C al</w>
tun dukkan</w>
tumpu k</w>
ter sambung</w>
su rel</w>
so o</w>
mengar ang</w>
mendeka tinya</w>
memelihar anya</w>
itu --
ga lat</w>
berim anlah</w>
ba tal</w>
Tw o</w>
T ong
R y
usi aku</w>
ter puji</w>
suka cita</w>
str ong</w>
sesuatu pun</w>
seko p</w>
k le</w>
iti ga</w>
di bantu</w>
bea siswa</w>
T .</w>
Men angis</w>
Li ght</w>
C ek</w>
Ai den</w>
z ia</w>
tak anmu</w>
se lnya</w>
mengu sulkan</w>
meng gor
membu ju
la te</w>
kak ekku</w>
han d
gu mpal</w>
go ing</w>
for e
d zi
ber terimakasih</w>
a sumsi</w>
Y ong</w>
Y as
Su lli
O x
G ha
Amer ica</w>
wa han</w>
tru e</w>
sen dirilah</w>
sempurn akan</w>
se wenang</w>
pe tunju
meni upkan</w>
mengur ung</w>
mengg osok</w>
men ahanmu</w>
ku mis</w>
jen azah</w>
in e
g hu
dinya lakan</w>
ci al</w>
al e</w>
W ho</w>
Se butkan</w>
Per tempuran</w>
Len ny</w>
Gu l
Fi ona</w>
su tera</w>
singga h</w>
se demikian</w>
pen yak
n ut
mu sa
menimp anya</w>
meng huku
linta san</w>
ku danya</w>
kori dor</w>
kate gori</w>
kar go</w>
gu lat</w>
gi ginya</w>
ga anku</w>
el u</w>
diber itakan</w>
ber dasar</w>
be debah</w>
ba c
aki dah</w>
Win ston</w>
Pen el
P iz
Har per</w>
5 1</w>
ter bangan</w>
si rkan</w>
rhak aan</w>
resi konya</w>
per sen
per sembahkan</w>
per lakukan</w>
penyem buhan</w>
penel iti</w>
mengi dap</w>
m ini</w>
lot eng</w>
limu ti</w>
kedu rhakaan</w>
ke curi
jer itan</w>
gam kan</w>
ft ware</w>
di hubungi</w>
di dirikan</w>
at ing</w>
an --</w>
Pre s
Nikma tilah</w>
Men yu
M AR
8 5</w>
v as</w>
tung ku</w>
ting nya</w>
ter per
sepa tunya</w>
reka m</w>
jen deral</w>
in es</w>
h aknya</w>
gul ungan</w>
f oo
ca ir</w>
ar at</w>
ada pun</w>
V la
Ber tahun</w>
B ingo</w>
Ali f</w>
tern al</w>
ter or
pengan ut</w>
na tu
memo hon
kla rasi</w>
kedu taan</w>
ke iman
gadis ku</w>
f orma
dahu lunya</w>
bo ot</w>
ber ta</w>
ber komitmen</w>
ber engsek</w>
ar mada</w>
W es</w>
Penga wal</w>
L ake</w>
K AM
Conto hnya</w>
. 00</w>
ve ge
saya pnya</w>
pun ah</w>
perminta anmu</w>
perim eter</w>
pen cip
pelu runya</w>
meny in
menghancu rkanmu</w>
mas turbasi</w>
la annya</w>
l s
ku akui</w>
ken aikan</w>
kak as</w>
isyar atkan</w>
ho ff</w>
gang ster</w>
g angkan</w>
fi tas</w>
di konfirmasi</w>
di ancamkan</w>
Z ero</w>
Ter kekeh</w>
T ake</w>
S ap
Hercu les</w>
Do g</w>
Ben tuk</w>
A sisten</w>
8 0
1 00
- Ada</w>
sebu tlah</w>
saja .</w>
sa id</w>
re k</w>
rak asa</w>
per tunangan</w>
li sme</w>
kr itik</w>
di saksikan</w>
ala sanku</w>
Prin ce
Mem in
Dire ktori</w>
Aus tin</w>
Apa an</w>
z ie</w>
tumbu hkan</w>
ste ak</w>
sak a</w>
kor ek</w>
ke pastian</w>
im e</w>
im annya</w>
ibu kota</w>
f ly</w>
ba cakan</w>
Thomp son</w>
Sulli van</w>
Sin yal</w>
S t</w>
P am</w>
E lia</w>
5 8</w>
ucap anku</w>
ten ter
teling aku</w>
ta d</w>
perbu ruan</w>
pera iran</w>
pengu siran</w>
pa yung</w>
ot ing</w>
mengag ungkan</w>
kon sisten</w>
gen tar</w>
ga u
ba walah</w>
Ju ara</w>
Hu m
Dom ini
tuju anku</w>
tu du
si o</w>
ra sional</w>
qu b</w>
pen akut</w>
pel kan</w>
ot ball</w>
mereng gut</w>
meny ita</w>
lom patan</w>
iku s</w>
ik r
fin d</w>
ek tor</w>
de saan</w>
bi ologis</w>
ber lomba</w>
Y un</w>
Sim bol</w>
N ZT</w>
Man u
G lor
Ber dirilah</w>
ta tapan</w>
su ram</w>
sti wa</w>
pe cinta</w>
lem on</w>
ge t
el ing</w>
benar -</w>
bar ui</w>
Un tung</w>
Sw t</w>
Sam bil</w>
Pem ili
L elu
K emu
Ber jalanlah</w>
Ba s
su ru
re lawan</w>
ra hi
q q
pin k</w>
pem bersih</w>
para sit</w>
mem un
ke pemimpinan</w>
karen akan</w>
i tasi</w>
gi t</w>
as pek</w>
angka lnya</w>
Ter baik</w>
Shang hai</w>
S ung</w>
Mi d
Meng ubah</w>
Fir man</w>
terde teksi</w>
ten dang</w>
na jis</w>
n ic
mena si
li sh</w>
ko s</w>
ju rnal</w>
ho ol</w>
gemu ruh</w>
en kripsi</w>
T aksi</w>
Spi der</w>
S S
Pri ya</w>
Po pe</w>
N ap
Mah kota</w>
K AR
Ada lind</w>
zz ie</w>
tam in</w>
sin di
si lah</w>
s ku
nen ekmu</w>
nar apidana</w>
mp ingan</w>
membe sar
ke he
h old</w>
gang lah</w>
fit rah</w>
ditanggu hkan</w>
ama tir</w>
ali as</w>
Ori ginal</w>
Ja hat</w>
Huku man</w>
An juta</w>
ya lnya</w>
tun tunan</w>
seku si</w>
peru tku</w>
or kan</w>
menganta rku</w>
mencuri gai</w>
mel o
man tap</w>
kolon i</w>
ko mer
g ma</w>
e ur</w>
diter angkan</w>
S tu</w>
Kos ong</w>
Fe bru
D inding</w>
Che on</w>
An y
usa hanya</w>
teling anya</w>
sa lkan</w>
radi us</w>
pustak a</w>
m ik</w>
li sensi</w>
ko w</w>
kelom po
kar antina</w>
jeng got</w>
jar aknya</w>
inga mu</w>
diken ali</w>
ber partisipasi</w>
ay unan</w>
V el
Than ksgiving</w>
Ka lo</w>
E vel
za q
z u</w>
ter goda</w>
ta brakan</w>
su s
sif ikasikan</w>
si h
pi pis</w>
menjebak ku</w>
memban tai</w>
mela laikan</w>
malam mu</w>
lo bi</w>
f el
cucu ku</w>
ba yang
ba tku</w>
S imp
Mar vin</w>
C ARA</w>
sukar elawan</w>
star t</w>
sa in</w>
s ket
pengh uninya</w>
mu al</w>
menyem beli
man ik</w>
lu ru
la yang</w>
la tih</w>
fo ku
dit enggelamkan</w>
be ber
aya p</w>
Ti adalah</w>
Per tunjukan</w>
Gu a</w>
Co ur
va tif</w>
sete tes</w>
ri c</w>
re kanmu</w>
per temu
pemi sah</w>
n or
menye lidi
menc o
melempar kannya</w>
li sasi</w>
leng anku</w>
la bu</w>
ker id
gy m</w>
gin jal</w>
berba sis</w>
a ver</w>
a I
Sem bunyikan</w>
S ol
Mada me</w>
L e</w>
Ke temu</w>
Gam e</w>
Dou g
Beba skan</w>
A mat</w>
ti pan</w>
ti arap</w>
skan dal</w>
si luman</w>
se hubungan</w>
per antara</w>
pa per</w>
menyer ukan</w>
menga muk</w>
kon teks</w>
keputu sanku</w>
in tele
ge taran</w>
da le</w>
ber pencar</w>
apartemen ku</w>
aga mamu</w>
TE D</w>
Ri ver</w>
Pro jek</w>
Ju dy</w>
I l</w>
For ce</w>
Cal vin</w>
A ang</w>
3 .000</w>
saha batnya</w>
s angga
rin tangan</w>
ongg ong</w>
nya takan</w>
menyentu hmu</w>
menghilang kannya</w>
meng olok</w>
memu dar</w>
keingin anku</w>
jer ami</w>
gul ita</w>
gorit ma</w>
di hindari</w>
ber segera</w>
a .
Vi c</w>
Phi lip</w>
Per am
Evel yn</w>
DU A</w>
DE A</w>
4 9</w>
tem an
po ker</w>
pendapa tku</w>
pa mer</w>
merepot kan</w>
menyer ap</w>
mengun yah</w>
kha m</w>
kemampu anku</w>
kantor mu</w>
kal ender</w>
ju lukan</w>
hen ti
hadi ahnya</w>
di manfaatkan</w>
di kirimkan</w>
ber tiup</w>
bad annya</w>
Uni ver
Sem en
Ne gatif</w>
K is
Jos hua</w>
Inj îl</w>
Im por</w>
El len</w>
Andre a</w>
un tain</w>
rom pi</w>
membe likanmu</w>
mbu h</w>
kon se
klu sif</w>
kesempa tanmu</w>
ek tur</w>
cuku pan</w>
Win ter</w>
T ong</w>
Se kali
Pu b
Mende sah</w>
Mar tin
Ku ba</w>
Ke takutan</w>
Ka y</w>
Ever y
CC TV</w>
Ba dan</w>
pla ce</w>
nis ter</w>
ke kebalan</w>
ju angkan</w>
i kata</w>
for e</w>
ekon om
ding annya</w>
bi rin</w>
ben eran</w>
b kannya</w>
au x</w>
antu si
Yan kee</w>
Sa tu
Ro u
Peny elamat</w>
Peng em
Ma tilah</w>
BA IK</w>
A D</w>
wo uld</w>
tu ris</w>
ter l
t ton</w>
spi ritual</w>
s na
peng hasilan</w>
menju mpai</w>
menj ang
kem as
ber mata</w>
ber bantah</w>
be e</w>
aku r</w>
Rol and</w>
Ri buan</w>
O hio</w>
Menye ba
Ke du
J I
E li</w>
B ik
0 5</w>
ven tilasi</w>
tersan jung</w>
si kat</w>
re uni</w>
pertanya anmu</w>
mus lim</w>
kece pa
kan akan</w>
al la
Mel anie</w>
Ker as</w>
K re
Bo ur
Bi ar
Be si</w>
Ba b
A ir
su tradara</w>
si asat</w>
se a</w>
s ma</w>
s kema</w>
peng hidupan</w>
meny an
mengun dangku</w>
menguasa inya</w>
man a
klien ku</w>
h in</w>
ele r</w>
diper sembahkan</w>
co unt</w>
co bar</w>
bis kuit</w>
ba hu
an iku</w>
aga manya</w>
Ra d
Pat ty</w>
G in
Fak ta</w>
Atlan ta</w>
tem po</w>
ta mu
sek sama</w>
samp ingku</w>
pern i
per tanggung
penginta ian</w>
paka ti</w>
mu t</w>
mencega hnya</w>
kon di
kering anan</w>
ca ci</w>
berla gak</w>
berada ptasi</w>
Li ga</w>
Kon tak</w>
In grid</w>
Da y</w>
Ali en</w>
w w
selo kan</w>
s aku
ri ch</w>
re ally</w>
per tahankan</w>
pem bersihan</w>
meny eluruh</w>
mengot ori</w>
meng anjurkan</w>
menam par</w>
ku tembak</w>
ku tanyakan</w>
kha barnya</w>
jen delanya</w>
gi h</w>
di pi
V as
Pem bohong</w>
Pat ri
Mo de</w>
Mere kalah</w>
In te
ter e
ten is</w>
seru anmu</w>
pe do</w>
menjau hlah</w>
mem bunyikan</w>
lo gis</w>
li ga</w>
la ti
kot aknya</w>
ju rusan</w>
ju mpai</w>
ga wat</w>
ele w
don at</w>
Woo dy</w>
Woo d
Tro y</w>
The o</w>
Per tahankan</w>
Menye dihkan</w>
L E</w>
Ke sen
Ke adilan</w>
J en</w>
De xter</w>
Chan dler</w>
Adi kmu</w>
0 6</w>
ters angkut</w>
sangka an</w>
pan duan</w>
nga pain</w>
mon t</w>
mer tua</w>
mengalah kanku</w>
memani pulasi</w>
memaaf kanku</w>
la por</w>
kepu asan</w>
kaw annya</w>
hen ingan</w>
diha lalkan</w>
de batkan</w>
cke tt</w>
ber dekatan</w>
b da</w>
astron ot</w>
al s</w>
R it
Pear l</w>
M O
Hendak nya</w>
Dor othy</w>
ti sme</w>
perhati anmu</w>
ne u
mengu langinya</w>
memada mkan</w>
ma i
ku mu
kor up</w>
kese ha
ke bisingan</w>
ke ane
kasi hku</w>
ju lah</w>
jan in</w>
ja b</w>
gg le</w>
gener ator</w>
e pisode</w>
dom inasi</w>
dahsya tnya</w>
So me
Putr aku</w>
Ma taku</w>
Inter nasional</w>
Eri ca</w>
Cu aca</w>
yu l</w>
tenter am</w>
pen unjuk</w>
pe sannya</w>
pe desaan</w>
nya --
mem besar</w>
kema u
jem ah</w>
g li
bi mbang</w>
betu lnya</w>
berka snya</w>
a simu</w>
Ro ad</w>
Je ong</w>
Ad rian</w>
w angi</w>
sa darkan</w>
ru snya</w>
rem pah</w>
pemelihar aan</w>
pe das</w>
na vi
n s</w>
menghi rup</w>
membangun nya</w>
i demu</w>
gor esan</w>
en aknya</w>
bah ku</w>
Ver a</w>
Ha e</w>
F le
ro k</w>
pa ten</w>
orang tuamu</w>
mer kan</w>
menja hit</w>
mengingin kanku</w>
memban dingkan</w>
mem belah</w>
kehilang annya</w>
ju ssi</w>
bu kumu</w>
ar anku</w>
Pikir kanlah</w>
P ira
J embatan</w>
I I
An ti
1 20</w>
ter bagi</w>
pu jilah</w>
pene gak</w>
pemu lihan</w>
meng herankan</w>
menca ir</w>
melem ah</w>
ma t
m bing
kela liman</w>
f lu
do ws</w>
dip impin</w>
ber un
bagi anku</w>
Z oom</w>
Z hang</w>
Yu ri</w>
Shar on</w>
Por tland</w>
Me ta
Jo an</w>
Gar rett</w>
web site</w>
tur namen</w>
spe kulasi</w>
ri set</w>
pri se</w>
nan ah</w>
menun tun
men elusuri</w>
mel angg
keru suhan</w>
kabar kan</w>
dise tujui</w>
di li</w>
daf tarkan</w>
Pe terson</w>
Es cobar</w>
De sa</w>
Com pany</w>
Bren da</w>
Bar angkali</w>
y land</w>
tak aran</w>
stro ke</w>
sig nif
ser akah</w>
per lu
penyu sup</w>
peny elesa
mer ayap</w>
menye garkan</w>
menunju k
mas anya</w>
kur sus</w>
d mu</w>
beri siko</w>
amp lop</w>
Ser ing</w>
Sc or
Per ry</w>
Mata mu</w>
Kot oran</w>
In ga
Gil bert</w>
Ba iley</w>
Ast rid</w>
w adah</w>
sepa tuku</w>
se genap</w>
re kamannya</w>
ori al</w>
menen tangnya</w>
men angkan</w>
melam pi
ki lo</w>
kal kun</w>
ga man</w>
fam ili
amer ika</w>
U s
O f</w>
N AM
Ku mpulkan</w>
J a</w>
H ot</w>
Fis her</w>
Bang unan</w>
wa la</w>
ter baiknya</w>
te tes</w>
seki las</w>
per amal</w>
penga caraku</w>
peng ur
penel iti
pen sil</w>
men amp
ku suruh</w>
ker ang</w>
ju tkan</w>
ini kah</w>
i er</w>
duni aku</w>
dan dan</w>
ber j
Pas tor</w>
P ele
In ves
Ed gar</w>
A zi
z il</w>
wa tan</w>
tim is</w>
ter atas</w>
su kar</w>
sejen isnya</w>
se lidiki</w>
san gat
s .
pisa unya</w>
os hi</w>
menga dili</w>
mekan ik</w>
la uan</w>
la mamu</w>
khot bah</w>
ge ga
dimu liakan</w>
cem askan</w>
ber seri</w>
bak kan</w>
Ve er</w>
Ter angkanlah</w>
Ro dri
Per be
N ell</w>
Menu lis</w>
De e
A tom</w>
samp ingkan</w>
pela tuknya</w>
par fum</w>
o .</w>
mengin spirasi</w>
mengajar inya</w>
ku kerjakan</w>
har u</w>
gun ting</w>
corre cted</w>
bos mu</w>
bang kannya</w>
bagi kan</w>
Tho r</w>
T r
S it
P ang
O ut</w>
Na ikkan</w>
Mo del</w>
Mas ji
Jas per</w>
J ing</w>
Ca itlin</w>
Bu zz</w>
Be bas</w>
Ba ca
4 .
uni ver
ti kungan</w>
t ti</w>
sum bangan</w>
se jar
s ler</w>
rak e</w>
pla y</w>
pat gandakan</w>
o ko</w>
menya jikan</w>
ku burnya</w>
kem erdekaan</w>
ke tempat</w>
ha jir
diper kenankan</w>
de si
Kem ah</w>
Jon ah</w>
B A</w>
- Kami</w>
ta san</w>
se kamar</w>
s kop</w>
ra mi
pro po
pro mi</w>
per timbangan</w>
per senja
o v</w>
n ye
mu ch</w>
menan amkan</w>
l akukannya</w>
i sir</w>
g m</w>
bo o</w>
berda mpingan</w>
a i
Mo ore</w>
H ell</w>
G as</w>
Cas sie</w>
B us</w>
6 6</w>
u ri</w>
ten dangan</w>
signif ikan</w>
radi kal</w>
panggi lkan</w>
menyer angnya</w>
memeng gal</w>
li dahnya</w>
le dakkan</w>
har dt</w>
hajir in</w>
h -</w>
graf is</w>
dan ai</w>
bo ur
bi rd</w>
bi ak</w>
bangk it
a jar
W ith</w>
N YA</w>
H O
Ca be</w>
Brun o</w>
Bra sil</w>
1 2
yu an</w>
ya a</w>
tu pai</w>
sh in</w>
r elokasi</w>
par kanlah</w>
p lor
ong kok</w>
o is</w>
na do</w>
meng andal
khusu skan</w>
it s</w>
inga tanmu</w>
in na</w>
er ansi</w>
disa mbut</w>
di khawatirkan</w>
da tanya</w>
Sen diri</w>
Se derhana</w>
F lint</w>
Bur ke</w>
Ban d</w>
Amaz on</w>
umu rku</w>
ter oid</w>
si ve</w>
sen diri
sar anmu</w>
sangga han</w>
rn ikan</w>
regu lar</w>
pro vo
pas kanlah</w>
or t</w>
mereka mnya</w>
menyingkir kannya</w>
menc olok</w>
ku ali
kep ingan</w>
ka mah</w>
fo sil</w>
diser u</w>
diper hatikan</w>
di lengkapi</w>
bi lik</w>
ber s
ber bahagia</w>
Mem e
Kur si</w>
G ang</w>
De puti</w>
Dar yl</w>
to pan</w>
sun yi</w>
sem anga
se iring</w>
r s</w>
prose snya</w>
or a
on al</w>
od ongkan</w>
na i</w>
kor asi</w>
kar tel</w>
g lo
dia tor</w>
di pandang</w>
di musnahkan</w>
bran kas</w>
au to
ak alah</w>
Z ombie</w>
Tu lis</w>
Ri o</w>
M ak</w>
Isti rahatlah</w>
wal ker</w>
tang gapan</w>
ta lnya</w>
simpa ti</w>
samp ingmu</w>
rong sokan</w>
penja gaan</w>
pas ta</w>
meng osongkan</w>
lelu hu
la mpau</w>
kre dit
kesuka anmu</w>
kera sulan</w>
kepon akanku</w>
kemudhar atan</w>
kan tong
jela san</w>
ir ingi</w>
f in</w>
don or</w>
di mu</w>
bi lang
berke ping</w>
a tu</w>
U ru
Pen erima</w>
Le bah</w>
J et</w>
Hu dson</w>
G E
penasi hat</w>
menuli skannya</w>
ger alah</w>
di jatuhkan</w>
deng arkanlah</w>
den da</w>
dara an</w>
ber tanggungjawab</w>
at let</w>
a lam
R .
Po int</w>
N O</w>
Jo han
Jes sie</w>
spesi alis</w>
si siku</w>
ra p</w>
per janj
peng liha
pem akan</w>
meragu kannya</w>
k olonel</w>
ja sa
ic an</w>
h os
fir e</w>
dimu at</w>
ck in</w>
b rid</w>
Pe a
Fr ost</w>
Br yce</w>
4 ,
terse dak</w>
sc re
olo gi
memiliki mu</w>
la gipula</w>
konsul tan</w>
kon stan</w>
inga tannya</w>
il e</w>
hi sap</w>
hasi akannya</w>
dila lui</w>
bar ing
bak alan</w>
ba tu
angka s</w>
a --
Ser ge
Se but</w>
Sa habat</w>
Pasi en</w>
Mad yan</w>
La dies</w>
Kli en</w>
Kese hatan</w>
In di
G ina</w>
Eag le</w>
E r</w>
w ling</w>
selu sin</w>
s li
per kirakan</w>
pem ben
pe dangmu</w>
menya lin</w>
menji lat</w>
ma te</w>
ma lia</w>
ku pastikan</w>
keber sihan</w>
ke celaka
h ole</w>
e ditor</w>
du yung</w>
di wara</w>
da yaan</w>
ber tahanlah</w>
ber akibat</w>
W y
Penye bab</w>
Mun durlah</w>
Kem an
Ke h
Ke bebasan</w>
Chris top
Azi z</w>
tru knya</w>
ti ri</w>
sesua tunya</w>
se gan</w>
per bandingan</w>
per apian</w>
menc ampur</w>
membi ayai</w>
mad ani</w>
l .</w>
ku sampaikan</w>
ku gunakan</w>
ketak waan</w>
ka pasitas</w>
f at
encan aan</w>
cit ra</w>
ban dingkan</w>
baju ku</w>
an tum</w>
UR I</w>
Ric h
Piz za</w>
Ma tanya</w>
K o</w>
Ju dul</w>
Fre deri
En ter
z h</w>
vide onya</w>
u ght</w>
si simu</w>
sh ine</w>
sambu tan</w>
ro ws</w>
pot ensial</w>
per satu</w>
peng ujian</w>
menya tu</w>
mengabaik annya</w>
memand angnya</w>
lu arnya</w>
la del
ken tut</w>
h 2</w>
gero bak</w>
do anya</w>
din a
bi jian</w>
b ble</w>
Pe ta</w>
Mos kow</w>
Habi si</w>
Di ri</w>
Ber nie</w>
Be ach</w>
vari asi</w>
u pakan</w>
seng ke
se tengahnya</w>
pengiku tmu</w>
peng elu
pem ber
menyembeli hnya</w>
menghin darinya</w>
mengenali mu</w>
memu rnikan</w>
membebas kanmu</w>
kur angi</w>
keuta maan</w>
im um</w>
fon ta</w>
f ol
em on</w>
daf taran</w>
bi g</w>
ber goyang</w>
anj ingku</w>
anc ar</w>
aja lnya</w>
a cu
W inter
U H</w>
Ser ver</w>
Pen dahuluan</w>
L in</w>
Cho w</w>
5 6</w>
5 0.000</w>
u bun</w>
sun ah</w>
mela mar</w>
kisa hnya</w>
kecu rangan</w>
ke tidak</w>
ke enam</w>
kai sar</w>
j or
di on</w>
der asi</w>
co s</w>
ca l
ber sekolah</w>
ada b</w>
Ra di
Ku il</w>
Kry pton</w>
Cap tain</w>
ya tku</w>
ungkin annya</w>
so sis</w>
pribadi ku</w>
menyayang inya</w>
mem pengaru
me kar</w>
mb ingan</w>
log ika</w>
kar tunya</w>
ik salah</w>
di bentuk</w>
di angkut</w>
S O</w>
Pro du
Pen ting</w>
Mu seum</w>
Kon trol</w>
D E</w>
Ar t</w>
- Baiklah</w>
si l
ser e
sa t
re st</w>
peng antar</w>
memu liakan</w>
man ja</w>
huku mannya</w>
es pe
di pisahkan</w>
di lanjutkan</w>
di jawab</w>
beran inya</w>
be am</w>
bang i</w>
U .
Per si
Me ja</w>
Har am</w>
Ham zah</w>
H amp
Fre d
Co lu
Chan el</w>
Bi bi
B ir</w>
targe tnya</w>
tab let</w>
se lai</w>
permu kaannya</w>
peng gal</w>
pen den</w>
pemen angnya</w>
p p</w>
mu dahnya</w>
mis inya</w>
min u
menyebu tku</w>
menghidup kannya</w>
membac akannya</w>
leher ku</w>
kom ite</w>
ja go</w>
in sting</w>
diter apkan</w>
d one</w>
celan amu</w>
bi mbingan</w>
berka bung</w>
bay arannya</w>
T K</w>
Po well</w>
Pil ot</w>
P and
Mit ch
Ken da
En zo</w>
Ad n</w>
0 9</w>
ya tkan</w>
untu hkan</w>
tu kannya</w>
ter siksa</w>
re aktor</w>
pun k</w>
peny unting</w>
peng ha
pe serta</w>
pa th</w>
p angku
ma tik</w>
la ya
kerid haan</w>
inga tanku</w>
f el</w>
dia mi</w>
di ar
d ungu</w>
bu ruh</w>
ba tlah</w>
as ku</w>
Sou th</w>
Reka man</w>
P a</w>
Le genda</w>
Kenne dy</w>
De tro
C E</w>
tu tnya</w>
tu tkah</w>
st o</w>
sen ya
se lang</w>
s ch
p hen
menjalan kannya</w>
mengg onggong</w>
memper panjang</w>
mem ara
la l</w>
kri p
kere tanya</w>
keber ani
inde ks</w>
imp inya</w>
den ti
cor n</w>
beri badat</w>
W an</w>
Sy n
Sing a</w>
Penge cut</w>
Pela jaran</w>
Pat ung</w>
Ot to</w>
Mari o</w>
Kepa laku</w>
E S</w>
De bbie</w>
Ber beda</w>
Ar gh</w>
A m</w>
tr im
ter jual</w>
sy l
s tem</w>
peng ingat</w>
pendu staan</w>
mur tad</w>
mengkhiana tiku</w>
mem impikan</w>
lengka pnya</w>
l iter</w>
kot aku</w>
kecuri gaan</w>
ke taku
hid ungmu</w>
fin an
diti on</w>
dikem bangkan</w>
awa ti</w>
ar kannya</w>
We b</w>
Sa t
Mari on</w>
Ka l</w>
K ok</w>
Ja galah</w>
Ge e</w>
Di ane</w>
8 6</w>
u dang</w>
ter as</w>
spe ktif</w>
ro boh</w>
r aksi</w>
op timis</w>
oo kie</w>
mera hasiakannya</w>
menyer angmu</w>
memi hak</w>
membo corkan</w>
melangg arnya</w>
me er</w>
kom promi</w>
hero in</w>
en te</w>
dita warkan</w>
diid gamkan</w>
dak nya</w>
bay imu</w>
W AN
U mur</w>
Sem inggu</w>
S ni
O h.</w>
Me era</w>
M L</w>
Kemampu an</w>
Is mail</w>
G a</w>
Detro it</w>
Cen ter</w>
0 8</w>
yang mu</w>
un ds</w>
ser ba</w>
ru tin
pe patah</w>
minum annya</w>
memer ik
ju b</w>
ha tku</w>
gen tlemen</w>
gembi ralah</w>
dro id</w>
baha yanya</w>
a jukan</w>
Ver si</w>
To p</w>
Qu en
P lay
P ana
Men ikah</w>
Khu susnya</w>
Kap pa</w>
Ho ok</w>
Hil ls</w>
C it
Ap ol
5 3</w>
vege tarian</w>
u ji
u gh
sur e</w>
si akan</w>
pertu mpahan</w>
perni agaan</w>
per cikan</w>
per anta
pemu kul</w>
pela tuk</w>
pa tch</w>
p ti
or an
menurun i</w>
menon j
mema sukan</w>
li gasi</w>
lem bur</w>
ketu hanan</w>
kemas la
ka ri</w>
jeng kel</w>
des kripsi</w>
dapa t
anta p</w>
U p</w>
S inga
P iki
Hu go</w>
Glor ia</w>
Eli sa</w>
C ir
Agen t</w>
wor th</w>
u sul</w>
ter bebas</w>
tahu ku</w>
putu snya</w>
pr om
pel indung
pakai anku</w>
menge sakan</w>
mencu li
mencampu ri</w>
melebi hkan</w>
m ara</w>
ladel phia</w>
ke deng
ide al</w>
gu han</w>
da daku</w>
arsit ek</w>
anj ung</w>
Ze us</w>
T hi
T dk</w>
Op sir</w>
L ena</w>
Jan tung</w>
J u</w>
B UN
5 4</w>
tel ingamu</w>
t akhi
pri ori
peru tmu</w>
p lus</w>
organ isir</w>
meri ah</w>
mengangga pku</w>
keyak in
ke beba
hid ungnya</w>
ha cker</w>
er y</w>
diku burkan</w>
cu lik</w>
c le
bos nya</w>
be tter</w>
bar ak</w>
ar ang</w>
angka tlah</w>
ah linya</w>
Ro yal</w>
P R
Mon t
Meng un
K EM
Cor p</w>
Christ ine</w>
Berga bunglah</w>
Ber lindung</w>
wa skan</w>
u le
tu mor</w>
timi dasi</w>
se gumpal</w>
ra sikan</w>
on es</w>
menika himu</w>
mengen ainya</w>
mengan tuk</w>
menga du</w>
meng inf
meng gar
meli ba
kuad rat</w>
kontr aktor</w>
kin erja</w>
keme wahan</w>
ja zz</w>
in stitusi</w>
ik anku</w>
g ran</w>
di datangi</w>
ber ser
Tre k</w>
Ra ven</w>
Jon as</w>
Ar tie</w>
Anton io</w>
z om
wi ck</w>
wa it</w>
vo dka</w>
us ang</w>
ting ka
su sun
qu ila</w>
pre s
pema lu</w>
p olos</w>
p iter</w>
nyany ian</w>
menem animu</w>
memperhati kannya</w>
memeca hkannya</w>
ke bal</w>
kan --</w>
i on</w>
el ly</w>
dira hasiakan</w>
d ell</w>
ber zina</w>
am bulan</w>
V au
U tama</w>
Telu r</w>
Se akan</w>
Ro han</w>
OR ANG</w>
O ver
Men dengarkan</w>
Memer iksa</w>
Mem bakar</w>
Lem parkan</w>
Kris hna</w>
Hy dra</w>
H ore</w>
Co unt</w>
teror isme</w>
tele r</w>
senja taku</w>
sa dar
re kannya</w>
om ongan</w>
mengu burnya</w>
mengu bur
menghar uskan</w>
men d
man diri</w>
les bian</w>
kon su
komun is</w>
kema ha
ka itan</w>
foto mu</w>
dit unggu</w>
bu ry</w>
b ingkai</w>
an ce</w>
aka demi</w>
a jari</w>
Y on
U hud</w>
Tem patnya</w>
Ser atus</w>
Ke e
Ke bakaran</w>
Glen n</w>
Ga be</w>
Fran ken
Bersa barlah</w>
Ber doalah</w>
u u</w>
ter da
tan dingan</w>
ri pt</w>
menya mbu
meny iksanya</w>
me jaku</w>
materi al</w>
la i
la f</w>
keham ilan</w>
kaf e</w>
ji jik</w>
ha ma</w>
daf tar
beru kuran</w>
ban dit</w>
Q ar
Mele wati</w>
F .
yo ung</w>
van ia</w>
u z
ter pa
takh fif</w>
se dap</w>
pos e</w>
ny anyikan</w>
meng ang
mena ta</w>
memu dahkan</w>
me sum</w>
kekasi hnya</w>
kec inta
kau --</w>
k kanlah</w>
hen tinya</w>
ha id</w>
distribu si</w>
c r
Tam pilan</w>
Sem bunyi</w>
Mon ty</w>
F lu
De c
Ang ka</w>
An ton</w>
y ing</w>
usaha mu</w>
t hu
spesif ikasi</w>
pos it
pengemba lian</w>
min imal</w>
mer ta</w>
menyelidi kinya</w>
menu angkan</w>
menga mbang</w>
me tri</w>
mah fu
ma annya</w>
la mana</w>
kar na
ingin kannya</w>
gu k</w>
ganj il</w>
ff er</w>
dideka tkan</w>
di putar</w>
cerit akanlah</w>
ben er</w>
ang inya</w>
Y i
Un i</w>
O w
F an
Dri ve</w>
- Jadi</w>
z ak
ting kan</w>
ti mnya</w>
sket sa</w>
mereng ek</w>
lu sin</w>
keperca ya
ke lakuan</w>
ke belakang</w>
ka pi
jen isnya</w>
geng gam</w>
es ome</w>
ditan datangani</w>
di lepas</w>
di hubungkan</w>
den da
datang kanlah</w>
d ind
cer ia</w>
c m</w>
angg unya</w>
Wal ly</w>
To pi</w>
T ang</w>
Le xi</w>
Ku l
Kos ongkan</w>
E hm</w>
Ala ska</w>
sen sasi</w>
se pel
ran jau</w>
pen diri</w>
pele cehan</w>
mpu k</w>
min d</w>
meng ung
mena bung</w>
memegang mu</w>
melaku kanya</w>
li kanku</w>
kumu h</w>
ku harapkan</w>
kesa yangan</w>
k si
ju dan</w>
ide ku</w>
es n</w>
demon strasi</w>
Y aman</w>
S in</w>
S D
Mo hon
Le on</w>
Dar at</w>
Car anya</w>
Broad way</w>
Ay ub</w>
Ap ar
Allah --
Ab du
ta bungan</w>
t ter
pemili h</w>
pem bangkit</w>
pe tisi</w>
op ti
mer unduk</w>
menyusu i</w>
menja gaku</w>
mengu lur</w>
mengger tak</w>
mena hanku</w>
inisi alisasi</w>
in da
hor mon</w>
gra de</w>
duni amu</w>
di seluruh</w>
Untu kku</w>
Shak espe
Scar lett</w>
Pem beron
Ja uhi</w>
Dar urat</w>
Casti el</w>
Bra zil</w>
Bon eka</w>
0 4</w>
sala h
rem eh</w>
pen isku</w>
pen anda</w>
naf kahkan</w>
mohon lah</w>
memberka timu</w>
ku tinggalkan</w>
hi gh</w>
ditel an</w>
bre ak</w>
berki lau</w>
Tan k</w>
Sta te</w>
Pr oto
Pem enang</w>
P lus</w>
N E
Lau ren</w>
Kan e</w>
Hasi lnya</w>
En ergi</w>
Con stan
Cla ra</w>
Cel ana</w>
v ator</w>
sir kuit</w>
punggung mu</w>
priba dinya</w>
per wakilan</w>
per madani</w>
peng en</w>
mengo ceh</w>
mengham bat</w>
mengenc ani</w>
mencer aikan</w>
menan tikan</w>
mar inir</w>
ma m</w>
kisa s</w>
ekseku tif</w>
do p
cu ba</w>
beri sikan</w>
be ser
T itan</w>
Rak sasa</w>
Nar ko
Kel inci</w>
F O</w>
Do m</w>
Ba yar</w>
ter lintas</w>
si eur</w>
seba gus</w>
se xy</w>
ra tor</w>
pem batas</w>
pem arah</w>
organ isme</w>
mili aran</w>
ju rus</w>
hang us</w>
f us</w>
f ormal</w>
bender ang</w>
Ya y</w>
We st
Tn .
Te s
Te patnya</w>
Ta u</w>
Rom an</w>
M en</w>
Har ganya</w>
Febru ari</w>
Camp bell</w>
Ban dara</w>
Ar gen
Ar e</w>
y aran</w>
ver sion</w>
ter jang
su ke</w>
sele br
sa fat</w>
pi lah</w>
permu laannya</w>
perang ilah</w>
penyel undu
penjela jah</w>
penghar aman</w>
n othing</w>
meni du
mendi dik</w>
mencelak akan</w>
mem pedulikan</w>
lama tan</w>
kesu kaan</w>
kebun an</w>
ke kanak</w>
kar tun</w>
gar pu</w>
fre e</w>
dist rik</w>
bi r
ber kelompok</w>
a --</w>
Tah qiq</w>
S mo
M elu
Jeff rey</w>
J ika
Che ck</w>
20 12</w>
â w
âw ûd</w>
tif nya</w>
ti durlah</w>
senyu man</w>
pernah kah</w>
pem as
pelu k</w>
nger ti</w>
menyalah kanku</w>
mas ker</w>
manusi awi</w>
mak anya</w>
m piade</w>
luru skan</w>
la jang</w>
jawa bmu</w>
fri end</w>
f ans</w>
do wn
dika bulkan</w>
d ro</w>
d angkal</w>
com ing</w>
asy ik</w>
al ways</w>
a sisten
Qu ot</w>
LA M</w>
D âwûd</w>
Che f</w>
Ba lasan</w>
Au gu
wal k</w>
ver ly</w>
u to</w>
thing s</w>
telu k</w>
perca yaan</w>
musi c</w>
menin das</w>
m inya</w>
lu lusan</w>
it h
gri tas</w>
foto grafer</w>
fla sh</w>
diper malukan</w>
di antaranya</w>
daf tarnya</w>
as ma</w>
al lah</w>
Sa lem</w>
Phi ladelphia</w>
Pe cundang</w>
Luki san</w>
L as</w>
El lis</w>
E rin</w>
Bra sero</w>
w enangan</w>
tr anya</w>
t wo</w>
para meter</w>
merindu kanku</w>
mel uruskan</w>
lo o
inves tor</w>
fore cast</w>
en e</w>
dis ing
di akui</w>
cu man</w>
cu l</w>
bu gger</w>
bin tik</w>
beru paya</w>
berja ya</w>
ata u
ar teri</w>
Si ang</w>
S wan</w>
Menji jikkan</w>
Ly n
Lec ter</w>
Ga tes</w>
Doug las</w>
Co cok</w>
Christop her</w>
A mpun
A M</w>
v is
re al
per tem
pengen al</w>
penampi lanku</w>
pen unggang</w>
pasu kanmu</w>
pa ti
menye tuju
mengun dangmu</w>
menca painya</w>
ma har</w>
kon yong</w>
c li
argu mentasi</w>
Vik tor</w>
T ap
Su riah</w>
S M</w>
Mil ton</w>
L anju
Hay ley</w>
Han s</w>
Gra y</w>
sa at
rak yatnya</w>
ra yakan</w>
qu ez</w>
meru bahnya</w>
menan datang
memper hitungkan</w>
mar ilah</w>
hada pannya</w>
el e</w>
di oksida</w>
di gambarkan</w>
di buru</w>
co kkan</w>
bodo hnya</w>
ber investasi</w>
be terbangan</w>
a jak
SM P</w>
Pa duka</w>
Mo ab</w>
Dem ok
Ber ikanlah</w>
Ap likasi</w>
9 8</w>
20 .000</w>
- Tapi</w>
tor y</w>
terda mpar</w>
spe disi</w>
sh ell</w>
se dekat</w>
pro vinsi</w>
penun daan</w>
menyen diri</w>
ku sangka</w>
ger angan</w>
g olong
eri e</w>
e c
di dasarkan</w>
ber duri</w>
at ribut</w>
aku pun</w>
Shakespe are</w>
L om
L L</w>
G A</w>
Dar win</w>
C ross</w>
C I
Bay angan</w>
z ar
yo k</w>
ungk anlah</w>
t ini</w>
si kanlah</w>
se langkah</w>
sa tukan</w>
s le
pe sanmu</w>
pe d</w>
p anmu</w>
mener bitkan</w>
m kannya</w>
lo ker</w>
la hirkan</w>
ki rimu</w>
ker angka</w>
isti rahatlah</w>
ga i
e tan</w>
dike pung</w>
di jebak</w>
di jalan</w>
ce kik</w>
ber belok</w>
ban dar</w>
al ku</w>
Vic ky</w>
Re volusi</w>
Na ina</w>
w en
u sir</w>
tu pnya</w>
ter ha
t omb
radi o
publi kasikan</w>
per unggu</w>
per spektif</w>
penen tuan</w>
nam paknya</w>
mewujud kannya</w>
mengusi rnya</w>
kemasla hatan</w>
ke sialan</w>
h ra</w>
eks klusif</w>
dong engan</w>
di sam
berke wajiban</w>
ber pegangan</w>
ban on</w>
bagi anmu</w>
T O</w>
Super girl</w>
Sher man</w>
Ra j
O H</w>
Nam paknya</w>
Ma lik</w>
Li ke</w>
L antas</w>
Ku tukan</w>
H wi</w>
G ang
Di luar</w>
Buk tikan</w>
Ber at</w>
Ben net</w>
Asy ur</w>
Ara hkan</w>
tan y</w>
penge jaran</w>
melapor kannya</w>
mar ket</w>
m impinya</w>
ku asai</w>
kot anya</w>
kon versi</w>
kn ik</w>
kaw anku</w>
hor e</w>
hadap anmu</w>
habi litasi</w>
gu gatan</w>
ga bungkan</w>
ever y</w>
dit untut</w>
din al</w>
dia jukan</w>
di bi
ce s
bun y
bo o
benar lah</w>
aw isma</w>
anali sa</w>
Y I</w>
W here</w>
U angnya</w>
Tem patkan</w>
Ri ver
N il</w>
M el</w>
J ong</w>
F es
E rik</w>
De ar</w>
Baca lah</w>
s mi</w>
per syar
per aturannya</w>
pen datang</w>
pem ban
pa tahkan</w>
p ha
mereka pun</w>
membel anya</w>
memba gikan</w>
ma ll</w>
konta minasi</w>
kesesa tannya</w>
ka bari</w>
inggi rlah</w>
h --
gigi mu</w>
e i</w>
dit olong</w>
dis kon</w>
dire kam</w>
diper siapkan</w>
di lu
di eksekusi</w>
den g</w>
bersa ma
ber akting</w>
Ta mu</w>
Sa bar</w>
Mar shal</w>
Ken angan</w>
Ke p
Franken stein</w>
Dit emukan</w>
Bi arkanlah</w>
wa tir</w>
w hy</w>
u lama</w>
ter pu
san anya</w>
pro t</w>
pili hannya</w>
persenja taan</w>
oto psi</w>
menggan tikannya</w>
menga dopsi</w>
len yapkan</w>
kos ongan</w>
in dahnya</w>
il ton</w>
ga u</w>
boh ongan</w>
asu h</w>
ama lkan</w>
Vir gil</w>
Rip per</w>
Mi gu
Mer lyn</w>
Mem buatnya</w>
Ju piter</w>
Jeff erson</w>
Er nie</w>
Di gunakan</w>
Di bawah</w>
Bo y
un jung</w>
tu lang
t ta</w>
syl vania</w>
sti ll</w>
por i</w>
peranta raan</w>
mence kik</w>
memutu skannya</w>
mem anj
melam bat</w>
l aksanakan</w>
ku tipan</w>
in a
han ilah</w>
gra f</w>
dimak amkan</w>
be jana</w>
baik .</w>
agen si</w>
Tong kat</w>
Sekali pun</w>
Peny er
Pemu da</w>
Pe tunjuk</w>
Gu ar
Fu hrer</w>
Chris tian</w>
Au dio</w>
tu l
tre e</w>
ter cipta</w>
re ady</w>
pili hanku</w>
per dana</w>
pengar uhnya</w>
mere komendasikan</w>
meny o
mengenali ku</w>
meng gila</w>
meleng kapi</w>
le tih</w>
la dy</w>
ku suka</w>
ki asan</w>
kha lifah</w>
jadwa lkan</w>
di karenakan</w>
bor n</w>
Sta tes</w>
Re yn
R in
Oli mpiade</w>
Mic ha
Car son</w>
Ber putar</w>
Bang kok</w>
A bang</w>
00 0.000</w>
tu suk</w>
t z
se segera</w>
peny imp
nya muk</w>
membangun kanmu</w>
mem prediksi</w>
langka hmu</w>
ka plah</w>
h k</w>
g ne</w>
em u</w>
dit in
dila cak</w>
ber angsur</w>
Sa q
Pol andia</w>
Peng er
Jan et</w>
Gol d
Du ta</w>
A ras
ren dahan</w>
re k
ra tnya</w>
pula lah</w>
pi jat</w>
par asu
mendatang imu</w>
memer ca
memanc ar</w>
lu ang</w>
kos ongkan</w>
kir iman</w>
in to</w>
gor y</w>
di campur</w>
cil kan</w>
ce hkan</w>
Tem pa
Pe ggy</w>
Menen tukan</w>
Mar ga
Ka y
He o</w>
Di am
Den ise</w>
Baitu llah</w>
BA H
An tar</w>
veri fikasi</w>
sim pan
pi knik</w>
p y
oper a</w>
on tal</w>
mengu cap
menempa tkannya</w>
menempa tkanmu</w>
mene waskan</w>
meli pat</w>
me ga</w>
m ing</w>
kesa bar
keiman annya</w>
kar angan</w>
ka dal</w>
gg ins</w>
ga leri</w>
ber jarak</w>
ber interaksi</w>
Zha o</w>
Yun us</w>
Sum mer</w>
Spo ck</w>
Per lindungan</w>
Paka ilah</w>
L lo
G i</w>
F oster</w>
Er ne
Ba tas</w>
B hu
A ri</w>
A hab</w>
tan da
re z</w>
re se
pi pi</w>
pern atural</w>
ol os
n unggu</w>
mi cro
mengusi rmu</w>
memohon kan</w>
je da</w>
gem a</w>
finan sial</w>
f itur</w>
eks ternal</w>
diu rus</w>
bi es</w>
ber tujuan</w>
a hu
Tu li
T su
T ata
N ob
Meng hancurkan</w>
M .</w>
Ka cang</w>
Ja de</w>
Dar cy</w>
Da ah</w>
w ing</w>
v ar</w>
ter kurung</w>
stre ss</w>
shi p</w>
per hi
pen sasi</w>
meny angkalnya</w>
mengkhawati rkanmu</w>
memili hku</w>
man dul</w>
m angsa</w>
ke waji
je ct</w>
ha p
for mula</w>
em o</w>
blo ck</w>
berju dul</w>
ber jalanlah</w>
apa yang
ad l</w>
T S</w>
Su c
S yam</w>
O z</w>
[...]
