#version: 0.2
e l
s z
e g
e t
e n
e r
e m</w>
a l
a t
i n
e n</w>
g y</w>
á l
o l
e k</w>
h o
a n</w>
a z</w>
é r
n y
g y
é s</w>
e z
t a
o n
á s
o t
á r
e k
c s
n a
k o
e t</w>
é s
e s
a r
ho gy</w>
a m
e m
v a
o k</w>
í t
m eg
k ö
e l</w>
n em</w>
é g
a z
o r
a k
a n
é l
n i</w>
@ -
@- @</w>
b en</w>
o s
a d
i s</w>
k a
t é
b an</w>
e d
na k</w>
i l
n k</w>
eg y
ü l
i z
t á
eg y</w>
e s</w>
o m</w>
o g
. .
sz er
f el
t u
s á
h at
e g</w>
i s
m in
i t
ál l
á t
i t</w>
k é
.. .</w>
n ek</w>
m a
i k</w>
a k</w>
ó l</w>
N em</w>
e sz
ot t</w>
h a
o z
á t</w>
s ég
en d
o n</w>
c i
k el
m á
j a</w>
t ö
a p
r a</w>
on d
k i
r e</w>
v an</w>
m é
o s</w>
et t</w>
v ol
o k
v al
b b</w>
va gy</w>
n é
t el
q u
el ő
qu ot
quot ;</w>
& quot;</w>
i d
j á
r á
e r</w>
kö z
A z</w>
k ez
et t
u l
kel l</w>
r end
sz á
m eg</w>
t t</w>
ta m</w>
e d</w>
t er
tu d
e h
á s</w>
sá g
el y
t a</w>
t al
e z</w>
v é
el l
h a</w>
s z</w>
ko z
m i
S z
ö n
ő l</w>
ér t</w>
2 0
ü nk</w>
a j
ko r</w>
v á
o d
o m
a b
i g
é g</w>
é sz
u r
é n</w>
ö s
ka t</w>
en t
f og
e j
m ond
i k
b e</w>
t at
i sz
ol y
ma g
min d
a t</w>
m i</w>
v et
k i</w>
in t
E z</w>
vol t</w>
ta r
n e</w>
t e</w>
n i
b b
o t</w>
i g</w>
l é
o d</w>
e v
l eg
a l</w>
ü l</w>
b a</w>
u nk</w>
cs ak</w>
b iz
a g
ö l
á z
va gy
I g
é t</w>
d e</w>
l en
p r
a i</w>
á n</w>
m en
ol g
rend el
É s</w>
on t
k er
n y</w>
í r
é k
j el
sá g</w>
em b
l et
v el</w>
ek et</w>
ho z
f i
a s
h al
n ek
t em</w>
val am
ka p
az t</w>
h ely
tö r
ak ar
a sz
m er
ó d
f or
n á
a m</w>
u k</w>
in t</w>
va l</w>
ár a</w>
m u
Ig en</w>
u d
z t</w>
in d
20 0
ci k
u t
é ben</w>
í v
v ég
h et
k ér
M i
ös sz
szá m
d és
r e
n ál
o kat</w>
v ál
D e</w>
c s</w>
k ed
os t</w>
ó l
má r</w>
m az
ü k</w>
ot t
C s
v e</w>
E l
v is
ít ás
l eh
l át
k ül
n t</w>
it t</w>
vagy ok</w>
il y
v ez
v el
v on
t et
ké p
b ól</w>
min t</w>
ál y
n a</w>
ö r
u s</w>
t en
na p
kö vet
M i</w>
hat ár
b e
á r</w>
ho z</w>
& #
&# 9
tar t
o b
mé g</w>
é p
r ész
k et</w>
s ég</w>
j ár
al k
ez t</w>
j ö
m ű
H o
M eg
ü gy
ás i</w>
na gy
K ö
i r
a ny
B iz
m it</w>
l á
ci ó
at koz
biz t
esz él
é ny
b el
tör té
H a</w>
ily en</w>
oly an</w>
e p
es z</w>
en g
tal ál
sz ab
n ö
ő r
t r
ú j
ko r
v a</w>
é v
ó p
határ oz
T ud
ás t</w>
ú l
i a</w>
já k</w>
alk al
i rá
p ont
ta k</w>
Cs ak</w>
sz em
j uk</w>
t o
t ek</w>
n k
ér té
g ond
cs in
vis sz
tá n</w>
elő tt</w>
ér e</w>
ta g
z és
il l
ha sz
h i
in cs</w>
ur óp
é k</w>
A zt</w>
a c
20 1
al á
ha j
o p
M ind
s em</w>
E gy</w>
ü k
esz t
a gy
mé ny
é n
r ől</w>
b ek
el m
ás a</w>
l e</w>
z et
ak i</w>
É n</w>
u s
id ő
cs ol
d olg
f ej
t ár
al ap
von atkoz
m ás
i c
ig az
en t</w>
é nek</w>
ér t
o g</w>
él y
köz ö
l esz</w>
l e
uróp ai</w>
h ez</w>
r ól</w>
t t
N e</w>
ú gy</w>
es et
u g
csin ál
á ban</w>
kö r
ta l</w>
ha gy
á nak</w>
m ost</w>
o ny
j ó</w>
m ell
és i</w>
ell en
hasz nál
alkal maz
bek ez
ság i</w>
en y
a d</w>
és z</w>
emb er
v iz
d ek
él et
a v
es en</w>
irá ny
i m
s eg
tá k</w>
G y
el y</w>
in té
an d
or szá
b eszél
Biz ott
h á
am i
am ely
ol d
gond ol
jel ent
és e</w>
v ár
áll ap
ka l</w>
kap csol
m ód
kül ön
l eg</w>
sz ak
E K</w>
f oly
e b
t ek
sz ól
hoz z
ó k</w>
áll am
p ar
Sz er
f el</w>
at t</w>
á n
mind en</w>
og at
ta n
ké sz
tud om</w>
é t
z ő
i n</w>
v er
an g
h ar
j og
törté n
szer et
s g
tá l</w>
u l</w>
ak kor</w>
tel j
cik k</w>
am it</w>
emb er</w>
ny i
leh et
vol na</w>
rendel et</w>
o bb</w>
ás ok</w>
ter mé
r i
es ít
meg fel
p én
p er
ö m</w>
viz sg
bekez dés
sz ük
h áz
g az
M it</w>
ta ni</w>
o sz
t ő
at ok</w>
s em
sz ön
ül t</w>
né z
ál is</w>
inté z
m a</w>
ül et
h ív
tá m
é z
gy el
sz er</w>
na p</w>
vizsg ál
tek int
ó b
b et
Mi ért</w>
mer t</w>
u k
m ar
má s</w>
e c
és t</w>
h isz
sz olg
E z
s ő</w>
l en</w>
gy er
o r</w>
E gy
b ar
á m</w>
ü z
0 0</w>
A k
3 ;</w>
&#9 3;</w>
j a
ér dek
követ kez
hat ó</w>
1 ;</w>
&#9 1;</w>
os an</w>
ker es
leh et</w>
ó t</w>
s or
e bb</w>
Bizott ság</w>
ta d</w>
é l</w>
sz ö
ó val</w>
meg állap
am i</w>
vez et
Ho gy</w>
í z
k el</w>
vonatkoz ó</w>
E urópai</w>
to vá
té k</w>
ná l</w>
ál tal</w>
ett e</w>
f él
T e</w>
kö l
szolg ál
seg ít
b ől</w>
ett em</w>
es t
n ő
ó z
s t
1 .</w>
szer int</w>
t ű
asz t
n em
k e</w>
eng ed
í gy</w>
ké t</w>
es s
on t</w>
in ek</w>
p i
c él
szük ség
1 9
Gy er
ho l</w>
er ő
g at
r o
u m
el ő</w>
val ó</w>
rendel kez
ít ott</w>
nagy on</w>
h ó
kez d
en i</w>
hat ó
és ek</w>
ö k
f ér
u tán</w>
tö bb
n ev
va s
j on</w>
ít ett</w>
á k</w>
ko d
eg ész
is mer
v il
e i</w>
M ost</w>
for má
k é</w>
at al
es ség
d a
né l</w>
o l</w>
vé d
ka i</w>
el v
u n
ü n
hal l
tag állam
sz í
má ny
tu nk</w>
A z
na gy</w>
ma j
o cs
t ól</w>
té l</w>
gy a
J ó</w>
R end
s aj
kapcsol at
tám ogat
ö k</w>
1 0</w>
ny i</w>
já n</w>
k í
a bb</w>
h ang
vál t
ké nt</w>
r an
il let
l ett</w>
l a
k á
O ké</w>
é vel</w>
d i
n incs</w>
Ú gy</w>
meg határoz
mu nk
áll al
f ü
b en
i m</w>
ez előtt</w>
mű kö
érté k
an nak</w>
szön öm</w>
fog l
ő t</w>
dolg oz
bizt os
r a
szab ály
h it
e x
né k</w>
á val</w>
j e</w>
M ég</w>
en ek</w>
ő ket</w>
j át</w>
nek em</w>
b ár
N agy
et len</w>
ed ig</w>
szól ó</w>
mell ék
orszá g
c k
t i</w>
l at
ár ól</w>
t ér
n nak</w>
1 0
er t</w>
V al
f iz
egy ü
k is</w>
em l
v állal
fog ad
ta ná
k ol
ok kal</w>
z s
j ük</w>
pén z
val ó
nek i</w>
a g</w>
et ek</w>
valam int</w>
ami kor</w>
vil á
Ak kor</w>
v i
or t
m ent
sz áll
m ér
mind ig</w>
en ki</w>
á ny
ú j</w>
vá n
fogl al
fi gyel
valam i</w>
t i
2 .</w>
d ö
k ar
er ed
maj d</w>
ol t</w>
T al
Kö z
tová bb
j át
f og</w>
s e</w>
z ő</w>
mar ad
f en
p edig</w>
ik us</w>
ób ál
az on
a r</w>
em ény
E zt</w>
l y
E L
J ól</w>
intéz ked
ő k</w>
t isz
d és</w>
at i</w>
A n
lé t
ér z
b or
tö bb</w>
M en
g i
j ól</w>
r á</w>
hó nap
biz ony
ás át</w>
s sz
l esz
el t</w>
gaz da
Rend ben</w>
r os
len ne</w>
mi kor</w>
f öl
u ta
hisz em</w>
M ar
ar ra</w>
vé tel
s ít
l ek</w>
tár s
va nnak</w>
vé ny
cs i</w>
ny om
gy an</w>
tar tal
vált oz
l egy
od a</w>
et i</w>
I s
ó s</w>
j obb</w>
d ol
am ely</w>
té tel
a j</w>
p l
ad at
al l
ügy i</w>
t ú
haj t
já ban</w>
E G
f ő
e f
A l
ni a</w>
V an</w>
I tt</w>
Kö szönöm</w>
É r
ek re</w>
ett el</w>
mi ért</w>
jö n</w>
í tani</w>
mu tat
ap os
ni e</w>
F el
mód os
3 .</w>
ek kel</w>
ez z
kez el
ha s
ko m
vel e</w>
valam it</w>
m ilyen</w>
U ni
hozz á
törté nt</w>
k is
t ség
s ok</w>
ci ó</w>
j egy
H át</w>
tá s</w>
g g
t esz
termé k
sz e</w>
el ső</w>
on y</w>
é d
apos ;</w>
& apos;</w>
E n
ér ől</w>
á j
sz ár
ő ség
u gy
K i
rend szer
id e</w>
eg ész</w>
új t
a s</w>
N éz
r u
E U</w>
lé p
bet eg
n él
kö tel
bar át
in formá
vagy unk</w>
t í
an i</w>
e vé
mond ta</w>
ha t</w>
nek ed</w>
H é</w>
bizt on
té ny
h az
Sz óval</w>
ig en</w>
ás s
ek nek</w>
ál tal
mag a</w>
el jár
in g
ás ra</w>
é ko
K i</w>
ár t
K ér
eml ített</w>
i kai</w>
ki cs
Nagy on</w>
nál om</w>
t eh
4 .</w>
u sz
ellen őr
ö g
at ot</w>
vissz a</w>
M ag
as sz
ít ot
p ol
á l</w>
sz int
pr óbál
N incs</w>
l ő
k on
l am
Tud om</w>
al att</w>
ad ott</w>
r aj
szí n
ás ára</w>
ú t
M ár</w>
történ ő</w>
é p</w>
any ag
mi att</w>
közö tt</w>
í t</w>
ér tel
és ét</w>
nö k</w>
á m
szem ély
sz a
ma t</w>
vilá g
el em
nem zet
Á l
N os</w>
alap ján</w>
f o
és re</w>
ter ület
Mind en</w>
f ont
fiz et
ú z
és ére</w>
ig az</w>
í g</w>
leg es</w>
r eg
kö ny
v en
következ ő</w>
ös ség
k it
tart oz
ok nak</w>
t ől</w>
v ér
og r
t ok</w>
b ocs
N y
orszá g</w>
talál koz
d ul
ó ta</w>
h ár
fü gg
ő en</w>
é j
i d</w>
ko n</w>
et ében</w>
d ön
ál t</w>
já n
H L</w>
d á
M r</w>
sz ív
Tal án</w>
r ól
telj es</w>
l i
vég re
tű n
Tud od</w>
mi vel</w>
m el
p al</w>
szám ára</w>
ér int
informá ció
szolgál tat
b er
amely ek</w>
al ak
tud ja</w>
M ond
5 .</w>
ny il
meg y
cs op
I .</w>
gazda sági</w>
megállap od
I n
L át
mellék let
k ül</w>
l et</w>
f ek
fej ez
em el
6 .</w>
A d
kör ny
S aj
on l
ar t
M ert</w>
l ev
k és
ö n</w>
2 0</w>
ó gy
ér tem</w>
ó r
a ján
szer ep
. 1
k r
osz t
pi ac
S em
ok ra</w>
ek ben</w>
ség es</w>
sz ik</w>
z a</w>
s a</w>
szer int
p ont</w>
tud od</w>
össz e
v esz
ös en</w>
m ad
T an
j ó
kötel ez
u m</w>
j en</w>
végre hajt
Biz t
ó k
e it</w>
ható ság
mu n
Gyer ünk</w>
rendel et
cik ké
ek ed
es ég
megfel elő
el em</w>
mind en
k ett
egy ik</w>
and ó</w>
al ma
egy ed
F i
ök k
szer ző
kel lett</w>
Sz ia</w>
at a</w>
a gy</w>
pr ogr
é be</w>
k ív
7 .</w>
ej t
megfel elő</w>
ö t
á hoz</w>
c h
gya kor
há ny</w>
ol ó
el ég</w>
s on</w>
S Z
érdek ében</w>
sem mi</w>
né m</w>
Ho l</w>
l ak
t or
ítás a</w>
ez en</w>
köz el
egy es</w>
biz ott
l o
cs alá
lá ny
ció s</w>
kész ít
fel tétel
köl tség
bb i</w>
a hogy</w>
alá bb</w>
M eg</w>
id e
tú l</w>
at l
cs ökk
jel en
m oz
az ért</w>
v it
vol tam</w>
vel em</w>
ur am</w>
ít ó</w>
or v
tagállam ok</w>
e urópai</w>
ec h
ko s</w>
tu k</w>
Uni ó</w>
föl d
cik ke</w>
k at
b esz
é ny</w>
t it
egy é
s ér
g el</w>
h et</w>
A T
8 .</w>
r ég
in n
gy ógy
B r
P ar
a hol</w>
19 9
ö tt</w>
szer ű</w>
3 0</w>
j ek
jö v
év es</w>
s p
V ár
ás ának</w>
o f
ál l</w>
id ej
or s
t est
n ny
in ak</w>
együ tt</w>
f er
ok ban</w>
el v</w>
mond tam</w>
n ő</w>
nél kül</w>
s úl
i v
rend ben</w>
het ő</w>
ö v
eb ben</w>
kics it</w>
k eny
A r
m ely
for g
saj át</w>
Szer int
elő ír
ill i
bel ül</w>
s tr
ő s
Is ten
kér d
c í
b l
hat ály
el mi</w>
P er
ó ban</w>
vál aszt
legy en</w>
á ba</w>
h ol
szab ad
b ír
illet ve</w>
egy en
ben ne</w>
p en</w>
meghatároz ott</w>
k ev
ez ni</w>
N ek
ko s
más ik</w>
en er
f r
eng em</w>
ker ül
szár maz
u tat
á sz
külön b
sz et
el fogad
Szer et
hi v
em lé
ö s</w>
z és</w>
er re</w>
ez ért</w>
l el
zés t</w>
külön ösen</w>
ság ot</w>
vissz a
or t</w>
mény ek</w>
s d</w>
Tan á
na l</w>
és eket</w>
o ha</w>
é r</w>
ul t</w>
az on</w>
ú r</w>
h ad
n ünk</w>
cs ap
g ép
j ut
ember ek</w>
. .</w>
b ej
b r
ny ug
u ni
a ut
megfelelő en</w>
s ó</w>
J o
él y</w>
meg hal
súl y
i l</w>
v isz
N a</w>
mag át</w>
áss al</w>
Saj nálom</w>
koz tat
E U
követ el
pol it
has onl
enged ély
j ünk</w>
re p
érté kel
b an
gy il
jö t
ít ás</w>
ez et
ki r
v él
é m
irány elv</w>
eset ében</w>
val aki</w>
sz en
műkö d
H all
kér dés
sor án</w>
ma l</w>
ko ck
kel len
í v</w>
á d</w>
a sz</w>
hónap pal</w>
tekint ettel</w>
in g</w>
nagy obb</w>
akar ok</w>
fel használ
vá ny
n om</w>
old al
T ény
vál asz
kül d
len ül</w>
k l
om b
on d</w>
akar om</w>
t úl
d í
bizt os</w>
ag g
z et</w>
E m
év vel</w>
ő d
szükség es</w>
u c
es sz
f áj
Tény leg</w>
a h
1 2</w>
E r
E N
en nyi</w>
ás okat</w>
em be</w>
tal án</w>
d ig</w>
mé ny</w>
ab ban</w>
at os</w>
keres ked
i e</w>
evé keny
j é
ot tam</w>
s ik
n an</w>
ak ik</w>
taná csi</w>
5 0</w>
csalá d
ak ar</w>
pénz ügyi</w>
L e
ett ek</w>
akar sz</w>
nyi ben</w>
z al</w>
u nk
ez ek</w>
vel ed</w>
al á</w>
t ünk</w>
a i
d ok
l ő</w>
es te</w>
t evékeny
M aj
men t</w>
s el</w>
ő s</w>
tt i</w>
ü v
f egy
kellen e</w>
m úl
ny újt
ké ne</w>
sz ob
leg alább</w>
en nek</w>
E T
m ez
b aj</w>
foly am
R em
gyer ek
Í gy</w>
ö z
ség et</w>
gy árt
e inek</w>
ob ban</w>
já nak</w>
más od
ul ó</w>
kock áz
h át
Gyer e</w>
szer ű
Ez ért</w>
vis el
tö l
el ek
együ tt
h am
o v
rá m</w>
mind ent</w>
ered mény
Sem mi</w>
b íz
ny er
o mány
n eh
köz vet
e i
es t</w>
men ny
1 5</w>
ik a</w>
ít ó
az ok</w>
m os
mond ani</w>
Per sze</w>
e y</w>
id ő</w>
össz es</w>
f ed
fel é</w>
áll ó</w>
ez ett</w>
á ból</w>
kapcsolat os</w>
kív ül</w>
tel en</w>
an nyi
Ig az
P r
ég ed</w>
b ev
l ég
A L
cs at
min ket</w>
ho gyan</w>
dol og</w>
a na
isz t
9 .</w>
eh et
p él
C h
ő bb</w>
tekint etében</w>
v ed
O ly
b ű
F ran
har mad
z i
hi b
egyé b</w>
ít ja</w>
ci a</w>
ség ek</w>
n unk</w>
h ál
for r
ról a</w>
p ár</w>
egy etlen</w>
az tán</w>
per c
né hány</w>
műkö dés
nyil ván
áll am</w>
hoz atal
uni ós</w>
tí p
f in
és ének</w>
pr ob
k a</w>
társ a
ü r
sz ó</w>
z ett</w>
ó ra</w>
mun ka
tűn ik</w>
ja vas
szö v
ün tet
sem mit</w>
ó an</w>
m el</w>
ugy e</w>
egy ez
ess ék</w>
cikké nek</w>
ut ol
ver s
jö tt</w>
ten g
v á</w>
szö r</w>
köz össég
közö s</w>
et e</w>
kö nny
Mag a</w>
min t
prob lé
ar c
hozz á</w>
b án
sz ok
os em</w>
nemzet i</w>
tu l
ítás i</w>
at ban</w>
új ra</w>
leg jobb</w>
hár om</w>
H am
össz hang
F og
sz ül
1 1</w>
d on
m illi
cí m
k in
hely zet
é hez</w>
szerint i</w>
an t
l ás
V is
al a
szá z
. 2
A p
ál y</w>
meg öl
is ég
v er</w>
Taná cs</w>
Bizt os</w>
eset ben</w>
ad ó</w>
v ar
ten i</w>
n ed</w>
ó rá
p ill
összhang ban</w>
min d</w>
M ilyen</w>
ros sz</w>
es ek</w>
ak it</w>
érint ett</w>
telj esít
re hoz
Fi gyel
am en
csop ort
p ap
ko cs
já té
a it</w>
B o
A ny
meg y</w>
i p
ját ok</w>
hit tem</w>
v es</w>
ás ban</w>
for dul
mond ja</w>
harmad ik</w>
t ed</w>
határoz at</w>
rend szer</w>
vá g
u p
mell ett</w>
Néz d</w>
z ik</w>
eszél y
r em
f ran
vállal koz
tan ul
bocs át
len ni</w>
gy ors
akar tam</w>
t h
progr am
jel öl
f aj
termék ek</w>
megy ek</w>
f il
ol ni</w>
intézked ések</w>
szerző dés
hat ás
forg al
foly tat
v ő</w>
j ön
v íz
k am
vár os
EG K</w>
G ond
b al
tö tt</w>
l em
e bb
ker eszt
fel eség
E l</w>
ú t</w>
ul l
t éged</w>
má ny</w>
egy szer</w>
bizton ság
v é</w>
fo gy
Oly an</w>
é v</w>
p ort
vá m
já ból</w>
o x
d ob
t ech
bel e
rá g
S eg
nyi re</w>
közö tti</w>
tud ok</w>
.. ..
b i
atl an</w>
ar ról</w>
Maj d</w>
fen n
j obban</w>
in e</w>
am íg</w>
dön t
tény leg</w>
1 8</w>
eset én</w>
h id
V agy</w>
vol tak</w>
asz tal
eh et</w>
ő z
ten ni</w>
f ény
av ar
s ok
k ul
csökk ent
lét rehoz
az zal</w>
ó ri
j unk</w>
lá ny</w>
mond om</w>
ezz el</w>
gy ű
ko t</w>
sza va
j ell
tartal maz
tel ef
ko rá
Szerint em</w>
mag am</w>
et et</w>
ho ssz
t on</w>
r el</w>
p ár
el ér
m es
össz eg
s rá
fegy ver
V ég
h ú
l eszt
el s
bekezdés e</w>
font os</w>
ü d
D r
m et
as s
T er
kötelez ett
rep ül
Isten em</w>
tár gy
z ár
h ét
igaz gat
l ak</w>
szer vez
oló gi
é z</w>
közösség i</w>
tá jé
H ell
össz e</w>
k ár
né nk</w>
cs oda</w>
köny v
m ely</w>
é m</w>
J a</w>
köz i</w>
an sz
u tá
ic c
ép ít
ellenőr zés
orv os
bizony ít
em et</w>
nö k
sik er
Ál l
fér f
1 2
dá ul</w>
v eszély
end ő</w>
ter vez
ot ta</w>
n od</w>
S t
en cs
agg ód
ü t
ter j
d ar
u kat</w>
ko k</w>
m ár
sz ó
v eszt
E Z
hit el
hat ja</w>
ek en</w>
rend őr
cs er
tá v
n é</w>
t el</w>
tu m
ás áról</w>
ért ve</w>
mint ha</w>
d er
gya na
an d</w>
h er
termé szet
st en</w>
B e
os ság
vissz at
ed d</w>
d oz
fel elő
h ely</w>
V i
lé p</w>
hi ány
j av
Gond ol
ká bb</w>
lehet őség
s a
éj szak
ho r
k sz
N e
pr o
lehet ő
j ak</w>
ny it
ho n
kérd ez
in kább</w>
gyer m
kör ül
mag ad</w>
d ec
Ez ek</w>
megállapod ás</w>
egész ség
tu d</w>
p or
vé ve</w>
ér kez
aj don
tartoz ó</w>
ol l
kapcsolat ban</w>
ros sz
í r</w>
tová bb</w>
d a</w>
né zést</w>
fi gy
ett ed</w>
h ír
tud tam</w>
rész t</w>
ját sz
inn en</w>
ad al
I I.</w>
ugy an
m od
1 4</w>
ent i</w>
N é
ó i</w>
H agy
típ us
alma s</w>
sz t
fog ja</w>
elm ez
any ag</w>
á d
at al</w>
I sten</w>
ad ni</w>
ta p
is kol
á ta
A Z</w>
lát tam</w>
E T</w>
Ö r
ol vas
in k</w>
par t
bekezdés ének</w>
tájé koztat
0 0
z i</w>
B ár
k il
ut ó
lé vő</w>
ék en</w>
j am</w>
A mikor</w>
g al</w>
2 5</w>
ért ed</w>
t ett</w>
v egy
u men
az okat</w>
telj esen</w>
á ja</w>
T essék</w>
ít él
ül ök</w>
f él</w>
en ci
ítás áról</w>
kor lát
gondol tam</w>
e im</w>
ás ával</w>
b aj
ít ő</w>
vél emény
utol só</w>
ok é</w>
ik et</w>
Seg ít
j ára</w>
u b
e ur
tő l
R o
fi ck
fej leszt
is t
a y
h úz
c e</w>
Ér dek
valam ennyi</w>
r ak
s oha</w>
ek ről</w>
alkalmaz andó</w>
sz ig
E R
m ég
o koz
ha nem</w>
fél e</w>
El ő
hall gat
teh et
u t</w>
bizton sági</w>
meg talál
jó vá
é d</w>
mond an
U r
és sel</w>
h ir
1 6</w>
par an
l ó
ez eket</w>
L eg
em ben</w>
azon ban</w>
r ög
lá b
H ar
O h</w>
ad ó
hely zet</w>
tag állam</w>
F O
p olg
atal os</w>
b em
G Y
kész ül
sz or
at ív</w>
ter m
bekez dés</w>
mi előtt</w>
ül et</w>
r y</w>
b eny
j ú
ut y
sz o
aj t
es ebb</w>
szer vezet
Néz z
k ó
tul ajdon
ás ában</w>
B eszél
bizott sági</w>
jár mű
A m
cs o
O tt</w>
származ ó</w>
3 1</w>
ad atok</w>
esség ek</w>
ja nak</w>
él em</w>
n á</w>
hal ál
ta s
a inak</w>
iz ár
ö ző</w>
st er</w>
jóvá hagy
Par lam
on nan</w>
j enek</w>
aján l
Ö n</w>
dec ember</w>
gy áz
h át</w>
án os</w>
követ ően</w>
igaz án</w>
g ar
0 .</w>
men ni</w>
Á S
dö tt</w>
ot tak</w>
oz ott</w>
té t</w>
mind enki</w>
sz ar
ó ság</w>
l ap
lé ny
es ült</w>
Mi kor</w>
ítot ta</w>
menny iség
to r</w>
b át
1 3</w>
Vis sz
figyel embe</w>
ak ad
ül y
K ap
körny éken</w>
gyógy szer
jog i</w>
t egy
K ül
ú r
pél dául</w>
rész let
pont ja</w>
tovább i</w>
l is
üz let
El nézést</w>
l ep
ék es</w>
köz ben</w>
b ban</w>
tud juk</w>
ad d</w>
es k
200 6</w>
vol tál</w>
esz közö
á ció
vers eny
Bizott ság
d al
má d
teng er
f eh
h an
Nek em</w>
ö t</w>
Vár j</w>
ő r</w>
jel ent</w>
bekezdés ében</w>
or d
m p
O r
C ar
b old
hely ez
el ég
m ást</w>
idej e</w>
i us</w>
T eh
es s</w>
i tá
D e
s enki</w>
á k
id eg
í g
b ul
történ ik</w>
másod ik</w>
szá m</w>
o kon</w>
for d
i f
ter v
kép vis
El ég</w>
á gaz
Köz össég
ű r
szab ad</w>
0 00</w>
z el</w>
i on
m on
1 3
raj ta</w>
át l
k utat
be hozatal
és ben</w>
1 00</w>
akar od</w>
tá t</w>
meg old
W i
szín ű
M a
ás nak</w>
mód on</w>
f ar
kép es</w>
tö t
szám a</w>
B ocs
t ette</w>
szük ség</w>
s er
B ar
akar ja</w>
L ehet</w>
fel ügy
el tér
g et
f al
ind ul
férf i</w>
es ség</w>
Mind ig</w>
sz ép</w>
szer encs
n evé
beszél ni</w>
v icc
tö z
Ham ster</w>
x Hamster</w>
ma i</w>
kí sér
gy ar
ven ni</w>
mű vel
kapcsol ód
fog ok</w>
A D
polg ár
kí ván
t ük</w>
v ev
el ent
1 8
el l</w>
g ia</w>
ál ni</w>
M in
szer el
ny it</w>
kereszt ül</w>
csinál sz</w>
köz l
kép pen</w>
an u
ó n</w>
és éről</w>
n e
egy et
t ettem</w>
hal ász
gy an
ol y</w>
lesz ek</w>
kö szön
J ac
z el
ül i</w>
erő sít
k inek</w>
t y
kor mány
ir od
T el
ség i</w>
m érték
nek ünk</w>
2 4</w>
er ről</w>
telef on
ál doz
sz ak</w>
H oz
Men j</w>
k uty
pro jek
ta kar
s osem</w>
n c
in ter
M int</w>
ener gi
G r
ítás ára</w>
Dr .</w>
het i</w>
Teh át</w>
T o
K ir
e cs
tu r
nev e</w>
vizsgál at
Kér em</w>
s eb
Á R
tisz t
d al</w>
t on
b é
H iv
j el</w>
cs od
ség e</w>
j ebb</w>
Kér lek</w>
4 0</w>
é ve</w>
d r
I N
kö t
t ol
tu s</w>
tud ni</w>
mi re</w>
ah hoz</w>
t em
s en</w>
foglal koz
nö v
per c</w>
elm et</w>
Wi en</w>
k it</w>
eljár ás</w>
mond tad</w>
ell en</w>
mé ben</w>
ör ny
end ez
I d
tá vol
tisz tel
rá s</w>
c u
sz óval</w>
is s</w>
10 10</w>
jár t</w>
Érdek ességek</w>
kér em</w>
egy et</w>
1 7</w>
tech n
öl gy
ki egész
vég e</w>
t er</w>
s t</w>
a f
csop ort</w>
annyi ra</w>
ok ból</w>
al maz
há ny
om ba</w>
n os</w>
csinál ni</w>
oz ó</w>
la koz
ö m
ol ás</w>
ki vétel
m an</w>
egyed ül</w>
lát ni</w>
Az ért</w>
m ű</w>
200 7</w>
illet ékes</w>
s i
per sze</w>
os sz
En g
ig ény
cik k
ma gyar
har c
segít ség
P A
b ab
s incs</w>
any a</w>
jelent i</w>
ná m</w>
követel mény
fog om</w>
vilá g</w>
t il
O l
ember i</w>
gyerm ek
p ály
külön leges</w>
kés őbb</w>
nek ik</w>
jöt tem</w>
mez ő
jú ni
előír t</w>
bizony os</w>
tö n
í l
z avar
áll ít
ok ról</w>
2 2</w>
c ent
munk a</w>
elek tr
c ok</w>
neh éz</w>
vizsgál at</w>
seg g
saj nálom</w>
vég ez
s okat</w>
azon os
u gyana
Tud ja</w>
bele értve</w>
ad ja</w>
biztos ít
ás ár
ki fejez
rá d</w>
m g</w>
sz él
2 1</w>
milli ó</w>
irány elv
amen nyiben</w>
z ul
tesz i</w>
áll at
köz pont
vé r</w>
k izár
É p
M a</w>
T u
mag as
szerű en</w>
támogat ás</w>
om mal</w>
ás ához</w>
vonatkoz óan</w>
dok umen
ansz ír
ér vény
m ot
ki bocsát
sá k</w>
ter h
bel i</w>
ná nk</w>
bel e</w>
Ny ug
Jo h
h üly
á cs
N em
í ta
szabály ok</w>
té t
d rág
val a
l át</w>
lát ogat
ho n</w>
s al</w>
ap a</w>
ez ő</w>
dol l
el nök</w>
i ak
200 9</w>
ó ja</w>
En nek</w>
r ab
Hell ó</w>
pén zt</w>
Az tán</w>
és éhez</w>
ki ad
fin anszír
szá n
ag os</w>
sz eg
T ö
eg nap</w>
anyag ok</w>
taná cs
val l
sz i</w>
É S</w>
sz or</w>
hat om</w>
hasonl ó</w>
z on</w>
ell át
ü ket</w>
ú g
gyil kos
sz ép
ké t
Egy esült</w>
szeret ném</w>
nemzet közi</w>
tö k
ér d
fel jebb</w>
ker ül</w>
mé t</w>
E g
ó nak</w>
szerep lő</w>
Mi csoda</w>
amely et</w>
f l
1 7
m m</w>
in cs
E K
tö meg
en z
es ül
igaz i</w>
s okkal</w>
hoz ott</w>
má j
ta b
nap on</w>
értel mében</w>
piac i</w>
több i</w>
cs al
idő szak
assz ony</w>
hatóság ok</w>
különb öző</w>
sz om
jog os
ható ság</w>
b u
reg g
het ek</w>
fi ú
j anu
o w
mód szer
magyar áz
júni us</w>
termé k</w>
ep t
o mat</w>
rész e</w>
össz et
ol t
ny ör
Ur am</w>
d et
tű nt</w>
ért esít
fi ú</w>
b elő
jár ul
K ar
ké ny
köl cs
t ün
K om
in ni</w>
g as
Figyel j</w>
gyors an</w>
cso mag
p oz
be cs
tám ad
z ák</w>
ú gy
nev ez
ő k
os abb</w>
É K
ü sz
Ü d
rendelkez és
b asz
A men
fel ejt
szen ved
el eg
meg bíz
t es
í z</w>
visszat ér
több et</w>
szava z
pill an
ak i
é nt</w>
S p
1 6
vég re</w>
K er
tá bl
Em lé
1 5
ked vez
uta z
j úl
dí j
m e</w>
pont jában</w>
közvet lenül</w>
há bor
ber endez
fek tet
em ény</w>
v id
1 9</w>
áll ás
k ór
fog sz</w>
tal an
or g
s en
Val ami</w>
el i</w>
m íg</w>
vá ny</w>
ál ó</w>
rög z
által ános</w>
fogy aszt
ha ver</w>
á ciós</w>
sz ület
e x</w>
iz mu
J éz
rendelkez ésre</w>
in a</w>
beny újt
O T
A N
fel adat
lehető vé</w>
gy ö
vég zett</w>
változ tat
n ok</w>
Parlam ent</w>
S h
ad ag
által án</w>
száz al
z en
2 3</w>
tevékeny ség
200 8</w>
ik e</w>
ár is</w>
sz ed
érz em</w>
tud sz</w>
s or</w>
mellék let</w>
néz z
fáj l
kö szönöm</w>
üz en
par lam
szeret nék</w>
hat ok</w>
j atok</w>
ól ag</w>
ér ez
há z</w>
O Z
janu ár</w>
és ével</w>
am p
200 4</w>
hossz ú</w>
kett en</w>
paran cs
C har
talál ható</w>
ta t</w>
T A</w>
ológi ai</w>
ok ol
hat nak</w>
vé ny</w>
végrehajt ási</w>
csat lakoz
haz a</w>
f ur
keresked elmi</w>
t ób
ú l</w>
problé má
él el
l op
ab ba</w>
f u
Amen nyiben</w>
K ét</w>
kép zel
m et</w>
r ag
él vez
né z</w>
át ól</w>
vé n</w>
költség vet
fenn tart
O K</w>
ull ad
ek hez</w>
ni ük</w>
n or
j ek</w>
é tek</w>
megy ünk</w>
mag ának</w>
H at
H al
követ ő</w>
tartal m
á g
leg nagyobb</w>
H a
érdek el</w>
g ond</w>
finanszír oz
már ci
S É
állam i</w>
né p
szem pont
elő ször</w>
a y</w>
on g
es ég</w>
élel mi
bej elent
ít eni</w>
tal ak</w>
1 4
ét ől</w>
ép p</w>
ak inek</w>
al om</w>
Tal ál
o bb
ak r
E d
tel en
bű n
ak ár</w>
kér lek</w>
á ig</w>
progr am</w>
j etek</w>
júl ius</w>
S ok</w>
l ab
fel ül
om ra</w>
e j</w>
ed dig</w>
tar ta
á b
H add</w>
H ol
tárgy al
lás d</w>
hely i</w>
E uróp
ni uk</w>
növ eked
EU R</w>
határoz at
k ont
kir ály
uta s
f ut
M r
cs or
j ét</w>
ság a</w>
ország ban</w>
ér te</w>
éko ny
ok tób
E ur
gy e</w>
v ek</w>
a h</w>
s ö
egészség ügyi</w>
irány uló</w>
cs ú
mag ad
véd elmi</w>
tovább á</w>
200 5</w>
rég i</w>
tap asztal
k kal</w>
fel dolgoz
Mind enki</w>
kötelezett ség
g l
B el
at tól</w>
társa ság</w>
in jek
hál óz
ez ár
Mond d</w>
já val</w>
képvis elő
hó nap</w>
kocs i
öl d
alkalmaz ni</w>
ker etében</w>
v end
tan ú
V isz
i um
A hogy</w>
egy más
vé t</w>
lev el
S Á
tí v</w>
ó kat</w>
meg elő
ala cs
szolgál ó</w>
v es
ker ült</w>
at osan</w>
en y</w>
v ett</w>
X X
k ur
p usz
het etlen</w>
R os
dolg ot</w>
EU R
min őség
alk ot
nyújt ott</w>
n er
á gy
od a
v ásár
lehet séges</w>
Rem élem</w>
h en
il is</w>
színű leg</w>
jelent ős</w>
szöv eg</w>
emlé kez
hozzá fér
kap ott</w>
2 .
m an
T r
reg gel</w>
ci ális</w>
cs a</w>
p as
kat on
ok hoz</w>
m ög
va d
azon nal</w>
u j
p an
köz ül</w>
Is mer
K at
ic k</w>
oz ni</w>
ir ől</w>
n el</w>
információ k</w>
D an
á ció</w>
o c
oszt ály
ít és</w>
repül ő
ün ket</w>
lát om</w>
meg int</w>
men j</w>
al ud
pap ír
for m
h u
len nie</w>
hal ad
jöv ő
alá bbi</w>
k ód
érték esít
Ho gyan</w>
Sz ép</w>
leg feljebb</w>
sz inté
márci us</w>
b ben</w>
r al</w>
mező gazdasági</w>
i par
kivétel ével</w>
polit ikai</w>
szám ít</w>
K Ö
Ö ssz
kat eg
d ő</w>
Sz áll
á ny</w>
vá n</w>
N agy</w>
ny új
B A
3 .
iz z
s ért
él et</w>
á kat</w>
bel ső</w>
ör ök
le ír
S enki</w>
vizsgál ati</w>
hat sz</w>
g r
be fektet
ak at</w>
kezel és</w>
Mind en
át ok</w>
szer ez
több é</w>
K í
felügy el
I I</w>
S A</w>
i b
foglal t</w>
un kat</w>
érté k</w>
et ben</w>
ter mel
ös ség</w>
s e
l ó</w>
ma s</w>
társ adal
ex port
ó v
ítás t</w>
h ét</w>
parlam enti</w>
öl cs
d u
Kö sz</w>
E s
6 0</w>
est er</w>
még is</w>
H onnan</w>
ház as
kész ült</w>
ná d</w>
Mi vel</w>
októb er</w>
né gy</w>
hall ottam</w>
ut c
r it
pont osan</w>
Mr s</w>
Pr óbál
A R
fo koz
b o
p at
ko ra</w>
já r</w>
amely eket</w>
já ték</w>
r é
szö vet
m is
2 8</w>
7 5</w>
d nem</w>
bekezdés ben</w>
meg próbál
n ov
ü gy</w>
intézked éseket</w>
mond ott</w>
j jön</w>
mérték ben</w>
sz ex
j t
cél jából</w>
l an
Á L
A mi</w>
at ra</w>
fej lő
ho va</w>
vagy tok</w>
haz ud
gy őz
K or
fick ó</w>
r ö
ítás át</w>
r ek
iz ál
módos ított</w>
es et</w>
Men jünk</w>
mag am
emlé ksz
i on</w>
mag as</w>
mond od</w>
ny elv
fi am</w>
es ély
is ten
hat ékony
bizott ság</w>
omány os</w>
Ap a</w>
4 .
il l</w>
2 6</w>
fel hív
kép esség
fog nak</w>
szer kez
Any a</w>
hatály ba</w>
201 3</w>
vezet ő</w>
von al
beszél sz</w>
S oha</w>
H ív
ar ány
fer tő
es nek</w>
éko t</w>
ab b
vala ha</w>
j ai</w>
8 0</w>
akad ály
szem ély</w>
O L
B I
hely ébe</w>
hat juk</w>
gyer e</w>
ü nk
sz ept
szám ol
os z</w>
tar tani</w>
t esz</w>
EL L
tö k</w>
fér j
A mer
vé sz
hely et</w>
korlát oz
at ég
kö v
elv esz
U gyan</w>
mond d</w>
eg et
moz g
állap ot
ki alak
im ális</w>
EG T</w>
v öz
sz ell
er j
szabály oz
kapcsolód ó</w>
t üntet
b ör
megállap ított</w>
esz köz
k ban</w>
Szer ző
körny ezet
nyil atkoz
dolg okat</w>
jell em
b ér
természet es</w>
P ont
köny v</w>
Hiv atalos</w>
kötelez ő</w>
né d</w>
ös sz</w>
kr it
szem ben</w>
Vissz a</w>
szinté n</w>
besz él</w>
ság ok</w>
hir det
d ő
ho vá</w>
sz örny
is z</w>
ció t</w>
megfel el
kockáz at
tör vény
g ép</w>
o más</w>
ép pen</w>
rég i
200 3</w>
elő re</w>
T úl</w>
hal ott</w>
Val ó
h ű
feltétel ek</w>
EUR Ó
is ta</w>
múl va</w>
Ter mé
vissz aj
egy ek</w>
szo ba</w>
hat ók</w>
javas lat
sz aki</w>
jell eg
polit ik
PA I</w>
ó ba</w>
használ t</w>
kit ű
.... ....
H ár
nap ot</w>
bet eg</w>
ki véve</w>
n et
va csor
ked ves</w>
L ap
h ő
ess en</w>
il ag</w>
tar t</w>
in ál
Kül ön
2 7</w>
m ész</w>
tök élet
hozzá járul
sz ek
pén z</w>
o u
in c
ol ja</w>
9 0</w>
EURÓ PAI</w>
árt y
üz emel
ad t</w>
idő t</w>
pr of
0 6</w>
sz é
úl t</w>
s ek</w>
R eg
f ű
ma s
ás hoz</w>
engedély ez
foly ik</w>
i re</w>
tagállam ban</w>
ed et</w>
á ját</w>
M ás
tt ünk</w>
intézked és
am er
fér fi
hol nap</w>
2 9</w>
Val aki</w>
ké z
str atég
m át</w>
R e
rendelet e</w>
j ap
Kom olyan</w>
en ni</w>
kölcs ön
D i
bár mely</w>
ember t</w>
üz em
1 .
ett ünk</w>
segít eni</w>
S Z</w>
jelent és</w>
visel ked
ter em
nél kül
zés e</w>
G e
en s</w>
Á t
atl an
K ez
val akit</w>
bar áta
hat unk</w>
elő áll
c ba</w>
hiv atkoz
es ed
eszközö k</w>
Tel j
i j
r et
dolg ok</w>
zs ar
fed ez
ás a
p o
Mar ad
ko ny
v ill
ap ám</w>
ö sz
ő i</w>
F or
ás os</w>
működ ik</w>
k ész</w>
t ál
Er re</w>
á z</w>
FO G
él ni</w>
meg ment
meghal t</w>
nap i</w>
m ed
h ö
á pr
barát om</w>
hat od</w>
0 1</w>
tő le</w>
f esz
A ha</w>
u sz</w>
el ni</w>
et len
ház ban</w>
üv eg
szer elm
Az on
i um</w>
kér dés</w>
tábl áz
r and
ki fizet
rendelkez ő</w>
mar ad</w>
k ra</w>
sz ól</w>
jegy z
szükség e</w>
nyör ű</w>
t e
gyakor lat
len y
o f</w>
nyi ra</w>
le y</w>
gondol om</w>
út on</w>
K r
assz ony
To vá
- -</w>
ás on</w>
fü r
bem utat
m y</w>
szept ember</w>
C I
ü m
tal an</w>
tel ep
et ték</w>
tet szik</w>
nö vel
iak ban</w>
üzemel tet
köz ép
z ó</w>
Ér tem</w>
amely nek</w>
né v
j ék</w>
zés i</w>
fel sor
szerint em</w>
Ez en</w>
T art
b uk
V olt</w>
öt let
idő szak</w>
g áz
ha l</w>
b ur
vel ünk</w>
ál is
sz i
beszél get
F ő
ít va</w>
egy ség
Rem ek</w>
ek nél</w>
tel ek</w>
ítot ták</w>
fil m
nov ember</w>
Ö n
szöv eg
terület én</w>
ü ssz
vég én</w>
z a
lesz el</w>
0 8</w>
H az
l a</w>
fog unk</w>
d o
e in
vé tel</w>
en c
l an</w>
Egy é
i mád
ké p</w>
T ör
tat ok</w>
201 1</w>
alá bb
gaz d
t egnap</w>
l ej
kis ebb</w>
Ál lam
ék ony</w>
felelő s
ot ták</w>
ő je</w>
ad dig</w>
em mel</w>
ár ul
EN D
cs ill
korá bban</w>
Mi c
b őr
cikk ben</w>
het nek</w>
mi at
ár am
aján lat
na i</w>
u tal
om ban</w>
jelent kez
való s
melléklet ben</w>
sz al
szó ra
7 0</w>
rész éről</w>
vet kez
szak asz
Pont osan</w>
d él
M iss</w>
el kezd
jön ni</w>
0 ,
év ben</w>
r ész</w>
m ély
leg utó
áll t</w>
marad t</w>
v íz</w>
t an</w>
kon cent
meg erősít
alap vet
egy általán</w>
i ai</w>
bold og
köz z
ily et</w>
k nak</w>
ás ú</w>
S e
a im</w>
ok a</w>
ik us
itá ny</w>
f ő</w>
hozz ám</w>
r om
m ond</w>
P a
tat iszt
ko p
am int</w>
hely en</w>
201 6</w>
össze függ
men ek
Ép p</w>
os kod
h ölgy
máj us</w>
B ír
k üz
hagy ni</w>
k al
el nö
srá cok</w>
elő ny
r ejt
ett ük</w>
b es
akar t</w>
e im
közl eked
tud ják</w>
B an
I S
tel t</w>
é br
í rás</w>
elm e</w>
tá r</w>
el ben</w>
gondol sz</w>
H i
kateg óri
ek ből</w>
munk át</w>
ro bb
p ir
d el</w>
hö z</w>
éj jel</w>
csin ál</w>
ker et
cs elek
j obb
emel ked
S i
SÉ G
kö z</w>
szerződés re</w>
is mert</w>
találkoz unk</w>
meg kap
a c</w>
egy mást</w>
rend ez
ápr ilis</w>
n ti</w>
E bben</w>
u ház
egyed i</w>
ás ról</w>
gy or
év i</w>
O N
ság ban</w>
é ből</w>
I ly
eny ém</w>
vi d</w>
tud ta</w>
l ik</w>
lev eg
T h
ö l</w>
z ott</w>
g on
felelő s</w>
ország ok</w>
Ne w</w>
tá nc
Joh n</w>
haj ó</w>
szolgáltat ások</w>
it t
et eg</w>
lény eg
0 5</w>
E N</w>
gyer ek</w>
ho gy
1 ,
fer enci
Köz össég</w>
amp ;</w>
& amp;</w>
K ész
zés ek</w>
ter v</w>
5 .
vel ük</w>
p ó
jap án</w>
S osem</w>
An nyira</w>
eb ru
alkalmaz ott</w>
vez et</w>
BI Z
Kir ály
fi atal</w>
li e</w>
át alak
öl d</w>
vi gyáz
ak ció
meg sz
men nyire</w>
E M
ül és
igaz ol
ellen i</w>
íg ér
ad ta</w>
föld i</w>
á ért</w>
feh ér
th e</w>
talál tam</w>
beteg ek</w>
tartalmaz ó</w>
S c
alkalmaz ása</w>
mag án
FOG AD
M ás</w>
köz el</w>
né nek</w>
p al
ti kai</w>
hid r
gyil kos</w>
r el
melléklet ében</w>
mely ik</w>
gondol kod
be foly
Tu be</w>
EL FOGAD
F r
Br üssz
meg lep
lét ez
incs enek</w>
rá n
ny íl
EZ T</w>
vár os</w>
bev ezet
els ő
men nem</w>
Ar ra</w>
H ely
szükség em</w>
hon nan</w>
b ir
nyug od
201 0</w>
ál ok</w>
T isz
tart óz
I z
Sz ám
ELFOGAD TA</w>
at át</w>
on g</w>
fek ete</w>
teh át</w>
á bb</w>
dar ab
jár mű</w>
ebb ől</w>
öl t
súly os</w>
Termé szet
part ner
hiv atal
dokumen tum
Sz ük
Szerint ed</w>
Jac k</w>
fáj dal
jegy ző
fi a</w>
lá k</w>
Ü gy
it al
at okat</w>
tovább ra</w>
szám ú</w>
tovább iakban</w>
új abb</w>
egy értel
Elő ször</w>
f ot
hét en</w>
E S</w>
kom olyan</w>
b ol
M ár
öl ni</w>
s ír
gy üm
L a
s uk</w>
belő le</w>
tű z
rendelkez ik</w>
től em</w>
aján d
P et
fel ek</w>
201 4</w>
ár t</w>
idő ben</w>
esk üv
szán d
ma x
éd es
sz ő
L e</w>
Ör ülök</w>
ily es
O R
té r</w>
néz d</w>
os e</w>
l at</w>
ig len
cikké ben</w>
6 .
személy es</w>
U gye</w>
Vi gyáz
R ég
együtt működés
f ebru
ó d</w>
k g</w>
k árty
gy eng
ó s
ap ja</w>
melléklet ének</w>
f a</w>
ro had
ul t
és hez</w>
ké n</w>
kó d</w>
kir ály</w>
an t</w>
l ás</w>
L i
B en
al at
siker ült</w>
mű szaki</w>
k e
t iz
ham ar
egy szerű</w>
cs ó
pont ban</w>
r at
ó ság
és nek</w>
hat ják</w>
B er
ki szám
M ég
b in
kér ek</w>
Emlé ksz
ana t</w>
nő k</w>
J obb</w>
0 7</w>
információ kat</w>
R á
kin y
ítás ához</w>
bát y
3 4</w>
C l
elő bb</w>
nap pal</w>
OT T
halász ati</w>
eml ít
fog od</w>
n o
Mind ent</w>
egy re</w>
test vér
t ej
ör eg</w>
ci p
i ak</w>
M ELL
rész ére</w>
sz emb
Nézz e</w>
hang zik</w>
erő s</w>
e in</w>
vá r</w>
het em</w>
tu m</w>
kit erj
tart ó</w>
kül ön</w>
R ic
b üntet
ist en</w>
á na
L u
által ában</w>
MELL ÉK
élet ben</w>
K elt</w>
s o
201 2</w>
200 0</w>
ok tat
an e</w>
sz ék
kul cs
ar d</w>
l ek
fi atal
M A
öt let</w>
sz ol
f eny
tartoz ik</w>
fran cia</w>
B ár</w>
Nem zet
szint e</w>
száll od
É S
nö vény
forr ás
feh ér</w>
barát nő
problé ma</w>
t ;</w>
Í r
El nök</w>
mag ában</w>
G ar
áll at</w>
ni kai</w>
Mond tam</w>
visz ony
élelmi szer
köl y
t ó</w>
ó n
ener gia</w>
orv os</w>
pr ób
mi után</w>
hat almaz
L ET</w>
s ug
C o
r on
l i</w>
érz ék
él ő</w>
OTT SÁ
rész ét</w>
ad tam</w>
4 5</w>
faj ta</w>
s ar
ide iglen
BIZ OTTSÁ
M int
kizár ólag</w>
at tal</w>
má n</w>
fel vétel
tisz ta</w>
beszél ek</w>
k kor</w>
kev er
hisz ed</w>
ol aj
g a</w>
3 5</w>
Nek ed</w>
kom oly</w>
bör tön
l em</w>
cél ja</w>
ent e</w>
kül ső</w>
V .</w>
gy akr
csod ál
R aj
Brüssz elben</w>
kiegész ítő</w>
tá bor
szám ító
szint en</w>
v irá
ár u
J ö
Áll j</w>
n ep
H av
j össz</w>
tag ja</w>
vál t</w>
ű n
D av
het ünk</w>
kom p
d óz
R END
hely ett</w>
r ej
ion ális</w>
mér s
vicc es</w>
Cs inál
be fejez
rendel ettel</w>
s tab
es ett</w>
it ől</w>
p p
ked v
behozatal i</w>
vev ő</w>
P i
egy ség</w>
rendelet ben</w>
néz ni</w>
cs om
An g
min isz
meg jelen
részlet es</w>
jöt tél</w>
központ i</w>
M c
veszély es</w>
dolgoz ni</w>
b ő
ru há
esz köz</w>
ő nek</w>
ána t</w>
Sz ab
szeret em</w>
min ős
folytat ott</w>
tart ott</w>
f ül
közel ebb</w>
kap tam</w>
Ú j</w>
d ik</w>
poz í
febru ár</w>
ás ba</w>
köz ep
forgal omba</w>
és ében</w>
Ő k</w>
S ar
mi ről</w>
bizt osan</w>
lo va
érz és</w>
v ettem</w>
fő nök</w>
J aj</w>
hal t</w>
p ad
MELLÉK LET</w>
enged ély</w>
ess e</w>
sp e
g ör
Ú r</w>
mot or
elm últ</w>
é nek
adat okat</w>
ug r
lesz nek</w>
Ig az</w>
a b</w>
sor ban</w>
pl .</w>
Kö szi</w>
meg van</w>
v ette</w>
ár d</w>
tá z
ez er</w>
aki vel</w>
ü h
ic a</w>
típus ú</w>
ül ni</w>
f ej</w>
kam er
hat atlan</w>
szá j</w>
ember eket</w>
h é
ma sz
b i</w>
szervez et</w>
é kel
lét esít
s h
kl in
Ch r
200 2</w>
Üd v</w>
alapvet ő</w>
né gy
tartalm az</w>
vend ég
b ék
vol tunk</w>
kett ő</w>
I II.</w>
E D
200 6.</w>
hüly e</w>
kedvez mény
elmez tet
hoz ni</w>
d or
kev esebb</w>
szerző dés</w>
F él
m ester</w>
ei vel</w>
eh hez</w>
re c
V ál
M os
el hagy
rá z
d em
H er
információ t</w>
utá na</w>
rendszer ek</w>
Mint ha</w>
ered eti</w>
akar ta</w>
19 8
Visz lát</w>
a ug
Mi ről</w>
F oly
jelöl t</w>
bár milyen</w>
nevé ben</w>
valam ely</w>
éko k</w>
gond oskod
aggód j</w>
Hagy d</w>
c ég
N ém
it ek</w>
intéz mény
200 1</w>
M on
Mic ha
k u
Lát od</w>
jelent ést</w>
un g</w>
font osabb</w>
rendelet re</w>
szab b
G az
t et</w>
har ag
vár j</w>
I I
cs aj
o mány</w>
nő t</w>
s ul
k ért</w>
kör ül</w>
gyárt ó</w>
né ha</w>
tet ték</w>
N Y
l öv
dö mp
Tö bb</w>
nk ább</w>
het sz</w>
K ép
Ad d</w>
basz ott</w>
ül és</w>
á nál</w>
Kö szön
l él
dolgoz ik</w>
is ég</w>
f asz</w>
terj ed
bold og</w>
bekezdés ére</w>
seg ít</w>
o z</w>
szám os</w>
o ko
fr is
hely ett
mag uk
ki der
m ob
b áz
ellen es</w>
in gy
hiv atalos</w>
valam i
d e
f ár
H AT
nök ség</w>
od at</w>
ad ás</w>
s ük</w>
Köz társaság</w>
ad i
ott hon</w>
Sz ív
r ó
kezd emény
meg valós
an él
mér g
ny a</w>
ci a
len nék</w>
támogat ási</w>
Y or
szig et
ol ó</w>
b ár</w>
k kel</w>
h y
KÖ Z
k át</w>
rossz abb</w>
f agy
magas abb</w>
m l</w>
v ide
öl töz
leg esen</w>
Szeret ném</w>
visz ont</w>
N ap
ber uház
Hár om</w>
fog ják</w>
cu kor
kív üli</w>
vizsgál atok</w>
á mat</w>
módos ítás
tet ek</w>
A le
tud unk</w>
el kap
i ek</w>
Mi re</w>
Bizottság nak</w>
el ismer
n er</w>
g u
E S
meg lát
szóra koz
leg i</w>
krit ér
srá c</w>
kép ez
év ig</w>
H an
200 7.</w>
rögz ít
F el</w>
d ug
nyilván tart
3 3</w>
Szerző dés</w>
an nyi</w>
tö n</w>
ny ol
3 2</w>
t in
érté ke</w>
ar any
i ban</w>
követel mények</w>
S am</w>
használ ni</w>
eszt ő</w>
am a</w>
kö tő
J ul
egész ében</w>
sz ét
t üz
2 9
ké k</w>
élet em</w>
Ez zel</w>
vá gy
személy ek</w>
í tan
jöv ök</w>
fiú k</w>
be vétel
sz ót</w>
REND EL
is mé
esség et</w>
erő s
d isz
ek től</w>
cél kitű
I nkább</w>
kész en</w>
ka p</w>
tet tél</w>
nagy szerű</w>
nevé t</w>
áz s
szép en</w>
c a</w>
l er
igaz ság
meg figyel
vesz i</w>
min ő
4 3</w>
könny ű</w>
at y
egyet em
át or</w>
Az ok</w>
ás okra</w>
mond ják</w>
mes ter
du pl
szint ű</w>
felsor olt</w>
Természet esen</w>
ak ik
vonatkoz ik</w>
m él
hat ékony</w>
ít ják</w>
p u
jelen leg</w>
any ám</w>
nap ja</w>
p ana
gyüm ölcs
om at
An d
ép ület
d ó</w>
s am</w>
hisz i</w>
áll nak</w>
kur va</w>
ás om</w>
lá m
küz d
ci on
üzlet i</w>
L egy
ért i</w>
polit ika</w>
nyom oz
fel el
legutó bb</w>
módos ításáról</w>
f á
f unk
e ink</w>
het jük</w>
Eg ész</w>
ré vén</w>
Meg van</w>
gyű l
L en
V er
fel szerel
or r
őr ült</w>
Hol nap</w>
kö tött</w>
sz .</w>
j og</w>
ön nek</w>
us t</w>
hasz n
jelen legi</w>
alá ír
em i
Hall ó</w>
informá ció</w>
elő t
jut ott</w>
elektr on
200 9.</w>
ett ől</w>
áll ni</w>
é nk</w>
k ál
BA R</w>
mag ával</w>
l ass
ül t
ter ület</w>
h ul
D o
hely es</w>
kett ő
Ak ar
l and
et lenül</w>
ami re</w>
ö ket</w>
7 .
való színűleg</w>
õ l</w>
befoly ás
ok ba</w>
EK B</w>
3 6</w>
h ullad
hív ják</w>
ód ik</w>
J er
Eng ed
4 8</w>
Bo cs</w>
hely e</w>
tökélet es</w>
kér elmez
el kerül
kormány z
megállap ításáról</w>
ezz e</w>
gyö nyörű</w>
melléklet e</w>
emléksz em</w>
maj dnem</w>
R ob
Lap jában</w>
biztos ítása</w>
uta sít
haj ó
f asz
sz éd
n egyed
et es</w>
ech an
mérs ék
energi a
gondol od</w>
irány mutat
hat almas</w>
z öld
alap uló</w>
ün nep
gyerek ek</w>
való jában</w>
fel nő
ság gal</w>
cs up
szak ért
kí nál
akar nak</w>
é h
k an
e id
költség ek</w>
következ tet
lét re</w>
- -
gyer ünk</w>
körny ez
20 0</w>
ad at</w>
c eg
tt el</w>
ügy ben</w>
bár mi</w>
el vég
va r</w>
ellen ére</w>
tt ól</w>
ho m
2 5
forg ó</w>
jel en</w>
őd ik</w>
El len
ezz ük</w>
b a
való ban</w>
l áss
f a
fog juk</w>
c k</w>
áll atok</w>
ítás ának</w>
zet es</w>
té ved
ör eg
ac h
ben nem</w>
ú ti</w>
támogat ást</w>
es emény
amer ikai</w>
9 6</w>
tu s
csökk en
hatály a</w>
egy ik
os od
M agy
H ot
sz op
tech nikai</w>
já ba</w>
gy al
Leg alább</w>
C on
ett a</w>
I mád
izmu s</w>
bel ép
N or
lehet ett</w>
kom mun
jut tat
pill anat</w>
bel üli</w>
egy séges</w>
regg elt</w>
közvet len</w>
mag ukat</w>
10 .</w>
k et
v élet
év re</w>
össz ek
ér tek</w>
ügy nök</w>
an g</w>
egy szerűen</w>
200 8.</w>
sz em</w>
oly g
u n</w>
át or
sem mi
ról am</w>
különb öz
iz ált</w>
ál kod
Kez d
uta t</w>
K és
il i
ki vit
Ily en</w>
ér ett</w>
rem ek</w>
ny ak
k ik</w>
e id</w>
sz óban</w>
csalá d</w>
ideiglen es</w>
id i
an nál</w>
Ném et
en s
töt tem</w>
perc et</w>
0 2</w>
kí nai</w>
fel lép
ej e</w>
f on
am at
mög ött</w>
men jünk</w>
- os</w>
i ra</w>
S o
A S</w>
szervezet ek</w>
idő pont
tá ban</w>
ajt ót</w>
c h</w>
ki áll
sz int</w>
us om</w>
sok áig</w>
é ka
D a
aug usz
da sági</w>
Jéz us</w>
mel l</w>
bű nö
lég i</w>
l and</w>
meg beszél
akadály oz
ál om</w>
r ev
FO R
mé ter
csinál tam</w>
meg ismer
s ő
ipar i</w>
ör ülök</w>
körül mények</w>
szabály okat</w>
A .</w>
dö g
rá ny
gyan ú
ágaz at</w>
ki hirdet
it r
úgy hogy</w>
áta d
ki választ
ez és</w>
Európ a</w>
at ul
á p
elv eszt
át men
ség gel</w>
Lát tam</w>
hat nánk</w>
igazgat ási</w>
ür g
rö vid</w>
lehető ség</w>
t o</w>
c uc
kap itány</w>
Igaz án</w>
vez ér
200 5.</w>
vég ül</w>
il eg</w>
Sem mit</w>
korá bbi</w>
9 5</w>
ít ható</w>
f ent</w>
r ed
int eg
í p
ami ért</w>
nev em</w>
b á
0 4</w>
érkez ett</w>
meg jegy
intézked és</w>
töl t
szám ított</w>
en e</w>
ered et
tatiszt ika</w>
bár mit</w>
sor oz
os ság</w>
N A
drág ám</w>
L ehet
szen ny
reg ionális</w>
at om</w>
ké nek</w>
gyakr an</w>
j én</w>
rendelkez ések</w>
pály áz
F l
b ként</w>
s ár
2 ,
p ort</w>
irá nti</w>
i .</w>
Hell o</w>
en cia</w>
Nagy szerű</w>
pi ac</w>
g é</w>
kon zul
ék et</w>
mér et
szell em
á tás</w>
1 1.</w>
vállalkoz ások</w>
néz el</w>
tesz em</w>
K ed
ot ta
y t</w>
ellenőr iz
működ ő</w>
ad ás
műkö dés</w>
számító gép
elfogad ott</w>
ig h
nor m
C S
el ek</w>
té k
ic e</w>
hat ások</w>
ak tív</w>
i gy
9 1</w>
Micha el</w>
ős en</w>
egész en</w>
virá g
figy elmeztet
gondol ja</w>
fran cba</w>
os ak</w>
fen e</w>
ot tad</w>
B e</w>
m echan
szer v
dömp ing
lel k
h in
lát ta</w>
cs ont
kér e</w>
cs el
határoz ata</w>
h í
V agy
Q u
b é</w>
en d</w>
fel hatalmaz
lé gy</w>
sz il
sem mis
ör ös</w>
tem pl
org e</w>
igaz ság</w>
f enti</w>
ad om</w>
of t
fejleszt ési</w>
om os</w>
M oz
vonatkoz ásában</w>
techn ológi
W al
ter n
z ött</w>
kép et</w>
Né hány</w>
ki csi</w>
ott ho
Telj esen</w>
és ről</w>
rendőr ség</w>
terület en</w>
az az</w>
V el
lesz ünk</w>
term elő
öv id
el é</w>
elő ző</w>
D ok
J am
a p</w>
sz ic
M o
élet et</w>
Í T
benyújt ott</w>
mind annyi
dö n</w>
in zul
alacs ony
an a</w>
al e</w>
város ban</w>
múl t</w>
ny úl
el mé
ol ta</w>
la p</w>
ei re</w>
lis tá
XX X</w>
fél ék</w>
ap ád</w>
ít sd</w>
let ek</w>
meg nyit
ok tól</w>
szerkez et
egyez tet
ság át</w>
0 3</w>
hatás kör
A mit</w>
Né ha</w>
i val</w>
at h
gy hogy</w>
ód i</w>
dr og
bej egy
Még is</w>
im port
tár ol
o u</w>
str uk
té ve</w>
ho s
öl te</w>
tud ományos</w>
egy szer
B u
teljesít mény
Gy ors
ne vet
m at
mag uk</w>
szá nt</w>
it h</w>
bes or
l in
Ho vá</w>
tervez ett</w>
het ik</w>
201 7</w>
Ál tal
ot ok</w>
Bizott ságot</w>
Bocs ánat</w>
figyel j</w>
m er</w>
ális an</w>
eltér ő</w>
l er</w>
illet ően</w>
ít ése</w>
használ at
jellem ző
T i</w>
éjszak a</w>
Száll ás</w>
tur ális</w>
től ed</w>
tí z</w>
é tel
T XXX</w>
mond ták</w>
kér elm
U gyan
fel tüntet
jön nek</w>
an nyit</w>
élet ét</w>
h inni</w>
rendel t</w>
el ment</w>
ur al
időszak ban</w>
meg változ
ment es</w>
ek ént</w>
köl töz
et és</w>
él t</w>
Ü l
r ál
m ehet
k emény
kor i</w>
s é</w>
ná nak</w>
a .</w>
fog va</w>
alk at
ez ő
cik l
g en</w>
u ra</w>
Ki cs
het nénk</w>
P at
ók nak</w>
i r</w>
külön ös</w>
kor mány</w>
ér zés
koncent rá
meg közel
199 9</w>
kép visel
áll ítani</w>
Szük ség
3 7</w>
N E
k nek</w>
9 .
Szeret lek</w>
j ének</w>
en nyire</w>
pan zi
hely re</w>
ked ven
tör vény</w>
tr ansz
l ezár
lá mp
Char lie</w>
eng eteg</w>
oldal on</w>
fek üd
ás ai</w>
tö nk
En nyi</w>
augusz tus</w>
ítot tam</w>
leg több</w>
g oly
tartalmaz za</w>
mel eg
r ég</w>
moz dul
ügy véd
H en
mi közben</w>
Hoz z
9 8</w>
né v</w>
é ig</w>
201 5</w>
tit eket</w>
kev és
OZ AT
cs ő
F EL
C ol
9 2</w>
er ő</w>
tartóz kod
d üh
és ű</w>
e ik</w>
meg őr
szab vány
emlé k
vég et</w>
mely ek</w>
ur aim</w>
A ttól</w>
Fog d</w>
ad ok</w>
lehetőség et</w>
B old
nö kö
Ú r
l ob
Gaz dasági</w>
S tatisztika</w>
or ú</w>
r ém
tenger i</w>
V il
1 3.</w>
létrehoz ó</w>
ide ig</w>
het ő
be szer
ban k
f f
moz d
3 5
át ri
ed ben</w>
ely ik</w>
R ész
p en
el ve</w>
ismer em</w>
had d</w>
201 1.</w>
0 9</w>
b ú
b ent</w>
al ko
0 .
4 2</w>
föl d</w>
határoz atot</w>
il y</w>
É let
i mu
pana sz
csap at</w>
in f
robb an
kór ház
al ak</w>
üv eg</w>
B I</w>
Már mint</w>
sz im
Mind járt</w>
SZ ER
nap ján</w>
Ú j
ol aj</w>
átl agos</w>
el tűnt</w>
szállod ák</w>
hónap ban</w>
íta nak</w>
fur csa</w>
talál t</w>
rész esed
A b
ett en</w>
i ó</w>
M ike</w>
z unk</w>
tá n
s tat
ot tál</w>
rossz ul</w>
ac e</w>
Taná cs
elektron ikus</w>
ru ház
doll ár</w>
elő fordul
B et
meg enged
1 2.</w>
ben n
alma s
tu l</w>
k y</w>
Min d</w>
feleség e</w>
200 4.</w>
ac it
ár uk</w>
eset leg</w>
E L</w>
c e
U N
on i</w>
orvos i</w>
C as
vállal at</w>
ör ül
ony ol
es ik</w>
lab or
több ek</w>
va n
gyor s</w>
kény szer
g ra
F ej
jár ól</w>
pr e
vil lák</w>
ir ól</w>
ki igaz
s ej
Gondol om</w>
lehet ne</w>
óz tat
font osság
b üsz
jár ó</w>
om p
alacs ony</w>
sz ul
ösz tön
Tö bb
fejlő dés
kép est</w>
ind ok
n incsenek</w>
ó m</w>
zs ír
M ad
Talál koz
op er
4 7</w>
sz ál
T et
j em</w>
va dá
társadal mi</w>
projek t</w>
mond ok</w>
M ű
kommun ik
idő tarta
p ot
alkal ommal</w>
n ok
ak tu
c i</w>
ít sa</w>
té ny</w>
gyű jt
ny omás</w>
ód ott</w>
201 3.</w>
t ó
hónap ja</w>
ki baszott</w>
besz éd
rá k</w>
kö n</w>
Egyé b</w>
ít i</w>
R y
ész re
201 0.</w>
essz ük</w>
em re</w>
igaz at</w>
any ja</w>
sem milyen</w>
V egy
klin ikai</w>
g er
Cs od
d ig
n al
Ho va</w>
hár om
á pi
M er
kép p</w>
ter én</w>
St ev
old al</w>
3 9</w>
l el</w>
érték ek</w>
B al
költségvet ési</w>
Emléksz el</w>
rend es</w>
Fran cia
panzi ók</w>
Vagy is</w>
ság ra</w>
szabad ul
kom bin
terem t
P én
javas olt</w>
köz é</w>
uj j
d es
T É
g e</w>
u ális</w>
ás z</w>
Ge orge</w>
n t
2 8
ná k</w>
Al ap
T om</w>
sa nak</w>
lány t</w>
kö d
lát szik</w>
am iket</w>
sz oft
201 4.</w>
b .</w>
illet i</w>
következ ő
ü tt</w>
mob il
M al
9 3</w>
ami n</w>
szo ciális</w>
at ion</w>
for gat
vállalkoz ás</w>
Kö vetkez
isz tikai</w>
be hoz
összet ev
mel eg</w>
Val óban</w>
igaz a</w>
c ol
t in</w>
P ont</w>
k emény</w>
el ad
tábláz at</w>
dol og
lát ható</w>
tet ett</w>
6 5</w>
össz esen</w>
könny en</w>
pél d
tevékeny ségek</w>
C O
Ő r
amat őr</w>
Jö jjön</w>
ment em</w>
hagy d</w>
ak ti
f est
Ö S
Üd vöz
hív ott</w>
re ferenci
sz el</w>
iz g
A nnak</w>
ker es</w>
száll ít
kap acit
hal ál</w>
u r</w>
beteg ség</w>
kritér ium
mondan om</w>
gy ő
szer ek</w>
megfel el</w>
b olyg
vég ig</w>
lány ok</w>
rá nk</w>
kevés bé</w>
j u
vissza von
fel eség</w>
án s</w>
érdek es</w>
él tem</w>
z z
s ó
szám ot</w>
meg mutat
É l
eljár ások</w>
fen ébe</w>
vá d
minő sít
ció k</w>
fegyver t</w>
ö cs
köz e</w>
4 9</w>
J el
r or
éjszak ára</w>
té tel</w>
szükség ünk</w>
ás oknak</w>
ily en
forr ások</w>
i kat</w>
am bul
i o</w>
201 2.</w>
ten y
világ on</w>
rá di
tö m
ség ben</w>
áll omány
pusz t
dupl a</w>
ítás ok</w>
ki mutat
hagy ja</w>
ö g</w>
szempont jából</w>
J os
Mond ja</w>
üzen etet</w>
p szic
csap at
gazd álkod
RENDEL ET
l u
biztonság os</w>
koz ott</w>
anél kül</w>
h ig
A bb
ak e</w>
talál ni</w>
gar an
t ett
vé d</w>
M A</w>
mi k
Tud tam</w>
cs end
beszél t</w>
s tan
S u
nyom tat
tú ra</w>
s ék</w>
C la
á nk</w>
sz el
b on
b onyol
us s
össz eh
ú sz
alma m</w>
Jo e</w>
É L
F ar
bár ki</w>
kérdés t</w>
el és</w>
is t</w>
má nak</w>
fil m</w>
re ag
dolgoz ott</w>
as tr
meg vizsgál
beszél ünk</w>
értel me</w>
szeret lek</w>
Dav id</w>
szív em</w>
dönt és
Eng em</w>
H ál
össze hasonl
ma g</w>
S a
RENDELET ET</w>
hir telen</w>
Marad j</w>
Közösség et</w>
mi n</w>
piac on</w>
jármű vek</w>
Sz em
srá c
ká ny
Men nyi</w>
ellenőr zés</w>
oly an
tanul mány
meg véd
ap r
jöv ed
nélkül i</w>
múl t
I R
sá t</w>
szeret ne</w>
formá jában</w>
z u
E R</w>
visszatér ít
hő mérsék
csup án</w>
meg néz
a nak</w>
3 8</w>
ő dött</w>
el nek</w>
tud ott</w>
é ért</w>
játé kok</w>
élvez és</w>
Állam ok</w>
tesz ik</w>
táv ol</w>
D on
val ódi</w>
tart ja</w>
ko csi</w>
it ív</w>
men jen</w>
ügy fel
Fran k</w>
vál ó</w>
ács ony
K is
B ud
ás okkal</w>
ott an</w>
ap csol
nyom ozó</w>
működés éről</w>
el intéz
érez tem</w>
m il
igazgat ó</w>
éd es</w>
r ez
kiegész ít
r emény
T a
meg ért
M an
en ce</w>
Jéz usom</w>
mond jam</w>
H aj
rendszer t</w>
va k
e a</w>
A G
csodál atos</w>
z at</w>
be áll
együtt működés</w>
19 7
üsz öm</w>
ó f
meg ad
feny eget
Király ság</w>
ör öm
lá n
T egy
Á r
meg szer
ellenőrzés i</w>
4 6</w>
ké tség
Sz ól
b ossz
zet ek</w>
fel ett</w>
m or
os nak</w>
kapcsol at</w>
gy el</w>
bő v
val ahol</w>
S im
es ked
h é</w>
ű g
V annak</w>
M u
tel e</w>
egyértel mű
P edig</w>
t edd</w>
B ur
szom széd
H as
mond tál</w>
á nt</w>
ak ár
gyógy szer</w>
eset ekben</w>
ac k</w>
talan ul</w>
új ra
Bír óság</w>
5 5</w>
egy szerű
E F
pó t
neh ez
ab ból</w>
csel eked
asz kod
amely ben</w>
tá tok</w>
D N
8 .
v ír
v ehet
tet és</w>
pre ambul
terj eszt
max imális</w>
az oknak</w>
In dul
H e
T ar
biztos ítási</w>
Raj ta</w>
Vigyáz z</w>
könyv et</w>
jöt tek</w>
A M
ügy et</w>
ítás ra</w>
csat or
ko ord
Á S</w>
lehet ő</w>
ol tam</w>
idő sza
válasz t</w>
r övid
t ás
2 6
hagy ta</w>
fl u
f an
segítség ével</w>
b and
el készít
ala p</w>
vadá sz
va k</w>
áll ok</w>
let i</w>
kül dött</w>
K ell</w>
A mint</w>
preambul um
J en
munka vállal
alat ti</w>
szolgáltat ás</w>
H asz
l ott</w>
társa ság
saj át
5 00</w>
jogos ult
B ri
játé k
T el</w>
ség ét</w>
I S</w>
módos ul</w>
K ev
kon kr
het ők</w>
Köszön jük</w>
ta bl
gond ol</w>
am at</w>
csinál d</w>
kez elt</w>
egész et</w>
Egy szer</w>
I L
el i
hely szí
százal ék
ny ag
tud nak</w>
eng er
ar d
Meg próbál
Pet er</w>
játsz ani</w>
minden kinek</w>
tart ok</w>
barát ja</w>
up er</w>
cik kére</w>
ti éd</w>
hozzá d</w>
foglal koztat
má ban</w>
aut ó</w>
mód szer</w>
rész vény
sz ar</w>
feleség em</w>
áll om
nő vér
I de</w>
kész ített</w>
kezdemény ez
ak ént</w>
té ben</w>
S tr
raj z
Egy ed
N eh
M egyek</w>
O M
hábor ú</w>
ot tunk</w>
nál am</w>
f ok
jö jjön</w>
fü g
fiz ikai</w>
jog ok</w>
ta g</w>
hall ani</w>
4 4</w>
Nyug i</w>
it y</w>
l áz
- át</w>
kér elem</w>
j ut</w>
hozz a</w>
on e</w>
kam at
G A</w>
meg változtat
Való színűleg</w>
Bizt on
hely ek</w>
ami vel</w>
meg keres
szok ásos</w>
át alá
azon os</w>
kép ek</w>
.. ..</w>
meg hallgat
bé kén</w>
a szá
any uk
helyzet ben</w>
K ell
in fr
kuty a</w>
at on</w>
rész vétel
szület ett</w>
s ét
or it
ját ól</w>
ja it</w>
leg fontosabb</w>
taná cs</w>
rá n</w>
időszak ra</w>
hábor ú
hib áz
figy elm
es tét</w>
elektr omos</w>
n eg
meg egyez
S er
B ro
b ont
k ár</w>
I r
hoz tam</w>
ül ő</w>
mi óta</w>
táv ú</w>
on a</w>
h ír</w>
hat al
M at
ang ol
al i
s ürg
sz ün
d ur
legy ek</w>
O S</w>
ké mi
kit al
ád at</w>
értel mez
Az on</w>
dob oz
k ő
alacsony abb</w>
assz a</w>
fel ej
ek kora</w>
jog szabály
GY Ó
készít mény</w>
s í
szak asz</w>
Ny il
éko s</w>
szab ály</w>
ismer i</w>
eb éd
gy ár
bev on
ház at</w>
lehet nek</w>
K ész</w>
ben z
S ch
mag ára</w>
b olt
GYÓ GY
M EG
össz eg</w>
is mét</w>
i ka
jármű v
dem ok
S A
kés ő
szob ában</w>
1 4.</w>
eg et</w>
l gen</w>
ki e</w>
ör ög
haj ók</w>
j ót</w>
B .</w>
természet esen</w>
c ell
seb esség
A ty
B en</w>
érdek elt</w>
létez ik</w>
Eg ész
szörny ű</w>
a u
következő képpen</w>
hú g
i ós</w>
alud ni</w>
Azon nal</w>
g áz</w>
öv ök</w>
en nél</w>
tün etek</w>
p os
lő t
ter ror
áll sz</w>
P él
gyil kol
észre vétel
l az
z aj
K A
alkalmaz ásában</w>
G u
2 7
s üt
meg tekint
ma cs
L o
érz i</w>
túl él
men et
art óztat
Ol asz
Hat óság</w>
p ul
fel ső</w>
ö vet
és en</w>
het ed</w>
gondol ok</w>
vál ik</w>
gazda ság
bar om
csinál t</w>
stab il
di e</w>
teh er
T ök
áll ás</w>
bán t
3 00</w>
gyű r
B A</w>
füg g</w>
tabl etta</w>
ha m</w>
tá ma
z ak
ása kor</w>
o kos</w>
válasz ol
nev ű</w>
gya s</w>
j ú</w>
w eb
hoz ta</w>
érté ket</w>
ki fog
c in
b er</w>
U gyana
fájl t</w>
lény eg</w>
sz ék</w>
er ült</w>
ébr ed
sz úr
katon ai</w>
kel lem
lej ár
G o
program ok</w>
né met</w>
hely ekre</w>
csom ó</w>
ké m</w>
K o
ide értve</w>
al d
sz én
más ok</w>
biztos ítani</w>
lá nc
elő zetes</w>
vál asz</w>
Bizt osan</w>
al ig</w>
Le j</w>
érd em
Biz ony
áll unk</w>
z ó
felügyel eti</w>
esít ett</w>
tet sz
szeret i</w>
Joh n
min tá
any ol
astr uk
tem et
Igaz ából</w>
H oll
Hot el</w>
viz et</w>
e iket</w>
ítot tak</w>
ai val</w>
beteg ségek</w>
Mi után</w>
M es
kez d</w>
hos szabb
szí v</w>
ol d</w>
var ázs
vi gy
T ár
fed él
százal ék</w>
Néz z</w>
átalá ny
F er
an k
.2 .
g omb
doll ár
9 9</w>
Ban k</w>
rem élem</w>
függ etlen</w>
mind két</w>
kel et
bal ép
iv at
sug ár
stratég i
E C
Cl ar
élet e</w>
átmen eti</w>
ed ik</w>
engedély ezett</w>
T egnap</w>
nap ig</w>
SZ Á
ki vel</w>
beszél tem</w>
lány om</w>
s i</w>
találkoz tunk</w>
od ra</w>
asszony om</w>
z sá
t ev
r o</w>
ké zi
keres el</w>
besz ám
neh éz
injek ciós</w>
köly ök</w>
ál m
tas sa</w>
any ád</w>
bocs án
ar an
4 1</w>
Vég ül</w>
ő ben</w>
köz t</w>
ki hív
Jam es</w>
tet ni</w>
véd elem</w>
vesz em</w>
ügy nök
termék ekre</w>
hat ás</w>
alap ú</w>
T edd</w>
av atkoz
rendelet et</w>
be ad
et eket</w>
ny ert</w>
vizsgál atot</w>
tény leges</w>
Legy en</w>
szé gy
köz ön
at óri
pi hen
üd vöz
ár ak</w>
h egy
v esz</w>
W o
átl ag
hat ással</w>
g en
A h
csinál ja</w>
típ us</w>
ecs k
Egy et
p okol
meg lévő</w>
er ej
tart ási</w>
EG Y
Gyors an</w>
sz av
........ ........
legy enek</w>
ész re</w>
hamar osan</w>
el felejt
m ód</w>
T om
at e</w>
SÉG EK</w>
ek be</w>
sz ór
mér leg
K on
b ezár
ható sági</w>
el képzel
un d
hagy om</w>
csomag ol
barát ok</w>
rá ció</w>
föl dön</w>
ess é</w>
ta nak</w>
es e</w>
éj t</w>
hat ása</w>
men nyi</w>
pont ot</w>
6 8</w>
érz ed</w>
h e
gas s</w>
C or
nek tek</w>
e iről</w>
u gyan</w>
ír t</w>
intéz mények</w>
alkal mas</w>
is e</w>
mű sor
működés i</w>
Char l
g ener
szeret né</w>
harag ud
Igaz ad</w>
Vár jon</w>
atul álok</w>
Amer ikai</w>
eljár ást</w>
ról ad</w>
hagy tam</w>
szín ű</w>
összeg e</w>
tiszt vis
D á
elnö ke</w>
sa v</w>
L é
r úg
9 4</w>
vég leges</w>
pr op
L uc
t y</w>
y a</w>
g ás</w>
norm ális</w>
oldal án</w>
inter net
kö r</w>
év ek</w>
fen n</w>
utol jára</w>
gl ob
K K
D u
rá juk</w>
hú s
ör t</w>
rohad t</w>
het ett</w>
össze áll
idő s</w>
el rendelt</w>
ugyan az</w>
ell op
keres ek</w>
c o</w>
ek or</w>
H úz
sz ag
szer et</w>
f ém
S ha
j étől</w>
fog al
kötelezettség vállal
ad ag</w>
onl ine</w>
Német ország</w>
jegyz ék
rész ben</w>
áll andó</w>
fu var
ál ja</w>
HAT ÁR
od ak
or ú
gya r</w>
É R
F BI</w>
infr astruk
Magy ar
cí m</w>
t est</w>
aut omat
eb be</w>
cuc c
ed re</w>
L is
pont jának</w>
ár tat
at er
konzul tá
ma gyar</w>
Meg öl
ben ned</w>
Ü L
d in
H ölgy
od ik</w>
jelleg ű</w>
Való jában</w>
A ki</w>
jöv ő</w>
ár on</w>
mes sze</w>
vers eny</w>
2 .1
B or
érint ő</w>
oló gia</w>
P or
201 5.</w>
ta sd</w>
Th e</w>
aut ó
rész esül
órá n</w>
áldoz at</w>
vég ső</w>
Sz ent</w>
meg adott</w>
jogos ult</w>
s ose</w>
usz tr
vagy is</w>
spe ci
gyű j
tulajdon os
Bold og</w>
en ként</w>
ett i</w>
Szeret nék</w>
taná ban</w>
id at</w>
vezet ő
c er
k m</w>
tu g
f áz
BIZOTTSÁ G</w>
egyen l
akar ják</w>
n ey</w>
meg ér
kés ő</w>
ál mod
menek ül
biztonság ban</w>
tiz en
élelmi szer</w>
S al
mutat ja</w>
Ak ár
szám át</w>
pr i
töt te</w>
szám lá
el nök
minden kit</w>
sz u
követelmény eknek</w>
esít ő</w>
ész eti</w>
t etted</w>
l al
meghatároz ása</w>
par kol
bek ö
elm es</w>
érvény es</w>
men nek</w>
Parlam ent
fel függ
gyakor i</w>
m ec
S am
szak aszá
P ro
v at
el õ
ikus an</w>
vá j
tény ez
érték ű</w>
ill y</w>
D ar
lát od</w>
ed ett</w>
i c</w>
F en
intéz mény</w>
lát ok</w>
z ni</w>
fedél zet
oz ás</w>
H u
berendez ések</w>
egész ül</w>
Lát om</w>
lát ott</w>
ÁS I</w>
min ta
V edd</w>
szenved ő</w>
v ir
1 5.</w>
z uk</w>
3 ,
I C
S ok
két szer</w>
faj ok</w>
ex ik
csó kol
el sz</w>
ség re</w>
l og
id d</w>
Yor k</w>
für dő
ok nál</w>
nö m</w>
rész ek</w>
kezel ésére</w>
s unk</w>
nev ezett</w>
ind ít
o vá
tat ni</w>
csinál om</w>
Vil ág
kér ni</w>
el tűn
el ej
P ár
Bocs i</w>
m ocs
és em</w>
j ei</w>
t ettek</w>
ír ni</w>
fesz ít
ír ásban</w>
val a</w>
T ér
hat nék</w>
tar tás</w>
pr ot
export áló</w>
et ét</w>
rész ében</w>
hé ttel</w>
őr iz
ta szt
ki von
t ük
Ang el
ember nek</w>
K N</w>
en es</w>
el enged
l t;</w>
& lt;</w>
forgal maz
Kés őbb</w>
Szer encs
it a</w>
to j
em p
T á
z ás</w>
ez d</w>
beteg eknél</w>
F in
9 7</w>
ell e</w>
használ ata</w>
néz ve</w>
n ett
elég gé</w>
elő segít
vill am
d on</w>
mely et</w>
szek r
Maj dnem</w>
elő írás</w>
5 8</w>
segít séget</w>
bizton ság</w>
on ta</w>
ev er
J im
5 1</w>
ók kal</w>
elő irány
Kics it</w>
teny ész
p aj
tör őd
szö k
l or
csill ag
kont r
m ak
h old
Ny om
D rág
Ha nem</w>
het ően</w>
Ny is
Mi óta</w>
marad ni</w>
tesz ek</w>
veszt eség
ru ha</w>
bab a</w>
rég en</w>
lát ja</w>
saj nál
8 5</w>
ki fej
P ol
D an</w>
fel mer
hatály on</w>
koord in
asz tr
kics im</w>
száz ad
T AR
módos ítani</w>
dar ab</w>
ol tak</w>
1 6.</w>
pont os
anyag ot</w>
H isz
ba ja</w>
jö ttünk</w>
fog ó</w>
sér ül
elő tti</w>
végrehajt ása</w>
Hasz nál
M il
- a</w>
B i
ás ból</w>
létrehoz ásáról</w>
szükség ed</w>
változ ás</w>
cser él
Am íg</w>
KÖZ ÖS
id éz
ter em</w>
es té
b új
folyam at</w>
egymás sal</w>
her ceg
in gat
K el
A t
kap ni</w>
ság ának</w>
következ mény
alak ul
használ ják</w>
dí j</w>
folyam atosan</w>
EN SZ</w>
T A
T ET
Kér d
k int</w>
Meg int</w>
c al</w>
nap ra</w>
eim et</w>
mond juk</w>
meg jelöl
tanú sít
bír ó</w>
tagállam oknak</w>
föld re</w>
al ól</w>
által i</w>
F ek
H A
tá gyas</w>
Hall ottam</w>
meg hív
vállal at
N o
foglalkoz ó</w>
hang súly
Hen ry</w>
or osz</w>
U L
raj zi</w>
Nyug od
p lat
us s</w>
szív esen</w>
ór ia</w>
p án
meg ind
w w
az után</w>
Kész en</w>
vev ő
kapcsolat ot</w>
hat ott</w>
tr an
L y
K ét
á jában</w>
alkalmaz ás</w>
m ul
ent em</w>
dolgoz om</w>
J ane</w>
lak ó
mód ja</w>
tegy e</w>
meghal adó</w>
al l</w>
itt hon</w>
i ában</w>
J on
biztos ított</w>
e I
eh etek</w>
szám omra</w>
haz ug
Ros sz</w>
sen kit</w>
o má
külön ben</w>
hisz en</w>
as h
fel ül</w>
C om
vár om</w>
ter ek</w>
ül dö
kép esek</w>
hát ra</w>
ké r</w>
3 75</w>
dóz is
utó bbi</w>
mod ell
rend kívül</w>
el mondani</w>
fel ület
szemb eni</w>
mű vész
V icc
P h
ja inak</w>
5 2</w>
rög tön</w>
hely szín
S y
Vis sza
gyárt ók</w>
győ ző
Ma x</w>
zés ére</w>
fr iss</w>
d i</w>
it ár
tit kos</w>
ká b
ker esz
öl gy</w>
p er</w>
fél ek</w>
ilyes mi</w>
hagy ott</w>
regg el
Dan ny</w>
cs ak
m am
áll ati</w>
vé l</w>
In d
s ü
haz a
el távol
an al
O S
ei ben</w>
J og
pont os</w>
tet ő</w>
áz ni</w>
5 4</w>
összefügg ésben</w>
ás d</w>
p of
N ic
fegy ver</w>
szá z</w>
megöl ni</w>
w o
alkalmaz ható</w>
G ra
ud var
bizonyít ék</w>
fá j</w>
any ol</w>
I D
jelent és
5 9</w>
is ták</w>
egyen súly
haj l
ó ról</w>
z em</w>
l as
jelent őség
F öld
Kap csol
201 6.</w>
S rá
ked vel
konkr ét</w>
kis lány</w>
néz tem</w>
szoft ver
egy ű
ö vezet
fontosság ú</w>
Gondol tam</w>
s on
O G
poz itív</w>
W il
le vél</w>
6 .1
jé tek</w>
út ján</w>
Em ber
ő re</w>
b y</w>
néz ek</w>
lég i
7 2</w>
tat ott</w>
Sar ah</w>
Vi gy
figy elmet</w>
gyilkos ság</w>
1 8.</w>
ul ás</w>
Ez eket</w>
szeret nél</w>
létrehoz ott</w>
terület ek</w>
ór át</w>
szer elem</w>
sz in
len nél</w>
kér te</w>
C r
Sz i
gyakor i
men nünk</w>
lép és</w>
érték papír
a ci
Egyed ül</w>
ké tágyas</w>
20 .</w>
hú s</w>
E x
ural kod
sz t</w>
formá ban</w>
Dok tor</w>
világ ot</w>
hat ást</w>
bor z
Pa ul</w>
U n
emb e
l ettem</w>
kér elmet</w>
nyúj t</w>
ill a</w>
szolgáltat ási</w>
as h</w>
bír óság</w>
k án</w>
család i</w>
ség nek</w>
rendelet nek</w>
cs uk
áll j</w>
la kos
g ér
zár va</w>
néz z</w>
es ő</w>
a kod
ó hoz</w>
Al k
hor d
nö d</w>
első sorban</w>
els őd
Er ről</w>
név en</w>
ment ek</w>
Tök élet
sö tét</w>
mag unkat</w>
K ur
1 7.</w>
út tal</w>
vit at
5 6</w>
ind okol
T űn
Neh éz</w>
let artóztat
meg kérdez
szem ét</w>
Srá cok</w>
ár u</w>
férfi ak</w>
szerep et</w>
jog szabályok</w>
s ebb</w>
2 4
meg különböz
ek ez
nagy i</w>
er s</w>
Ez en
lány a</w>
C hi
o x</w>
m on</w>
tartoz nak</w>
sz ű
össze egyeztet
érték eket</w>
szer ettem</w>
E J
meg semmis
n ed
AL K
het őség
biztos ítja</w>
Bár csak</w>
embe vétel
indok olt</w>
s an</w>
szak mai</w>
J obban</w>
Dan i
meghatároz ni</w>
idő re</w>
L ond
ak iket</w>
T V</w>
za nak</w>
megtekint ése</w>
cs ir
E B
r óz
határoz za</w>
báz is
Egy ütt</w>
cs ába</w>
egyen lő</w>
figyel embevétel
ság os</w>
ten nem</w>
akar unk</w>
fris sít
s ho
kezel ést</w>
Segít ség</w>
tevékeny ség</w>
Ú gyhogy</w>
milli árd</w>
y el</w>
ajánl ott</w>
í n
l öm</w>
kez ét</w>
eleg endő</w>
használ ja</w>
ki g</w>
gyakor olt</w>
ál d
i ba</w>
tart omány
ez te</w>
szól t</w>
vet ték</w>
fel e</w>
s c
gy újt
gas se</w>
eny h
alap rendelet</w>
10 00</w>
z atok</w>
teh etek</w>
bekezdés ével</w>
O d
ür es</w>
et il</w>
L ar
gra fi
tá pl
a in
fizet ni</w>
ek int
utá ni</w>
csinál od</w>
Mar y</w>
hi ba</w>
gon osz</w>
ön t</w>
hidr og
fizet ett</w>
ért ünk</w>
p og
Men nem</w>
lá m</w>
it ási</w>
at ár
ai ra</w>
mű v
kez elő
mind ketten</w>
b ál
emb ől</w>
ít ő
til t
szeg ény
T AN
M ac
fog almaz
Ale x</w>
neg atív</w>
ék talanul</w>
sz ét</w>
Tová bb
hiány zik</w>
c él</w>
szerkezet átalak
ott hon
ki elég
K ett
3 8
kutat ási</w>
z ett
19 .</w>
J a
von al</w>
el számol
irá nt</w>
áldoz at
KÖZÖS SÉGEK</w>
en i
g átl
behoz atal</w>
mu száj</w>
vállal atok</w>
Pél dául</w>
and óan</w>
3 .1
M el
A h</w>
érdek el
esz teni</w>
ít s</w>
takar mány
MA Z
min imális</w>
U S
ács ony</w>
fel mér
já hoz</w>
an ti
Ön nek</w>
b omb
g ab
hozatal i</w>
hid eg</w>
hálóz at</w>
ül nek</w>
Ö t</w>
Tová bbi</w>
cs án</w>
it or
H y
való ság</w>
emléksz el</w>
nny el</w>
ó z</w>
ás ért</w>
cím e</w>
szolg ál</w>
eleg et</w>
dolg om</w>
meg oszt
sen kinek</w>
h ur
am iről</w>
ad nak</w>
ít om</w>
mes él
De hogy
5 3</w>
sz tor
r ug
közep én</w>
hol tt
berendez és</w>
tart om</w>
g t;</w>
& gt;</w>
megsz üntet
K y
célkitű zés
v ére</w>
i an</w>
föld rajzi</w>
pillan atban</w>
gi e</w>
tit kár
B P</w>
fel téve</w>
pap ír</w>
nett ó</w>
A usztr
fel el</w>
ász ati</w>
iz s
szö g
ellenőr ző</w>
ko l</w>
k ü
k v
fagy aszt
kar ácsony
íta nia</w>
bet art
taszt ikus</w>
L ásd</w>
d y</w>
val ahogy</w>
ny al</w>
gondol koz
p isz
gép ek</w>
bar át</w>
állam polgár
ved d</w>
termé sz
o ka
ko m</w>
csoport ok</w>
f osz
un ok
igh t</w>
L or
B íz
ol j</w>
függ etlenül</w>
tekint eni</w>
2 1.</w>
vélemény ével</w>
tar if
en c</w>
K en
I T
szerencs ét</w>
Szeret em</w>
ar t</w>
csinál ok</w>
rendelkez éseket</w>
kit ett
határ idő
ész lel
Mi előtt</w>
re akció
ox id</w>
val akinek</w>
H áz
G i
fér je</w>
I V.</w>
kedven c</w>
következ tében</w>
szerep el</w>
akar juk</w>
Sp anyol
pol i
7 1</w>
történ et</w>
h em
le ány
b ot
k ból</w>
emi att</w>
p il
Gr atulálok</w>
N ál
k re</w>
vit eli</w>
ogr am
men ed
figyel emmel</w>
d ag
pr od
ab la
haszn os
ny t</w>
alkal om</w>
z öld</w>
élet ed</w>
Gy a
rak tár
meghatároz za</w>
DN S</w>
perc re</w>
elő mozd
s ejt
p iszt
mil f</w>
er ny
engedély t</w>
ör g
vissz ak
tisztel etben</w>
terh es</w>
doll árt</w>
felfügg eszt
c cs
kont ing
elér hető</w>
e p</w>
sz ent
kihirdet ését</w>
T ho
ked ves
csinál juk</w>
sp ort
f i</w>
forgal mi</w>
I II</w>
ac él
öl tö
vég ezni</w>
v ic
hagy ományos</w>
f ény</w>
kiterj eszt
rendelkez ésére</w>
p ak
ess enek</w>
Meg talál
más ol
mu s</w>
osz lop
lehet etlen</w>
h er</w>
Or osz
ál tam</w>
ugyana kkor</w>
mé ter</w>
bír ó
O T</w>
ő vel</w>
kis sé</w>
közleked ési</w>
csinál ta</w>
legy él</w>
ered mények</w>
iskol a</w>
V ic
környez eti</w>
r engeteg</w>
to x
c o
elő készít
kocs it</w>
szeret nénk</w>
marad j</w>
ár d
Ér ted</w>
raj tam</w>
Eur op
T i
előír ások</w>
csú cs
mi kr
Sz lo
od al
ló g
folyam atos</w>
- kal</w>
ör ös
L áss
projek t
való színű
min ta</w>
drág a</w>
pot enci
en ie</w>
Hav er</w>
ért ettem</w>
ajt ó</w>
va s</w>
ban k</w>
W illi
tan dó</w>
Egy általán</w>
het e</w>
egy más</w>
Ric har
5 7</w>
igaz ából</w>
vizsgál t</w>
Gy ö
tt ed</w>
elem ben</w>
S m
s ak</w>
nap onta</w>
fu ra</w>
közz é
minisz ter
t eszt
R ed
valam ilyen</w>
rész t
bir t
c ég</w>
d rá
egyértelmű en</w>
szám ok</w>
ír ta</w>
nyer eség
Par an
táma szt
kezel ési</w>
T úl
Kr isz
idi óta</w>
B ul
ad j</w>
grafi kon</w>
r ét
bekö vetkez
kar ban
ná ban</w>
ás ait</w>
tő ke</w>
ván dor
lé tr
aszt ok</w>
hat nám</w>
érz ékel
8 7</w>
különb ség</w>
egy ike</w>
ék ek</w>
szer t</w>
ü s
kér tem</w>
us i</w>
érté két</w>
pozí ció
ók ra</w>
meg hosszabb
esz em</w>
De hogy</w>
het nék</w>
feltétel eket</w>
e y
A l</w>
D ob
meg akadályoz
leg később</w>
er ek</w>
hat tam</w>
e ik
meg új
közel ében</w>
rendelkez nek</w>
B asz
já s</w>
mény t</w>
fájdal om</w>
Vég re</w>
gyer eket</w>
ál ás</w>
R ay</w>
ül tem</w>
nev et</w>
vé ben</w>
foglal ja</w>
befektet ési</w>
véd elm
é ki</w>
L ev
am in
ta x
hatály balép
H ány</w>
h ölgy</w>
e h</w>
Mind annyi
b al</w>
végre haj
ez red
ám ul
Francia ország</w>
szeg ény</w>
helyez ked
S en
telj esül
fel ed
stan dar
ol ták</w>
áll ítja</w>
2 3
jut ni</w>
Hi ány
érdek lő
k ond
T R
szá j
sá tok</w>
Ad dig</w>
ha ver
1 .1
J e
1 50</w>
nal i</w>
ír ja</w>
k er</w>
F eh
cs ek
bejelent ett</w>
6 6</w>
re ak
oly as
függ el
Egyé bként</w>
kötel es</w>
M elyik</w>
ki váló</w>
U tol
utá na
ellen e</w>
adó s
telen ül</w>
csökk ent</w>
at ában</w>
lá b</w>
következ ők</w>
kezd ődik</w>
men y
AL MAZ
N ick</w>
hát só</w>
al izál
b or</w>
D en
órá ja</w>
á jának</w>
Fel ejt
éjszak át</w>
hív ni</w>
em nek</w>
ó ce
véd ő
rögz ített</w>
igaz ad</w>
us ok</w>
K in
tud tad</w>
díj at</w>
tan tól</w>
előt te</w>
U SA</w>
Al ig</w>
6 7</w>
lass an</w>
ki dolgoz
Vég e</w>
baj od</w>
táv oz
férj em</w>
fenntart ható</w>
mindannyi an</w>
est i</w>
ít ette</w>
tag jai</w>
ellenőrzés e</w>
hib ám</w>
bul i</w>
M y
Ép pen</w>
ok mány
Ham ar
J ef
Fog almam</w>
ell yel</w>
Saj nos</w>
Ho gy
kev és</w>
f ak
Hav i</w>
Bud ap
ö d</w>
at ion
am inek</w>
nyom on</w>
besz éd</w>
k óz
bet ű
meghal ni</w>
kérelmez ő</w>
gazda g</w>
csinál tál</w>
k eszt
v i</w>
D olg
hen 375</w>
M inek</w>
v inni</w>
nyugod tan</w>
K EZ
ö tö
f ik
tet ési</w>
küld et
ók a</w>
év et</w>
A s
li p
b őr</w>
nézz ük</w>
BIZOTTSÁ GA</w>
gyerm ek</w>
J á
ang ol</w>
lél eg
hozzá nk</w>
7 .1
om nak</w>
esség e</w>
tú rá
elő l</w>
c hi
marad jon</w>
odak int</w>
w n</w>
gar ant
ser t
I V
tud ná</w>
S ik
C al
fer encia</w>
nyol c</w>
gazda ság</w>
feltétel ez
har is
át lát
h isz</w>
elér ni</w>
aszt ó</w>
l és</w>
kezel ése</w>
stat isztikai</w>
egy ünk</w>
köz igazgatási</w>
Fran cba</w>
eset re</w>
személy zet
nny al</w>
Lát tad</w>
B em
meg könny
akik nek</w>
prof essz
körül belül</w>
be avatkoz
P ár</w>
C ha
sp anyol</w>
él ek</w>
lak ás
utá n
8 9</w>
vonatkoz nak</w>
el cs
mérték ű</w>
et tél</w>
vár ható</w>
ser eg
st íl
r op
M or
hasz nos</w>
ol asz</w>
értékel ése</w>
mond asz</w>
oz ási</w>
együtt es</w>
új ság
an ál</w>
megöl te</w>
200 3.</w>
erő szak
világ os</w>
um ot</w>
szabad on</w>
L ou
d es</w>
re y</w>
el mét</w>
száll ítási</w>
ny ar
m 2</w>
idő m</w>
ország i</w>
polgár i</w>
vizsgál ata</w>
do hány
7 7</w>
am ilyen</w>
ideg en</w>
szakasz ban</w>
bát or
dok tor</w>
jegyző könyv</w>
alább is</w>
történ ni</w>
ká vét</w>
D el
U h</w>
tő k
sz ik
édes em</w>
tük r
cu kor</w>
Mind egy</w>
érd eml
ess ünk</w>
határoz atban</w>
fin om</w>
mi csoda</w>
ké ben</w>
Es k
hon lap
rand iz
m essz
k en
m al
ad ják</w>
támogat ások</w>
ár ny
Jim my</w>
a koz
l y</w>
glob ális</w>
rec ep
fizet ési</w>
ingy enes</w>
ember eknek</w>
tör zs
ver zi
erő feszít
marad ok</w>
fin om
EN G
U tál
é ta</w>
öl t</w>
s á</w>
kí n
zs id
el tem</w>
ő szinte</w>
S okkal</w>
sér ült</w>
ül j</w>
injek ció</w>
kötelezett ségek</w>
en is</w>
Men jen</w>
ag r
ás okról</w>
et il
esz embe</w>
K it</w>
értékel és</w>
Moz gás</w>
mind egy</w>
ri ban
rel e
Hely es</w>
er dő
szél es</w>
uk e</w>
Egy szerűen</w>
unk nak</w>
elv isz
F il
hív om</w>
jóváhagy ott</w>
tab let
s ch
ország okból</w>
at ú</w>
M ell
f es
alap ul</w>
termék eket</w>
za var</w>
üz let</w>
cselek v
ész rev
al tern
okoz ott</w>
t íz
l ig
Tet szik</w>
év en</w>
ap art
alkalmaz ását</w>
szület és
Stev e</w>
vezet ett</w>
ság nak</w>
nő tt</w>
zöld ség
Bo b</w>
Szív esen</w>
Nemzet közi</w>
kezel ni</w>
ford ul</w>
m b
hall om</w>
fok ú</w>
ód ó</w>
év ente</w>
nál a</w>
tesz nek</w>
meg sért
st b</w>
ko kat</w>
Fog lal
t int
ja s</w>
halad éktalanul</w>
véd ő</w>
ul nak</w>
Mu száj</w>
uk le
Haz ud
F él</w>
ígér em</w>
gyakor l
el követ
vé nyi</w>
próbál koz
in terj
M s</w>
vé nek</w>
lev él
tiszt esség
kötelezett ség</w>
mind járt</w>
ság osan</w>
it er
foly ton</w>
ál ta</w>
öt tem</w>
ten ek</w>
bej ár
or osz
sz ör
ön t
bal eset</w>
férf it</w>
találkoz tam</w>
Bel gi
uc k</w>
S ta
tisz táz
foly ó</w>
Lé gy</w>
ható an</w>
P al
H ű
ker ék
Által ános</w>
ká vé
ol ják</w>
Sz örny
isz ten
8 4</w>
T EL
ol nak</w>
8 2</w>
megállapod ások</w>
keresked elem</w>
A K
sö tét
gyógyszer ek</w>
f ecsk
képvis elő</w>
gyűr ű
környezet védelmi</w>
ki kötő
ég haj
J ó
segg be</w>
hely én</w>
kiad ások</w>
F ont
p or</w>
I gy
má sz
Ap ám</w>
z ek</w>
atlan ul</w>
fej ét</w>
barát od</w>
T y
R i
Sz ület
er gi
f ól
élet emben</w>
düh ös</w>
J as
ul tak</w>
as t</w>
kö t</w>
akar tál</w>
g n
szor os</w>
at nak</w>
ami ben</w>
behozatal ára</w>
cél ra</w>
sz ter
né k
lát tad</w>
szop ás</w>
Köz pont
hál ó
jövő ben</w>
I F
oszt ály</w>
r ok
létr ej
am ik</w>
má val</w>
ét kez
foly ad
kí vá
Fi gy
B ill</w>
terület eken</w>
szex uális</w>
csinál tad</w>
c om</w>
ac eb
garan ci
ék a</w>
ol cs
projek tek</w>
kockáz at</w>
Hamar osan</w>
hív nak</w>
gy om
j ég
közel ben</w>
ez ési</w>
kü szö
U tá
b usz
Emlé kez
min iszt
bur g
vissz am
kifejez etten</w>
vet ett</w>
készül ék</w>
ítás ával</w>
v in
adal éka
több iek</w>
ház i</w>
pr essz
Br av
n et</w>
világ ban</w>
Ügy nökség</w>
néz ett</w>
B a
egyértel mű</w>
tün et
él i</w>
mos tanában</w>
mag at
nyug díj
rag ad
eset leges</w>
szá g
h ull
ugyana zon</w>
val akivel</w>
é mi
vég ig
cs á
körül mény
büsz ke</w>
nő i</w>
H el
ás s</w>
Új ra</w>
termel ési</w>
ter ápi
ALK ALMAZ
ítás okat</w>
megold ás</w>
finanszíroz ási</w>
Rég i</w>
és ekre</w>
ét el</w>
r al
oldal ú</w>
azonos ító</w>
ag n
gyermek ek</w>
v t
előáll ított</w>
raj tad</w>
hul lám
öl tött</w>
ól agos</w>
H ossz
t essék</w>
dömping ellenes</w>
haragud j</w>
ás ainak</w>
Imád om</w>
ás uk</w>
kezd ve</w>
H orv
Gyer tek</w>
ind ul</w>
mond jak</w>
idő nk</w>
A ssz
f át</w>
dönt és</w>
ed del</w>
kl u
bocsán atot</w>
tönk ret
fenn álló</w>
6 1</w>
óri ási</w>
d en
ha sem</w>
sz űr
köv et</w>
sz omb
V aj
ás od</w>
is sz
egy idej
kezd ett</w>
ző en</w>
Ad j</w>
tud nám</w>
T ony</w>
C i
l al</w>
cél ú</w>
né mi</w>
ké vel</w>
cser e</w>
ország ból</w>
gy ullad
far ka
O li
K B</w>
bi o
tá kat</w>
us e</w>
J im</w>
B ab
A bban</w>
gyűl öl
igazgat ó
ség ének</w>
mod er
ki jelölt</w>
munk ál
való an</w>
m ért</w>
d en</w>
talál tak</w>
Í gér
n ó
i mat</w>
szekr ény
I M
ü tör
fel kel
m o
ha ny
cs aj</w>
tesz ed</w>
e e</w>
on ként</w>
el küld
adás ul</w>
használ ható</w>
es ben</w>
beszél g
kerül nek</w>
P A</w>
Has onl
k lat
állás foglal
megelő ző</w>
A ut
ab ol
leg ény
szem be</w>
is on</w>
alkal mas
Fran c
es d</w>
esély t</w>
menny iség</w>
megközel ít
en ünk</w>
Ó K</w>
a hogyan</w>
vegy e</w>
men tél</w>
ön ké
tömeg százalék</w>
té tek</w>
Úr isten</w>
200 2.</w>
mellék hatások</w>
vány t</w>
as t
T AL
7 8</w>
level et</w>
let et</w>
kam p
Sz övet
R A</w>
el oszt
oz za</w>
nem ű</w>
ENG ED
vesz ít
N an
szerző dő</w>
őr ök</w>
r ang
di cs
ad y</w>
T éged</w>
nyer s
lép ett</w>
kol lég
érzék eny
vé g</w>
szám l
201 8</w>
men klat
tr ük
kivit el
b ól
kérd ő
vé n
v örös</w>
alko hol
követelmény eket</w>
találkoz ni</w>
kör zet
tét lenül</w>
R om
hamar abb</w>
alkalmaz ásának</w>
mik ro
hagy juk</w>
D él</w>
s tá
irányelv nek</w>
7 3</w>
É des
t en</w>
egyszer re</w>
av ir
ás unk</w>
jel ek</w>
Har ry</w>
s u
és ekor</w>
és ből</w>
sá ban</w>
magad ra</w>
B l
ex port</w>
6 2</w>
M ik
szül in
Pén z
et h</w>
Ked ves</w>
ker ek
sz ap
ty ú
az óta</w>
t ex
állapot ban</w>
h um
i ás</w>
ÁS OK</w>
ér ek</w>
elsőd leges</w>
Mi féle</w>
megtalál ni</w>
eljár ási</w>
ENGED ÉL
ká ny</w>
nyíl t</w>
zs eb
T ur
kl assz
O N</w>
köl t
p e</w>
iz gat
Szükség em</w>
k ról</w>
had nagy</w>
hű tő
ri kai</w>
szom orú</w>
S ose</w>
tő ke
tanú s
kelet kez
jelen lé
gab on
ol ok</w>
ismer ed</w>
C R
fick ót</w>
vány ok</w>
szar t</w>
megállapod ást</w>
áz si
bár mikor</w>
t im
hely re
Olasz ország</w>
4 00</w>
H át
C S</w>
F I
ú ra</w>
ő l
dés e</w>
őr ül
nál ad</w>
p un
halál a</w>
nyit va</w>
ák kal</w>
közz ét
ű ek</w>
mechan izmu
meghatároz ására</w>
tr i
k hoz</w>
Tom my</w>
n ként</w>
Szi asztok</w>
tartal ommal</w>
parancs nok</w>
leg ális</w>
Bár mit</w>
hin ném</w>
Am y</w>
szempont ból</w>
tábor nok</w>
ál t
ház ba</w>
har mon
pillan at
Azon ban</w>
for rás</w>
E bb
A fr
ők nek</w>
Láss uk</w>
um ok</w>
segg fej</w>
megállap ítja</w>
I V</w>
ny is
szer zett</w>
idej én</w>
egész séges</w>
h ős
Kül d
7 9</w>
J an
M áris</w>
raj ong
ál ia</w>
6 4</w>
el d</w>
bé bi</w>
benn ünket</w>
mondan ám</w>
fogl ak</w>
asz tás</w>
g al
Tud játok</w>
tö meg</w>
tart ják</w>
bír óság
r ett
hasz nál</w>
ek ül</w>
öl cs</w>
szár az
el mond
in -</w>
hor doz
szer vek</w>
ellen tét
kölcsön ös</w>
h ában</w>
k ba</w>
zés ét</w>
K e
fen ét</w>
K izár
ha b
sz ex</w>
mutat ó</w>
ra kod
ak kal</w>
inn ová
kör ű</w>
A N</w>
át fogó</w>
vá m</w>
ell a</w>
kapcsolat ba</w>
elem re</w>
belő l
od ott</w>
gyeng e</w>
KK BP</w>
p is
szerelm es</w>
rele ván
P en
H ú
cél ból</w>
Richar d</w>
G er
elem ek</w>
spe ciális</w>
L et
R and
ton na</w>
leny om
Né gy</w>
J u
kedvezmény ez
el hinni</w>
Ol vas
tt ől</w>
W ind
et ikai</w>
fár ad
s im
T ám
v ig
okoz ta</w>
FOR G
tud om
város i</w>
sz ent</w>
szer ezni</w>
személy zet</w>
ez tem</w>
e w
helyzet et</w>
meg tanul
Any u</w>
ter vezet
r ad
hat ta</w>
rész ének</w>
P l
adag ol
en nyit</w>
lak ik</w>
egy ségek</w>
L em
tan ít
m ára</w>
Telj es</w>
tud játok</w>
korlát ozott</w>
lényeg es</w>
ég et
nor má
ob jek
a ik</w>
bb y</w>
ri c</w>
leh essen</w>
og ó</w>
megelő zően</w>
d er</w>
tű z</w>
Jel en
G ab
tan ár
r ob
gondol ta</w>
to p
ab lak
stratég ia</w>
Az zal</w>
sok ára</w>
szám ít
-- --
Tisz ta</w>
Ro má
ham is</w>
esz ked
haj ú</w>
vit a</w>
tisztvis elő
hölgy eim</w>
segít ett</w>
hónap on</w>
egyen esen</w>
sér elme</w>
vall om
K it
jelent ett</w>
vár ni</w>
történ et
u mi</w>
kat asztr
ás tól</w>
va j
beteg ség
kamer a</w>
am e</w>
mer re</w>
In di
né ző
á tu
AL OM
bűn cselek
S váj
nap os</w>
áll ást</w>
vizsgál atban</w>
P hen375</w>
Mind ketten</w>
pri orit
A .
p á
kontr oll
kul turális</w>
f új
f or</w>
6 9</w>
C art
ő n</w>
hu z
H ig
kin ev
el megyek</w>
ártat lan</w>
mec cs
5 .1
J ake</w>
bal eset
Sz eg
kezd őd
el utasít
az okra</w>
Le e</w>
C AS</w>
v áll
tartalm ú</w>
Ki felé</w>
o kos
fér j</w>
Külön ben</w>
lát juk</w>
t len</w>
re form
rég óta</w>
terv et</w>
jelent ése</w>
r ont
kifejez és</w>
labor atóri
szerep l
ro x
kor rek
ugyan olyan</w>
- Nem</w>
d ém
választ ott</w>
NE V
ezz en</w>
AL I</w>
Ugyana kkor</w>
különb ö
Tud juk</w>
tekint ve</w>
sz ub
veszély ez
f t</w>
dokumen tá
dönt ést</w>
művel et
ó t
hír es</w>
meglep etés</w>
s ünk</w>
C y
ország ot</w>
ez eknek</w>
ít ési</w>
f f</w>
vál ság</w>
tápl ál
biztos ító</w>
S an</w>
ek tr
é nél</w>
gu mi
hossz abb</w>
4 ,
üzemeltet ő</w>
meg bocs
ek ért</w>
fel ismer
ismé tel
eh al
ed nek</w>
pályáz ati</w>
beszél j</w>
tény legesen</w>
b ak
og as
segít ség</w>
Közösség ek</w>
tér en</w>
es emény</w>
értel m
kezd eni</w>
at ának</w>
ot er
én való</w>
ó ját</w>
Y o
Tökélet es</w>
i tás</w>
pl az
köz tük</w>
örök ké</w>
Chr is</w>
n át</w>
haj ót</w>
vá dol
szeret ed</w>
kiny it
ület ek</w>
b ámul
dö g</w>
P o
ni um</w>
piac ok</w>
telef on</w>
S an
igaz ságot</w>
Drág ám</w>
ein ket</w>
S okat</w>
r ált</w>
han g</w>
N E</w>
Bizt os
szol id
prób ál</w>
hatóság a</w>
sz tr
T ER
úz e
fel szól
K il
W ill</w>
z er
ed t</w>
UN I
Ebb ől</w>
r iz
fordul t</w>
már is</w>
7 4</w>
V ET
ar ánt</w>
té p
mad ar
M E</w>
oly at</w>
mu tat</w>
t ra</w>
meg hal</w>
osság ra</w>
va d</w>
v et</w>
or a</w>
Központ i</w>
kockáz ati</w>
rész ről</w>
hisz ek</w>
jár tam</w>
n átri
ru hát</w>
H OZAT
dön tött</w>
Ry an</w>
w ard</w>
T ű
tartal ma</w>
tat ó</w>
oda ítél
fejez et</w>
ex por
sá nak</w>
töl tött</w>
tet i</w>
kap ta</w>
több i
szí né
mos oly
s űr
3 0
rem él
Lu x
f ent
R a
Iz rá
esk üd
végrehajt ására</w>
Más od
seg éd
par am
beny új
alább iak</w>
Vaj on</w>
esemény ek</w>
el ep
ír ó</w>
ny o
G re
TAN Á
át ruház
ell ett</w>
kör be</w>
M ed
érd emel
R ep
egy aránt</w>
el tör
Csod ál
p a</w>
biz al
ázsi ai</w>
ma il
el rab
szok ott</w>
s enek</w>
f ék
g t</w>
hölgy em</w>
R ó
O tt
jel ez
ellen ség
még sem</w>
Sz o
Szab ad</w>
hiány ában</w>
eny ém
n ukle
ítél et</w>
mond a</w>
negyed ik</w>
hajl andó</w>
fő bb</w>
teng er</w>
di agn
nyit ott</w>
Meg néz
vesz ik</w>
mar ha
nyilván os</w>
k az
rend őr</w>
felnő tt</w>
esség ét</w>
üt köz
kerül ni</w>
ÁS A</w>
ör ö
Gyö nyörű</w>
ta k
Amer ik
talál ta</w>
b osz
ker t
ép ület</w>
w e
tat ás</w>
él nek</w>
kap sz</w>
érint i</w>
köz pont</w>
ság ú</w>
ük ben</w>
szerződés ek</w>
ind ult</w>
V ol
fi ai</w>
u e</w>
k ó</w>
ed be</w>
asz t</w>
as sz</w>
É SZ
Kar ácsony</w>
ered ő</w>
R ossz
egyez mény</w>
b ány
tekint etben</w>
rend be</w>
os ok</w>
di pl
Vár junk</w>
erő sza
h y</w>
ny el
kül földi</w>
pillan atra</w>
min ek</w>
inzul in
Ül j</w>
isten em</w>
Eur atom</w>
sz al</w>
leg rosszabb</w>
vet ő
szer v</w>
tegy ek</w>
Európ ában</w>
összeg et</w>
ow s</w>
len t</w>
V Á
Kat e</w>
ta d
próbál tam</w>
kor ai</w>
vél em</w>
kel eti</w>
ess ük</w>
el ért</w>
tagállam i</w>
M ur
men jek</w>
csaj ok</w>
zsar u</w>
ki egyenl
4 .1
telef ont</w>
áció t</w>
ul a</w>
Sz ak
p inc
biztosít ják</w>
börtön ben</w>
Következ ő</w>
K ÜL
szól sz</w>
V ir
A T</w>
Hogy ne</w>
függ ően</w>
ham ar</w>
való s</w>
bl ok
8 1</w>
imu m</w>
jelent ősen</w>
abb a
kép ező</w>
8 8</w>
saj t
a nal</w>
ód ás</w>
sok an</w>
ru p
szer elt</w>
ar a</w>
ség ről</w>
válasz tás</w>
el nevez
talál tunk</w>
fil met</w>
em en</w>
a cs
ir oda</w>
kar ri
kész ül</w>
P R
h i</w>
u p</w>
hozzá ad
cion ális</w>
ak nak</w>
nem csak</w>
Horv át
alkalmaz ási</w>
H üly
ám nak</w>
hív ja</w>
g in
va jon</w>
Ap u</w>
min él</w>
módszer ek</w>
d zs
ír tam</w>
Kir ály</w>
tő r</w>
csinál unk</w>
Ed dig</w>
cs öv
birt ok
játé kot</w>
leg közelebb</w>
T est
hal l</w>
küszö b
sz ank
mag ány
cs ep
gyümölcs -</w>
anyag okat</w>
7 6</w>
lel mi
szép ség</w>
C ent
szár ny
elfogad ni</w>
siker es</w>
aut ót</w>
B ej
ült ség</w>
elvesz ít
ÁL L
l om</w>
en ed</w>
Kap itány</w>
év ekben</w>
származ ik</w>
köszön hetően</w>
ötlet em</w>
tar tunk</w>
l ik
FORG ALOM
egyé bként</w>
minőség i</w>
É lelmi
HOZAT ALI</w>
k alap
ideg en
k ák</w>
G örög
szint je</w>
es ebb
R ach
Id eje</w>
ar e</w>
kap ok</w>
p et
másod perc</w>
kérdés e</w>
el jött</w>
taná r</w>
va t</w>
6 00</w>
Uni óban</w>
cél zó</w>
ar r
n o</w>
bú cs
V É
vásár l
cs avar
V ettem</w>
ház i
ENGEDÉL Y</w>
Ö l
vár ja</w>
vég éig</w>
nev ed</w>
k re
6 3</w>
3 1.</w>
zés re</w>
állam ok</w>
gondol ni</w>
on ban</w>
len ned</w>
vas úti</w>
d át</w>
leny űg
h an</w>
10 .
terh el
meg csal
marad sz</w>
HATÁR OZAT
ép ített</w>
bír om</w>
meghal adja</w>
eid et</w>
B on
Nézz étek</w>
lem ond
tatiszt ik
ly el</w>
ek ven
felügy elő</w>
t ür
segít hetek</w>
kap itá
S us
H it
kl ub
ald in</w>
elő ad
cikké vel</w>
szülin ap
ját szik</w>
létesít mény
jog a</w>
éghaj lat
munk ám</w>
ció ja</w>
8 3</w>
vegy i</w>
n itr
hozzájárul ás</w>
fő leg</w>
Ó h</w>
érz ek</w>
cs ő</w>
FORGALOM BA</w>
Or v
siker ül</w>
An aldin</w>
vezet ni</w>
Nemzet i</w>
K inek</w>
rit ka</w>
ár i</w>
mot or</w>
alkalmaz zák</w>
em ale</w>
p op
el felej
D or
sz ol</w>
örök re</w>
vár ost</w>
ü tött</w>
szabad ság
am b
201 7.</w>
ten nie</w>
Nyil ván
tart ály
igény be</w>
bol ond
á i</w>
véd elme</w>
amely ekre</w>
új ság</w>
Bár mi</w>
tor ok</w>
s é
hat ását</w>
or e</w>
zak lat
Hölgy eim</w>
val y</w>
cs íp
T U
hisz ik</w>
c el</w>
And re
ÉS E</w>
t rá
ügy let
és ért</w>
A P
l es
hatóság ai</w>
eredmény e</w>
elv it
tá ny
éh es</w>
nő vér</w>
O n
vár tam</w>
z ünk</w>
ás áért</w>
v ért</w>
tud na</w>
ély es</w>
ingy en</w>
I l
bá csi</w>
it ális</w>
men ő</w>
ki használ
ük re</w>
k egy
T or
fr ekven
men ned</w>
az előtt</w>
vid ék
meg látogat
unk ban</w>
er d
támogat ása</w>
L ind
sh emale</w>
termé ket</w>
sző ke</w>
ország okban</w>
ci g</w>
bol ond</w>
segít sen</w>
Ig enis</w>
lel ép
Segít s</w>
fő nökö
vélet lenül</w>
it is</w>
biztos ít</w>
Ér t
har ap
vissz av
gyógyszer t</w>
szol út</w>
és be</w>
vel etek</w>
lehet sz</w>
formá tum
s tatisztik
Tart sd</w>
ő j
lép ni</w>
D ec
más ik
to ba</w>
rendszer esen</w>
felhasznál t</w>
Bizton sági</w>
h es</w>
fél re</w>
j al</w>
és képpen</w>
M as
ter emben</w>
K ön
2 -</w>
Esk üszöm</w>
O k
Ed die</w>
leír t</w>
meg tenni</w>
ad e</w>
tal om</w>
jog alkot
k es
kár osod
vezet ője</w>
lis ta</w>
T im
M et
L ass
hát rány
tartal om</w>
M it
börtön be</w>
õ t</w>
v ed</w>
N incsenek</w>
El ső</w>
A f
het etlen
esz ed</w>
Igaz a</w>
g an
dél után</w>
szív ességet</w>
esz ik</w>
v en</w>
egy i
paran csol
áll ította</w>
A S
pir os</w>
kezd ődött</w>
h éz
szeret ek</w>
F öld</w>
tal ál</w>
kez ed</w>
kér jük</w>
intézked ést</w>
im por
let ölt
értékesít ési</w>
la y
Any ám</w>
gazd ag
al áz
fran c</w>
áll jon</w>
Üdvöz löm</w>
Ír ország</w>
kór házban</w>
EL Ő
kir úg
vény ek</w>
származ ási</w>
szabály z
mutat ni</w>
el menni</w>
releván s</w>
Isten nek</w>
S tan
H ány
csökkent ése</w>
v örös
legy őz
száll ítás</w>
K id
Ó v
kedves em</w>
iskol ába</w>
má ból</w>
áll andóan</w>
olg ál
M Á
az okkal</w>
meg gyilkol
csod ás</w>
Len gyel
elej én</w>
készít mények</w>
ök nek</w>
kérdés ek</w>
Rend őr
ten nünk</w>
kérd ezni</w>
cím ű</w>
Ah hoz</w>
hálóz at
F áj
g or
Mar k</w>
utc án</w>
szar vas
fogyaszt ók</w>
j utal
ó ra
érzék eny</w>
típus a</w>
Mond juk</w>
l agos</w>
La ur
Dani el</w>
rendszer es</w>
pr om
ic k
P S</w>
ellen kez
ül tet
ai kat</w>
ezred es</w>
t es</w>
Ale x
disz n
ser eg</w>
h en</w>
szolgáltat ó</w>
hib át</w>
vál ogat
F an
idő sebb</w>
t üd
hajt ó
éko kat</w>
vas ár
méret ű</w>
bán tani</w>
SZ A
t ü
y ou</w>
helyett esít
értékel ési</w>
at om
al iz
érkez ik</w>
J át
Ő szintén</w>
il a</w>
al d</w>
cím zett
El ment</w>
rendelkezés einek</w>
Dehogy nem</w>
t s</w>
megfelel nek</w>
ak ra</w>
ha vi</w>
Kön ny
minős ül</w>
sz ia</w>
Utol só</w>
kívá nt</w>
őr mester</w>
látogat ók</w>
miat ta</w>
J elent
V as
száll ító</w>
r y
mell é</w>
ő I</w>
T it
egyé ni</w>
szakaszá ban</w>
kez em</w>
M exik
incs en</w>
V I
hány szor</w>
fel készül
ac h</w>
H ad
problémá k</w>
ér ezni</w>
r át
la g</w>
be fogad
ta koz
ten ned</w>
ki ab
imád koz
növ ek
leg jobb
csin os</w>
For dul
t ob
let es</w>
ro ham
program ot</w>
ismer etlen</w>
nyilatkoz at</w>
hőmérsék let
kutat ás</w>
miniszt er</w>
C .</w>
meg tart
len nének</w>
ai ban</w>
2 .2
felelős ség
Rob ert</w>
ó ból</w>
F a
riban c</w>
s od
per cig</w>
Emléksz em</w>
ok ért</w>
p us
fran c
tud at
mu tas
vizsgál ni</w>
szolgáltat ás
Hossz ú</w>
szeret sz</w>
and a</w>
té má
al ag
olvas ni</w>
An na</w>
szer te</w>
apr ó</w>
alkalmaz ásával</w>
Tovább á</w>
B illy</w>
vic c</w>
b ed
el mondom</w>
Font os</w>
In té
par ti</w>
gondol at
őr ől</w>
a in</w>
hang ul
Charl es</w>
F ur
N ép
pont ját</w>
el külön
o mi
beteg tájékoztat
hossz ú
h usz
amely re</w>
V in
ék kal</w>
en a</w>
ám mal</w>
m ehet</w>
ellenőrzés ek</w>
ideg es</w>
irányelv ben</w>
korá n</w>
John ny</w>
uk ban</w>
tek er
on ok</w>
Wind ows</w>
af rikai</w>
és ük</w>
nő nek</w>
ad tak</w>
mag ától</w>
péld ány
C H
von z
eredet ű</w>
báty ám</w>
H mm</w>
i ci
O da</w>
K u
d et</w>
Por tug
gyors abb</w>
Szület ési</w>
ot tuk</w>
tud nád</w>
E ric</w>
t és</w>
fél re
ít sák</w>
leveg ő</w>
g át
jel ző</w>
meg magyaráz
uk ra</w>
segít s</w>
ád nak</w>
értesít és</w>
met il</w>
ham is
bár melyik</w>
szám odra</w>
c m</w>
azon által</w>
kul cs</w>
em elt</w>
leg jobban</w>
NA K</w>
kö p
z e</w>
tehet em</w>
kórház ba</w>
zen e</w>
ad jon</w>
tagállam okban</w>
Nek i</w>
M ont
engedély ek</w>
eszközö ket</w>
mind kettő
kocsi ban</w>
Meg értem</w>
Holl and
Es et
alap on</w>
intézkedés ekről</w>
klassz ikus</w>
keres ni</w>
jav ítása</w>
Biz ony</w>
tud nék</w>
termel és</w>
fel ől</w>
sz én</w>
N KB</w>
tesz ünk</w>
Ő t</w>
hit te</w>
B ec
mi ben</w>
besor ol
képzel ni</w>
becs l
kemény en</w>
1 -</w>
cs ütör
elem zés</w>
esz i</w>
og én</w>
eur op
szolgál at
művel etek</w>
ó g
repülő tér</w>
HATÁROZAT OT</w>
rész ei</w>
ac k
összefügg ő</w>
csinál nak</w>
tekint hető</w>
szu per
Mag uk</w>
Bri an</w>
ellát ott</w>
rossz at</w>
É szak</w>
szerkezetátalak ítási</w>
oko z</w>
cso mag</w>
játé kos</w>
érkez ő</w>
környez et</w>
át kozott</w>
talál ták</w>
lát lak</w>
ing ton</w>
hely ét</w>
lev on
D E</w>
Budap est</w>
Külön ösen</w>
vonatkoz ású</w>
Ad ja</w>
akar lak</w>
mérg es</w>
ez által</w>
b ács
gép et</w>
feltétel eknek</w>
valam ely
j ukat</w>
úgy is</w>
le feküd
z ol</w>
v ára</w>
szabály ozó</w>
ta i</w>
ül jön</w>
javaslat ot</w>
L t
vég ére</w>
meg köt
hid rox
beszél tünk</w>
órá val</w>
al e
ké nti</w>
8 6</w>
ip t
R u
Am úgy</w>
kombin áció
keres em</w>
va j</w>
for d</w>
Vel ed</w>
t od
es ül</w>
érdek li</w>
en é</w>
hid eg
sz él</w>
rom ant
vt sz.</w>
el nézést</w>
ugyana zt</w>
Red Tube</w>
tá masz
C E</w>
szig et</w>
köz tünk</w>
C SA</w>
ÉS EK</w>
ezz ék</w>
H at</w>
té n</w>
haris nya</w>
len niük</w>
ki mer
jár ni</w>
é je</w>
T Á
Ezen kívül</w>
ér ni</w>
et ni</w>
ád dal</w>
ország ba</w>
2 3.</w>
él ő
T ekint
J ap
költség eket</w>
T akar
tag ok</w>
I A</w>
2 2.</w>
le c
t ő</w>
hoz om</w>
Car l
ker et</w>
víz i</w>
felhatalmaz áson</w>
szem ét
Jac k
Visz ont</w>
vélet len</w>
Mar tin</w>
ho tel
s k
od ab
et en</w>
rag aszkod
nál unk</w>
rá jöttem</w>
meg ij
í m
ind iai</w>
dí sz
határoz ott</w>
Ki véve</w>
nev el
gyors abban</w>
nukle áris</w>
hív lak</w>
bet ör
bizonyít ékot</w>
h tt
kett őt</w>
öl tem</w>
gyerek eket</w>
kap csán</w>
kar d
h ev
ösz tö
ellenőriz ni</w>
tér ium</w>
in k
techn ológia</w>
ö vezet</w>
if f</w>
nevet séges</w>
oz tam</w>
gyakor lat</w>
ul ni</w>
us a</w>
ismé t
ip ar</w>
pas i</w>
egy ben</w>
kez elő</w>
ügy véd</w>
kép zés</w>
dí jak</w>
t tek</w>
tüz elő
hely énvaló</w>
f er</w>
bi ológiai</w>
közz é</w>
TANÁ CSA</w>
tes ó</w>
dön töttem</w>
d ia</w>
Külön leges</w>
A ján
kel t</w>
ten ne</w>
H ab
GYÓGY SZER
E h
Egész ség
kod ni</w>
assz us</w>
M ér
od nak</w>
össz ej
Cs ak
Z o
Krisz tus</w>
el puszt
mint egy</w>
szeret néd</w>
tet ej
valam ire</w>
magam nak</w>
család om</w>
H om
ők kel</w>
közzé tétel
vá k</w>
Nyis d</w>
z ak</w>
ered mény</w>
információ s</w>
lé k
kér i</w>
munk áját</w>
leg inkább</w>
ügy nökség</w>
pr os
Fő nök</w>
Szab ad
c us</w>
rendelkezés ei</w>
ingat lan
ágaz atban</w>
mis szi
való sít
e bbi</w>
Hi hetetlen</w>
r oz
r end</w>
ver z
20 20</w>
Fel ek</w>
kil o
y s
Gyer ek
Chr is
i es</w>
forr ó</w>
p ed
bocs átás</w>
határozat nak</w>
S and
jog ot</w>
Száll j</w>
fej l
Feh ér</w>
term elő</w>
v ív
telen ség</w>
Gy ógy
vi l</w>
e u</w>
faj tá
el mondta</w>
irány adó</w>
S tar
het ente</w>
munk ra</w>
irány elve</w>
dolgoz ol</w>
tetsz ett</w>
jö j
SZ ER</w>
ő leg</w>
minőség ű</w>
en em</w>
biz ony</w>
ál nak</w>
mé di
l ez
ak k
unk ra</w>
kibocsát ási</w>
Í R
Bizottság hoz</w>
mely nek</w>
harc ol
et áris</w>
in i</w>
polgár ok</w>
Nek ünk</w>
el árul
br it</w>
ing er</w>
száll ás</w>
eljár ással</w>
saj nos</w>
v o
kis ebb
kat tint
dóz is</w>
Akar sz</w>
O k</w>
r omb
rat ikus</w>
fokoz ott</w>
b il
becs ül
káb ító
al is</w>
ra im</w>
megállap ítani</w>
lehet ek</w>
mutat ott</w>
od dal</w>
oz ik</w>
felhasznál ásra</w>
ment esít
j ók</w>
hal ni</w>
L esz
in form
stratég iai</w>
bizony ítani</w>
arány a</w>
erős ebb</w>
K im</w>
un g
c y</w>
F egy
talál om</w>
áss on</w>
br ut
szí n</w>
h ó</w>
forgal om</w>
szállít mány
E ttől</w>
ai mat</w>
házas ság
Közösség en</w>
sz om</w>
folyam atban</w>
El őbb</w>
kö tt</w>
E sz
p ic
ma ko
áp ia</w>
vág ott</w>
ros szabb
2 4.</w>
met abol
növeked és</w>
fi út</w>
sza nak</w>
kit ör
c om
Ma x
vélemény e</w>
g -</w>
Sc ott</w>
na pr
l ic
sár ga</w>
Ak ár</w>
nő vel</w>
csinál jak</w>
problé mát</w>
Val amit</w>
Min isz
Ad am</w>
figyelembevétel ével</w>
perc e</w>
oktat ási</w>
V elem</w>
iz ni</w>
y ű
támogat ja</w>
V A</w>
ítan unk</w>
e w</w>
esk üszöm</w>
tér i</w>
kezd et
tal aj
ko sok</w>
200 4.
i vel</w>
össz egyű
Kev in</w>
iszt ráció</w>
inté zet
ur g
test vér</w>
következ ik</w>
baráta im</w>
es ély</w>
kockáz atot</w>
2 5.</w>
J A</w>
Felejt sd</w>
tör öl
param é
következ őket</w>
kel l
Eset leg</w>
olvas tam</w>
c uk
kémi ai</w>
határozat tal</w>
ez ent
D on</w>
nyug ati</w>
A gg
al v
sz őr
so hasem</w>
m ot</w>
kísér let
hónap os</w>
társadal om</w>
megenged ett</w>
gy al</w>
által a</w>
változ ott</w>
megbíz ható</w>
b eni</w>
beszél nünk</w>
rend kívüli</w>
hely ezni</w>
mad ár
személy esen</w>
szabály ozott</w>
ad ik</w>
kép eket</w>
iskol ai</w>
ön öket</w>
k b.</w>
K l
ár ának</w>
t oll
ez ekkel</w>
A c
Egy es</w>
H ír
végrehajt ott</w>
ma il</w>
ab or
F o
hullad ék</w>
esség i</w>
fel s
12 34</w>
ör dög
L E
200 1.</w>
szolgál ati</w>
és ekkel</w>
anyag ból</w>
adaléka nyag
kibocsát ott</w>
f ikus</w>
szerencs és</w>
szabályoz ás</w>
kommunik ációs</w>
az ol</w>
techn ik
S on
Meg jegy
segít sek</w>
szerelm ére</w>
szöv et</w>
pály a</w>
cím ké
h ős</w>
iskol ában</w>
i át</w>
Spanyol ország</w>
kv ó
egyen értékű</w>
út ra</w>
él lyel</w>
tarta nak</w>
m ehetek</w>
Tud ni</w>
um í
gyárt ási</w>
összeáll ítás</w>
c eg</w>
vesz ed</w>
kö sz</w>
hivatal osan</w>
szerződés t</w>
régi ó</w>
meg nyer
Nyug alom</w>
hiv atal</w>
megsz űn
hozzáfér és</w>
c on
N ov
könny ebb</w>
od y</w>
megállap ította</w>
kis asszony</w>
tisztel et
mennyiség ű</w>
ző k</w>
út vonal
E leg
kritérium ok</w>
uc i</w>
kérdez tem</w>
nyilvántart ásba</w>
szolgál at</w>
Bo bby</w>
ottho ni</w>
C Í
sor s
ön ök</w>
at i
tör ek
let tél</w>
St ep
F ord
tájékoztat ja</w>
élet be</w>
előír ja</w>
y al</w>
hív tam</w>
Jelen leg</w>
ha r</w>
et ikus</w>
ú ak</w>
vé dek
V ar
ez z</w>
min .</w>
elem mel</w>
arany os</w>
ható anyag
N o</w>
v ö
G ran
helyez éséről</w>
ön nel</w>
a ink</w>
ha gy</w>
leveg őt</w>
ül ünk</w>
látogat ás</w>
fel vétel</w>
jegyz é
W ash
kedvezmény ezett</w>
üt és</w>
szabályoz ási</w>
meg nevez
szem ed</w>
F EJ
ö tt
ily enek</w>
külön féle</w>
komp enz
hi hetetlen</w>
Hál a</w>
F iz
óv atos</w>
és ei</w>
meg történt</w>
irányelv re</w>
g ol
omb in
Mindannyi an</w>
ezz em</w>
B esz
nyol c
katon a</w>
us ban</w>
techn ológiai</w>
mozg ás</w>
b eh
akar tad</w>
referenci a
og rá
ef on
F ér
ít juk</w>
miat tad</w>
köszön ni</w>
El ső
inzul in</w>
fel adat</w>
ha i</w>
ott nak</w>
ath an</w>
am on</w>
hat na</w>
menny it</w>
vár ok</w>
fel épít
nézz e</w>
csú sz
be vándor
alkalmaz ására</w>
haj óz
Lt d</w>
végez tem</w>
leg magasabb</w>
ás okban</w>
M É
Meg halt</w>
Ismer em</w>
jelent ette</w>
it ást</w>
u tal</w>
r agy
fegyver ek</w>
né tek</w>
ünk re</w>
vacsor a</w>
m ama</w>
c ag
a .
ön g
pill ant
kl or
együtt működ
szerep lő
199 9.</w>
halál os</w>
moder n</w>
b ölcs
ké m
Által ában</w>
p árt
be c
tájékoztat ást</w>
P u
ig u
és ed</w>
h ív</w>
H or
túl ságosan</w>
összeg ét</w>
is h</w>
élelmiszer ek</w>
oló g
8 .1
fel fedez
tükr öz
Kér sz</w>
Lux emb
1 20</w>
vesz nek</w>
g er</w>
f aj</w>
szig orú
mag á
fogad om</w>
qu e</w>
folyam án</w>
bonyol ult</w>
művel et</w>
Kí ván
Rach el</w>
C a
É P
város ba</w>
foly os
ni ai</w>
kép en</w>
Fek ete</w>
ál ma
IS O</w>
támad ás</w>
rész eg</w>
e en</w>
határ okon</w>
elm úl
önké nt
magad nak</w>
beszélget ni</w>
szolgáltat ásokat</w>
módos ítása</w>
mé nnyel</w>
kon c
al g
uta sd</w>
iz om
és től</w>
N a
Gondol od</w>
v egyes</w>
vétel i</w>
jóváhagy ási</w>
UNI Ó</w>
eredmény eket</w>
á g</w>
Tho mas</w>
T ran
sz ebb</w>
let y
s ört</w>
m em
dolgoz tam</w>
ro han
R engeteg</w>
lem ez
in o</w>
kil ép
küld eni</w>
fel számol
F re
feladat a</w>
Hiv atal</w>
uk nak</w>
Áll andó</w>
moz og
inter ven
it e</w>
szerint ed</w>
seg ély
követ ni</w>
elem zés
Wal ter</w>
mennyiség e</w>
szeret ett</w>
in kat</w>
kép esztő</w>
tu ma</w>
sá v
E mellett</w>
ér i</w>
ev ő</w>
in tel
d o</w>
kíván csi</w>
idő pontja</w>
használ at</w>
I rány
L uke</w>
meg szak
foglalkoz ik</w>
érté kének</w>
meg font
Mi ch
csökkent ő</w>
Cs end
r ú
vám konting
kialak ul
vél i</w>
B ev
fan tasztikus</w>
költségvet és</w>
S véd
N ev
munkavállal ók</w>
z en</w>
kép esség</w>
na drág
v etted</w>
kormányz ati</w>
an ce</w>
Gr ace</w>
ox id
nyilván osságra</w>
meg kez
mod ell</w>
g ár
tin i</w>
a ud
rejt ett</w>
hónap ig</w>
tart omány</w>
használ ó</w>
tag ad
a -</w>
oll y</w>
meg áll
Cla ire</w>
ital t</w>
mell ka
föld et</w>
fár adt</w>
T AT
gyanú sít
B é
hozz ák</w>
fáj d
kin cs
vár t</w>
m ol
K is</w>
htt p</w>
ki szerel
jobb ra</w>
sz uper</w>
h is
Id eg
legutó bbi</w>
hár mas
M ay
K ana
K ik</w>
szob át</w>
Segít hetek</w>
Ky le</w>
rá ciós</w>
min tát</w>
minős ített</w>
bosz or
vend ek</w>
küld te</w>
j egy</w>
szi vár
ka bát
H C
s ki</w>
k ben</w>
dokumen tum</w>
d ik
injek ció
i i.</w>
ess ek</w>
Utál om</w>
Ellen őr
tú r
tit kol
piszt oly
U raim</w>
H ű</w>
OT T</w>
jegyző könyv
termelő k</w>
fog ni</w>
f öl</w>
jó vá</w>
P ho
Élet kora</w>
kap nak</w>
K a
pénz em</w>
EF TA</w>
R og
felül vizsgálat
össze foglal
Ü z
meg száll
idő k</w>
olyan ok</w>
iránymutat ás</w>
EZ ET</w>
öl dö
AN Y
of a</w>
jö het</w>
dolg a</w>
2 50</w>
meg győző
élet emet</w>
mely eket</w>
szá l</w>
an at
R T
kör ében</w>
fel etti</w>
ű leg</w>
T ri
visz em</w>
hozzá jár
Ha csak</w>
kapcsolód ik</w>
ny áj
Ar ról</w>
el jön</w>
Óv atosan</w>
meg győz
Magyar ország</w>
dur va</w>
F öl
vet ni</w>
st im
prof il
az nap</w>
abb ak</w>
válasz tani</w>
len nem</w>
ika ilag</w>
ár tal
ter t</w>
vám tarif
pl usz</w>
emlék szik</w>
P an
rendszer ben</w>
h enger
Csodál atos</w>
va sz</w>
l in</w>
f é
él ünk</w>
művel sz</w>
ki vált
esély e</w>
ni ában</w>
m en</w>
And y</w>
Lehet séges</w>
ten né</w>
eszt ett</w>
S .</w>
érz elm
I T</w>
ság okat</w>
K OZ
hát ha</w>
B assza</w>
á pol
olvas sa</w>
all y</w>
M S</w>
kérelm ek</w>
sz ér
3 0.</w>
al szik</w>
Si ess</w>
szint et</w>
erő sen</w>
Ú gy
Eh hez</w>
vám p
m ra</w>
készít mény
ügy letek</w>
szab oni</w>
m ély</w>
sét ál
Hisz en</w>
om i</w>
M utasd</w>
tárgy át</w>
teljesít mény</w>
p on
más hol</w>
biztos ítására</w>
Men jetek</w>
ut ál
mind egyik</w>
munk atár
nyilatkoz atot</w>
tár i</w>
Ál lat
ent ek</w>
J ess
verseny t</w>
történ het</w>
man ok</w>
kész let
kezd tem</w>
V ON
9 .1
Ho gyhogy</w>
Par k</w>
üzen et</w>
ügy nökö
t len
ban kok</w>
tás ká
össz pontos
é koz
rendőr séget</w>
l it
ás ából</w>
segít ek</w>
t eg
ít ve</w>
villam os
kép zés
P lay
an y</w>
F u
té sz
z am</w>
it ikai</w>
Nézz ük</w>
Lát ni</w>
ol va</w>
A part
ré bb</w>
együttműködés i</w>
tud omány
kon ferenci
Or tod
Tud ják</w>
messz ire</w>
ap u</w>
aki re</w>
T e
Ortod ox</w>
ítás sal</w>
lát sz</w>
H ang
fel tétlenül</w>
ház a</w>
huz am
el j</w>
B ol
ugyan is</w>
g e
szem em</w>
ő szintén</w>
Amer ika</w>
6 .2
üt em
vé ért</w>
kil enc</w>
ed er
em ia</w>
and ók</w>
um -</w>
tár s</w>
vizsgál ja</w>
kar ak
áll omány</w>
L ef
besor olás</w>
ül tek</w>
P ete</w>
társ ul
A G</w>
kép zési</w>
cs í
ember ekkel</w>
ki jelöl
üzen et
a u</w>
2 9.</w>
vi ta
El iz
od ban</w>
ny ag</w>
ci um</w>
eredmény ei</w>
ám ban</w>
Magy ar</w>
at alá
El veszt
om ból</w>
k up
teng ely
haz am
szerepl ők</w>
kider ült</w>
en sek</w>
rét eg
vagy on
na r
kész ít</w>
ön ni</w>
kér ésére</w>
em at
von at</w>
ell átás</w>
S her
figyelmeztet ő</w>
meg értem</w>
baj ban</w>
tá val</w>
száll oda</w>
szok tam</w>
jelent ések</w>
tiz ed
szá munkra</w>
T ul
á jába</w>
integ rált</w>
aggód jon</w>
00 00</w>
ag e</w>
od ás</w>
felhasznál ók</w>
á gy</w>
il legális</w>
es sz</w>
és szerű</w>
haz aj
szív es</w>
kateg ória</w>
világ os
L eny
mag ához</w>
ir at
Fel ség</w>
T íz</w>
irány ító</w>
forr adal
dob oz</w>
Szeg ény</w>
elfogad ta</w>
professz or</w>
hall g
né p</w>
t ot
ci vil</w>
In tern
am ennyi</w>
vélemény t</w>
ék e</w>
Össz e
. -
robb ant
aran y</w>
eur o</w>
O s
ünk ben</w>
El ég
os toba</w>
is mer</w>
fej em</w>
utc a</w>
rá ció
ismer tem</w>
asz tal</w>
kiválaszt ott</w>
a ß
meg tér
fog d</w>
ha csak</w>
ki adott</w>
a kor</w>
Paran cs
erő t</w>
Sz ar
vég ző</w>
Szo ciális</w>
dokumentum ok</w>
J Á
nyilván való</w>
cip ő
Sh em
kapcsol atok</w>
tesz el</w>
szem üveg
funk ció
Izrá el</w>
folyam at
ül tség
vit te</w>
oz nak</w>
V I.</w>
b ert</w>
z ász
ab ron
a iról</w>
létrej ött</w>
dig itális</w>
S őt</w>
b ia</w>
med enc
valam elyik</w>
gyógy ászati</w>
javas lat</w>
Sz uper</w>
hat ár</w>
cs i
tanács adó</w>
im mun
E G</w>
aß e</w>
ami d</w>
megváltoz ott</w>
irány ba</w>
beszer zési</w>
T ap
G al
S w
megöl ték</w>
irá n
ti on</w>
hasz on
K al
Ör öm
alma d</w>
nyom ás
bor ot
mé h
keres ett</w>
rendelkez és</w>
kap ja</w>
hív ta</w>
al só</w>
Reg isztráció</w>
h ep
am ik
lev ő</w>
ki dob
ul ok</w>
Shem ale
di oxid</w>
eljár ásokat</w>
használ nak</w>
és eit</w>
v esszük</w>
h ez
meg tudja</w>
p lety
V idd</w>
Mes él
javaslat ára</w>
A C
vizsgálat okat</w>
Szám vevő
R E</w>
növény ek</w>
K I
pi csába</w>
család ja</w>
kárty a</w>
pár ok</w>
nap pal
int e</w>
V ám
gör ög</w>
Hív d</w>
l end
A Z
el te</w>
ör dög</w>
o v</w>
ismer ek</w>
Sz olgál
szóra koztat
bár mely
mon itor
tá p
rendszer i</w>
es ebben</w>
mos d
é má
végrehajt ásáról</w>
ver t</w>
hullad ék
nyúj tás</w>
Utá na</w>
kív ül
hal moz
any u</w>
szív e</w>
tevékeny séget</w>
Édes em</w>
forgat ó
nyúl ó</w>
M ill
at ott</w>
tisztesség es</w>
Egy en
tű r
tud d</w>
já l</w>
Lát ja</w>
hi l</w>
Cart er</w>
CI A</w>
ic h</w>
demok rá
regg eli</w>
késő bbi</w>
int enz
ák ra</w>
elvég ezni</w>
pl aceb
altern atív</w>
en éz
o id
kö szi</w>
ül ő
E A</w>
kap tak</w>
ar c</w>
vég ző
szól va</w>
nem et</w>
er e</w>
El felejt
um ul
T il
fiz et</w>
Em ily</w>
súl y</w>
parancs nok
felül vizsgálati</w>
el megy</w>
L ég
ked véért</w>
fertő zés</w>
V iz
D al
C at
ár at</w>
j ével</w>
hor g
fej e</w>
több ször</w>
össz ev
szil árd</w>
más ikat</w>
változ ó</w>
el magyaráz
an o</w>
meg fogalmaz
bej ut
zu han
Figyel jen</w>
bel földi</w>
szek tor
tr ag
le bb
hatáskör rel</w>
W hit
U k
tum ok</w>
s őt</w>
hely esen</w>
K ol
vár akoz
8 00</w>
működ tet
a id</w>
um ban</w>
beszél nek</w>
szell em</w>
tér fog
B EN</w>
val ók</w>
köz össég</w>
élet ében</w>
ci g
ation al</w>
koncent rál
em ről</w>
u d</w>
tar tan
H ey</w>
C am
H un
végrehajt ásának</w>
m and
kö s</w>
W or
Hoz d</w>
ország nak</w>
M att</w>
ex pozí
Ar th
szellem i</w>
változ ások</w>
XX X
d án</w>
Ismer ed</w>
ület i</w>
mű anyag</w>
tegy en</w>
hasonl óan</w>
ko k
ez en
ei hez</w>
t esszük</w>
o h</w>
akar tok</w>
Brav o
sző lő
het ne</w>
szer ves</w>
Vissz aj
g á</w>
terület et</w>
Em ber</w>
szül eim</w>
eredmény ez
kerül tek</w>
1 .2
m e
Bravo Tube</w>
visel ni</w>
nyelv en</w>
keres ünk</w>
für d
di ák</w>
S har
szabad ság</w>
É br
sz end
ed és</w>
H ah
visszaj övök</w>
kéz zel</w>
AT KOZ
D un
összeg ű</w>
P ill
Ben ne</w>
L ép
leír ása</w>
Egy ik</w>
mind ezt</w>
öröm mel</w>
An nyi</w>
a x
ku kor
el ismert</w>
pas as</w>
kezd jük</w>
Da ve</w>
mond j</w>
g et</w>
Meg ért
Al ice</w>
ember rel</w>
él ve</w>
legy ünk</w>
há tul</w>
amely ik</w>
utó bb</w>
állapot a</w>
og lob
Szerző dés
isz tr
i b</w>
or y</w>
ó ak</w>
ír ás
Romá nia</w>
óv atosan</w>
str umen
old at</w>
szükség ük</w>
próbál ok</w>
lehetőség ek</w>
kár t</w>
pokol ba</w>
bal ra</w>
ny al
lehetőség e</w>
vír us</w>
haj ón</w>
n átok</w>
i u
szal ag
zsar uk</w>
v ia</w>
változ ik</w>
r eng
szeret ni</w>
jár nak</w>
folytat ni</w>
Rá adásul</w>
vas tag
6 ,
A sh
fájdal mat</w>
el e</w>
ség eket</w>
p el</w>
Kép zel
2 8.</w>
f ol
től ünk</w>
kérdés eket</w>
Y e
ugyan úgy</w>
el foglalt</w>
prod uk
. com</w>
vis z</w>
ony a</w>
közleked és</w>
St re
terjed ő</w>
ki bocsátás</w>
fel es
összek öt
fel lebb
b ü
próbál ja</w>
v ő
Bocs áss</w>
irod al
Vál asz
s d
fő z
E M</w>
megold ást</w>
kel lő
értel emben</w>
tisz t</w>
An nie</w>
ev íz
tapasztal at
elő rel
S il
m élet
tör l
fel jegy
B as
szerep el
kí ván</w>
all ergi
keres i</w>
eur o
alak ult</w>
In ter
hatóság ot</w>
feltüntet ett</w>
Egy etlen</w>
el fog
5 ,
kev ered
hiány a</w>
et re</w>
órá s</w>
pat kány
gon osz
pul z
ment ünk</w>
miat tam</w>
k em
gabon a
kockáz tat
és éért</w>
Ro had
Her ceg
visszatér ítés</w>
vá z
kép ű</w>
á j</w>
szabad ban</w>
r en
is s
gép jármű
tud nál</w>
kíván atos</w>
pszic h
alá támaszt
h ár</w>
Tová bb</w>
til os</w>
láss am</w>
H id
Cs ap
men nie</w>
Cs ill
töt tek</w>
zet et</w>
Tör té
gyal og
h e</w>
A lap</w>
teh et</w>
mi hez</w>
FEJ EZET</w>
esküv ő</w>
vár jon</w>
Horvát ország</w>
b él
ad ást</w>
wo od</w>
ott ó</w>
b õl</w>
jellem ző</w>
A g
ök kel</w>
tu ális</w>
rész én</w>
am úgy</w>
pun ci
na n
nyelv ű</w>
hármas ban</w>
ez után</w>
M org
ez sg
r ick</w>
ón ikus</w>
200 0.</w>
m ó
in flu
alap ok</w>
lép ést</w>
elő rej
L el
Jas on</w>
tran z
ou r</w>
kör ben</w>
piac ra</w>
hely ezett</w>
eltér és</w>
T O
Tám ogat
av i
nehez ebb</w>
stab il</w>
hal ad</w>
té ma</w>
felejt sd</w>
GYÓGY SZER</w>
V éd
minisz tr
u h</w>
zár t</w>
fel ső
el végzett</w>
más képp</w>
függ ő
fi át</w>
ro v
k ri
kital ál
kellem es</w>
Z s
p ól
z ük</w>
Já té
el dön
Sim on</w>
L os</w>
AT I</w>
S ol
gyanú s
ön álló</w>
föl ött</w>
Egy ez
ww w
rend esen</w>
l ási</w>
aci tás</w>
ö ö</w>
tud tuk</w>
ol l</w>
csatlakoz ási</w>
masz ti</w>
d at</w>
un oka
eli kop
Kor mány
kics oda</w>
Ny omás</w>
rak ás</w>
T ay
cser ébe</w>
támogat ásra</w>
re pr
k o</w>
Bul gár
ód nak</w>
egyszer i</w>
Kor á
tüntet ni</w>
el ítél
ész ek</w>
es és</w>
hi e</w>
tétel ez
át nyúló</w>
az ar
k ecs
r on</w>
nyug i</w>
V ág
odab ent</w>
sz ür
lél ek</w>
hét ig</w>
b ok
Id ő
ex tr
tit ok
más nak</w>
azon nali</w>
Bizottság gal</w>
Clar k</w>
ap uk
lép cső
hány an</w>
kinev ez
ci r
ull a</w>
Gy ű
h íz
Lát ta</w>
vál ni</w>
kamp ány
követelmény einek</w>
pap a</w>
szánd ék
r is</w>
Meg állap
l ettek</w>
vesz eked
n on</w>
Tegy e</w>
munk ája</w>
B ek
V eg
Meg lep
hall gass</w>
ut h</w>
közel i</w>
N i
erő szak</w>
T ob
M un
jön ne</w>
a e</w>
tá nak</w>
költ ség</w>
le b
ész aki</w>
tel i</w>
tisz tán</w>
dél i</w>
kiterj ed
vé t
kár os</w>
úgy nevezett</w>
hál ás</w>
cél ok</w>
nő s
Uni óba</w>
gan isz
leg kisebb</w>
bíró sági</w>
ül sz</w>
ni való</w>
infrastruk túra</w>
hatály os</w>
előrej el
lé ny</w>
ka r</w>
Tud ok</w>
2 7.</w>
támogat ásnak</w>
test ület</w>
ill e</w>
kény elm
in n</w>
vám ok</w>
pont ok</w>
meg támad
la sz</w>
jel zés
tehet ünk</w>
Ö nt</w>
T ÁR
vél emény</w>
4 -</w>
R E
talál nunk</w>
201 8.</w>
gyakorlat i</w>
pusz tul
okoz hat</w>
V ér
r ot</w>
szégy en
tör t</w>
helyszín en</w>
s per
for ma</w>
R it
Cs at
ítás ában</w>
halál ra</w>
ak tá
D .</w>
M erre</w>
von ta</w>
tev ő</w>
tesz t</w>
C ity</w>
R A
meg jelölt</w>
vír us
meg szabadul
érdem es</w>
k end
bát or</w>
et eg
Sik erült</w>
mako kin
kifejez ett</w>
cselekv ési</w>
arc át</w>
XXX Dan</w>
Figyel em</w>
elfogad ható</w>
hozzáfér ést</w>
it ól</w>
használ atát</w>
szav at
rendel tetési</w>
múl ik</w>
mond hatom</w>
fél elm
hu mán</w>
kel lő</w>
B unk
dolg od</w>
B asszus</w>
hi ány</w>
el j
né t</w>
I t</w>
bor t</w>
Ne w
műkö dött</w>
tény ező</w>
ó sít
munka hely
helyre áll
dolgoz unk</w>
Tanács nak</w>
szövet ségi</w>
y l
uta m
kar b
k ú
ox ig
Hasonl ó</w>
vissz amen
al b
P ak
óz ás</w>
KÜL Ö
min im
Vál t
kérdés es</w>
kockáz atok</w>
száz s</w>
eszt i
Meg mutat
tar tam</w>
hang ot</w>
próbál om</w>
meg érkez
szava k</w>
normá l</w>
ta na</w>
Eng edd</w>
lát talak</w>
2 6.</w>
kap szul
m ek
im b
szövet ség
él sz</w>
töl teni</w>
méter re</w>
Mind azonáltal</w>
eur ó</w>
szabály zat</w>
gaz mus</w>
w ay</w>
tart sa</w>
ér ünk</w>
szerencs ét
nyilván valóan</w>
ajánd ék</w>
takar mány</w>
R am
ügy el
É des</w>
ilyes mit</w>
ad ók</w>
É j
amely eknek</w>
szem e</w>
H alá
nap ok</w>
O da
cél jára</w>
energi át</w>
N ik
Le o</w>
200 6.
mód ját</w>
felhasznál ás</w>
utaz ás</w>
n ej
let elep
oz va</w>
men zi
Hű ha</w>
hazug ság</w>
gyilkos ság
D y
N ah
ér vel
Sz é
marad nak</w>
dolgoz nak</w>
szob ába</w>
si et
ny elv</w>
áj ú</w>
b ugy
tárgyal ások</w>
oz om</w>
egyet ért
b as
á nk
has son</w>
om et
mag áról</w>
orvos át</w>
határoz ni</w>
csend es</w>
tá b
tér ium
perc cel</w>
kí gy
használ ati</w>
Mi at
M IN
szervez ett</w>
H ir
jár ok</w>
B B</w>
ember e</w>
végrehajt ását</w>
kér sz</w>
csoport ban</w>
ít son</w>
létrehoz ása</w>
a kon</w>
v ettek</w>
hét végén</w>
L it
Kin y
áll ak</w>
intel lig
n egy
S eb
sert és
vak cin
t le</w>
NE M</w>
inf úz
sz iv
o kok</w>
kap u
4 0
l ök
százal ékos</w>
len nénk</w>
ít se</w>
ugyana z
ól y
fehér nemű</w>
fogy asztás</w>
át mér
kider ül</w>
R en
o vál
ők re</w>
Vissz at
l ö
baj ba</w>
mell ékel
oz ta</w>
megér teni</w>
adag ot</w>
épít ési</w>
közl emény
eszköz t</w>
templ om</w>
koncentrá ció
ol sz</w>
mondan á</w>
kap acitás</w>
amely en</w>
h o</w>
soroz at
hát tér
ít ésére</w>
becs ült</w>
Har mad
K öl
kont ra</w>
VON ATKOZ
Mag ának</w>
É sz
rohad ék</w>
uk kal</w>
kol t</w>
T án
terület i</w>
Uni ón</w>
ili tás</w>
E len
tart ós</w>
Saj nál
B at
Ígér em</w>
ül ly
I C</w>
ák nak</w>
vasár nap</w>
termész eti</w>
fél sz</w>
P ofa</w>
adat báz
konzultá ciót</w>
B ru
Mar s
Hat ár
csal ód
buk k
KÖ VET
és éből</w>
tényez ők</w>
fejlő dés</w>
M íg</w>
Em ma</w>
R ög
Mos tantól</w>
segít het</w>
a ság</w>
képez i</w>
her ine</w>
hagy tad</w>
ad minisztr
tanács ot</w>
áll omás</w>
mi szerint</w>
hem oglob
dá ba</w>
T ed</w>
Hall gass</w>
F inn
lá nnyal</w>
ver te</w>
o kot</w>
Rem él
szend vi
Hall ottad</w>
határ oz</w>
rek lám
egymás hoz</w>
akar talak</w>
ac et
érték es</w>
adag olás</w>
ötlet e</w>
L a</w>
érint kez
viz el
jegy ek</w>
fi ók
láss uk</w>
ci vil
Sz om
Sz ent
z s</w>
tájé koz
Érdek es</w>
M P
kö vér</w>
f al</w>
per i
szer da</w>
ná ból</w>
di á
Igaz gat
C u
unok at
lis tát</w>
V AG
cs ész
m ekkora</w>
ek ig</w>
ol a</w>
üzlet et</w>
meg osz
J ár
J ú
Fő leg</w>
Minden kinek</w>
anél kül
r adi
mondan od</w>
Közösség be</w>
n ég
ud s
módos ítás</w>
jelent eni</w>
sp ort</w>
dor ító</w>
Haz a</w>
sz ir
vesz ek</w>
Uk raj
mon etáris</w>
becs ület
ajt ón</w>
érvény esít
zs ír</w>
keres nek</w>
idő z
felügyel et</w>
al t</w>
os i</w>
támogat ó</w>
meg nézni</w>
ki emel
tartóz tat
szól j</w>
m ók
kedvezményez ett
P e
ehet ünk</w>
tétel ek</w>
ug or
jel et</w>
és ünk</w>
egyidej űleg</w>
ar ány</w>
megment eni</w>
lán g
moz gat
halad hatja</w>
függ etlen
óp ály
ter min
ill ik</w>
érz el</w>
Assz ony
biz almas</w>
ET T</w>
fesz ültség
cu ki</w>
al umí
leg újabb</w>
al bekezdés</w>
összeg ek</w>
lem ez</w>
Belgi um</w>
dön t</w>
egymás nak</w>
hőmérsék let</w>
om on</w>
z or
könyv tár
tu c
meg alap
b all
határidő n</w>
A hol</w>
R ay
Élelmi szer
hib ád</w>
Meg ment
J OG
testvér em</w>
ellenőr zést</w>
di menzi
T EL</w>
un d</w>
k ám</w>
fény kép
finanszíroz ás</w>
Próbál tam</w>
T év
SZÁ MA</w>
összet étel
K op
rádi ó
Se an</w>
vá ki
kép erny
I K
szól ok</w>
Az óta</w>
sürg ős
lát sz
alkal m
Nah át</w>
il ey</w>
M unk
amen nyire</w>
C él
állap ot</w>
szenved ett</w>
t ej</w>
ad a</w>
lát tál</w>
Be eg</w>
véd elmet</w>
té ves</w>
ist ály
ismer te</w>
felmer ülő</w>
S han
Hagy ja</w>
D ur
mind ez</w>
húz za</w>
kap tunk</w>
szabály ainak</w>
nap ság</w>
mi ként</w>
Min él</w>
tesz tel
elő r
kérdés re</w>
fel adatok</w>
k ak
mas százs</w>
az okban</w>
től ük</w>
T ub
ú k</w>
zu hany
tal p
n áz
ab szolút</w>
oper atív</w>
Hah ó</w>
C Y
ta nia</w>
maguk nak</w>
fő nö
S e</w>
st ein</w>
T iz
köz úti</w>
vid éki</w>
felhasznál ó</w>
oktat ás</w>
m értéke</w>
időtarta ma</w>
i ból</w>
tud ták</w>
tel evíz
ö kor
ció ra</w>
M ent
h u</w>
ül d
h ettem</w>
ban ki</w>
M ama</w>
1 10
tulajdon ság
m ik</w>
Jos h</w>
szá mu
szükség essé</w>
an z
ez r
hat atlan
Chi cag
l ót</w>
kezd eti</w>
VAG Y</w>
mél tó</w>
hagy j</w>
fo jt
vár unk</w>
ír ok</w>
Id e
minden hol</w>
marad ó</w>
gyógyszer ész
ó tól</w>
tt ük</w>
m g-</w>
ti p
o et
villam os</w>
helyett es</w>
EU M
M eddig</w>
részt vev
in s</w>
el helyez
történ jen</w>
on nyal</w>
lap ot</w>
d ev
Jer ry</w>
fizet endő</w>
as se</w>
hoz ták</w>
hitel esít
Willi am</w>
F ény
fel tár
befolyás olja</w>
szár az</w>
hal dok
Ker esked
irányelv vel</w>
gy ász
mind össze</w>
fa -</w>
ssz a</w>
magány os</w>
né ki</w>
be ill
kony ha</w>
mer ész
hagy od</w>
szap or
ri d</w>
hív j</w>
B os
mocs kos</w>
úr nak</w>
csoport ba</w>
dá tuma</w>
C ap
fizet és</w>
Tér ségről</w>
s ör
h elikop
ösztö nö
küzd elem</w>
esz t</w>
V I</w>
társa ságok</w>
rab szolg
em ellett</w>
tö m</w>
kár os
P ic
idej ét</w>
L EG
megkülönböz tet
h ette</w>
ajánd ékot</w>
................ ................
típus jóváhagy
es es</w>
cik ket</w>
b ut
kísér leti</w>
foglal tak</w>
tud nom</w>
ab eth</w>
ami att</w>
osság át</w>
J .</w>
CR R</w>
SÁ G
szem mel</w>
nézz em</w>
ny om</w>
hető vé</w>
fejleszt ése</w>
kényszer ít
hall gas
A L</w>
nap i
nö vényi</w>
Ö nök</w>
lát ták</w>
SÉ G</w>
M m</w>
éko san</w>
par adi
szig etek</w>
i tal</w>
het ném</w>
fek et
c it
Val ent
Sm ith</w>
vár nak</w>
dok i</w>
ál tak</w>
nyar al
M ul
Gya kori</w>
ü kön</w>
karri er
kép telen</w>
her ceg</w>
ér nek</w>
J us
tex til
I m
ad ták</w>
növény védő</w>
K K</w>
végez tek</w>
ismer et
szö kött</w>
nő ket</w>
ö d
200 5.
áll yal</w>
rendelkezés eit</w>
J ud
kíván ja</w>
pár huzam
óz is</w>
ki ált
kattint son</w>
mehet sz</w>
D P</w>
mag án</w>
hitel es</w>
létesít mények</w>
való színű</w>
rej tő
túl zott</w>
mög é</w>
tökélet esen</w>
ték eny</w>
fel fed
id áig</w>
T ölt
4 14</w>
jel e</w>
f fi
visz ont
mi énk</w>
lak ás</w>
eset ek</w>
W ell
száll t</w>
mar k
Tör vény
mű hold
H á
ágaz at
W in
ki hallgat
ít hatja</w>
választ ási</w>
öv é</w>
u z
szint jét</w>
fiatal ok</w>
l ang
neh ezen</w>
barátnő m</w>
mond anak</w>
ügy fél</w>
Jef f</w>
im it
Reg gel</w>
gátl ó</w>
Hagy j</w>
net eket</w>
k ő</w>
ez er
Következ ésképpen</w>
Bunk er</w>
meg ítél
hat ásokat</w>
h eg
Nyugod j</w>
200 3.
leg end
kil át
véd eni</w>
meg valósít
játsz ott</w>
alkalmaz andók</w>
D er
kerül jön</w>
né ni</w>
fej ed</w>
K EL
összet ett</w>
emelked ett</w>
Ros e</w>
olcs ó</w>
mened zs
tr a
szükség esek</w>
ox i</w>
meg adni</w>
jár at</w>
csökkent i</w>
vég ét</w>
kulcs ot</w>
fogad ott</w>
élet re</w>
tér d
határ idő</w>
fogyaszt ásra</w>
hát ral
ák ban</w>
tisz tában</w>
l o</w>
nev ezet
alko hol</w>
szer es</w>
3 -</w>
kés ed
beszél jen</w>
inn el</w>
E mel
n it
interven ciós</w>
assz iszten
ágy ban</w>
zen ét</w>
út mutat
pén isz</w>
hib ája</w>
Gya kor
ó nál</w>
Elő ző</w>
szakért ői</w>
le felé</w>
V inc
FOR MÁ
l ók</w>
bir kóz
Hozz á
fen ek
e o</w>
személy iség
ol juk</w>
Dec ember</w>
őr nagy</w>
akad t</w>
beruház ási</w>
Csinál d</w>
lámp a</w>
kul túra</w>
hall otta</w>
ér ten
tönk re</w>
kö k</w>
mu s
hív ták</w>
fel ajánl
ó jának</w>
ad tál</w>
szám ítás
ka szin
cs áb
Al an</w>
terj ed</w>
értékel ő</w>
a hová</w>
rak é
csökkent eni</w>
köz ösen</w>
B ir
elem ző</w>
EL M
t end
kölcs ön</w>
Ch uck</w>
magat art
m úze
i cion
te át</w>
for ma
N at
né zet
Cs up
sok szor</w>
függ ő</w>
am ellyel</w>
nél ek</w>
nor vég</w>
É v
l ine</w>
jav ára</w>
ü tő
víz ben</w>
m m
fel ébred
ház am
dolg unk</w>
y n
maguk ban</w>
fájl ok</w>
terv ek</w>
hoz d</w>
hibáz tat
l ást</w>
ch e</w>
tart ása</w>
mi a</w>
kor omban</w>
internet es</w>
Alk almaz
fogad ó</w>
vér cukor
meg mondani</w>
iak at</w>
tábl a</w>
B aj
Asszony om</w>
m ok</w>
eszél y</w>
ám ba</w>
- ot</w>
repr ezent
parancs ot</w>
Be fejez
korlát ozó</w>
j ére</w>
ik át</w>
rendszer e</w>
fel tétel</w>
S .
érz ik</w>
száll ító
megállapod ásra</w>
beruház ások</w>
O K
szerencs e</w>
el mondtam</w>
Pár izs
goly ó</w>
el bán
foglal ni</w>
vezet ék
re ferencia</w>
kép zett</w>
támogat ott</w>
sz ur
bab át</w>
Arth ur</w>
megbíz at
bel éd</w>
ad od</w>
ugyan ezt</w>
ed ény
Men nyit</w>
meglát juk</w>
l ed
teljesül nek</w>
hivatkoz ott</w>
nó menklat
E P
ír va</w>
R on
19 6
P ap
Kell y</w>
nyúj tani</w>
er k
fejleszt és</w>
ÁR T
ic h
gy ap
tud jam</w>
S hi
7 ,
ten ném</w>
potenci ális</w>
J izz
kül dö
felelős séget</w>
szám viteli</w>
igy ek
li f
het etlenül</w>
tá g
tud nánk</w>
szig orú</w>
gyö nyör
formátum ban</w>
200 6.1
száll ás
fél nek</w>
al ma</w>
os sági</w>
jogalkot ási</w>
gy émá
f úr
házas ság</w>
le x
Nézz ék</w>
uni verz
val lás
szomb at</w>
kör t</w>
fel szerelt</w>
tartalmaz nia</w>
bem en
id ge</w>
házas od
Lar ry</w>
rész leges</w>
ben neteket</w>
bek apcsol
ki felé</w>
keres tem</w>
jel ző
ít suk</w>
soroz at</w>
om a</w>
le vág
találkoz ott</w>
ju tunk</w>
esz e</w>
Kí nai</w>
Jizz Bunker</w>
vigyáz z</w>
cs ecs
amely ekben</w>
ad omány
eng eni</w>
Több é</w>
po hár</w>
el a</w>
Abb y</w>
üv ely
íta sz</w>
O p
Z ár
tö ttünk</w>
Men nyire</w>
fl ik
rész es</w>
rit kán</w>
og at</w>
ét er</w>
ker t</w>
csökk en</w>
bizonyít vány</w>
végez tünk</w>
ter ep
közvet ett</w>
hit el</w>
b áj
i ja</w>
helyzet be</w>
tud omány</w>
par ti
hozzá juk</w>
g én
működés ét</w>
s étek</w>
tit okban</w>
ti ed</w>
összek apcsol
Marad jon</w>
ka nap
fuvar oz
cs ik
P hil</w>
E d</w>
sho w</w>
n en</w>
fő ként</w>
nyil ván</w>
ol ható</w>
elég ed
ál ása</w>
sej tek</w>
h essen</w>
ti pp
lesz bi</w>
szolgáltat ók</w>
speci fikus</w>
s ült</w>
bű v
ok mány</w>
kett ős</w>
hely ére</w>
baj om</w>
Köz el</w>
old ó
H um
ál c
standar d
m y
l elő
t tem</w>
Tör ökor
T ag
GY ÁRT
Öröm mel</w>
eljár ásnak</w>
Basz d</w>
visszat ért</w>
ál ják</w>
szükség let
egyszerű bb</w>
ot ikus</w>
hatás ú</w>
b og
am ent
veszély ben</w>
Ne vet
tud nia</w>
leveg ő
Vár jatok</w>
hat nál</w>
megtalál juk</w>
kötel esség
dal t</w>
M ot
megfelel és</w>
e v</w>
osz k
kép ző
D em
drá g</w>
standar d</w>
l tt</w>
szerű sít
il e</w>
Lis a</w>
El ektr
vezet ék</w>
- t</w>
beszéd et</w>
ten nék</w>
mehet ünk</w>
es b
tüz et</w>
történ elmi</w>
land i</w>
Á N
m eddig</w>
fi l</w>
ko sz
vár hatóan</w>
lem ény</w>
FORMÁ CI
tan ú</w>
jöv ünk</w>
ás an</w>
struk turális</w>
ki indul
előt tem</w>
elfogad ása</w>
ip p
tag jainak</w>
Á t</w>
L og
és én</w>
og en
tet ő
r i</w>
ajánlat ot</w>
elv ek</w>
zsid ó</w>
munk anélkül
ál va</w>
gy ül
e u
együttműködés t</w>
an gyal
megind ításáról</w>
cs ok
által uk</w>
ható anyag</w>
szín pad
kö dés
S k
C o</w>
át ver
nyom or
Pénz ügyi</w>
har c</w>
vi tás</w>
V örös</w>
el vár
J ord
öl ték</w>
elfogad ja</w>
Meg kap
bele egyez
IN FORMÁCI
adminisztr atív</w>
kil enc
Kí na</w>
szó ba</w>
haz ai</w>
figyelm en</w>
mély en</w>
változtat ni</w>
tart sd</w>
kérdez te</w>
el megyünk</w>
sz ivat
Szem ély
mad ár</w>
s ey</w>
vál ság
B us
feltétel ei</w>
összeh angol
V állal
pisz kos</w>
szavaz tam</w>
S tat
3 6.</w>
együtt működő</w>
av ir</w>
j óval</w>
áll tam</w>
orvos a</w>
E th
M R
Chr ist
lik vid
ható ak</w>
á ni</w>
Jack son</w>
fecsk end
bekezdés sel</w>
önként es</w>
szolgáltat ást</w>
meg teszi</w>
õ ket</w>
len nünk</w>
kivit eli</w>
tel ik</w>
aggód om</w>
E SZ
tűz olt
Hagy juk</w>
szól nál</w>
mennyiség ek</w>
megállap ítása</w>
Indul ás</w>
irányelv et</w>
szed ni</w>
jog szabály</w>
sz am
é telt</w>
talál tál</w>
Igaz i</w>
ad sz</w>
ad juk</w>
ni való
perc en</w>
m es</w>
kon flik
szeret et</w>
ember ei</w>
lesz b
gazdálkod ó</w>
Tud tad</w>
gondolkod tam</w>
j óz
felül vizsgálat</w>
feleség ét</w>
össz esz
leg alábbis</w>
T ha
ű z
véd elmé
tulajdonos a</w>
t ettünk</w>
hall ott</w>
amen nyit</w>
Egyet értek</w>
aty ám</w>
Bro ok
elõ tt</w>
K isz
fáj l</w>
jel zi</w>
kedven c
hív ás</w>
egyed ül
Dá nia</w>
y s</w>
mű tét
Lass an</w>
talál ja</w>
ka st
b í
ór ára</w>
történ etet</w>
Ü N
vidék fejlesztési</w>
zsá k
l or</w>
biztos ítás
Tud sz</w>
kezd te</w>
min imu
al any
Játé kok</w>
va sz
Eur o</w>
t esse</w>
fény t</w>
bács ik
ál ási</w>
jövő beli</w>
kategóri ába</w>
Leg feljebb</w>
Próbál d</w>
nem i</w>
Rem ekül</w>
kibocsát ó</w>
semmi féle</w>
elm élet
idő jár
em ész
ül ési</w>
nem rég</w>
T enger
b omba</w>
Sz ok
napi rend
egyik ük</w>
romant ikus</w>
j ében</w>
néz et</w>
Egy ik
bizonyít vány
rövid ebb</w>
frekven ci
alkalmaz ásra</w>
tagállam nak</w>
s w
lehetőség ét</w>
tény ek</w>
tanul tam</w>
len gyel</w>
kérdés em</w>
het es</w>
c ul
Beszél tem</w>
ó nk</w>
Ör ök
test ület
n ik
fiatal abb</w>
szá g</w>
ít ést</w>
se hova</w>
marad ék</w>
használ ta</w>
par t</w>
Görög ország</w>
preambulum bekezdésben</w>
Saj át</w>
ít ik</w>
magam at</w>
kézi munka</w>
figyel mét</w>
említ ette</w>
cs emp
S ho
lehet ősen</w>
ön magában</w>
képviselő je</w>
iz ációs</w>
Lengyel ország</w>
erő források</w>
sürg ős</w>
ké tel
Akar od</w>
- Igen</w>
kr ed
feleség ed</w>
p ezsg
un almas</w>
számu kra</w>
alak ú</w>
Eliz abeth</w>
fenn áll
H idd</w>
pont tal</w>
án t
közel ebbi</w>
alkalmaz otta
személy i</w>
csinál junk</w>
na d
Kér jük</w>
segít i</w>
nyer ni</w>
ügy ek</w>
án ok</w>
működ ni</w>
húz ni</w>
re felé</w>
cs ip
színé sz
esség gel</w>
8 5
által án
ay ne</w>
kötelezett séget</w>
hely iség
K ör
szerez te</w>
u zs
men et</w>
hal adja</w>
er eje</w>
A ud
és étől</w>
csend ben</w>
Tul ajdon
p ör
ország okkal</w>
minden re</w>
k k
ás ként</w>
ki köt
Sz a
Meg mondtam</w>
H atal
bocs á
H arc
mód ot</w>
csütör tök</w>
sp ir
E C</w>
Az után</w>
ál sz</w>
ij esztő</w>
i ális</w>
Szörny ű</w>
ér teni</w>
na ran
reak ció</w>
hatóság oknak</w>
Luc y</w>
oz tál</w>
ig e</w>
meg mondtam</w>
A ir
oter ápi
t ég
különb séget</w>
ká vé</w>
3 9
fek szik</w>
ment esség</w>
hall ottad</w>
el osz
ál j</w>
ot te</w>
Ny ol
c ar
szerkez et</w>
Leg alábbis</w>
vezet ői</w>
fogad ja</w>
brut tó</w>
Beszél j</w>
ch er</w>
G ro
ur g</w>
met r
kez ében</w>
ed tem</w>
teh eti</w>
fedélzet en</w>
meg szeg
hatékony abb</w>
K ár</w>
Szlo váki
bek er
AT OK</w>
gy en</w>
Fl ash</w>
erősza kos</w>
Gar y</w>
íg értem</w>
h ög
jog okat</w>
szül ei</w>
bíz om</w>
Holland ia</w>
e b</w>
C ra
p uc
ell ek</w>
ős i</w>
l t</w>
h m</w>
s asz
vizsgálat okban</w>
nö vény</w>
a ik
mell ette</w>
Vicc es</w>
ma r</w>
O M</w>
ko d</w>
Car l</w>
veszt eség</w>
punci ba</w>
jelent ésben</w>
H isz</w>
bar na
Ör vendek</w>
Sus an</w>
b ez
fedez ésére</w>
ha j</w>
végrehaj tani</w>
kor ú</w>
J essz
Ad ri
M e
v in</w>
ki kapcsol
En nél</w>
nagy obb
tegy ünk</w>
automat ikusan</w>
búcs úz
b úz
vámtarif a
lat in</w>
jegy et</w>
rá ny</w>
öcs ém</w>
épít eni</w>
dö s</w>
dr .</w>
had sereg</w>
C ro
löv öldö
pszic ho
fordul jon</w>
ko héz
Pi csába</w>
ily ennek</w>
meg fizet
elm entem</w>
hozz uk</w>
hoz tak</w>
Ő L</w>
par ton</w>
ki n</w>
gy á
bűnö s</w>
ö ccs
személy t</w>
g őz
szerződés es</w>
l ása</w>
Sz á
I G
ug h</w>
meg állítani</w>
aján lás
ali for
egyszerű sít
csinál ják</w>
pá ci
szint re</w>
helyszí ni</w>
állít ják</w>
v eh
ünk nek</w>
az által</w>
R S</w>
irány ítási</w>
Emlé k
pél dá
kibocsát ás
at ikus</w>
fogad ni</w>
ad ék</w>
M O
lét ező</w>
bir to
De an</w>
ítél kez
kö cs
Közösség ben</w>
tor z
V eszély
ny ál
izg almas</w>
követ ett</w>
ter ápia</w>
hú st</w>
eredmény eként</w>
barátnő je</w>
Jac kie</w>
szok atlan</w>
eg ek</w>
esküv ő
P C
Aty ám</w>
lá da</w>
ja vall
Han k</w>
be vétel</w>
gyakor ol
meglep et
es tek</w>
id in</w>
kí nos</w>
biztos ítás</w>
ül ük</w>
p azar
néz em</w>
bocsát ott</w>
Kett ő</w>
ít élet
Nor vég
Ér tettem</w>
n ik</w>
be ugr
El megyek</w>
tagállam okat</w>
ny er</w>
K an
lép éseket</w>
ek ul
A U
ellenőrzés ére</w>
Parlament nek</w>
néz nek</w>
du zz
tánc olni</w>
P eg
megközel ítés</w>
lehet ünk</w>
ók ban</w>
akti vál
bejegy zés</w>
feleség ül</w>
helyzet ét</w>
m û
ta valy</w>
e -</w>
csill ap
pén tek</w>
át vit
sűr ű
u g</w>
el indul
beszél tél</w>
hoz tad</w>
m itől</w>
elkerül ése</w>
belő lem</w>
allergi ás</w>
has sa</w>
el végez
áll ítás</w>
a honnan</w>
lát ják</w>
j i</w>
fáz is
V ill
m exik
elő ret
o id</w>
szá s</w>
fény ében</w>
el helyezked
perc ben</w>
hallgat ni</w>
követ i</w>
h üvely
gyár tás</w>
z ál
szavaz ás</w>
s ter
kó st
ít ok</w>
id dal</w>
ot a</w>
Jul i
n incsen</w>
tartoz om</w>
F ed
C ho
kód ot</w>
feltétel eit</w>
ef er
ítot tuk</w>
munk á
kész pénz
hisz el</w>
Él vez
lenyűg öző</w>
est ére</w>
nég er</w>
Ó D
tas suk</w>
néző pont</w>
adat bázis
adat ai</w>
E b
et ik
I .
ny a
lé t</w>
Cs alá
alap osan</w>
Mond om</w>
rendszer rel</w>
ez ik</w>
kal and
v itt</w>
L ady</w>
Rossz ul</w>
ít ók</w>
kond icion
alkat részek</w>
K utat
Kö nyör
jav ítani</w>
Kap d</w>
tanul ni</w>
mű vé
sem mire</w>
Val ahogy</w>
gyakorlat ilag</w>
talál juk</w>
meghatároz ásáról</w>
meg tisztel
g li
u ka
men jetek</w>
szex i</w>
m it
Ember ek</w>
be vall
T im</w>
J ar
terület ére</w>
szám la</w>
ellenőr izz
Hab ár</w>
dög ös</w>
kí nál</w>
fog ad</w>
fasz t</w>
R ak
Hoz tam</w>
men ően</w>
előfordul ó</w>
ol ása</w>
beszél jünk</w>
hidrog én
fel der
Gy il
szint jén</w>
szeret ik</w>
Or szág
cím et</w>
benyúj tani</w>
El kap
krit ikus</w>
Beszél nünk</w>
Mi ben</w>
történ elem</w>
sz ez
ol e</w>
keres sük</w>
feldolgoz ott</w>
hál a</w>
Fen ébe</w>
na h</w>
társ a</w>
id én</w>
G en
klu b</w>
magad dal</w>
be oszt
int ra
s ap
előr ehal
Agg ód
kapacit ás
szab vány</w>
d b</w>
in strumen
hagy ják</w>
elő d
tény t</w>
pár t</w>
felhasznál ása</w>
ér sz</w>
ho tel</w>
im mal</w>
hol d</w>
figy elő
bizonyít ék
kez e</w>
elfelejt ettem</w>
idő pontjában</w>
ci m
mi féle</w>
Tiz en
szer ette</w>
Le on
hív ást</w>
fal u
- ban</w>
óv at
hi per
öt tél</w>
vizsgál ták</w>
címzett jei</w>
kocsi ba</w>
határoz zák</w>
fal ak</w>
t os</w>
erő k</w>
z úz
telefon on</w>
tel enek</w>
nyom ást</w>
ki rakod
húg om</w>
b olt</w>
v át</w>
om ról</w>
módszer t</w>
hatás ai</w>
al fa-</w>
ás kor</w>
listá ját</w>
fél ig</w>
minő ség</w>
Ci pr
rendszer ének</w>
hat ná</w>
Köz pont</w>
fi eld</w>
ajánl at</w>
ru hában</w>
V él
letölt és</w>
intéz et</w>
vásár olni</w>
á kon</w>
str aße</w>
S ö
sz lo
vég ez</w>
tűn sz</w>
S op
tár c
szakasz a</w>
tart ós
Val amennyi</w>
ez ekre</w>
érté l</w>
Reg g
C D</w>
ismer sz</w>
idő tartam</w>
idő n</w>
jár sz</w>
víz zel</w>
szövet ség</w>
ol ási</w>
Ar any
s ely
hatály át</w>
Al ud
For r
szor osan</w>
mű tét</w>
figyel jen</w>
demok ratikus</w>
ne hogy</w>
Alk ot
ing ton
fel edd</w>
sik ert</w>
más kor</w>
ai r</w>
hír ek</w>
j ad</w>
fizet és
on nal</w>
Ch lo
Köz ös</w>
saját os</w>
L esz</w>
elem ről</w>
reakció k</w>
V íz
ak ció</w>
Cs er
or i
3 3.</w>
fogy at
Tay lor</w>
Mag gie</w>
acél ból</w>
bar om</w>
at ni</w>
P ir
politik ák</w>
talál unk</w>
it y
al izált</w>
túl menően</w>
paran cs</w>
felnő tt
egymás tól</w>
k uk
hiány osság
í n</w>
ú rá
l aj
marad unk</w>
or gazmus</w>
l atok</w>
CS O
baj t</w>
hib ás</w>
technológi ák</w>
mag az
i ók</w>
tartal ék
Portug ália</w>
mb H</w>
hitel minősít
termész et</w>
saj tó
macs ka</w>
b ély
VONATKOZ Ó</w>
M ester</w>
terh esség</w>
egyez mény
talál tuk</w>
men tén</w>
2 2
hábor út</w>
ger inc
fegyver es</w>
Tub er</w>
Fur csa</w>
T ex
baráta i</w>
Leg közelebb</w>
Dr Tuber</w>
töl ti</w>
S ár
ás okhoz</w>
kockáz ata</w>
dok tor
W C</w>
intézkedés ekre</w>
megállapod ásban</w>
készül ék
kö s
hív tál</w>
D ev
o ma
erő l
de pressz
am s</w>
lel ki
hat alom</w>
ú di
kér és</w>
átalány értékeket</w>
SÁ G</w>
OR SZÁ
a helyett</w>
csap atot</w>
V a
ed ni</w>
Bocs ásson</w>
érez te</w>
hat lak</w>
kedvez ő</w>
talan ság</w>
ed ző
belől ed</w>
Enged j</w>
Kizár t</w>
v eszély</w>
gondol ják</w>
elm ész</w>
beszél nem</w>
um pl
ul j</w>
t h</w>
Bár ki</w>
n ket</w>
nem de</w>
Rend el
csú nya</w>
18 0</w>
bel ek
garan cia</w>
Jen ny</w>
ügy ész
sz ind
ri b
T ech
fel h
Több et</w>
ít vány</w>
far makokin
G il
enged d</w>
Lou is</w>
fá jás</w>
fel ét</w>
t él
veszély t</w>
d él</w>
In formá
Uni ónak</w>
v ul
reg isztr
jog sért
fi am
csoport os
régi ók</w>
f ok</w>
té vel</w>
ta sz</w>
részesül ő</w>
termelő i</w>
él eg
ri aszt
harc olni</w>
tartalmaz nak</w>
ci d
áb ra</w>
terület e</w>
má gn
ing s</w>
csinál j</w>
hang ja</w>
ap ámat</w>
ut álom</w>
M us
lova g
gondol t</w>
szim ból
ú s
határoz ottan</w>
- ra</w>
őr ület</w>
ber g</w>
P ort
talál ok</w>
bemutat ó</w>
Sz ell
I N</w>
s to
fi ad</w>
minden féle</w>
Beszél ni</w>
szá k</w>
esz ek</w>
TÉ TEL
el utas
súly os
szervezet i</w>
CY P
kez et</w>
Hiv atal
vé kony
köny vel
mos tantól</w>
w en</w>
k atal
fejez et
ás án</w>
os a</w>
c enz
Ha w
cél okra</w>
Hal ál
An t
ször ny</w>
Rendőr ség</w>
ad ót</w>
segítség re</w>
el terjed
ú ráz
piac ának</w>
hüly eség
L an
hazud ik</w>
H D
n ing</w>
szöveg e</w>
meg vitat
INFORMÁCI ÓK</w>
villamos energia</w>
rok on
üzem i</w>
d um
vélemény ére</w>
ár am</w>
w a</w>
Nan á</w>
Ú t
n otok</w>
meghatároz ó</w>
létesít mény</w>
SZ N
ó nia</w>
ki rán
test et</w>
ar y</w>
vacsor ára</w>
g öm
fels őbb</w>
to jás</w>
tegy ék</w>
st údi
i hoz</w>
amer ika
fü s
Ausztr ia</w>
automat ikus</w>
Ny er
össz ez
vol umen
por tug
ki vet
K ul
kül d</w>
B ay
for m</w>
X o
Egy re</w>
tart otta</w>
irod ában</w>
helyzet e</w>
félre ért
Számvevő szék</w>
Hüly e</w>
vég zi</w>
B osz
hitel ek</w>
Kö ny
határ on</w>
w ell</w>
vén ás</w>
st e
Is mé
let ét
e an</w>
bu sz</w>
EUM SZ</w>
leg közelebbi</w>
ház tartási</w>
holtt est
Talál tam</w>
nép szerű</w>
ról uk</w>
f ont</w>
ügy ekben</w>
rész eként</w>
dipl omá
csinál tok</w>
tö bben</w>
megállap ítás
fel ir
zöldség félék</w>
igazgat ója</w>
S E</w>
végrehajt ó</w>
egy fajta</w>
Gyógy szer
Af ganisz
Tu d</w>
ül ést</w>
véd elmét</w>
ned ves</w>
r am
értékel ni</w>
szám lát</w>
dö bb
anyag i</w>
oz ása</w>
vi har</w>
h it</w>
X .</w>
szakért ő</w>
g o</w>
de hogy</w>
kedvez ő
Ott hon</w>
elér ése</w>
n ess</w>
h ettek</w>
fő igazgató</w>
ez úttal</w>
elvesz ett</w>
e I</w>
ad unk</w>
bar na</w>
ötö dik</w>
hüly eség</w>
ÁS Á
kon cer
idő pont</w>
mél t
fen il</w>
or end
G mbH</w>
gat y
z at
el dob
vélemény ét</w>
felszól al
lis tán</w>
ek kor</w>
ver eked
végrehajt ásához</w>
ked ik</w>
itár sa
T w
rész esít
mell ettem</w>
het nél</w>
arc ot</w>
Tisz tel
t ettük</w>
biztosít ék</w>
apart man</w>
ű nek</w>
meg jelent</w>
fran ci
társ am</w>
s av
üz emben</w>
közvet ít
Mar ia</w>
típus ok</w>
készít ette</w>
ex tra</w>
Orosz ország</w>
et em</w>
Sz ép
és szel</w>
anz ap
Z illa</w>
év fordul
kor iban</w>
ind i
tartal mából</w>
meg f
csó na
Con n
IL Y
át jár
um ent
hív tak</w>
m akr
növel i</w>
következtet ésre</w>
klor id</w>
gyer ty
ess etek</w>
té v
A I</w>
bel ül
ki emelt</w>
hogy ha</w>
töt ték</w>
pil ó
oldal t</w>
kér ő</w>
izmu s
cuc c</w>
prof i</w>
Bel e
osztály ú</w>
három szor</w>
ri e</w>
plat z</w>
egyet em</w>
mé dia</w>
befolyás ol
meg bán
husz adik</w>
hang zott</w>
T áj
átor ok</w>
ismer jük</w>
Xo Zilla</w>
M ező
való ság
oldal i</w>
h ellyel</w>
K ED
F ü
zi ó</w>
vid d</w>
K á
kiad ás</w>
Fl or
F ár
ed dy</w>
rend ellen
o b</w>
Szükség ünk</w>
barna hajú</w>
tevékenység eket</w>
T am
áll tak</w>
v ey</w>
k őz
C ur
0 5
mutat ják</w>
is teni</w>
bb s</w>
f ém</w>
ét terem</w>
f ész
hasonl ít</w>
akar tak</w>
agg odal
Jo ey</w>
H z</w>
UL T
Tud ta</w>
C C
Másod szor</w>
J öv
szervez éséről</w>
foly am</w>
cik kel</w>
Gyer mek
íta niuk</w>
4 .2
hagy omány
rész leg
tünet ei</w>
alud tam</w>
vit atkoz
kod ik</w>
A pr
hoz tál</w>
K im
egyé tek</w>
val y
Kar en</w>
szob ák</w>
stá tu
kor on
tör ni</w>
tet ik</w>
csinál tuk</w>
l -</w>
16 0</w>
ez ekben</w>
vár sz</w>
kell jen</w>
pr óf
jelent enek</w>
izgat ott</w>
bev it
Lis szaboni</w>
Foly ton</w>
HA SZN
www .
elm es
cikk ek</w>
pél da</w>
ot h</w>
m ban</w>
s ta
nyúj tanak</w>
alkalmaz ó</w>
EZ ÉSE</w>
használ atra</w>
véd ett</w>
J övök</w>
H O
kuty ák</w>
csecs em
ti an</w>
fő nök
felmer ült</w>
áldoz atot</w>
töl töttem</w>
piac cal</w>
meg tettem</w>
ház ában</w>
t ési</w>
Ph il
kol lek
id a</w>
ellen ség</w>
el mondja</w>
3 2.</w>
us son</w>
meg aláz
C af
távol ság</w>
Elég gé</w>
b ír</w>
d ef
Nyil ván</w>
szabály oknak</w>
kel et</w>
tud tál</w>
bolyg ó</w>
y nek</w>
működ nek</w>
szen ved</w>
értesít i</w>
mennyiség et</w>
R N</w>
ség em</w>
f at
ett y</w>
At lan
eleg áns</w>
H P</w>
vál nak</w>
mond ván</w>
á cs</w>
tek en</w>
Csod ás</w>
ed en</w>
kapitá ny
katasztr ó
ó g</w>
it ok</w>
an ne</w>
Kö v
J ÁR
es leg</w>
osság gal</w>
alma k</w>
melléklet ét</w>
U ta
érzés em</w>
s ön</w>
Tart sa</w>
en za</w>
ü tötte</w>
emlékez ni</w>
Ki csoda</w>
üzem anyag</w>
ör ök</w>
magá é</w>
irány ító
nyom a</w>
A ug
ítan dó</w>
fejlő dő</w>
s al
alud t</w>
V an
össze om
v ó</w>
polg ár</w>
oz z</w>
vissz ük</w>
Don na</w>
vegy en</w>
mester séges</w>
hív juk</w>
at í
Shemale Tube</w>
A ShemaleTube</w>
Tekint ettel</w>
kulcs fontosságú</w>
R ag
H old
pszic hi
ünnep el
ügy ész</w>
vi tát</w>
szín es</w>
segítség nyújt
ü tt
ul d</w>
ment ő
követel mény</w>
növeked ése</w>
ka ja</w>
Csill ag
os abban</w>
m óka</w>
megnéz em</w>
honlap ján</w>
B ra
p osz
nap om</w>
Ismer i</w>
L ily</w>
nél fogva</w>
k ud
megkap ja</w>
szava kat</w>
mos tan
Er ed
csat olt</w>
aut ób
Br and
nyugod t</w>
p ocs
irány ítani</w>
bán ás
áll ított</w>
lány nak</w>
po kol</w>
gyanús ított</w>
alak ul</w>
H A</w>
Tűn j</w>
T em
Si r</w>
ít ését</w>
kö dik</w>
táplál koz
mechan izmus</w>
fé kez
be épített</w>
vacsor át</w>
ty ú</w>
Hal ott</w>
i ó
N u
C ass
hatóság nak</w>
lo p</w>
pr eg
ú ri
p ö
gyárt ott</w>
Go og
ez ü
év esen</w>
bizony ára</w>
tő ké
l ad
akk umul
ál unk</w>
köszön jük</w>
orvos ok</w>
leg szebb</w>
Br az
200 7.1
bizony osod
ta bb</w>
kap unk</w>
HASZN ÁL
min ták</w>
em ent</w>
rá jött</w>
erő vel</w>
vezet és</w>
játék szer</w>
Hív j</w>
et be</w>
V ad
vezet i</w>
csoport ja</w>
meg tan
hatóság át</w>
Morg an</w>
esség ének</w>
bekezdés ét</w>
iz áció
dömping elt</w>
tart ottam</w>
baj nok
lehetőség eket</w>
inter net</w>
M óz
iránymutat ások</w>
bék e</w>
bizony ítja</w>
má k</w>
beszél jek</w>
határoz atok</w>
jó s
ak kora</w>
La ura</w>
súly ozott</w>
Ker es
k s</w>
fel új
FEL T
eur orend
Sh e
gyakr abban</w>
ció kat</w>
erdő ben</w>
1 10</w>
ez ve</w>
megúj uló</w>
kötelez ett</w>
aktu ális</w>
Sp e
M ob
forr ásokat</w>
var r
N ő
öt te</w>
P os
Jul ie</w>
Ez után</w>
ás okon</w>
h ex
cs ö
HATÁR OZ
eszközö kkel</w>
Ó L</w>
t ig
B üsz
több let
előrel ép
készít eni</w>
J ön</w>
Hall od</w>
gyilkos sági</w>
buk kan
G a
robban ó
miat ti</w>
kon zer
ilyen kor</w>
el foglal
közep es</w>
F R</w>
bu bor
ék eny
kin s</w>
Rég en</w>
vág ni</w>
táv on</w>
sen ki
ad ható</w>
Jon es</w>
vide ó</w>
Tű z</w>
kísér ő</w>
műv ész</w>
ház ak</w>
eur ó
seb esség</w>
fél j</w>
család ot</w>
cs ont</w>
lip s</w>
L ak
ki száll
ók usz
Lond on</w>
hid d</w>
meg nyug
köv ettem</w>
i as</w>
adat védelmi</w>
W est
K ombin
JOG OS
r őI</w>
kk v</w>
ci n</w>
õ k</w>
kategóri ájú</w>
töl t</w>
tu ti</w>
megállapod ásba</w>
hat nád</w>
199 8</w>
is tá
eredmény t</w>
előirány zat</w>
szoft ver</w>
magam ra</w>
tol l</w>
láb am</w>
H ét</w>
inté zetek</w>
Köz el
p ap</w>
módos ítására</w>
Sz inte</w>
t ot</w>
Tá v
KA P
Lit vá
tet ovál
al it
állat okat</w>
ten néd</w>
tisztvis elő</w>
ell ent
ek éppen</w>
El mondom</w>
Beszél nem</w>
org an
ük kel</w>
rendőr ök</w>
p oszt
megfont ol
L at
ka gy
áz as
küld tem</w>
D A</w>
tartózkod ási</w>
arc a</w>
vonal on</w>
d el
ár folyam
személyzet i</w>
ul áció
ol jon</w>
valami féle</w>
r ig
kr ém
közl ési</w>
ét term
törvény t</w>
Jö j
kor rup
király nő</w>
há tul
forma nyomtat
R od
értesít ést</w>
ügy felek</w>
tas sák</w>
f ák</w>
közön séges</w>
irány ú</w>
köszön etet</w>
band a</w>
ég ett</w>
megvéd eni</w>
szendvi cs
n is</w>
ja ira</w>
feltüntet ni</w>
ck y</w>
választ ásom</w>
láb át</w>
i o
fel szabad
Szeret né</w>
d im
r es
egyetem i</w>
LEG ES</w>
ágaz ati</w>
vacsor ázni</w>
egy esül
mi g
vény t</w>
tájékoztat ják</w>
találkoz ó</w>
herceg nő</w>
é bb</w>
szá mának</w>
Jul ia</w>
tá ni</w>
kiszám ításának</w>
diszn ó</w>
hatóság ának</w>
ítot tunk</w>
tő zs
szám okat</w>
jár unk</w>
ó ként</w>
szo ci
Chlo e</w>
történ tek</w>
K örül
töt tél</w>
ter ve</w>
rész ecs
any ját</w>
internet en</w>
ha nyag
Világ os</w>
hal ált</w>
p izz
ett ség</w>
es sem</w>
célkitű zések</w>
vál tás</w>
ártal m
Köz társa
ér ez</w>
nagy ot</w>
hit ted</w>
vacsor áz
növeked ett</w>
f eszti
feldolgoz ó</w>
l ok
gondol tad</w>
szal ag</w>
pad ló
V ezet
vill e</w>
tehet ed</w>
meg gyógy
FI GY
nátri um</w>
köz ülük</w>
anyag gal</w>
ÜN TET
kr istály
Uni óról</w>
D él
sz elek
meg test
Kezd jük</w>
szól ni</w>
elem zi</w>
alap ja</w>
ország beli</w>
mind nyáj
sztr ip
szerep elnek</w>
oko kból</w>
alkalmaz za</w>
adat ait</w>
meg csókol
c z
ügy let</w>
kuty ap
dés ét</w>
akció k</w>
Keresked elmi</w>
pis il
ü t</w>
kod j</w>
um m</w>
tr é
tájékoztat ó</w>
nap tári</w>
csep p
is h
M P</w>
ter et</w>
vélemény em</w>
más sal</w>
l es</w>
fog tok</w>
cikk nek</w>
d nek</w>
be csap
Pat rick</w>
JOGOS ULT
szükség esnek</w>
darab ig</w>
Rog er</w>
lob og
am itől</w>
um p
s ub
bi ot
M ond</w>
R es
mér föld
ány ok</w>
unokat est
tér kép</w>
ei ből</w>
het edik</w>
an om</w>
szind ró
g ú
laj str
Vegy e</w>
MA G
KÜLÖ N
tábláz atban</w>
fenn maradó</w>
ek előtt</w>
vicc elsz</w>
felvétel t</w>
ért ük</w>
max imum</w>
la s</w>
g ő</w>
L in
A B
Úr nak</w>
kuty át</w>
ná ba</w>
koncentrá ció</w>
kl assz</w>
ész et</w>
h h</w>
ot tul</w>
v o</w>
kol ó</w>
10 .2
G ÁL
képviselő csoport</w>
király i</w>
cí mét</w>
tétel e</w>
egy es
alkat rész
R ed</w>
MEG NEV
8 7.</w>
szer keszt
s ített</w>
korlátoz ások</w>
Je an</w>
öng ész
megtalál ja</w>
cikl us</w>
tart juk</w>
ent ől</w>
pont jára</w>
tud nod</w>
id ek
ás nál</w>
kifejez ve</w>
hivatkoz ás</w>
előret öltött</w>
M utas
ük nek</w>
hidr ok
St .</w>
H ú</w>
lény ek</w>
emlékez tet</w>
szerelm em</w>
világ osan</w>
od on</w>
l im
felügyel et
ebb ek</w>
tu n
visszak ap
eltér ve</w>
vet tél</w>
ar i</w>
Fan tasztikus</w>
Cs eh</w>
St an</w>
számító gép</w>
nagy jából</w>
hoz nak</w>
lő ni</w>
er et</w>
eredmény eit</w>
Ugyan az</w>
év é</w>
hú sz</w>
Svéd ország</w>
si mán</w>
büntet és</w>
karácsony i</w>
fi amat</w>
h íg
nagy ra</w>
Kar ácsony
eset et</w>
ítot tál</w>
segít esz</w>
n ig
át helyez
fel venni</w>
Nem sokára</w>
N athan</w>
dev iz
Fej leszt
összeh ang
ta s</w>
okoz ó</w>
vezet het</w>
Rög tön</w>
h ek
bizott ság
Afr ik
op tim
V on
kit er
0 4
őr t</w>
nevezet esen</w>
mosoly og
fertő zött</w>
z ék</w>
i as
benn ük</w>
S ex
nál ak</w>
H T</w>
ak ban</w>
Hú s
kép z
Á ME</w>
lát tuk</w>
bu j
m os</w>
tétel i</w>
y e</w>
fél elem</w>
ar is</w>
meg lehetősen</w>
hálóz ati</w>
Korá bban</w>
Össz esen</w>
test vére</w>
felhasznál ni</w>
hozzá adott</w>
Goog le</w>
er õ
számítógép es</w>
kr ónikus</w>
kod ott</w>
fel szív
Charl otte</w>
cs eh</w>
bekövetkez ett</w>
nyíl ván
közel ről</w>
mány ok</w>
c ast
b út
oz zák</w>
Nap tár</w>
ó -</w>
w or
bar lang
---- ----
cél lal</w>
ét vágy
enz im
E miatt</w>
w e</w>
előmozd ítása</w>
hazud ott</w>
Egy ütt
op er</w>
más ra</w>
valami kor</w>
sim a</w>
fut ni</w>
abla kon</w>
H ét
cs ók</w>
vi har
ka ját</w>
cenz úráz
mi ket</w>
Bold og
gondol tál</w>
arc ra
ör öm</w>
kon szolid
keresked ési</w>
hív d</w>
f ut</w>
t te</w>
dolgoz ó</w>
3 7.</w>
zés éhez</w>
Fáj l
elintéz em</w>
talál sz</w>
kellen ek</w>
Sz ár
Er ő
virág ok</w>
megerősít ette</w>
ol anzap
módszer rel</w>
Ad at
se hol</w>
utána m</w>
szabvány ok</w>
jó képű</w>
C os
mű sor</w>
képesség ét</w>
oc k</w>
be hat
a hova</w>
MEGNEV EZÉSE</w>
költség eit</w>
idősza kot</w>
tün d
paramé ter
határ t</w>
el rendel
el ind
In tr
beszél tek</w>
L ét
magam mal</w>
nyilván osság</w>
M iz
löv és</w>
L es
al ul
D ou
ellenőr zött</w>
T ut
Fegy ver
Apart manok</w>
y vel</w>
C -</w>
ül ve</w>
visszat ér</w>
ford ítani</w>
W e
o kir
kény elmes</w>
in nal</w>
fél tem</w>
Andre w</w>
Ang li
Mi n</w>
El intéz
gl ük
Jog i</w>
í li
ár akat</w>
bár ban</w>
V ez
ök ológiai</w>
tit kos
kihirdet ésének</w>
aszt ott</w>
imád om</w>
ai hoz</w>
V en
át y
feny eg
par i</w>
ös nek</w>
H ó
mozdul j</w>
jár at
cs ka</w>
mér ete</w>
megold ani</w>
ked ni</w>
bizonyít ékok</w>
Szer v
U S</w>
ás ától</w>
h ell
fris sen</w>
M olly</w>
Á NY
von ja</w>
rug almas
T od
szerű bb</w>
trá gy
Pi hen
kép esít
g om
GYÁRT ÁSI</w>
V II.</w>
sző ny
parancs n
inter fer
t ik
jel zés</w>
akti vit
N ö
ven nem</w>
köny ve</w>
kór ház</w>
el jöttél</w>
mag unk</w>
is a</w>
ki egyensúly
Bor z
Kombin ált</w>
k és</w>
szerez tem</w>
rend et</w>
fogl y
behozatal ra</w>
srác ot</w>
lakos ság</w>
W at
8 4
3 .2
kor ra</w>
ven nie</w>
ód ni</w>
cs ok</w>
bevezet ése</w>
ség en</w>
meghatároz ottak</w>
kifizet ések</w>
enged i</w>
c an</w>
Kíván csi</w>
S úl
BA N</w>
j ól
ítél i</w>
kombin ált</w>
isz t</w>
es szív</w>
emel eten</w>
ment eni</w>
alkalmaz ottak</w>
ság om</w>
hy per
csator na</w>
értékpapír ok</w>
J o</w>
s ivat
har min
vol tatok</w>
P as
if jú</w>
bekezdés t</w>
né m
lő tt</w>
Re bec
i má
d os
val ót</w>
né kik</w>
had sereg
h ód
kr umpl
ol vad
mér ő</w>
alkot ó
növek vő</w>
l on</w>
flu or
kutyap óz</w>
kezel ésre</w>
nézz en</w>
hozzájár ul</w>
bel et
NEV E</w>
utal ó</w>
u rá
os ságot</w>
összetev ők</w>
Ö t
r an</w>
köz öl
ki próbál
katon ák</w>
P ow
Gy akr
Vinc ent</w>
jegy zet
elő terjeszt
alap os</w>
sz áll</w>
óz ni</w>
igény bevétel
ad o</w>
G DP</w>
mar ket
lo w</w>
Do min
mag atokat</w>
használat ával</w>
f ö
M ely
kom oly
ac él</w>
FELT ÜNTET
- A</w>
ko szt
kin éz
elér éséhez</w>
ügy ében</w>
Ér té
va g
teljesít ése</w>
költség ei</w>
csomag olás</w>
Hall gat
od j</w>
uzs ál
til al
rend szerint</w>
igény el</w>
állás pont
kellem etlen</w>
Ma c</w>
CO 2</w>
9 ,
hajt ott</w>
dés t</w>
K emény</w>
terápi ás</w>
régi óban</w>
jegy ezni</w>
hal ottak</w>
órá ban</w>
vizsgál ó</w>
lap letöltés</w>
fejl emény
Hat ály
ó bb</w>
ész ak</w>
vár juk</w>
II I
Stre et</w>
védelm ére</w>
rögzít i</w>
mexik ói</w>
meg takar
cs ot</w>
halász at</w>
harc os</w>
ccs al</w>
mind et</w>
ed dig
d ra</w>
KÖVET KEZ
átalány értékek</w>
át koz
kom b
L ett
enyh e</w>
cél pont</w>
K ong
fel old
al só
Ő K
lány okat</w>
Ki vel</w>
írás beli</w>
tegy ük</w>
Segít eni</w>
Bizony ára</w>
báty ja</w>
értékel em</w>
ij eszt
Alex and
Sz ó</w>
hep at
Fél ek</w>
j aként</w>
bet ét
Car ol
fő iskol
hír t</w>
7 .2
megjegy zés
Tulajdon képpen</w>
Bizottság a</w>
társ ak</w>
szempont okat</w>
beteg et</w>
összeg eket</w>
ség ed</w>
szül ők</w>
Szám os</w>
ing er
arcra élvezés</w>
P op
I y
kezd ő</w>
bo gy
ajánl atok</w>
z ong
rez id
unk kal</w>
tr ól</w>
bur g</w>
iz é</w>
K ény
idő vel</w>
templ om
akar ták</w>
Meg old
S D</w>
om meghatároz
dokumentum okat</w>
Bulgár ia</w>
men nék</w>
sz usz
os tob
em es</w>
Sz en
program ban</w>
lej át
lab dát</w>
jog gal</w>
komp on
irány ban</w>
és es</w>
Á T
gomb ot</w>
tájékoztat ás</w>
tapasztal t</w>
oz ták</w>
menek ült</w>
őr ültség</w>
meg munkál
er o</w>
zet esen</w>
az okhoz</w>
Men nünk</w>
term eszt
lá ba</w>
k tól</w>
Kel j</w>
utas ítás
Vel e</w>
sz tár</w>
E X
D es
oldal ra</w>
gondoskod ik</w>
ad ása</w>
tulajdon os</w>
n etek</w>
felhasznál ásával</w>
Sok an</w>
1, 5</w>
növel ése</w>
gyüm ölcs</w>
értékel ését</w>
Bar ry</w>
W ar
meg szervez
Lu ci
ö ttünk</w>
p ik
par k</w>
inn ov
bo hó
ír om</w>
jelent ős
utaz ási</w>
megkap ta</w>
W ill
Jer em
tes tét</w>
t nak</w>
europ a.
Meg mondom</w>
EN T
ak tus</w>
Megjegy zés</w>
szok ás</w>
mutat koz
av at
Hölgy em</w>
mer ev
hatékony an</w>
egész ben</w>
barom fi
199 8.</w>
N ate</w>
Fej ezd</w>
v ölgy
fej lett</w>
Mond j</w>
an ci
bej ött</w>
uta s</w>
ment i</w>
tartal ék</w>
projek tek
mi ri
R á</w>
ás ukat</w>
ab iz
H m</w>
szám ítva</w>
c áp
M ik</w>
ő ek</w>
idő pontban</w>
am egyek</w>
tal maz
pénz e</w>
SA L</w>
vég telen</w>
ot tat</w>
munka erő
jár tál</w>
lán c</w>
egyen lő
Tel efon
y d</w>
Ro bb
fej emben</w>
halál át</w>
ajánd ék
fellép és</w>
N I</w>
án kat</w>
madar ak</w>
csökken ése</w>
ű en</w>
kör zet</w>
Emlék szik</w>
víz um
figy el</w>
9 0
támogat ására</w>
illet ő</w>
feltétel ekkel</w>
beszélget és</w>
csökkent és</w>
róz sasz
l ing</w>
el kés
h mm</w>
3 6
származ nak</w>
győző d
Üdvöz öl
fél tékeny</w>
Ge or
fény képez
elő ttünk</w>
az okról</w>
V o
meg zavar
el képesztő</w>
biz onnyal</w>
ó menklat
Érté kel
teker cs
vá l</w>
veszt eget
tú rák</w>
ka var
lép jen</w>
elveszt ette</w>
dollár os</w>
J ay</w>
öt tek</w>
kö re</w>
próbál d</w>
mérleg el
hat ására</w>
fel vett</w>
elő adó
o w</w>
kider ít
fegyver eket</w>
ond a</w>
kedv ed</w>
elad ási</w>
nyújt ottak</w>
b öngész
visz i</w>
ja im</w>
igaz am</w>
Kor e
tán c</w>
t ért</w>
t ára</w>
jogosult ja</w>
Föl dön</w>
mul at
l s
kép e</w>
gondol juk</w>
nem es
ezz ek</w>
P L
le x</w>
T ün
vér em</w>
terület re</w>
munka erő</w>
ett nek</w>
A lá
csal ás</w>
S to
Gr eg</w>
valami vel</w>
tagállam ot</w>
M últ</w>
hátrány os</w>
b az
er refelé</w>
Csat lakoz
át a</w>
T ra
ház as</w>
Ny it
nyit ható</w>
jövő beni</w>
gondol at</w>
szí ne</w>
haj lék
Mind két</w>
s etek</w>
hol land</w>
esély ünk</w>
Hall om</w>
értékel ést</w>
jog át</w>
tit ok</w>
zál og
el rendez
s őség
képesség e</w>
R ám</w>
Gyű l
r ot
lég itársa
C A</w>
ned v
kivétel es</w>
dönt ő</w>
c .</w>
ellentét ben</w>
din am
P apa</w>
vélet len
prod uc
Szól j</w>
Bizony os</w>
hal ak</w>
öt vö
mem óri
c ut
alapvet ően</w>
on ba</w>
leg ény</w>
késő n</w>
Mező gazdasági</w>
Az ta</w>
csökkent ésére</w>
5 43</w>
Afr ika</w>
szerep ét</w>
ly ka
haj lam
átl an</w>
nyom ja</w>
k es</w>
M ÓD
é kai</w>
men ne</w>
listá ja</w>
D is
z enek</w>
paj zs
Sz e
varázs lat
támad t</w>
felelős ség</w>
Sz ét
küld i</w>
ít ót</w>
Ügy es</w>
összeg ének</w>
kod ás</w>
egyedül álló</w>
nő je</w>
Fil m
fogy ott</w>
ANY AG
indul unk</w>
fogyaszt ói</w>
or s</w>
víz be</w>
w his
erej ét</w>
J egy
meg érdeml
Vicc elsz</w>
EM Z
ny ári</w>
beny om
ká bel
st on</w>
pénz zel</w>
fokoz atosan</w>
T ön
H ay
es ni</w>
energia hatékony
tablet tát</w>
Nép köz
y le</w>
vállal t</w>
p omp
l d</w>
k ek</w>
éjszak ai</w>
t ikus</w>
kir ak
Tisz telt</w>
táb lá
kö töz
W ol
virá g</w>
N ómenklat
Kat ie</w>
w in</w>
ismer ik</w>
Sz án
p h
hiv at
angol ul</w>
J ami
ké z</w>
tul aj
M and
K alifor
Ros s</w>
technológi ával</w>
V id
10 0
kamat láb
ma x</w>
szív ed</w>
büntet ő
ó inak</w>
nál l</w>
szí vét</w>
szenny ező
család od</w>
an o
Össz es</w>
ország oknak</w>
olvas ható</w>
ék ben</w>
met il
jellemző k</w>
hagy ták</w>
Né gy
J esse</w>
éko s
ezet ül</w>
bű n</w>
T ő
ember iség</w>
ALKALMAZ ÁS
szolid ar
gyárt ása</w>
ad va</w>
korá ban</w>
Aty a</w>
esz ter
S lo
d og
kukor ic
fur cs
nap ló
hozz on</w>
elkövet ett</w>
Ját sz
ság ból</w>
mind addig</w>
meg beteg
cél t</w>
Ül jön</w>
t ű</w>
hum an
Ho ward</w>
D re
áll ítása</w>
Áll jon</w>
közel ít
s véd</w>
elveszt ettem</w>
dönt éseket</w>
alkalmaz ásáról</w>
szün etet</w>
ru m</w>
Jo bb
korlátoz ás</w>
egy séget</w>
Mat th
Lor d</w>
3 2
vala hova</w>
p assz
gyerek eknek</w>
Fi úk</w>
tenger en</w>
partner ségi</w>
el rejt
Amerik ában</w>
mar ha</w>
dá tum
P L</w>
Minden esetre</w>
s kál
med ence</w>
uta sok</w>
b isz
b imb
kísér let</w>
pénz ét</w>
lop ott</w>
amely ekkel</w>
bo y</w>
mez telen</w>
zen ek
elem hez</w>
Ty ler</w>
nyer s</w>
kezd ete</w>
Mar ie</w>
má ba</w>
B ent</w>
ról unk</w>
str essz
eni ük</w>
köz ti</w>
Leny űg
ismer tetett</w>
ka b
ak iről</w>
használ ták</w>
et ett</w>
kap tál</w>
ro l</w>
na vig
Val akinek</w>
szolgáltat ott</w>
kony há
fel ébr
demokrá cia</w>
Í me</w>
vit ték</w>
hidrok lor
gyakorl atok</w>
bal l</w>
nézz étek</w>
cs iz
vér nyomás</w>
Dou g</w>
érdek ű</w>
tér re</w>
képviselő i</w>
og én
kialak ítása</w>
im er</w>
meg teremt
jav ul
ideiglen esen</w>
finanszír ozott</w>
L ou</w>
visz on
pály án</w>
meg tudni</w>
Találkoz unk</w>
o -</w>
idő d</w>
szerez ted</w>
növeked ési</w>
kizár ólagos</w>
Nemzet ek</w>
k ről</w>
férj hez</w>
tisz ta
elő adó</w>
és kor</w>
É SZ</w>
va szt
S pr
portug ál</w>
vi tá
ismer ni</w>
fel felé</w>
ar tán</w>
Cat herine</w>
osság a</w>
nap od</w>
szün et</w>
P C</w>
szek tor</w>
Súl y
vég zik</w>
meg rendel
V ik
Hár om
5 0
vend ég</w>
sér ülés</w>
ny el</w>
lab da</w>
ad tad</w>
G ord
Kics im</w>
beteg eket</w>
eredet ileg</w>
S Ő</w>
CS OL
ép ült</w>
é nk
Europ ean</w>
visszaj ön</w>
ellentét es</w>
ck er</w>
bel ém</w>
aktu sok</w>
öl ő</w>
p s</w>
út ból</w>
l ettel</w>
kis -</w>
fény es</w>
szabály ait</w>
kom prom
ítot tad</w>
cenzúráz atlan</w>
asz tani</w>
kes er
hálóz atok</w>
P T</w>
v inn
stabil it
köv ette</w>
világ ra</w>
hig gy
kirán dul
ház ból</w>
u sában</w>
Sar a</w>
Ho us
el bír
szakért ők</w>
ort h</w>
C ím
olyas mi</w>
fény képek</w>
von ni</w>
jegyző könyvet</w>
s ülly
5 -</w>
módosítás ok</w>
Hatal mas</w>
Bar b
200 7.
üldö z
több it</w>
tat ta</w>
rab lás</w>
átu tal
Bar át
ért esz</w>
un dorító</w>
bíróság on</w>
f ér</w>
Iz ra
nap tól</w>
Ez úttal</w>
Kid erült</w>
meny asszony</w>
hall asz</w>
ug ran
fal at</w>
it h
ip ul
tárgyal ás</w>
mennyiség ét</w>
folyad ék</w>
szá d</w>
kedv em</w>
besz áll
összet ör
kev esebb
elhagy ta</w>
és einek</w>
kód ex</w>
Gondol j</w>
E D</w>
támogat ni</w>
r õl</w>
hall ja</w>
Egész en</w>
es tem</w>
Cs op
ind ex
s of
Meg találtam</w>
ess a</w>
arány os</w>
kil átás</w>
kielég ítő</w>
fog ott</w>
vámtarifa szám</w>
mér ő
képez ik</w>
marad vány
gat ni</w>
S tu
pl an
bev ont</w>
Rob in</w>
é jük</w>
Meg ígérem</w>
ver ni</w>
ab lak</w>
ül tél</w>
ön gy
túl z
sul iban</w>
m értékét</w>
harmon izált</w>
Egy értel
pillant ást</w>
ha vonta</w>
ágy ba</w>
visel i</w>
szob ájában</w>
nehéz ség
zár ó
tár gy</w>
p e
emel ni</w>
esz el</w>
ap ját</w>
polgár mester</w>
has sák</w>
ell el</w>
ön gyilkos</w>
napr ak
eredmény einek</w>
meg teszem</w>
bu z
z ab
minős ülnek</w>
KAP CSOL
K éz
ugr ott</w>
rendőr ségi</w>
T ök</w>
K am
Jer uzsál
ra ko
elcs áb
szánd ékosan</w>
T O</w>
3 4.</w>
viszony lag</w>
hat odik</w>
A us
Össz e</w>
tisz tá
leg főbb</w>
uds man</w>
n es</w>
meg követel
telefon álni</w>
gumi abron
di ab
3 7
m áról</w>
200 8.
level ek</w>
Men ny
szégy ell
nélkül ed</w>
meg kér
Ap ád</w>
uk ba</w>
kal i
i i</w>
tüd ő
szolgál t</w>
megtalál ta</w>
Ér z
tárol ási</w>
tol vaj</w>
környezet ben</w>
idi ó
vigyáz ni</w>
rész vétel</w>
R uss
el s</w>
n ulla</w>
K örny
j alak</w>
Hall gas
közö m</w>
szám ítottam</w>
megtalál tam</w>
bolt ban</w>
Tel e</w>
G old
kézi könyv</w>
ogram m</w>
elkészít ésének</w>
bu ta</w>
KÜLÖN LEGES</w>
bb al</w>
kárty át</w>
ol om</w>
oz ó
bas eb
Yor kban</w>
y n</w>
b egyű
ó r</w>
pénz ed</w>
ELM EZ
nyújt ó</w>
Kérd ez
av ig
változ ást</w>
viz es</w>
nem sokára</w>
ci gar
P ri
B ak
ít ették</w>
d ában</w>
al ista</w>
feladat okat</w>
ak kred
kötel esek</w>
t este</w>
állat gyógyászati</w>
nyi vel</w>
á vá</w>
csomag ot</w>
P har
ORSZÁ G</w>
á mi
cs esz
v on</w>
boldog gá</w>
á it</w>
zés sel</w>
na drág</w>
b ro
I AS</w>
raj tuk</w>
pil óta</w>
kód ok</w>
ja bb</w>
men jenek</w>
Sh el
óce án</w>
É N
toj ás
gond ot</w>
E I</w>
tegy em</w>
remény ked
laboratóri umi</w>
veszt i</w>
ítan om</w>
pl ik
el vének</w>
A K</w>
V egyes</w>
Szövet ségi</w>
lőt tek</w>
irány ítás</w>
század os</w>
8 ,
ál ták</w>
elkap ni</w>
Cs al
rem ekül</w>
ta ny
Eur os
épület ben</w>
ny elés</w>
üt ni</w>
E ny
2, 5</w>
történ hetett</w>
katasztró fa</w>
egy esít
Gyakr an</w>
IN TÉ
EU KK</w>
lát vány
egyen ruha</w>
barátnő d</w>
Nál am</w>
függ vény
M od
tör eked
om ata</w>
l us
lak ást</w>
á jával</w>
has sanak</w>
hal at</w>
azonos ítani</w>
s hi
köt ni</w>
4 3.</w>
munk ára</w>
láb ad</w>
magyaráz at</w>
m s</w>
gyer tek</w>
al any</w>
In nen</w>
át tekint
ság on</w>
é j</w>
elkezd ett</w>
mér ési</w>
itár ius</w>
d .</w>
áz ott</w>
értékesít és</w>
sz éd</w>
fájl ja</w>
előír ásokat</w>
3 5.</w>
ügy vezető</w>
zés ének</w>
pal ac
meg állít
lá nyom
ad junk</w>
kony hában</w>
be vet
INTÉ Z
port fól
piac gazdasági</w>
szigorú an</w>
kérdő ív
mű vel</w>
sztor i</w>
rom lott</w>
mutat ók</w>
enged ni</w>
tömeg ű</w>
szakaszá nak</w>
K uty
alg orit
ki fejleszt
játé kos
adat ot</w>
szen tel
mark t</w>
Bár milyen</w>
00 1</w>
tox ic
perc es</w>
W all
ti e</w>
nyilatkoz at
Bem utat
c el
C .
á I
p el
or ok</w>
ul tam</w>
mik us</w>
lány át</w>
gyullad ás</w>
do min
G on
csill ag</w>
ig ent</w>
él es</w>
t omp
at ív
őr eg</w>
ko re
Han nah</w>
tagállam ai</w>
meg hoz
ed ző</w>
W est</w>
va c
tüzelő anyag</w>
keszt yű
fal u</w>
köz beszerzési</w>
ko c
influ enza</w>
ev e</w>
felszerel és</w>
feladat ot</w>
ember re</w>
oldal át</w>
fejez ete</w>
eur ót</w>
száz ad</w>
stim mel</w>
társa sági</w>
t is</w>
ki húz
ismer tet
ad on</w>
lu x
fő r</w>
O sc
c har
távol i</w>
tat tam</w>
fog tam</w>
köz lemény</w>
folyam atot</w>
hagy lak</w>
több oldalú</w>
nővér em</w>
szö g</w>
b ill
küldö tt
Cs o
L .
Elő re</w>
Sz ín
meg köszönni</w>
beszám oló
Gondol ja</w>
Le w
tömeg e</w>
hí d</w>
innov atív</w>
L az
zár ni</w>
típ u
viz uális</w>
pont on</w>
Vél emény
200 9.
eljár ásban</w>
12 5</w>
vas út
mm ol</w>
gyerek e</w>
Co oper</w>
sz tár
gyilkos ságot</w>
sug ar
ny áron</w>
előny t</w>
ért hető</w>
több sége</w>
u i</w>
v érzés</w>
Jami e</w>
Intern ational</w>
E kkor</w>
megegyez ik</w>
riz s</w>
B T</w>
im a</w>
za cs
i x</w>
adós ság
PA R
mell etti</w>
közzét ett</w>
Mar t
ös szer
tartoz ol</w>
B lu
us nak</w>
té kony
szán almas</w>
G ri
nyis d</w>
él tek</w>
száll ítás
R ick</w>
tulajdon képpen</w>
szerep e</w>
F A</w>
on nak</w>
K ár
másod lagos</w>
AK CS</w>
lát nak</w>
be épít
on s</w>
Fájl elemző</w>
egyidej ű</w>
túl lép
élet ünk</w>
B az
teszt et</w>
le írás</w>
B is
ujj lenyom
ci d</w>
El tűnt</w>
jön nöd</w>
áj ára</w>
betegtájékoztat ót</w>
bűnö ző</w>
Meg kérdez
Fejleszt ési</w>
ó ni
ázas od
el juttat
ac i</w>
Ma ur
ezz enek</w>
át ot</w>
ANYAG OK</w>
száll ított</w>
feldolgoz ás</w>
E V
kocs ik</w>
bocsán at
kezd ek</w>
jog áll
el nökség</w>
alat t
Ver s
M itől</w>
K OR
ek sz
Cas ey</w>
kor ban</w>
történ ete</w>
támogat ás
per es</w>
ujj leny
rendszer eket</w>
megelő zése</w>
lép és
ismer ős
t og
f it
ilyen eket</w>
fen náll</w>
a idat</w>
Meg őrül
igazol ó</w>
el hal
N él
Kö vet
Har vey</w>
j az
idősza kok</w>
csész e</w>
bossz út</w>
l ett
Ó ri
vál tak</w>
meg bocsát
hi ába</w>
ten em</w>
U R
mod ul
ser iff</w>
Ind ia</w>
nyílván os</w>
Ne hogy</w>
borz almas</w>
abb á</w>
meg sérült</w>
ÖS SZ
tr ak
Angel a</w>
199 7</w>
t ív
la h</w>
irá ny</w>
bé na</w>
KEL L</w>
enged éllyel</w>
Vég ez
Pill anat
Ü K
szervez ésének</w>
nő m</w>
meg csinálni</w>
es ter
Kész ít
g ó</w>
Hel en</w>
le fed
használ juk</w>
báty ád</w>
Mar cus</w>
Oli ver</w>
E ar
ind ex</w>
O szt
úsz ni</w>
kos ár
hol tan</w>
függel ék</w>
bl ik
mob il</w>
bb a</w>
el jut
bev ált</w>
szám olni</w>
Szeret nél</w>
M mm</w>
kínál at</w>
Ellen őriz
szám lák</w>
minden nek</w>
export ált</w>
U m</w>
fény szór
fi c
gyűjt ő</w>
csak is</w>
li ber
f olt
level ében</w>
TET ÉS</w>
ül ések</w>
áb ráz
trük k</w>
p ecs
f utó
Ü zen
t ban</w>
k ában</w>
helyezked ik</w>
bü dös</w>
O kos</w>
p est
On line</w>
CÍ M</w>
kics er
gr atul
va i</w>
lo ck</w>
elm ar
elem nek</w>
baráta id</w>
Fel ügyel
vissz any
tárgy ak</w>
bék és</w>
áll ították</w>
megmutat om</w>
V iv
ház tart
haj t</w>
tám adott</w>
tat lan</w>
fut ott</w>
W end
tartalm át</w>
hív jon</w>
meny asszony
ami óta</w>
l ottó</w>
Mun ka
ön kormányz
ének el
Á men</w>
von at
an na</w>
meg történik</w>
Egy ipt
felügy elő
ö r</w>
ö b
rá jön</w>
fű tő
für dő</w>
Ar c
A ran
repül ő</w>
pán ik
vé c
meg érkezett</w>
i ót</w>
csoport ot</w>
Fog adok</w>
F uss</w>
érték en</w>
tű nő
ter embe</w>
se hová</w>
hat állyal</w>
fog ás</w>
di ák
fogal ma</w>
sö r</w>
szom széd</w>
Col e</w>
kerül het</w>
L .</w>
szint ek</w>
EB HT</w>
felhasznál ási</w>
Gond oskod
k g
k ad
sziget en</w>
ország on</w>
ma napság</w>
Jus tin</w>
ül ése</w>
program okat</w>
any ámat</w>
valami ben</w>
pad l
Jerem y</w>
cél zott</w>
Fran kie</w>
kont in
bér leti</w>
felhasznál ói</w>
á tunk</w>
le buk
hár man</w>
far ok
beáll ítás
ék eny</w>
részlet eket</w>
por n
5 000</w>
minimu m
hoz ok</w>
ford ított</w>
fej ében</w>
egy iket</w>
lajstr om
Su per
Al i</w>
in cid
v is</w>
AM EN
válasz olni</w>
segítség nyújtás</w>
tat ja</w>
Bru ce</w>
meg hatalmaz
ker ing
csod át</w>
bör tö
Figy elmeztet
ártat lan
áldoz atok</w>
e on</w>
t nek</w>
erős ített</w>
P ok
ülés en</w>
ka ilag</w>
jegyz ék</w>
bocsá tani</w>
ki oszt
egyet értek</w>
eg es</w>
S IS</w>
szomszéd os</w>
kocs ik
enyém et</w>
k egyetlen</w>
mely ik
T ej
Minden kit</w>
Figyel jetek</w>
er a</w>
tá j
más részről</w>
Szlo vé
ít unk</w>
n eur
ká val</w>
Szerző dő</w>
ugyan ezen</w>
Mi ből</w>
sch engeni</w>
együtt esen</w>
K é
komb inál
199 6.</w>
Wash ington</w>
rögz íteni</w>
ki adó</w>
f ű</w>
Mind egyik</w>
Irány ító
kezd ünk</w>
művész eti</w>
hír eket</w>
irod alom</w>
hét re</w>
B re
iz áció</w>
vis elt</w>
str and</w>
né ni
0 .1
vállal ati</w>
om hoz</w>
fel halmoz
rá k
tör zs</w>
i tu
cs eng
kéz b
két oldalú</w>
stíl us
megbíz ott</w>
jogos ultak</w>
g gyel</w>
visszatérít ések</w>
i ekben</w>
hu nyt</w>
Eleg em</w>
ig g
érdek eit</w>
vissza él
C an
An nyit</w>
több éves</w>
ismét lő
fel oszt
An ne</w>
2. 31</w>
I sz
ön öknek</w>
intellig ens</w>
Cent ral</w>
szint etikus</w>
íz l
ot i
od i
minta vétel
egyen érték
leg gyorsabb</w>
közön ség</w>
in s
HC lips</w>
létez nek</w>
c an
F elv
hető leg</w>
el adó</w>
ás ul</w>
szül eid</w>
mell etted</w>
isten it</w>
bejelent és</w>
lass ú</w>
hető ség</w>
Ho use</w>
am ra</w>
Lap ja</w>
érvény esül
0, 5</w>
ol talom</w>
kizár t</w>
jöved elmez
e itől</w>
ÉS I</w>
hely telen</w>
199 5.</w>
part ner</w>
kul túrá
z ív</w>
mec cs</w>
etil én</w>
elfelej teni</w>
Am anda</w>
un kon</w>
kerül ő</w>
a ur
nevez ik</w>
ja ink</w>
em hez</w>
T iszt
Rob er
tör vényi</w>
figyel ni</w>
W y
L ő
ély t</w>
v e
mutas sam</w>
mellékel t</w>
gg al</w>
europa. eu</w>
H T
expor tőr</w>
elem eket</w>
jóváhagy ás</w>
hivatal i</w>
elm esked
szól jon</w>
ri el</w>
mennyiség i</w>
S á
c or
Kí nából</w>
pont jával</w>
politik át</w>
M illi
T ro
P ip
z us</w>
kész let</w>
hely ette</w>
SZ ÜK
Gi bbs</w>
óz is
mu tasd</w>
la nak</w>
H ib
ötlet ed</w>
nyug at</w>
könyv ben</w>
p ok
f igu
E .</w>
belől ük</w>
ET I</w>
hom ály
ki men
Első fokú</w>
épület ek</w>
szörny eteg</w>
É t
ic al</w>
anyuk ád</w>
öl el
bör tön</w>
ac har
épület et</w>
rendszer nek</w>
íz is</w>
Minisz térium</w>
egyen es</w>
meg figyelő
hall ok</w>
dol cs
S em</w>
ó sok</w>
pr éd
ön d
tilt ott</w>
T en
Sz óra
ott ság</w>
csir ke</w>
Rebec ca</w>
Par ker</w>
vegy ék</w>
u tak</w>
isz om</w>
en n</w>
aty a</w>
N atal
tat ási</w>
művész et</w>
goly ót</w>
funk ció</w>
c os</w>
büsz k
het lek</w>
el von
jelentkez ett</w>
hatály ban</w>
B O
köz elmúl
en ék</w>
Cs in
lak ott</w>
Z öld</w>
Nézz enek</w>
szén hidrog
O b
John son</w>
I tal
201 1.
olcs ón</w>
elfogad ásának</w>
S T
Nél kül
rib avir
küld tek</w>
Mar ty</w>
10 .1
É SÉ
ta knak</w>
költöz ött</w>
kat ol
r ut
il át</w>
m é</w>
jár vány
cs őd
választ otta</w>
problémá ja</w>
I K</w>
ák ról</w>
tot ál</w>
pillan atot</w>
R us
R O</w>
Kizár ólag</w>
ember ében</w>
gyógyszerész ét</w>
Csup án</w>
üz em</w>
meg hozatal
időpont ot</w>
kur vára</w>
bár csak</w>
l eked
bur kol
10 7.</w>
köcs ög</w>
el adni</w>
tartomány ban</w>
talál hatók</w>
elő zetesen</w>
ott ja</w>
meghal ok</w>
til takoz
av is</w>
Köz vet
HAT Ó
il lá
háború ban</w>
er rel</w>
aggód ik</w>
teljesít i</w>
részesed ése</w>
képviselő k</w>
ható nak</w>
növeked ést</w>
mi be</w>
kapcsol t</w>
fog ta</w>
vál assza</w>
ná val</w>
előír ásoknak</w>
bán ja</w>
Oly an
13 6.</w>
pat ib
ott o</w>
év ő</w>
egészség re</w>
tar tandó</w>
meg szök
Viz sg
K emény
m id
javas lom</w>
háború s</w>
reag ál
hatás ait</w>
szed ett</w>
ON T
száll ítása</w>
ind ik
at in
tor zul
szánd ékoz
problémá kat</w>
gyűrű t</w>
egyetem isták</w>
rand i</w>
tr ől</w>
tuc at</w>
mel ó</w>
ér ő</w>
ur at</w>
mes élt</w>
bossz ú
Ter ry</w>
esz ünk</w>
an gyal</w>
méter es</w>
Rend szer
Húz d</w>
mond tak</w>
hall od</w>
fenntart ása</w>
199 4.</w>
célkitű zés</w>
Fel tételez
nyomoz ás</w>
Vég ezetül</w>
T ak
bevétel ek</w>
Rend be</w>
D V
Bri tan
man ipul
első bb
nyom ot</w>
emlékez tet
alkalmaz nak</w>
Rég iók</w>
nagy mam
nagy lelk
Ki baszott</w>
vis elő
szegény ség</w>
no w</w>
k ést</w>
oldal ára</w>
T ot
ser d
ás vány
meglát od</w>
feldolgoz ási</w>
elő ny</w>
egymás ra</w>
bocs ánat</w>
Mar gar
í taná
Ro y</w>
Ja vas
kev eset</w>
te a</w>
fog ó
en etes</w>
dok ument
Pro f
külön leg
férj ed</w>
fájdal om
Mind kettő
I n</w>
ja in
esség ében</w>
cs om</w>
W ayne</w>
En nyit</w>
lem ar
e be</w>
választ ása</w>
ismé telt</w>
SÉG I</w>
n n</w>
jegyzék be</w>
cim bor
óce án
ének elni</w>
ot íp
támogat ható</w>
kon ver
3 4
nyom ok</w>
megerősít i</w>
z űr
világ nak</w>
C A
G I
Fü gg
fog almam</w>
ér mé
og j</w>
le fek
gondoskod ni</w>
al ól
szerencs e
p ek
ország os</w>
roz sd
M ehet</w>
Él jen</w>
rem éltem</w>
fogl al</w>
karban tart
Vic tor</w>
uk a</w>
is sa</w>
járműv et</w>
fertő ző</w>
1 12</w>
kér ünk</w>
jelentkez ő</w>
e it
c le
1 15
3 8.</w>
G lob
vendég ek</w>
függel é
Szlováki a</w>
meg tagad
Bír óság
agr ár
Szeret ed</w>
válasz olt</w>
szab ott</w>
munka helyi</w>
működés ének</w>
tőzs d
terror izmus</w>
meg hajt
gyűr ű</w>
O L</w>
old ani</w>
elfogad ását</w>
el jegy
megvalós ítása</w>
alap elv
Haj rá</w>
É v</w>
ni um
f és
L ek
K osz
het őnek</w>
Tha i
Luc as</w>
vicc elek</w>
áció k</w>
gyö ker
ezz ünk</w>
Fr ed</w>
ol unk</w>
vonal at</w>
elég telen
ben nünk</w>
meg mondom</w>
far ag
K ék</w>
áll al</w>
mez ő</w>
tetej én</w>
meg volt</w>
közel ébe</w>
ellenőrzés ét</w>
ügy fél
t .</w>
ellen em</w>
bul it</w>
O x
város ból</w>
tapasztal at</w>
reprezent atív</w>
üveg et</w>
té mát</w>
név leges</w>
elem zése</w>
szer ző</w>
bel ef
Fi am</w>
K ik
vit or
orv ost</w>
ók tól</w>
mű fasz</w>
Wo w</w>
tapasztal atok</w>
megöl i</w>
it o</w>
at ar
ta nt</w>
minden képpen</w>
S or
hely eken</w>
áz s</w>
ub li
kellő en</w>
jegyzé két</w>
hoz atal</w>
ak aszt
é koztat
állít va</w>
ma in</w>
Lehet etlen</w>
Yo ung</w>
tes d</w>
pár beszéd</w>
korrek ciós</w>
Mi hez</w>
Bet h</w>
változ at
tarta sz</w>
ká l</w>
ját szanak</w>
200 2.
aláír t</w>
em ért</w>
Sváj c</w>
IF RS</w>
A ar
jelent ik</w>
fel szín
L and
szolgál ja</w>
csökken és</w>
bevezet ett</w>
értékesít ett</w>
Á m</w>
goly ó
bár hol</w>
av állal
ain kat</w>
Al i
hagy hatom</w>
fej jel</w>
En ter
indul ok</w>
Tr ac
nyíl ik</w>
ben éz
al bekezdése</w>
29 9</w>
há g
K las
ment ességet</w>
fel száll
ma d</w>
kí sért
ai ak</w>
Finn ország</w>
vall ási</w>
h egy</w>
t eket</w>
foly ékony</w>
z ok
s sz</w>
Jos ep
kop ony
el tel
beteg ségben</w>
vegy él</w>
Megnéz em</w>
zs eni</w>
mondan ád</w>
Gondol koz
str and
Vin ce</w>
h essenek</w>
Orv osi</w>
H ET
éj ét</w>
bély eg
K N
öreg em</w>
tör ök</w>
szül ettem</w>
kiáll ított</w>
el viselni</w>
Jap án</w>
magad at</w>
já ul</w>
b ölcs</w>
keresked ő</w>
hat tok</w>
ess el</w>
alkal mával</w>
tehet sz</w>
szerencsét len</w>
kétség be
L ust</w>
négy zet
nap ját</w>
komprom issz
fel von
Kormány zó
F it
Dob d</w>
módos ította</w>
kezdemény ezés</w>
érz ett</w>
megpróbál ta</w>
met sz
gáz ok</w>
szá r</w>
igazgat óság</w>
előny ben</w>
TAR TAL
J ess</w>
tájékoztat ni</w>
küld etés</w>
d ni</w>
lány od</w>
Val ahol</w>
jelent ését</w>
Elfelejt ettem</w>
kg m</w>
i é
bír ja</w>
Más odik</w>
kémi a</w>
akik nél</w>
Fog ja</w>
Eth an</w>
EB B</w>
külön ös
katasztr óf
repülő gép</w>
Ki váló</w>
emb ri
kommunik áció</w>
segg ed</w>
pic it</w>
fel ület</w>
R ö
lényeg ében</w>
engedélyez ési</w>
m 3</w>
kötelezettség eket</w>
ká kat</w>
b om
történ ne</w>
sor s</w>
elég edett</w>
rem ény</w>
ké zi</w>
főnö ke</w>
körül i</w>
abor atóri
EF SA</w>
An der
felhatalmaz ást</w>
T ol
vi gye</w>
fizet nek</w>
elő lem</w>
visszatérít ési</w>
vezet ők</w>
Harmad ik</w>
minden ütt</w>
l elt</w>
or i</w>
ker ít
ók ról</w>
Carol ine</w>
meg világ
köny örg
fól ia</w>
egy részről</w>
össz ef
próbál t</w>
1 30</w>
od af
injek ciót</w>
il it
ath er</w>
Szeret néd</w>
pán cél
ok k
hal ott
á juk</w>
Kép es</w>
ülés én</w>
ony t</w>
objek tív</w>
lova gl
értékel i</w>
ság od</w>
t ic
védelm éről</w>
tas son</w>
r ik
Bro wn</w>
terror ista</w>
mű vek</w>
enci ális</w>
Ügy nök
um b
múlt kor</w>
formá ja</w>
mo gyor
ked velem</w>
értékpapír os
n us</w>
mi d</w>
jelent ettek</w>
Ad ok</w>
ellenőrzés eket</w>
Egy előre</w>
3 9.</w>
p h</w>
o kig</w>
feled kez
dr og</w>
vezér l
es re</w>
bejegy zett</w>
Tud nom</w>
Szerencs ére</w>
Sz ed
FIGY ELMEZ
S ab
megöl t</w>
ide ális</w>
elvit te</w>
ki vál
zs i
z omb
Kel et</w>
repül ési</w>
ja ik</w>
múlt ban</w>
vezet nek</w>
jelleg e</w>
av isz
hető ek</w>
sugár z
nk nek</w>
h árty
meg teszek</w>
kielég ít
Jord an</w>
mi r
kötelezettségvállal ás</w>
gy szi</w>
4 4.</w>
feltétel e</w>
pisztoly t</w>
ol i
kérdez i</w>
dokumentum mal</w>
cuk rot</w>
jog ait</w>
Wil son</w>
F áj</w>
ki pu
fed ezet
új já
törvény es</w>
Szív em</w>
felügyel ete</w>
Mar i
Á r</w>
beszélg ettünk</w>
J óz
bű z
K ezeket</w>
kíván om</w>
gen etikai</w>
P HP</w>
szusz pen
fel kér
F ura</w>
AD ATOK</w>
tud tak</w>
S el
Ér zem</w>
kivon at</w>
fertő zések</w>
B la
művé szet
más okat</w>
gondol j</w>
szil árd
ma it</w>
szim ul
oz unk</w>
kitett ség
foly ó
Tart s</w>
N ap</w>
próbál juk</w>
es ít</w>
Bíz z</w>
jöt tetek</w>
3 A
ves e
alap ját</w>
Tob y</w>
199 7.</w>
p am
ogat ni</w>
S ally</w>
f õ</w>
bűnö ző
F A
tú sz
el mében</w>
el húz
Bír ó</w>
partner ek</w>
Remél jük</w>
tár t</w>
Egyez mény</w>
irány ítást</w>
cs ig
mozg ás
ind ított</w>
nyis sa</w>
ch i</w>
zavar t</w>
más ként</w>
oszlop ában</w>
Természet es</w>
zs eni
Hal l</w>
Cs ú
részlet esen</w>
k ás</w>
játsz om</w>
formá k</w>
tűn nek</w>
kéz hez
bil incs
Mich elle</w>
f ó
Bír ó
felnő ttek</w>
Carl os</w>
ül het</w>
tér ség</w>
ten ie</w>
el ter
tervez ési</w>
it tam</w>
T her
szekrény ben</w>
minden ekelőtt</w>
mag ánál</w>
kezd em</w>
ügy es</w>
órá ig</w>
megkez dése</w>
END Ő</w>
visszat art
Ez eknek</w>
szél esebb</w>
se b</w>
gyom or
íz is
tulajdon ságok</w>
radi o
fájl okat</w>
bej ön</w>
hár mas</w>
US E
P art
Li z</w>
szen átor</w>
moz og</w>
k ot
innová ciós</w>
ki re</w>
as s</w>
K ór
származ tatott</w>
ar ab</w>
Vic tor
v ettük</w>
r önt
Megőrül tél</w>
sul i</w>
lát ó
O D
valamely i
p it
Ukraj na</w>
talál nom</w>
repülő gép
r ac
lép nek</w>
Foly tasd</w>
tér ít
am mó
közleked ő</w>
hagy tál</w>
el ár
W int
pusz tán</w>
erő forrás
ember ben</w>
d om
pal ot
o j
bizton ságot</w>
ak ut</w>
Á Z
jöj jenek</w>
be hozott</w>
mened ék
indul ás</w>
darab ot</w>
Azon os
üveg ház
új at</w>
érvény ben</w>
man n</w>
k ára</w>
gyógyszer eket</w>
ni valók</w>
terv em</w>
fél ék
Figyel embe</w>
m o</w>
L ej
té nek</w>
tetsz eni</w>
jó tékony
hor mon
elképzel ni</w>
szint jének</w>
hely ről</w>
foly ós
akar na</w>
Őr ült</w>
Klas sz</w>
megfelel jenek</w>
kerül tem</w>
el nyom
Fu tás</w>
odal ent</w>
irány ítása</w>
in él</w>
Sen kinek</w>
s .</w>
m érté
öl teni</w>
saj tó</w>
ológ us</w>
munk ád</w>
S S
D in
otta bb</w>
M ak
faj ták</w>
old atos</w>
gyanú s</w>
Bár mikor</w>
V élet
S un
és eknek</w>
ir t
kapszul a</w>
p eng
d is
Kö tel
társaság ból</w>
lel ki</w>
állam ban</w>
vá sz
oz ol</w>
könyv ek</w>
ai ból</w>
D erek</w>
vesz el</w>
g ent
as i</w>
s újt
sul iba</w>
néz ünk</w>
if ik
tehet séges</w>
ill .</w>
kábító szer</w>
fiz etek</w>
a im
Ken ny</w>
bomb át</w>
Bizottság ának</w>
pénz ért</w>
Tod d</w>
i er</w>
elér i</w>
ut ód
has sam</w>
zs in
megkülönböz tetés</w>
ismer lek</w>
e ur</w>
amin o</w>
Képzel d</w>
5 0.</w>
új rak
szemb enéz
S ul
őr ült
expozí ció</w>
új onnan</w>
id om
biot ik
bel em
visszaj ött</w>
statisztik ák</w>
kiszám ítani</w>
r is
elfogad ják</w>
TER M
robban ás</w>
pr óba</w>
kr et
egyez tünk</w>
díj az
L éleg
vész helyzet</w>
lesz áll
emelked ik</w>
F ül
B V</w>
ÁL TAL
tart ály</w>
szolgál nak</w>
nyilván osan</w>
Egy szerű</w>
jelen ik</w>
igazság os</w>
an ia</w>
Ed ward</w>
7 00</w>
Áll andóan</w>
marad tak</w>
P il
L ang
kezel ésben</w>
an tit
ország gal</w>
K ital
változ at</w>
rá adásul</w>
Próbál om</w>
Határ oz
É szt
köny ör
kézb esít
egész ség</w>
személy nek</w>
létrehoz ni</w>
fel áldoz
ugyana bban</w>
hátral évő</w>
barát ság
ját ssz
bizony ult</w>
Áll ít
rend ezett</w>
Ur am
ett ség
ID Ő</w>
á ján</w>
viz ek</w>
. 1</w>
ár end
sá val</w>
körny é
össz esített</w>
É hes</w>
Táj ékoztat
nő s</w>
hal ok</w>
ec h</w>
vez ette</w>
hatóság okat</w>
ember ünk</w>
Az okat</w>
szál ból</w>
marad éka
blok kol
összez avar
vala hová</w>
jelent éseket</w>
gyárt ásához</w>
aut ópály
r átok</w>
b ik
és üket</w>
hely esb
Pa ul
rem ű
elm entek</w>
b ud
I an</w>
C er
esz nek</w>
ker ék</w>
al s</w>
ta va
részt vevő</w>
Segít sen</w>
ül ne</w>
MÉ NY
K B
át lép
város ában</w>
tart od</w>
szom orú
s is
lány omat</w>
ki ür
t ság</w>
er ed</w>
vá d</w>
tulajdon ában</w>
módszer eket</w>
fű ző
Nyol c</w>
von zó</w>
on gat
kézhez vétel
kezel ését</w>
en él</w>
K ing</w>
árny ék
ár ukat</w>
mér ni</w>
birtok ában</w>
C D
működés e</w>
M ekkora</w>
Car rie</w>
ja ival</w>
d y
biztosít va</w>
asztal t</w>
- --</w>
viselked ik</w>
gond osan</w>
f úz
Sz or
Sp enc
összegyű j
Ö V
jog cím
iz o
H U</w>
té vé
Tá vol
í va
időpont ját</w>
H áz</w>
OL ÁSA</w>
Halá sz
éghajlat változás</w>
tud tunk</w>
szórakoztat ó</w>
po har
impor tőr</w>
eurorend szer</w>
ot ox
hib ás
g ur
olg ár</w>
KAPCSOL AT
él ked
Ü GY
mű tő
lá tunk</w>
ap p
T é
Mi közben</w>
rendel tet
megjegy zés</w>
gazdálkod ás</w>
vezet ési</w>
len ek</w>
ki szabad
hur kolt</w>
az okon</w>
an cia</w>
ció n</w>
term elt</w>
h olt</w>
ehet sz</w>
használat ára</w>
vásár olt</w>
tür elm
szeret et
pénz ügy
ny e</w>
győz ni</w>
eszt end
bán ni</w>
megpróbál ja</w>
ig en
En nyire</w>
foglalkoz ni</w>
előirány zatok</w>
SZ T
P E</w>
i ták</w>
Rész letes</w>
segít ene</w>
cir k
I P</w>
keres let</w>
hal tak</w>
na k
N ame</w>
vad ász</w>
rádi ó</w>
folyam atok</w>
os at</w>
né met
király a</w>
határ ok</w>
eltér ések</w>
maj om</w>
em e</w>
b oly
Szük ség</w>
Es te</w>
ná sz
dém on</w>
cucc ot</w>
u ma</w>
hely ben</w>
la j</w>
megpróbál tam</w>
ek i</w>
F is
tanul mány</w>
intézkedés eknek</w>
hul lá
gyilkos t</w>
Nyilván valóan</w>
Könyör g
1 1
ez ték</w>
vill any
ikus ok</w>
Mer c
Kur vára</w>
ellát ó</w>
el ef
Segít ek</w>
Cs uk
vág ta</w>
Hu h</w>
cik két</w>
helyszí n</w>
- Mi</w>
len e</w>
fedélzet i</w>
Cso mag
vissza fizet
pi p
láss a</w>
el ront
ci c
U K</w>
Sz ex
szer rel</w>
meg tervez
já nál</w>
Lenyűg öző</w>
ás omat</w>
mány os</w>
Bocs án
meg lé
befektet ő</w>
C oll
zavar ok</w>
ent ünk</w>
egy e</w>
iz landi</w>
ez nek</w>
elő vigyáz
or ális</w>
nyo mán</w>
mor e</w>
M úze
Car ol</w>
megerősít ése</w>
SÉG ES</w>
emelked ő</w>
Caf e</w>
tű t</w>
műhold as</w>
gu mi</w>
foglalkoztat ási</w>
FIGYELMEZ TETÉS</w>
am eddig</w>
akar tunk</w>
k li
alap ot</w>
jelent sen</w>
ha ja</w>
Áll at</w>
franc ot</w>
El lop
R ól
Mo ham
fájd almas</w>
szól tam</w>
Nézz en</w>
figyelembevétel e</w>
ed ből</w>
szem et</w>
nyom at
ne ut
M Ű
Hív ja</w>
Csinál juk</w>
ország ra</w>
kis fiú</w>
h esse</w>
gyűjt emény
al szom</w>
Viv ud</w>
szállít mány</w>
gondol tuk</w>
C re
m ális</w>
bab y</w>
mag unknak</w>
gép járművek</w>
tal aj</w>
Jess ica</w>
Fi ú</w>
part ra</w>
megjegy zi</w>
fot ó
végrehaj tás</w>
szul fon
agg ály
szörny en</w>
bejelent ést</w>
M ehetünk</w>
osz lop</w>
ipar ág
Hoz ok</w>
meg erőszak
enged em</w>
beteg ekben</w>
U T
ap ám
té veszt
ki ütés</w>
g o
vesz ett</w>
Tegy ük</w>
9 .2
u nak</w>
kategóri ák</w>
rendszer re</w>
ev i
ód j</w>
oz ást</w>
atalá nak</w>
Nyug at</w>
Tár sa
ír ó
repül ni</w>
kap u</w>
il t
fecsk endő</w>
Franc is
l é</w>
human itárius</w>
fiatal ember</w>
tan unk</w>
leg kevésbé</w>
kapcsolat osan</w>
r ic
ox i
köl tö
foglalkoztat ás</w>
a cs</w>
r é</w>
ko kkal</w>
tol er
talál nak</w>
sor t</w>
hit tük</w>
akik kel</w>
bocs áta
3 50</w>
ű t</w>
mennyiség ben</w>
R on</w>
tá ció</w>
rendelkezés ekről</w>
igaz olja</w>
ig ény</w>
ha d</w>
boszor kány
Gondol kod
CSO MAG
vide ót</w>
csoport hoz</w>
raj ta
megpróbál t</w>
f olt</w>
J ug
pan t</w>
lo x
isz ik</w>
es i</w>
cím zett</w>
kész letek</w>
Büsz ke</w>
téved tem</w>
tevékenység ét</w>
ly uk</w>
szér um</w>
meg kért</w>
ho a</w>
farka s</w>
sp ektr
ő jét</w>
kockázat át</w>
jobb at</w>
fel bont
Paran csol
IL L
G reg
der ít
P in
idő kben</w>
y r
id et</w>
V irá
Tu be
Litvá nia</w>
Kur va</w>
orvos hoz</w>
cser ét</w>
H ur
pog lyka
kever ék</w>
T T</w>
S ex</w>
farok számot</w>
eg gyel</w>
rá sz
osztály ba</w>
megjelen ik</w>
ÁLTAL ÁN
tárol andó</w>
idő s
3 00
megy e</w>
meghal tak</w>
jár tunk</w>
C amp
É g
esz mélet
sor rendben</w>
veszélyez tet
panasz os</w>
nyug alom</w>
csökkent ett</w>
irányelv ek</w>
ég nek</w>
iz sá
Meg bíz
. europa.eu</w>
meglep ő</w>
far k
ech ten
ir ek
hat tad</w>
ki ak
foglal ó</w>
Oli via</w>
találkoz ik</w>
F i</w>
ér hető</w>
lat z</w>
kiszám ítása</w>
y c
pr efer
Ki csi</w>
r in</w>
eim mel</w>
i ából</w>
f rey</w>
jog ellenes</w>
felhasznál ható</w>
csinál tak</w>
R ub
fiz eti</w>
alább iakban</w>
ug u
pos tai</w>
el szúr
nyer eség</w>
intézmény i</w>
hagy hatjuk</w>
né hány
Is ab
Ak ik</w>
fő n</w>
ébr en</w>
ÉR T
Len ne</w>
ér ia</w>
4 8.</w>
f ecs
bűn tud
rendel eti</w>
pul y
má g
íl ia</w>
éd et</w>
vi cs</w>
meg tette</w>
poli mer
különb ségek</w>
vill an
t már</w>
lát tak</w>
lej árt</w>
jár tak</w>
Szer bia</w>
l is</w>
ent ő</w>
csek ély</w>
Sz omb
H IV</w>
kom patib
Z ÁR
veszély be</w>
til alom</w>
megfigyel ési</w>
hat tak</w>
fl otta</w>
aj ta
Tel ep
Szerv usz</w>
pont okat</w>
határ érték
ami hez</w>
Utá na
tart ották</w>
Sop hie</w>
hallg at</w>
Va csor
M is
El i</w>
C PA</w>
fogad ta</w>
töm b
elm ul
R ad
érdem el</w>
ismer ős</w>
b ón
vál assz
urg ban</w>
D w
sötét ben</w>
kiegészít ésében</w>
kics i
er köl
F al
lényeg e</w>
dolog ra</w>
alumí nium</w>
elnö köt</w>
mond hatok</w>
szöveg et</w>
kezd esz</w>
Gyűl öl
innová ció</w>
Vigyáz zon</w>
Jap án
keresz tény</w>
Do ug
teljesít eni</w>
lit er</w>
gr av
P okol
pl a</w>
más részt</w>
munk ámat</w>
ill eszt
figyel em</w>
Ember i</w>
gyá va</w>
ár ai</w>
Drág a</w>
u han
el olvas
ingat lan</w>
b unk
ap ró
c en
b én
raj tunk</w>
all al</w>
Ezen felül</w>
meg láttam</w>
Hatály balép
tud ás</w>
lak e</w>
i mé
feles leges</w>
cut an</w>
oc y
9 11</w>
INTÉZ KED
B ib
ő m</w>
ír ják</w>
le bonyol
Csak hogy</w>
óra kor</w>
ét ál
kit ől</w>
Z S
szabály ai</w>
nómenklat úrá
le bont
hű t
alk er</w>
4 0.</w>
Ye ah</w>
0 7
veszély e</w>
talál tad</w>
ko ka
eddig i</w>
mos ó
def in
alap jául</w>
tevékeny sége</w>
keres ik</w>
állít ólag</w>
tr end</w>
szem tanú
par kban</w>
op tikai</w>
Ér ték
miniszter elnök</w>
er nek</w>
anyag okkal</w>
R ád</w>
Közösség i</w>
ked ett</w>
irány ítja</w>
hal adó</w>
g ot</w>
gör cs
Hir telen</w>
tervez ték</w>
módos ítását</w>
Par is</w>
y ű</w>
szeg men
ed j</w>
dő l
Pár iz
B N</w>
megcsal ás</w>
elem et</w>
cip ő</w>
lobog ója</w>
ez eken</w>
lap ok</w>
fi r
fel sége</w>
Dok i</w>
tá zi
meg tag
ká d
Kí sér
terv ed</w>
nem es</w>
milli ót</w>
marad tam</w>
id ok</w>
gyor sít
el tek</w>
ament es</w>
tanács adó
Hatálybalép és</w>
át viteli</w>
való ra</w>
ho s</w>
társadal om
ol tal
ev a</w>
Vegy él</w>
H ill
G am
bel esz
s alak</w>
la koztat
hív talak</w>
Sz áz
beszélget ést</w>
ő tök</w>
ség től</w>
ow n</w>
megsemmis ít
meg történni</w>
tétel t</w>
MO OT
Wo od
Szám omra</w>
ed ről</w>
Vers eny
Jöj jenek</w>
dokumentá ció</w>
cser ben</w>
ck ey</w>
Gord on</w>
Dor ot
örök ké
tend enci
pénz nem
CSOMAG OL
Any ád</w>
kiterj ed</w>
Irányító bizottság</w>
kap ható</w>
eredet megjelöl
Egyen esen</w>
zaj lik</w>
művel eti</w>
egy ezett</w>
oldal a</w>
meg vannak</w>
kiáll ítás</w>
javaslat okat</w>
dön tő
TÉ TEL</w>
köz remű
ártalm atlan
t õ
siker esen</w>
ki vetett</w>
hall ottál</w>
Br ad
ít od</w>
ár át</w>
hazud ni</w>
p p</w>
z sák</w>
vállalkoz ásoknak</w>
oz tak</w>
injekció hoz</w>
tartalmaz zák</w>
hónap ot</w>
ebb é</w>
Mos tanában</w>
az z
érték papír</w>
szeret nek</w>
késő bb
aggód ni</w>
rejtő z
használ atos</w>
vezér lő
tud hatod</w>
bill ent
alól i</w>
Dem ok
töl tő
sz fér
G all
val akire</w>
s o</w>
Törvény szék</w>
R iley</w>
Ch er
osz lá
megtalál tuk</w>
al bekezdésében</w>
Norvég ia</w>
lesz tek</w>
Hiány zik</w>
időpont tól</w>
10 6</w>
ment esség
fi -</w>
ezz étek</w>
Tan ul
Mars hall</w>
forrás okból</w>
ÁL Y
nem kívánatos</w>
Lo is</w>
K ölcs
4 2.</w>
fertő zés
ILY EN</w>
re produk
fon al</w>
B etty</w>
súly a</w>
mos ogat
l ag
koordin á
áció ja</w>
ing et</w>
kop og
Lond onban</w>
eb éd</w>
any ádat</w>
C O</w>
ka s
ük be</w>
él te</w>
mennyiség eket</w>
ez ést</w>
tud tok</w>
bár kit</w>
szer eket</w>
vé k</w>
szür ke</w>
lég kondicion
kérdés ekre</w>
hang ját</w>
fellép ő</w>
érz elmi</w>
karban tartási</w>
jelentőség ű</w>
B R
sivat ag
vár ják</w>
m ú</w>
kérdő jelez
haj óra</w>
g es</w>
fon al
elő tted</w>
állásfoglal ás</w>
jog os</w>
An ton
tan folyam
bev ásár
kedvező tlen</w>
cél szerű</w>
bemutat ni</w>
Ter h
N et
El li
inf lá
ill eszked
2. 20</w>
meg lesz</w>
beavatkoz ás</w>
D .
tit kot</w>
a var</w>
P usz
199 9.
megállap ítására</w>
Tűn és</w>
Mar ch</w>
Két ség
d esz
csinál tunk</w>
át ort</w>
ten nél</w>
ap ádat</w>
A x
tár oló
kon té
Rand y</w>
repül és
kerül sz</w>
euro övezet
kocsi val</w>
tat om</w>
lát ásra</w>
lesz ám
end ők</w>
a fer
íg érte</w>
át látható</w>
u x</w>
bé két</w>
M ol
D ug
sét álni</w>
any a
véd jegy
eng ed</w>
költség einek</w>
kon ferencia</w>
gyerek em</w>
Al lis
ód ása</w>
cél okat</w>
bo cs</w>
gol f
diá kok</w>
cí mé
if jú
szabály okkal</w>
F li
ellop ta</w>
ni fik
dönt ése</w>
ér v
olanzap in</w>
felel nek</w>
Szé gy
hagy ma</w>
1 40</w>
z aj</w>
itt y</w>
Parancs nok</w>
KÖVETKEZ ŐK
ÁLTALÁN OS</w>
elenged hetetlen</w>
Sy d
S S</w>
egy be
Su e</w>
cle aran
értékel ésére</w>
ubli c</w>
f air</w>
el választ
egy előre</w>
so főr</w>
segít enek</w>
an s</w>
MR L</w>
d l</w>
kíván ok</w>
fed ezett</w>
akar at
10 4</w>
y ce</w>
szív ás</w>
akadály ozni</w>
Cs ó
program hoz</w>
L EJ
E A
józ an</w>
Ú jabb</w>
szám on</w>
hozz átok</w>
beruház ás</w>
9 8.</w>
. hu</w>
Osc ar</w>
támogat ását</w>
ed én</w>
dá tum</w>
leszb ikus</w>
intézkedés ekkel</w>
bel ga</w>
Ko ck
köny örög
ten ünk</w>
lőt ték</w>
fej ű</w>
motor os</w>
szak politikai</w>
lát tunk</w>
repül és</w>
játsz unk</w>
het né</w>
eredmény es</w>
mél tány
föl é</w>
Móz es</w>
szervezet ekkel</w>
Mill er</w>
vit ro</w>
el telt</w>
bet ölt
Nap i</w>
kö tö
et et
V III.</w>
környezet re</w>
csap da</w>
K int</w>
csator ná
baj nok</w>
U l
on ikus</w>
hoz z</w>
végez nek</w>
vál hat</w>
ist er</w>
Sha wn</w>
kifizet ett</w>
mond hatnék</w>
mag ába</w>
film tabletta</w>
lát om
le p</w>
ju h
RENDEL KEZ
zong or
nap jától</w>
kor om</w>
G ép
ELL EN
ellen áll
Ta e</w>
Fran ce</w>
n at
l õ
fel ett
tit kár</w>
segít ő</w>
fiz ettem</w>
cég ek</w>
OR OLÁSA</w>
Ford ította</w>
éko m</w>
részesed és</w>
ros t
ked j</w>
támad ást</w>
er kölcs
cs ar
cell ul
Lef ek
Hány szor</w>
és ekről</w>
s ír</w>
pr ov
id õ
ess étek</w>
Próbál ok</w>
5 1.</w>
s ói</w>
még pedig</w>
lépcső n</w>
találkoz ót</w>
lek üz
d u</w>
gr am
ellent mond
Imád koz
elnö ki</w>
th romb
ség esen</w>
ik r
Bosz nia</w>
szint es</w>
ind uk
vá gy</w>
magyaráz ni</w>
jelentőség e</w>
La w
teng ely</w>
J in</w>
ipar ág</w>
vissza utasít
T eddy</w>
J av
G ener
b ag
elszámol ási</w>
Ad jon</w>
M utat
od va</w>
anal itikai</w>
fordul hat</w>
Megért etted</w>
Foly am
szék helye</w>
akár csak</w>
Termé k
R ot
száll ítására</w>
piac án</w>
összeh ázasod
ér j</w>
mail ben</w>
ki bor
egy részt</w>
B au
v ent
ot okat</w>
feltétel einek</w>
egy ből</w>
üz embe</w>
sz an
laz a</w>
br az
IR ÁNY
s ut
mér et</w>
esz d</w>
elhagy ott</w>
Sz edd</w>
bizony talan
adat szolgáltatási</w>
termék eknek</w>
más hogy</w>
gazdálkod ási</w>
I di
vá nyi</w>
kiegyenl ítő</w>
r ép
vehet ő</w>
csill agos</w>
199 2.</w>
ind uló</w>
behozatal a</w>
érkez tek</w>
Sze vasz</w>
D eb
201 3.1
át vált
meg tilt
hib a
sik er</w>
aceb o
játé kban</w>
játsz ol</w>
mélt óság
esk ü
akar játok</w>
Fek üd
át vétel
nélkül e</w>
kész en
javaslat a</w>
anti biotik
NY I
Feh ér
osz tikai</w>
má j</w>
felhasznál ását</w>
álm om</w>
törek v
r esz
itr op
biztonság a</w>
tanít vány
od ni</w>
i való
Szá jon</w>
és nél</w>
ti tu
illet ék
gondolkod ni</w>
Fran cia</w>
Felügyel eti</w>
110 7</w>
ít vány
kital álni</w>
Wash ington
LEJ ÁR
ta -</w>
sp ór
kin él</w>
D O
ok e</w>
jel eket</w>
iz áló</w>
igény lő</w>
használat ának</w>
megtest esítő</w>
figyel tek</w>
esz ébe</w>
bl a</w>
zöld ség</w>
lovagl ás</w>
haj ad</w>
elősegít ése</w>
búz a</w>
Szörny en</w>
St ef
társul ási</w>
elv i
diagn oszt
199 5</w>
ügynök ségek</w>
má ni
hozzáfér hető</w>
Shan e</w>
mond hatod</w>
megbeszél tük</w>
Köz ép</w>
F F
sej t</w>
a w
o o</w>
alkalmaz kod
támogat ásban</w>
jog orvos
hang osan</w>
N O
megfelelő ség
kritérium okat</w>
al ul</w>
dolg okra</w>
bugy i</w>
almas an</w>
tej et</w>
keresked elemben</w>
lét re
intra vénás</w>
Bar bar
Kom oly</w>
szöveg ét</w>
készít ményt</w>
ho t</w>
Y ou</w>
Lind a</w>
vegy ületek</w>
fel szí
tud ós</w>
Any uk
tus ban</w>
T üz
s et</w>
karak ter
i ába</w>
próbál ta</w>
i sának</w>
z ás
nyelv i</w>
kollek tív</w>
felhív ás</w>
eset legesen</w>
ti l</w>
megcsal t</w>
papír t</w>
mat emat
dokumentum ot</w>
bekövetkez ő</w>
E .
haz ug</w>
jelenlé te</w>
basz d</w>
szé f
Két szer</w>
B első</w>
ító ja</w>
tör ölni</w>
naran cs
ki csin
Mesél j</w>
vé vel</w>
t hat</w>
karácsony t</w>
dob ni</w>
üzemeltet ési</w>
hat tál</w>
beszám ol
rit on
mos tani</w>
Euros tat</w>
nyi be</w>
sp p</w>
5 .2
ford ítva</w>
nék em</w>
hatékony ságát</w>
szörny ű
n .</w>
Szer ep
épít kez
o ut</w>
itá ciós</w>
család ját</w>
émi a</w>
lin ikai</w>
hum or
z e
vékony ka</w>
vesz ünk</w>
plat form
Tű z
élet edben</w>
test i</w>
idő be</w>
enged te</w>
TO VÁ
199 3.</w>
al bekezdésben</w>
hogy ne</w>
fej ek</w>
2 10</w>
vé k
p d
hú ga</w>
Egy szer
mérs ékel
ellát ási</w>
dön teni</w>
bá nt</w>
Pak isz
199 6</w>
tanács ad
ja j</w>
felhasznál ásának</w>
szig nifik
po hár
elő leg
X Cafe</w>
Li echten
for og</w>
Hal lasz</w>
rész esült</w>
rag aszt
m ed</w>
w ith</w>
tekint endő</w>
ru h
fot ó</w>
Herceg ov
Gyakor lat
dömp ing</w>
doboz t</w>
személy eket</w>
előáll ítására</w>
Inté z
z ár</w>
pi h
ket rec
Jen ni
ÁSÁ NAK</w>
tab il
negy ed</w>
jelleg ét</w>
etlen ség</w>
biztos ítania</w>
Ro ad</w>
LEJÁR ATI</w>
Isten t</w>
vár atlan</w>
terület eket</w>
iskol át</w>
csinál nom</w>
b eg
ünk kel</w>
rendszer be</w>
ked sz</w>
fal on</w>
V E</w>
új rat
kezdőd ően</w>
kert ben</w>
c ot</w>
Ész rev
válasz ol</w>
gyermek em</w>
T es
tömeg százalék
felhív ni</w>
ember eim</w>
Mell esleg</w>
Dá vid</w>
társaság nak</w>
javas olta</w>
it teni</w>
ev ett</w>
d ák</w>
S ÍT
R ÉSZ</w>
kl ór
usz t</w>
maguk kal</w>
jövő re</w>
előfordul hat</w>
elcs esz
boldog ok</w>
növek szik</w>
já ig</w>
T él
sí k
kör ét</w>
felel nie</w>
ed ő</w>
Ric ky</w>
os sá</w>
kiköt ő</w>
g ő
Sváj ci</w>
3, 5</w>
g rup
Pa ige</w>
Ol d
polgár mester
ki szolgál
ad óz
Sen kit</w>
L eh
ár ban</w>
ajánlat kérő</w>
E j
B ut
ker ek</w>
követel ések</w>
túl érzékeny
sod or
következ et
techn ika</w>
Kérd ezd</w>
4. 30</w>
almas abb</w>
ók hoz</w>
haz amen
KAPCSOLAT OS</w>
tr omb
szabad ságot</w>
inf o</w>
ezü st</w>
Gyerek ek</w>
én nyel</w>
átalány érték</w>
szarvas marha
mutat tak</w>
Súly os</w>
Hall ottál</w>
Gran t</w>
ál juk</w>
tax i</w>
med ve</w>
ház am</w>
D ex
Ér ti</w>
s ka</w>
p ia</w>
ez et</w>
D K</w>
201 4.
marad hat</w>
Kiny it
ár ut</w>
szekr ény</w>
helyett esítő</w>
fordul at
f rá
TU DN
M együnk</w>
Luxemb o
mi ből</w>
asztal on</w>
T Ö
bán od</w>
kamer ák</w>
Vi et
õ r
ér int</w>
megfigyel és</w>
issz ük</w>
di ó</w>
íz e</w>
tör és</w>
tagállam okkal</w>
műsor t</w>
kever ék
P EN</w>
Megmutat om</w>
M orr
igh t
haz at
AL ÓK</w>
új ból</w>
tart va</w>
szabad na</w>
ír ták</w>
megállap ítást</w>
R ég</w>
péld át</w>
osz tal
Úgy is</w>
ov j
anyag ra</w>
Men jenek</w>
zsar ukat</w>
vicc eltem</w>
el határoz
használ d</w>
ellenőr zi</w>
Veszély es</w>
Br ad</w>
A sz
hát ra
fan tázi
u kon</w>
import őrök</w>
csomagol ásban</w>
okoz ni</w>
fur gon
Sz ig
A -</w>
vér es</w>
különbö zet</w>
am ban</w>
I D</w>
mutat ta</w>
am ellett</w>
órá k</w>
okol ád
felül vizsgálata</w>
erej ű</w>
csep p</w>
Össz et
lejár ati</w>
igazság ügyi</w>
gyerm eket</w>
anyag okra</w>
zs a</w>
op t
len n</w>
V id</w>
Stev en</w>
Egy et</w>
ec tr
és éig</w>
hagy jon</w>
gar ázs
fegyver rel</w>
Törté nt</w>
út ját</w>
idej ű</w>
Szük sége</w>
old atot</w>
összehang olt</w>
meghatároz ásához</w>
lá z</w>
kerék pár
ec t</w>
Megpróbál om</w>
gyil ko
Mind ez</w>
százal ékot</w>
Taná csa</w>
El jött</w>
Abb a
ö tted</w>
ás ig</w>
kör ök</w>
Törökor szág</w>
El mentem</w>
kihív ás</w>
ön ző</w>
al szol</w>
R ap
készül tek</w>
jut ottunk</w>
biztonság át</w>
kar bon
fr ont
Kapcsol d</w>
állomány ok</w>
ur i</w>
jelentkez ik</w>
alk ut</w>
ala x
s ol
min imum</w>
szól tál</w>
kormány zó</w>
grup pen</w>
b áb
V oltak</w>
P M</w>
á im</w>
tér ben</w>
nyer tem</w>
előkészít ő</w>
k ef
6 7
18 2</w>
uta zik</w>
vis el</w>
bor ít
4 9.</w>
sok fél
seb ez
4 .2.
- ának</w>
cég et</w>
L inc
Ad ott</w>
r es</w>
mot i
ód at</w>
kidolgoz ása</w>
Mag as</w>
jön nie</w>
jel zést</w>
kí mél
be adni</w>
asszony nak</w>
Ért esít
kitett ségek</w>
kamer át</w>
al a</w>
tanulmány ok</w>
bi ai</w>
bar átunk</w>
Elen a</w>
Dav is</w>
az in</w>
s pr
el hagyni</w>
Vég ig</w>
megbeszél jük</w>
jegyzék e</w>
ir at</w>
világ szerte</w>
Nómenklat úra</w>
Nem rég</w>
M .
us szal</w>
in ok</w>
M EN
áz ás</w>
szól na</w>
at ba</w>
L op
Cl u
szül ő
Seg g
ű r</w>
nappal i</w>
állap ít</w>
ellát ást</w>
oz zon</w>
hy poglyka
adalékanyag ok</w>
K ér</w>
x on</w>
mondan ia</w>
eg o</w>
G us</w>
találkoz om</w>
mind egyik
ment esen</w>
e .</w>
belép ési</w>
F R
mód ban</w>
ít ettem</w>
meg nevezett</w>
hónap ra</w>
Is kol
igaz olás</w>
határ időt</w>
W arr
kör ébe</w>
büntet ést</w>
TUDN IV
örö köl
arc od</w>
változ ásokat</w>
meghal sz</w>
l ot
H et
S um
vezet éshez</w>
okoz za</w>
n r</w>
mellék hatás</w>
TOVÁ B
Fel használ
B eteg</w>
jellemző i</w>
alak at</w>
É ves</w>
ad er</w>
el tűnik</w>
sürgős ségi</w>
régi ben</w>
b irodal
abb nak</w>
P OR
HATÁROZ OTT</w>
H on
Barb ie</w>
ü reg
konc ep
kereszt ül
függő leges</w>
kapcsolat a</w>
Men ek
tud lak</w>
ol og
Csend et</w>
ull y</w>
fog játok</w>
gondolkoz tam</w>
ja id</w>
ford ítás</w>
kezd et</w>
kamat láb</w>
N ina</w>
ember em</w>
Any Sex</w>
TUDNIV ALÓK</w>
ki menet
Pl usz</w>
Mag át</w>
támogat om</w>
iv ott</w>
házas ok</w>
A ir</w>
jó nak</w>
összetev őket</w>
vág ás</w>
papír okat</w>
B E</w>
10 5</w>
kezel éséhez</w>
hív sz</w>
a ilag</w>
í ció
P omp
paradi csom
in y
im port</w>
fick ók</w>
cikl us
K n
nyom okat</w>
ho use</w>
et nek</w>
M .</w>
F ö
C T
ka bin
fenntart ó</w>
Talál d</w>
Nu Vid</w>
, 000</w>
ín usz</w>
hír em</w>
Köz ép
Hol ly
sor on</w>
Nyugod tan</w>
értesít ik</w>
növel ni</w>
B ell
EM EA</w>
t û
ep iz
súly osan</w>
ver z</w>
kocsi ja</w>
b uta
Nevet és</w>
s atok</w>
mutat nak</w>
W eb
áj ukat</w>
ik kal</w>
c itr
anal óg</w>
ak ról</w>
G áz
ri p
jut ottam</w>
esz es</w>
ez i</w>
Nyis sa</w>
Lew is</w>
ség hez</w>
Rem éltem</w>
L ut
megtisztel tetés</w>
len cs
robb ant</w>
férfi val</w>
Er ős</w>
Ő K</w>
módos ítást</w>
meg öl</w>
el készített</w>
E -</w>
ic us</w>
forr ása</w>
cast ing</w>
befektet ők</w>
té vében</w>
mely ben</w>
bizony talan</w>
ET É
szank ció
ed ék</w>
bármely i
Rohad t</w>
Élet ben</w>
n on
isten ek</w>
hat ni</w>
meg próbál</w>
fér jét</w>
10 1</w>
h t
U t
él mény
per t</w>
kon struk
hidr át</w>
Mit ch
ol it
kezel i</w>
elvesz íteni</w>
el hanyag
biztos ító
B ű
álmod tam</w>
Z avar
ho p</w>
test ű</w>
okos abb</w>
küld ték</w>
hang os</w>
A V
vág ó
telj esül</w>
rec ept
Tar talom</w>
St e
jelent ették</w>
import ált</w>
fagyaszt ott</w>
19 5
ért ekez
em a
ap i
J ELL
száll j</w>
het et</w>
h itt</w>
Angel es</w>
kiindul ási</w>
funk cionális</w>
szer ver
barom ság</w>
Kér ek</w>
4 50</w>
üdvöz öl
aggód sz</w>
0. 000</w>
ák hoz</w>
hazud tam</w>
harc ot</w>
f ullad
Francia országban</w>
ing ad
a uk
száll ni</w>
szeret nének</w>
F asz
Ch e
fot ók</w>
la kom</w>
gyerek ekkel</w>
foglal ják</w>
biz alom</w>
értelm ezni</w>
mint hogy</w>
meg szor
győz elem</w>
barát omat</w>
H an</w>
tervez tem</w>
si ess</w>
min tában</w>
as ban</w>
2 1
ta niuk</w>
ra b</w>
leveg őben</w>
kezd i</w>
forrás ból</w>
elér te</w>
Linc ol
milli árd
kérdez em</w>
kedvezményez ettek</w>
f est</w>
G PS</w>
het őt</w>
felhív ott</w>
Ta valy</w>
Had nagy</w>
átlát hatóság</w>
tál ib</w>
im e</w>
hi pog
R ett
C all
szob ád
klub ban</w>
L AN
Gy őz
vád at</w>
visz lát</w>
má z
kép ét</w>
imé nt</w>
fog am
szöveg rész</w>
mind kettő</w>
egyetem en</w>
Már ia</w>
o min
időtarta mra</w>
fesz ültség</w>
ít hatatlan</w>
so ka
kevesebb et</w>
egy én
tud jon</w>
tenger ész
nő knek</w>
S MS</w>
Nan cy</w>
B lo
kal óz
ill ata</w>
H ug
10 9</w>
tor ony</w>
S ürg
e vol
Kez d</w>
csap dába</w>
c ent</w>
abla kot</w>
Chris top
et an
Megállap odás</w>
Matth ew</w>
H D</w>
testvér ek</w>
nyugod j</w>
e c</w>
cím ke</w>
3 000</w>
vető mag</w>
pocs ék
o p</w>
boldog an</w>
El árul
templ omban</w>
ny í
b ö
ak tí
Szer ettem</w>
utc ai</w>
gondol nak</w>
elér hetőség
d s</w>
get ni</w>
fel ment
Beszél ek</w>
A C</w>
megközelít ést</w>
ablak ban</w>
Enged je</w>
ér jen</w>
stratégi át</w>
ÉP PEN</w>
erő sö
det ek
v eg
ra y</w>
lé ti</w>
elkezd tem</w>
P ONT
szemét láda</w>
módosítás okat</w>
elem be</w>
M áj
újság ír
keresked elm
diagn osztikai</w>
szop tatás</w>
kínál t</w>
bolyg ón</w>
L I
ér a</w>
ny űg
G ör
ü tö
ó it</w>
szület ik</w>
jel zések</w>
Vigy étek</w>
Fordul j</w>
keres tek</w>
éj jel
É szaki</w>
terület ekre</w>
megvizsgál ta</w>
ágaz atra</w>
tség e</w>
paj tás</w>
menek ülni</w>
al mat</w>
kérdez d</w>
ház át</w>
Gyors abban</w>
B ig</w>
sztor it</w>
El fogad
mind egyi
megkez dés
kop ors
Kon cent
vonal ak</w>
nál uk</w>
ki enged
fel mond
rá jönni</w>
kedvezmény es</w>
ett etek</w>
essz or</w>
Ö nök
töl tötte</w>
rózsasz ín</w>
minta vételi</w>
jelent ő</w>
hipog li
H ec
B űn
Al bert</w>
ett ebb</w>
akar ná</w>
Egyet em</w>
út ban</w>
hatékony ság</w>
kez ébe</w>
it i
folyad ék
panasz kod
H o</w>
F ot
sz aj
minőség ének</w>
egység nek</w>
csökkent ését</w>
Spenc er</w>
Oly as
ú s</w>
k ey</w>
egyez ik</w>
bi cikl
ügyvéd et</w>
pokol ban</w>
Esz köz</w>
Bo oth</w>
f ig
befektet és</w>
el öl
ass ar
Szlové nia</w>
Jac ob</w>
C el
tár ak</w>
forr ást</w>
aut ók</w>
segg ét</w>
néz tek</w>
gazda ságban</w>
szer szám
Jug oszlá
0 9.
ug ár
ro var
marad nia</w>
felel te</w>
bemutat ott</w>
Pho ebe</w>
szű k</w>
szá ját</w>
B ing
ód tak</w>
részlet ek</w>
kos ar
tizen két</w>
mozdul jon</w>
l ását</w>
hány ás</w>
ő vé</w>
lámp ák</w>
ek er
N EK</w>
készül ékek</w>
viselked sz</w>
L ane</w>
vélemény ek</w>
An gl
nek i
n ö</w>
O wen</w>
tükröz i</w>
kritér iu
st re
meg győ
hét köz
főnökö m</w>
4 5.</w>
meccs et</w>
her o
8 8.</w>
szor os
mond at</w>
U por
20 1</w>
próf é
katol ikus</w>
ir bez
Be cs
4 1.</w>
szempont ok</w>
rendőr ségnek</w>
legjobb at</w>
elő z
d omb
ala csin
Elő szám</w>
Akár csak</w>
Ő R
véd i</w>
vezet ek</w>
telep ít
hozzáfér ési</w>
h l
befolyás oló</w>
aut on
El képesztő</w>
át ültet
személy re</w>
meghatároz zák</w>
használ tam</w>
d ü
perc ed</w>
támogat ásról</w>
vék ony</w>
boszor kány</w>
alkat rész</w>
Hús vét</w>
tart ottak</w>
száj ba</w>
parancsn oka</w>
meg úsz
já ért</w>
gaz ember</w>
Könny ű</w>
Ch il
származ ás</w>
kialak ított</w>
bossz ant
I st
biztos ítanak</w>
Tet sz
Német országban</w>
Mal col
At om
É nek
W TO</w>
L er
Elveszt ettem</w>
C sá
bel eg
bak térium
Upor nia</w>
ás ak</w>
próbál ni</w>
el mondjam</w>
fick ónak</w>
Külön ös</w>
nélkül em</w>
leg egyszerűbb</w>
kitű nő</w>
vallom ást</w>
KÖVETKEZŐK ÉPPEN</w>
G or
zuhan y</w>
w ick</w>
jóváhagy ása</w>
J ól
tánc ol
jut nunk</w>
ar ab
Ur ugu
áll atot</w>
É g</w>
6 0
ä r
tegy él</w>
kép zést</w>
h inn
ítás akor</w>
játsz ottam</w>
jut ottak</w>
Qu inn</w>
L as
terh elés</w>
Ó .</w>
lehet nék</w>
iv át</w>
figy elmez
szül ő</w>
ez ése</w>
Sem mis
Assz em</w>
Ö L
utána d</w>
bed ob
. 1.</w>
unk ba</w>
meg szól
elm oz
1, 3</w>
szav át</w>
P ad
9 00</w>
köly kök</w>
El len</w>
szem ébe</w>
kar ácsony</w>
ét teremben</w>
le áll
P ur
szenny ező</w>
hol napi</w>
le csap
Zo e</w>
Párizs ban</w>
meg tett</w>
ko vá
O per
Húz z</w>
Fi atal</w>
B ÓL</w>
állom áson</w>
taná csol
sp anyol
W alker</w>
K O
om er
biztos ra</w>
tervez és</w>
kérdez ős
G lor
átlag osan</w>
on ra</w>
bár mire</w>
Step hen</w>
rob ot
letelep edett</w>
ad jam</w>
ö ko
vető mag
egyen leg
bűncselek mény</w>
szerkez eti</w>
R ec
térfog at
nap ban</w>
en ne</w>
P olg
vál jon</w>
tu st</w>
válasz okat</w>
s y</w>
rendelkezés eknek</w>
jel zett</w>
Men ni</w>
L ény
ki vizsgál
kast ély
házi asszony</w>
fest mény</w>
szín ész</w>
fent iek</w>
E I
hely rehoz
fogyaszt ó</w>
vég zés</w>
r assz
IN T</w>
mu sz
Szeret nénk</w>
4 7.</w>
ul jon</w>
ter s</w>
ró mai</w>
plaz ma</w>
iz om</w>
i a
egyed üli</w>
dag an
lánc -</w>
fiú kat</w>
amely hez</w>
Nagy obb</w>
kávé z
fo c
elővigyáz at
törőd j</w>
i án
tör ődik</w>
té ved</w>
p la
mintá kat</w>
el hár
tag jának</w>
font osak</w>
fick óval</w>
Josep h</w>
munk ával</w>
ez ekről</w>
doboz ban</w>
200 9.1
vissz asz
ehet nénk</w>
csemp ész
biztonság osabb</w>
K uss</w>
történ nek</w>
létrehoz ását</w>
alkot ó</w>
következtet ést</w>
apart man
S at
sen kivel</w>
párhuzam os</w>
o mé
néz i</w>
megállapod ásokat</w>
hölgy ek</w>
nátri um-</w>
fel áll
Nyilván való</w>
Állam okban</w>
mar k</w>
vő legény
akar tuk</w>
d ör
KA I</w>
J EL
nyúj tandó</w>
husz on
any át</w>
R al
leg esít
j usson</w>
horg ász
felel niük</w>
B lake</w>
ű nő</w>
le folytat
interj ú
Z en
V ásár
sa y</w>
mer ény
nék tek</w>
n ot
társ ai</w>
e us</w>
al pontja</w>
megold ások</w>
irod ájában</w>
fáj t</w>
tapasztal ható</w>
iter rán</w>
el hunyt</w>
ü ggyel</w>
termék re</w>
ható anyagok</w>
8 0
infrastruk túrá
el buk
à t
meg ver
hagy sz</w>
bűnö zés</w>
ap át</w>
algorit mu
ítan á</w>
vad on</w>
VÉ G
Holl y</w>
tol vaj
bán talmaz
D S
Dehogy is</w>
kap d</w>
imit ed</w>
Ne il</w>
szár ított</w>
koz ni</w>
im pulz
el sziget
vámp ír</w>
tehet nék</w>
haj land
Há bor
vall ás</w>
Ry ana
FOR MA</w>
veszt ett</w>
utas ításokat</w>
felejt ettem</w>
a I
tan ult</w>
egy ház</w>
beszélget ünk</w>
i kon</w>
vegy em</w>
megfogalmaz ott</w>
Tap s</w>
kö re
választ ások</w>
megpróbál om</w>
fi n</w>
as ha</w>
ás ába</w>
ismer etek</w>
hatás os</w>
S ur
m ill
össze fér
tanúsít vány</w>
rúg va</w>
oszlop ban</w>
meg óv
leg alacsonyabb</w>
fertő tlen
alk u</w>
mikr ogramm</w>
B un
kép telen
jegy eket</w>
egy hang
R ud
Beszél hetnénk</w>
ság ról</w>
kis kereskedelmi</w>
fel világos
esküv ői</w>
elfogad hatatlan</w>
val l</w>
meg rag
Uram isten</w>
- Ez</w>
összetev ő
forgal omban</w>
Vir afer
Tanács ot</w>
szavat oló
orvos ával</w>
o kie</w>
fel eket</w>
bl ia</w>
összeegyeztet hetőség
ás okból</w>
szín vonal
kérd ezze</w>
kifej tett</w>
ünk be</w>
viselked ni</w>
kul csa</w>
kormány a</w>
fris sebb</w>
w ell
tor t</w>
megfigyel ő</w>
fog almad</w>
éd ia</w>
állat orvos</w>
sér ülés
Sz il
Gy árt
ér em</w>
állap ítja</w>
vált ó</w>
tr ip
g um
fut ó</w>
el utaz
tartan unk</w>
hagy tak</w>
Ismé t
z ettel</w>
GYÓGYSZER FORMA</w>
saj t</w>
integ rál
szak értel
s úg
mér föld</w>
kit ölt
kap aszkod
el zárva</w>
ill at
hoz od</w>
fedez eti</w>
kérelm eket</w>
Luxemb urg</w>
s el
rész em</w>
fehér j
nék ed</w>
ad nia</w>
Vir gin
tá ja</w>
kötelezettségvállal ások</w>
Le fogadom</w>
aut óban</w>
L eb
város a</w>
hét vég
ak koriban</w>
Ausztr ália</w>
Allis on</w>
el bűv
Élelmiszer lánc-</w>
körül tekint
ko kban</w>
ked ve</w>
199 4</w>
szép ség
Kat on
Óri ási</w>
véd elmez
seb ész</w>
al bekezdésének</w>
Step han
szem közt</w>
határ értékek</w>
en kénti</w>
tö kön</w>
hét fõ</w>
f utam
Fli x</w>
borot vált</w>
szám ítanak</w>
próbál j</w>
N Y</w>
Europ e</w>
sü tő
módos ító</w>
ler ak
la koszt
hat ásának</w>
N T
Ily en
állás pontja</w>
állap ítani</w>
nyomoz ást</w>
ett et
Körny ezet
Hom e</w>
elő k</w>
Hal i</w>
pó tol
h éj
hozzájárul ást</w>
beteg eknek</w>
J ános</w>
csat lakoztat
Kosz ov
Ant ho
kí s
kider íteni</w>
elvisz em</w>
Kana da</w>
2 70</w>
minisz térium</w>
ár uló</w>
pö cs</w>
toj ást</w>
szok ás
ly uk
Tá bor
K ing
ítás hoz</w>
szelek tív</w>
sz óra</w>
V esz
Pillanat kép</w>
tr au
megfelelő ségi</w>
interfer on</w>
há tam</w>
haj tás</w>
ügy ön</w>
szeret kez
keletkez ett</w>
200 5.1
munk ához</w>
l án</w>
alább iakat</w>
2 16
ök re</w>
visszany er
munk ába</w>
irány ul</w>
B uk
szindró ma</w>
sor ba</w>
red es</w>
késed elem</w>
tör ött</w>
L Y
íta na</w>
oz ók</w>
kialak ult</w>
sz ed</w>
is ban</w>
igy ekez
fel tölt
str essz</w>
in hib
Fr ed
ro p</w>
csú ny
agg al</w>
Beszél tél</w>
érvény esek</w>
olaj at</w>
bejegy zés
an nel</w>
IN G</w>
D C</w>
1.1 6</w>
tevékenység ekre</w>
száraz földi</w>
sz ag</w>
stab ilitás</w>
in ár
ci ai</w>
INTÉZKED ÉSEK</w>
z o</w>
tájékoztat ta</w>
k W</w>
R ém
ít őt</w>
s ak
Ö nö
vér nyom
ugyan csak</w>
Mag as
K itty</w>
C ir
ó jában</w>
gyom r
elmul aszt
dics őség
Körül belül</w>
zi ós</w>
tisztviselő k</w>
kohéz iós</w>
össze esküv
és ekhez</w>
magyaráz atot</w>
ang i
al pontjában</w>
é I
tr ib
ta z
oet in</w>
ké k
holttest et</w>
b ra
Köl tség
minden ről</w>
ei be</w>
A la
4 4
épít ése</w>
tan á</w>
paramé terek</w>
finanszíroz ása</w>
Szerencs és</w>
i ával</w>
Hagy játok</w>
ál ást</w>
tan om</w>
lel ke</w>
gyakori bb</w>
M I</w>
élet ünket</w>
t ess</w>
szeret ő</w>
ragy og
göm b
fertő z
mély torok</w>
jé ig</w>
film ben</w>
fehér je</w>
Bon nie</w>
értékel ések</w>
koncent r
ind a</w>
enged je</w>
adós ság</w>
siker rel</w>
o .</w>
könyv eket</w>
haj tani</w>
dolog ról</w>
vár junk</w>
számol tak</w>
mérg ező</w>
mellék hatás
lámp át</w>
tor ny
stabil izál
panasz t</w>
Z og</w>
végez tél</w>
ly al</w>
abba hagy
Mart ha</w>
F acebo
épít ő
eh ely
viszony ítva</w>
els ö</w>
Biztos ít
val aki
szok tak</w>
szabály talan
El megyünk</w>
A gy
hiány zott</w>
esz tel
B rend
tegy enek</w>
reggel it</w>
ka cs
201 2.
rel atív</w>
összeegyeztet hető</w>
tel hetőt</w>
l íz
ja va
bút or
ven nünk</w>
kipu fogó
esz edbe</w>
a v</w>
San ta</w>
tűn ni</w>
szak adt</w>
há k</w>
észrevétel eket</w>
fi ának</w>
szomb aton</w>
megegyez ő</w>
engedély eket</w>
kir ab
Enter pr
ép ül</w>
t v</w>
azonos ítása</w>
megismer ni</w>
előáll ítása</w>
SZ EM
teg napi</w>
hatálybalép ésének</w>
zen ei</w>
rend ű</w>
hat ták</w>
fej lesz
említ ettem</w>
csillag ok</w>
per g
ehet ő</w>
telefon ált</w>
süt it</w>
szórakoz ást</w>
reag ál</w>
em ent
s ont</w>
nyug ton</w>
kockázat okat</w>
Ash ley</w>
r éz
net en</w>
kett es</w>
for dí
Fö der
ügy re</w>
vál ás</w>
vir tuális</w>
er ek
t õl</w>
HD Zog</w>
C ran
ál óz
tartal ékok</w>
rug almas</w>
csap atban</w>
Is mét</w>
vit tem</w>
rejt eget
od ról</w>
központ ok</w>
figyel d</w>
ay i</w>
tat va</w>
szter oid
P .</w>
El e
fürdő szoba</w>
D ög
pusz ta</w>
mi szt
ja iban</w>
intenz ív</w>
vég zet
szil í
l ettünk</w>
készít ő</w>
hidrox i</w>
egyik ünk</w>
történ etét</w>
növeked ését</w>
Sh ep
L ac
pro c
Fel hívom</w>
D ay</w>
óv intézkedések</w>
ár ut
mény eket</w>
S ut
seb ész
iz za</w>
erköl csi</w>
201 0.
fuvar ozó</w>
fek vő</w>
M old
állam polgár</w>
s h</w>
mol ekul
csaj t</w>
meg hibás
í m</w>
terv ben</w>
Meg ölte</w>
An n</w>
Aar on</w>
vál tani</w>
min k</w>
keres te</w>
EL JÁR
v ért
tr y</w>
piac okon</w>
köd ni</w>
En nélfogva</w>
tér ség
srác cal</w>
könny edén</w>
kitű zött</w>
függvény ében</w>
v ész</w>
szabály t</w>
os is</w>
el nyer
A F</w>
kivit el</w>
I B</w>
d ad
tábl át</w>
s váj
nyomtat ott</w>
mér földre</w>
met e
Á zs
kritérium oknak</w>
ez ekhez</w>
B ET
ő ség</w>
ett et</w>
V end
nyit ni</w>
ri f
har d
elő ző
eid del</w>
képesség ének</w>
gép jármű</w>
dolog ban</w>
szag a</w>
pén teken</w>
or gia</w>
felhív om</w>
Log an</w>
prom ó
meg érint
hajt ja</w>
ad nom</w>
Mur p
ELŐ ÍR
ová bb
megöl öm</w>
fáz is</w>
IC ES</w>
értékesít ése</w>
ta m
fl ot
B ed
á ul</w>
megelő zésére</w>
mag assar
h essék</w>
et ileg</w>
K áb
eim nek</w>
csatlakoz ott</w>
ben n</w>
ki dolgozott</w>
er dő</w>
fejezet ének</w>
ed ek</w>
va z
ul sz</w>
kiterjed ő</w>
kap om</w>
B arc
5 2.</w>
ít sam</w>
étkez és</w>
vizsgálat át</w>
bizonyít ékokat</w>
Tut i</w>
- ig</w>
szó beli</w>
szem embe</w>
kezd tek</w>
bog ar
B .
mond játok</w>
arany at</w>
teh ettem</w>
r ia</w>
ellát ni</w>
Russ ell</w>
Mi ckey</w>
ár ver
állampolgár ok</w>
két lem</w>
esküd t
beszél hetnénk</w>
Bizton ságban</w>
ír nak</w>
visz lek</w>
meg nézzük</w>
el zár
d uci</w>
alább iak
Syd ney</w>
értel ek</w>
Lett ország</w>
8 7
evol ú
ellen séges</w>
bel át
ar rébb</w>
S l
Natal ie</w>
gaz dá
J úl
tur es</w>
talál ják</w>
id on</w>
sö té
sebesség gel</w>
ot tátok</w>
ográ fiai</w>
hitelminősít ő</w>
hatóság okkal</w>
cip őt</w>
befektet ések</w>
rep u
Ke ith</w>
piac szervez
arány ban</w>
Be hozatali</w>
résztvev ők</w>
beszél hetünk</w>
megtalál ták</w>
intéz ni</w>
csatlakoz ás</w>
Hoz om</w>
talál od</w>
irod ába</w>
úri ember</w>
szám ítani</w>
szen z
osz tás</w>
fogal ommeghatároz
uk ról</w>
győz tes</w>
megér i</w>
megvizsgál ja</w>
kiegészít ők</w>
en g</w>
visz ik</w>
struk túrá
ot talak</w>
k ami
felvétel e</w>
egyetem re</w>
d íz
ó mi
ti z</w>
szél én</w>
m mel</w>
Sz ob
R af
IS BN</w>
szem etet</w>
mű szak
elem e</w>
ton n
szé tr
ogas sa</w>
G M
EZ ET
ki jár
kezel éssel</w>
in e
helyzet ének</w>
felvétel i</w>
es a</w>
el mondod</w>
v elő
dönt ések</w>
Chicag o</w>
hiány zó</w>
V EGY
Leon ard</w>
tas s</w>
h óly
tár olt</w>
ké n
Play er</w>
Igaz ság
Fin n</w>
Cipr us</w>
5 3.</w>
pr ivát</w>
kri p
ked d</w>
bukk ant</w>
9 9
választ ottam</w>
kés lel
en ia</w>
Vizsg ál
Rit ka</w>
al fa</w>
Nagy jából</w>
K az
Dy lan</w>
rendszer ét</w>
ké ket</w>
biztos ításához</w>
Minden hol</w>
F ir
C and
alv ás</w>
F S
z atos</w>
szám ítási</w>
TERM ÉK
Lap jának</w>
törvény ek</w>
projek tet</w>
má n
ol íva
mell bimb
eml íteni</w>
báj os</w>
ap ád
D ub
tárgy a</w>
od ba</w>
el visel
vám ot</w>
val ak
szám mal</w>
hib ák</w>
V et
Szer eti</w>
viz eken</w>
szervezet et</w>
kutat ó
fen il
csatlakoz ni</w>
Den nis</w>
no kot</w>
m eh
leg hamarabb</w>
használ tak</w>
f ából</w>
FELTÜNTET ENDŐ</w>
rendelkez nie</w>
kiegyensúly ozott</w>
L am
ul ást</w>
minden ben</w>
azonos ított</w>
sor olt</w>
ment s</w>
jav ítására</w>
állam nak</w>
p a
ma c
keresked elmet</w>
TÉTEL EK</w>
kam at</w>
bel ső
El i
októb er
k nál</w>
b û
sz ünk</w>
basz ottul</w>
észrevétel ek</w>
meg vár
mag áért</w>
has ított</w>
fél t</w>
funk ciók</w>
d il
ajánl ás</w>
Aud rey</w>
kezd enek</w>
keresked ők</w>
k ant
jel ez</w>
Reg ionális</w>
vállalkoz ó</w>
kedvez mény</w>
em a</w>
ebb re</w>
drog ot</w>
beszél ve</w>
Tr avis</w>
testvér ed</w>
ten niük</w>
szal on
meg gondol
kore ai</w>
F C</w>
3 18</w>
tart ósít
szabvány os</w>
nyújt ása</w>
bőv ít
es nél</w>
ció val</w>
G B</w>
CO N</w>
tart hat</w>
szabály okról</w>
ro ck</w>
prób a
elmé nek</w>
Vélemény em</w>
eg r
JÁ NAK</w>
tárgyal ásokat</w>
megakadályoz za</w>
szok nya</w>
megtalál ják</w>
f õ
szól nak</w>
gy öngy
Meg egyeztünk</w>
C ham
templ omba</w>
kér tek</w>
ideg enek</w>
ön tö
vág ó</w>
or ra</w>
foglal ás</w>
ó m
játé kosok</w>
H od
vizsgálat ára</w>
tekint hetők</w>
kez ett</w>
da y</w>
meg csinál
it ter</w>
id eb
dr ót
ház ába</w>
fur csán</w>
kórház i</w>
em leg
N C
többi eket</w>
h ű</w>
élet üket</w>
ker etet</w>
in át</w>
határozat ra</w>
föl dön
koord inál
B C</w>
c ina</w>
öltö ny
osz tani</w>
kérdez ed</w>
irek t</w>
im nak</w>
gyö kér</w>
báz is</w>
Kí nában</w>
k en</w>
bocs i</w>
jel ezte</w>
P eg</w>
Mob il
virág ot</w>
rendszer en</w>
b egy
Vám kódex</w>
hol mi
dolg okról</w>
B ör
szükség ességét</w>
ruhá kat</w>
hangsúly ozni</w>
adaléka nyag</w>
N ig
szem ű</w>
bér el
R övid
E st
vid ék</w>
nélkül öz
S O
utaz ó</w>
gépjármű vezetéshez</w>
család ban</w>
téved ek</w>
nyelv et</w>
csá vó</w>
Megtalál tuk</w>
J ell
verseny en</w>
mos to
m ínusz</w>
köt ve</w>
hal nak</w>
ff y</w>
em eg
csap ata</w>
VI ZS
ok át</w>
Mil es</w>
D üh
szerep elt</w>
szem ek</w>
pic i</w>
Ber uház
hemoglob in
el vét</w>
di vat
szolgál ni</w>
szenny ezés</w>
nyilatkoz atok</w>
alkot ott</w>
tá ciós</w>
tség et</w>
szül ött</w>
ret ro</w>
csap ás</w>
Jessz us</w>
od am
napr ól</w>
kis bab
jelez ték</w>
egy nél</w>
Sc ott
Halá l</w>
s at
mennyiség ének</w>
képvisel i</w>
Jenni fer</w>
H ong</w>
Ver on
H IV
35 4</w>
tan ított</w>
legy etek</w>
In s
é trend</w>
áll tok</w>
szolgál atok</w>
bér elt</w>
Megpróbál tam</w>
ő szinté
vit tek</w>
mű ve</w>
mond jon</w>
körzet ben</w>
usz i</w>
toll at</w>
küld öm</w>
kap ut</w>
járul ékos</w>
if f
gabona félék</w>
elhagy ja</w>
Meg lesz</w>
00 000</w>
óz ott</w>
marad janak</w>
Britan nia</w>
teljesít ett</w>
elv ette</w>
el mentél</w>
folytat ódik</w>
erő teljes</w>
Margar et</w>
web kamera</w>
cs isz
történ nie</w>
Bocsán atot</w>
vizsgálat ra</w>
termék ekkel</w>
n án</w>
leír ó</w>
ital ra</w>
el et</w>
bio cid</w>
Foglal jon</w>
Basz ki</w>
p áp
ves e</w>
s ót</w>
jut nak</w>
feldolgoz ása</w>
r us</w>
már ka</w>
feladat ai</w>
bevezet ő</w>
an éz
TOVÁB BI</w>
íg érted</w>
meg erősített</w>
m ál
jelöl és</w>
am ilyennek</w>
C amer
z öm</w>
esély em</w>
Pol itikai</w>
ér zést</w>
á inak</w>
s im</w>
asztal nál</w>
Har r
rozsd amentes</w>
fel emel
ation s</w>
érdekel ne</w>
viselked és</w>
nev ek</w>
gyógyszer ekkel</w>
gyakori sága</w>
ez ekből</w>
bel sej
TÁR OL
Cas tle</w>
szerző je</w>
prób át</w>
kutat ást</w>
c omb
DV D</w>
engedélyez éséről</w>
rett eg
m l-</w>
kígy ó</w>
kri min
bu zi</w>
tudom ást</w>
ov er</w>
meg szabad
hitel ez
er itrop
sár g
nyer emény
hatékony ságának</w>
gat ott</w>
Vissz am
Mac ed
ön re</w>
un c
távol ságra</w>
tervez et</w>
P V
2004. 4.30</w>
pat kány</w>
köz ölt</w>
hely em</w>
f uss</w>
elég telenség</w>
alap ul
üzem anyag
pu ha</w>
Szép en</w>
és ként</w>
hoz am
f e
beszél hetek</w>
alkalmaz ással</w>
reg iszt
el ül
összegyű jt
úgy sem</w>
om tól</w>
ki mondja</w>
has suk</w>
elnö kének</w>
Sz ó
súlyos b
szórakoz ni</w>
megnyit ja</w>
jut ok</w>
Olvas tam</w>
tt kg</w>
oxig én
Sö tét</w>
p ál
lova k</w>
it ás
elcsáb ítja</w>
darab okra</w>
találkoz tál</w>
megszer ezni</w>
g itár
aut omata</w>
es be</w>
egy ének</w>
Sta r</w>
Rá jöttem</w>
6 1.</w>
á jából</w>
ÉRT ÉK
szt rá
otthon ról</w>
kocsi ból</w>
kilo méter
fiz ette</w>
cigar et
ami ből</w>
öl j</w>
tarta nia</w>
ma ssz
Semmis ég</w>
I X.</w>
En er
y o</w>
ideg esít
fokoz atos</w>
bomb áz
1, 4</w>
változ tat</w>
beteg nél</w>
beleg ond
kérdés ben</w>
Olasz országban</w>
járműv ekre</w>
St ew
H ul
Csinál j</w>
vállalkoz ás
utal nak</w>
tény eket</w>
lét fontosságú</w>
sár kány
r id
recep t</w>
i -</w>
bb ak</w>
ad ék
f oszt
mechanizmu s
et a</w>
mostan ra</w>
kap jon</w>
gyakorlat ban</w>
barát ot</w>
akti vitás</w>
Willi ams</w>
Sex u</w>
rendelkezés eivel</w>
eltér ést</w>
b un
ügyvéd je</w>
számítógép en</w>
T hor
vegy ük</w>
teher be</w>
ev eg
benz in</w>
ajánl om</w>
nap okban</w>
kí na
ki üt
Kell emes</w>
él jen</w>
erősít eni</w>
lőt te</w>
iz ol
Ter hes</w>
w ar
meghatároz ását</w>
len ség</w>
Vigy ék</w>
ért ette</w>
áll ása</w>
folyos ón</w>
pro fil</w>
hí d
g eng
Mar tin
Conn or</w>
sír ni</w>
es sze</w>
ap á
amerika iak</w>
tr ón
személy eknek</w>
költség e</w>
Jon athan</w>
G un
w an</w>
vegy enek</w>
t éli</w>
0, 1</w>
tud hatja</w>
meg maradt</w>
es ne</w>
csalód ást</w>
tevékenység ének</w>
ri l</w>
any ám
so vány</w>
ké be</w>
kocsi ját</w>
Nic ole</w>
NA CE</w>
Beszél jünk</w>
őr ület
ész ter
vé tem</w>
választ ásunk</w>
kér nék</w>
kér nem</w>
uk hoz</w>
on c
közelmúl tban</w>
Feltételez em</w>
200 1.
segítség ére</w>
D A
kör öm
aggód nod</w>
Vár janak</w>
P éter</w>
M ély
öccs e</w>
Föld re</w>
Antho ny</w>
szél esség
jelentős ebb</w>
felelős sége</w>
Takar odj</w>
eredmény eképpen</w>
üzemeltet ők</w>
gyermek e</w>
Tisz tában</w>
[...]
