#version: 0.2
t h
i n
a n
th e</w>
p o
r e
t i
po s
e r
& a
&a pos
o n</w>
&apos ;
o u
in g</w>
o n
e n
a r
o f</w>
t o</w>
e d</w>
e r</w>
o u</w>
a t</w>
an d</w>
a l
o r
i n</w>
e s</w>
r o
i t
i s</w>
y ou</w>
s t
a t
o r</w>
o m
e l
a n</w>
i c
a c
ti on</w>
v e</w>
i s
e c
T h
a l</w>
&apos; s</w>
n o
a s
i t</w>
a s</w>
i l
e s
e n</w>
w h
u s
l e</w>
th at</w>
u r
f or</w>
m e</w>
l i
r i
h a
l o
er e</w>
q u
a tion</w>
l e
p ro
l y</w>
s i
a y</w>
s h
b e</w>
m en
a b
o t
d i
t s</w>
&apos; t</w>
u n
g h
@ -
@- @</w>
it h</w>
u l
e t</w>
c on
r a
w ith</w>
al l</w>
o l
ou r</w>
. .
u c
e a
e v
ar e</w>
c om
W h
a g
k e</w>
th e
ou t</w>
Y ou</w>
e m
.. .</w>
Th e</w>
th is</w>
ti on
e t
c e</w>
gh t</w>
c h
o p
no t</w>
a d
e x
qu ot
ou l
g o
quot ;</w>
& quot;</w>
r e</w>
ha ve</w>
p l
ou n
no w</w>
d o
re s
f or
s u
men t</w>
a p
on e</w>
i r
w as</w>
2 0
oul d</w>
u t</w>
i d
n e
t r
t a
th er</w>
a m
b y</w>
at e</w>
b e
us t</w>
ti c
w e</w>
it y</w>
m e
y our</w>
s e</w>
i m
h e</w>
er s</w>
l l</w>
el l</w>
A n
I t</w>
&apos; m</w>
C om
m y</w>
s e
c an</w>
h i
&apos; re</w>
p e
o o
an t</w>
tion s</w>
en t</w>
k now</w>
f f
ro m</w>
c i
po r
a y
p ar
d o</w>
w or
ur e</w>
f rom</w>
o w</w>
d s</w>
t ed</w>
N o</w>
t er</w>
il l</w>
Wh at</w>
v er
th ing</w>
p er
k ing</w>
re d</w>
t o
s o</w>
d e
m a
e y</w>
b er</w>
m o
wh at</w>
i d</w>
e g
re c
d on</w>
al ly</w>
t er
Com m
s a
s t</w>
u p</w>
f i
s om
20 0
d ing</w>
in e</w>
s p
W e</w>
u s</w>
o d</w>
u t
es s</w>
a r</w>
j ust</w>
c o
in g
g et</w>
d uc
S t
ti ve</w>
si on</w>
An d</w>
ab out</w>
w ill</w>
A r
w n</w>
li ke</w>
g i
an ce</w>
at ed</w>
us e</w>
i r</w>
h ere</w>
d er</w>
g u
ou r
i on</w>
l a
re n
ri ght</w>
ic h</w>
ab le</w>
st r
w e
t ing</w>
b o
em ber</w>
u m
&apos; ll</w>
the y</w>
sh all</w>
th ere</w>
an y</w>
t e
f in
b ut</w>
Ar tic
k s</w>
or e</w>
e ar
hi m</w>
c l
as e</w>
u ro
ic e</w>
&apos ;</w>
d e</w>
wh ich</w>
e l</w>
ac c
H e</w>
& #
&# 9
h er</w>
o ther</w>
n o</w>
ac k</w>
v i
Artic le</w>
E uro
i f</w>
g o</w>
com p
in k</w>
m in
h as</w>
Th at</w>
Th is</w>
ar y</w>
g h</w>
at es</w>
w ay</w>
pro v
i ght</w>
ev er</w>
v er</w>
ti me</w>
g e</w>
be en</w>
ea h</w>
ul ation</w>
c h</w>
p p
sh ould</w>
es s
ti es</w>
is sion</w>
ar d</w>
d ed</w>
n a
f e
R eg
t h</w>
go t</w>
it s</w>
m ore</w>
for m
es t</w>
e p
r y</w>
ag e</w>
w ant</w>
m ar
n a</w>
men ts</w>
O h</w>
&apos; ve</w>
d er
re s</w>
as t</w>
w ere</w>
d ay</w>
20 1
Euro pe
uc h</w>
p re
h is</w>
d y</w>
a u
p r
th ink</w>
ea r</w>
Europe an</w>
e st
t u
Y eah</w>
p a
ec t</w>
w i
i c</w>
d is
w ould</w>
som e
pro duc
s ec
s o
Reg ulation</w>
on g</w>
Comm ission</w>
con t
a tions</w>
a v
r ou
a d</w>
se e</w>
tion al</w>
m on
I n</w>
ol d</w>
c re
t y</w>
the m</w>
es e</w>
ac e</w>
on s</w>
B ut</w>
d n</w>
lo w
sh e</w>
s el
por t</w>
oun d</w>
s er
p h
wh o</w>
the ir</w>
lo o
U n
S o</w>
k ay</w>
i g
W ell</w>
t en
b le</w>
re e</w>
ne ed</w>
ay s</w>
E C</w>
ing s</w>
ev er
go ing</w>
wh en</w>
b ack</w>
ou s</w>
ha d</w>
M ember</w>
a f
r an
c er
C h
m an</w>
al l
p res
s ti
a use</w>
on na</w>
in to</w>
wh ere</w>
a m</w>
u b
b et
I n
ta ke</w>
o b
g onna</w>
di d</w>
b u
i es</w>
su b
do wn</w>
e ment</w>
s y
com e</w>
re g
t w
B A
el y</w>
som e</w>
u m</w>
o se</w>
el l
for e</w>
en ce</w>
wor k</w>
f f</w>
p ri
th an</w>
t ra
g ra
go od</w>
il l
sp ec
e d
t al
is h
c ould</w>
f e</w>
u e</w>
i st
en d</w>
on ly</w>
I f</w>
m ay</w>
p le
qu i
k ed</w>
an y
BA R</w>
Th ey</w>
ne w</w>
h ow</w>
o c
o t</w>
0 0</w>
v es</w>
f ir
n ing</w>
an s
wi th
c oun
t ly</w>
at ing</w>
r u
cl u
en ti
or y</w>
ver y</w>
t ur
o ver</w>
a re
v ing</w>
it e</w>
op le</w>
m an
f u
ic ation</w>
st e
s ure</w>
b ec
oo k</w>
g en
g re
il e</w>
d ec
St ates</w>
t le</w>
S he</w>
al so</w>
E U</w>
h el
ma ke</w>
t ri
ac h</w>
ic al</w>
3 ;</w>
&#9 3;</w>
in v
1 ;</w>
&#9 1;</w>
f a
i a</w>
com m
H ow</w>
om e</w>
1 9
or d
oo d</w>
o w
th ese</w>
as s
an d
f ol
pro c
f ac
en ts</w>
an c
g e
s ay</w>
pe ople</w>
y ing</w>
an s</w>
op er
is ion</w>
ti m
th or
is h</w>
k e
prov id
el i
a in</w>
or s</w>
&apos; d</w>
in ter
Th ere</w>
n ed</w>
D i
th en</w>
ea d</w>
ff ic
tw o</w>
v ed</w>
ha pp
ci al</w>
Y es</w>
C oun
an k</w>
P ar
is e</w>
le v
al s</w>
i al</w>
ad e</w>
di dn</w>
form ation</w>
le t</w>
u res</w>
t ec
th ou
m ust</w>
i ties</w>
c ar
H ey</w>
fir st</w>
us ed</w>
th ose</w>
b as
m p
some thing</w>
e p</w>
b i
l it
in t</w>
re ally</w>
bo dy</w>
A ll</w>
d ev
s uch</w>
tr ans
an g
t ell</w>
c a
re f
ti c</w>
w a
to o</w>
ci l</w>
Wh y</w>
ear s</w>
w ell</w>
d ic
i l</w>
O kay</w>
lo c
j o
un der
po n
ap pl
re l
w an
m at
l es</w>
s on</w>
d es
un der</w>
Coun cil</w>
o m</w>
au thor
me as
sa id</w>
v en
sel f</w>
par tic
t or</w>
ev en</w>
1 0</w>
o ff</w>
h e
in formation</w>
me an</w>
tr y</w>
un ity</w>
v e
in clu
il ity</w>
af ter</w>
in d</w>
T H
a ve</w>
r is
a il
u st
p e</w>
y ears</w>
fol low
a in
p en
ser v
m ade</w>
st u
n i
k et</w>
po l
f t</w>
per i
or ry</w>
s ur
lit tle</w>
s c
Com e</w>
su p
fu l</w>
lo w</w>
re ad
ap p
b r
n ever</w>
por t
na tional</w>
at er</w>
be fore</w>
v en</w>
f ri
m il
Un ion</w>
P ro
ff e
L et</w>
j ec
y s</w>
w s</w>
th rou
D ec
we en</w>
ta in</w>
C on
st ar
ul ar</w>
ren t</w>
men t
loo k</w>
n ec
c or
ever y
re at
Di rec
D on</w>
bec ause</w>
s et</w>
D o</w>
f un
sh i
ac t</w>
re qui
ta in
l ine</w>
li c</w>
p ub
li fe</w>
c ol
ic es</w>
G od</w>
m s</w>
bet ween</w>
do ing</w>
v al
en c
M ar
mo st</w>
m uch</w>
e i
e w</w>
si de</w>
M y</w>
si g
F or</w>
t ure</w>
gi ve</w>
ab l
u p
w r
spec i
f ic
el op
A l
Wh ere</w>
hel p</w>
pl ace</w>
k no
ac h
am es</w>
p ec
is t</w>
pro b
throu gh</w>
fin d</w>
lo ve</w>
b l
or der</w>
p s</w>
d et
i z
wh y</w>
con cer
h o
N ow</w>
st s</w>
ic k</w>
as s</w>
Comm unity</w>
sti ll</w>
g y</w>
c lo
con si
p ur
ex t</w>
T I
si ble</w>
g r
ap pro
o wn</w>
ste m</w>
e ff
1 0
l ast</w>
u al</w>
le g
n um
c ri
l d</w>
h ear
read y</w>
tim es</w>
is i
- -</w>
id e</w>
fi ed</w>
is ed</w>
follow ing</w>
w ays</w>
p le</w>
ta k
the re
f ul
do es</w>
ay be</w>
y ear</w>
f l
el s</w>
str uc
s ed</w>
c ap
mar ket</w>
res t</w>
it ed</w>
acc ord
s ch
r .</w>
ra p
f o
il y</w>
R e
t e</w>
b ro
ar i
S h
A d
sa me</w>
o kay</w>
J ust</w>
re gi
ex c
e ve</w>
meas ures</w>
est abl
l ong</w>
o p</w>
Direc tive</w>
c le
s ol
ac ti
L i
c en
p ut</w>
in te
produc ts</w>
St ate</w>
I s</w>
b eli
h ou
o ff
dev elop
c ase</w>
sy stem</w>
oo l</w>
an ge</w>
re a
E x
be ing</w>
in t
th er
si d
m any</w>
C O
ar ds</w>
res pon
oun t</w>
s orry</w>
c our
uc k</w>
b ot
u h</w>
l ess</w>
ne x</w>
ut e</w>
con di
c all
c ur
s k
oul dn</w>
2 0</w>
s s</w>
di rec
g ir
e re
m is
n ight</w>
O n
in d
ag ain</w>
ay ing</w>
or g
u d
na me</w>
do c
An nex</w>
er al</w>
O N</w>
st er</w>
di ffe
accord ance</w>
d at
em p
c all</w>
happ en
bet ter</w>
any thing</w>
f ree</w>
with in</w>
e ach</w>
res s</w>
1 .
g l
in ce</w>
N o
a ti
A re</w>
N ot</w>
er red</w>
te e</w>
we e
in es</w>
L ook</w>
on d</w>
par t</w>
g er</w>
pro gra
a me</w>
d re
thou ght</w>
A c
j ect</w>
a way</w>
tal k</w>
b us
po int</w>
on al</w>
J o
I N
h ome</w>
s ing</w>
al ity</w>
Wh en</w>
ch ar
pl ay</w>
id e
establ ish
n er</w>
g ames</w>
cont ro
for m</w>
ar ound</w>
E n
Wh o</w>
par ag
v ir
o le</w>
Th ank</w>
2 .
Y our</w>
on om
M a
with out</w>
li m
in cre
f am
t y
ul es</w>
th ree</w>
ou t
wor ld</w>
an cial</w>
S e
ac k
ur ing</w>
th ings</w>
M o
ir d</w>
d ra
19 9
re m
P l
num ber</w>
w er</w>
ro om</w>
A N
p i
a men
s en
et y</w>
partic ular</w>
st and</w>
ul t</w>
ch il
im ple
u r</w>
im port
f ound</w>
s m
t old</w>
tri es</w>
ou gh</w>
so ci
an ks</w>
tec h
A s</w>
n al</w>
c r
ch ange</w>
TH E</w>
al ways</w>
gh ts</w>
re as
prob le
gre at</w>
is su
shi p</w>
w om
our s</w>
dat a</w>
l ar
1 2</w>
ec onom
pa ti
ref erred</w>
s es</w>
me ans</w>
in ess</w>
rap h</w>
in i
R E
I I</w>
rel ated</w>
d r
es n</w>
pro pos
re qu
st ed</w>
provid ed</w>
appl ic
o ver
inclu ding</w>
org an
en g
hou se</w>
an n
em s</w>
gu y</w>
P re
E U
nec ess
ever y</w>
ren ce</w>
s it
ne e
isi ons</w>
fi c</w>
ro w</w>
e f
pol ic
le ase</w>
di es</w>
g et
k ind</w>
T o</w>
w on</w>
i ve</w>
3 0</w>
h an
d ate</w>
G et</w>
parag raph</w>
eff ec
G ood</w>
reg ard</w>
lev el</w>
f ra
h um
pl ac
t a</w>
ag o</w>
beli eve</w>
C an</w>
m ight</w>
pl an
lo t</w>
an other</w>
qu es
t en</w>
ple ase</w>
proc ed
pos i
are a</w>
d ays</w>
ab ility</w>
h ar
M r.</w>
a ir
por ts</w>
it tee</w>
bot h</w>
mon ey</w>
P ol
h ead</w>
li a
v is
d one</w>
coun tries</w>
th s</w>
fin ancial</w>
k es</w>
O J</w>
T E
ke ep</w>
Dec ision</w>
h y
c es</w>
m m
- -
pub lic</w>
peri od</w>
pl ay
200 6</w>
c as
o g
op e</w>
in s</w>
do esn</w>
condi tions</w>
vi ew</w>
ad op
p ect</w>
ta king</w>
fri end</w>
f ication</w>
1 1</w>
al e</w>
tic al</w>
comp le
1 5</w>
tu ally</w>
av ing</w>
is ation</w>
bi g</w>
4 .
tr ac
at eg
f ile</w>
a ke</w>
it al</w>
cour se</w>
necess ary</w>
f r
at h</w>
pos sible</w>
pro tec
b est</w>
ge ther</w>
fe el</w>
em b
p er</w>
d ro
ri ed</w>
av ail
re e
e as
gu ys</w>
no thing</w>
n ess</w>
5 0</w>
k ill
every thing</w>
l an
ou s
h ea
m en</w>
tak en</w>
I S
per s
al ready</w>
l and</w>
com ing</w>
er y</w>
D id</w>
ffic i
r ules</w>
as k</w>
to gether</w>
a id</w>
Par lia
b en
m er
oper ation</w>
R O
serv ices</w>
at ch</w>
200 5</w>
lo y
c an
man ag
bu il
hi gh</w>
y e</w>
appro pri
c are</w>
as si
it ing</w>
ain st</w>
Parlia ment</w>
el ec
di v
sti tu
li ght</w>
d ri
g rou
le ft</w>
B o
n at
0 00</w>
Th en</w>
jo b</w>
diffe rent</w>
h ol
d uring</w>
Comm ittee</w>
w as
ti l</w>
E E
ep t</w>
a tive</w>
c ar</w>
wan ted</w>
f uc
b rea
c y</w>
sa w</w>
ag ainst</w>
par t
wh ile</w>
m or
ur ity</w>
sup port</w>
in ation</w>
requi re
ad di
u ation</w>
y es</w>
d em
b ur
y s
st an
wr ong</w>
author ities</w>
st ance</w>
s ha
200 4</w>
coun try</w>
er gy</w>
P lease</w>
ac tion</w>
A R
sec ond</w>
p ic
fam ily</w>
cer tain</w>
a z
u tion</w>
ca me</w>
e m</w>
in ten
avail able</w>
happen ed</w>
w ar
f il
l ed</w>
import ant</w>
J u
C o
P o
le ave</w>
st op</w>
n s</w>
me di
en t
call ed</w>
appl ication</w>
ch ec
cont in
st ing</w>
to day</w>
G o</w>
gir l</w>
en sure</w>
le ast</w>
si r</w>
re al</w>
M aybe</w>
to p</w>
b a
h al
z e</w>
wor king</w>
at ely</w>
k er</w>
li on</w>
wh e
ag es</w>
3 .
i p
sid ent</w>
om s</w>
in ts</w>
contro l</w>
bus iness</w>
tur n</w>
f ur
re port</w>
et ing</w>
de fin
l ing</w>
rec ei
ow ever</w>
ro w
anc es</w>
at or</w>
b ab
at t
mon ths</w>
f ine</w>
n ext</w>
b ility</w>
c ra
loo king</w>
f ace</w>
in ing</w>
develop ment</w>
l ec
d en</w>
ex am
th ird</w>
re duc
w ater</w>
str y</w>
under stand</w>
st and
or d</w>
wh ole</w>
pro m
en ough</w>
produc t</w>
s ince</w>
on line</w>
fa ther</w>
B ec
ha ving</w>
a ir</w>
some one</w>
b ad</w>
om e
pati ents</w>
tal king</w>
. .</w>
B r
comm on</w>
h ear</w>
E C
ch ang
1 4</w>
us ing</w>
200 7</w>
b lo
H ere</w>
b el
des ig
i m</w>
ad min
op en</w>
t on
c al
su pp
i ous</w>
O n</w>
k id
b ed</w>
w al
e qu
ro ss</w>
un til</w>
sh ow</w>
la w</w>
el se</w>
d u
M r</w>
de red</w>
get ting</w>
On e</w>
M E
con tain
g ran
d ead</w>
in c
an t
S ec
O F</w>
per son</w>
for ce</w>
ic k
ut es</w>
k ill</w>
enc y</w>
min d</w>
bas ed</w>
ti ves</w>
econom ic</w>
ti v
an im
o ds</w>
o s</w>
tr ying</w>
1 3</w>
id enti
vir on
t ot
he al
ment ation</w>
appropri ate</w>
ris k</w>
2 5</w>
s ul
e b
hi gh
g g
y our
n y</w>
require ments</w>
T reat
ar ly</w>
proble m</w>
Euro pe</w>
m et
U h</w>
200 9</w>
n or
li ve</w>
polic y</w>
n on</w>
c ul
o ve</w>
f y</w>
a w
ti al</w>
ad v
g ot
gi ven</w>
en ds</w>
w ent</w>
g ame</w>
h ell</w>
G re
p ing</w>
pos ed</w>
or t</w>
bas is</w>
pe ti
ell o</w>
t ook</w>
t reat
A u
re lev
Bec ause</w>
me th
it ted</w>
t ors</w>
m y
star t</w>
play ed</w>
concer ned</w>
no ti
1 8</w>
acc ount</w>
c ha
.. ..
t ers</w>
im um</w>
dre n</w>
inv est
i e</w>
speci fic</w>
st ay</w>
prov isions</w>
is n</w>
e qui
pur pos
se en</w>
or ig
en s</w>
as ed</w>
b it</w>
g s</w>
pub l
pres en
ab ly</w>
there fore</w>
l s</w>
H aving</w>
ob jec
ment al</w>
inte rest</w>
sa f
h ard</w>
en ergy</w>
in al</w>
in st
mo ther</w>
en ing</w>
Treat y</w>
me et</w>
S ome
produc tion</w>
en d
E EC</w>
fe rence</w>
1 6</w>
i an</w>
200 8</w>
h on
m i
y et</w>
mo ve</w>
an ti
t on</w>
ch o
was n</w>
k ey</w>
in dic
R ight</w>
mp ;</w>
&a mp;</w>
hum an</w>
th in
di st
t re
re la
d am
pr in
Th ese</w>
emp loy
fe w</w>
R o
ag re
go ver
t able</w>
m m</w>
un e</w>
in ed</w>
W a
201 3</w>
your self</w>
S o
ous ly</w>
mat ter</w>
so cial</w>
provid e</w>
bu d
wa it</w>
si ons</w>
200 3</w>
d el
tic s</w>
ty pe</w>
ad d
in a</w>
In ter
a ff
y eah</w>
G u
comp any</w>
pro f
ac tually</w>
dec ision</w>
C ar
li g
ur al</w>
app ly</w>
d ates</w>
O f</w>
re ad</w>
ide a</w>
b ea
rem ember</w>
d ers</w>
en viron
m me</w>
un i
e e
p an
blo od</w>
doc u
h and</w>
po wer</w>
serv ice</w>
r ic
ti s
chil dren</w>
on ce</w>
p ay
sec urity</w>
posi tion</w>
er ing</w>
tur al</w>
leg al</w>
det er
ve red</w>
protec tion</w>
treat ment</w>
G er
comp et
ma king</w>
pen d
res pect</w>
Q u
sy st
f ood</w>
lo g
st ory</w>
A t</w>
el d</w>
ful l</w>
di e</w>
ar m
v ol
com men
A gre
es ti
res ul
ou th</w>
m g</w>
201 1</w>
201 0</w>
ex peri
inte re
ish ed</w>
l ab
y l
nee ds</w>
hal f</w>
hear d</w>
s le
do m</w>
vi ties</w>
mat er
m aybe</w>
Th anks</w>
h ic
thou gh</w>
inv ol
pre t
J an
con su
n ice</w>
b or
si ve</w>
relev ant</w>
div id
ac tions</w>
c ou
s al
H A
o d
ap prov
sch ool</w>
Se e</w>
sh it</w>
m ul
2 4</w>
in ion</w>
w ard</w>
s ing
im p
val ue</w>
5 .
S u
ass ess
1 7</w>
por ted</w>
u ti
1 8
in stitu
applic able</w>
ma in</w>
cont ri
s w
fun c
ques tion</w>
b er
bab y</w>
Pre sident</w>
fuc king</w>
wom an</w>
ear ch</w>
H ello</w>
h ur
acti vities</w>
cl us
Dec ember</w>
c ust
k new</w>
v ari
201 2</w>
i gh
E A
f ar</w>
an al
U N
bo y</w>
ic a</w>
com peti
h ours</w>
Agre ement</w>
sh ow
M on
fur ther</w>
1 2
al i
d ge</w>
lo gy</w>
proced ure</w>
ell ing</w>
reg ul
sub m
str u
sub ject</w>
st at
A TI
li ed</w>
D o
G en
wi fe</w>
D e
whe ther</w>
ou ble</w>
th ers</w>
mil lion</w>
O R
a tional</w>
ei ther</w>
p ul
m a</w>
6 .
ve hic
d es</w>
pri v
grou p</w>
manag ement</w>
ot e</w>
at s</w>
s aying</w>
am ount</w>
t est</w>
pr ice</w>
l on
w ouldn</w>
W i
Wa it</w>
imple mentation</w>
li st
E R
p ass
W ith</w>
n er
on es</w>
id ence</w>
H i</w>
is m</w>
ru n</w>
acc ess</w>
pres ent</w>
n ical</w>
B e
0 0
F in
in f
al low
br ing</w>
en tly</w>
re commen
pl an</w>
kill ed</w>
a st
s uc
comm un
fac t</w>
w ea
hear t</w>
y oun
comp an
H owever</w>
co sts</w>
l ater</w>
1 9</w>
Pl ay</w>
p ed</w>
ex ist
wan na</w>
fi ve</w>
li e</w>
t om
b it
qu ality</w>
I S</w>
m ine</w>
E ver
ut ure</w>
par ty</w>
gen eral</w>
Ju ly</w>
al one</w>
an ts</w>
mor ning</w>
sp ea
prin ci
A f
as soci
2 1</w>
in do
I s
h or
can not</w>
r it
ful ly</w>
fri ends</w>
u es</w>
l ation</w>
ri ghts</w>
1 00</w>
3 1</w>
sm all</w>
st or
op inion</w>
gover n
at ory</w>
h er
s et
Ever y
min utes</w>
b ut
m us
f our</w>
le ar
A mer
wor d</w>
b il
got ta</w>
gh ter</w>
ar t</w>
EU R</w>
S orry</w>
str ation</w>
tu res</w>
c am
1 7
S er
our ces</w>
per form
is s</w>
be g
O K</w>
g ed</w>
I m
me work</w>
k y</w>
A b
ini ti
ab ove</w>
syst ems</w>
me dic
c ause</w>
kno wn</w>
ver s
gen er
2 2</w>
H ave</w>
pret ty</w>
gu ess</w>
Ex c
ph one</w>
u fac
h un
O c
I C
c ir
clo se</w>
C ha
M an
h and
ac hi
f uture</w>
con f
po n</w>
z y</w>
wor ks</w>
M ay</w>
amen ded</w>
heal th</w>
d eli
it er
st ra
us ti
l ist</w>
h old</w>
ffic ial</w>
do or</w>
ex ten
g one</w>
inter national</w>
P er
b al
r ate</w>
N ew</w>
cle ar</w>
ac tly</w>
saf ety</w>
up dates</w>
tra de</w>
do se</w>
s ci
por ting</w>
ut y</w>
com b
ge ts</w>
a k
tot al</w>
proc ess</w>
h ope</w>
t ar
esti g
men ting</w>
plac ed</w>
author ity</w>
establish ed</w>
adop ted</w>
st ate</w>
consi dered</w>
CO M
com es</w>
a h</w>
f av
ke ts</w>
Ad ded</w>
A L</w>
ot el</w>
n et
T o
spec ial</w>
Un ited</w>
N e
wee k</w>
r un
fi eld</w>
ar s</w>
or ing</w>
ni fic
si mp
T ake</w>
at ch
e f</w>
0 .
leg is
sit uation</w>
li es</w>
t em
1 3
so on</w>
v o
at ors</w>
s ays</w>
str ic
W or
b and</w>
s po
d ar
concer ning</w>
N or
n et</w>
lo st</w>
ere as</w>
R ep
4 0</w>
la id</w>
trans port</w>
there of</w>
partic ip
S I
A s
wan ts</w>
J une</w>
fi x
tr ue</w>
con nec
sing le</w>
ben ef
pl es</w>
no v
my self</w>
se e
cas es</w>
nor m
proc ess
l ic
emb ers</w>
inv estig
co operation</w>
F un
sh ot</w>
sec tor</w>
l ate</w>
doc tor</w>
le t
p ay</w>
ma kes</w>
or row</w>
E S</w>
ex pl
progra mme</w>
requi red</w>
m om
compet ent</w>
in divid
ha ven</w>
s ite</w>
pur su
k ers</w>
c la
o f
de ath</w>
de al</w>
S C</w>
fo re
2 3</w>
tech nical</w>
are as</w>
O r</w>
youn g</w>
eg r
g row
mon it
H is</w>
d it</w>
b ra
elec tr
at ever</w>
any one</w>
L L</w>
bec ome</w>
pr is
d en
wom en</w>
ind u
Li ke</w>
oun ds</w>
s ent</w>
201 4</w>
acti v
admin ist
A C
cen tr
b oo
indu stry</w>
f ish
pp ed</w>
happ y</w>
kno w
F or
j ud
ter m</w>
m ach
ATI ON</w>
gen cy</w>
sig nific
off ice</w>
w on
A D
se qu
s us
tech no
de st
me eting</w>
c le</w>
bro ther</w>
reas on</w>
thin king</w>
s pe
or ding</w>
ub lic</w>
p tion</w>
co ver</w>
g ave</w>
co vered</w>
fr on
200 2</w>
t or
rec og
ro duc
jec ts</w>
T ell</w>
p ment</w>
ma j
Af ter</w>
gu e</w>
direc tly</w>
st e</w>
J es
des cri
propos al</w>
ec ted</w>
incre ase</w>
chec k</w>
1 5
Jo h
ven tion</w>
d ue</w>
man ufac
i re</w>
in stru
ar an
m et</w>
c ity</w>
si bility</w>
uti ful</w>
e ments</w>
w ish</w>
as h</w>
C ol
str ateg
o l</w>
O ur</w>
d om
to ber</w>
z z
re presen
s cre
o x
Oc tober</w>
po w
to wn</w>
cer ti
ac y</w>
P e
as ked</w>
ton ight</w>
p u
as h
in side</w>
ust ri
c op
6 0</w>
c ouldn</w>
ac tive</w>
m ess
ob lig
T w
e ffici
ep t
res earch</w>
m ed</w>
stu ff</w>
ma in
cor rec
O N
m ur
u ary</w>
loc al</w>
pa in</w>
l at
happ en</w>
resul ts</w>
c k</w>
establish ing</w>
o gra
p ap
le ad
st a
in de
th ank</w>
anc ing</w>
col lec
v ic
ut h</w>
en ter</w>
S top</w>
Jan uary</w>
h uh</w>
ig n</w>
prob ably</w>
ea m</w>
b ar
B ar
int roduc
H ar
201 5</w>
inclu de</w>
oo t</w>
f uck</w>
U S
2 8</w>
eff ect</w>
IN G</w>
R es
ys is</w>
m ission</w>
deter min
d ad</w>
l in
w el
min ute</w>
tr an
1 4
at ure</w>
out side</w>
re t
stan ding</w>
r ing</w>
C our
a il</w>
st ances</w>
kid s</w>
es sion</w>
n e</w>
det ail
compan ies</w>
ex actly</w>
priv ate</w>
po ten
d um
di ed</w>
b ri
eas y</w>
L e
enc es</w>
effec ts</w>
kno ws</w>
bu tion</w>
trans f
ar ing</w>
loc k</w>
c us
g ar
k id</w>
L ist
F ran
f ast</w>
b ir
fra mework</w>
COM M
Ch ar
sel ves</w>
every one</w>
cur rent</w>
progra mm
star ted</w>
sec tion</w>
rou ght</w>
2 9</w>
w ards</w>
at ten
au ghter</w>
go ods</w>
ti z
p es</w>
th y</w>
w it
e at</w>
chil d</w>
AN D</w>
Gen eral</w>
c o</w>
Re ally</w>
assess ment</w>
200 1</w>
suc c
gr ound</w>
fi ght</w>
d ation</w>
lo b
, 000</w>
po li
cir c
re al
or ies</w>
m er</w>
tom orrow</w>
wee ks</w>
agre ement</w>
bea utiful</w>
An y
ex pec
g es</w>
pro per
t ou
tra ining</w>
No v
EE SC</w>
E N
ser ious</w>
buil ding</w>
gu aran
wor ry</w>
s .</w>
sup posed</w>
ch ance</w>
cap ac
per f
Wh ereas</w>
Jes us</w>
com pl
T r
requ est</w>
ma x
re ference</w>
mo m</w>
lo se</w>
B y</w>
han ds</w>
acc ording</w>
addi tional</w>
re n</w>
fin al</w>
m ag
K e
tion ing</w>
C ap
si x</w>
2 7</w>
int egr
List en</w>
O r
c are
n ers</w>
Ch ris
f el
200 0</w>
loo ks</w>
in ner</w>
car ried</w>
E S
ec e</w>
fe el
de b
sa fe</w>
co st</w>
wor ds</w>
pr ices</w>
b ul
ren g
pro ve</w>
le y</w>
we ight</w>
D ad</w>
proced ures</w>
fi re</w>
bo ard</w>
E R</w>
C l
7 .
1 6
e yes</w>
D r.</w>
c ut</w>
2 6</w>
un ch</w>
exam ple</w>
tr act</w>
log ical</w>
S y
b an
S p
lev els</w>
nat ural</w>
st ain
O P
fl u
con trac
nee ded</w>
invest ment</w>
id ed</w>
cr iter
B i
h ind</w>
ver age</w>
n am
b ook</w>
list en</w>
b rought</w>
ic ally</w>
m embers</w>
pec i
equi pment</w>
ic an</w>
effec tive</w>
nat ure</w>
iz ed</w>
h it</w>
G ive</w>
im prov
P r
No thing</w>
ro ad</w>
j ust
ter ms</w>
e duc
f lo
po ints</w>
M e
struc ture</w>
c y
fron t</w>
is ing</w>
st er
I II</w>
fi g
R us
ex p
su per
res ult</w>
respon sible</w>
e ase</w>
L ord</w>
A n</w>
pol ice</w>
t le
pro ject</w>
issu e</w>
y l</w>
op port
ou ght</w>
on ic</w>
li ving</w>
s am
ren tly</w>
cra zy</w>
es si
it ch
h us
I tal
imp act</w>
di ffic
tr uth</w>
us es</w>
char ac
ev idence</w>
ell s</w>
il i
M ic
Rep ublic</w>
fu n</w>
ph ot
hur t</w>
lon ger</w>
ar t
oun ts</w>
purpos e</w>
ev al
Cour t</w>
be hind</w>
pa id</w>
ran ge</w>
M i
M in
en e</w>
g ing</w>
Mar ch</w>
t ro
sti t
F r
lo gi
tiv ely</w>
mom ent</w>
RO P
de f
me d
p t</w>
S ome</w>
par ties</w>
. e
A T
T ra
M r
ric ul
u pon</w>
norm al</w>
cen t
re li
G e
T ur
mar k
d aughter</w>
ol s</w>
iz e</w>
H o
experi ence</w>
ri st
res ources</w>
al most</w>
qu anti
S ept
chang es</w>
Sept ember</w>
O ther</w>
cou ple</w>
issu es</w>
-- --
oc k</w>
L a
dis cus
capac ity</w>
gran ted</w>
st reng
res pec
pri l</w>
brea k</w>
er c
ne y</w>
t ab
co de</w>
sp ir
s we
s il
A pril</w>
lan gu
go es</w>
re r</w>
proble ms</w>
direc t</w>
max imum</w>
qu e</w>
gu n</w>
individ ual</w>
fa il
ta x</w>
I T
tr ust</w>
ord ers</w>
se ts</w>
reg ar
bel ow</w>
know le
al ong</w>
Nov ember</w>
U L
En gl
p rec
an ing</w>
mon th</w>
S ch
ci tiz
8 0</w>
Artic les</w>
or ity</w>
sh are</w>
re placed</w>
g as</w>
B l
d ings</w>
u re
in ary</w>
t eam</w>
lar ge</w>
ill ed</w>
legis lation</w>
pursu ant</w>
pers onal</w>
tion ed</w>
wal k</w>
fac il
ag ricul
add ress</w>
Br us
p ack
institu tions</w>
off er</w>
ra id</w>
9 0</w>
j u
ar m</w>
criter ia</w>
ver se</w>
F a
for c
dam n</w>
w atch</w>
anim als</w>
sel s</w>
est s</w>
i stration</w>
Exc use</w>
a tic</w>
dr ink</w>
enti al</w>
pr ac
tu al</w>
organ is
ne w
stand ard</w>
pers ons</w>
le ad</w>
sen se</w>
ill s</w>
ter rit
tra v
u ally</w>
V i
d ru
im port</w>
b all</w>
ra di
F ir
recei ved</w>
si mil
al low</w>
cont act</w>
incre ased</w>
anim al</w>
cre dit</w>
A p
stu dy</w>
k en</w>
stand ards</w>
P h
ther ap
id es</w>
T O</w>
ever al</w>
ex pres
sh o
Brus sels</w>
purpos es</w>
en ed</w>
pro g
M om</w>
ot ing</w>
addi tion</w>
hus band</w>
p ast</w>
199 9</w>
an e</w>
T i
contin ue</w>
low er</w>
l ines</w>
vi e
mul ti
se par
ra tive</w>
l or
.... ....
bo dies</w>
im ports</w>
y a</w>
s ound</w>
ti ll</w>
en tr
in e
do w
0 1</w>
o thers</w>
defin ed</w>
S T
B u
invol ved</w>
exist ing</w>
c ent</w>
et er</w>
j ur
H el
im medi
vehic le</w>
air s</w>
a ut
consi der
form s</w>
g n
spea k</w>
ear ly</w>
ec h
poten tial</w>
wa iting</w>
ex t
pay ment</w>
su stain
h ate</w>
loc ated</w>
t es</w>
af raid</w>
tri ed</w>
ar ran
t ;</w>
qu ite</w>
all s</w>
in jec
an g</w>
m ist
employ ment</w>
A S</w>
j usti
tur ned</w>
W ill</w>
ap pe
k a</w>
A h</w>
pro jects</w>
F rom</w>
grow th</w>
vi l</w>
B el
struc tion</w>
c ro
la u
li ance</w>
h our</w>
ic s</w>
O R</w>
are n</w>
th ro
re ly</w>
hel d</w>
ad ded</w>
programm es</w>
char ge</w>
ec tion</w>
se x</w>
in ning</w>
con sul
st re
sle ep</w>
sp ace</w>
signific ant</w>
f oc
rel ating</w>
subm itted</w>
ec han
mar k</w>
ann ual</w>
S ure</w>
po p
TE D</w>
f ree
ing ly</w>
pa ren
so f
EU ROP
bas ic</w>
y er</w>
cri min
EA N</w>
ch i
t elling</w>
bud get</w>
it ure</w>
en try</w>
li ves</w>
achi ev
c ateg
J e
s end</w>
cap ital</w>
o h</w>
gir ls</w>
o re
c li
g ar</w>
b ers</w>
ch e
B ri
c el
ro le</w>
con om
objec tives</w>
Tw o</w>
tak es</w>
perform ance</w>
mater ial</w>
f er
inter nal</w>
9 .
te red</w>
E conom
ep ing</w>
m id
201 6</w>
O p
w ise</w>
ans wer</w>
any more</w>
ad y</w>
EE A</w>
en ter
reg ards</w>
simil ar</w>
partic ul
re turn</w>
i ons</w>
T ran
wh ite</w>
high er</w>
it ation</w>
ex port</w>
sa ve</w>
An y</w>
8 .
et er
contin u
indo ws</w>
inten ded</w>
A T</w>
represen ta
re t</w>
d a</w>
Y O
in nov
tain ed</w>
investig ation</w>
Rus si
inclu ded</w>
d ang
t un
Joh n</w>
ne ws</w>
ques tions</w>
EUROP EAN</w>
run ning</w>
ep s</w>
c ross</w>
environ ment</w>
de l</w>
our nal</w>
sol ution</w>
su ffici
vi a</w>
f ish</w>
3 2</w>
mar ried</w>
regi onal</w>
app lied</w>
dri ve</w>
1 ,
sh ort</w>
am ong</w>
le ts</w>
us h</w>
E l
k in</w>
activ ity</w>
v ent</w>
G r
anal ysis</w>
anc ed</w>
s qu
h om
d uty</w>
w ar</w>
speci fied</w>
7 0</w>
Gre at</w>
wh atever</w>
competi tion</w>
ad just
bu y</w>
ur o</w>
c u
pre par
govern ment</w>
ti n</w>
poli tical</w>
av o
s everal</w>
S tr
soci ety</w>
Pol and</w>
Ger many</w>
gi ving</w>
sig n</w>
res sed</w>
0 ,
h ot</w>
ing dom</w>
m ing</w>
h im
ac ross</w>
l er</w>
N E
li sted</w>
m l</w>
approv al</w>
fol low</w>
R ec
beli ev
Fir st</w>
co ord
w ing</w>
prom ise</w>
st ri
R em
v ision</w>
fig ure</w>
ven ess</w>
1 2.
I T</w>
ag ed</w>
stu dies</w>
provid es</w>
con c
ac ts</w>
supp ly</w>
D ev
ro r</w>
d a
vi ous</w>
he re
b on</w>
L o
li k
str ong</w>
ach ed</w>
tic ally</w>
s mo
t ect</w>
s li
environ mental</w>
t ation</w>
appro ach</w>
R om
some body</w>
ho sp
con fir
ch all
t el
L u
sur ance</w>
s it</w>
Comm un
for ward</w>
v ely</w>
val ues</w>
mo ved</w>
et h</w>
re pe
par ts</w>
our ce</w>
ch es</w>
oper ating</w>
J ournal</w>
O fficial</w>
maj or</w>
Wh ich</w>
pos e</w>
fix ed</w>
re view</w>
On ly</w>
C I
H e
o il</w>
incre as
F eb
U m</w>
educ ation</w>
m echan
dec ided</w>
T a
chang ed</w>
wa ste</w>
a red</w>
R i
bl ack</w>
associ ated</w>
v ers</w>
ste p</w>
ic ity</w>
Feb ru
TH IS</w>
clus ion</w>
C or
Febru ary</w>
lim ited</w>
al ive</w>
paren ts</w>
ren ch</w>
cust om
con duc
monit oring</w>
si ster</w>
i als</w>
F e
meas ure</w>
min imum</w>
cho ice</w>
C am
ch em
wr it
m it</w>
b ack
u n</w>
p at
y ours</w>
pres sure</w>
d ou
comm it
D LL</w>
se ems</w>
re ma
prof essi
A L
id ent</w>
Pol ish</w>
manufac tu
an a</w>
amen d
e me</w>
re sid
d le</w>
f ru
propos ed</w>
pro tect</w>
cont ent</w>
f all</w>
f le
pre ci
knowle dge</w>
for get</w>
7 5</w>
us e
ot h</w>
ev ent</w>
feel ing</w>
S ir</w>
Fr ance</w>
ot s</w>
mar kets</w>
stu d
in ding</w>
s er</w>
B ra
l y
Ch rist
cl ass</w>
ef for
th re
T S</w>
ab les</w>
men ted</w>
cl in
pr acti
o s
ist er</w>
tr ouble</w>
pl aying</w>
peci ally</w>
administ rative</w>
contain ing</w>
ra ther</w>
him self</w>
sig ned</w>
re ach</w>
h otel</w>
v al</w>
Au thor
loc ation</w>
ha ir</w>
instru ments</w>
p ter</w>
s ou
Th ose</w>
ci es</w>
il s</w>
G rou
3 5</w>
com pon
sec on
ti s</w>
st op
grou ps</w>
zz le</w>
E ven</w>
a head</w>
b le
re ported</w>
0 5</w>
su mm
dis ease</w>
comple te</w>
es pecially</w>
o ffic
go ti
c ris
bor n</w>
cal cul
dow n
approv ed</w>
Econom ic</w>
polic ies</w>
certi fic
m ember</w>
we b
E N</w>
so li
a verage</w>
bi o
agricul tural</w>
res er
V ery</w>
th anks</w>
l ying</w>
B ro
of ten</w>
citiz ens</w>
e th
ur ch</w>
ec h</w>
fish ing</w>
ut ting</w>
o a</w>
hy dro
W ould</w>
ph ys
d ouble</w>
produc ers</w>
every body</w>
W il
ver sion</w>
do g</w>
en s
pl ant</w>
con clu
lo ad</w>
acc ep
er ous</w>
spe ed</w>
M e</w>
mis s</w>
tw are</w>
Th ere
p id</w>
dist ri
L ea
vari ous</w>
v ide
imple menting</w>
re stric
al o
pap er</w>
wor ked</w>
perf ect</w>
net work</w>
si ze</w>
con tract</w>
on er</w>
al ing</w>
ex change</w>
fa ir</w>
vi ously</w>
to wards</w>
M iss</w>
e .
b order</w>
tr a</w>
su gg
jo y</w>
t ext</w>
won der
follow s</w>
la w
em er
ex per
est er
er t</w>
w in</w>
se ar
assi stance</w>
pic ture</w>
3 4</w>
af f</w>
admin istration</w>
P RO
id s</w>
fun ds</w>
vers ity</w>
HA S</w>
ne goti
T V</w>
4 5</w>
id el
Po ints</w>
bo x</w>
hi story</w>
mo der
ex clu
comp u
ter nal</w>
s em
defin i
k g</w>
lob al</w>
d ly</w>
mater ials</w>
Engl ish</w>
st aff</w>
s or
ol ution</w>
bo ys</w>
men tioned</w>
ch ed</w>
m ic
D am
F i
y le</w>
expec ted</w>
r o</w>
l a</w>
rec or
cor por
tre ated</w>
l am
S ince</w>
mo d
enti re</w>
the m
A S
v ement</w>
ap art
mis sing</w>
strateg y</w>
H on
F rench</w>
mess age</w>
C a
P or
Ke ep</w>
A gency</w>
fa ult</w>
ou d</w>
i ed</w>
est ed</w>
call s</w>
Pe ople</w>
le aving</w>
particul arly</w>
h u
therap y</w>
desig ned</w>
in surance</w>
There fore</w>
intere sted</w>
it ary</w>
benef it</w>
lan ds</w>
cre ated</w>
la d</w>
ri c</w>
w ide</w>
mo ving</w>
docu ments</w>
ren ces</w>
er a</w>
c ool</w>
h ey</w>
gre ater</w>
docu ment</w>
di a</w>
9 5</w>
0 4</w>
c lim
W indows</w>
stu pid</w>
func tion</w>
A m
comp liance</w>
0 8</w>
19 8
recog ni
ver i
pati ent</w>
M al
rela tion
YO U</w>
exc ept</w>
Par t</w>
ar ri
oper ations</w>
atten tion</w>
P ri
m em
un d</w>
fic ations</w>
f ying</w>
Grou p</w>
U C
as king</w>
ap po
pend iture</w>
U p</w>
h owever</w>
c anc
develop ed</w>
Amer ica</w>
tur ing</w>
as su
Wi en</w>
0 6</w>
comm er
p ick</w>
M ad
organis ations</w>
2 5
w atch
orig in</w>
ogra ph
r a</w>
ci vil</w>
lik ely</w>
ha ps</w>
K ingdom</w>
E D</w>
G i
D is
progra m</w>
st age</w>
10 10</w>
I V</w>
g est</w>
ta x
ar tic
vehic les</w>
ati s
N ice</w>
contain s</w>
car ry</w>
mp tion</w>
sci enti
ab il
contro l
mus ic</w>
su gar</w>
ne l</w>
sch eme</w>
fun ny</w>
ess es</w>
I N</w>
issu ed</w>
SI ON</w>
co l</w>
S ta
at e
M ed
se em</w>
n or</w>
happen s</w>
equ al</w>
r ac
mo di
s ick</w>
practi ce</w>
ur b
prog ress</w>
M or
princi ple</w>
AD OP
pre gn
y ed</w>
ind ustri
D es
techno logy</w>
is on</w>
t ory</w>
ill ing</w>
qu ar
lear n</w>
x im
c au
ADOP TED</w>
langu age</w>
se a</w>
re ports</w>
ser ved</w>
C an
d inner</w>
u me</w>
wh ose</w>
H old</w>
organ isation</w>
ic ations</w>
im ag
ti veness</w>
J ap
Im ple
e ye</w>
injec tion</w>
9 8</w>
A g
d ol
cl assi
circ um
Chris t</w>
3 3</w>
i um</w>
vi ol
wor th</w>
ph o
compu ter</w>
un g
li er</w>
med ical</w>
ca red</w>
cer tain
econom y</w>
9 6</w>
e ding</w>
reas ons</w>
inde pend
in ating</w>
cre ate</w>
3 6</w>
n ear</w>
ou se</w>
immedi ately</w>
ag ree
t al</w>
un k</w>
us h
cris is</w>
S i
G ot</w>
ty pes</w>
M an</w>
mo vi
publ ication</w>
Pro gra
hol ding</w>
anc y</w>
in ter</w>
4 8</w>
g .</w>
e ed</w>
cle an</w>
pi ece</w>
un less</w>
objec tive</w>
bit ch</w>
ant i</w>
in ted</w>
b inding</w>
lo ss</w>
respon se</w>
ex erc
b ank</w>
S c
A ir</w>
k ept</w>
j e
recommen ded</w>
exp lo
sa tis
ex pos
ffe e</w>
f la
ess ential</w>
S ha
Amer ican</w>
form ed</w>
U R
tou ch</w>
regar ding</w>
im prove</w>
sc ope</w>
fin ancing</w>
lim it</w>
e x</w>
z a</w>
M E</w>
Do es</w>
Ger man</w>
correc t</w>
uc ky</w>
pr ise</w>
part ment</w>
ati ves</w>
regi on</w>
fil es</w>
cont ext</w>
ail y</w>
author isation</w>
ex penditure</w>
F uck</w>
s ev
lo ad
pl as
b ar</w>
commun ication</w>
Cap tain</w>
dec ide</w>
prov ision</w>
sal es</w>
r an</w>
a po
publ ished</w>
0 7</w>
amen ding</w>
mur der</w>
dest ro
en ding</w>
D av
it self</w>
s ort</w>
B e</w>
um p</w>
0 2</w>
hosp ital</w>
4 3</w>
g a
gh t
li ghts</w>
sp a
m as</w>
to col</w>
S we
Mr s.</w>
dou b
con centr
f requ
Every thing</w>
dec isions</w>
applic ations</w>
g en</w>
process ing</w>
desig n</w>
ag ree</w>
S ub
in fra
im s</w>
is tics</w>
cor respon
us ers</w>
ap e</w>
c ard</w>
territ ory</w>
im m
sub paragraph</w>
b ye</w>
them selves</w>
spec ies</w>
h op
ar ies</w>
R I
sk in</w>
O L
Inter national</w>
detail ed</w>
ad dy</w>
shi ps</w>
d ated</w>
b s</w>
ch oo
t ely</w>
dem on
V E</w>
pp ing</w>
M m</w>
allow ed</w>
adv ant
Wor ld</w>
call ing</w>
qu ali
E ar
o fficial</w>
v a</w>
flo or</w>
diffic ult</w>
L oo
G over
m outh</w>
IS SION</w>
S at
Sec tion</w>
st ation</w>
n ment</w>
ou ra
on y</w>
cust oms</w>
on g
di tional</w>
re d
transf er</w>
fil m</w>
s tic
fic i
st atis
W al
H ol
sub si
S a
ren cy</w>
ne g
D an
suffici ent</w>
ge ments</w>
Tran s
contri bution</w>
Pro duc
professi onal</w>
sur vi
th us</w>
ul ations</w>
M il
COMM ISSION</w>
pers on
S lo
in ated</w>
coun t</w>
Ge or
me at</w>
J ack</w>
f illed</w>
com par
reduc tion</w>
A pp
20 0</w>
P ut</w>
num bers</w>
sub stances</w>
sof tware</w>
w ood</w>
cour t</w>
c old</w>
agre ed</w>
sustain able</w>
RE G
ri ble</w>
G oo
r ates</w>
mil k</w>
any way</w>
agree ments</w>
wor kers</w>
r ation</w>
determin ed</w>
al ter
princi ples</w>
simp le</w>
el ess</w>
ne igh
W ow</w>
iz ation</w>
vis it</w>
w at
let ter</w>
com for
meth od</w>
posi tive</w>
anal y
u red</w>
s ale</w>
produc ed</w>
A fr
some times</w>
mo del</w>
A t
F ur
enc oura
R a
wr ite</w>
ch ing</w>
condi tion</w>
exc ee
de p
D oc
stit ute</w>
gh ting</w>
connec tion</w>
respon sibility</w>
st ore</w>
b ig
idel ines</w>
9 2</w>
Fa ther</w>
g lobal</w>
ec tive</w>
mark eting</w>
in spec
H i
fel t</w>
UN I
oblig ations</w>
Wi th
gi ble</w>
wr iting</w>
s at
rel ation</w>
9 1</w>
aut om
e uro</w>
consu mption</w>
adop t</w>
inst all
rec ord</w>
ti e</w>
un it</w>
consi der</w>
ther wise</w>
author ised</w>
C al
comple tely</w>
M A
B er
ME N
D one</w>
w ear</w>
Cha pter</w>
sh ouldn</w>
ro l
F ine</w>
h ood</w>
charac ter
hea ding</w>
ar ti
d aily</w>
wel come</w>
an ia</w>
Au g
ex ternal</w>
p ass</w>
F ri
Ac cor
c atch</w>
sy mp
l ady</w>
la h</w>
thou s
S P
Man ag
B et
fin ally</w>
ni e</w>
c ell</w>
opport unity</w>
requi re</w>
pos t</w>
noti ce</w>
C ro
s y</w>
Ac tually</w>
m ers</w>
sub stance</w>
es tim
So cial</w>
P i
in sul
u le</w>
stat us</w>
diffe rence</w>
orig inal</w>
expl ain</w>
arran gements</w>
6 5</w>
tar get</w>
beg inning</w>
over all</w>
ad ap
M ore</w>
L I
Some thing</w>
op s</w>
guaran tee</w>
vir us</w>
ben e
b ly</w>
mi x
Dev elop
b re
ph arm
N ational</w>
in o</w>
any body</w>
regi ons</w>
star ting</w>
gen tle
ner ship</w>
re main</w>
A P
pl ans</w>
D et
loo ked</w>
Th e
ec k</w>
l u
as sets</w>
ac ked</w>
mach ine</w>
b et</w>
t i</w>
ass es</w>
A I
0 3</w>
dev ice</w>
ac ting</w>
pro por
i ously</w>
pa red</w>
cle arly</w>
see ing</w>
l aying</w>
pl at
Author ity</w>
N O
bal ance</w>
Hel p</w>
k m</w>
s mar
Ser v
p age</w>
r ise</w>
ev ents</w>
m al
Ch in
Ital y</w>
me aning</w>
reduc e</w>
W as</w>
pres s</w>
C ould</w>
un g</w>
P u
provid ing</w>
eval uation</w>
b on
F ol
relation ship</w>
reg ulation</w>
a x
recog n
E F
oc c
dra w</w>
O b
effici ency</w>
9 3</w>
0 9</w>
col le
ad equ
3 7</w>
commer cial</w>
Aug ust</w>
Imple menting</w>
s cared</w>
Ch ina</w>
p re</w>
an tly</w>
e en</w>
l uck</w>
S ar
ffe red</w>
an ds</w>
st ers</w>
hol ders</w>
M c
clin ical</w>
le ar</w>
e. g.</w>
ha el</w>
fi gu
C entr
te sts</w>
ut ely</w>
dro p</w>
at ures</w>
sh own</w>
s even</w>
res h</w>
ach ing</w>
2 ,
sec ret</w>
t in
fi x</w>
B ye</w>
E very</w>
am az
ob s</w>
s ell</w>
as on</w>
sh oot</w>
ep tion</w>
Accor ding</w>
proper ty</w>
b ute</w>
Be fore</w>
d y
indic ated</w>
meth ods</w>
w id
eg et
3 9</w>
z er
H er</w>
- I</w>
as ks</w>
di g
pur ch
f low
is sions</w>
E ach</w>
D el
S pec
li qu
10 .
gl ass</w>
stra ight</w>
201 7</w>
H otel</w>
hon ey</w>
L is
Jo int</w>
4 2</w>
g ro
all ing</w>
set ting</w>
d ance</w>
N ever</w>
i er</w>
consi st
s en</w>
as es</w>
Y or
g lad</w>
pre vent</w>
du ties</w>
AN NE
sol utely</w>
N a
C H
rec o
m ir
o red</w>
ac ks</w>
benef its</w>
m ot
W ar
d ll</w>
establ ish</w>
part ner</w>
B ank</w>
indo w</w>
ick ly</w>
Christ mas</w>
apart ment</w>
am s</w>
Sh ut</w>
comp ared</w>
vide o</w>
pri or</w>
fun ding</w>
f arm
en se</w>
oun ded</w>
s n
cas h</w>
p ra
fo ot
it ting</w>
happen ing</w>
pre vious</w>
plac es</w>
fe ed</w>
co ffee</w>
cur rently</w>
presen ted</w>
har mon
in flu
ur ation</w>
A U
H er
ist s</w>
stor age</w>
re p
tem per
stre et</w>
di um</w>
l in</w>
el ements</w>
fru it</w>
4 9</w>
G ra
b at
cri me</w>
A le
identi fied</w>
pharm ac
er ies</w>
6 8</w>
equi val
1 1.
d ea
V al
sy n
D en
it able</w>
el op</w>
e red</w>
w ine</w>
et ed</w>
Ma ke</w>
P L
Un i
r ying</w>
am a</w>
h es
is si
an e
en h
se at</w>
ANNE X</w>
sh ut</w>
R ob
D u
avo id</w>
st ant</w>
h a</w>
s ource</w>
fe et</w>
comb ination</w>
con sequ
id ing</w>
E d
centr al</w>
z ed</w>
prac tic
it ch</w>
h en
y ond</w>
ex ec
pic tures</w>
desig n
ul l</w>
off ers</w>
g t;</w>
& gt;</w>
reduc ed</w>
effici ent</w>
T er
al ed</w>
ri g
ris ks</w>
tran spa
M at
H ome</w>
gran d
ste red</w>
d on
b ase</w>
ba g</w>
TE R</w>
m oun
phot os</w>
pe ace</w>
no te</w>
ar gu
v y</w>
4 4</w>
f re
inst ead</w>
Chin ese</w>
T u
writ ten</w>
jo int</w>
facil it
achi eve</w>
g y
Centr al</w>
em ed</w>
bl ue</w>
pop ulation</w>
comp ly</w>
us ually</w>
d ear</w>
al ia</w>
con struction</w>
ac id</w>
T om
we d
i ther</w>
t led</w>
p sy
D I
circum stances</w>
er ror</w>
dec lar
H am
us ion</w>
dev elop</w>
f ing
electr onic</w>
lo ved</w>
regul atory</w>
en cies</w>
k i</w>
C ause</w>
B al
9 9</w>
4 7</w>
U S</w>
im ed</w>
oc cur
au l</w>
th i
detail s</w>
brea k
mat ters</w>
adop tion</w>
ple as
logi es</w>
ann y</w>
r ound</w>
pre pared</w>
dum ping</w>
reas on
G o
choo se</w>
ti l
ap preci
vo ice</w>
sear ch</w>
wor se</w>
car ri
T R
medic inal</w>
dr in
w indow</w>
vol ume</w>
ma d</w>
re ven
v il
e ight</w>
pen sion</w>
pack age</w>
innov ation</w>
gi ves</w>
ter r
S uch</w>
or i
ari an</w>
me ant</w>
buil t</w>
Mic hael</w>
v ot
5 5</w>
recei ve</w>
show s</w>
Th ree</w>
in form</w>
infra structure</w>
dang erous</w>
v an</w>
St ay</w>
clim ate</w>
we ren</w>
su ff
sec tors</w>
part ners</w>
as n</w>
O ff
Comm on</w>
collec tion</w>
appro xim
Develop ment</w>
An g
succ ess
v eget
di tion</w>
ing ing</w>
G ar
m ut
d ress</w>
tem por
some where</w>
a wa
Fun d</w>
intere sting</w>
8 7</w>
import ance</w>
comp ati
establish ment</w>
ach es</w>
Yor k</w>
s ex
x i
d ry</w>
sh e
em issions</w>
r s</w>
u tions</w>
S an
ri d</w>
prom ote</w>
foc us</w>
jur y</w>
ro oms</w>
L E</w>
pa ir</w>
P C</w>
intere sts</w>
acc oun
be half</w>
ri de</w>
pp er</w>
po or</w>
Dam n</w>
s l
demon str
m ary</w>
ell ite</w>
ar ms</w>
be at</w>
es tic</w>
en ty</w>
5 00</w>
3 8</w>
mo tion</w>
E L
cau ght</w>
ru le</w>
F OR</w>
reg ular</w>
descri bed</w>
UL ATION</w>
att ack</w>
dre am</w>
i or</w>
acc ounts</w>
t oms</w>
S im
low ing</w>
ear th</w>
noti fied</w>
EC B</w>
ma il</w>
be yond</w>
pos sibility</w>
oper ators</w>
6 4</w>
guaran te
at a</w>
un its</w>
dra wn</w>
der i
j obs</w>
we ird</w>
ex pect</w>
V er
sh or
Inter net</w>
Pro tocol</w>
S outh</w>
uc k
bec om
ess els</w>
compon ents</w>
4 6</w>
ob tained</w>
v ote</w>
p un
ure ment</w>
to m</w>
hand le</w>
pay ments</w>
C ur
dri ving</w>
bra in</w>
Bo ard</w>
high ly</w>
REG ULATION</w>
s ounds</w>
W el
ON S</w>
lab our</w>
des er
ar r
se l</w>
clo sed</w>
p il
ad a</w>
follow ed</w>
Con vention</w>
Dav id</w>
it ors</w>
C ity</w>
tak ings</w>
contrac ts</w>
ph s</w>
s is</w>
c ed</w>
Ac c
al th</w>
Ab out</w>
medic ine</w>
exten sion</w>
it ely</w>
web site</w>
v ill
st airs</w>
S al
swe et</w>
app ear</w>
B en
CO N
st ock</w>
B a
M ag
gh out</w>
ish ing</w>
ester day</w>
re porting</w>
e an</w>
qu ickly</w>
sk i</w>
buil d</w>
oo m</w>
di o</w>
air port</w>
B ul
bo ss</w>
ex pen
kid ding</w>
v essels</w>
regi stered</w>
ac qu
am ounts</w>
in s
sen si
alo gue</w>
H y
conclu ded</w>
a k</w>
tab lets</w>
tra in</w>
ch lor
T ech
An n
H en
b us</w>
et c</w>
propos als</w>
9 4</w>
bec ame</w>
e ts</w>
mic ro
read ing</w>
re new
D ate</w>
un ds</w>
certific ate</w>
c oo
Wh atever</w>
l ucky</w>
op ening</w>
fu el</w>
E X
amend ments</w>
S am</w>
tiv ity</w>
C y
c at
trav el</w>
ste el</w>
.e .</w>
rec ent</w>
sit u
S pain</w>
re lease</w>
amaz ing</w>
stat ement</w>
plan e</w>
l ess
requ ested</w>
acc ident</w>
th reat
ser ies</w>
ti m</w>
chall eng
J usti
hea d
7 1</w>
ex emp
sur ve
Fin ancial</w>
9 7</w>
w ed</w>
expos ure</w>
under takings</w>
sur ing</w>
mid dle</w>
ph ase</w>
i .e.</w>
Sh it</w>
separ ate</w>
lim its</w>
w il
gir l
develop ing</w>
industri al</w>
Sec urity</w>
pec ts</w>
na tion
representa tive</w>
it es</w>
institu tion</w>
F ree</w>
under taking</w>
2 8
L O
sur face</w>
. dll</w>
equival ent</w>
sp end</w>
pl us</w>
B ur
ff ic</w>
op tion</w>
categ ory</w>
ta tions</w>
op ened</w>
g ment</w>
A B
3 5
ment ary</w>
sp ent</w>
bil lion</w>
secon ds</w>
consu mer</w>
for d</w>
ti red</w>
f it</w>
mist ake</w>
aw are</w>
scienti fic</w>
lab or
---- ----
neg ative</w>
f at</w>
ter min
mis sed</w>
z es</w>
7 2</w>
sit ting</w>
c ere
m es</w>
symp toms</w>
la ws</w>
L on
initi ative</w>
f resh</w>
particip ation</w>
pol y
th es</w>
st eps</w>
C hi
pul l</w>
af ter
Some one</w>
ti an</w>
vis ory</w>
20 20</w>
oper ate</w>
un ities</w>
comp ens
effor ts</w>
p hi
dem and</w>
movi e</w>
gre en</w>
consu mers</w>
P a
p h</w>
w all</w>
ent ation</w>
wed ding</w>
e u
tot ally</w>
is es</w>
dru g</w>
I r
pow ers</w>
inclu des</w>
ca used</w>
Ti me</w>
R ev
dar k</w>
Com p
no body</w>
TI ES</w>
T able</w>
f light</w>
oper ational</w>
vie ws</w>
acc ept</w>
No body</w>
applic ant</w>
In formation</w>
ul ture</w>
S m
Ear th</w>
throu ghout</w>
i di
o therwise</w>
t ex
B ud
in struc
P eter</w>
an ese</w>
J er
en em
gentle men</w>
es cap
ain ed</w>
dam age</w>
ta il</w>
wor k
n ames</w>
g in</w>
fore ign</w>
thin ks</w>
s old</w>
employ e
f ear</w>
cra ft</w>
ill ance</w>
bro ad
dra ft</w>
control led</w>
wor ried</w>
b om
ev ening</w>
R el
ep h
a im</w>
com mo
re ty</w>
un t</w>
phys ical</w>
es day</w>
achiev ed</w>
fin ished</w>
st ood</w>
ma p</w>
s ession</w>
In de
dom estic</w>
por te
pre sident</w>
P al
ra phs</w>
col l
plan ning</w>
itch en</w>
T ot
Ch eck</w>
3 00</w>
M er
adv ice</w>
On ce</w>
free dom</w>
S ay</w>
&apos; am</w>
Bel gi
mo vement</w>
watch ing</w>
tal ked</w>
enti rety</w>
sat ellite</w>
simp ly</w>
de ep</w>
instru ment</w>
tran si
m itted</w>
A G
sub stan
em ale</w>
m ac
6 2</w>
ag g
Progra mme</w>
re v
di an</w>
pos si
t our
Al lah</w>
tr ack</w>
smar t</w>
bro ken</w>
r ich</w>
v est
independ ent</w>
ser ve</w>
ext ent</w>
ag ing</w>
. A
ob served</w>
D ar
sh op</w>
sy m
distri bution</w>
ess ed</w>
temper ature</w>
N um
bro ke</w>
en suring</w>
C z
subm it</w>
sch ed
C A
Spec ial</w>
st oc
em ia</w>
C all</w>
b ing</w>
th row</w>
av es</w>
d ations</w>
4 1</w>
con ver
requi res</w>
S un
I M
en joy</w>
ag s</w>
mach ines</w>
l ack</w>
mil itary</w>
6 6</w>
contri bute</w>
th day</w>
B as
o k
en tered</w>
K ing</w>
H um
quanti ties</w>
con form
Manag ement</w>
bo at</w>
ir y</w>
manufactu rer</w>
N ext</w>
k in
I R
tr u
lat est</w>
en forc
th room</w>
del eg
H ea
il ing</w>
produc er</w>
jo in</w>
form er</w>
de pen
on ed</w>
S af
R ic
Sat ur
Fran k</w>
O per
con v
fail ure</w>
wh om</w>
h i</w>
any where</w>
H ouse</w>
emer gency</w>
si ght</w>
z ing</w>
ra ti
wee k
commun ic
imple mented</w>
am ing</w>
F ra
I P</w>
Rem ember</w>
T it
got ten</w>
B ab
pris es</w>
da mental</w>
sur g
e ed
deli very</w>
Hi gh</w>
descri ption</w>
go d</w>
show ed</w>
7 7</w>
vi g
R y
w w
con ven
id den</w>
is tic</w>
plan ts</w>
na tive</w>
f er</w>
ea dy</w>
o logical</w>
exclu ding</w>
r y
Pro c
al co
o k</w>
allow s</w>
stop ped</w>
to x
aff ect</w>
5 1</w>
eval u
st ar</w>
bo y
ff s</w>
Char lie</w>
exerc ise</w>
Geor ge</w>
hi bi
pris on</w>
girl friend</w>
care ful</w>
Loo ks</w>
tion ary</w>
pos al</w>
ther n</w>
P aul</w>
custom ers</w>
abil ities</w>
T y
S ur
Ma j
v acc
j our
o v
in ate</w>
medi a</w>
in corpor
con tain</w>
en a</w>
G H
CO M</w>
w are</w>
D ress</w>
parag raphs</w>
Direc tor</w>
id ity</w>
Op en</w>
Wh oa</w>
Off ice</w>
6 1</w>
han g</w>
W ea
Every one</w>
oper ator</w>
tra ffic</w>
er r
tre at</w>
dem oc
practic es</w>
pri ority</w>
tw ice</w>
lead ing</w>
te sting</w>
s low</w>
fa ith</w>
fin ish</w>
neigh b
ke eping</w>
gr ant</w>
ell a</w>
st ates</w>
opport unities</w>
g ement</w>
Par ty</w>
recor ds</w>
bus y</w>
z y
eli gible</w>
adequ ate</w>
N G</w>
deter mine</w>
T e
F o
et te</w>
Is ra
Is n</w>
s ources</w>
us er</w>
Wh ile</w>
add ressed</w>
ma inten
insul in</w>
m ass</w>
car s</w>
st ly</w>
po ol</w>
re ached</w>
S ing
8 5</w>
S ol
mil es</w>
P R
clo thes</w>
mainten ance</w>
kill er</w>
es ides</w>
ell ed</w>
s h</w>
a .
ac tual</w>
S A</w>
regul ations</w>
pregn ant</w>
C E</w>
sa ved</w>
der og
Fun c
integr ation</w>
cent re</w>
ten der</w>
fri end
certain ly</w>
cen tur
L uc
To day</w>
a i</w>
spir it</w>
ell ent</w>
rel and</w>
noti fication</w>
ex tra</w>
e br
excee ding</w>
re si
n one</w>
sci ence</w>
l eng
en ge</w>
Mo ve</w>
g un
won der</w>
eed ings</w>
stric t</w>
f ly</w>
Por tu
........ ........
ver ing</w>
ar ch
calcul ated</w>
produc e</w>
he at</w>
r is</w>
it or</w>
to ols</w>
7 8</w>
h asn</w>
deb t</w>
eng ine</w>
T om</w>
pres ents</w>
S pan
lo ves</w>
wonder ful</w>
offic er</w>
k ra
6 7</w>
Mo st</w>
uc lear</w>
be ha
coun ter
li ver</w>
re le
ther more</w>
concer ns</w>
la dies</w>
res olution</w>
increas ing</w>
clu b</w>
G O
ch urch</w>
Comm issi
dru gs</w>
bir th</w>
oblig ation</w>
Russi an</w>
fac tors</w>
I reland</w>
M ary</w>
in ting</w>
pres ence</w>
5 4</w>
bene fici
ea red</w>
H mm</w>
dri ver</w>
ar ance</w>
in formed</w>
ph en
f oot</w>
gg ing</w>
speci al
s ac
Lea ve</w>
ev il</w>
pres cri
Some times</w>
enti ty</w>
comm unity</w>
cul tural</w>
E P
ri es</w>
ac her</w>
h mm</w>
5 8</w>
lau gh
beg in</w>
E T</w>
fi ghting</w>
pre jud
char ges</w>
consi ders</w>
b ought</w>
S up
ap s</w>
i red</w>
at trac
orig inating</w>
stic k</w>
5 2</w>
chec ks</w>
con stitu
Satur day</w>
commo dation</w>
for tun
g an
us ual</w>
qu ick</w>
dev ices</w>
func tions</w>
kill ing</w>
connec ted</w>
par k</w>
v es
deb ate</w>
b ear</w>
y esterday</w>
cre ation</w>
sc ale</w>
ear lier</w>
c ute</w>
advant age</w>
n es</w>
L ast</w>
S am
accord ingly</w>
Wel come</w>
h t
proc eedings</w>
c ells</w>
n u
defin itely</w>
7 3</w>
t op
et ings</w>
en ger</w>
Y ear</w>
b loc
re actions</w>
prov isi
sc ene</w>
tur ns</w>
cla im</w>
N A</w>
d red</w>
radi o</w>
hu ge</w>
vol un
f ell</w>
- You</w>
H ung
Jap anese</w>
summ er</w>
spo t</w>
concer n</w>
H al
sev ere</w>
em o
diffic ul
ref lec
accep ted</w>
Th ink</w>
bus in
z one</w>
Every body</w>
la tive</w>
approxim ately</w>
tri p</w>
un to</w>
el ds</w>
8 8</w>
sta ur
nam ed</w>
C i
i i</w>
gu idelines</w>
qui et</w>
re staur
sit es</w>
no on</w>
aff ected</w>
prejud ice</w>
gr at
alco ho
tain ing</w>
5 6</w>
s la
su d
on a</w>
bir thday</w>
pro of</w>
ter rible</w>
co m</w>
Min ister</w>
ini tial</w>
re ci
vic tim</w>
porte ur</w>
facil ities</w>
we aring</w>
Lon don</w>
Mi ke</w>
ch ea
di men
t ari
ann oun
sc ri
l and
ic y</w>
fl ic
expres sed</w>
st yle</w>
ac king</w>
O U
supp le
pro per</w>
scre en</w>
doub t</w>
.. ..</w>
u d</w>
conform ity</w>
coord ination</w>
en able</w>
continu ed</w>
l ay</w>
character istics</w>
z e
sou l</w>
Par ties</w>
as pects</w>
P ap
s ong</w>
terr or
gl y
ri age</w>
ter y</w>
bil ities</w>
resul ting</w>
ag ent</w>
3 ,
Bi g</w>
fore ver</w>
or al</w>
Commun ication</w>
hy per
ha m</w>
k itchen</w>
H uh</w>
ir s</w>
a vi
lo s
ar ity</w>
r ing
sk ills</w>
er ation</w>
bel on
gre at
8 4</w>
ro b
Span ish</w>
integr ated</w>
um n</w>
medi um</w>
b anks</w>
5 3</w>
invest ments</w>
m ate</w>
p ack</w>
oo ds</w>
com ments</w>
z en</w>
enti ties</w>
O ver</w>
&apos; S</w>
sw ear</w>
S .</w>
recei ving</w>
boo ks</w>
Sh ould</w>
Co de</w>
ir t</w>
imag ine</w>
pass ed</w>
Cz ech</w>
ba throom</w>
sel y</w>
c k
ra ise</w>
P en
St ar
ne ither</w>
f ro
Russi a</w>
Justi ce</w>
s wee
exc eed</w>
correspon ding</w>
reco very</w>
contri bu
r ace</w>
cre w</w>
cen ter</w>
crimin al</w>
cli ent</w>
P AR
With out</w>
8 2</w>
ti ally</w>
Ac tion</w>
rema ins</w>
la un
sub sequ
sol utions</w>
op h
es ome</w>
ess ing</w>
U se</w>
ra w</w>
p utting</w>
v ac
comple ted</w>
D id
struc turing</w>
negoti ations</w>
au th
Ital ian</w>
di r
s un
maj ority</w>
J ud
a c</w>
hel ping</w>
re rs</w>
7 6</w>
wh ere
m ig
o ffered</w>
S O
b ran
plan ned</w>
g al</w>
tis h</w>
colle ge</w>
7 9</w>
pon s</w>
sam ple</w>
T ri
di stance</w>
al ities</w>
main tain</w>
H or
G ran
ad d</w>
v eter
D addy</w>
confir med</w>
sk y</w>
IS I
G ir
t asks</w>
reli gi
hol der</w>
Un der
be d
de pos
lo t
bud dy</w>
beha vi
appreci ate</w>
F ac
7 4</w>
ow er</w>
hun dred</w>
d i</w>
real ize</w>
tempor ary</w>
t ol
stud ents</w>
Par is</w>
s pl
hes ion</w>
D ay</w>
J ames</w>
b la
dis crimin
sel ected</w>
justi ce</w>
R ed</w>
pr oud</w>
C F
D uring</w>
defini tion</w>
T al
di alogue</w>
ul ts</w>
ay er</w>
US A</w>
ti ts</w>
Tot al</w>
de g
re over</w>
sig ns</w>
sch em
mat ch</w>
declar ation</w>
techno logies</w>
challeng es</w>
grow ing</w>
boy friend</w>
chem ical</w>
&apos; Cause</w>
- What</w>
tr uck</w>
f alling</w>
or ities</w>
wor st</w>
Pro f
im pres
t ool</w>
surve illance</w>
fav or
ho le</w>
E D
regi stration</w>
5 9</w>
categ ories</w>
as c
thous and</w>
Lis bon</w>
as y</w>
hear ing</w>
Pu zzle</w>
ad s</w>
o ffici
Num ber</w>
g old</w>
M other</w>
A ustri
administ ered</w>
tain s</w>
As soci
electr icity</w>
T A</w>
canc er</w>
fe els</w>
Jo e</w>
pri mary</w>
ex ist</w>
sta ke
l t;</w>
& lt;</w>
Doc tor</w>
F l
wal king</w>
in come</w>
protec ted</w>
A no
gi ft</w>
f rea
Fur thermore</w>
th o
direc tion</w>
streng th</w>
dis p
trans actions</w>
p et
medic ines</w>
perform ed</w>
E M
b loo
W atch</w>
Nor th</w>
prom ised</w>
D EC
co p</w>
man ner</w>
as hi
S U
quanti ty</w>
li ved</w>
Afr ica</w>
r ub
sen ten
ex porting</w>
n it
im age</w>
trans mission</w>
pres er
legis lative</w>
enc ed</w>
met al</w>
tri al</w>
M us
Sc ot
commit ment</w>
L oc
an o</w>
pho to</w>
T el</w>
Ho ly</w>
f low</w>
el im
Fin ally</w>
consul tation</w>
n om
ro ll</w>
CO UN
Any thing</w>
8 9</w>
Func tioning</w>
l t</w>
p al</w>
c ore</w>
Al though</w>
cam era</w>
u g
por ter</w>
t ree</w>
lin ked</w>
P at
ess or</w>
no tes</w>
L eg
per man
U kra
fe rences</w>
op tions</w>
ke ys</w>
su n</w>
hel ped</w>
l unch</w>
cel ebr
imple ment</w>
6 3</w>
hou se
rec ently</w>
sec ure</w>
lear ning</w>
introduc ed</w>
car rying</w>
w ind</w>
fav our</w>
tri c</w>
6 9</w>
wa ke</w>
E r
S il
A M
an der</w>
L at
Per haps</w>
pow er
b ile</w>
MEN T</w>
5 7</w>
st one</w>
re ve
Did n</w>
law yer</w>
A gr
per cent
Wh ite</w>
n ur
En ergy</w>
e o</w>
Cro ati
it ems</w>
clus ions</w>
B ack</w>
we red</w>
comfor table</w>
g ri
sup ported</w>
gu il
z i
ab s
contain ed</w>
o o</w>
our selves</w>
N i
am bi
sur prise</w>
s a</w>
il li
P O
im possible</w>
appl ying</w>
contro ls</w>
Gover nment</w>
ti tu
net works</w>
facilit ate</w>
UNI TIES</w>
b ree
go d
Ju li
re ality</w>
ag ents</w>
cro s
ma tic</w>
tra ditional</w>
em ic</w>
H ur
B en</w>
under standing</w>
as tic</w>
A m</w>
In dia</w>
ro te</w>
Ano ther</w>
re moved</w>
S k
plan et</w>
S ME
n uclear</w>
L ove</w>
L it
sup pose</w>
R ead</w>
COMM UNITIES</w>
use ful</w>
con clusion</w>
Sy stem</w>
er i
in y</w>
eas ily</w>
fac tor</w>
pro te
identi fication</w>
ea k</w>
199 8</w>
ma ster</w>
3 0
2 4
ut en
har d
M ul
app lies</w>
n ine</w>
cop y</w>
be ach</w>
S to
ad verse</w>
8 1</w>
int el
tim ate</w>
Isra el</w>
recommen dations</w>
gi e</w>
rela tions</w>
phi c</w>
mem ory</w>
is land</w>
meas ured</w>
pu zzle</w>
jec ted</w>
vill age</w>
leng th</w>
initi atives</w>
success ful</w>
A ir
sol di
enter prises</w>
mar riage</w>
C N</w>
uc ks</w>
b low</w>
in jury</w>
require ment</w>
A re
ec es</w>
fir m</w>
men tion</w>
h ide</w>
C er
prepar ation</w>
direc tive</w>
comp re
et ary</w>
S en
fun damental</w>
requ ests</w>
exam ination</w>
hon est</w>
al though</w>
w rote</w>
prof it</w>
l ink</w>
it em</w>
representa tives</w>
C ent
u als</w>
g row</w>
p are</w>
u tive</w>
inv ited</w>
di ag
we igh
v ous</w>
n ia</w>
an k
te en</w>
spea king</w>
St u
F ind</w>
a er
identi fy</w>
enforc ement</w>
adjust ment</w>
sm ell</w>
I .
car bon</w>
att emp
fle xi
appo inted</w>
ph as
S how</w>
recogni tion</w>
ri ver</w>
comm ittee</w>
schem es</w>
Str ateg
M ac
process es</w>
ex clus
Ch il
S till</w>
P et
str ange</w>
for got</w>
T ry</w>
res ses</w>
Any way</w>
m in</w>
ust ed</w>
ven ture</w>
SME s</w>
v ation</w>
ord inary</w>
simp li
Ap pl
deg ree</w>
ne ed
ev en
sec ur
comple x</w>
der ing</w>
sa ke</w>
moder n</w>
as se</w>
k iss</w>
cla ims</w>
dis orders</w>
Hen ry</w>
p ite</w>
cy cle</w>
c m</w>
He alth</w>
sup porting</w>
lic ence</w>
cl es</w>
w ers</w>
recogn ised</w>
artic les</w>
mo bile</w>
ang er</w>
on ia</w>
F ood</w>
j a</w>
Commissi oner</w>
k o</w>
Mr s</w>
ol der</w>
di am
Or gan
st able</w>
cap able</w>
sel ling</w>
here by</w>
Joh n
chec ked</w>
wat ers</w>
d ying</w>
en ded</w>
TI C
cul ture</w>
re structuring</w>
D UC
il ies</w>
per haps</w>
ob serv
p al
ab solutely</w>
con s
Reg i
ra ised</w>
cop s</w>
m el
gi c</w>
frequ ency</w>
hy po
consist ent</w>
ro ck</w>
su it</w>
ta tive</w>
Mo reover</w>
ac e
me etings</w>
pl ate</w>
st ated</w>
Ch urch</w>
func tioning</w>
con flic
hor se</w>
inter vention</w>
E lec
D E</w>
po t
Serv ice</w>
a ster</w>
exc use</w>
ac commodation</w>
Ne ther
W H
M AR
alter native</w>
busin esses</w>
S P</w>
appe ars</w>
ol f</w>
competi tive</w>
t ings</w>
g ate</w>
hibi tion</w>
lear ned</w>
8 3</w>
Agr ic
succ ess</w>
compati ble</w>
concentr ation</w>
air craft</w>
ref und</w>
car ds</w>
tu red</w>
ab ol
cho sen</w>
O k</w>
Ma x</w>
chall enge</w>
comm itted</w>
su b</w>
cl ick</w>
1 50</w>
N C
indic ate</w>
reason able</w>
streng th
8 6</w>
m un
hi stor
ch an
co ated</w>
intel lig
col or</w>
K o
form at</w>
Pol icy</w>
vic tim
e uten
rele ased</w>
Fri day</w>
sc en
le a
associ ation</w>
provisi onal</w>
consider ation</w>
V ir
oc cas
clo ser</w>
te sted</w>
figu red</w>
Un der</w>
sa d</w>
te a</w>
instruc tions</w>
fe atures</w>
ul ous</w>
respec tive</w>
inf ected</w>
il ly</w>
S w
m ess</w>
di ble</w>
Nether lands</w>
veget ables</w>
Ac t</w>
ind a</w>
speci fic
do gs</w>
su itable</w>
et ers</w>
tle ment</w>
f oun
on to</w>
p .
fix ing</w>
Fra mework</w>
ves sel</w>
eas ier</w>
percent age</w>
E I
r ay</w>
ag ency</w>
ab o
abs ence</w>
mar ry</w>
ig n
O oh</w>
inde ed</w>
compre hen
D P</w>
signific antly</w>
manag ed</w>
gr ounds</w>
E mp
Wea ther</w>
M y
str on
br inging</w>
wea pons</w>
d uration</w>
Ag ent</w>
al ised</w>
ho li
in no
St re
forc ed</w>
ser iously</w>
fin ding</w>
St an
form al</w>
AT E</w>
tur ning</w>
TI ON</w>
pleas ure</w>
c e
con ference</w>
pat ter
so ft</w>
l ing
or ial</w>
h ot
surg ery</w>
go od
euten ant</w>
t les</w>
C la
n ic
pres entation</w>
charac ter</w>
C C
f ab
A ud
fam ous</w>
sha res</w>
dec reas
ro c
is c
dec la
S um
ho st</w>
ang ry</w>
C HA
t ren
S on</w>
app eared</w>
exist ence</w>
id ance</w>
im my</w>
h ang
wea pon</w>
dr unk</w>
trans lation</w>
Fol lowing</w>
employe es</w>
D ra
ru p
uni form</w>
st y</w>
bot tom</w>
de al
centur y</w>
pow der</w>
fav or</w>
deli vered</w>
w illing</w>
V ic
est er</w>
R en
e ating</w>
main ly</w>
exten ded</w>
dra w
ren al</w>
eng ers</w>
de ep
P har
victim s</w>
Par t
A si
v it
oo d
improv ing</w>
ret ary</w>
no tic
k ie</w>
transpa rency</w>
im pa
ten d</w>
gra de</w>
high est</w>
chang ing</w>
on el</w>
mechan ism</w>
introduc tion</w>
stake holders</w>
Gre ece</w>
m al</w>
D em
L ar
b un
M ex
exc ep
bot tle</w>
inspec tion</w>
loc ked</w>
exper ts</w>
es h</w>
te acher</w>
bo x
in ser
heal thy</w>
sch o
tion ally</w>
cal m</w>
W in
wit ness</w>
as ing</w>
Uni versity</w>
struc tures</w>
en ted</w>
te ach</w>
Cent re</w>
St and
op tim
v o</w>
am ate
statis tics</w>
H a
hea ds</w>
li kes</w>
rap porteur</w>
F OR
Par k</w>
C op
hea vy</w>
E T
S E</w>
p ath</w>
ext rem
J ack
monit or</w>
sig n
ar rest</w>
N at
del eted</w>
.A .</w>
B est</w>
f ill</w>
du de</w>
at o
regi ster</w>
wea ther</w>
get ary</w>
C re
I L
c ru
con tr
Lit tle</w>
b one</w>
peri ods</w>
t ough</w>
tari ff</w>
c ulation</w>
cha in</w>
sc ape</w>
au d
wonder ing</w>
pol l
f our
Pro v
ane ous</w>
th in</w>
artic le</w>
ge ograph
T O
K en
CI L</w>
ac compan
F ive</w>
no t
fac ts</w>
after noon</w>
li ked</w>
ist an</w>
c ut
K ore
S ci
war ded</w>
d ating</w>
v is</w>
compens ation</w>
it a</w>
re form</w>
d ged</w>
K ar
tra ding</w>
L au
Saf ety</w>
b lock</w>
ag encies</w>
chea p</w>
gh tly</w>
l es
h ep
el ine</w>
5 0
hi b
pop ular</w>
Bl ack</w>
gener ally</w>
lo sing</w>
M S</w>
am p</w>
pri orities</w>
B oth</w>
occ ur</w>
S it</w>
deli ver</w>
ic ide</w>
lar s</w>
A ff
o we</w>
favor ite</w>
K a
Ap pro
m .</w>
Al so</w>
al isation</w>
cam p</w>
Some body</w>
gener ation</w>
d il
COUN CIL</w>
st uck</w>
a x</w>
fam ilies</w>
gra du
D on
im al</w>
Su per
Fe der
sle eping</w>
W e
adv ance</w>
sp read</w>
ar ily</w>
ir ing</w>
mar ks</w>
dic tion</w>
Reg ulations</w>
st ability</w>
competi tiveness</w>
J en
rou gh</w>
uni que</w>
il ed</w>
H app
but ton</w>
break fast</w>
par king</w>
C R
G l
fur n
ide as</w>
acc ur
ic o</w>
install ation</w>
TI NG</w>
aff ec
sig nal</w>
care er</w>
s ity</w>
o ever</w>
PRO DUC
dig ital</w>
up set</w>
prom oting</w>
D S</w>
list ening</w>
C ust
recor ded</w>
amend ment</w>
Ch e
custom er</w>
conduc t</w>
reven ue</w>
St e
c a</w>
lat eral</w>
av ir</w>
f ts</w>
li ons</w>
pi eces</w>
fl ying</w>
flow ers</w>
play er</w>
effec tiveness</w>
A N</w>
d ary</w>
jud gment</w>
ul a</w>
escap e</w>
D O
respec tively</w>
hun g
Slo v
lo vely</w>
i el</w>
Hon ey</w>
M et
be er</w>
bi e</w>
alcoho l</w>
beg an</w>
drin king</w>
S hi
j ail</w>
Mo on</w>
C le
val id</w>
p y
c at</w>
pa rent</w>
can di
hou ses</w>
a qu
P ic
ti le</w>
destro y</w>
ass ess</w>
bea uty</w>
st aying</w>
p aying</w>
conduc ted</w>
c ab
s on
fail ed</w>
n ar
ton nes</w>
L ou
lic ences</w>
sh ar
Re port</w>
diffe rences</w>
effor t</w>
accompan ied</w>
ra in</w>
see k</w>
w est</w>
ar my</w>
M el
amate ur</w>
det ail</w>
ur a</w>
b an</w>
F il
B esides</w>
abl ed</w>
ap art</w>
men d
L in
F ore
k ni
S wit
f al
M s</w>
Lu x
con clusions</w>
Su ite</w>
p ir
ay ed</w>
B I</w>
jud ge</w>
Chi ef</w>
as m</w>
an ci
ha em
develop ments</w>
Ma ster</w>
Belgi um</w>
B ea
re in
ob ject</w>
m b
n on
lo ts</w>
bl ing</w>
sha red</w>
fi elds</w>
p ush</w>
no ted</w>
emp ty</w>
um s</w>
hung ry</w>
tic kets</w>
enti tled</w>
fi b
r on
b ac
O ut</w>
ad ver
b es</w>
power ful</w>
ic ks</w>
speci ally</w>
le aves</w>
strateg ic</w>
c ast</w>
The ir</w>
discus s</w>
E ur
k et
ing ton</w>
D ep
influ ence</w>
E ast</w>
nec k</w>
co vering</w>
subsi di
i ans</w>
r ant</w>
comm and</w>
bri dge</w>
buil dings</w>
hon or</w>
Res earch</w>
C ra
gg ed</w>
del ay</w>
cra p</w>
in ations</w>
pro motion</w>
introduc e</w>
com man
pl ing</w>
E li
g le</w>
p ig
in fr
f lights</w>
par am
fi es</w>
I F
y el
In vest
grat ulations</w>
ra tic</w>
dest ination</w>
4 00</w>
su s</w>
big ger</w>
the tic</w>
P ur
199 7</w>
prac tical</w>
fac tory</w>
i time</w>
is ms</w>
Au str
commit ments</w>
vari ety</w>
c um
dis h</w>
langu ages</w>
im posed</w>
S peci
quot a</w>
su e</w>
equi pped</w>
inf ection</w>
res ol
fish eries</w>
play ers</w>
bur n</w>
l ac
To o</w>
ri f
ti ght</w>
tar gets</w>
r are</w>
N ame</w>
al ty</w>
design ated</w>
estim ated</w>
purch ase</w>
ish es</w>
r ural</w>
Det ective</w>
comb ined</w>
accoun ting</w>
show er</w>
idi ot</w>
2 9
gen e
G al
th u
ac i
cha ir</w>
Commun ities</w>
W ed
pro p
fortun ately</w>
ch ick
C as
contribu tions</w>
H O
B us
exc ellent</w>
b ad
eas es</w>
Are a</w>
6 0
sho es</w>
v ey</w>
W om
titu de</w>
B E</w>
fin ance</w>
possi bly</w>
rou te</w>
E st
u ght</w>
U N</w>
feel ings</w>
S A
al ysis</w>
o ke</w>
b ound</w>
encoura ge</w>
Can ada</w>
pr ised</w>
ar re
plac ing</w>
sm all
Associ ation</w>
mag ic</w>
B rea
le g</w>
D ata</w>
em phas
W est</w>
Croati a</w>
ob viously</w>
il legal</w>
propor tion
I I
determin ing</w>
Stre et</w>
our g</w>
S an</w>
restaur ant</w>
jo ke</w>
Goo d
cre ating</w>
V I</w>
ag ue</w>
c utting</w>
ster n</w>
ent al</w>
Se a</w>
U .
G ame</w>
avail ability</w>
ad es</w>
sy ring
dang er</w>
stud ent</w>
hum an
199 6</w>
fi l</w>
g ay</w>
v isi
ag end
derog ation</w>
re action</w>
ain s</w>
dol lars</w>
La w</w>
inv itation</w>
Ang el
decla red</w>
cam pa
ex es</w>
co des</w>
f emale</w>
res sing</w>
show ing</w>
t an
Mar ket</w>
St at
ic h
un c
multi ple</w>
TH AT</w>
ic ked</w>
enem y</w>
at om</w>
C lar
clo sure</w>
modi fied</w>
fun d</w>
bi an</w>
Gre en</w>
re move</w>
- No</w>
r ul
posi tions</w>
sensi tive</w>
N A
I D
pic ked</w>
eg u
sel ection</w>
proper ly</w>
ac ted</w>
stan ds</w>
wil d</w>
process ed</w>
Austri a</w>
sa ving</w>
perman ent</w>
i on
do ses</w>
cl ari
gu ests</w>
effec tively</w>
fo rec
ex ha
Tit le</w>
consequ ences</w>
fi red</w>
R eady</w>
ir on</w>
ig saw</w>
uro pa
m 2</w>
rec ital</w>
th r
proper ties</w>
So ci
y ers</w>
P ati
CHA P
war m</w>
wor l
lead er</w>
ta ste</w>
stoc ks</w>
4 ,
fac es</w>
ju dic
A l</w>
fi f
pre ven
wh ereas</w>
U K</w>
Hur ry</w>
coun ter</w>
t ask</w>
for give</w>
en jo
employ ed</w>
lo ans</w>
CHAP TER</w>
ti ous</w>
D NA</w>
tech ni
v ul
pro file</w>
3 0.
con soli
2 7
sec re
bud getary</w>
her self</w>
Q U
R u
I D</w>
ba be</w>
ur s
st on</w>
s in</w>
geograph ical</w>
c lock</w>
reduc ing</w>
fl at</w>
comprehen sive</w>
ISI ON</w>
pre pare</w>
sugg est</w>
P S</w>
perf ec
d in
b unch</w>
ol es
relev ance</w>
le ep</w>
2 3
199 5</w>
elec tric</w>
cre am</w>
k il
L y
Happ y</w>
ill a</w>
m ol
Con tro
gar den</w>
T ro
de aling</w>
ang le</w>
thre at</w>
D ow
Ale x</w>
appo int
di c</w>
v oc
for ces</w>
4. 4</w>
norm ally</w>
W ant</w>
up date</w>
con stitute</w>
b low
f arm</w>
cle an
great est</w>
gu ard</w>
k ness</w>
Pro tec
her o</w>
Sing le</w>
L ab
m on</w>
lo an</w>
squ are</w>
smo ke</w>
f ool</w>
As s
Portu gal</w>
situ ations</w>
dat ab
chi ef</w>
Swe den</w>
becom es</w>
J immy</w>
Ex actly</w>
man age</w>
s .
con sci
War saw</w>
de pend
Chris tian</w>
veter inary</w>
lar gest</w>
improv ed</w>
f ant
compl ain
M a</w>
mut ual</w>
ba st
rea u</w>
M O
199 4</w>
hur ry</w>
Mon day</w>
hop ing</w>
t ells</w>
ht t
vi al</w>
she et</w>
mot or</w>
cre d
v ine</w>
as sh
M ay
big gest</w>
har m</w>
al located</w>
Bet ter</w>
ra il
p a</w>
se ed</w>
sub jects</w>
senten ce</w>
organ ised</w>
inno cent</w>
friend ly</w>
M ur
cal culation</w>
ic ated</w>
Den mark</w>
dea d
H im</w>
h idden</w>
clo sely</w>
organ ic</w>
N et
t ape</w>
H u
St ri
week end</w>
p en</w>
de partment</w>
o logy</w>
bla me</w>
sus pect</w>
lit er
noti fy</w>
infr ing
mis es</w>
re vol
ac le</w>
veri fication</w>
sel ect</w>
re present</w>
bur den</w>
a tically</w>
2. 5</w>
D anny</w>
en su
ner vous</w>
sur prised</w>
a imed</w>
conc ept</w>
bast ard</w>
gl uc
re di
plac ement</w>
assess ed</w>
c ot
En viron
pass enger</w>
R oom</w>
Tur key</w>
ab sor
ed ge</w>
believ es</w>
hel ps</w>
bl ind</w>
super vision</w>
M s.</w>
ox ide</w>
in fl
S us
leg s</w>
spo ke</w>
invol ving</w>
nu ts</w>
compon ent</w>
eb o</w>
cr uc
se ason</w>
ox y
agend a</w>
M ol
improv ement</w>
bur g</w>
no w
el ev
specific ally</w>
experi enced</w>
O ut
H an
innov ative</w>
M B
Ukra ine</w>
P H
extrem ely</w>
mo bility</w>
every where</w>
M any</w>
eg gs</w>
bom b</w>
au dit</w>
diag no
Sun day</w>
fav our
statis tical</w>
Un til</w>
Jap an</w>
met eo</w>
201 8</w>
loy ment</w>
sid ency</w>
p ush
s ons</w>
mar ked</w>
identi ty</w>
dec re
sa v
Rom ania</w>
N one</w>
Y ep</w>
plas tic</w>
ad mit</w>
mechan isms</w>
Tra de</w>
k n
Aff airs</w>
F ile</w>
de emed</w>
Re al</w>
Bri tish</w>
val u
deser ve</w>
emb ly</w>
ex pan
Un less</w>
ob tain</w>
di versity</w>
ow ner</w>
acc ession</w>
il ation</w>
Li fe</w>
sur r
hom es</w>
inter net</w>
TI ONS</w>
g am
s si
dra wing</w>
justi fied</w>
sha pe</w>
r ats</w>
l shit</w>
tic ip
fla g</w>
es sive</w>
b alls</w>
bir ds</w>
do ors</w>
acc es
C lose</w>
govern ance</w>
S el
vers ation</w>
part nership</w>
s an
den ly</w>
Har ry</w>
th es
z o
in ery</w>
aw ard</w>
dre ams</w>
po unds</w>
H as</w>
Strateg y</w>
li ber
deri v
ha z
me an
a e</w>
T ar
fac ility</w>
gran ting</w>
dis ci
sti c</w>
plas ma</w>
ing redi
pass engers</w>
per form</w>
col umn</w>
star ts</w>
Sar ah</w>
al location</w>
ci ties</w>
F our</w>
cor ner</w>
cur rency</w>
P ublic</w>
au di
classi fied</w>
sc r
T A
viol ence</w>
no ise</w>
struc tural</w>
nor th</w>
go al</w>
M embers</w>
con struc
r acy</w>
dar ling</w>
tri als</w>
st om
in after</w>
Jan e</w>
destro yed</w>
re turned</w>
dir ty</w>
co ck</w>
3 1.
guarante es</w>
ac qui
TE R
tru ly</w>
re pair</w>
particip ate</w>
stit utes</w>
sus pension</w>
Eur atom</w>
Bo b</w>
I C</w>
j ac
N ick</w>
Li eutenant</w>
war ning</w>
s outh</w>
back ground</w>
sol ve</w>
g are
st ole</w>
S ho
per cent</w>
P C
F BI</w>
b es
l ays</w>
con versation</w>
h h</w>
th ir
char ged</w>
is sed</w>
c ue</w>
k ick</w>
indic ators</w>
j um
so dium</w>
conf identi
b oun
hand ling</w>
manag er</w>
g ain</w>
op ini
four th</w>
er ship</w>
p ical</w>
St .</w>
individ uals</w>
gu est</w>
Do esn</w>
bl ed</w>
Gu ys</w>
e ing</w>
sh aring</w>
exper t</w>
6 00</w>
TH OR
fic ial</w>
J igsaw</w>
quali fied</w>
Slo ven
Mar k</w>
Pl an</w>
htt p</w>
collec ted</w>
Y P
pre vention</w>
streng then</w>
R ay</w>
sho oting</w>
V ol
j ump</w>
we b</w>
E gy
cr ash
a th
O ffic
perfec tly</w>
ra tions</w>
Ric hard</w>
Comp any</w>
op ping</w>
ti tle</w>
exc eption</w>
hea ven</w>
sex ual</w>
Tur n</w>
ble eding</w>
pul led</w>
was h
hy dr
here inafter</w>
wh oa</w>
AU THOR
eph one</w>
qu it</w>
att ached</w>
conf idence</w>
ashi on</w>
Mo on
certific ates</w>
am i</w>
po t</w>
ree k</w>
mix ed</w>
th ou</w>
cri tical</w>
let ters</w>
bar ri
per mit</w>
pre mi
soli d</w>
immedi ate</w>
ta ught</w>
For get</w>
sp ring</w>
B ill</w>
particip ating</w>
N ote</w>
secur ities</w>
m u
O ver
Bab y</w>
discus sion</w>
Th om
h iding</w>
Li thu
in stance</w>
eng ine
resid ence</w>
en ever</w>
pho sp
transf erred</w>
4 0
farm ers</w>
de pres
fin dings</w>
cre te</w>
po ver
gun s</w>
rema ining</w>
comp ilation</w>
ste in</w>
st o
mo on</w>
fo rest</w>
mod els</w>
n ap
quar ter</w>
ver si
Mad am</w>
D .</w>
el ement</w>
Br ing</w>
sid es</w>
bat tle</w>
ne arly</w>
apo logi
S qu
S S</w>
B on
est ing</w>
Ne w
dis eases</w>
I ts</w>
no se</w>
de dic
st ored</w>
S ounds</w>
ex ports</w>
c atch
dis posal</w>
L ev
s in
v an
m ale</w>
P an
out come</w>
E m
i us</w>
g er
In t
f a</w>
al le
star s</w>
ke eps</w>
off ering</w>
c in
fa ster</w>
la b</w>
proc urement</w>
P ho
C L
g t</w>
A .
an al</w>
di x</w>
col oring</w>
he ight</w>
ut ch</w>
trans l
am m
Pol ice</w>
Exc ept</w>
Hum an</w>
ous ness</w>
ha dn</w>
gra b</w>
a ims</w>
S .
se emed</w>
cli ents</w>
r i</w>
Bra z
G DP</w>
is s
e e</w>
V AT</w>
care fully</w>
decre ase</w>
Fran c
believ ed</w>
saf egu
y al</w>
er o
re place</w>
Ph ot
&apos; T</w>
reat h</w>
b ia</w>
L t
Th us</w>
W ar</w>
F re
App en
le af
Qu ality</w>
incorpor ated</w>
Swit zer
hum ans</w>
Lux emb
J im</w>
fuc kin</w>
ste al</w>
ot ed</w>
i o</w>
c ry</w>
l ect</w>
el le</w>
div or
ac he</w>
Ad min
Ad am</w>
A u</w>
s anc
Li ve</w>
mat ure</w>
y o</w>
guil ty</w>
accep table</w>
subsequ ent</w>
b ird</w>
manufac ture</w>
c row
co hesion</w>
DEC ISION</w>
ur s</w>
T ony</w>
ri dic
bloo dy</w>
C o</w>
ad ult</w>
2. 1</w>
Un cle</w>
co vers</w>
arri ved</w>
Switzer land</w>
tel ev
all er
h ello</w>
appoint ment</w>
vis ual</w>
cap tain</w>
g ent</w>
lab el</w>
m ad
sen ding</w>
pu ts</w>
bel ong</w>
rela x</w>
communic ate</w>
In st
inc ess</w>
W ere</w>
uni verse</w>
plac ebo</w>
im ported</w>
discrimin ation</w>
jur is
regi stry</w>
bab ly</w>
Med ic
R un</w>
Dow n
wea k</w>
mur dered</w>
sam ples</w>
recommen d</w>
pr int</w>
lat ter</w>
T or
in hi
pover ty</w>
D r
2 6
gar ia</w>
bro thers</w>
certi fication</w>
app ed</w>
under stood</w>
fe der
Pro bably</w>
trans action</w>
assu me</w>
t age</w>
n ut
ch er</w>
I U</w>
Du de</w>
e y
D om
M ini
vot es</w>
gr and</w>
on ing</w>
thre sh
ex plan
IN AL</w>
D IC
figu res</w>
as signed</w>
Th urs
Ad ditional</w>
los ses</w>
r ice</w>
inf ec
o do
A mend
and a</w>
li gh
sh irt</w>
ac es</w>
stor ies</w>
br ings</w>
su m</w>
est y</w>
H igh
do w</w>
difficul ties</w>
y ou
quot as</w>
th ly</w>
re y</w>
y ard</w>
k o
ch e</w>
S C
r ating</w>
M id
dist inc
re min
em ail</w>
arch it
pos s
M mm</w>
in clusion</w>
ca ke</w>
Col onel</w>
uc e</w>
1. 1</w>
Wed n
B ir
Wil li
Bul garia</w>
ra ge</w>
Austr alia</w>
need le</w>
sp here</w>
IS ATION</w>
restric tions</w>
the art</w>
pil ot</w>
part ments</w>
ar dis
c ell
i ti
L ong</w>
particip ants</w>
ne u
po c
N on</w>
know ing</w>
pl ays</w>
cr y
. com</w>
h oo
ol ate</w>
n ation</w>
j er
O ld</w>
ren ess</w>
to il
exam ined</w>
tar get
li fe
10 00</w>
Nor way</w>
ca st
i e
under lying</w>
up dated</w>
acc id
B O
hol ds</w>
fe e</w>
adv anced</w>
Sec ond</w>
des k</w>
scho ols</w>
he ating</w>
sched ule</w>
R ules</w>
it als</w>
mar gin</w>
sup ports</w>
b a</w>
fra g
St eve</w>
C ar</w>
increas es</w>
l ined</w>
gh ty</w>
dro pped</w>
M use
spec tive</w>
r ab
s ports</w>
cha mp
gh o
L ady</w>
regi me</w>
S I</w>
end ar</w>
tab let</w>
K ra
d are</w>
f are</w>
commun ications</w>
impa ir
T im
D E
s pon
Sch ool</w>
el ing</w>
pan ts</w>
Ann exes</w>
em ission</w>
ni ght
Sp ir
ref ers</w>
person nel</w>
CF SP</w>
Tr ust</w>
B ook</w>
whe el</w>
gu idance</w>
H ell</w>
wal ked</w>
org asm</w>
conv inc
Y o</w>
F F
dy nam
ad ults</w>
brea king</w>
speci fications</w>
SP EC
electr ical</w>
air lines</w>
ha m
becom ing</w>
Ma x
ma st
ish ment</w>
fam ili
4. 2</w>
pr ay</w>
s co
ing u
b reath</w>
F uc
w inter</w>
to w
Al ways</w>
allow ing</w>
se es</w>
es tion</w>
Tom my</w>
F am
supp lied</w>
Wedn esday</w>
D a
row ing</w>
psy cho
occ up
ick y</w>
10 0
st ress</w>
L an
fo res
notic ed</w>
god damn</w>
Thurs day</w>
rati o</w>
mo ther
discus sed</w>
e ast</w>
ro of</w>
or ation</w>
res sion</w>
me al</w>
k ne
expl ained</w>
m ber</w>
gro wn</w>
Dan iel</w>
met abol
el ly</w>
in cur
om et
Gran d
opini ons</w>
P ay
S he
pre dic
sk a</w>
spe ech</w>
urb an</w>
syring e</w>
t um
stan tly</w>
V en
Afr ican</w>
pap ers</w>
Con trac
S E
mon y</w>
B or
install ed</w>
out put</w>
impair ment</w>
sti mul
B ut
sh oul
t ary</w>
M om
R A
ob by</w>
ref er</w>
cle aning</w>
bo ther</w>
b i</w>
telev ision</w>
ati n</w>
S T</w>
c up</w>
re l</w>
compar ison</w>
mo de</w>
institu tional</w>
up stairs</w>
bu m</w>
Con t
stu ffs</w>
ans wers</w>
classi fication</w>
eng aged</w>
moun tain</w>
H a</w>
org an</w>
im ages</w>
Tu esday</w>
H om
lead s</w>
iz ing</w>
N ic
y outh</w>
dedic ated</w>
leaf let</w>
Produc t</w>
Al l
gi a</w>
- Yeah</w>
Con gratulations</w>
substan tial</w>
A id</w>
Gir l</w>
ref unds</w>
AUTHOR ISATION</w>
respon d</w>
quar ters</w>
zer o</w>
bed room</w>
Char les</w>
e h</w>
prepar ations</w>
la tions</w>
exemp tion</w>
le gi
z er</w>
H E</w>
CO 2</w>
ra il</w>
fel low</w>
199 3</w>
G reek</w>
survi ve</w>
respon si
Hung ary</w>
docu mentation</w>
se y</w>
pre viously</w>
am pi
H ead</w>
super visory</w>
in duc
ran ean</w>
F er
cr ying</w>
al leg
imm ig
Serv ices</w>
li ability</w>
br and</w>
Ab solutely</w>
inc idence</w>
j i</w>
Pati ents</w>
P ra
progra ms</w>
kni fe</w>
an o
lin ks</w>
In dian</w>
Ry an</w>
ra p</w>
Tech no
manufac turing</w>
fuc ked</w>
mar ily</w>
vers al</w>
re mo
em br
ter ri
ar ding</w>
ge ant</w>
Maj or</w>
spl it</w>
Ham ster</w>
li f
con crete</w>
ar d
thro at</w>
stat ements</w>
reli able</w>
s wi
real ized</w>
T em
Med iter
ch est</w>
dum ped</w>
pre ne
meth odo
N U
T ext</w>
P A</w>
thous ands</w>
Inde ed</w>
v ail
Gi ven</w>
em a</w>
t ac
renew able</w>
ex trac
awa reness</w>
Goo gle</w>
IS O</w>
Engl and</w>
yel low</w>
b ol
K E
E asy</w>
Bus iness</w>
suff ering</w>
R et
b y
t esti
sen s
occur red</w>
d addy</w>
depen ds</w>
ridic ulous</w>
chec king</w>
en cl
b ath</w>
fe eding</w>
H ang</w>
ti g
Luxemb ourg</w>
load ing</w>
Rec om
Muse um</w>
mach inery</w>
b orders</w>
20 .
mon o
intellig ence</w>
stron ger</w>
po ul
M IN
2 50</w>
Mar tin</w>
vot ed</w>
es sions</w>
set tlement</w>
emb arr
benefici ary</w>
Bl ue</w>
A ren</w>
adver ti
hea ded</w>
Tal k</w>
wat er
hang ing</w>
g a</w>
arm ed</w>
main tained</w>
qu es</w>
stitu tion</w>
Mediter ranean</w>
transpa rent</w>
ever th
Fin land</w>
In te
sud denly</w>
pri marily</w>
mis sions</w>
invest ors</w>
small er</w>
la ke</w>
fin ds</w>
ten sion</w>
certain ty</w>
t ons</w>
everth eless</w>
ci vil
app ing</w>
li ft</w>
judic ial</w>
dar ity</w>
bre ast</w>
the ory</w>
m it
h all</w>
cla imed</w>
L a</w>
for th</w>
encl ature</w>
cle arance</w>
oper ated</w>
C ateg
Rob ert</w>
provid ers</w>
ER E</w>
vul ner
t ty</w>
liqu id</w>
P res
fin anced</w>
man i
techno logical</w>
or dered</w>
ref lect</w>
x Hamster</w>
protec ting</w>
invol vement</w>
Wh e
belon gs</w>
the e</w>
h at</w>
ser ver</w>
R ap
un ion</w>
R ule</w>
199 2</w>
inst all</w>
ww w
bro w
As k</w>
cen tra
d or
dom in
so il</w>
Appen dix</w>
re tail</w>
e ds</w>
Contro l</w>
Comm ander</w>
b les</w>
ass et</w>
eri ff</w>
Stand ard</w>
m p</w>
is o
Bo y</w>
-------- --------
at eral</w>
Prof essor</w>
mess ages</w>
in tra
s na
fra me</w>
sec tions</w>
assh ole</w>
corpor ate</w>
tre es</w>
un cle</w>
pl enty</w>
An dre
Proc ed
W ater</w>
Al right</w>
w alls</w>
b o</w>
Ri ghts</w>
C ast
an i</w>
Gu idelines</w>
ow ned</w>
t ack
Mex ico</w>
ut ing</w>
but ter</w>
a kes</w>
mul ti</w>
A R</w>
te eth</w>
compl icated</w>
E v
yl ene</w>
conflic t</w>
est ly</w>
centra tions</w>
San ta</w>
li ers</w>
3 7
pos t
Su pp
un d
Regi onal</w>
jour ney</w>
j unc
st ages</w>
recogni ze</w>
foot ball</w>
D ro
mast urb
g al
run s</w>
n is</w>
ini um</w>
P air</w>
s man</w>
tol er
uropa .e
pos ing</w>
f at
spir it
gover ning</w>
In d
exc ited</w>
1 6.
ca uses</w>
plat form</w>
datab ase</w>
ogra phic</w>
apologi ze</w>
1 20</w>
Lt d</w>
th a</w>
err ors</w>
depen ding</w>
Ch ris</w>
GH T</w>
Cur rent</w>
holi day</w>
Ser iously</w>
C are
ic ip
supp lies</w>
fi re
Offic er</w>
lau gh</w>
Recom men
sup er</w>
aw esome</w>
min im
be aring</w>
R ome</w>
6 ,
al ties</w>
v in</w>
consi sts</w>
dist or
G a
ind ication</w>
decreas ed</w>
N ot
I cel
E G
tic ket</w>
L im
lo g</w>
represen ted</w>
pos ite</w>
ru ption</w>
hear ts</w>
5 ,
c ous
B illy</w>
Man ufac
inhi bit
are ly</w>
ME DIC
ha bit
gu ide</w>
bu ying</w>
T on
s ea
m id</w>
hor iz
la unch</w>
M eas
g ross</w>
f an</w>
sus pen
t ea
dimen sion</w>
Ty pe</w>
dis covered</w>
1. 2</w>
h o</w>
adjust ed</w>
F ire</w>
u k
re presents</w>
K no
inter view</w>
ex act</w>
er n</w>
con centrations</w>
ri d
C ase</w>
smo king</w>
autom atic</w>
pl ed</w>
vig ation</w>
let ting</w>
aw ful</w>
tis sue</w>
par tial</w>
Pl us</w>
inter medi
as leep</w>
fe ed
Gu ess</w>
determin ation</w>
strength ening</w>
om a</w>
D ou
gre en
10 7</w>
Protec tion</w>
e k</w>
De partment</w>
ob vious</w>
al ist</w>
t une</w>
resi stance</w>
arre sted</w>
C ali
pack aging</w>
Appro pri
J ake</w>
UNI ON</w>
po und</w>
Y oun
inv al
appe al</w>
expen sive</w>
Mini stry</w>
W ash
C .</w>
vie wed</w>
strateg ies</w>
pass ing</w>
chick en</w>
af ford</w>
L OR
mar ine</w>
V o
TH ER</w>
chlor ide</w>
bl on
W ester
B oo
famili ar</w>
wa ve</w>
Trans port</w>
cruc ial</w>
D ri
inf usion</w>
con version</w>
um es</w>
exam ine</w>
bro ad</w>
Ex ec
ol en</w>
demonstr ated</w>
Co operation</w>
Sec retary</w>
s and
si mul
pro hib
on ers</w>
associ ations</w>
f li
wi re</w>
nam ely</w>
P P
Mic ro
od d</w>
di tions</w>
appropri ations</w>
K E</w>
2. 2</w>
ex ported</w>
port ation</w>
N ations</w>
Po int</w>
pr ints</w>
fa ke</w>
Bu il
di ab
al um
is ol
labor atory</w>
&apos; all</w>
exten d</w>
H ear
La dies</w>
b ucks</w>
autom atically</w>
Cust oms</w>
a tion
end or
G od
Mor ning</w>
Invest ment</w>
John ny</w>
des pite</w>
ul ate</w>
al y
pregn ancy</w>
Qu een</w>
D or
campa ign</w>
il er</w>
S pr
t our</w>
es tiv
ick ness</w>
V is
fro zen</w>
sw itch</w>
juris diction</w>
exp iry</w>
W HA
del ic
stu died</w>
govern ments</w>
Bu reau</w>
w in
PR C</w>
At lan
ir a</w>
S ou
G ames</w>
l ord</w>
fe ren
ingredi ents</w>
cal endar</w>
incur red</w>
objec ts</w>
p in
sw itch
fu els</w>
at us</w>
f alls</w>
summ ary</w>
s low
MEDIC INAL</w>
propor tion</w>
expen ses</w>
ris ing</w>
co he
Z e
ent re
ber t</w>
inv ite</w>
phot ograph
X X
T F
te aching</w>
fa il</w>
di ff
dis play</w>
Pre tty</w>
met ers</w>
ass ist</w>
w et</w>
ti se</w>
ru pt</w>
situ ated</w>
ful fil</w>
shi ft</w>
sh el
f ever</w>
ca res</w>
enti rely</w>
E ast
v ity</w>
ak ia</w>
sp ending</w>
1 5.
fra ud</w>
C AS</w>
8 00</w>
re jected</w>
democ racy</w>
drin ks</w>
bi ke</w>
J am
prote in</w>
Dem oc
Rep res
sk i
y n</w>
m ous</w>
load ed</w>
g ear</w>
el ed</w>
Si x</w>
sym bo
ph y</w>
a h
te ach
kin ds</w>
C ri
res sive</w>
bul lshit</w>
hydro x
sig nment</w>
s port</w>
tri g
W ind</w>
st ations</w>
per mitted</w>
Sh all</w>
subm ission</w>
compet ence</w>
acc el
o dy</w>
ob st
direc tor</w>
L Y</w>
dic k</w>
des ire</w>
ó w</w>
ree ts</w>
ol ing</w>
pre fer</w>
ex pi
u pper</w>
ta r</w>
n es
1 4.
up s</w>
g ence</w>
a int</w>
Elec tr
the red</w>
sol ute</w>
a warded</w>
thou ghts</w>
wit n
ex tra
bul let</w>
1. 5</w>
ran ts</w>
param eters</w>
K y
sp are</w>
pa inting</w>
prepar ing</w>
k ings</w>
volun te
harmon ised</w>
li min
U. S.</w>
sm ile</w>
ar ising</w>
pan el</w>
st en
n ings</w>
meas urement</w>
eng ines</w>
W A
Kore a</w>
agricul ture</w>
im pl
exclu ded</w>
isc al</w>
moder ate</w>
prec au
mar itime</w>
indic ations</w>
fir ms</w>
B an
nut ri
y cl
regul arly</w>
Agric ulture</w>
con serv
A ut
Thom as</w>
v el</w>
Tech nical</w>
assi ve</w>
form ing</w>
B ran
ar a</w>
fuc ker</w>
reser ve</w>
rub ber</w>
guarante ed</w>
consider ing</w>
fol ks</w>
a w</w>
ac tors</w>
de duc
cere als</w>
id a</w>
ok ine
A C</w>
responsi bilities</w>
pen et
coll ect</w>
tor al</w>
D ef
ma x</w>
sac rif
with draw
S O</w>
Th ird</w>
WHA T</w>
lar ger</w>
r onic</w>
M R
ple ased</w>
B at
movi es</w>
k i
u ted</w>
transi tional</w>
OU T</w>
m emb
ac les</w>
ul ed</w>
li br
n ect</w>
er ring</w>
gly ca
achiev ing</w>
Direc tives</w>
b ags</w>
produc ing</w>
condi tioning</w>
E duc
enh ance</w>
di strict</w>
8 0
at mo
um p
contr ary</w>
S ig
suff er</w>
C H</w>
secon dary</w>
stom ach</w>
deri ved</w>
E L</w>
at tri
inv o
nur se</w>
res cue</w>
LOR D</w>
ul tural</w>
A my</w>
fac ing</w>
fe es</w>
s wal
lo y</w>
m ass
d ressed</w>
gen der</w>
3. 1</w>
a emia</w>
manufactu rers</w>
art an</w>
mon ster</w>
man date</w>
ear n</w>
Produc ts</w>
at ric</w>
port ers</w>
comfor t</w>
An na</w>
Pre sidency</w>
stre am</w>
laun ched</w>
che ese</w>
is sing</w>
A gen
l as
sul ph
as ide</w>
rail way</w>
Cam ping</w>
recommen dation</w>
ful filled</w>
ffic acy</w>
rol ling</w>
in put</w>
ec tor</w>
pret ation</w>
al ous</w>
fing er</w>
on going</w>
de fic
st ro
R am
E uro</w>
co operate</w>
M A</w>
contin ues</w>
recei pt</w>
En ter
tax es</w>
blon de</w>
Lithu ania</w>
Fore ign</w>
u b</w>
patter n</w>
st reets</w>
de fine</w>
r at</w>
ri ding</w>
inser ted</w>
C enter</w>
at er
li p
l or</w>
fal se</w>
expres sion</w>
compar able</w>
hou sing</w>
brea thing</w>
st olen</w>
invol ve</w>
mo stly</w>
G ab
C ool</w>
leg ally</w>
p ure</w>
excep tional</w>
B Y</w>
bu ted</w>
l un
be red</w>
er as</w>
est ate</w>
ber g</w>
archit ec
der ly</w>
conven i
amen d</w>
b read</w>
al es</w>
ro l</w>
lab elling</w>
In stitute</w>
Wor k</w>
collec tive</w>
al right</w>
divid ed</w>
col our</w>
te ase</w>
ev in</w>
az ine</w>
e a</w>
some how</w>
sha re
nation als</w>
x ed</w>
our ing</w>
ari at</w>
a u</w>
D an</w>
ist ers</w>
gh s</w>
An imal</w>
Wester n</w>
attrac tive</w>
har dly</w>
ref rig
cl ass
jec tion</w>
Cali for
de rer</w>
inst al
limin ary</w>
si m
equ ity</w>
With in</w>
r ings</w>
div ision</w>
soldi ers</w>
car b
neigh bor
b ell</w>
E ric</w>
n ic</w>
issu ing</w>
provid er</w>
E mil
lam p</w>
tr y
p. m.</w>
Af gh
Fran k
benefici aries</w>
ap par
propos e</w>
o be
entre prene
al d</w>
Leg al</w>
re forms</w>
go als</w>
ex posed</w>
rem un
I AL</w>
confir m</w>
B ased</w>
M P</w>
argu ment</w>
speci fy</w>
1 st</w>
repe aled</w>
inter pre
x ing</w>
meth yl</w>
regar ded</w>
na tions</w>
ei gh
Slov akia</w>
pl u
t ank</w>
TI VE</w>
US E</w>
Wom en</w>
cl asses</w>
1 1
Stan ding</w>
oun ding</w>
D utch</w>
g asse</w>
P s</w>
wid th</w>
su icide</w>
sc ore</w>
ol den</w>
sli de</w>
M u
rec ru
Cy pr
pp y</w>
her o
ric s</w>
mus cle</w>
H un
democ ratic</w>
scen ari
exist s</w>
ni ghts</w>
toil et</w>
r ick</w>
Le e</w>
on e
Ro ad</w>
De fin
r um
blow job</w>
si zed</w>
g or
ma r</w>
jo ined</w>
acces sible</w>
arti st</w>
embarr ass
Reg ions</w>
under taken</w>
sh opping</w>
rela tive</w>
behavi our</w>
masturb ation</w>
Pap er</w>
r on</w>
pi g</w>
hor rible</w>
ach el</w>
E mm
at en</w>
Cypr us</w>
swee theart</w>
Contrac ting</w>
ran k</w>
offici als</w>
D A</w>
ic als</w>
loo se</w>
mig ration</w>
B eli
D r</w>
mot or
p ages</w>
En ough</w>
bree ze</w>
ir man</w>
F ish
gl asses</w>
Con ference</w>
tr ick</w>
M ust</w>
vis a</w>
Jo se
b right</w>
com ment</w>
rap id</w>
repe aling</w>
Youn g</w>
gre w</w>
comb at</w>
see king</w>
mag ne
an na</w>
ro g
coun ts</w>
id al</w>
M ama</w>
RE C
transi tion</w>
Ed die</w>
sw im
c er</w>
UR E</w>
veri fy</w>
e ties</w>
out standing</w>
offic ers</w>
gluc ose</w>
D .
Good bye</w>
kno ck</w>
2 2
det ection</w>
exc essive</w>
appe arance</w>
vacc ine</w>
illi ant</w>
pro ph
cont ents</w>
un a</w>
religi ous</w>
f on
ca p</w>
Spir it</w>
hot els</w>
Bri an</w>
announ ced</w>
def ence</w>
li sts</w>
tel ephone</w>
u x</w>
uck les</w>
ret ariat</w>
O D</w>
G or
Egy pt</w>
as sa
ro man
fle et</w>
her it
demonstr ate</w>
expres s</w>
S R</w>
Ro ger</w>
s per
j an</w>
d ust</w>
Califor nia</w>
ro se</w>
Tom orrow</w>
per mission</w>
shor t
uti l
wh oever</w>
re mind</w>
gr ace</w>
al arm</w>
disci pl
su ffered</w>
dis charge</w>
cent res</w>
min us</w>
chil d
r ine</w>
et ting</w>
avi ation</w>
Th ings</w>
ex it</w>
b arely</w>
H IV</w>
cast le</w>
d ges</w>
for gotten</w>
dro me</w>
kid n
5. 1</w>
ri a</w>
doc tors</w>
MB ER</w>
sp ap
w ound</w>
I F</w>
pr o</w>
E V
to ys</w>
lic ense</w>
monit ored</w>
v ital</w>
Ph ili
st a</w>
was h</w>
in k
deleg ated</w>
Con tin
ate ful</w>
199 0</w>
elec tion</w>
Scot t</w>
Repres en
ic ian</w>
lo dged</w>
d enti
comple tion</w>
ref use</w>
t emp
sh ops</w>
r ated</w>
Part nership</w>
T el
suffici ently</w>
b its</w>
protec tive</w>
i res</w>
anci ent</w>
R ol
brea the</w>
f ood
C at
sli ghtly</w>
ri an</w>
prescri bed</w>
dis cre
exec ution</w>
u el</w>
stri ke</w>
e ur</w>
Inde x</w>
ur y</w>
2 8.
S ame</w>
Gr ace</w>
B obby</w>
cous in</w>
restric ted</w>
pharmac ist</w>
ed ly</w>
ta min
Tu be</w>
fa i
Ind ustri
C lo
bloc ks</w>
st al</w>
P .
f iscal</w>
pa int</w>
t ine</w>
Chil dren</w>
organ ized</w>
Ber lin</w>
re placement</w>
C .
pl en
z o</w>
sam pling</w>
Exec utive</w>
h es</w>
East ern</w>
M ill
Pl ace</w>
B U
ti a</w>
s age</w>
compl aint</w>
R achel</w>
ac compl
circ ulation</w>
ad em
g ins</w>
har m
IT Y</w>
J on
trans it</w>
pre tend</w>
F ig
Ch ic
Wash ington</w>
Pri v
organ ization</w>
Net work</w>
sle pt</w>
Bi ble</w>
represen ting</w>
f lower</w>
de par
dra g</w>
K ate</w>
i vely</w>
mil lions</w>
P rem
V II</w>
per c
mi x</w>
there by</w>
bur ied</w>
sav ings</w>
c ement</w>
po p</w>
inter pretation</w>
vulner able</w>
se ment</w>
it ations</w>
se ats</w>
3. 2</w>
pen ding</w>
clo sing</w>
V ice</w>
W E</w>
foc used</w>
scre w</w>
col labor
less on</w>
Je wish</w>
K evin</w>
en lar
regul ated</w>
ing er</w>
e .</w>
PRODUC T</w>
attemp t</w>
no where</w>
per spective</w>
sensi tivity</w>
spo ken</w>
H av
aller gic</w>
b ill</w>
l ar</w>
all en</w>
W IT
b ars</w>
P ow
eg g</w>
ti ed</w>
Braz il</w>
re fu
S hel
in i</w>
Ale x
M ach
elec tro
withdraw al</w>
co al</w>
chan nel</w>
bur ning</w>
stor m</w>
so le</w>
li abilities</w>
el a</w>
z ones</w>
secre ts</w>
mon d</w>
ques tion
il a</w>
sha me</w>
sti pul
satis fied</w>
st ayed</w>
offici ally</w>
o ven</w>
for ma
G ro
Mom my</w>
I .</w>
ren tal</w>
l ad
Pro posal</w>
thre w</w>
tour ism</w>
enter ing</w>
convinc ed</w>
br un
fo li
re ti
down load</w>
na ked</w>
po pul
bo w
acc ept
consi sting</w>
N ope</w>
oc olate</w>
k er
Po si
9 0
pra yer</w>
Un fortunately</w>
s car
wh enever</w>
ur gent</w>
J ac
gran ts</w>
C N
A sh
l ately</w>
oun d
ul ated</w>
inten tion</w>
circ u
rec ording</w>
mom ents</w>
ev ol
cl .</w>
lic en
even tually</w>
cam eras</w>
c ook</w>
dis gu
e fficacy</w>
sud den</w>
ell er</w>
In nov
sequ ently</w>
ong ly</w>
min or</w>
enem ies</w>
am ine</w>
ins ane</w>
def ense</w>
in si
spirit ual</w>
eng en</w>
m ay
T en</w>
ab solute</w>
uropa.e u</w>
volun tary</w>
is ations</w>
s word</w>
T E</w>
dis sem
ti er</w>
de gre
fl esh</w>
- Yes</w>
Br it
og lob
as yl
tax ation</w>
St and</w>
al fa</w>
agg reg
ap pa
Sch engen</w>
dist urb
An alysis</w>
syst em
Fuc king</w>
dum b</w>
B lo
continu ous</w>
Per f
l ers</w>
dev il</w>
b ow</w>
programm ing</w>
defini tive</w>
Z o
F ree
Op inion</w>
p us
exper tise</w>
ban king</w>
al ert</w>
w ishes</w>
ac tor</w>
H ist
sustain ability</w>
g on</w>
Fol low</w>
v ar
K ill</w>
tox icity</w>
it ability</w>
car di
ra ising</w>
p et</w>
Je ws</w>
un known</w>
mon etary</w>
as sion</w>
c ents</w>
flexi ble</w>
gi es</w>
Sa int</w>
hi red</w>
fib res</w>
ast ro
ti p</w>
manag ing</w>
Sh ar
T ex
ac et
D O</w>
sil ver</w>
R ural</w>
ol d
con stant</w>
asyl um</w>
f ate</w>
qu een</w>
bil ateral</w>
Sub ject</w>
com position</w>
h an</w>
www .
g lo
am ed</w>
l o</w>
preci ous</w>
as i
Mat t</w>
swee tie</w>
flow s</w>
el and</w>
Fur ther</w>
Appropri ations</w>
g all
initi ated</w>
2 1.
Jer ry</w>
Wal ter</w>
id ation</w>
Ann ual</w>
li ghting</w>
mer cy</w>
l en
professi on
ol a</w>
J ord
F RO
ee ts</w>
oglob in</w>
consider able</w>
sh ock</w>
contrac ting</w>
depos it</w>
4. 3</w>
es tic
in sp
dre ds</w>
adjust ments</w>
expec ting</w>
Clar k</w>
D ear</w>
ass embly</w>
7 ,
histor ical</w>
4. 1</w>
I A</w>
lam ps</w>
princi pal</w>
dead line</w>
publ ic
refrig er
Categ ory</w>
att acks</w>
il st</w>
there to</w>
P ower</w>
arri val</w>
rev ised</w>
Any one</w>
estiv al</w>
lead ers</w>
ra d
worl d
acqu isi
ind ent</w>
st el</w>
so c
att acked</w>
on y
appar atus</w>
M ale</w>
sh ots</w>
................ ................
F lo
bel t</w>
ev a</w>
Organ isation</w>
p in</w>
pro sec
ati tis</w>
arran gement</w>
junc tion</w>
F oun
S D</w>
supp lier</w>
co at</w>
D re
exclus ive</w>
cha pter</w>
person ally</w>
EF TA</w>
techni ques</w>
rem ote</w>
poul try</w>
il eg
degre es</w>
Proced ure</w>
L og
visi ble</w>
mun icip
neu tr
wh is
all ed</w>
sig nature</w>
MAR KE
te en
Is land</w>
ure ments</w>
pl ates</w>
D ER</w>
candi date</w>
Coun ty</w>
Coun try</w>
hur ts</w>
.e uropa.eu</w>
dis appeared</w>
D un
Lu ke</w>
sal t</w>
st ery</w>
tin y</w>
d ancing</w>
en zy
w is
coo king</w>
ad vis
pr ic
it ty</w>
gen u
C ut</w>
ju ice</w>
C YP
b ite</w>
D C</w>
par lia
ou red</w>
ton gue</w>
w inning</w>
hor ses</w>
Chic ago</w>
psy ch
f old</w>
B .</w>
apart ments</w>
f it
remun eration</w>
boo king</w>
en vis
brun ette</w>
exclus ively</w>
J ason</w>
Des cri
Air port</w>
e di
Ser geant</w>
ther ing</w>
terror ist</w>
iz z
St art</w>
hi re</w>
ad o</w>
si x
vil le</w>
A w</w>
du ly</w>
P ot
acc ess
Bo x</w>
supp liers</w>
set tings</w>
me rely</w>
s --</w>
po wered</w>
con sent</w>
M em
valu able</w>
dri ven</w>
orig in
op ens</w>
19 .
kno c
H ire</w>
B R
house hold</w>
ell ec
tal ks</w>
C D</w>
al ists</w>
F lor
num erous</w>
des ir
tre me</w>
ge ous</w>
sus pic
sh eets</w>
V III</w>
teach ers</w>
co ast</w>
po inted</w>
soli darity</w>
box es</w>
Cl ass</w>
ly mp
g ress</w>
be g</w>
Educ ation</w>
Fam ily</w>
om atic</w>
coun ting</w>
target ed</w>
ch ose</w>
199 1</w>
ho ly</w>
de fault</w>
ic y
certi fied</w>
SPEC IAL</w>
set tle</w>
4. 5</w>
enti c</w>
con stitutes</w>
al ism</w>
NO W</w>
sched uled</w>
F ar
heal th
bl ack
ad or</w>
furn iture</w>
No ti
al bum</w>
cut aneous</w>
sil ly</w>
Rel ax</w>
Pol l
w oods</w>
An dy</w>
gare t
occas ion</w>
ph ones</w>
form ats</w>
MARKE TING</w>
App a
deriv atives</w>
ph il
in ity</w>
hep atic</w>
c us</w>
dat ory</w>
W eb
N O</w>
H ow
reg ret</w>
Amend ment</w>
un employment</w>
ane ously</w>
a .</w>
barri ers</w>
HA VE</w>
out ta</w>
ci garet
Phar mac
R an
poc ket</w>
K i
En g
har der</w>
incre dible</w>
Sim on</w>
2. 3</w>
cot ton</w>
5. 2</w>
gra ms</w>
prohib ited</w>
St ra
f illing</w>
meas uring</w>
wel comes</w>
tex ts</w>
mo bil
bac ter
st abil
bas ically</w>
1 ,000</w>
st at</w>
Ag ain</w>
Cl ub</w>
j am
abl ing</w>
et es</w>
7 0
poll ution</w>
priv ileg
flexi bility</w>
c able</w>
ten tion</w>
Environ ment</w>
import ers</w>
vers ary</w>
b ones</w>
gr ateful</w>
evalu ated</w>
Techno logy</w>
exc iting</w>
carri er</w>
Com ple
ph a</w>
mb H</w>
gra ve</w>
fing ers</w>
Fun ds</w>
on tal</w>
F F</w>
b al</w>
Y et</w>
tra ined</w>
offic es</w>
Maj esty</w>
su m
thresh old</w>
Jack son</w>
loc ks</w>
Sta r</w>
Mar k
depend ent</w>
alle l</w>
t reas
Bar cel
con nect</w>
equ ality</w>
9 ,
en tries</w>
b id</w>
f itted</w>
com it
pi ents</w>
id ly</w>
H ou
dri vers</w>
difficul ty</w>
reco vered</w>
not ably</w>
il le</w>
12 34</w>
Doc u
loc ations</w>
mo ves</w>
Sup port</w>
rec over</w>
ol ly</w>
industri es</w>
u l</w>
Ar t</w>
U r
Str uc
G ri
B un
ser ving</w>
2 4.
affec ting</w>
un able</w>
w indows</w>
proportion ate</w>
mus e
Appa rently</w>
ac ing</w>
WIT H</w>
war rant</w>
increas ingly</w>
Ch ange</w>
M en</w>
Asi an</w>
flu or
p tease</w>
2 7.
ac knowle
Do c</w>
bio logical</w>
necess arily</w>
g ang</w>
B .
Sloven ia</w>
res ear
S ave</w>
t .</w>
je alous</w>
bri ef
youn ger</w>
L ist</w>
religi on</w>
S mo
des per
Del eg
soldi er</w>
li ps</w>
c ing</w>
mar king</w>
gg le</w>
NA ME</w>
eg o</w>
D A
con vic
A ra
contain er</w>
MA N</w>
dis closure</w>
auth entic</w>
ca sting</w>
det ective</w>
ab and
neighbor hood</w>
2 9.
b um
I X</w>
pre liminary</w>
AN CE</w>
con tamin
O rig
ve re
cour ses</w>
C r
su rely</w>
id en
Car ter</w>
AC E</w>
3 8
there in</w>
ain ing</w>
S earch</w>
n d</w>
vide os</w>
contri but
P L</w>
K now</w>
rema ined</w>
0. 5</w>
laugh ing</w>
im bur
T ool</w>
id er</w>
pl ain</w>
hol dings</w>
TF EU</w>
l l
pharmac okine
K yle</w>
new spap
eu tic</w>
a p</w>
cum shot</w>
NO T</w>
rela tively</w>
S H
E l</w>
di pl
fla v
sol ely</w>
ide al</w>
gho st</w>
m ood</w>
roman tic</w>
f ran
B ad</w>
pa in
G mbH</w>
att or
gener ated</w>
dec or
tain ment</w>
ven s</w>
defic it</w>
C lear</w>
carri ers</w>
AR S</w>
forec ast</w>
Emil y</w>
remo val</w>
radi ation</w>
M ain</w>
territ orial</w>
W r
E scape</w>
bran ch</w>
Y u
N either</w>
Com b
oc ean</w>
manufactu red</w>
k ies</w>
ou ter</w>
whe at</w>
br o</w>
E Y</w>
or a</w>
ti les</w>
sacrif ice</w>
reve aled</w>
de fe
ch ann
1. 3</w>
methodo logy</w>
Afgh an
IN G
C ES
explan ation</w>
ri gh
ch ers</w>
bur ned</w>
k inda</w>
lo s</w>
M un
ini an</w>
smo oth</w>
cons ult</w>
iz za</w>
divor ce</w>
acc o</w>
Pet e</w>
S et</w>
Jord an</w>
l oud</w>
vac ation</w>
cr ash</w>
M oun
infec tions</w>
man datory</w>
meth yl
inde x</w>
ter ing</w>
t ress</w>
bl u
dis aster</w>
R S</w>
compati bility</w>
L am
ser um</w>
dis played</w>
D own</w>
accept ance</w>
scre wed</w>
hi p</w>
k ins</w>
C oo
a res</w>
dis cover</w>
tr ou
an ni
Willi am</w>
Wor king</w>
US T</w>
AC P</w>
set tled</w>
ON E</w>
Afghan istan</w>
ato es</w>
w are
v est</w>
acc um
de struction</w>
Dro p</w>
desir able</w>
D ub
cont ra
az ole</w>
Sta ff</w>
w eg
bo vine</w>
ar i</w>
V I
18 .
De ath</w>
confidenti al</w>
Lis a</w>
Cla ire</w>
favour able</w>
ren ti
pre mises</w>
initi ation</w>
Con sequently</w>
C E
adverti sing</w>
mem ories</w>
ang el</w>
Barcel ona</w>
ug ly</w>
Sto ck</w>
Sh h</w>
ass ur
bab ies</w>
appa rently</w>
ic king</w>
vari able</w>
ten ders</w>
fant astic</w>
possi bilities</w>
oper ative</w>
d ens</w>
accel er
repe at</w>
ti ble</w>
is her</w>
O m
Bro ther</w>
food stuffs</w>
acqui red</w>
P AC
ven ous</w>
bor ne</w>
re ferences</w>
enti ally</w>
an ian</w>
ut ation</w>
ol ine</w>
magne tic</w>
E specially</w>
contin uation</w>
E ver</w>
K at
er ie</w>
Phot os</w>
val idity</w>
v oting</w>
coord inated</w>
tr ace</w>
educ ational</w>
d less</w>
ren der</w>
N av
pri est</w>
swim ming</w>
ro t
mechan ical</w>
conf used</w>
in direct</w>
fun eral</w>
cu ts</w>
meas urements</w>
O l
R ose</w>
to ward</w>
O il</w>
di str
i str
f ashion</w>
it arian</w>
atmo sphere</w>
F R
i tion</w>
Sy st
li ar</w>
F le
lan ding</w>
enh anced</w>
advant ages</w>
et al</w>
your selves</w>
Or der</w>
gh ters</w>
Con si
sol o</w>
re stra
res ource</w>
Me th
fa ir
proc ee
inter ven
- l</w>
Mal ta</w>
Mar ia</w>
tu be</w>
accur ate</w>
ap h
par allel</w>
s at</w>
V eg
indic ates</w>
e z</w>
Fish eries</w>
Stri ptease</w>
slow ly</w>
publ ish</w>
re aching</w>
ic ans</w>
ot a</w>
in tra</w>
green house</w>
satis fy</w>
bo t</w>
ther ine</w>
ab use</w>
mo ve
uni or</w>
com mon
rec ycl
str ongly</w>
Gr and</w>
prov ed</w>
tex tile</w>
fif th</w>
n ity</w>
Pro m
Feder al</w>
me ets</w>
ra m</w>
V e
So f
Al ice</w>
Cal m</w>
FOR M
l ay
Emp loyment</w>
- It</w>
val uation</w>
P ub
g ers</w>
sex y</w>
ri b
th ur</w>
o gen
In cre
B s</w>
free zing</w>
Lat via</w>
rol led</w>
Par ag
symbo l</w>
re st
re imbur
ellec tual</w>
F R</w>
Ar my</w>
main taining</w>
en za</w>
Is lands</w>
ter ies</w>
d u</w>
func tional</w>
er able</w>
bas eline</w>
Sy n
kid ney</w>
harmon isation</w>
Fl ash</w>
um a</w>
clus ive</w>
premi um</w>
ce iling</w>
jour n
haem oglobin</w>
Swe dish</w>
con fig
assi stant</w>
J .</w>
s can</w>
independ ence</w>
fa st
f ought</w>
du le</w>
m ation</w>
st al
v ice</w>
im ing</w>
reli ef</w>
transf ers</w>
Inter nal</w>
H ad</w>
cir cle</w>
re ward</w>
infring ement</w>
f ounded</w>
St ation</w>
th m</w>
l ap
hel p
ea king</w>
cou rage</w>
Le o</w>
Det ail
inc enti
Pr ince</w>
y ar
RE S</w>
Ci vil</w>
Ch em
rel ate</w>
Poll ution</w>
ch ronic</w>
bal anced</w>
do in</w>
D ancing</w>
Emm a</w>
A G</w>
er o</w>
so oner</w>
lau ghter</w>
N ight</w>
v in
d am</w>
M O</w>
glyca emia</w>
vis itors</w>
adap ted</w>
tou ched</w>
comp li
s now</w>
i est</w>
00 000</w>
world wide</w>
M ess
Bel ar
fer til
Ir ish</w>
dec ent</w>
adap t</w>
bor ing</w>
Nor weg
U p
sol vent</w>
inval id</w>
St ep</w>
hun dreds</w>
L en
p el
10 ,000</w>
wel fare</w>
n ically</w>
il ers</w>
exam ples</w>
defini tions</w>
tren d</w>
ci a</w>
s ought</w>
fi er</w>
stand ardis
dep th</w>
th ful</w>
le ment</w>
t ant</w>
F low
to e</w>
addi tives</w>
s lo
go in</w>
v el
L ot
rec k
E ff
G R
ab road</w>
ric h
sha ke</w>
descri be</w>
ou ts</w>
Ta king</w>
y i
l ayer</w>
P ull</w>
Al most</w>
s uck</w>
fac ed</w>
stri p</w>
car go</w>
frea k</w>
hi l</w>
S pe
op posite</w>
diam eter</w>
t at
pic king</w>
er ce</w>
c ure</w>
br illiant</w>
lon g
d in</w>
correc ted</w>
pap er
ot er</w>
s k</w>
1 3.
survi val</w>
Perf ect</w>
rep ly</w>
Hung arian</w>
ment ally</w>
co operating</w>
less ons</w>
dist ingu
inspec tions</w>
P ak
S even</w>
E .
po l</w>
priv acy</w>
b reach</w>
N om
the me</w>
expos ures</w>
di g</w>
cust ody</w>
Fig ure</w>
produc tive</w>
Lou is</w>
pe ace
G ot
prec ise</w>
ca using</w>
si a</w>
speci fication</w>
Rom an</w>
form ula</w>
Cast le</w>
Speci fic</w>
17 .
reser vation</w>
suspen ded</w>
er y
Swe et</w>
O .
terror ism</w>
vir al</w>
tour ist</w>
v ampi
concentr ate</w>
T ay
cour ts</w>
No .</w>
Mul ti
Comm it
gen ius</w>
is ely</w>
ow nership</w>
celebr ate</w>
fing er
ten ed</w>
Norweg ian</w>
es el</w>
P il
wor ker</w>
be l</w>
4 14</w>
contrac tual</w>
T un
S end</w>
3 2
K r
territ ories</w>
Hon or</w>
a i
experi ences</w>
allow ances</w>
un usual</w>
f em
Dep uty</w>
de fici
instal lations</w>
M Y</w>
Inst ead</w>
comm it</w>
rec eption</w>
design ation</w>
invest or</w>
consequ ence</w>
vir tu
appro aches</w>
c ep
V inc
et e</w>
watch ed</w>
Mus ic</w>
am ong
G N
Ar thur</w>
bra ve</w>
sol ved</w>
libr ary</w>
coun ted</w>
p um
legi timate</w>
ab bed</w>
stu dio</w>
ch ro
18 0</w>
fer on</w>
ur ally</w>
inten sity</w>
continu ing</w>
str ang
oxy gen</w>
Car l</w>
M ob
tr um</w>
A us
inten d</w>
in n</w>
writ er</w>
O w</w>
where by</w>
dis appear</w>
ro ot</w>
ow ners</w>
P ress</w>
R oc
alum inium</w>
imp acts</w>
subsequ ently</w>
AR E</w>
cop ies</w>
Sm all</w>
les bian</w>
PRO V
c am</w>
Con su
A ye</w>
I ran</w>
re ment</w>
ke y
pro tocol</w>
wor thy</w>
sen ior</w>
o ils</w>
peri o
Sw iss</w>
anal o
K im</w>
li ances</w>
atten d</w>
Descri ption</w>
trig ger</w>
t ap
expl ic
be ings</w>
T an
EI B</w>
move ments</w>
co ach</w>
ty pical</w>
brea ks</w>
Qu i
tab les</w>
a uc
adem y</w>
N ah</w>
re ar</w>
appropri ation</w>
she ep</w>
multi lateral</w>
employe e</w>
st ret
gl ory</w>
at titude</w>
among st</w>
ans wered</w>
A LL</w>
frequ ently</w>
L ight</w>
C ir
cont acts</w>
k ingdom</w>
sur vey</w>
but t</w>
conserv ation</w>
ab eth</w>
O therwise</w>
f allen</w>
D ist
it ter</w>
R est
us i
v ary</w>
sing ing</w>
pec ted</w>
comp ul
M ot
d ay
F ound</w>
Pur su
1 10</w>
pe l</w>
v om
tea ms</w>
O w
inter oper
T ed</w>
8 5
L IS
L and
uni versal</w>
Com pu
Ad d</w>
tw enty</w>
def end</w>
p ills</w>
n t</w>
Ni k
E s
De an</w>
quali fications</w>
bur y</w>
pi pe</w>
fr ac
Asi a</w>
pun ishment</w>
N az
pig s</w>
inter action</w>
pen alties</w>
h ill</w>
gl ing</w>
si e</w>
U R</w>
audi ence</w>
exc ess</w>
inc ident</w>
improv ements</w>
cho ices</w>
m ust
hun ting</w>
tra p</w>
consci ous</w>
m o</w>
pa th
Aud itors</w>
EX P
ou gh
Ton ight</w>
Portu gu
H it
deleg ation</w>
prin ted</w>
S on
G EN
dynam ic</w>
Cor por
m aps</w>
vie wing</w>
&apos; II</w>
te es</w>
An nie</w>
connec tions</w>
behavi or</w>
Sci enti
to b
S nap
D ave</w>
er ry</w>
bea m</w>
f ting</w>
ro ws</w>
p ump</w>
re sident</w>
u no
In spec
ex hibition</w>
ut ers</w>
Al an</w>
ec ts</w>
Ne ws</w>
activ ated</w>
uni versity</w>
ref used</w>
go ds</w>
ex treme</w>
fe ature</w>
na vigation</w>
lon ely</w>
direc ted</w>
in der</w>
en er
j i
consist ency</w>
a to</w>
consul ting</w>
happ iness</w>
TE N
where ver</w>
Di ffe
Atlan tic</w>
f ed</w>
ru in</w>
m bo
ha ir
For um</w>
mic ro</w>
F ing
plen ary</w>
we stern</w>
mist akes</w>
Represen tative</w>
separ ately</w>
P ack
aff airs</w>
n ig
8 ,
W on
co ck
s i</w>
acquisi tion</w>
occur s</w>
Be ing</w>
re views</w>
Mon t
be ef</w>
in er</w>
s and</w>
sh ine</w>
ep er</w>
h all
On line</w>
Ch uck</w>
ur ine</w>
discus sions</w>
R E</w>
ambi tious</w>
A ma
nit ro
Pursu ant</w>
Col le
fun ded</w>
good bye</w>
ub s</w>
brow ser</w>
W ay</w>
ad ding</w>
commun ities</w>
di et</w>
C el
elec tions</w>
Char ter</w>
tra ffic
attor ney</w>
pris oners</w>
dar kness</w>
d ual</w>
dem ands</w>
rap idly</w>
z ap
C ross</w>
Treat ment</w>
b age</w>
Po or</w>
gi ant</w>
I P
pleas ant</w>
whe els</w>
we alth</w>
v als</w>
co verage</w>
Bas ic</w>
con g
gar age</w>
ru ined</w>
sp ell</w>
sub scri
Portugu ese</w>
A .</w>
W ake</w>
Un it</w>
us al</w>
s ory</w>
G ent
u de</w>
rou tes</w>
peti tion</w>
p issed</w>
jac ket</w>
en abling</w>
tren ds</w>
K ir
h ook</w>
h em
investig ations</w>
mist ak
E ither</w>
Beli eve</w>
p atch</w>
enter prise</w>
H ope</w>
ro ads</w>
bra ke</w>
air y</w>
phen om
op er</w>
horiz ontal</w>
ad mi
a b</w>
ish op</w>
na m</w>
el ve</w>
ci um</w>
j e</w>
U l
AP P
perform ing</w>
mo l</w>
wh ore</w>
sh ore</w>
fre ight</w>
b and
shoul der</w>
Se an</w>
organis ms</w>
assi um</w>
l en</w>
st ones</w>
assess ing</w>
2 2.
r at
Sm ith</w>
moun tains</w>
an ticip
y n
I ra
vol umes</w>
conclu de</w>
mir ror</w>
lea ther</w>
to wer</w>
pi e</w>
FRO M</w>
Re ference</w>
ret ro
2 3.
Sp ace</w>
O THER</w>
no ver</w>
comp any
we l</w>
u tionary</w>
Je an</w>
simul t
eng age</w>
p ers</w>
consul tations</w>
inte st
assu med</w>
r d</w>
gu ards</w>
Pr incess</w>
E qui
diab etes</w>
exten sive</w>
obst acles</w>
f oods</w>
P hil</w>
e uro
D eb
poten tially</w>
Kra k
w an</w>
a ment</w>
pl ic
el eg
f ancy</w>
in jur
ash ed</w>
f ar
air ports</w>
2 6.
10 4</w>
dro ve</w>
chem icals</w>
prescri ption</w>
ben ch
ex e</w>
po is
in ci
incenti ves</w>
di al</w>
ali en</w>
Ass ess
Bea utiful</w>
d ur
W est
question na
R .</w>
Snap shot</w>
P op
p ill
classi c</w>
beg ins</w>
d ried</w>
Je ff</w>
Com ing</w>
ee k</w>
n ick
conv ince</w>
re vision</w>
cr ack</w>
Jo ey</w>
con y</w>
propos es</w>
Gent le
Icel and</w>
my stery</w>
b utes</w>
Th ought</w>
pri ze</w>
organ iz
Loo king</w>
pack ages</w>
o v</w>
Th rough</w>
eli gi
P M
citiz en</w>
down stairs</w>
K al
shi pping</w>
activ ely</w>
precau tions</w>
Gi b
trans mitted</w>
sig ning</w>
health care</w>
13 6</w>
M ission</w>
Euro system</w>
moder n
auth or</w>
ili ation</w>
CO D</w>
bro wn</w>
k ind
Ri ver</w>
recogn ise</w>
ch ocolate</w>
liter ally</w>
back up</w>
W S</w>
w oo
serv ants</w>
elec ted</w>
bu ff
s ules</w>
rec tion</w>
lot tery</w>
W ord</w>
log ist</w>
ex clusion</w>
ri e</w>
ex ed</w>
iden tical</w>
correc tly</w>
L os</w>
p ine</w>
do sage</w>
man ual</w>
penet ration</w>
con junction</w>
U F
D s</w>
D F</w>
Compu ter</w>
sol ar</w>
Vi et
m ouse</w>
fo ster</w>
righ te
g in
Tay lor</w>
log istics</w>
ven cy</w>
ha med</w>
res cent</w>
L and</w>
applic ants</w>
F ull</w>
ch ances</w>
Na than</w>
pul ling</w>
ex cl.</w>
ca b</w>
C T
com promise</w>
TI T
Sup er</w>
g as
pre ten
par tly</w>
tim ately</w>
dol lar</w>
pro spec
i x</w>
M um</w>
H ot</w>
mi ghty</w>
Sof tware</w>
Ar ch
tob acco</w>
P ass
K elly</w>
H all</w>
witn esses</w>
V an</w>
bet ra
1. 4</w>
coord in
sc are</w>
l ining</w>
aff air</w>
D y
prof its</w>
cri mes</w>
observ ations</w>
ge on</w>
f ted</w>
access ories</w>
P age</w>
H OL
Foun dation</w>
restric tive</w>
pen alty</w>
an ning</w>
wit z</w>
bl ess</w>
Innov ation</w>
Feder ation</w>
engine ering</w>
ush ed</w>
ag er</w>
k icked</w>
load s</w>
E d</w>
op en
S op
sugg ested</w>
Reg ion</w>
achiev ement</w>
B ren
port foli
ph y
en tion</w>
pus sy</w>
si sters</w>
mass age</w>
1 60</w>
c ats</w>
4. 8</w>
wh ilst</w>
entr ance</w>
Sh oot</w>
company ing</w>
zap ine</w>
we i
b our
M P
g an</w>
Nor thern</w>
see ds</w>
ab normal</w>
ch at</w>
Lar ry</w>
G U
weigh ted</w>
na h</w>
se as</w>
Geor gia</w>
assess ments</w>
Qu ick</w>
D al
separ ated</w>
ster o
addi tive</w>
satis fac
Recommen dation</w>
estim ate</w>
bet a</w>
herit age</w>
ver t</w>
mis sible</w>
Flow ers</w>
integr ity</w>
10 1</w>
st en</w>
for tune</w>
min ds</w>
H I
farm ing</w>
Est onia</w>
E dition</w>
hi e</w>
ag on</w>
su res</w>
in cen
envis aged</w>
pursu e</w>
th al
coun ty</w>
arri ve</w>
IC T</w>
AG E</w>
N evertheless</w>
ran dom</w>
prec eding</w>
Luc y</w>
inhibit ors</w>
P A
w ell
D V
produc tivity</w>
Soci ety</w>
im pose</w>
ER S</w>
for th
vis ited</w>
relation ships</w>
ag ues</w>
Or al</w>
s ni
int ellectual</w>
p o</w>
re viewed</w>
ad oles
T am
CI A</w>
S ud
P U
R is
repe ated</w>
wor th
as pect</w>
Des pite</w>
Pic tures</w>
assur ance</w>
r ush</w>
proc eed</w>
harm ful</w>
chann els</w>
re verse</w>
ec o
Ma c</w>
phot ogra
al ized</w>
L atin</w>
IT S</w>
M eg
m ama</w>
h ath</w>
w age</w>
A ah</w>
gene tic</w>
Any body</w>
ner ships</w>
R ay
es ia</w>
T ru
preven ting</w>
g rid</w>
Pri me</w>
por n</w>
emo tional</w>
therap eutic</w>
dam aged</w>
with draw</w>
sand w
D ig
requ iring</w>
si zes</w>
author isations</w>
ail and</w>
resid ue</w>
pp ers</w>
Sim il
3 9
bree ding</w>
3. 3</w>
respec ted</w>
D ue</w>
ST R
reser ved</w>
Max imum</w>
C I</w>
enc ing</w>
w inner</w>
logi c</w>
M ir
tra dition</w>
liqu idity</w>
dep end</w>
T en
L aughter</w>
hydro gen</w>
NU MBER</w>
w ra
o b</w>
prin ting</w>
po e
tem ple</w>
hun t</w>
ph r
U M</w>
dec k</w>
Assess ment</w>
viol ent</w>
al a</w>
patter ns</w>
awa ke</w>
anni versary</w>
invol ves</w>
Jo sh</w>
inv est</w>
se as
el se
conven tional</w>
2. 4</w>
M AN
sem i</w>
coll ap
tor ate</w>
an te</w>
Agric ultural</w>
threat ening</w>
m assive</w>
MEN TS</w>
e fully</w>
Jose ph</w>
m ates</w>
ea stern</w>
H ank</w>
scenari o</w>
ma id</w>
te l</w>
K ids</w>
Go ing</w>
econom ies</w>
av ir
regar dless</w>
lo ving</w>
inter im</w>
men u</w>
- Oh</w>
C A</w>
Li ber
cre ative</w>
tr usted</w>
re me
threat s</w>
J O
pos session</w>
cap sules</w>
can v
ga p</w>
crow d</w>
ac ulture</w>
R ed
met res</w>
mag azine</w>
C O</w>
le um</w>
in sufficient</w>
is er</w>
Gentle men</w>
V an
Th ailand</w>
be an</w>
v able</w>
- That</w>
or ph
se c</w>
mil d</w>
tis ation</w>
re turns</w>
Re qui
1 25</w>
termin al</w>
bad ly</w>
rep utation</w>
oblig ed</w>
En joy</w>
pos ted</w>
doub ts</w>
Acc ess</w>
mir acle</w>
so m</w>
ev olution</w>
Ad venture</w>
b ery</w>
wa ited</w>
veget able</w>
ST A
cou ch</w>
tion ality</w>
resul ted</w>
T ags</w>
P RE
v a
cor n</w>
aut onom
li able</w>
gen tle</w>
Inte re
communic ated</w>
re fin
Ro yal</w>
feder al</w>
uti li
fil ter</w>
Pl ayer</w>
clean ed</w>
Pro ject</w>
as sure</w>
Sec on
Pre viously</w>
acc red
sk in
dimen sions</w>
con stantly</w>
th rowing</w>
kill s</w>
W all
fab rics</w>
T est</w>
Struc tural</w>
equ ally</w>
hand some</w>
A vi
Chris ti
evalu ate</w>
memb ership</w>
Prem ium</w>
I V
dis abled</w>
ax is</w>
D ATE</w>
appro ve</w>
S EC
sc ary</w>
introduc ing</w>
St ud
Ma p</w>
Hav en</w>
n ea
2 5.
sanc tions</w>
vic tory</w>
rec itals</w>
Sh eriff</w>
O lymp
war n</w>
in o
col ors</w>
sear ching</w>
h ome
Sta tis
ri x</w>
asc ular</w>
s ins</w>
be ds</w>
S imp
immig ration</w>
ab or
st es</w>
sil ent</w>
disp ute</w>
t all</w>
g ained</w>
Priv ate</w>
genu ine</w>
ess entially</w>
adop ting</w>
st ake</w>
ac companying</w>
refu ge
mat ches</w>
sec toral</w>
ar ia</w>
Juli a</w>
stop ping</w>
on t</w>
di esel</w>
Exc ellent</w>
ris on</w>
threat ened</w>
hi bit</w>
Ra dio</w>
spec trum</w>
O pen
gu es</w>
1 12</w>
Ta i
Blo od</w>
p izza</w>
la sting</w>
shar p</w>
encoura ged</w>
Su n</w>
u a</w>
muse um</w>
. The</w>
land scape</w>
Down load</w>
stop s</w>
success fully</w>
r ash</w>
fo ol
L et
Sus an</w>
han ded</w>
reser ves</w>
profession als</w>
ber ry</w>
For ce</w>
ser ves</w>
mon thly</w>
st eady</w>
ann e</w>
ref erring</w>
0 000</w>
eas ed</w>
ac ute</w>
c on</w>
y pe</w>
consoli dated</w>
tu m</w>
cur ious</w>
clo thing</w>
Int egr
st ressed</w>
d ney</w>
com posed</w>
tim ing</w>
believ able</w>
ad ise</w>
preser ved</w>
cla use</w>
ad venture</w>
t elec
mor al</w>
sh ell</w>
pro mp
Eli z
s or</w>
lo ver</w>
argu ed</w>
B ay</w>
op a
h ates</w>
am bul
affec ts</w>
u um</w>
son gs</w>
pat ent</w>
G lobal</w>
10 6</w>
b esides</w>
loc ate</w>
Mid dle</w>
eng ag
ver tical</w>
sugg ests</w>
exten sions</w>
acqu is</w>
sp y</w>
indic ator</w>
ff y</w>
wh at
radi o
g ang
S li
K ING</w>
out door</w>
10 3</w>
with drawn</w>
Cha mp
S and
wid er</w>
na sty</w>
ic on</w>
flu id</w>
chlor o
veri fied</w>
vacc ination</w>
help ful</w>
den y</w>
bat tery</w>
Ar ab
Mo ses</w>
anc er</w>
V ide
life time</w>
U gh</w>
Che ers</w>
crash ing</w>
contain ers</w>
tur nover</w>
o tic</w>
com pounds</w>
P eg
common ly</w>
igh s</w>
adap tation</w>
V ER
extra ordinary</w>
rec ep
influ enza</w>
bon ds</w>
st y
reven ge</w>
B P</w>
S ust
gener ate</w>
fores een</w>
else where</w>
Gre en
mother fucker</w>
Z oom</w>
ven ue</w>
3. 5</w>
safegu ard</w>
phil os
expec tations</w>
ble w</w>
RE D</w>
aband oned</w>
Wh oever</w>
Ho li
ack er</w>
depos its</w>
tra pped</w>
EA R</w>
Res pon
Ab by</w>
um b
tal ent</w>
sh r
ful fil
ensu res</w>
dic tionary</w>
Par ticip
cha mber</w>
G il
prov en</w>
In iti
deal t</w>
Pho to</w>
inter face</w>
mor tal
sus pected</w>
reser v
M .</w>
L ake</w>
T C</w>
ris t</w>
mo tiv
app liances</w>
Gu aran
A in</w>
ther mal</w>
architec ture</w>
en counter</w>
Ph il
estim ates</w>
contribut ing</w>
S ul
ch witz</w>
An ti
c and
fri gh
i stry</w>
read s</w>
imm une</w>
or able</w>
6. 1</w>
cor ruption</w>
Bud ap
thi az
bri ef</w>
N ING</w>
s z
cri p
w oke</w>
h ated</w>
cal i
ing o</w>
K ur
Aus chwitz</w>
T op</w>
hol es</w>
R on
N anny</w>
se al</w>
po ker</w>
det ec
sh oc
scre aming</w>
gentle man</w>
Dan ish</w>
5. 3</w>
ren a</w>
Posi tion</w>
catch es</w>
b ub
public ly</w>
pro jec
IN T</w>
ess a</w>
H C
AR Y</w>
rec all</w>
Reg istration</w>
do zen</w>
poli tics</w>
lo x
Se x</w>
Bal tic</w>
sp ac
det ected</w>
nation ally</w>
trac ks</w>
os is</w>
mix ture</w>
Ob jec
M organ</w>
- We</w>
om mun
f asc
car tri
D G</w>
po ison</w>
encoura ging</w>
Veg as</w>
ograph y</w>
I denti
B S</w>
deter i
over come</w>
g ments</w>
ush ing</w>
wor e</w>
E qu
S wee
per m
reduc tions</w>
R ound</w>
Mag gie</w>
subsi dy</w>
T our
In stru
31. 12.
multi p
Eliz abeth</w>
accid ents</w>
so vere
B la
us age</w>
add ressing</w>
W E
is co</w>
ser ial</w>
human itarian</w>
el derly</w>
on ate</w>
edi atric</w>
bo ards</w>
com pound</w>
k .
W at
transl ator</w>
Gab ri
mo dule</w>
cro ps</w>
criter ion</w>
Un common</w>
IN FORM
CR R</w>
sem in
ep y</w>
comp uters</w>
ra pe</w>
as ion</w>
fish ery</w>
alo g</w>
depar ture</w>
interoper ability</w>
D ead</w>
tre ating</w>
i v
Jer us
8 4
s laugh
thro po
Scienti fic</w>
W TO</w>
sha dow</w>
p acked</w>
ar ise</w>
al k
ON AL</w>
ver sions</w>
trac king</w>
z u
Bro wn</w>
good ness</w>
substan tially</w>
prec isely</w>
mur derer</w>
prof itability</w>
plat z</w>
ne ar
W O
sc ar</w>
Gu y</w>
n ut</w>
G ary</w>
ic op
sou thern</w>
Fing ering</w>
St an</w>
elim ination</w>
cre ature</w>
20 th</w>
fac ial</w>
M .
ex tract</w>
th at
C ou
cy cles</w>
TIC UL
expl ains</w>
eb all</w>
Spr ing</w>
trans portation</w>
avir in</w>
pre f
Mat the
under take</w>
ban kno
W OR
al g
suc ks</w>
di oxide</w>
PAR TICUL
hear t
INFORM ATION</w>
Budap est</w>
ag ne</w>
de gra
co s</w>
con comit
St eph
ei ved</w>
Sum mer</w>
st ays</w>
push ed</w>
indic ating</w>
human ity</w>
P ain
F air</w>
u ts</w>
su peri
Co hesion</w>
rou tine</w>
o live</w>
ne uro
Tra ining</w>
PAC K
conf erred</w>
co ins</w>
In v
grand father</w>
m ile</w>
desper ate</w>
Acc ession</w>
pass port</w>
3 4
cu pa
tho lic</w>
Sci ence</w>
top ic</w>
Ry an
direc tives</w>
W on</w>
week ly</w>
bes artan</w>
calcul ating</w>
ag on
inter rup
allow ance</w>
A M</w>
reflec ted</w>
H D</w>
charac ters</w>
198 9</w>
shi pment</w>
ensu red</w>
al em</w>
sh ut
Ob viously</w>
vi c</w>
ar ities</w>
argu ments</w>
G row
wit ch</w>
th ri
satis factory</w>
R O</w>
traffic king</w>
subsi dies</w>
th ickness</w>
Mon it
ha mm
Ex ternal</w>
e ous</w>
R ad
Le on
man ip
ste aling</w>
correc tion</w>
k l
assi sted</w>
Vinc ent</w>
ev es</w>
En try</w>
modi fication</w>
consider ations</w>
T P</w>
Ro le
gen tly</w>
bor row</w>
ab dom
D e</w>
ar gue</w>
op position</w>
tox ic</w>
inten ds</w>
des ert</w>
sev en
n ish</w>
k top</w>
g ely</w>
pa thetic</w>
intra venous</w>
O ff</w>
per si
distri but
c s</w>
198 7</w>
ga ther</w>
La ura</w>
scienti sts</w>
00 1</w>
distri buted</w>
constitu ted</w>
YO UR</w>
ill u
vol tage</w>
Ryan air</w>
tim ely</w>
identi fying</w>
For give</w>
person ality</w>
lo e</w>
in tly</w>
pot assium</w>
A x
sta tic</w>
renew al</w>
jer k</w>
ex porter</w>
3 6
S .A.</w>
b ass
elim inate</w>
cl ou
ran e</w>
cons ist</w>
de als</w>
m are</w>
li via</w>
P y
Amer icans</w>
p ink</w>
explo itation</w>
engag ement</w>
S IS</w>
low s</w>
n ate</w>
ann exed</w>
Moon rise</w>
or ange</w>
che ating</w>
K aren</w>
impres sive</w>
p eak</w>
Tur k
comb ating</w>
Fi f
establish ments</w>
bu g</w>
expan sion</w>
Produc tion</w>
B ot
Buil ding</w>
t s
im en</w>
ass em
M en
gy m</w>
Belar us</w>
A k
d l</w>
Jerus alem</w>
bud sman</w>
Wh it
W ol
Moon set</w>
min ing</w>
Cont act</w>
Colle ge</w>
Cl assi
grand mother</w>
F ro
S po
S et
Admin ist
A w
C AR
hon estly</w>
arran ged</w>
syn drome</w>
new ly</w>
dis order</w>
T eam</w>
believ ers</w>
eth ylene</w>
re insurance</w>
vis its</w>
um my</w>
serv ant</w>
poli tic
cle ared</w>
terr ace</w>
on avir</w>
impres sion</w>
under ground</w>
H ot
fl ash</w>
cohe rent</w>
AU C</w>
dis pen
am p
as hamed</w>
So on</w>
Micro soft</w>
v elop
arti ficial</w>
den om
d able</w>
wash ing</w>
su its</w>
Jen ny</w>
Euro stat</w>
c ow</w>
Y outh</w>
T H</w>
ro t</w>
L EA
S S
refriger ator</w>
escap ed</w>
delic ious</w>
Gir ls</w>
Se ems</w>
modi fy</w>
br a</w>
b ru
A partments</w>
boo st</w>
sec ured</w>
Cap ital</w>
gradu ally</w>
Cer ti
wh oles
sy s</w>
dis til
tack le</w>
adv ised</w>
J ones</w>
Bet ween</w>
D ol
Dec lar
cre atures</w>
T ow
ol ds</w>
cl oud</w>
ap point</w>
w ill
F i</w>
sec retary</w>
recommen ds</w>
M ight</w>
F L
Angel es</w>
ear ned</w>
scr ut
resid ents</w>
W ouldn</w>
rem em
part nerships</w>
D RE
atch ing</w>
P la
ar bit
In don
J ere
Pat rick</w>
intellig ent</w>
Gen er
m ask</w>
PH AR
re ver
G y
pre domin
IS TR
man s</w>
concentr ated</w>
declar ations</w>
S aid</w>
K ong</w>
ay ne</w>
P ick</w>
c z
U sing</w>
f en
recogni zed</w>
Hist ory</w>
t g
t ear</w>
belon ging</w>
s oul
P hy
Oper ator</w>
L ater</w>
H it</w>
p tions</w>
jo ining</w>
inv ent
B C</w>
Hal f</w>
exha usted</w>
Mon ey</w>
do sing</w>
candi dates</w>
resid ues</w>
2 nd</w>
justi fy</w>
&apos; t
analy zes</w>
Vic tor</w>
ad just</w>
an no
compul sory</w>
PARTICUL ARS</w>
K u
B row
ash es</w>
plu g</w>
7 00</w>
al i</w>
gu ar
char ging</w>
Monit oring</w>
tri be</w>
Rom a</w>
s par
Tex as</w>
et ch</w>
P OR
di gn
rea ties</w>
pain ful</w>
er ad
near by</w>
hep atitis</w>
Ab ra
co ast
Lev el</w>
ell as</w>
An ne</w>
remem bered</w>
inf o</w>
Th ir
Con ditions</w>
L ily</w>
pris oner</w>
nov el</w>
cab in</w>
p iss</w>
op tional</w>
Progra m</w>
friend ship</w>
el e
sli p</w>
govern mental</w>
establish es</w>
c yl
G ET</w>
bas ement</w>
enlar gement</w>
at re</w>
W y
dum p</w>
feed back</w>
construc ted</w>
prof essor</w>
Win 32</w>
en ia</w>
b id
en ables</w>
cul tiv
U P</w>
A man
n i</w>
surr ounded</w>
H op
f ans</w>
restaur ants</w>
ren e</w>
kne es</w>
M AC
A 4</w>
low est</w>
go v
Pay ments</w>
Industri al</w>
H ong</w>
cl arity</w>
g ases</w>
in forma
pay able</w>
aqu aculture</w>
Res olution</w>
add resses</w>
inc id
Ac ademy</w>
a ur
cop per</w>
A ri
tech nically</w>
al ig
H R</w>
injec tions</w>
h n</w>
ff in</w>
Sh er
En d</w>
Bo dy</w>
la p</w>
C ulture</w>
ban g</w>
ga thered</w>
R ea
to se</w>
it er</w>
bra ins</w>
H and
ver sus</w>
cam p
Th ough</w>
N ig
tro ops</w>
mol ec
mix tures</w>
f its</w>
es c
at ter</w>
A ar
ter ly</w>
with standing</w>
rul ing</w>
pri me</w>
ton ne</w>
ho o</w>
Pro ble
is lands</w>
versi ties</w>
con sec
Bo ss</w>
un ning</w>
consul ted</w>
Cl ick</w>
co c
H A</w>
break down</w>
cau tion</w>
pri de</w>
F OL
reti rement</w>
gi fts</w>
col lateral</w>
quanti tative</w>
ban ds</w>
peace ful</w>
Bud d
resi stant</w>
termin ation</w>
gu it
Nom enclature</w>
dem an
CA P</w>
supple mentary</w>
hydr ate</w>
John son</w>
m um</w>
t one</w>
dem on</w>
gr ass</w>
E ve</w>
mal ware</w>
pr ud
w olf</w>
F A
prac tically</w>
pro mises</w>
S ab
den sity</w>
Pr inci
carri age</w>
wor n</w>
10 5</w>
S em
Pr ice</w>
C ub
Om budsman</w>
war ri
diffe renti
deser ves</w>
B ack
.A .
reve al</w>
deli ber
ware house</w>
wan ting</w>
ir ts</w>
T im</w>
li ght
M ain
Par ts</w>
I mm
sk ill</w>
p unch</w>
p up
M I
ni tion</w>
thro wn</w>
par tially</w>
Val ent
M I</w>
&apos; M</w>
h its</w>
ó n</w>
bri de</w>
S ister</w>
D R
simpli fication</w>
pan ic</w>
str anger</w>
noti fications</w>
eb ook</w>
deep ly</w>
c it
employ ers</w>
ap parent</w>
B each</w>
spe l</w>
se aled</w>
push ing</w>
P aci
wh i
E .</w>
absor ption</w>
concer t</w>
U s</w>
Care ful</w>
ha i</w>
Gover ning</w>
gover ned</w>
spea ks</w>
free ze</w>
cri tic
yl on</w>
dis count</w>
t et
p an</w>
o ved</w>
un likely</w>
Lan gu
Mor oc
yl er</w>
colle agues</w>
alleg ed</w>
jo intly</w>
em an</w>
B re
man n</w>
dro w
z zy</w>
pa irs</w>
on ds</w>
ass ass
w a</w>
eth yl</w>
As si
Ang el</w>
sil ence</w>
hon our</w>
am ide</w>
Jud ge</w>
re presentation</w>
bio diversity</w>
r us</w>
sy l
Pap a</w>
Acc ord
ambul ance</w>
cere mony</w>
dre w</w>
y right</w>
vi an</w>
enh ancing</w>
re store</w>
G etting</w>
techni que</w>
portfoli o</w>
cal cium</w>
Ira q</w>
tra iler</w>
eleg ant</w>
cle ver</w>
fast est</w>
Pl ay
D IS
W I
wea kness</w>
dep loyment</w>
pi ent</w>
for um</w>
may or</w>
cur se</w>
ign ore</w>
n y
in qu
excee ds</w>
my ster
tr ash</w>
ris es</w>
Sen ior</w>
consci ousness</w>
L ED</w>
B A</w>
Mo sc
sub cutaneous</w>
Ex am
. exe</w>
K ind</w>
en na</w>
tra il</w>
imm unity</w>
H aw
Ara b</w>
super vis
questionna ire</w>
nom enclature</w>
N on
gr as
te ars</w>
proportion ality</w>
Ju lie</w>
or r
Me eting</w>
co s
her d</w>
inc t</w>
expi red</w>
adequ ately</w>
sam pled</w>
fil ms</w>
Jac ob</w>
an gi
thou se</w>
mi tig
ha h</w>
Pre par
t anks</w>
stud ying</w>
fil ed</w>
Under taking</w>
con dem
canv as</w>
Ch uckles</w>
ret t</w>
ang els</w>
Cop y</w>
Accord ingly</w>
inter ior</w>
F E</w>
th an
er ial</w>
T AR
0 2
Bar ry</w>
4 5
in ch</w>
Cha mber</w>
An s
sign als</w>
h ex
ro pe</w>
re conc
nat urally</w>
S TE
rou s</w>
Ro ss</w>
im position</w>
SU B
A unt</w>
in king</w>
Gar den</w>
thro mbo
sol vency</w>
ill ness</w>
e tic</w>
pre me</w>
d ys
roc ks</w>
a unt</w>
un fair</w>
con sen
gener ations</w>
a sts</w>
stro ke</w>
pr incess</w>
foun dation</w>
dol l</w>
uc h
tic k</w>
coun cil</w>
se iz
lu x
10 8</w>
ad mitted</w>
share holders</w>
tu bes</w>
lead ership</w>
Po li
Pl at
Ca tholic</w>
k ar
en or
vit am
nar row</w>
M erc
renew ed</w>
af for
author ized</w>
al t</w>
am ic</w>
D ru
IC ATION</w>
E le
syst emic</w>
trans late</w>
as ive</w>
thi ef</w>
ru de</w>
survi ved</w>
shi p
def end
cre ates</w>
ep id
wid ely</w>
ash a</w>
com bus
ash ing</w>
accur acy</w>
C li
Sar a</w>
p acking</w>
ar range</w>
B I
swi m</w>
G O</w>
Ch ang
saf ely</w>
gen t
cros sed</w>
satisfac tion</w>
sw ine</w>
requ esting</w>
comman der</w>
alg ori
d ging</w>
lim itations</w>
mac ro
rel ess</w>
disgu sting</w>
or i</w>
k issing</w>
G all
confir mation</w>
chi p</w>
au to
m mol</w>
v ir</w>
or atory</w>
depres sion</w>
vis iting</w>
b ond</w>
AD MIN
Whe ther</w>
A v
ex changes</w>
ch ase</w>
fib re</w>
How ard</w>
b li
hea dings</w>
des ired</w>
Ne ed</w>
dec line</w>
Ex change</w>
Andre w</w>
wis dom</w>
exten ding</w>
Rob in</w>
Supp lement</w>
Mol ly</w>
C lau
AN T</w>
sn ia</w>
th y
ma kers</w>
w ins</w>
ten stein</w>
eu tical</w>
W AR
Squ are</w>
Brit ain</w>
P T</w>
atch es</w>
dec isi
Deleg ated</w>
10 9</w>
Loc al</w>
tr ans</w>
Po st</w>
rec ur
ES S
na use
fru its</w>
an ony
g olf</w>
el et</w>
ri sts</w>
Bo snia</w>
avi an</w>
sh ed</w>
a o</w>
pul se</w>
L .</w>
es tions</w>
b ills</w>
In di
tun a</w>
complain ts</w>
H z</w>
stru ggle</w>
lar gely</w>
str ing</w>
Pol y
o therapy</w>
ari ous</w>
Mosc ow</w>
Th er
to ast</w>
observ ation</w>
Le ft</w>
Lo is</w>
rit onavir</w>
oo th
A verage</w>
RE N
lon ged</w>
e able</w>
S av
Brea k
Enter prise</w>
web sites</w>
ro leum</w>
lot te</w>
hy bri
collec ting</w>
F el
Dec isions</w>
D onna</w>
comple x
competi tors</w>
deal er</w>
Mar ie</w>
ADMIN ISTR
th west</w>
cap ture</w>
nom inal</w>
j o</w>
im porter</w>
L E
emer ging</w>
K S</w>
enjo yed</w>
mat urity</w>
d an</w>
O x
E at</w>
Col lec
pe e</w>
In f
vi et</w>
war ned</w>
mon key</w>
aer ial</w>
star ing</w>
holi days</w>
ligh ted</w>
w ings</w>
G un
D ouble</w>
a str
1 30</w>
Hel en</w>
ou l</w>
Grow th</w>
so ever</w>
Vic tor
in correct</w>
ar k</w>
Paci fic</w>
F IN
r hy
mid night</w>
i ew</w>
c af
e dy</w>
e aten</w>
st ea
Qui et</w>
et ry</w>
en velop
coo kies</w>
In du
employ er</w>
dis appointed</w>
H ill</w>
Di strict</w>
yl an</w>
dissem ination</w>
org ans</w>
it ate</w>
tour na
subsidi ary</w>
crash ed</w>
si vely</w>
be ating</w>
Pak istan</w>
yar n</w>
l um
tr ust
p ays</w>
un fortunately</w>
sal ts</w>
ch ron
ge red</w>
Administ rative</w>
carb ons</w>
ar c
lo ween</w>
L ow</w>
ee z</w>
com mod
author ising</w>
law yers</w>
tor ture</w>
emphas is</w>
ber ries</w>
Ch an
v ag
&apos; clock</w>
Loc ation</w>
Jack ie</w>
tat too</w>
can dy</w>
ann on</w>
DI REC
ir regul
N R
subsidi arity</w>
s mil
Kore an</w>
te m</w>
agre es</w>
D ON</w>
fai thful</w>
adoles cents</w>
bo ats</w>
Ch loe</w>
syn thetic</w>
mark eted</w>
Jes se</w>
mat h</w>
P D</w>
ne ys</w>
swe et
div ine</w>
comp are</w>
arti sts</w>
vom iting</w>
hun g</w>
li a</w>
b all
Ad visory</w>
expl ore</w>
dec ides</w>
p assion</w>
ch a</w>
entreprene ur
cros sing</w>
j ack</w>
survi v
gen ic</w>
CA N</w>
F O
R ick</w>
conc ep
h ec
Appl ication</w>
spir its</w>
resear chers</w>
iso de</w>
Mo der
s al</w>
M L</w>
1 40</w>
separ ation</w>
individ ually</w>
hel icop
ME TH
m us</w>
bal isation</w>
stipul ated</w>
experi ment</w>
L es
Am ong</w>
- He</w>
al and</w>
Sho oting</w>
Wh oo</w>
bec ca</w>
G E
e dition</w>
canc el</w>
In sul
val ve</w>
N ature</w>
i o
an nex</w>
circu it</w>
be st
Ge e</w>
mean time</w>
ma ize</w>
Bud get</w>
is sa</w>
child hood</w>
struc k</w>
exec utive</w>
cont est</w>
rob bery</w>
cont em
Role play</w>
head ache</w>
Indu stry</w>
ul timate</w>
wa xing</w>
W AS</w>
clo set</w>
per or</w>
qu est</w>
ta il
gra phic</w>
HO W</w>
ro ots</w>
purch ased</w>
eth nic</w>
tw elve</w>
treas ure</w>
i ii</w>
Con sul
facilit ating</w>
un anim
st am
rib avirin</w>
poe tin</w>
l ending</w>
voc ational</w>
Declar ation</w>
na il</w>
bran ches</w>
Sec retariat</w>
au dio</w>
op her</w>
cra w
IC ES</w>
Man ual</w>
al e
exec uted</w>
config uration</w>
br ac
bo ots</w>
EF SA</w>
integr al</w>
recycl ing</w>
P ER
O liver</w>
10 2</w>
inten sive</w>
con stra
c rescent</w>
h at
Tr ue</w>
rel ates</w>
pir atory</w>
FOL LO
tun nel</w>
fortun ate</w>
PRODUC TS</w>
lan e</w>
ut ro
R acing</w>
C en
sw elling</w>
So li
bot tles</w>
S F</w>
sm ells</w>
res s
med ication</w>
m i</w>
tec h</w>
Vi ew</w>
ard ous</w>
here to</w>
avo iding</w>
EC R</w>
beli ef</w>
proced ural</w>
H ay
Ca therine</w>
virtu e</w>
en ess</w>
us eless</w>
surr ounding</w>
ed ema</w>
ju red</w>
Sp eaking</w>
S ighs</w>
n in
isi ble</w>
vac uum</w>
calcul ate</w>
pe d
law ful</w>
en der</w>
ell ation</w>
explo sion</w>
Ans wer</w>
at ories</w>
C lim
conver gence</w>
pro hibition</w>
impl ications</w>
Di vision</w>
PL N</w>
Ser bia</w>
Cha in</w>
I mp
mod ules</w>
eter nal</w>
Pal ace</w>
scri pt</w>
vit ro</w>
cupa tional</w>
F ashion</w>
avo ided</w>
S cre
K NOW</w>
V .</w>
Agen da</w>
ran dom
en tic
respon ses</w>
incen tive</w>
bl essing</w>
Mic hel
P ope</w>
e es</w>
pr on
Chil d</w>
Democ rats</w>
B loo
collabor ation</w>
T re
Luc as</w>
initi ate</w>
C S</w>
gen e</w>
O H</w>
Li ech
Des ign</w>
t .
dec l
ap peti
k en
in land</w>
R ock</w>
Ph one</w>
p ist
ma ker</w>
impres sed</w>
h itting</w>
dist ur
d ot
ac ids</w>
tempor arily</w>
sou p</w>
Slov ak</w>
L A
reserv ations</w>
isol ated</w>
stric tly</w>
dir t</w>
origin ally</w>
gor geous</w>
Environ mental</w>
v ents</w>
Rev iew</w>
Pe ace</w>
M ind</w>
hop es</w>
ti li
L aw
Ko so
&apos; RE</w>
So viet</w>
Hal loween</w>
fri dge</w>
E h</w>
K az
sho e</w>
woo den</w>
S ME</w>
Liech tenstein</w>
Cam el
mil f</w>
me als</w>
fe asi
G old</w>
Be en</w>
hypo glycaemia</w>
ex porters</w>
soul s</w>
Pub l
sto res</w>
We b</w>
L ucky</w>
do ssi
IN I
web cam</w>
Bo ston</w>
Aman da</w>
f lies</w>
Med ical</w>
ra z
compet e</w>
J ess
jo king</w>
Mar cus</w>
clari fy</w>
inter feron</w>
at t</w>
ru b</w>
Im ag
P le
restric tion</w>
al ise</w>
Par ker</w>
Sust ain
Medic ines</w>
fa thers</w>
ab sten
en ship</w>
et able</w>
Lat est</w>
intest inal</w>
resol ve</w>
4 4
alcoho lic</w>
Belgi an</w>
histor ic</w>
aw a</w>
co in</w>
Lim ited</w>
C ER
St or
TIC AL</w>
Manufac ture</w>
Dri ve</w>
acc used</w>
w ounds</w>
o to</w>
author ise</w>
Bi o
m as
atch ed</w>
stain less</w>
b ay</w>
om er
R .
j an
rac ial</w>
conflic ts</w>
&apos; s
dest iny</w>
p it</w>
Co ffee</w>
gra vity</w>
J ay</w>
ti tles</w>
ste ering</w>
fair ly</w>
min eral</w>
coord inate</w>
por tion</w>
re tain</w>
re act</w>
T own</w>
hand led</w>
enjo ying</w>
Parag raph</w>
c ub
fi able</w>
confidenti ality</w>
t ent</w>
el e</w>
R ot
b icy
L ind
v or
Ho stel</w>
g olden</w>
assa ult</w>
k es
6. 2</w>
real ise</w>
Qu ite</w>
partic les</w>
Ir on</w>
ra rely</w>
Cha irman</w>
L A</w>
I l
f itting</w>
an ch
ad dic
13 8</w>
HOL DER</w>
co ol
9 9
ly wood</w>
t ling</w>
pi ano</w>
E mer
ut ory</w>
An ti</w>
plan ted</w>
am oun
Sur ve
newspap er</w>
Li b
it y
inter f
uni versities</w>
bal ances</w>
co incidence</w>
Ve hic
C ouldn</w>
ud ine</w>
ig nor
night mare</w>
A partment</w>
v ast</w>
F red</w>
F I
Bl ack
T ali
NC Bs</w>
TE N</w>
Im port
down town</w>
ATI ONS</w>
cl ue</w>
br ush</w>
ta ils</w>
some time</w>
pre feren
pass es</w>
analy sed</w>
ca ve</w>
y ards</w>
investig ate</w>
N B</w>
th ing
S mar
Z i
sp aces</w>
initi ally</w>
z om
is y</w>
F arm
Matthe w</w>
T yler</w>
E ight</w>
it ly</w>
ut or</w>
A 1</w>
ul timately</w>
six th</w>
Char lotte</w>
Mark eting</w>
ner ve</w>
thes is</w>
dev i
Meas ures</w>
head quarters</w>
R N</w>
Stu dy</w>
M ine</w>
manag ers</w>
S everal</w>
import ation</w>
fa x</w>
k issed</w>
tu b</w>
Al ban
strength ened</w>
Noti ce</w>
phosp hate</w>
vo y
re turning</w>
P ul
neighb or</w>
CES E</w>
ro om
conveni ent</w>
Z one</w>
in directly</w>
con tested</w>
Prof essi
in stantly</w>
Reg ul
3. 4</w>
ac ad
ob s
P E
gov ina</w>
dec ades</w>
1. 6</w>
Gre g</w>
in ine</w>
NC B</w>
12. 2006</w>
Wil son</w>
bun al</w>
S t</w>
C EN</w>
Al i</w>
Direc torate</w>
frequ ent</w>
wor ship</w>
ans w
V ill
cy cl
Mar itime</w>
K in
man kind</w>
C ot
St ore</w>
OR E</w>
direc tions</w>
Tw enty</w>
F la
abo ard</w>
in um</w>
analy ses</w>
supple ment</w>
spo t
3 rd</w>
ic on
é e</w>
t ability</w>
na p</w>
con signment</w>
be ast</w>
ro ad
demon stration</w>
wi ves</w>
B y
t wi
eligi bility</w>
at tered</w>
Admin istration</w>
In tr
Detail ed</w>
rein forc
to y</w>
Ass embly</w>
ling erie</w>
A h
a ire</w>
j et</w>
Her ze
G .
co oling</w>
To k
pos ts</w>
ban k
CON DI
Mo di
ven ant</w>
su es</w>
D est
1 15
trav elling</w>
knoc ked</w>
exerc ised</w>
am i
contribu ted</w>
F u
cor p
dign ity</w>
n an
mon u
as signment</w>
ag ged</w>
Wom an</w>
GEN ER
D ere
EC D</w>
in clusive</w>
Nat ural</w>
P V
5 000</w>
gra ph
comp lies</w>
Ad v
electr on
0 9.
a. k.
An ton
in ks</w>
wa sting</w>
contr ast</w>
R icky</w>
vampi re</w>
ma ke
sem en</w>
m ly</w>
ch asing</w>
h il
bo dy
Can a
thiaz ide</w>
simpli fied</w>
L e</w>
Fun ny</w>
St one</w>
Koso vo</w>
4 68</w>
reven ues</w>
P .</w>
K or
mor tal</w>
simult aneously</w>
BA T
min ister</w>
un necessary</w>
Herze govina</w>
fore stry</w>
Re pe
weigh ing</w>
mess ed</w>
ass y</w>
Tali ban</w>
U ru
lan ded</w>
clo s
C ard</w>
J eff
inten se</w>
im posing</w>
Angel a</w>
wal let</w>
phenom en
bal cony</w>
sur geon</w>
Co ach</w>
in habit
co w
Europe ans</w>
Mi ami</w>
AB LE</w>
men s</w>
admin istr
non sense</w>
in jured</w>
mus ical</w>
J .
decl are</w>
consequ ently</w>
char ity</w>
b att
amm ation</w>
disp atch</w>
Re becca</w>
oper ates</w>
es is</w>
dis hes</w>
wa i
4 50</w>
fre ely</w>
discrimin atory</w>
sc ap
rac ing</w>
mur ders</w>
jum ped</w>
Tr uth</w>
mortal ity</w>
gar bage</w>
ev ed</w>
9 11</w>
7. 5</w>
bl an
prom oted</w>
In stitu
in spir
control ling</w>
reci pient</w>
je op
hur ting</w>
app le</w>
Viet nam</w>
pe op
vi br
nor thern</w>
Vide o</w>
p ity</w>
fre sh
mean ing
Ta x
Prom ise</w>
P op</w>
dro pping</w>
a. m.</w>
Grand ma</w>
sum mar
T ab
O hh</w>
F it
w ind
tax i</w>
combus tion</w>
Ro y</w>
ta p</w>
pa int
star ds</w>
b uc
b acks</w>
Guaran tee</w>
for gi
S ource</w>
F light</w>
al ization</w>
PO S
seven th</w>
struc tured</w>
Con cer
par don</w>
COMM IT
tr ucks</w>
TE E</w>
n n</w>
ati e</w>
ir rit
pur se</w>
pr ince</w>
sof tw
Hy dro
pursu ed</w>
comp lied</w>
es cor
Ad dress</w>
laun dry</w>
Con nec
Fil m</w>
every day</w>
ten nis</w>
port al</w>
H ands</w>
O ECD</w>
d ent</w>
in compatible</w>
Hor iz
ef s</w>
I sa
3 50</w>
H idden</w>
commit tees</w>
elev ator</w>
cl ubs</w>
scrut iny</w>
as er</w>
am ino</w>
To gether</w>
investig ating</w>
Docu ment</w>
Ex p
C in
philos oph
photograph s</w>
bl ast</w>
gra in</w>
farm er</w>
k u</w>
hard ware</w>
th ick</w>
revol utionary</w>
od ds</w>
Syst ems</w>
haz ardous</w>
ex cre
cl er
Ze aland</w>
EU SR</w>
ow ed</w>
dea ths</w>
cur y</w>
dri ves</w>
Mar i
pro mis
ent ally</w>
Po s
tis m</w>
trans ported</w>
t an</w>
p estic
ous y</w>
haz ard</w>
dis co
Author isation</w>
f loo
A men</w>
4. 6</w>
do or
al tar</w>
resol ved</w>
- How</w>
ti ps</w>
O S</w>
Hon estly</w>
re ha
pris ing</w>
ci pients</w>
foot age</w>
enor mous</w>
the ma
sandw ich</w>
indic ative</w>
vail able</w>
las er</w>
bo red</w>
pi pes</w>
diff er</w>
diffe rently</w>
chi ps</w>
CONDI TIONS</w>
M as
Mar gare
D ur
di bly</w>
centur ies</w>
ly n</w>
Gra b</w>
te d
fi ghter</w>
Fun damental</w>
n an</w>
bra king</w>
Ter ry</w>
Inspec tor</w>
w ow</w>
multi annual</w>
Gr ant</w>
sw ing</w>
o .
hard core</w>
cro p</w>
Turk ish</w>
ow ns</w>
IC AL</w>
conduc ting</w>
ar ts</w>
Sat an</w>
b ust</w>
ra d</w>
lo ser</w>
an aemia</w>
ti de</w>
pa tho
coo ked</w>
3 D</w>
wal ks</w>
por ary</w>
be gun</w>
star ch</w>
T ou
K ey</w>
o le
Dou g</w>
Ma king</w>
sim pl
procee ding</w>
deriv ative</w>
w aves</w>
civil ian</w>
Sou thern</w>
Bri dge</w>
gu essing</w>
b is</w>
em ade</w>
Cer tain
t us</w>
J UST</w>
ut ter</w>
sal ary</w>
K on
ID ED</w>
D eli
u ph
hydro carbons</w>
Dig ital</w>
l an</w>
gall ery</w>
d au
ed onia</w>
dec om
In clu
sustain ed</w>
con grat
gam bling</w>
defin ing</w>
C ru
telec ommun
predomin antly</w>
ne ph
tra uma</w>
log ically</w>
5 43</w>
sol ving</w>
be ans</w>
An im
complain ant</w>
real istic</w>
E ven
w ines</w>
sp ray</w>
pot atoes</w>
hea vens</w>
Co oper</w>
treat ments</w>
nea rest</w>
deep er</w>
em powered</w>
diagno sis</w>
Phili pp
pres sed</w>
W o
fail s</w>
Hy per
b at</w>
J o</w>
Car los</w>
prec ed
sel ec
swal low</w>
m ph
bankno tes</w>
ab el</w>
od es</w>
Avi ation</w>
insp ired</w>
Yu go
T .
ord ination</w>
softw ares</w>
preser ve</w>
boo k
J ar
Dere k</w>
z z</w>
adv ise</w>
w rec
ev ac
do ws</w>
S G</w>
Uru gu
ori entation</w>
conclu des</w>
nutri tion</w>
tr ic
dis continued</w>
Stat ute</w>
inter vals</w>
Franc isco</w>
inter rupt</w>
x y</w>
In surance</w>
sh eriff</w>
di tionally</w>
Su rely</w>
L ine</w>
extrac tion</w>
exist ed</w>
Pl an
D ER
comp rising</w>
s ar
exemp t</w>
L ac
pe ts</w>
h m</w>
At t
AR D</w>
auc tion</w>
Got ta</w>
k it</w>
Tai wan</w>
ol an
Medic inal</w>
st ering</w>
pa ediatric</w>
psy chi
int eg
fel ong</w>
bass ador</w>
tax able</w>
τ η
ig ns</w>
capac ities</w>
Certain ly</w>
us s</w>
Sto ck
Par tic
D G
super v
intermedi ate</w>
Y esterday</w>
B au
ar ks</w>
Fa x</w>
excee ded</w>
correspon d</w>
constitu tion</w>
analy tical</w>
Wh ose</w>
Imple mentation</w>
GENER AL</w>
calcul ations</w>
clin ically</w>
consoli dation</w>
oc ar
R ail
2 -</w>
iz es</w>
comm ission</w>
God damn</w>
M and
the ast</w>
ic ia</w>
IC E</w>
H erc
Orig inal</w>
Ci tiz
Aar on</w>
pic ally</w>
RO U
qu e
c up
TE S</w>
T ak
Margare t</w>
ben z
st eam</w>
id ae</w>
N ate</w>
special ist</w>
A V
stat utory</w>
oo se</w>
W inter</w>
4. 2004</w>
Flor ida</w>
tra ge
Victor ia</w>
tou ching</w>
standardis ation</w>
moun ted</w>
foc using</w>
pre ad</w>
Me et</w>
Ar gent
s laughter</w>
o tive</w>
pen is</w>
Ma ur
Br un
summ it</w>
dis per
Fac ebook</w>
idel ine</w>
high lighted</w>
distinc t</w>
T ari
W h</w>
im per
Sy dney</w>
nause a</w>
perm its</w>
bel oved</w>
. sys</w>
respec ts</w>
ch ick</w>
pic k
sign ments</w>
res ort</w>
squ ee
pl ying</w>
c in</w>
chem otherapy</w>
Hol lywood</w>
B il
R ab
la x
max im
Vi enna</w>
m ere</w>
et t</w>
Bal k
Import ant</w>
vig il
di versi
prov ing</w>
ob taining</w>
cle aring</w>
.e .
stra igh
sch ol
ket ball</w>
Pal est
Mar ty</w>
Fe el</w>
conf usion</w>
sk ull</w>
ast ers</w>
imm uno
enter tainment</w>
bene ficial</w>
T U
micro grams</w>
i g</w>
wholes ale</w>
trans position</w>
preferen tial</w>
plan es</w>
J an</w>
infl ammation</w>
Ret ur
mo des</w>
revol ution</w>
C B</w>
9 00</w>
J unior</w>
pass word</w>
conf ident</w>
Yugo sla
tr unk</w>
Abra ham</w>
2 10</w>
f ea
su le</w>
z i</w>
administ rations</w>
Dr ink</w>
lim itation</w>
T ower</w>
op sy</w>
Trans lation</w>
Star ting</w>
A th
succ eed</w>
at ers</w>
A pos
loc k
Jam ie</w>
egr o</w>
si on
s wa
M uch</w>
Comb ined</w>
ere ly</w>
p ha
Objec tive</w>
gener ous</w>
Prov ince</w>
suspic ious</w>
ot ech
pro longed</w>
on ian</w>
Po ker</w>
m es
exha ust</w>
Surve illance</w>
ã o</w>
shor tly</w>
g au
PH P</w>
ant ine</w>
re b
S W
Ukra inian</w>
G am
Mal ay
In stance</w>
wor ding</w>
ren z</w>
w o
ic ker</w>
Mil k</w>
in ev
Si x
consider ably</w>
ir o</w>
c i</w>
C max</w>
An d
answ ering</w>
tal e</w>
Ex peri
ß e</w>
BAT CH</w>
sur render</w>
tic o
ec o</w>
shi eld</w>
bon us</w>
op posed</w>
guit ar</w>
ul ative</w>
L s</w>
N ar
F emale</w>
n evertheless</w>
derog ations</w>
plat forms</w>
Urugu ay</w>
f arms</w>
it i</w>
defe at</w>
constitu tional</w>
H and</w>
B ol
the ater</w>
sel fish</w>
P OL
th um
blo wn</w>
st ent</w>
cat tle</w>
ff ed</w>
eas iest</w>
st ain</w>
fat al</w>
F ru
hu g</w>
ATI VE</w>
re tri
en sive</w>
S ev
ty re</w>
sc ans</w>
re nov
o x</w>
mar gins</w>
embarrass ing</w>
dis posed</w>
discre tion</w>
ad mission</w>
P rec
Proble m</w>
Moroc co</w>
low ed</w>
red ness</w>
dr yer</w>
id ated</w>
Ar ti
k ly</w>
Over all</w>
har vest</w>
L .
hy gi
dest inations</w>
z h
ori ented</w>
ing ent</w>
discipl ine</w>
correc tive</w>
H ard</w>
det ect</w>
sequ ence</w>
mo ist
cour t
m bers</w>
reflec ts</w>
pric ing</w>
com ed</w>
met als</w>
bl essed</w>
E p
compet ences</w>
al tered</w>
g li
1 11</w>
cha irs</w>
Gib bs</w>
ten s</w>
pref erred</w>
N eigh
v et</w>
sha ped</w>
clim b</w>
g loves</w>
der son</w>
Sil ver</w>
Pra gue</w>
Car ol</w>
ta g</w>
is ite</w>
Y ah
stra in</w>
pos es</w>
d ressing</w>
tle ments</w>
sp r
ic ians</w>
de partments</w>
as is</w>
Sustain able</w>
Rest aur
superi or</w>
fix er</w>
sla ve</w>
sk el
clin ic</w>
adv oc
S uc
ght ful</w>
b ou
20 1</w>
negoti ate</w>
is a</w>
in hal
Imag ine</w>
Ex tension</w>
imag ination</w>
i f
announ cement</w>
wh olly</w>
cap tured</w>
A D</w>
coast al</w>
aud its</w>
injur ies</w>
den ied</w>
hom emade</w>
entr usted</w>
m ou
N ur
---------------- ----------------
at om
Austri an</w>
special ised</w>
rul ed</w>
lin ical</w>
eli hood</w>
Bet ty</w>
no ble</w>
Fran kie</w>
pro sper
re ts</w>
gene tically</w>
cas ino</w>
o visual</w>
di arr
we h</w>
Jess ica</w>
Franc is</w>
COMMIT TEE</w>
phys ician</w>
In fra
Vi ra
T AL</w>
we ed</w>
ill ary</w>
frag mented</w>
en abled</w>
bul lets</w>
ed oms</w>
signific ance</w>
e --</w>
anti virus</w>
doc k</w>
frea king</w>
W asn</w>
worl ds</w>
sugg esting</w>
S ally</w>
ur gency</w>
publ isher</w>
p ile</w>
Min imum</w>
system atic</w>
pa inted</w>
docu mented</w>
conf ession</w>
am mon
bas eball</w>
pal ace</w>
ke eper</w>
Ed ward</w>
b ols</w>
trans formation</w>
Mill er</w>
te dly</w>
C D
ο υ</w>
Mol do
W anna</w>
un certainty</w>
sel ective</w>
dro ps</w>
b is
sp in</w>
in er
et a</w>
ran ging</w>
b ever
O livia</w>
B eth</w>
neighb ors</w>
loy alty</w>
Fo ot
C s</w>
dom ain</w>
g est
S pi
re mark
ill er</w>
S om
inter ference</w>
vir gin</w>
skin ny</w>
nam ic</w>
fab ric</w>
ear th
T .</w>
mat ching</w>
trac tor</w>
sym bols</w>
bu yer</w>
alter na
Ris k</w>
Mex ican</w>
bar a</w>
Th ank
char ming</w>
F ant
A F
yi eld</w>
P M</w>
ist a</w>
T SI</w>
Appl ause</w>
co efficient</w>
appo inting</w>
L ot</w>
C ab
S H</w>
pharmacokine tics</w>
V a
2 99</w>
kne e</w>
Secon dly</w>
gh ted</w>
F estival</w>
E ME
ren d</w>
DIREC TIVE</w>
e u</w>
E P</w>
B ishop</w>
incre dibly</w>
hydrox y
b acked</w>
PHAR MAC
Fin ance</w>
ick ey</w>
Sen ator</w>
pet roleum</w>
fir ing</w>
Yah weh</w>
Pain ting</w>
18 2</w>
house holds</w>
UL D</w>
Bu y</w>
nitro gen</w>
j ack
l ung</w>
I AS</w>
pum ps</w>
ref usal</w>
L em
wash ed</w>
F ord</w>
vari eties</w>
str ate</w>
anti bio
fix es</w>
but ter
kidn apped</w>
b lowing</w>
b inary</w>
ni k</w>
com a</w>
ME T</w>
P E</w>
cr ush</w>
invent ory</w>
guil t</w>
n .e.
Int roduc
h ence</w>
Y ou
PHARMAC EU
mor tg
er ts</w>
Gover n
lun gs</w>
Cra zy</w>
Commit ments</w>
F inal</w>
AI L</w>
V ER</w>
B ei
ho ea</w>
al loy</w>
Mar s</w>
f ellas</w>
di alysis</w>
A F</w>
vail ing</w>
soci eties</w>
si ves</w>
sa tions</w>
cor rid
con science</w>
absten tions</w>
rep lies</w>
3 00
Com petition</w>
dev oted</w>
Rem ove</w>
quot e</w>
cigaret te</w>
to s</w>
str o</w>
A ge</w>
organ ism</w>
Con feder
see ks</w>
vi able</w>
pl a
mani fe
al it
L ic
Har vey</w>
a than</w>
5 5
ste pped</w>
broad band</w>
Progra mm
wel comed</w>
ri p</w>
phr ase</w>
Con stitution</w>
s ink</w>
rat ings</w>
Indon esia</w>
assu ming</w>
1 14</w>
rol ls</w>
M F
ap p</w>
surg ical</w>
great ly</w>
fi a</w>
squ ad</w>
g on
comm issi
Gover nor</w>
inhabit ants</w>
v on</w>
algori thm</w>
AL S</w>
é s</w>
swe at</w>
reli ability</w>
popul ations</w>
Bo ys</w>
v enti
old est</w>
c .</w>
Br uce</w>
go sh</w>
re iter
quali fy</w>
ti me
inter n
hibi tions</w>
champ agne</w>
hop ed</w>
design ate</w>
auth entic
me tic</w>
consen sus</w>
symp tom</w>
atten ded</w>
ne ath</w>
saf er</w>
Sh ouldn</w>
fu r</w>
Manag er</w>
off ense</w>
b ang
Re duc
L ink</w>
re stor
particul ars</w>
oo h</w>
olan zapine</w>
f estival</w>
C C</w>
n est</w>
Justi n</w>
H S</w>
C at</w>
port able</w>
loy al</w>
cha irman</w>
May or</w>
K atie</w>
ty res</w>
k ing
F our
distinc tion</w>
Equi pment</w>
pursu it</w>
S port</w>
P in
cru el</w>
PHARMACEU TICAL</w>
Insul in</w>
Du ke</w>
FOLLO WS</w>
A Q
correspon ds</w>
ha gen</w>
ad ing</w>
Rap porteur</w>
ad ly</w>
Lea der</w>
Lau ghs</w>
Con gress</w>
hea v
Ch o
ine a</w>
invo ice</w>
control ler</w>
cohe rence</w>
s giving</w>
er on</w>
Re porting</w>
to col
na u
betra yed</w>
T RI
sh y</w>
stimul ate</w>
G olden</w>
Mo del</w>
C ole</w>
Grand pa</w>
Valent ine</w>
DEC IDED</w>
res ur
optim al</w>
H il
Gor don</w>
ir respective</w>
W N</w>
br ut
prec ision</w>
Gu ard</w>
For mer</w>
fail ing</w>
m 3</w>
Mar ine</w>
recei ves</w>
refuge es</w>
gra des</w>
cros s
wa sted</w>
prof ession</w>
mo thers</w>
St ability</w>
L inda</w>
em a
analo gue</w>
modi fications</w>
di ver
home work</w>
ra tional</w>
i ge</w>
Y S</w>
F ish</w>
Ger mans</w>
Christi ans</w>
Res er
min i</w>
Mar shall</w>
M echan
p ace</w>
Min isters</w>
Ex port</w>
a iming</w>
Euro pol</w>
on ally</w>
in su
p her</w>
c age</w>
F red
C are</w>
over dose</w>
phenomen on</w>
ad ed</w>
wh el
mer ger</w>
fi anc
concomit ant</w>
sc op
exemp tions</w>
up id</w>
di gging</w>
- Hey</w>
gra m</w>
ann ually</w>
V ince</w>
switch ed</w>
ob serve</w>
comple ment</w>
S ac
ung le</w>
exp and</w>
Professi onal</w>
Tim es</w>
ter ior</w>
ex am</w>
c ease</w>
s ab
fa vi
Cont ent</w>
rein forced</w>
metabol ism</w>
G ul
B B</w>
remin ds</w>
L ES</w>
D I</w>
th read</w>
testi mony</w>
W en
Smo king</w>
chloro thiazide</w>
l ou
An th
re moving</w>
Cle an</w>
tra ins</w>
tem plate</w>
lu gg
b old</w>
f ella</w>
barri er</w>
sec retariat</w>
after wards</w>
Ma kes</w>
infra structures</w>
CYP 3
A P</w>
p m</w>
k ward</w>
viol ation</w>
vi ability</w>
b atch</w>
D ING</w>
t z</w>
oc y
Al bert</w>
mo tive</w>
ba il</w>
An dro
carri es</w>
veter in
Pre v</w>
sho oter</w>
Regi stry</w>
no l
dau ghters</w>
conf ess</w>
E r</w>
At tention</w>
acad emic</w>
favi renz</w>
Mach ine</w>
oc cupational</w>
N ine</w>
some day</w>
sh emale</w>
ox y</w>
om ing</w>
infl ation</w>
Ro s
M ade</w>
forgi veness</w>
ro bot</w>
P reg
- The</w>
w ounded</w>
s our
medi an</w>
g ains</w>
Sh are</w>
str ated</w>
4 8
na ils</w>
fin ances</w>
wi pe</w>
re hear
Nav y</w>
he al</w>
cre at
S pen
ion ship</w>
gu ided</w>
G en</w>
enzy me</w>
sing er</w>
in c</w>
G onna</w>
do c</w>
reimbur sement</w>
str a</w>
hi d</w>
toler ance</w>
or ous</w>
a es
pres sing</w>
ong side</w>
c ran
ac ity</w>
Ac count</w>
leg end</w>
laugh s</w>
Li z</w>
bat teries</w>
Mus li
R il
condi tional</w>
Me an
trans mit</w>
gh ing</w>
oun ce</w>
there after</w>
D il
Ad just
it ment</w>
ins ist</w>
Col om
Han nah</w>
end ea
ba stards</w>
ab duc
list ened</w>
deli vering</w>
negoti ated</w>
met er</w>
m one</w>
p end</w>
Direc t</w>
198 8</w>
impa ired</w>
Sel ect</w>
B ang
po ur</w>
S co
Break fast</w>
real ised</w>
photogra ph</w>
F ab
sna ke</w>
i k
Lin ux</w>
sen ds</w>
connec ting</w>
ED F</w>
x on</w>
publ ications</w>
pre sid
j ing</w>
des ktop</w>
L ane</w>
Bl u
whe el
Dav is</w>
cha ins</w>
E than</w>
p itch</w>
organ ise</w>
ic it</w>
cul tures</w>
heal ing</w>
g ut</w>
en th
vi e</w>
ut sch
Ch ea
form in</w>
bacter ia</w>
W eek</w>
un acceptable</w>
Cre dit</w>
shi re</w>
V A</w>
simpli fy</w>
reason ably</w>
V eter
Steph en</w>
qu in
Le w
Fri ends</w>
ISI ONS</w>
volunte ers</w>
justi fication</w>
d ining</w>
Oper ation</w>
occup ied</w>
Y el
L earn</w>
he m</w>
op tical</w>
Ap prov
er ia</w>
P I
shel ter</w>
Ear l</w>
min ent</w>
f ence</w>
cap it
alter nate</w>
sp p</w>
anti bodies</w>
ed dy</w>
po ta
inv isible</w>
M is
EX P</w>
p lot</w>
investig ated</w>
inter val</w>
com partment</w>
c av
1 .</w>
g us</w>
1 15</w>
promis ing</w>
fl u</w>
St ef
Al ter
stic ks</w>
sp i
O ption</w>
N or</w>
Lea gue</w>
AQ I</w>
W ayne</w>
purch asing</w>
d airy</w>
tocol s</w>
off ences</w>
4. 2.
c ular</w>
al ize</w>
PM 2.5</w>
4 6
dam ned</w>
3 3
gradu ate</w>
Ho sp
cro ch
col ours</w>
p ac
Mil itary</w>
J as
is tic
cir cul
Mac edonia</w>
exclu de</w>
ab s</w>
Manufac tu
K id</w>
inten si
O thers</w>
Cas ey</w>
2 70</w>
clos est</w>
ad visory</w>
v as
b or</w>
12 3</w>
L ING</w>
Hea ven</w>
some place</w>
neighb our
un comfortable</w>
ou ting</w>
coun sel
7 5
om er</w>
scre am</w>
enti eth</w>
par ti
al pha</w>
le ak</w>
en hagen</w>
Sp eak</w>
m ill</w>
con vention</w>
Ad rian</w>
inv ented</w>
ag eing</w>
Holi day</w>
1, 5</w>
sp reading</w>
Rus sell</w>
DV D</w>
some what</w>
es .
EP AR</w>
p acks</w>
pur ity</w>
li sting</w>
co ating</w>
for warded</w>
0, 5</w>
p ar</w>
out comes</w>
o on</w>
thor ough</w>
cardi ac</w>
approxim ation</w>
col m</w>
stu me</w>
diam onds</w>
sus pects</w>
sh ri
ADMINISTR ATION</w>
bal lo
n r</w>
Lab our</w>
plas tics</w>
endea v
El ena</w>
vest ock</w>
R h
p y</w>
W all</w>
vo ices</w>
pati ence</w>
organiz ations</w>
in fin
lin ear</w>
bl ade</w>
G I
P sy
over sight</w>
con spir
t rem
ini b</w>
crimin als</w>
bi om
emo tions</w>
c um</w>
F .
subsidi aries</w>
is ers</w>
dec ade</w>
Bo y
sal vation</w>
pri ests</w>
per su
gra ph</w>
sac red</w>
Mad rid</w>
Jere my</w>
trav eling</w>
kn itted</w>
a ids</w>
App le</w>
se duc
scr atch</w>
cry st
conver ted</w>
an ol</w>
wi reless</w>
bow l</w>
re ject</w>
Qu inn</w>
Clim ate</w>
respon ding</w>
on i</w>
J a
Won der
te x</w>
es y</w>
D ylan</w>
Stu dies</w>
ac in</w>
ME S</w>
H ear</w>
κ α
Argent ina</w>
trage dy</w>
mis erable</w>
reci proc
invest ed</w>
pl ication</w>
or ds</w>
S ue</w>
Cop enhagen</w>
colle ague</w>
sub jected</w>
or g</w>
od y
rab bit</w>
itch ing</w>
emp tion</w>
rec ast</w>
min al</w>
boo ked</w>
201 9</w>
s ever
Tra vel</w>
P ack</w>
presen ting</w>
ot es</w>
occur rence</w>
Fi x</w>
B LI
be ars</w>
t ang
su ite</w>
ro yal</w>
catch ing</w>
explic itly</w>
Con struction</w>
mistak en</w>
hand job</w>
om i</w>
Sop hie</w>
LI A
cigaret tes</w>
Spe ed</w>
Ran dy</w>
sus cep
for t</w>
fant asy</w>
prospec ts</w>
abo ve
T V
stoc kings</w>
re tention</w>
car bon
temper atures</w>
B ee
w ool</w>
expen se</w>
pan els</w>
O k
er n
hol m</w>
b ies</w>
fol k</w>
C u
pro hibit</w>
Tr ying</w>
Chem ical</w>
envelop e</w>
contri butes</w>
Val ley</w>
St ev
respec ting</w>
R ou
produc es</w>
util isation</w>
pres um
HI M</w>
spea ker</w>
agg ressive</w>
defend ant</w>
s light</w>
ten ing</w>
F oc
In tel
orr ha
complex ity</w>
s inc
res piratory</w>
lif ting</w>
econom ically</w>
Con f
w rap</w>
tic a</w>
hal f
vir tual</w>
l f</w>
don or</w>
Fin nish</w>
Al pha</w>
Mon ten
le verage</w>
comple mentary</w>
embarrass ed</w>
Krak ów</w>
op pon
accred itation</w>
Cour se</w>
ay a</w>
zz iness</w>
rein force</w>
ga thering</w>
AI D</w>
St even</w>
se gment</w>
hum ili
G az
testi fy</w>
s ickness</w>
lig ence</w>
Wh enever</w>
oc idal</w>
WH O</w>
da wn</w>
F ight</w>
Stud ent</w>
A B</w>
surve ys</w>
Ste el</w>
b in</w>
a. m</w>
li fer
R on</w>
enzy mes</w>
ca ine</w>
Pack age</w>
war ding</w>
mus cles</w>
Mer ry</w>
s no
at tract</w>
an es
In dic
Defin itely</w>
the ore
A li
prepar atory</w>
A qu
reme dy</w>
o edema</w>
Comp et
T reaties</w>
al ie</w>
Jo b</w>
EN T</w>
li p</w>
fe wer</w>
C P
tw entieth</w>
thir ty</w>
treat y</w>
Qu estion</w>
discus sing</w>
S low</w>
Requi re
ES S</w>
bes ide</w>
17 8</w>
ha bit</w>
ch op
PRO C
Li am</w>
anony mous</w>
W ell
ra m
Mob ile</w>
wor rying</w>
ex cipients</w>
P eter
continu ously</w>
WAR NING</w>
Moldo va</w>
in et</w>
d ental</w>
preten ding</w>
7 th</w>
labor atories</w>
fre edoms</w>
ke wise</w>
dra matic</w>
an cies</w>
Electr onic</w>
clou ds</w>
Res ults</w>
Bra d</w>
fore sts</w>
f ashi
L S</w>
hy dra
ow ski</w>
si de
govern or</w>
cat aly
d ine</w>
occur ring</w>
sens or</w>
J ess</w>
stero ids</w>
rap ed</w>
infring ements</w>
apo logy</w>
ty pically</w>
sy ner
LI KE</w>
Hom er</w>
out fit</w>
ed a</w>
Po sted</w>
ST O
fli p</w>
associ ate</w>
cur ren
pre fer
f i</w>
ch y</w>
loc ker</w>
I an</w>
Bar bara</w>
V il
O .</w>
US ED</w>
U pon</w>
tri ps</w>
Sel f</w>
6. 3</w>
quali fication</w>
char t</w>
N ina</w>
aer o
T AIL</w>
rel la</w>
cere al</w>
il ian</w>
cap abilities</w>
acknowle dged</w>
gal ax
coordin ates</w>
Mar tha</w>
Juli an</w>
gu ts</w>
Hear t</w>
G us</w>
propos ing</w>
Ti p</w>
ma b</w>
PAR LIA
in tim
pro m</w>
N ancy</w>
An n</w>
be dro
Camel toe</w>
blo g</w>
Car oline</w>
tax pay
r in
PAR T</w>
re feren
ali ke</w>
Su gar</w>
k a
car ton</w>
sk illed</w>
ma thema
boo m</w>
cry stal</w>
1. 7</w>
ham mad</w>
ag ers</w>
Sh ang
Saf e</w>
Mal colm</w>
Cor rec
n as
dis asters</w>
T Y</w>
aw kward</w>
Not withstanding</w>
under neath</w>
c il
I EC</w>
E aster</w>
Pi er
peri ph
sc anning</w>
Ken ny</w>
gin ia</w>
Ne il</w>
Dar k</w>
12 2</w>
- Why</w>
s u</w>
fin ishing</w>
Wal k</w>
D aw
veterin arian</w>
ear ning</w>
N GO
an ie</w>
po le</w>
pill ar</w>
con ve
13 9</w>
b idden</w>
top ics</w>
over whel
i tis</w>
adjust ing</w>
B LE</w>
R ub
El i</w>
appe aring</w>
oc key</w>
fi res</w>
Ber n
y ce</w>
ES MA</w>
reduc es</w>
phys ically</w>
dra ma</w>
scienti st</w>
g ates</w>
lo ys</w>
elim inated</w>
appeti te</w>
bel ly</w>
r in</w>
prog ressive</w>
mat ory</w>
1 17</w>
diagno stic</w>
pass age</w>
ch ester</w>
sens ors</w>
bus h</w>
Car d
2. 6</w>
ch ill</w>
s ounded</w>
P ay</w>
ul ty</w>
d .
pres sion</w>
st an</w>
19 80</w>
be e</w>
Vi br
excep tions</w>
e w
bu sted</w>
arti stic</w>
res ist</w>
ow s</w>
inser t</w>
em et
to oth</w>
champ ion</w>
Phar ma</w>
im pe
broad er</w>
ed itor</w>
col our
AR TIC
1 18</w>
no thin</w>
im a</w>
F al
AN D
- And</w>
rou gh
re stri
a pos
Gal il
grand ma</w>
kil omet
D ick</w>
tr icks</w>
U sed</w>
reflec tion</w>
sc al
is ia</w>
R al
acqui re</w>
C assi
des cen
FOR M</w>
en ic</w>
wh o
Wal ker</w>
i b</w>
G PS</w>
Com ments</w>
mig rants</w>
bul k</w>
resid ential</w>
6 5
paper work</w>
obe y</w>
activ ation</w>
Mon etary</w>
thr one</w>
o let</w>
aqu atic</w>
above mentioned</w>
a.k. a.</w>
W it
col um
Don ald</w>
198 6</w>
t ing
val ley</w>
l i</w>
PARLIA MENT</w>
IF RS</w>
H E
az one</w>
un expected</w>
Do g</w>
al ine</w>
T old</w>
del ayed</w>
tal s</w>
prop ag
NGO s</w>
loc king</w>
croch eted</w>
l it</w>
Per s
abdom inal</w>
K er
myster ious</w>
in struction</w>
counter fe
U su
G E</w>
V ar
Sy ria</w>
- Well</w>
ra ys</w>
succ ee
accoun ted</w>
ch illed</w>
S ER
Di am
2 20</w>
y an</w>
gi ver</w>
er als</w>
Wil d</w>
an dic</w>
confir ms</w>
bloc king</w>
tourna ment</w>
d un
Ap pe
ho stage</w>
ell ers</w>
Brea k</w>
pa thy</w>
neighb ouring</w>
0 4
clean er</w>
Icel andic</w>
C K</w>
fil tr
bo arding</w>
Sh ort</w>
organis ational</w>
ord in
Hea d
concep ts</w>
ail s</w>
in ant</w>
bloo d
AC H</w>
d an
Isra el
ap pen
st resses</w>
T eddy</w>
ne utro
boo t</w>
acet ate</w>
Pr o</w>
G as</w>
so le
re tained</w>
mitig ation</w>
M ON
C ash</w>
respon ded</w>
en coun
Den nis</w>
go at</w>
si eur</w>
Ta x</w>
po inting</w>
-- I</w>
Require ments</w>
sig nat
l ins</w>
trav els</w>
de rers</w>
Scot land</w>
AS S
interf ere</w>
divor ced</w>
A z
r h
met formin</w>
d res
Anth ony</w>
gra ding</w>
lo sis</w>
Jer sey</w>
restra int</w>
injec ted</w>
es ar</w>
pharmac eutical</w>
bas ketball</w>
G as
M T</w>
min es</w>
S z
f est</w>
Smar t</w>
sal ad</w>
prov ince</w>
out lined</w>
lip tin</w>
la m</w>
j ah</w>
dr ill</w>
ati vely</w>
St upid</w>
ri er</w>
pu rely</w>
irregul arities</w>
in ject</w>
Confeder ation</w>
m ic</w>
Ow en</w>
spo ts</w>
he els</w>
col on
xi ety</w>
loo p</w>
Monten egro</w>
re aches</w>
M M</w>
vo id</w>
ti t
threat en</w>
kn esses</w>
x es</w>
termin ated</w>
Ac commodation</w>
cont acted</w>
s ile</w>
negoti ating</w>
Ch ec
dossi er</w>
V it
pro files</w>
thri tis</w>
e b</w>
you --</w>
pos tal</w>
un like</w>
be ar
N et</w>
liter ature</w>
2, 5</w>
17 84</w>
ni fer</w>
Ky oto</w>
D er
negoti ation</w>
decisi ve</w>
ic ing</w>
ha iry</w>
Simil arly</w>
L ower</w>
jo kes</w>
thor ough
perio dic</w>
gl or
experi encing</w>
ec .europa.eu</w>
appro aching</w>
D res
ti re</w>
lab or</w>
T odd</w>
hor mone</w>
ra tion
os ity</w>
enth usi
contamin ation</w>
Ril ey</w>
re vo
car cin
Vir ginia</w>
shor ter</w>
war ming</w>
bene ath</w>
B E
TR AN
L eb
dis ability</w>
Tem ple</w>
F resh</w>
choo sing</w>
U E</w>
ery thropo
4 th</w>
fur t</w>
d um</w>
Rom anian</w>
198 5</w>
per pet
et ly</w>
be have</w>
al ter</w>
Th row</w>
diam ond</w>
con qu
Coun t</w>
P re</w>
S M</w>
cartri dge</w>
san itary</w>
nation ality</w>
conc e
g gling</w>
el son</w>
IM O</w>
Car rie</w>
Not es</w>
ro m
li vestock</w>
C PA</w>
su p</w>
ful ness</w>
environ mentally</w>
D og
p ters</w>
flo ating</w>
del ays</w>
lugg age</w>
M ut
astro intestinal</w>
L as</w>
radio active</w>
Tok yo</w>
pre sidency</w>
Li ving</w>
Con nor</w>
sco res</w>
Ar ound</w>
poss ess</w>
entrepreneur ship</w>
Sec ur
Amend ments</w>
12 1</w>
reci pe</w>
re porter</w>
prof itable</w>
be gging</w>
No ah</w>
N ev
B ow
sp ite</w>
in tr
d est</w>
D ic
Pre sid
municip ality</w>
scen es</w>
rol ler</w>
Tur ns</w>
Su b</w>
st ep
ed it</w>
EME A</w>
un ited</w>
necess ity</w>
high light</w>
co stume</w>
Qu e
Gu ideline</w>
some thin</w>
pun ished</w>
dra gon</w>
acces sibility</w>
prote ins</w>
M C</w>
sa uce</w>
L ess</w>
Bro ad
transl ated</w>
g aining</w>
T at
row ed</w>
per t</w>
lab els</w>
Spen cer</w>
A vailable</w>
pharmacokine tic</w>
ea u</w>
Jon athan</w>
Go spel</w>
an as</w>
helicop ter</w>
favour ite</w>
cap sule</w>
embr y
d op
citiz enship</w>
ac o</w>
Par don</w>
ne ts</w>
17 2</w>
w all
lux ury</w>
Dar ling</w>
min ation</w>
su it
Preg n
PROV ISIONS</w>
S ays</w>
C up</w>
- Okay</w>
duc k</w>
Lew is</w>
pen sions</w>
hon ey
TH EY</w>
K .</w>
perman ently</w>
Michel le</w>
nes ium</w>
cur ve</w>
cred its</w>
3 000</w>
un de
sc ul
BU T</w>
ak i</w>
Kno ck</w>
peop les</w>
bad ge</w>
ff ing</w>
EC E</w>
u lic</w>
soci o</w>
Ven e
P a</w>
Imp act</w>
Emp loy
ρ ο
in ous</w>
Th or
Fac ility</w>
gra pes</w>
F ul
ur ge</w>
effici ently</w>
qu et</w>
f in</w>
I ce</w>
l as</w>
T ob
tra it</w>
id en</w>
fe tish</w>
val idation</w>
thresh olds</w>
resid ual</w>
po lit
mad am</w>
over view</w>
lo go</w>
ep isode</w>
dre aming</w>
ren dered</w>
ig nition</w>
Dub lin</w>
sus pend</w>
j a
fit ness</w>
rac es</w>
det ention</w>
inhibit or</w>
C au
incorpor ating</w>
comp rise</w>
Vir us</w>
rec alled</w>
C ute</w>
K am
r ical</w>
WE LL</w>
ari um</w>
S ound</w>
Oc ean</w>
In divid
12 6</w>
th ed</w>
le ague</w>
chec k
Sh em
photograph y</w>
To by</w>
p ag
deb ts</w>
bul l</w>
Sha wn</w>
K om
uc le
recru itment</w>
tou rists</w>
aut umn</w>
visi bility</w>
cor d</w>
in appropriate</w>
th is
cali br
Alex ander</w>
wh ist
telecommun ications</w>
kill ers</w>
as th
Free dom</w>
x ious</w>
o li
bas ket</w>
N L</w>
ei ve</w>
s an</w>
rec over
ho c</w>
cor ro
work shops</w>
cri ed</w>
Poli tical</w>
G I</w>
p H</w>
jud ges</w>
Eng ine
h r</w>
ro aming</w>
om eters</w>
tis sues</w>
ac tress</w>
y --</w>
audi ovisual</w>
ag en</w>
Institu tions</w>
de pri
prov es</w>
deman ding</w>
H ep
Certi fic
pan ties</w>
A venue</w>
C reat
M it
CH MP</w>
w ol
phys ics</w>
broad casting</w>
ι κ
bench mark</w>
dea f</w>
cro wn</w>
st amp</w>
w ages</w>
in her
compl ying</w>
Hol der</w>
vol ati
ster dam</w>
ick en</w>
hero es</w>
fin anci
Restaur ant</w>
sa il
r ors</w>
fa iry</w>
TIT LE</w>
Est abl
Al ready</w>
s now
disp utes</w>
p ts</w>
gener ating</w>
bec ue</w>
C ari
2 30</w>
vi als</w>
ig ration</w>
exemp ted</w>
dic ally</w>
s oph
occas ions</w>
RI GHT</w>
mac ro</w>
Tri bunal</w>
G lad</w>
F IR
al ley</w>
H ence</w>
Approv al</w>
li felong</w>
a fil</w>
D w
thre esome</w>
defici ency</w>
Egy p
subsi dis
smil ing</w>
off ence</w>
gr ound
reflec ting</w>
E arly</w>
H ERE</w>
won dered</w>
issu er</w>
Croati an</w>
Cana dian</w>
sur plus</w>
bom bs</w>
cop yright</w>
s ay
St reng
finger prints</w>
Mon ica</w>
rad ar</w>
mon s</w>
fif ty</w>
counter party</w>
Ch er
distor tions</w>
Gabri el</w>
F lu
C R</w>
om ed</w>
18 5</w>
k W</w>
il ia</w>
Me dia</w>
star ving</w>
µ g</w>
z ation</w>
warri or</w>
con ferences</w>
Con ver
. ht
mon ary</w>
fol der</w>
TH ERE</w>
T T</w>
Bo oth</w>
thro p</w>
ha r</w>
safegu ards</w>
parlia mentary</w>
ol es</w>
IN E</w>
Hit ler</w>
E M</w>
s essions</w>
S ky</w>
preven ted</w>
exam ining</w>
Su preme</w>
the dr
constra ints</w>
Identi fication</w>
P ush</w>
Brow se</w>
vari ables</w>
Rem arks</w>
pro pri
CYP3 A4</w>
3 18</w>
om eter</w>
R are</w>
C e
Bei jing</w>
A tom
to ol
paint ings</w>
cre epy</w>
Soci alists</w>
hybri d</w>
S ea
El li
gre l</w>
Alban ia</w>
Pers onal</w>
remark able</w>
broad cast</w>
al ongside</w>
an ity</w>
un changed</w>
achiev ements</w>
S ide</w>
Ag ainst</w>
sur faces</w>
ge o
az z</w>
II I
Willi ams</w>
R and
A d</w>
G reg
ro d</w>
believ ing</w>
ell ence</w>
ac on</w>
Bar ro
s ly</w>
ed es</w>
lik elihood</w>
C oc
e on</w>
bedro oms</w>
Im port</w>
erad ication</w>
ch er
bur ger</w>
Jen nifer</w>
1. 8</w>
Lo vely</w>
5 00
ho sti
N er
Par adise</w>
cust om</w>
Comm and</w>
exerc ises</w>
exc ise</w>
lo vers</w>
le vi
ch ur
lec ture</w>
i tions</w>
S ter
S Y
N eg
L ou</w>
Am sterdam</w>
ö r
domin ant</w>
Te a</w>
tow els</w>
omet ric</w>
lic king</w>
le an</w>
15 7</w>
k on
Mil es</w>
Lin col
Moun tain</w>
19 75</w>
pra yers</w>
mom my</w>
ho st
frigh tened</w>
M ickey</w>
B ou
par ano
Pe g</w>
con form</w>
Pil ot</w>
br on
R ig
ili ary</w>
tra ded</w>
O t
li on
abo lic</w>
Olymp ic</w>
1 19</w>
S au
bas es</w>
restric t</w>
P ear
need les</w>
form ally</w>
it us</w>
S yl
Ke ith</w>
phen yl</w>
Horiz on</w>
class ical</w>
feed ing
ac ter
e be</w>
bud gets</w>
Sum mit</w>
po ly</w>
high way</w>
ar di
work shop</w>
K el
liber ty</w>
Mad ame</w>
3. 6</w>
stret ch</w>
scre ening</w>
neutr al</w>
coun try
S K</w>
E lev
hom eless</w>
he im</w>
Mean while</w>
E van</w>
make up</w>
depres sed</w>
canc elled</w>
assu red</w>
ar thritis</w>
De al</w>
syn c</w>
pup ils</w>
p ill</w>
C ry
r up</w>
pota to</w>
dem ons</w>
Super visory</w>
Phy s
P ort</w>
De utsch
min ority</w>
desig ns</w>
S EC</w>
ar row</w>
y elling</w>
independ ently</w>
con gratulations</w>
C T</w>
t abled</w>
philosoph y</w>
flo ors</w>
B eg
x er</w>
si ghs</w>
car d
O ri
ten sive</w>
Dan i
d ess
b ap
ap hy
enc lo
att ach
B ar</w>
what soever</w>
us ions</w>
Hosp ital</w>
le th
under wear</w>
r ounds</w>
F C</w>
war ran
g el
dipl omatic</w>
cap ability</w>
XX X</w>
8 7
pl un
bo s
a j
loy d</w>
Ser ies</w>
K ent</w>
Zo e</w>
terror ists</w>
num er
hygi ene</w>
Meth od</w>
tw in</w>
immig rants</w>
S OL
L ex
H .
tow ns</w>
de eds</w>
O scar</w>
obe di
induc ed</w>
chi ves</w>
at on</w>
aggreg ate</w>
wra pped</w>
do s</w>
Instru ment</w>
Langu age</w>
wi e</w>
forth with</w>
wea k
per ing</w>
oo p</w>
m at</w>
De ep</w>
B anks</w>
fri ed</w>
aer op
H D
trans plant</w>
ski p</w>
gu m</w>
St ep
B ell</w>
p ples</w>
g la
p. m</w>
Sk i
Phili p</w>
H az
g lob
Shang hai</w>
fish er
Intere sting</w>
Hea ds</w>
G A
busin ess
RI P</w>
reason ed</w>
char m</w>
Thank sgiving</w>
1 13</w>
res a</w>
acqu ain
L L
dar ies</w>
S l
the matic</w>
ag o
Herc ules</w>
dead lines</w>
Lar ge</w>
endor sed</w>
be aten</w>
Consu mer</w>
Ama zing</w>
engine er</w>
Reg arding</w>
2 b</w>
s enti
particip ant</w>
n g</w>
ba thro
jum ping</w>
Lo st</w>
tal kin</w>
sp ati
explo sives</w>
bloc ked</w>
tor ies</w>
Sing apo
spea kers</w>
heav ily</w>
di verse</w>
c el</w>
1 107</w>
re sh
f are
evalu ations</w>
an don</w>
Win throp</w>
ill um
h l</w>
fle w</w>
Par king</w>
Exp lo
B om
x y
ee ks</w>
m ud</w>
APP EAR</w>
Y up</w>
K iss</w>
I E</w>
4 7
escor t</w>
G RO
uni ons</w>
poll ut
div ide</w>
lim iting</w>
p est</w>
character istic</w>
c ope</w>
Ri o</w>
Dom in
tra ders</w>
sm ug
Tw itter</w>
Russi ans</w>
D um
Atom ic</w>
in take</w>
ev al</w>
Is lam
Di vine</w>
ear ing</w>
Sch eme</w>
O B
soph istic
campa igns</w>
prob ability</w>
mess ing</w>
ag liptin</w>
Tun isia</w>
u .
righte ous</w>
lit azone</w>
gradu ated</w>
Anim als</w>
con fron
C old</w>
y og
l ens</w>
inv ites</w>
Stock holm</w>
1 16</w>
c ited</w>
strang ers</w>
remin ded</w>
mem or
J i
imp ul
M itch
K itchen</w>
ul ating</w>
chem istry</w>
N .
Malay sia</w>
dra ws</w>
gr ay</w>
congrat ulate</w>
Wr ong</w>
E A</w>
Dist ri
Hol ly</w>
P as
m r</w>
dis abilities</w>
uc ker</w>
preven tive</w>
gho sts</w>
ben ch</w>
sor ts</w>
12 8</w>
commer ci
foot note</w>
Pa ige</w>
W oo
Ob serv
L ots</w>
sel ler</w>
radi us</w>
entreprene urs</w>
T é
the atre</w>
mus h
S id
Pre pare</w>
integ rate</w>
I g
che er
bit ches</w>
T RO
M W</w>
mer cury</w>
f red</w>
S now</w>
H m</w>
Bra vo</w>
interpre ted</w>
pat ri
aw ards</w>
Sc ope</w>
Sum mary</w>
it ory</w>
Vibr ator</w>
Statis tical</w>
t ops</w>
&apos; mon</w>
hor mon
au x
e k
chan ge
im es</w>
ar do</w>
Tra vis</w>
war nings</w>
je wel
ec ological</w>
G F</w>
canc ellation</w>
ad ds</w>
S ex
ch eat</w>
bl ank</w>
ac company</w>
US D</w>
roc ket</w>
un used</w>
Contin ue</w>
H awa
Di e</w>
1 31</w>
f t
In side</w>
El len</w>
enc ry
4. 7</w>
G ross</w>
h ers</w>
any time</w>
Coun tries</w>
b lah</w>
S car
P act</w>
CON TEN
Rail way</w>
syner gies</w>
sh irts</w>
particip ated</w>
T eva</w>
Sh ane</w>
Th ai</w>
Na vigation</w>
H U
IR Y</w>
st ating</w>
in formal</w>
scul p
G B</w>
expan ded</w>
bur nt</w>
pp le</w>
N in
ur ges</w>
hom icide</w>
G lor
PROC ED
wei gh</w>
moist ure</w>
k icking</w>
M B</w>
COMM UN
car t</w>
MR Ls</w>
bur st</w>
bur ns</w>
H T
PL Y</w>
C EN
Bar bie</w>
D uration</w>
B N</w>
frequ encies</w>
17 0</w>
hosp itals</w>
sn eak</w>
bre ed</w>
5 ,000</w>
r inging</w>
glo balisation</w>
a f</w>
over night</w>
h ed
Barro so</w>
eth ical</w>
es tive</w>
disco very</w>
Lincol n</w>
B o</w>
inten tions</w>
un employed</w>
in tu
imp lies</w>
F uture</w>
E va</w>
0 3
Se bas
neighbour hood</w>
QU I
Fo rest</w>
sli pped</w>
em en</w>
Y a
mp tions</w>
So dium</w>
air line</w>
ol er
min isters</w>
lev y</w>
dam ages</w>
consist ently</w>
T RE
squ ared</w>
j ungle</w>
ati vity</w>
cor relation</w>
R av
speci fying</w>
Retur n</w>
Veter inary</w>
A 2</w>
h en</w>
target ing</w>
t u</w>
fulfil ment</w>
R as
wea knesses</w>
R id
Pen ny</w>
F ace</w>
AG ING</w>
w icked</w>
trans national</w>
bli ster</w>
fi ghts</w>
ca kes</w>
Ph illi
attri buted</w>
ess ence</w>
SEC TION</w>
Cur rently</w>
fit tings</w>
R ain
objec tion</w>
diarr hoea</w>
creat inine</w>
Wh ere
analy se</w>
PU BLI
li eutenant</w>
consu med</w>
ag a</w>
lea f</w>
inter rog
pol is</w>
tra gic</w>
conveni ence</w>
arm ing</w>
un lawful</w>
di zziness</w>
Col um
Sh ep
re tired</w>
S crew</w>
UC H</w>
R A</w>
Fil es</w>
dot ted</w>
as ser
Shem ale
co caine</w>
restri al</w>
ch o</w>
Ch oose</w>
so ap</w>
decreas ing</w>
cell u
associ ating</w>
deteri oration</w>
S K
Cl ay</w>
6. 6</w>
cou ples</w>
dra gged</w>
Agre ements</w>
tum or</w>
cor po
B ed
free zes</w>
dem ographic</w>
Wen dy</w>
P ass</w>
Jud gment</w>
ow ing</w>
kil ogra
cho le
reci pients</w>
con fin
go s</w>
dispen s
Singapo re</w>
Sal es</w>
Leon ard</w>
Ad ri
2 ,000</w>
wh ich
ti um</w>
rela tives</w>
il ings</w>
dis closed</w>
C atch</w>
ta m
attrac ted</w>
of the</w>
colum ns</w>
Infra structure</w>
po int
dist ress</w>
a a</w>
repe at
kl ace</w>
it ated</w>
ir regular</w>
ro id</w>
c ils</w>
imag ined</w>
an xiety</w>
att an</w>
Frank furt</w>
thedr al</w>
13 5</w>
m all</w>
ex tr
Moder n</w>
Em peror</w>
Cer tain</w>
11. 2007</w>
a z</w>
B ay
met e
gen ous</w>
com ings</w>
Out turn</w>
hy poten
E th
B ub
minim ise</w>
but tons</w>
Pl ant</w>
up dating</w>
fr action</w>
spati al</w>
pon e</w>
M L
ali bi</w>
Pho ebe</w>
switch ing</w>
boun daries</w>
accid entally</w>
Log an</w>
disturb ance</w>
F ast</w>
Dev il</w>
Cari b
thorough ly</w>
dis k</w>
attemp ts</w>
gr abbed</w>
7 50</w>
pr ick</w>
dep uty</w>
METH OD</w>
4 9
p assi
1 20
fa ti
Stan ley</w>
SU P
Har ris</w>
t ancy</w>
ig no
dist ant</w>
accompl ished</w>
Ar c
politic ians</w>
od ka</w>
ad der</w>
t ance</w>
R ain</w>
licen sed</w>
div isions</w>
b ourg</w>
Wor ks</w>
Do ing</w>
mon sters</w>
scho ol
under stands</w>
occup ation</w>
macro economic</w>
experi ments</w>
mix ing</w>
fil ament</w>
ques tioning</w>
mist er</w>
comp eting</w>
collap se</w>
Y Y
gre y</w>
Ash ley</w>
12 7</w>
ak a</w>
G A</w>
p ic</w>
Usu ally</w>
Econom y</w>
ax le</w>
t less</w>
o id</w>
ch en</w>
Pow er
Mag ic</w>
G H</w>
un related</w>
P ig
Fi gu
comb ine</w>
anticip ated</w>
In correct</w>
pur i
poc kets</w>
Coo king</w>
substan ti
lif ted</w>
ho p</w>
co ward</w>
PUBLI C</w>
Col or
inst ant</w>
p unk</w>
ssi l</w>
bi ocidal</w>
in adequate</w>
im eter</w>
Tel ephone</w>
S crip
fo ssil</w>
fasc inating</w>
at i</w>
G os
Br on
Co ast</w>
bi o</w>
Val ue</w>
W i</w>
gly cer
at ro
attrac tions</w>
anno ying</w>
In i
ali ens</w>
S HE</w>
En ti
administr ator</w>
G lo
emet ery</w>
Nat alie</w>
JO INT</w>
wor ries</w>
ind ers</w>
obs essed</w>
cr ushed</w>
coord inating</w>
soc ks</w>
prosper ity</w>
EXP IRY</w>
D U
inter nationally</w>
f ing</w>
wor m</w>
I. D.</w>
A ward</w>
predic table</w>
consec utive</w>
loy ed</w>
disci ples</w>
activ ate</w>
Tari ff</w>
h ose</w>
defin es</w>
G run
au to</w>
1 a</w>
M ass</w>
im er</w>
assu mptions</w>
alterna tives</w>
B ase</w>
ur i</w>
Carib bean</w>
par ks</w>
fir mly</w>
ES A</w>
character ised</w>
F ishing</w>
B ear</w>
C S
isol ation</w>
co a</w>
distor tion</w>
off set</w>
vacc ines</w>
B L
o va</w>
Har old</w>
ro v
co operative</w>
X T</w>
fertil ity</w>
cy clo
continu ity</w>
K O
V O
pa ths</w>
gri ef</w>
ent ers</w>
PACK AGING</w>
rob bed</w>
Mar co</w>
35 4</w>
car to
author ization</w>
ir besartan</w>
affor dable</w>
tra ditions</w>
euro s</w>
Lib ya</w>
I t
3, 5</w>
stra ße</w>
hero in</w>
es pread</w>
S or
inspir ation</w>
diab etic</w>
contin ent</w>
si onal</w>
th ank
po v</w>
net t</w>
nick el</w>
- Where</w>
ion ally</w>
gro ws</w>
s é</w>
equ ation</w>
In struc
19 th</w>
14 5</w>
pro lifer
preser vation</w>
import antly</w>
f ears</w>
Lau ren</w>
st ub
dr um</w>
F requ
eli x</w>
neph ew</w>
d ents</w>
explo sive</w>
Christ opher</w>
dra in</w>
L ub
Fir stly</w>
lap top</w>
st abbed</w>
ens in</w>
ch icks</w>
J HA</w>
modern isation</w>
V ic</w>
periph eral</w>
T reas
G .</w>
et us</w>
wa it
uc tu
fron tier</w>
fin est</w>
co lo
Aw esome</w>
US B</w>
ot ox
fl at
al ising</w>
Democ ratic</w>
d resses</w>
celebr ation</w>
T ook</w>
jud gments</w>
belon ged</w>
6. 5</w>
unde res
re placing</w>
coun sel</w>
nific ent</w>
Cle arly</w>
sy rup</w>
Per son
plic ate</w>
ni um</w>
P G</w>
Appl ic
p d
fra me
experi mental</w>
Meg an</w>
CO R
ling u
Bul g
deser ved</w>
gh et
Pi erce</w>
G w
P it
un believable</w>
delic ate</w>
15 6</w>
camp us</w>
ap le</w>
Hun ter</w>
ce ilings</w>
All ison</w>
objec tions</w>
V ista</w>
Corpor ation</w>
conven tions</w>
fe at
Mi x
hop efully</w>
EA H</w>
sa iling</w>
ful filling</w>
ud es</w>
get tin</w>
adv ances</w>
N u
hor n</w>
S it
Pro per
C ere
in ches</w>
un limited</w>
re production</w>
la us</w>
g aps</w>
ble ed</w>
i do
W rit
Di ego</w>
ac knowledge</w>
Emp ire</w>
6 th</w>
rob ust</w>
j un
High ness</w>
el er</w>
Y un</w>
F I</w>
compens ate</w>
arri ving</w>
B art</w>
sk im
pun ish</w>
Bul lshit</w>
j unior</w>
chick ens</w>
M ount</w>
privileg e</w>
deli ver
P on
in he
d rank</w>
om on</w>
hamm er</w>
fat ty</w>
str ings</w>
pat rol</w>
T UR
AI DS</w>
subm itting</w>
in solvency</w>
res cu
CONTEN TS</w>
w rest
sof a</w>
biom ass</w>
ant agon
AS T</w>
sha king</w>
so da</w>
ab ine</w>
Sec ret</w>
X P</w>
F err
Cam p
zz les</w>
cou ra
com promised</w>
mortg age</w>
Ro b</w>
S in
shoul ders</w>
sac ri
circu its</w>
Inv estig
Aud rey</w>
sper m</w>
STR UC
TO TAL</w>
Ben jam
5 9
0 s</w>
under stand
fi ghters</w>
Wonder ful</w>
terri fic</w>
t aneous</w>
del ete</w>
Cha ir</w>
si an</w>
fo ren
Ma h
y ach
ev ing</w>
Open ing</w>
requ isite</w>
poly mer</w>
superv ised</w>
ep is
J av
wid espread</w>
hosp it
announ ce</w>
V .
cred itors</w>
De pos
Reg ister</w>
Jo an</w>
E u
se ating</w>
ag ging</w>
S even
Free ze</w>
inter racial</w>
T ina</w>
under cover</w>
fli r
ay e</w>
Pro ph
it z</w>
Po z
Al low</w>
2 1st</w>
En ter</w>
bo iling</w>
Bud dy</w>
I --</w>
prosec ution</w>
o thy</w>
oun ge</w>
dipl om
ali as</w>
acc ent</w>
d t</w>
K itty</w>
3 -</w>
sh alt</w>
pa d</w>
Compet ent</w>
ann ul
ten dering</w>
gg s</w>
cir cles</w>
N AT
c ess
mag ical</w>
Tot ally</w>
2 .</w>
pi do
fool ish</w>
c ables</w>
Al liance</w>
no tion</w>
k le</w>
accep ting</w>
under ing</w>
suc ker</w>
idi ots</w>
J ules</w>
sil k</w>
AL LY</w>
vill ages</w>
inqu iry</w>
cri pt</w>
V el
Under stand</w>
commer ce</w>
sc and
Rev e
Str as
un fortunate</w>
half way</w>
gra pe</w>
bel ts</w>
w ished</w>
be ts</w>
phot o
nec klace</w>
an ium</w>
Def ence</w>
vari ation</w>
sugg estions</w>
qu alities</w>
al thy</w>
ail ey</w>
provisi onally</w>
persi stent</w>
L ock</w>
Bloo dy</w>
attemp ted</w>
32 23</w>
ax el</w>
Stef an</w>
inter actions</w>
earth qu
deleg ations</w>
compl ain</w>
IN TER
ambi tion</w>
6 7
ne e</w>
d .</w>
Moun tains</w>
short comings</w>
rea uc
S le
A part</w>
t ter</w>
al in</w>
Tro jan</w>
Strateg ic</w>
0, 00</w>
ol o</w>
d ence</w>
Y EAH</w>
re payment</w>
liber alisation</w>
absor bed</w>
O S
pro tocols</w>
n ell</w>
ARTIC LE</w>
le uk
hall uc
descri bes</w>
assem bled</w>
be aches</w>
utili zes</w>
por tive</w>
out break</w>
di ve</w>
Yugosla v</w>
the ft</w>
cap tive</w>
C MO</w>
N ACE</w>
Bon nie</w>
Ac tive</w>
30. 4.2004</w>
progra m
gen s</w>
fl uctu
appropri ately</w>
tw ins</w>
re stored</w>
Sud an</w>
Bro ok
volunte er</w>
sovere ign</w>
har ass
cha os</w>
M ass
Min utes</w>
. 1</w>
er to</w>
Pos sible</w>
ab andon</w>
j unk</w>
Rel ease</w>
free zer</w>
B ad
tal ented</w>
sub heading</w>
shi pped</w>
K an
d é
un happy</w>
su ms</w>
Pic ture</w>
Sal v
Isa ac</w>
D a</w>
con signments</w>
ch i</w>
at or
sc rap</w>
ben zo
at tle</w>
T ig
l is</w>
B uc
autonom ous</w>
ma inst
conver t</w>
a is</w>
interrup ted</w>
la me</w>
h el</w>
Fi eld</w>
sti m
licen sing</w>
fla me</w>
up side</w>
sp ra
N I
Assi stance</w>
un due</w>
ter ror</w>
pursu ing</w>
I tem</w>
H o</w>
re ta
mar row</w>
admi re</w>
Al icia</w>
ven tures</w>
ter most</w>
hun ter</w>
fra mes</w>
tel ep
dev ast
Initi ative</w>
psycho logical</w>
invest ing</w>
C F</w>
19 70</w>
worth iness</w>
17 5</w>
vitam in</w>
em i
W ood
AB OUT</w>
w ishing</w>
light ning</w>
high lights</w>
Bra d
10 ,
gra dual</w>
Bat tle</w>
stic king</w>
RE ACH</w>
tu ps</w>
ric a</w>
cruc i
bu gs</w>
au dition</w>
Fe ed</w>
Comm er
Com pan
y ö
n els</w>
just --</w>
u ble</w>
Car s</w>
per sec
comp rises</w>
reg imen</w>
lay ers</w>
C rea
in complete</w>
co ws</w>
sh al</w>
s ack</w>
Tro y</w>
ve in</w>
pu pp
po o
pa st
foun dations</w>
Rel ations</w>
M ason</w>
loo kin</w>
l us
hyper tension</w>
Re ferences</w>
Ca esar</w>
sa il</w>
fati gue</w>
L B</w>
Fru it</w>
j u</w>
en ix</w>
Tran si
TE RI
3 60</w>
star tups</w>
Co s</w>
semin ar</w>
quar terly</w>
D ex
Am ber</w>
Pier re</w>
pen s</w>
Mitch ell</w>
B all</w>
es ian</w>
Tar get</w>
Li br
Aut om
Wal t</w>
nap h
lob by</w>
com in</w>
TH ING</w>
y early</w>
mainst re
d ale</w>
Nic hol
Inde pend
ne gl
Ex press</w>
Andro id</w>
cru de</w>
Experi ence</w>
autom otive</w>
Super man</w>
Do or</w>
of i</w>
Pregn ancy</w>
F RE
25 1</w>
terri bly</w>
J ew</w>
br ick</w>
sophistic ated</w>
challeng ing</w>
è re</w>
direc tors</w>
Tit an</w>
shar k</w>
privileg es</w>
O u
tap es</w>
ec ture</w>
supple ments</w>
back wards</w>
autom ated</w>
un desirable</w>
righte ousness</w>
S mi
Collec tion</w>
Benjam in</w>
li v
est ers</w>
bur dens</w>
t ful</w>
pido grel</w>
C lock</w>
2 a</w>
ac tu
F M</w>
- Who</w>
fem ales</w>
Nor man</w>
therap ist</w>
Ar men
v ested</w>
in ds</w>
equ als</w>
ch uckles</w>
exerc ising</w>
Fr ont</w>
u ality</w>
os ex
incid ents</w>
ic ate</w>
el ia</w>
desig ner</w>
defici encies</w>
San dy</w>
Pro gress</w>
w oven</w>
bo thering</w>
O d
i v</w>
A O</w>
ha un
meaning ful</w>
UC ITS</w>
Nur se</w>
w agon</w>
mir al</w>
OP ER
Mur phy</w>
&apos; LL</w>
end ers</w>
P el
1 24</w>
bu reauc
L AU
For m</w>
14 7</w>
u ous</w>
corpo rations</w>
sp it</w>
T ill</w>
ust y</w>
ad hes
swa p</w>
i tisation</w>
e favirenz</w>
qu alit
Sebas tian</w>
Po st
o es</w>
l uc
ven ly</w>
ra in
glor ious</w>
contrac tor</w>
S EN
s son</w>
h attan</w>
dest ined</w>
t v</w>
pen ny</w>
High er</w>
tr ay</w>
mark t</w>
ex pe
PV C</w>
100 ,000</w>
reg ation</w>
ot ensin</w>
Y ears</w>
Balk ans</w>
ar se</w>
S eth</w>
initi ating</w>
ow a</w>
H ER</w>
E CO
ra ft</w>
pi p
anc ement</w>
hun ger</w>
expl aining</w>
Ch ile</w>
pre vents</w>
plan ets</w>
ch ef</w>
X I</w>
W ater
le dge</w>
bever ages</w>
pa ste</w>
ha ble</w>
Vill age</w>
interven tions</w>
S leep</w>
S aul</w>
Bea uty</w>
anc est
m otel</w>
L ang
12 60</w>
50 ,000</w>
mus cular</w>
m itting</w>
g ars</w>
mat rix</w>
o ath</w>
S kin</w>
Per u</w>
ba it</w>
17 1</w>
sal mon</w>
Stras bourg</w>
Mo z
D river</w>
A men
10. 2003</w>
li est</w>
S ti
pra ying</w>
desig nations</w>
chea per</w>
Sim ple</w>
Pay ment</w>
Pan el</w>
4 3
bit ter</w>
Pol ska</w>
Braz ilian</w>
Ar m
sub stitute</w>
sk irt</w>
duc t</w>
6. 4</w>
recogn ises</w>
epis odes</w>
Al ger
princi p
encoun tered</w>
mal es</w>
and um</w>
vis itor</w>
R ory</w>
Yel low</w>
exha us
ne um
Ch ase</w>
g el</w>
che ated</w>
Care giver</w>
motor cycle</w>
ac ious</w>
Un sure</w>
conspir acy</w>
tol l</w>
S ports</w>
pe red</w>
o .</w>
compl ications</w>
4 -</w>
W ade</w>
b b
b acking</w>
h ack</w>
en tail</w>
vol can
GH S</w>
E ye</w>
- --</w>
dis missed</w>
argu ing</w>
Emer gency</w>
ris ky</w>
F on
ro les</w>
col or
an n</w>
198 2</w>
RE F
tox ic
broad ca
Hol mes</w>
AS A</w>
pl um
EP A</w>
Def ense</w>
r as
Z im
C ases</w>
s burg</w>
rad ical</w>
i k</w>
K en</w>
&apos; I</w>
tur key</w>
dr ying</w>
det ri
conc essions</w>
Er as
oun ced</w>
ME DI
J ump</w>
ang les</w>
T I</w>
unanim ously</w>
der ness</w>
cultiv ation</w>
al y</w>
Cou ple</w>
Ama z
over seas</w>
el ation</w>
ES F</w>
Da isy</w>
tra itor</w>
journ alist</w>
P un
is ure</w>
der man</w>
co ke</w>
Nic ole</w>
shel f</w>
s -</w>
m ally</w>
red und
mani fest</w>
def ending</w>
aff ili
Ac ti
pul monary</w>
low ering</w>
di min
D ance</w>
z ard</w>
c ann
Sat ellite</w>
LIS T</w>
EE N</w>
6 6
l ub
hand ic
om ide</w>
Con g
bio fuels</w>
foc uses</w>
St abil
M ister</w>
ad el
squ ir
docu mentary</w>
Jo sé</w>
mo tional</w>
an on</w>
all as</w>
counter parties</w>
b out</w>
stimul ating</w>
am in
deduc tion</w>
13 3</w>
stre am
Mi k
Kar l</w>
ad missible</w>
L .A.</w>
Am ount</w>
v ou
scenari os</w>
V E
hi ps</w>
cr acked</w>
inf ants</w>
Th i
Merc edes</w>
CYP 2
z inc</w>
sugg estion</w>
h ills</w>
bed ded</w>
K ling
0 ,000</w>
ster ol</w>
neighb ours</w>
agg age</w>
B ayer</w>
Elec tric</w>
De bian</w>
sup portive</w>
hum or</w>
don ors</w>
dic t</w>
antibio tics</w>
trac es</w>
qui etly</w>
Fant astic</w>
d ess</w>
N S
Ther ap
10 th</w>
long it
l end</w>
Gu ide</w>
G S</w>
re comb
be es</w>
B lake</w>
pet rol</w>
des ires</w>
comb inations</w>
mat ched</w>
cha mbers</w>
- So</w>
form ulation</w>
cl am
P ink</w>
sear ched</w>
purch ases</w>
bas s</w>
Inte rest</w>
quali fying</w>
o ked</w>
Ch all
12 ,
Pi per</w>
smar ter</w>
di ox
ody namic</w>
poss essing</w>
en ly</w>
or n</w>
clo wn</w>
U ser</w>
Mon k</w>
tim etable</w>
blow s</w>
ROU TE</w>
P I</w>
Me aning</w>
A A</w>
ta stes</w>
ste pping</w>
scap es</w>
ques tioned</w>
o sa
net working</w>
li ghter</w>
5. 5</w>
usti n</w>
un conscious</w>
on set</w>
indo or</w>
e ability</w>
SUB ST
pra ise</w>
on ica</w>
el abor
celebr ating</w>
COM E</w>
Gre y</w>
cl ay</w>
Naz i</w>
m am
jewel ry</w>
dre am
Sec tor</w>
Bulg arian</w>
hydro chloride</w>
newspap ers</w>
ko v</w>
fi ers</w>
14 9</w>
v s</w>
room mate</w>
pre ferences</w>
direc tory</w>
C af
exc ellence</w>
contem porary</w>
approv ing</w>
Jen na</w>
Con go</w>
sna p</w>
e ded</w>
car pet</w>
D ose</w>
tra ilers</w>
otech no
le e</w>
cre di
he ated</w>
h on</w>
R T
expan ding</w>
descri ptions</w>
compar ative</w>
regi sters</w>
min ist
do gging</w>
A po
20 30</w>
ran ges</w>
12 55</w>
ingredi ent</w>
adap ting</w>
Diffe rent</w>
process or</w>
opa thy</w>
en nium</w>
Man uel</w>
A do
pul sion</w>
Chan nel</w>
16 8</w>
0, 1</w>
ast ly</w>
u h
plan tation</w>
b end</w>
SE E</w>
3. 2.
recomb inant</w>
az ines</w>
Oper ational</w>
B G</w>
jo ints</w>
for bidden</w>
P ROP
na vig
clari fied</w>
AC TIVE</w>
pe an
b ent</w>
R ac
Pri ze</w>
diagno sed</w>
M iss
publ ishing</w>
id ine</w>
C lev
h d</w>
LI FE</w>
L or
Gen eva</w>
prop ylene</w>
ph ine</w>
cru ise</w>
ap it
Ma ke
J EC
flo od</w>
expi re</w>
OU TER</w>
mar ch</w>
gri p</w>
dec iding</w>
Gall ery</w>
D N</w>
pe er</w>
par ked</w>
cus sion</w>
ri pped</w>
P O</w>
I van</w>
He h</w>
z ers</w>
bra kes</w>
D eter
ver te
b are</w>
Vir gin</w>
H eb
ro b</w>
fil thy</w>
dis close</w>
Sol omon</w>
Under stood</w>
Integr ated</w>
ic ed</w>
compli ant</w>
squee ze</w>
F ort</w>
3 47</w>
tan gible</w>
sec uring</w>
9 99</w>
m s
Uni versal</w>
D ays</w>
accum ulation</w>
k el</w>
im p</w>
bar n</w>
R C</w>
ot ype</w>
in puts</w>
Wi fe</w>
tri ple</w>
thir sty</w>
pro test</w>
mis sile</w>
ie tin</w>
ick i</w>
cle ans
S ign</w>
Individ ual</w>
War ren</w>
fran kly</w>
dep loyed</w>
v ili
ro s</w>
f ats</w>
Tr acy</w>
Cam p</w>
termin ate</w>
sl ut</w>
re productive</w>
slaugh tered</w>
pal m</w>
syring es</w>
Ac ting</w>
under mine</w>
arbit r
16 9</w>
pur ple</w>
fil ing</w>
cl icking</w>
ad ays</w>
Ray mond</w>
Author ities</w>
w er
re main
harmon y</w>
buc ket</w>
or na
kind ness</w>
C over</w>
war s</w>
ab bing</w>
1, 3</w>
mar rying</w>
m ice</w>
inspec tor</w>
frag ile</w>
dis agree</w>
wi g</w>
up grade</w>
prog ression</w>
T ren
Introduc tion</w>
work place</w>
m ill
sta dium</w>
Di ana</w>
All en</w>
m L</w>
E X</w>
contrac tors</w>
O M</w>
tom atic</w>
Har per</w>
Ba throom</w>
min imal</w>
so far</w>
l ator</w>
P ed
so ber</w>
0 1.
wa x</w>
j am</w>
14 2</w>
k r
ex changed</w>
2 40</w>
An ci
must n</w>
hon ored</w>
suc rose</w>
lac tic</w>
datab ases</w>
bot s</w>
N elson</w>
recep tor</w>
l ity</w>
Proc ess</w>
z oo</w>
st um
seiz ures</w>
phosp hor
kilomet res</w>
eth yl
en ue</w>
ph ases</w>
pe p
in cl
hydro chlorothiazide</w>
al liance</w>
Man hattan</w>
Lithu anian</w>
C it
tack ling</w>
d ling</w>
uck le</w>
t ants</w>
Car ol
19 0</w>
- Don</w>
to es</w>
int ent</w>
cyl inder</w>
ammon ium</w>
Fac il
hyper sensitivity</w>
S pl
g gy</w>
conc ession</w>
e ats</w>
Spec ies</w>
Anton io</w>
ff le</w>
bar becue</w>
ang el
ak h
Van essa</w>
ten d
Web site</w>
mater i
enti s</w>
coll ar</w>
co di
UN D</w>
che er</w>
Stu dio</w>
forth coming</w>
D inner</w>
W ood</w>
IN K</w>
Clau de</w>
C anc
Ad voc
viol ations</w>
shut tle</w>
in os</w>
eth eless</w>
Per i
14 3</w>
ING S</w>
hydrox ide</w>
credi bility</w>
V as
vari ations</w>
soc cer</w>
encoura ges</w>
Mar io</w>
re constituted</w>
supple menting</w>
we re
min i
infl am
fo il</w>
vis as</w>
mo c
ly mph
dist ort</w>
Ar ts</w>
Glor ia</w>
6 8
hat red</w>
Philipp ines</w>
suscep tible</w>
commod ity</w>
shri mp</w>
pd f</w>
gras tim</w>
discipl inary</w>
watch es</w>
Eras mus</w>
Ren a
Re y
Gu inea</w>
G host</w>
Commer cial</w>
An dr
. l
W an
B ig
Apos tle</w>
la in</w>
dis continuation</w>
bicy cle</w>
Jo sh
ni pples</w>
b ate</w>
R uth</w>
Gul f</w>
y ear
phen yl
17 82</w>
t ooth
Dra gon</w>
14 8</w>
sp ect</w>
ho sts</w>
Eff ects</w>
5 th</w>
tow n
bo o</w>
CE O</w>
16 5</w>
pro jected</w>
ell es</w>
ch at
C P</w>
K A
to s
exec ute</w>
dre amed</w>
bet ting</w>
Be hold</w>
N AS</w>
ser geant</w>
destro ying</w>
stit uting</w>
no te
blan ket</w>
Im age</w>
Hot els</w>
lac tose</w>
X II</w>
Cam eron</w>
tw ist</w>
ho stel</w>
et ine</w>
D ana</w>
val ves</w>
ri vers</w>
influ enced</w>
Stra ight</w>
Mun ich</w>
Chea p</w>
198 4</w>
trac tors</w>
s ch</w>
- Good</w>
v ector</w>
tum our</w>
th ic</w>
laun ching</w>
l n</w>
g ger</w>
lo v
Cra ig</w>
Cat al
0. 1</w>
fil ters</w>
Wr ite</w>
vir tually</w>
cellu lose</w>
May a</w>
ä r
vigil ance</w>
reck on</w>
D ea
au x</w>
RE S
ou termost</w>
f u</w>
ub by</w>
gener ator</w>
Secur ities</w>
O range</w>
5 8
su ited</w>
dic t
sur prising</w>
share holder</w>
be ats</w>
X X</w>
Ra di
mon t</w>
arr ay</w>
Wat son</w>
2. 0</w>
rel s</w>
Di ag
sc an
re jection</w>
is ine</w>
D Y</w>
STA TE
Har mon
CI AL</w>
metabol ites</w>
T us
ten ance</w>
stat ue</w>
shoc ked</w>
down load
ro sis</w>
Appl ications</w>
in di
liqu or</w>
terri fied</w>
pil gri
Classi c</w>
- She</w>
sil icon</w>
le gen
frame works</w>
Sam my</w>
hoo ked</w>
form alities</w>
exam inations</w>
evalu ating</w>
dra fting</w>
sh h</w>
s ers</w>
T our</w>
T est
Por t
Elli ot</w>
sla ves</w>
sever ity</w>
guar dian</w>
com pos
No .
v isions</w>
A hh</w>
19 72</w>
to wel</w>
surviv ors</w>
M UST</w>
Le x</w>
Gu il
ish a</w>
es hip</w>
all er</w>
ad ine</w>
Z ero</w>
K id
sol uble</w>
per imeter</w>
ing ham</w>
g az
rab bits</w>
leg acy</w>
Di ane</w>
ur inary</w>
sen ses</w>
cin ema</w>
rep lied</w>
pro xim
oc ation</w>
micro wave</w>
forec asts</w>
Galil eo</w>
Flo rence</w>
6 00
5. 4</w>
sacri fic
F un</w>
14 1</w>
tr as
func tionality</w>
and ra</w>
air space</w>
E ag
resur rection</w>
ple a</w>
spec tac
et on</w>
be ard</w>
T rou
E state</w>
20 7</w>
ev ident</w>
Se attle</w>
or bit</w>
Lab oratory</w>
sc ha
Les lie</w>
premi ums</w>
bar rel</w>
Th ou</w>
kidn apping</w>
bus es</w>
Mil an</w>
bab y
13 2</w>
Modi fication</w>
Clev eland</w>
un stable</w>
stra p</w>
Gl ass</w>
Co sta</w>
we ir
P R</w>
ov ascular</w>
ic z</w>
clo th</w>
18 7</w>
it ai
Aud i</w>
15 2</w>
ti fied</w>
jud ged</w>
al ian</w>
v ard</w>
lia ison</w>
cam ps</w>
ro tation</w>
fl our</w>
dea dly</w>
al o</w>
Reve rend</w>
Out side</w>
Per form
fo g</w>
cre ativity</w>
brea sts</w>
aud itors</w>
Mess age</w>
F .</w>
w ay
Mar kets</w>
Hea ther</w>
met al
constitu ents</w>
c ough</w>
complain ing</w>
cer amic</w>
S L
D im
re tar
H an</w>
Cap e</w>
oo s</w>
X III</w>
st yl
ban ana</w>
Frank lin</w>
explic it</w>
T ON</w>
R af
Ric h
S tick</w>
va ult</w>
publ icity</w>
tion er</w>
di ary</w>
OR Y</w>
2 18</w>
th ium</w>
circ ular</w>
WA Y</w>
introduc tory</w>
e c</w>
Dic tionary</w>
add le</w>
Pri or</w>
re pa
confir ming</w>
elev ated</w>
ech es</w>
Pa ul
B D
un common</w>
ju ven
dil ig
V ari
Tour ism</w>
Nor mal</w>
tor n</w>
T W
18 31</w>
Dil do</w>
u. int</w>
dis advant
s ad
repeat edly</w>
dr a</w>
anc illary</w>
K G</w>
H .</w>
Ban king</w>
1, 4</w>
sp inning</w>
galax y</w>
Con tri
explo it</w>
suffici ency</w>
mal ign
Let ter</w>
at ar</w>
Mar t
dess ert</w>
Col or</w>
2 80</w>
int age</w>
fuc kers</w>
foot wear</w>
Dam on</w>
- Are</w>
&apos; m
fulfil s</w>
car ded</w>
reconc iliation</w>
hum ble</w>
deli ghted</w>
Ad ver
P ref
informa tional</w>
Al um
16. 11.2007</w>
hydra ulic</w>
e po
distil lation</w>
as k
Simp son</w>
Can ary</w>
A y
dil ution</w>
Oper ations</w>
inte l</w>
S HA
P ath</w>
Bor n</w>
ta b</w>
c ups</w>
M au
ta ke
sub stitution</w>
insi sted</w>
Ex penditure</w>
under going</w>
qu id</w>
Ne u
2. 7</w>
12. 2013</w>
iz er</w>
li gible</w>
dil do</w>
V in
Kur t</w>
Gre itai
writ es</w>
thes ia</w>
mag nesium</w>
lan es</w>
clim bing</w>
19 78</w>
embr ace</w>
M aps</w>
Cub a</w>
5 10</w>
ser i
dec eased</w>
Four th</w>
An al
bal ancing</w>
arch y</w>
shr ink</w>
f s</w>
ab norm
Ph ase</w>
s ore</w>
reli eved</w>
r ack</w>
rom ance</w>
ell i</w>
coo kie</w>
bu d</w>
Trans fer</w>
ho sting</w>
suspic ion</w>
feeding stuffs</w>
F at</w>
rati fication</w>
deteri or
W olf</w>
mag azines</w>
Mil lions</w>
B ER
W ine</w>
tre mend
ner ves</w>
m oul
jac ent</w>
an xious</w>
inter active</w>
gro cer
H od
B T</w>
τ α
g ru
d ancer</w>
Josh ua</w>
Concer ning</w>
Bab ylon</w>
refin ed</w>
pestic ides</w>
ke e</w>
po s</w>
f ü
furn ished</w>
ap i
rup t
nit ude</w>
moun ting</w>
Bri d
tim ber</w>
theore tical</w>
honey moon</w>
Ter rit
I ES</w>
schol ar
se p
ra h</w>
eter nity</w>
col oured</w>
aut opsy</w>
K rist
F ar</w>
Daw son</w>
par adise</w>
ma sters</w>
Wh is
E TS</w>
ren ted</w>
per missible</w>
v i</w>
ign ty</w>
S N
mist ress</w>
ar rog
PROCED URE</w>
projec tions</w>
Ple as
si es</w>
inter views</w>
gra phy</w>
seas onal</w>
poly ethylene</w>
Ado be</w>
CO N</w>
F ly
clari fication</w>
ure a</w>
arm a</w>
re x
lox acin</w>
ref resh
sulph ur</w>
po etry</w>
demonstr ating</w>
ail ed</w>
1. 0</w>
g i</w>
deduc ted</w>
dec entr
O s
Jan et</w>
sm oo
angi otensin</w>
gener ic</w>
Y an
Programm es</w>
ab sent</w>
Sur vi
wi ped</w>
a a
N ag
E valuation</w>
No vo
Mul ti</w>
secur itisation</w>
P en</w>
v apo
C AT</w>
we ars</w>
eth anol</w>
bl ind
au g
L av
Cal eb</w>
obst acle</w>
N uclear</w>
ME AS
20 6</w>
m ount</w>
Chang es</w>
jeop ardis
igno red</w>
GO T</w>
F ICATION</w>
propor tional</w>
la undering</w>
draw ings</w>
Fo x</w>
y ell</w>
en comp
G em
17 6</w>
tu ber
Thir ty</w>
5 4
in tri
Ir besartan</w>
succee ded</w>
boo bs</w>
contamin ated</w>
Dec ree</w>
tim er</w>
wrec k</w>
u k</w>
poss essed</w>
mag nificent</w>
inflam matory</w>
Brea the</w>
Jo y</w>
C ob
12 9</w>
e -</w>
Rec og
7 7
l ousy</w>
instruc ted</w>
excre ted</w>
Soli darity</w>
ep il
Le on</w>
F igh
trig gered</w>
hor ny</w>
curren cies</w>
deb tor</w>
smo ked</w>
ox id
ot y
multip lied</w>
im me</w>
3. 7</w>
Com peti
ra de</w>
rhy thm</w>
mon keys</w>
C linical</w>
14 4</w>
parano id</w>
mistak enly</w>
Wa ste</w>
Mul der</w>
E F</w>
19 76</w>
int act</w>
ac commo
paper board</w>
let t</w>
gau ge</w>
be hold</w>
tou gh
defe ated</w>
ti ger</w>
py ra
an tha</w>
h eck</w>
guarante eing</w>
corp se</w>
Detail s</w>
ste re
int oler
N EC
wor sen
ex hib
C V
twi sted</w>
ab sur
im pris
Ti er</w>
RE POR
BA T</w>
Nor mally</w>
pil low</w>
psych ic</w>
fail ures</w>
sha pes</w>
op t</w>
s ung</w>
ed ges</w>
ar tery</w>
ack ers</w>
19 79</w>
bub ble</w>
Y ours</w>
S anc
Leb anon</w>
ri ot</w>
ut a</w>
ch op</w>
degra dation</w>
ci ful</w>
Defin itions</w>
reg rets</w>
deal ers</w>
assu mption</w>
Hop efully</w>
AD E</w>
................................ ................................
Mir anda</w>
convinc ing</w>
π ο
m our
li b
la wn</w>
inv iting</w>
hypoten sion</w>
fab ulous</w>
ac r
SUP PLY</w>
under lined</w>
u g</w>
2 16</w>
b aggage</w>
V EN
z ie</w>
ER DF</w>
pol ite</w>
S par
M Hz</w>
1, 2</w>
for ty</w>
Cur tis</w>
evac u
di pine</w>
cos metic</w>
OP INI
H us
sha ving</w>
Ron nie</w>
H im
pi erc
ha ul</w>
W izz
Sur prise</w>
Commun ications</w>
mor on</w>
an th
work force</w>
Associ ated</w>
A 00
expres sly</w>
compar ing</w>
T ree</w>
Simil ar</w>
n ucle
loc ally</w>
dys function</w>
Min i</w>
Am bassador</w>
si c</w>
Manag ing</w>
F en
D ale</w>
demonstr ates</w>
alig nment</w>
partic le</w>
ha b
IS A</w>
tro pical</w>
cas u
Krak ow</w>
ex pose</w>
Log istics</w>
- Come</w>
u ter
ri ght
perc eption</w>
Wil lie</w>
W es
ro y</w>
H unt</w>
en er</w>
Dre w</w>
r ounded</w>
intermedi aries</w>
Lot to</w>
In stitution</w>
1. 9</w>
remain der</w>
lo dging</w>
c ence</w>
a di
T ol
sha ft</w>
ra ises</w>
o y
o is</w>
acc ru
4. 9</w>
vin yl</w>
pois oned</w>
Hawa ii</w>
yl ate</w>
m esh</w>
an hy
Leg is
K im
Consi der</w>
z ar
v ain</w>
lit res</w>
dis rup
CN S</w>
st ence</w>
al pha
E in
Brook lyn</w>
occas ionally</w>
men to</w>
semin ars</w>
plan ting</w>
effec ted</w>
ω ν</w>
life style</w>
correc tions</w>
SI BLE</w>
Foc us</w>
b ishop</w>
R ich</w>
syn chron
spot ted</w>
benef iting</w>
Inclu ding</w>
sp a</w>
appreci ated</w>
Ver onica</w>
ag u
Mon sieur</w>
Con clusion</w>
s s
k ling</w>
Nor a</w>
system atically</w>
venti lation</w>
ro ds</w>
err al</w>
dor f</w>
clo ses</w>
ampi e</w>
Vehic le</w>
F U
bacter ial</w>
gi g</w>
civil ization</w>
bet ray</w>
Char acter
3 96</w>
Gener ally</w>
or dering</w>
can e</w>
Sau di</w>
Rap id</w>
Organ ization</w>
P ir
rough ly</w>
Car l
6 9
bathro oms</w>
Del hi</w>
0. 3</w>
Al one</w>
es cal
ed ic
conf using</w>
Mo ving</w>
Fa ith</w>
Col lins</w>
pul p</w>
n ies</w>
a sted</w>
Bar ney</w>
ins ult</w>
fl ag
Sha w</w>
parlia ments</w>
uni tion</w>
r é
disturb ances</w>
tu ary</w>
brut al</w>
fl ed</w>
i ary</w>
Repe at</w>
sovere ignty</w>
de struc
p ly</w>
tun g
Ch icken</w>
trou bles</w>
p neum
autonom y</w>
R ange</w>
J en</w>
16 2</w>
Ca uc
val idated</w>
nur ses</w>
h r
cum ulative</w>
sc rap
depend ence</w>
Stabil isation</w>
S ort</w>
H ector</w>
C rac
pharmac o
Swee theart</w>
main tains</w>
it ement</w>
F arm</w>
CL U
19 77</w>
win ners</w>
dum my</w>
K ob
w rist</w>
k al
bor rowed</w>
Pho enix</w>
ill icit</w>
distribut ors</w>
IC AO</w>
Comple te</w>
dis pose</w>
de d
K han</w>
grand pa</w>
enti tlement</w>
TA KE</w>
S HO
R IS
sur prises</w>
pres sures</w>
dra wer</w>
Swee tie</w>
Ro oms</w>
Str ange</w>
Min ist
Mc Gee</w>
pl ess</w>
e ti
thum b</w>
rec y</w>
Sam uel</w>
M itch</w>
modi ties</w>
circ us</w>
Islam ic</w>
cre ampie</w>
Ral ph</w>
Qu ickly</w>
Jud ah</w>
witn essed</w>
STATE MENT</w>
B V</w>
ł aw</w>
wi res</w>
w av
An derson</w>
TI ME</w>
Shemale Tube</w>
Kir k</w>
A ShemaleTube</w>
wol ves</w>
min orities</w>
satis fying</w>
frea ked</w>
sev erely</w>
be et</w>
sla p</w>
po un
Oper ating</w>
Jo in</w>
16 4</w>
p anc
ad jacent</w>
oper atives</w>
7. 1</w>
50 000</w>
ey e
amoun ted</w>
Budd h
B ed</w>
accoun tability</w>
L ad
J eez</w>
G M</w>
ι σ
rif le</w>
e poetin</w>
an ed</w>
P av
c emetery</w>
Mi gu
5 75</w>
dimen sional</w>
bur gh</w>
U na
Rec ent</w>
ro e</w>
res ume</w>
B itch</w>
y p
su r</w>
off shore</w>
5 7
15 00</w>
sat ur
lab elled</w>
Me g</w>
pen ia</w>
corrid or</w>
Un believable</w>
supple mented</w>
pol ar</w>
oper a</w>
them es</w>
ro of
mar ker</w>
enti tlements</w>
Mu hammad</w>
stan ts</w>
P V</w>
pun c
pot ent</w>
gl ed</w>
Tar a</w>
lo ses</w>
er ated</w>
Bro thers</w>
wi dow</w>
ust er</w>
mod est</w>
condi tioned</w>
scre wing</w>
for getting</w>
follow ers</w>
tiz ed</w>
en n</w>
CL AS
Bro oke</w>
13 7</w>
vili ans</w>
la va</w>
distingu ish</w>
H U</w>
vic inity</w>
sle tter</w>
read ily</w>
incorpor ate</w>
don ation</w>
dis plays</w>
B all
re constitution</w>
n .
fores ee
G ina</w>
sup plying</w>
rit ual</w>
cou pling</w>
Stand ards</w>
K as
disadvant aged</w>
car ing</w>
an om
ran king</w>
1 -</w>
ob server</w>
Y ING</w>
H EA
supervis or</w>
Perform ance</w>
less ly</w>
en rich
but yl</w>
are r</w>
J ill</w>
lim us</w>
boo ze</w>
our se</w>
ex otic</w>
resol utions</w>
reg imes</w>
h l
deb ates</w>
lin en</w>
Statis tics</w>
Mal ware</w>
G old
reg on</w>
mono therapy</w>
in sofar</w>
th en
op a</w>
To il
CH IL
om ers</w>
happ ier</w>
d ope</w>
Reg ist
sk ins</w>
inv asion</w>
Neigh bour
Har vard</w>
16 6</w>
ing ness</w>
gra v
ster ile</w>
pu ppy</w>
Is ab
8 8
che stra</w>
tet ra
Partic ular</w>
Al ison</w>
buff er</w>
appl es</w>
Rep ub
tur b
In n</w>
qualit ative</w>
electro magnetic</w>
dis h
col onel</w>
C ris
disturb ing</w>
zh ou</w>
corpor ation</w>
K laus</w>
Fi xer</w>
ic idal</w>
down stream</w>
Heb re
Colom bia</w>
Anal din</w>
- Thank</w>
e us</w>
d s
a g</w>
Pr ac
G BP</w>
d well</w>
C ul
promp tly</w>
om y
mp s</w>
g min
contrac ted</w>
R un
- Hi</w>
try meat</w>
trans form</w>
R um
Budd ha</w>
ri ghtly</w>
T XXX</w>
S ize</w>
OPINI ON</w>
distur b</w>
Deb bie</w>
random ised</w>
m ia</w>
bud dies</w>
ad orable</w>
spon sor</w>
j ournal</w>
a sting</w>
T op
r ina</w>
avi er</w>
Ju an</w>
Dres sup</w>
B et</w>
E ri
par as
mid st</w>
d rous</w>
Hou ston</w>
pri ori
fashi oned</w>
C U
Res ources</w>
Un like</w>
In to</w>
ge ographic</w>
fe ast</w>
19 73</w>
im press</w>
emb ar
educ ated</w>
comp ression</w>
appreci ation</w>
Neighbour hood</w>
st eak</w>
perio dically</w>
M D</w>
10 000</w>
th ren</w>
con sig
ch in</w>
ha bits</w>
engine ers</w>
Wor l
Lau ghing</w>
L astly</w>
EN TS</w>
po d</w>
on wards</w>
Prov isions</w>
C row
stru ggling</w>
pi x
par ole</w>
re vi
a ver
SER V
&apos; s--</w>
ut able</w>
sp ine</w>
as pir
St yle</w>
In stant</w>
Acti vities</w>
w y
p ale</w>
ma il
lad der</w>
3 35</w>
A ds</w>
att acking</w>
Wizz air</w>
Ne al</w>
9 th</w>
set up</w>
u be</w>
gl u
extrac ted</w>
distingu ished</w>
comp assion</w>
associ ates</w>
L AN
recur rence</w>
Classi fication</w>
transf erring</w>
reha bil
princip ally</w>
epil ep
cu ffs</w>
Green land</w>
trac tion</w>
t ours</w>
an i
Co ordination</w>
prop yl</w>
convic ted</w>
P ast
er ra</w>
Ba be</w>
val ent</w>
Sh ir
Libr ary</w>
un ts</w>
Sh or
inhe rent</w>
c unt</w>
D aily</w>
hi o</w>
e rec
cor ners</w>
anc a</w>
E RE
vo id
mis understanding</w>
H oo
qui ries</w>
ev id
special ists</w>
Mel issa</w>
cla uses</w>
z en
sulph on
pre pa
Sloven ian</w>
psych o</w>
proc la
Neg ative</w>
c ad
ath le
P ad
wall paper</w>
perf ection</w>
fisher men</w>
fer ry</w>
f etch</w>
d al</w>
S n
Pal mer</w>
Bra in</w>
19 67</w>
16 1</w>
ke en</w>
cris es</w>
cor rupt</w>
D ir
trans formed</w>
construc tive</w>
bank rupt
L T</w>
R ing</w>
Multi ple</w>
in ers</w>
il es</w>
ep hal
acceler ate</w>
Ur ban</w>
Migu el</w>
AT A</w>
19 5</w>
pill ars</w>
lin king</w>
in ces</w>
convic tion</w>
comman d
X VI</w>
T ess</w>
tra ine
intermedi ary</w>
herit ance</w>
R F
K it
sec recy</w>
sa una</w>
d r</w>
1. 1.
ri bs</w>
re medi
M am
K le
organ ising</w>
Bl essed</w>
Alger ia</w>
sta b</w>
rever sible</w>
prefer ably</w>
S la
Rec o
Hea ding</w>
im porting</w>
cre dible</w>
I -</w>
Greitai .l
Greitai.l t.</w>
- This</w>
mut ually</w>
18 th</w>
vampi res</w>
res ili
N es
A er
stub born</w>
lo dge</w>
emphas ised</w>
di ving</w>
19 68</w>
pe pper</w>
med al</w>
de m</w>
b uck</w>
ass is</w>
inf ant</w>
St ars</w>
Egyp tian</w>
municip al</w>
mo vable</w>
ex ac
3 43</w>
wei ghts</w>
vir uses</w>
sle y</w>
car tel</w>
B og
- But</w>
w inding</w>
L loyd</w>
valu ed</w>
regul ate</w>
introduc es</w>
gar dens</w>
ch ant</w>
2 25</w>
F P
D at
rum ors</w>
l ads</w>
as y
Dep ending</w>
Boo king</w>
im balances</w>
feasi ble</w>
distur bed</w>
S R
J acqu
Fin n</w>
slaugh ter
WI LL</w>
C AS
pro pan
den afil</w>
yö u</w>
chole sterol</w>
fo am</w>
el eph
der mal</w>
Foot ball</w>
18 4</w>
tari ffs</w>
X ena</w>
v odka</w>
Super vis
C had</w>
f usion</w>
dis pos
met ro
Br ite</w>
polit an</w>
m uc
fin es</w>
erythropo ietin</w>
Per sons</w>
phy si
eleph ant</w>
bac hel
Writ ten</w>
Tra ffic</w>
EG F</w>
Con stitu
re marks</w>
in sec
feasi bility</w>
which ever</w>
n esses</w>
G RE
AN S</w>
ten derer</w>
exec uting</w>
dis proportionate</w>
cryst all
Sam antha</w>
perc eived</w>
H air</w>
prin ter</w>
b ore</w>
I di
Citiz ens</w>
any l</w>
amp li
Ad ditionally</w>
ran som</w>
b list
ag ger</w>
198 3</w>
pl ague</w>
hi a</w>
V ul
U RES</w>
El lie</w>
tro jan</w>
pe ar
fl ash
P P</w>
Cauc as
knoc king</w>
W .</w>
we e</w>
prof loxacin</w>
in son</w>
re construction</w>
po em</w>
nau ghty</w>
conf isc
Stri ke</w>
Ly n
E ffici
pois oning</w>
flow ing</w>
dis par
S cul
Des ig
Bir thday</w>
param eter</w>
R ita</w>
induc tion</w>
h ockey</w>
cel eb
Arc tic</w>
inev itable</w>
O L</w>
Hear d</w>
H ell
IN TE
tic an</w>
reme dies</w>
cam ping</w>
cab inet</w>
stri kes</w>
re ign</w>
on i
fo stering</w>
un install</w>
inst inc
explan ations</w>
dec o
Re ports</w>
19 74</w>
p itch
N ed</w>
B is
la sted</w>
ten se</w>
kil ometers</w>
Det ail</w>
17 4</w>
gg ers</w>
2. 8</w>
gl omer
fic ally</w>
V illa</w>
Ru by</w>
stra w</w>
- They</w>
wheel chair</w>
serv ers</w>
ea ger</w>
d ice</w>
Sol ved</w>
R ome
Hist or
L az
c ans</w>
ut most</w>
swe ating</w>
trac ked</w>
oppon ent</w>
C lear
war p</w>
quar antine</w>
frac ture</w>
et o
Ad miral</w>
re pay</w>
2 34</w>
ń ski</w>
k is
Some where</w>
suc ked</w>
li me</w>
Manufactu rer</w>
tra der</w>
th ol
Air lines</w>
un tie</w>
insu red</w>
defin ite</w>
Correc t</w>
Ac tions</w>
3 20</w>
V ac
Co venant</w>
under go</w>
ro y
13 4</w>
sou thwest</w>
ri l</w>
ot age</w>
ur gently</w>
statis tically</w>
mad ness</w>
identi fier</w>
correspon dence</w>
li d</w>
chem ically</w>
MA TERI
mag nitude</w>
Dun can</w>
B ailey</w>
ess ings</w>
cla iming</w>
a oh</w>
DA Y</w>
cock tail</w>
Crea tive</w>
Intel ligence</w>
p assive</w>
gh test</w>
ci vilians</w>
e dible</w>
N ow
gu ides</w>
decor ated</w>
asth ma</w>
happ ily</w>
lin er</w>
har sh</w>
an ic</w>
Z om
B ones</w>
electron ics</w>
dis on</w>
and is</w>
Qu it</w>
Main tenance</w>
Fri end
will ingness</w>
proxim ity</w>
int ers</w>
P am</w>
lay out</w>
d w
ban anas</w>
L ana</w>
E la
t ach
mir rors</w>
de z</w>
K now
8 th</w>
ver ses</w>
prud ential</w>
cen ters</w>
M ia</w>
Certific ate</w>
ó d
str ingent</w>
rela x
Ven ice</w>
τ ο
cr um
Appe al</w>
ou tra
com m</w>
was her</w>
do t</w>
differenti ated</w>
EA FR
ta res</w>
emo tion</w>
W ish</w>
Meas ure</w>
pre hen
p ut
environ ments</w>
Te acher</w>
Pro te
20 ,000</w>
sub way</w>
ail ing</w>
E mir
H all
GO ING</w>
Ad Brite</w>
he imer</w>
trans mit
Ken ne
pro tot
lo gs</w>
la sts</w>
Gu idance</w>
fin alised</w>
th or</w>
embry os</w>
comple ting</w>
aux iliary</w>
standardis ed</w>
l on</w>
et axel</w>
Han na</w>
vari ed</w>
integr ating</w>
id ate</w>
i P
bu reau</w>
accommo date</w>
Ra ther</w>
psychi at
journ alists</w>
ES CB</w>
Con c
Compan ies</w>
stu ffed</w>
car c
atten ding</w>
W ANT</w>
Pharmac o
FIR ST</w>
senten ces</w>
sel ls</w>
k it
ba thing</w>
Musli m</w>
Consi dering</w>
selec ting</w>
com posite</w>
Y o
Appro xim
&apos; you</w>
soci ally</w>
mar tial</w>
boun dary</w>
Mar ge</w>
Ar t.</w>
20 2</w>
le ans</w>
Indi ans</w>
the irs</w>
sub system</w>
so red</w>
retro viral</w>
particul ate</w>
EAFR D</w>
5 28</w>
. I</w>
skel etal</w>
pro of
num bered</w>
imp ly</w>
prolifer ation</w>
bre l</w>
Ke y
15 th</w>
le isure</w>
card board</w>
la zy</w>
go ats</w>
F all</w>
pre ference</w>
fore ig
198 1</w>
5 40</w>
str ates</w>
r he
in heritance</w>
eigh th</w>
e v</w>
author s</w>
U tili
spec imen</w>
protec ts</w>
haem orrha
enlar ged</w>
in form
do o</w>
5 6
de preci
accep ts</w>
Re form</w>
T rev
PC MA
PCMA G.
PCMAG. COM</w>
issu ance</w>
han dy</w>
α ρ
ast ery</w>
1 19
- Do</w>
read er</w>
Con ven
17 7</w>
attri but
N y
Inter ior</w>
Gra ham</w>
wor ms</w>
hel met</w>
fo ols</w>
Ob jection</w>
mil lim
Wall ace</w>
Va tican</w>
H ans</w>
sh outing</w>
on ary</w>
lu de</w>
el t</w>
Per man
N 1</w>
AP PL
7. 2</w>
identi fies</w>
se g
K il
Boy d</w>
preser ving</w>
U pper</w>
F EC
Ad ams</w>
thir ds</w>
ballo on</w>
sun light</w>
injur ious</w>
infec tious</w>
f rench</w>
d oms</w>
W is
Sch ul
Advoc ate</w>
explo de</w>
nic ely</w>
foresee able</w>
Sy rian</w>
rot ten</w>
k ow
cand les</w>
appro x</w>
my el
mo b</w>
Una void
sp ill</w>
hyper tensive</w>
En brel</w>
C ad
st ack</w>
emp ire</w>
13 08</w>
0. 0
z ens</w>
s its</w>
ancest ors</w>
vi er</w>
reci pes</w>
el der</w>
determin es</w>
cardi ovascular</w>
Lou ise</w>
H ab
G ol
i en</w>
mu ta
kid neys</w>
ee ds</w>
Mad ison</w>
iss ance</w>
b ump</w>
co venant</w>
Vir tual</w>
C Y</w>
ot ers</w>
M anny</w>
min ded</w>
ir relevant</w>
Ex pl
1 200</w>
min erals</w>
in timate</w>
evol ved</w>
cu red</w>
í a</w>
molec ular</w>
logi sts</w>
spe eds</w>
accid ental</w>
V eget
Im ports</w>
e h
La un
B oom</w>
At tor
26 58</w>
let te</w>
BA N
neg ligible</w>
mess enger</w>
equival ence</w>
earthqu ake</w>
ans as</w>
Qu anti
H ad
16 7</w>
ext ingu
bre thren</w>
Dri ving</w>
p ins</w>
ni ece</w>
Mot or
B ird</w>
3 02</w>
tor tured</w>
sh i</w>
re jo
-- saving</w>
small est</w>
Palest inian</w>
AI L
sh ot
per for
k y
download --saving</w>
L om
Hit Malware</w>
E x</w>
under gone</w>
ro ses</w>
ren ts</w>
proph ec
form ity</w>
R oo
x x
p neu
ogen ic</w>
comman ded</w>
bac on</w>
X i
Rom ans</w>
Con serv
whis key</w>
p p</w>
amm unition</w>
17 3</w>
15 3</w>
seiz ure</w>
char ter</w>
ST E</w>
Gra y
pro found</w>
diversi fication</w>
abo li
Rol l</w>
L ei
v id</w>
s have</w>
Unavoid ably</w>
Seven th</w>
mis sion
ho stages</w>
gra titude</w>
ere d
colo red</w>
ro pes</w>
pe dest
iv udine</w>
emp loy</w>
Pl ants</w>
Col in</w>
pip eline</w>
det on
at tain</w>
Do yle</w>
Be at
B order</w>
tom b</w>
ann ers</w>
Mechan ism</w>
Fr on
Da wn</w>
Cap acity</w>
innov ations</w>
distr acted</w>
d as</w>
tro phy</w>
proph et</w>
less er</w>
con sor
Qu ar
Di alogue</w>
- Let</w>
v ast
Smi th
mo le</w>
en ne</w>
Na omi</w>
sun set</w>
f ond</w>
Euro just</w>
Aut omatic</w>
tho do
pl ain
le mon</w>
cartri dges</w>
PO SI
ro limus</w>
p son</w>
og en</w>
D allas</w>
se gments</w>
F uel</w>
20 4</w>
ten ts</w>
any a</w>
T ABLE</w>
R ace</w>
zz o</w>
ic ious</w>
de er</w>
cle arer</w>
Dru gs</w>
dr un
F elix</w>
supp er</w>
kni ves</w>
SUBST ANCE</w>
PACK AGE</w>
Dal ma
v intage</w>
absur d</w>
Co R</w>
v aries</w>
ul in</w>
ri dge</w>
expec ts</w>
M T
Bun ker</w>
3 ,000</w>
stron gest</w>
go o
OU R</w>
ME MBER</w>
ump kin</w>
sh an</w>
pollut ants</w>
RE PUBLIC</w>
procee ds</w>
Rec on
D EN
C am</w>
Engine ering</w>
sa ith</w>
programm ed</w>
it age</w>
hall way</w>
Ka therine</w>
E IT</w>
AD DRE
substan tive</w>
he res</w>
par a</w>
di m
Har rison</w>
po et</w>
end less</w>
prom otes</w>
2 11</w>
Tur ner</w>
- lt</w>
lam b</w>
develop s</w>
com modities</w>
Stat ement</w>
din osa
att ach</w>
R Y</w>
6 4
l ene</w>
cat astro
ve al</w>
decreas es</w>
accel eration</w>
swe ep</w>
see kers</w>
ep ers</w>
ST OR
Ben ny</w>
u mab</w>
t ags</w>
ma ils</w>
- All</w>
photogra pher</w>
de hy
G one</w>
ry lic</w>
hom osex
en do
al loys</w>
Ex tra</w>
pre y</w>
p ud
ov ine</w>
organ ize</w>
ma ster
D L</w>
Be hind</w>
s lot</w>
hor ror</w>
butter fly</w>
l ounge</w>
ch ess</w>
st em
me ds</w>
S id</w>
C M</w>
ti tan
Reco very</w>
Bran don</w>
tremend ous</w>
restor ation</w>
N .</w>
Ini tial</w>
muta tis</w>
mut andis</w>
dis c</w>
Vol ume</w>
B ac
.ht m</w>
sil es</w>
fu me</w>
Stu art</w>
Fi xed</w>
Ba ker</w>
19 45</w>
por k</w>
Wor k
70 s</w>
c od</w>
Particip ation</w>
H EL
p ation</w>
im pregn
K ing
g ren
cy top
Arab ia</w>
dra fted</w>
TH INK</w>
15 1</w>
M ick</w>
ur t</w>
i onal</w>
ear nings</w>
IL O</w>
n.e. c</w>
Pre vious</w>
OP S</w>
Ch and
loc ating</w>
b ag
Mem orial</w>
Dra ft</w>
illi an</w>
sha dows</w>
Tra in</w>
Ad verse</w>
Re id</w>
Anci ent</w>
gen es</w>
dispens able</w>
che es
li tis</w>
glyca emic</w>
S ite</w>
M ummy</w>
sty les</w>
id o</w>
Z ach</w>
R IC
Me ans</w>
program s.</w>
cred itor</w>
tic als</w>
stra w
o ch
bankrupt cy</w>
Wy att</w>
Law rence</w>
I M</w>
8. 1</w>
ti fication</w>
em bedded</w>
Pen sion</w>
Un installation</w>
I i
AT M</w>
CC P</w>
B us</w>
p it
e i</w>
J um
&apos; VE</w>
ush es</w>
pen cil</w>
Adv anced</w>
Ac counting</w>
rec re
cur sed</w>
Vol un
0 7
re sting</w>
oc e
dro be</w>
dis man
S UCH</w>
Distri bution</w>
pres ti
bar gain</w>
NE W</w>
ch erry</w>
Ham burg</w>
under water</w>
B ath</w>
cell ular</w>
L earning</w>
Au to</w>
lab s</w>
challeng ed</w>
mono hydrate</w>
incorpor ation</w>
g inal</w>
comp act</w>
S cho
ur us</w>
res sively</w>
doub tedly</w>
mol lus
chur ches</w>
T S
Me an</w>
tri um
Rome o</w>
ü n
es h
Pow der</w>
sc ales</w>
pro be</w>
en force</w>
Pla za</w>
L ead</w>
Del ta</w>
z ia</w>
win ds</w>
op ing</w>
et ric</w>
archit ect</w>
to --</w>
kilogra ms</w>
j ar</w>
er ase</w>
Integr ation</w>
bo thered</w>
adhes ive</w>
Goo ds</w>
sym pathy</w>
forec lo
atten ing</w>
L AB
n ar</w>
l est</w>
l er
H ague</w>
v ascular</w>
st air
l ump</w>
inv en
in scri
in hibition</w>
cow boy</w>
O mar</w>
vacc inated</w>
cli ff</w>
Pat ty</w>
B lock</w>
B le
zom bie</w>
se ized</w>
sh out</w>
bub bles</w>
bl essings</w>
N am
3 a</w>
sk y
h iring</w>
er son</w>
L U
C RI
Attor ney</w>
pan cre
i as</w>
en ligh
Austr alian</w>
leg ality</w>
as ph
P REC
Industri es</w>
w ood
tex tiles</w>
sp her
man ners</w>
eg e</w>
a us
gi o</w>
fon t</w>
phi a</w>
denom inated</w>
[...]
