#version: 0.2
i s
e n</w>
t t
l l
t a
i n
t e
v a
i n</w>
k a
s t
i t
a n</w>
k s
e n
o n</w>
t u
k o
j a</w>
m a
o i
k u
k e
s i
ä ä
t i
a n
o l
s s
is t
e l
a l
e r
u u
u o
j o
v i
tt a
t ä
v ä
m i
is e
k i
e tt
a r
t o
s e
ll a</w>
ss a</w>
m u
r a
l a
n n
s a
ä n</w>
d en</w>
e t</w>
i k
t a</w>
m m
h d
ll e</w>
p a
st a</w>
r o
in en</w>
l i
u s
t y
ist a</w>
o p
it ä</w>
ks i</w>
m is
v o
k a</w>
va t</w>
tt ä
k ä
n i
ää n</w>
n e
j ä
ll ä</w>
j a
p u
r i
d e
i l
in u
ett ä</w>
is i
h e
@ -
@- @</w>
s a</w>
st i</w>
va l
e i</w>
o n
y h
u l
tt a</w>
ta r
h a
t oi
s ta
m en
te l
e i
mm e</w>
k o</w>
y ö
ka n
2 0
ks en</w>
t ä</w>
ss ä</w>
p i
u t</w>
l e
v a</w>
o s
ti e
ks e
ks i
p ä
ta an</w>
a i
i tt
s i</w>
j en</w>
v oi
s e</w>
p er
ä n
s o
al u
is en</w>
ist ä</w>
it y
k y
r e
l o
k in</w>
is sa</w>
kä y
p ää
ol e
st ä</w>
y y
uo t
i h
ta i</w>
o ll
it a</w>
m ise
tta a</w>
is i</w>
n ä
yh te
t ö
u ro
v uo
q uot
quot ;</w>
& quot;</w>
y t</w>
al a
s en
i den</w>
ku u
ko s
m in
m e
is uu
h y
j e
n o
n a
s ä</w>
ise sti</w>
m ä</w>
p o
s en</w>
m uu
ka u
k ä</w>
l u
v ä</w>
ol e</w>
vä t</w>
te tt
is ä
h o
m ä
v e
ma an</w>
mu ka
ta a</w>
a si
d o
it u
an o
ist en</w>
. .
h än</w>
20 0
sa a
is tu
uro op
T ä
m ää
s u
a an</w>
k i</w>
l ä
tu o
ol i</w>
ise t</w>
in ä</w>
ö n</w>
m yö
va n</w>
s y
a se
ll e
j oi
m inu
p ar
E uroop
d i
O l
v el
va r
n yt</w>
s inu
h u
mis si
p it
m er
t en</w>
ä ä</w>
tt e
val ti
J o
o vat</w>
ka a</w>
oi ke
s ää
i a</w>
m än</w>
kos ke
t ään</w>
Euroop an</w>
a a
va i
m inen</w>
i in</w>
pä i
ti k
ks et</w>
ke r
.. .</w>
p al
m o
ka ik
n e</w>
jä r
h i
u tu
s uu
te e
ku in</w>
tta va</w>
toi mi
it o
ar tik
h än
st en</w>
k in
ll a
ke s
o r
st u
E n</w>
ttä ä</w>
tä y
e d
ko h
m an</w>
s tel
v er
mää r
l uo
h uo
a in
ko hd
H än</w>
u vo
S e</w>
n ä</w>
op i
jär je
s uo
e si
tt el
ty ö
isi a</w>
jä sen
vä l
a u
jo ka</w>
en n
u n</w>
a ssa</w>
ka an</w>
ksi a</w>
u n
m p
mi e
E i</w>
te n
is ta
ol i
is sä</w>
päi vä
ki r
artik l
vo i</w>
i r
t ka</w>
u ra
m a</w>
h en
vi en</w>
ma a
va sta
va in</w>
20 1
la a
is te
d än</w>
M itä</w>
tt i</w>
ku n</w>
e e
opi mu
st o
ta lo
a a</w>
ta pa
li itt
ko missi
o h
jo tka</w>
de ll
is in</w>
te en</w>
mu tta</w>
mm ä
ne uvo
se kä</w>
myö s</w>
o sa
: n</w>
y r
j an</w>
j el
h ä
yhte is
ki l
k ke
t in</w>
vi i
ul u
tt ö
k en
per us
ni in</w>
tar ko
t i</w>
k ö</w>
k ti
j ä</w>
1 9
p an
ma r
s itä</w>
h alu
K a
u d
ase tu
hd o
s el
ol isi</w>
jäsen valti
K o
vi r
m ista</w>
o lla</w>
tt o
i lle</w>
in n
it se
isi in</w>
s opimu
v u
v in</w>
hy vä
i ka
tä ä</w>
jo h
r i</w>
d ä
a t</w>
a p
va a</w>
toi min
kse en</w>
& #
&# 9
oi den</w>
s isä
se ura
h an
u s</w>
va a
E U
u ni
p ro
ko r
järje stel
te h
st on</w>
kuu ta</w>
kan ssa</w>
ei den</w>
M i
u r
st ä
ku nn
m it
T i
y ks
mis en</w>
s in</w>
an n
jo s</w>
Tä mä</w>
te taan</w>
tu le
mi o
hd oll
Jo s</w>
artikl an</w>
al ta</w>
K u
k ka
tie to
p e
jä l
u a</w>
s ä
t ki
s te
ma hdoll
S i
ha ll
g i
el ä
ma n
m ään</w>
it i
m itä</w>
vai ku
pää tö
k kin
tu r
e h
Ol en</w>
si itä</w>
s ano
mise ksi</w>
t ko</w>
on in</w>
määr ä
an ta
tä män</w>
in a</w>
er i
N ä
p ol
va n
h te
er ity
ti la
mar kkin
m ma
l isä
liitt y
y hd
j u
ks y
ih in</w>
te r
va ll
kti i
p el
h in
jo n
n ut</w>
i en</w>
mi en</w>
d aan</w>
M u
k ö
p y
vi a</w>
p oi
kan sa
tett u</w>
op e
ku n
d a</w>
m ei
a al
h in</w>
t ka
h el
tarko i
te hd
tie do
an i</w>
seura a
n tö
h oi
d ä</w>
e hdo
muka an</w>
nn ö
e et</w>
t ää
ar vi
tu l
y n</w>
hyvä ksy
ano ma
oike u
pu ol
ö y
K i
ik ä</w>
ks en
m e</w>
E Y</w>
ka s
päivä nä</w>
tu tki
la men
kse ssa</w>
to te
t o</w>
0 0</w>
st y
e en</w>
l an
: o</w>
hän en</w>
kä si
kaik ki</w>
N :o</w>
h ar
us ta
19 9
ma ssa</w>
ku l
h e</w>
m istä</w>
ka t
mi el
ett el
i t</w>
yr ity
oh jel
s in
ko ko
ik ka</w>
tä mä</w>
pal vel
tt u
y le
m pä
va ra
ko l
p a</w>
o t</w>
val mis
oll ut</w>
nn e</w>
talo u
te ttava</w>
va h
en e
S a
uni onin</w>
ku i
mise en</w>
d en
e ssa</w>
ar vo
muka isesti</w>
kohd an</w>
vä li
re ktii
j ul
h tu
par lamen
ne et</w>
ma ks
nn a</w>
M inu
ei vät</w>
a s
tt e</w>
ll inen</w>
kes ku
te k
y ty
in o
ise en</w>
komissi on</w>
e ssä</w>
mi a</w>
ta n
ma a</w>
ai ka
m y
huo mio
ke en</w>
tt i
H y
it en</w>
s inä</w>
te tu
ap os
apos ;</w>
& apos;</w>
tu n
asi a
r ke
K y
e de
o ssa</w>
e t
in ti
a ja
käy ttö
tt ä</w>
ttä vä</w>
voi daan</w>
Ko missi
ka nn
V a
er r
l op
vaa ti
mise sta</w>
p ala
mm in</w>
ten kin</w>
e st
hen kil
tu nn
va sti</w>
J a</w>
tapa htu
T o
men pi
vä n</w>
tt u</w>
li i
tar ka
u jen</w>
di rektii
pu he
y l
te ke
vir anoma
ke a</w>
r u
s an
tt en</w>
ri i
ni iden</w>
T a
ai he
kan a</w>
M a
O n
E T
va pa
ko n
lle en</w>
mää ri
ta a
ke h
ta va</w>
tt ia</w>
ma lla</w>
he i
v uu
asetu ksen</w>
ky sy
pu ole
I S
H alu
E n
T u
men e
u se
j o</w>
joh ta
k ki
isi ä</w>
tää llä</w>
pit ä
s yy
tu lo
st o</w>
l ää
ra ho
tar vi
ll is
r yh
min ä</w>
neuvo ston</w>
jon ka</w>
jäl keen</w>
si tten</w>
se lla
O le
vah v
la s
vaiku tu
tä rke
m uo
l ä</w>
ja t</w>
e s
tta vat</w>
ol en</w>
mer ki
o in</w>
ol et</w>
1 .
ky se
mit ään</w>
ku ulu
pro sen
uu n</w>
s ala
an ne
en i</w>
tutki mu
k ään</w>
minu a</w>
V i
r is
it us
huomio on</w>
te ll
p yy
enn en</w>
M inä</w>
3 ;</w>
&#9 3;</w>
ka a
1 ;</w>
&#9 1;</w>
nn i
k u</w>
ta n</w>
sa a</w>
pit ää</w>
toi menpi
en a</w>
i m
va an</w>
mie s</w>
li ik
te tään</w>
nn e
la in
vä ä</w>
i lla</w>
el ä</w>
sinu a</w>
tule e</w>
yhteis ön</w>
ker to
r ist
ku lu
u tta
so ve
tar jo
hy vin</w>
h an</w>
A r
henkil ö
A n
sopimu ksen</w>
ito s</w>
ää n
t e</w>
al oi
m yy
vi ä</w>
si a</w>
kos ka</w>
koh ta</w>
m oi
lä he
EU :n</w>
On ko</w>
en si
än i</w>
k ko
isuu den</w>
Mu tta</w>
y s
joi den</w>
kohd assa</w>
mp i</w>
pol iti
an ut</w>
nä y
r an
sää nnö
isuu s</w>
n u
men ettel
per u
vi elä</w>
so vel
si ir
tar v
ki en</w>
Ti ed
1 0</w>
hän et</w>
ss a
d a
ty y</w>
vuo den</w>
kat so
ku ten</w>
sisä l
e dell
r in</w>
te et</w>
ra ha
ö n
pa ika
it se</w>
dä t</w>
g el
pu hu
y mpä
tt y
l öy
tä ntö
j an
tehd ä</w>
teh tä
T ul
a sti</w>
minu n</w>
e pä
ksi in</w>
se en</w>
sta an</w>
O n</w>
m i</w>
ta va
ksi ä</w>
N iin</w>
E U</w>
Ä lä</w>
val vo
yhte y
j ien</w>
h ti
mi te
si l
ta voi
talo us
ist y
ma t</w>
va ih
ett ä
e llä</w>
ol o
jo ita</w>
1 0
hä ne
sove lle
e ll
arvi o
te ho
tä ssä</w>
jo ta
N e
kä ä</w>
mi l
os alta</w>
tur vall
pa a</w>
j uu
L i
P u
sta a</w>
erity isesti</w>
p oli
h yö
il ma
vaati mu
l in
an taa</w>
V o
R a
ih en</w>
ik ko
S e
jo ssa</w>
uu l
ki in
d y
E N</w>
ti in</w>
o ttaa</w>
ty y
käy ttä
ul ko
T ar
tä tä</w>
artikl a</w>
i s</w>
j on</w>
T e
st ö
o a</w>
ett u</w>
te ki
n i</w>
si llä</w>
ist ä
m on
ett e</w>
var mis
Mi ksi</w>
o ita</w>
ett a</w>
i ä</w>
tt eiden</w>
u ja</w>
muu to
ja t
ist yö
Ka ik
ks ista</w>
tu s</w>
la us
H ei</w>
ll isen</w>
ka i
komissi o</w>
keh ity
el in
n ta
ma in
kui tenkin</w>
ko ko</w>
alu ee
on gel
sinu n</w>
ki a</w>
täy täntö
os oi
V al
il moi
si ihen</w>
osa ll
K un</w>
M ei
vuo nna</w>
m pi
ka la
po r
mer k
2 .
parlamen tin</w>
ttel e
o ma
ku sta
P i
in i</w>
ensi mmä
kau p
ta ka
kir ja
V L</w>
te i
hän tä</w>
p pu
J ä
K ä
per i
mm än</w>
ra u
2 0</w>
a sta</w>
ku ul
pal jon</w>
t on</w>
st i
ka l
il u
ma tta</w>
p uu
er i</w>
var ten</w>
j ää
S inu
o tta
mmä r
N i
in ä
ole van</w>
jo tta</w>
yhte istyö
vuo ksi</w>
kse sta</w>
t kö</w>
to de
Ki itos</w>
tu s
tie dä</w>
r in
il man</w>
t y</w>
H e</w>
Ol et</w>
tapa u
pa in
ise ssa</w>
jäsenvalti oiden</w>
val ta
E t</w>
M iten</w>
ke hi
kil pa
minu lle</w>
ympä rist
so si
H a
p p
joi tta
ud a
sää d
vi ra
h er
I I
e uro
y ttä
uu de
v ista</w>
te tta
n y
is taa</w>
itu s</w>
osall istu
lä h
ll oin</w>
to d
nni tel
is a</w>
si en</w>
hall in
al o
koh ta
ra ken
ra tka
a s</w>
n a</w>
e ikä</w>
ai kana</w>
tu ksen</w>
tar k
la p
tett iin</w>
minu t</w>
o do
st us
sinu lle</w>
ksi en</w>
joi lla</w>
vasta a
asi an
jota in</w>
e mme</w>
tek n
ko mite
kysy my
koske vat</w>
ra s
al i
it e</w>
y li
kan sala
ta p
ih mis
t s
pitä isi</w>
ter ve
va li
b i
a lle</w>
L isä
tee ksi</w>
an no
prosen ttia</w>
v i</w>
ain a</w>
l en
määr ä</w>
kansa ll
ki el
I n
sovel ta
en sä</w>
voi vat</w>
v in
ka r
ett y
tt iin</w>
no uda
per ä
un a</w>
jul k
M ikä</w>
vii me
ise sta</w>
us ko
sosi aal
ist o
ik a</w>
ke l
isuu tta</w>
mä t</w>
ko ul
myö n
4 .
y ksi</w>
en er
hy vä</w>
a lla</w>
it ä
ka n</w>
e tu
o nn
al an</w>
to jen</w>
Komissi o</w>
va st
ti lan
täytäntö ön
T A
to a</w>
u sta</w>
Tä ssä</w>
ll isesti</w>
perus tee
isi lle</w>
sa i
uu d
y stä
L u
ul o
mei dän</w>
Hy vä</w>
koko na
T oi
a su
ma tto
ik ö</w>
i li
J u
tett y</w>
err a</w>
va ro
a jan</w>
ks issa</w>
kau tta</w>
ika n</w>
P a
l is
m in</w>
m en</w>
M ar
r ä
in väl
ti a</w>
a vu
vi in</w>
1 2</w>
sinu t</w>
käy te
mi kä</w>
aa ti
ni itä</w>
voi ma
tote u
3 .
poi s</w>
tu n</w>
ttä in</w>
tel e
kes ki
tte et</w>
ss aan</w>
va sta</w>
p ano
tt anut</w>
si ja
Ky llä</w>
J a
L a
ta sa
f i
talou dell
l ta</w>
ta so
v ää
toimin ta
mi in</w>
o ta</w>
halu a
j en
ll i
s is
de ssä</w>
tiedo t</w>
Kaik ki</w>
de sta</w>
te itä</w>
huo ma
mi ä</w>
en t
u h
ra a
ja a</w>
isuu s
direktii vin</w>
hd e
to ja</w>
va ssa</w>
5 0</w>
tu u
d in</w>
ka ksi</w>
mo ni
perus ta
1 5</w>
mit en</w>
en ää</w>
par e
Ole tko</w>
in ka</w>
200 6</w>
koske van</w>
k e</w>
v en
ne en</w>
mm an</w>
in g
a jo
i v
n ope
h al
T E
käy ttää</w>
ra k
en johta
Ar vo
e s</w>
suu nnitel
he t
t u</w>
nn ön</w>
r y
pu n
Y hd
ise ksi</w>
3 0</w>
po tila
ko i
t in
.. ..
perustee lla</w>
V oi
tte en</w>
tä stä</w>
R o
N yt</w>
u ksen</w>
ett ei</w>
ti t</w>
kusta nn
ko o
s si
ny ky
la itt
me t
tä nne</w>
täy tyy</w>
S en</w>
yhteis ö
a m
l tä</w>
sä h
n el
M en
K os
ar a
Komissi on</w>
su h
i llä</w>
y mmär
M uu
yks ity
k ko</w>
ta i
markkin oi
de ssa</w>
I N
artik la
la i
A l
h a</w>
kunn an</w>
yl i</w>
nä in</w>
peru stu
kansa inväl
kehi ttä
to n
mu r
ener gi
menettel y
o sta</w>
it ko</w>
d on</w>
1 1</w>
ri a</w>
to r
is ista</w>
L ä
r an</w>
no in</w>
ll ä
S el
taka isin</w>
jo ta</w>
Halu a
ra te
m mi
hei dän</w>
val mi
nä kö
koul utu
si inä</w>
V A
vuo tta</w>
o issa</w>
h den</w>
a ika</w>
Ne uvo
Halu an</w>
jo issa</w>
ku u</w>
mise stä</w>
va kuu
Ti e
peri aa
saa vu
sy n
ma an
kesku stel
P ar
a staan</w>
ha i
ma sta</w>
pi en
s oi
liitt ee
Tä män</w>
muo do
yle is
j ö
käy tä
käy tö
itu ksen</w>
ene mmän</w>
vä sti</w>
saa da</w>
200 7</w>
väl in
ise lla</w>
is sa
suo jel
tä lla
vo in</w>
mä llä</w>
6 .
K an
A i
poli itt
ja ks
mio istu
S uo
ke mu
vasta an</w>
te iden</w>
u ksia</w>
ole mme</w>
os uu
kse lla</w>
tä hän</w>
ma al
raho itus
ho ito
u kset</w>
v on</w>
ise lle</w>
g e
Arvo isa</w>
Minu n</w>
ll aan</w>
mil jo
K O
asetu s</w>
vä hen
S inä</w>
E h
a pu
k ku
Minu lla</w>
oli vat</w>
el ta</w>
saa ta
mis sä</w>
ma iden</w>
o sa</w>
i me
tta maan</w>
maa il
d i</w>
ai kaa</w>
isi t</w>
kor ke
is yy
ain e
H än
puhe mies</w>
työ n
si is</w>
ympärist ö
Y hte
toi m
200 8</w>
yhtey dessä</w>
kau den</w>
kes ke
in ti</w>
e uroop
P ää
it i</w>
si ellä</w>
us i</w>
200 4</w>
mu iden</w>
ise ssä</w>
E Y
er o
tte ita</w>
juu ri</w>
mma t</w>
is en
d et</w>
E uro
väli llä</w>
n an</w>
la ito
ol tava</w>
an a</w>
suo ri
järjestel män</w>
m b
vuo ro
g a
ik ä
mä ä</w>
Kos ka</w>
tieto ja</w>
Tied än</w>
muu t</w>
ehdo tu
suu r
jul ka
o o
häne lle</w>
miljo on
1 2
200 9</w>
mie h
tie tää</w>
il ta</w>
in f
euroop pala
jo lla</w>
it si</w>
kuu n</w>
ett i</w>
st rate
kos kaan</w>
ha a
luo nn
tt ö</w>
tarko itu
avu lla</w>
puhe enjohta
Mei dän</w>
ann ettu</w>
M issä</w>
on i</w>
R e
halu a</w>
ik o</w>
Eh kä</w>
ksen a</w>
y ttää</w>
el i</w>
k ää
markkin a
kau pun
d e</w>
y ri
Ku ka</w>
liittee ssä</w>
d in
il e
is tel
T uo
An teeksi</w>
K uu
te ttävä</w>
ll ut</w>
EU VL</w>
jo ulu
säh kö
llis yy
l y
ma l
ett iin</w>
K S
200 5</w>
s on</w>
rii ppu
tarkoi tetu
v issä</w>
puole sta</w>
k on</w>
ti l
kuu ssa</w>
1 7
ain o
vast uu
0 00</w>
pu hel
ll isten</w>
ll ista</w>
a mma
5 .
yks ik
hyö dy
e seen</w>
P A
p yr
sää ntö
el i
tar pe
r o</w>
pa ino
po h
lop u
I T
käyttö ön</w>
ty t</w>
jo u
ka p
E mme</w>
g an
1 4</w>
1 3</w>
s yö
tett ujen</w>
si t</w>
ll iset</w>
tu o</w>
m g</w>
vi lle</w>
lä hte
200 3</w>
ta t</w>
va ka
yhd essä</w>
tt ua</w>
k ka</w>
Ole mme</w>
nä mä</w>
ed usta
te oll
l i</w>
käyte ttä
ty ä</w>
200 0</w>
Tied ä
hu ol
ker ta
han kke
r uo
vi l
sovelle taan</w>
al ka
sano i</w>
201 3</w>
t su
V ä
n uo
oike us
v issa</w>
o si
v o</w>
a g
mm en
al ku
kul je
ku va
tuo tta
ma sti</w>
V uo
m el
tä llä</w>
2 5</w>
k iste
merki ksi</w>
Lisä ksi</w>
en na
py sy
asi assa</w>
artikla ssa</w>
mis ta
n tel
au to
o lle</w>
käsi ttel
s ito
ma tka
j än</w>
men nä</w>
muu ta</w>
an s
n ään</w>
is ena</w>
täytäntöön pano
ra por
ka s</w>
palvel u
itse e</w>
I I</w>
laa ti
sai ra
sä il
P o
in no
au ttaa</w>
ai ko
de tään</w>
eri ttäin</w>
terve y
ku ole
e sta</w>
d u
N e</w>
mene tel
st oi
vai ke
V ar
1 8
sinu lla</w>
Sinu n</w>
N a
te lla</w>
mm e
ko ro
1 6</w>
vaih to
mahdoll isuu
S aa
elä in
mu ita</w>
ala lla</w>
el e
v yy
ksen i</w>
tieto jen</w>
ET Y</w>
u ttaa</w>
en i
mä ssä</w>
tta in</w>
tode lla</w>
ede lleen</w>
päätö ksen</w>
201 0</w>
a va
is u
lisä ksi</w>
tote utta
hin tään</w>
ma t
yh ti
va ikka</w>
ise stä</w>
n ti
o on</w>
200 2</w>
k ri
tu lla</w>
merki ttä
H ä
k ki</w>
it u</w>
jo hd
Vo i</w>
että vä</w>
tie d
jä sen</w>
L e
m än
inu t</w>
1 8</w>
en ne
ver o
suu re
tu ke
ty n</w>
la u
asi a</w>
j uo
tu u</w>
vi lla</w>
b a
201 1</w>
rak enn
yh ä</w>
A nna</w>
toimi a</w>
ri t</w>
tuo mioistu
1 3
p ä</w>
sa man
hall inn
ja a
talou den</w>
isi vat</w>
hel po
hu ole
in te
kor va
vä hintään</w>
s pan
tett y
asia kir
li in
ttä mä
R i
tarka stu
is o
ik kaa</w>
nn en</w>
ke stä
teki jö
sisä ll
va i</w>
ed istä
s ul
vi est
edell yty
nn on</w>
vä hän</w>
200 1</w>
lain sää
tuo tan
M e</w>
len to
S an
euro a</w>
el tä</w>
politi ikan</w>
ää ne
pro se
ttel i
t ö</w>
ri ko
Nä in</w>
jo ten</w>
ja lla</w>
r uu
koske va</w>
h uu
i te
koske vien</w>
tava lla</w>
mp pan
im en</w>
las ke
P er
L uo
0 0
Jä sen
tta essa</w>
liitty vät</w>
el o
tärke ää</w>
merk ity
aino astaan</w>
muu tta
N o</w>
h ta
c k</w>
H e
ko ti
ko ne
yhd en
vi e
to inen</w>
esi ttä
f f
I l
v un</w>
K e
suo ra
pit o
kes ä
tarka stel
201 2</w>
t ro
m ist
lää kä
ede s</w>
c h
päätö s</w>
vai he
y s</w>
lii an</w>
suu nn
te tta</w>
kaik en</w>
ky llä</w>
taa s</w>
yrity sten</w>
ra ka
il tä</w>
ni me
nn ut</w>
er a
oike in</w>
Sel vä</w>
sel vi
o ista</w>
E R
i ri
aluee lla</w>
H i
ei lla</w>
mise t</w>
men ne
D i
b o
kann a
tar p
an eet</w>
pa ko
alu een</w>
esi merkiksi</w>
ll ani</w>
ett y</w>
alu e
sano a</w>
201 4</w>
valti oiden</w>
ett o
laus u
än yt</w>
si lle</w>
iste taan</w>
kaik kien</w>
si vu
S u
uu den</w>
yh tä</w>
0 ,
anne tun</w>
lainsää dä
O do
1 7</w>
ol a
nä h
täy sin</w>
p öy
päivä n</w>
tä nään</w>
T O
min iste
kulu tta
k ra
ku tsu
tul i</w>
yhte en
markkin oiden</w>
Y r
ki inn
e te
ö l
tu kea</w>
E ikö</w>
käy tetään</w>
an al
yksity is
oi hin</w>
ik ka
kse ssä</w>
e l</w>
d an</w>
199 9</w>
s ken
i ke
A S
lii ke
ker ran</w>
an sa</w>
E T</w>
o ni
kilpa ilu
ten kaan</w>
vuo si
A se
ki i
ku mppan
in ve
r ö
käy nn
o u
huo ne
poi kke
suu nta
r a</w>
jo itu
ist ää</w>
nu mer
s opi
En tä</w>
nä hd
teke e</w>
I s
nä iden</w>
to is
kerto mu
ti en</w>
os i</w>
ohjel man</w>
K es
k kau
s iten</w>
suo si
EY VL</w>
Tul e</w>
ta l
M e
en sa</w>
kui tenkaan</w>
maks u
ta mme</w>
y ksi
c e</w>
neuvo sto</w>
kunn i
par anta
tapau ksessa</w>
kä s
mi ksi</w>
c o
py sty
pa an</w>
re kiste
2 1</w>
arvi oi
R O
sääd än
T yö
ä i
vo isi</w>
inn in</w>
elin tarvi
ss i</w>
tta mista</w>
kokona is
m paa</w>
ka i</w>
erity is
kun ta</w>
te ri
vel voi
1 00</w>
tavoi tte
4 0</w>
viranoma isten</w>
halu at</w>
pa hoi
d ar
L uul
ll isia</w>
Hän en</w>
komite an</w>
tt y</w>
kann alta</w>
ään ty
to i</w>
toimin nan</w>
in kerta
lop pu
ti etty
onn istu
u ko
voi t</w>
jo ku</w>
j ar
H el
H uo
kunn ossa</w>
ei lle</w>
valti on</w>
rii ttä
ole vien</w>
kun ing
kol me</w>
perusta mis
Ka ts
h erra</w>
l ope
T I
it in</w>
pel a
katso o</w>
tu t</w>
2 4</w>
tarjo a
jat ku
teh nyt</w>
lää ke
saa ttaa</w>
tarp ee
ar i
jäsenvalti on</w>
tun te
vuu s</w>
ha va
uu si
H erra</w>
i vät</w>
Kä y
ku inka</w>
gi an</w>
tee ssa</w>
taso lla</w>
järjestel mä</w>
määri tel
teh ty</w>
hu i
C o
kilpa il
tark istu
in tään</w>
e ss
1 5
st ään</w>
lain säädän
ol in</w>
os u
eh kä</w>
p pi
ist i</w>
ni mi
j ia</w>
il mo
kai ki
van a</w>
ystä vä
itt en</w>
201 6</w>
e e</w>
vall an</w>
mmä is
in i
tö n</w>
miljoon aa</w>
U S
ta ulu
M istä</w>
valvo nta
na sta</w>
tuo tteiden</w>
te ille</w>
osa puol
yh den</w>
seuraa vasti</w>
se ur
tta minen</w>
g ia</w>
me itä</w>
het ke
1 9</w>
a kin</w>
1 6
koske e</w>
tu ki
ist ö
a si</w>
tarv itse</w>
jo ista</w>
K or
jäl je
mpi a</w>
tied on
inve sto
li t</w>
isi lla</w>
eri la
g in</w>
uud istu
an ko</w>
min a
mi tta
puhu a</w>
ver kko
an ne</w>
k en</w>
j ille</w>
per he
joulu kuuta</w>
1 ,
e lle</w>
sta n
ni istä</w>
e stä</w>
vahv ista
A u
s o</w>
asian muka
o man</w>
mä stä</w>
M aa
tu on
st e</w>
raho itu
val ta</w>
E S
toimi valta
tä vät</w>
Tu o</w>
S itten</w>
M IS
E N
a l</w>
ko ssa</w>
1 4
kuulu u</w>
syn ty
is taan</w>
de mo
lää kke
määrä y
v it
lle en
E K
pit kä
ai e
ulo s</w>
H o
tt or
oike ud
kol ma
2 2</w>
7 .
vali o
an tu
isi mme</w>
men i</w>
il o
to dell
in ta</w>
miel tä</w>
sta n</w>
pää stö
v y
kir joi
k ro
it ään</w>
pa s
v ään</w>
nä ke
halu aa</w>
itt el
or gan
T ur
suo ja
st in</w>
na t</w>
mei lle</w>
to isen</w>
nä ky
tetu t</w>
ktii v
pä in</w>
ker ro
K err
r en
tt uu
3 1</w>
uude lleen</w>
ai kaan</w>
ttä vät</w>
en intään</w>
no r
Si inä</w>
kä r
uu si</w>
mise ssa</w>
mene e</w>
va hin
päivä ä</w>
teho kka
ta li
te istä</w>
he ti</w>
a vi
P al
ti on</w>
nähd ä</w>
halu an</w>
tarpe en</w>
u sten</w>
tekn olo
ton ta</w>
toi vo
a mp
päi vä</w>
tta van</w>
kal ta
ku r
pää stä</w>
A N
ik en
H ar
di a</w>
ky se</w>
in in</w>
ett e
puole lla</w>
jo ka
tie tee
to on</w>
tule va
Nä mä</w>
tett ua</w>
o pa
Euroop pa</w>
itt e
ta kin</w>
liik ku
M in
ker taa</w>
tett uja</w>
hen g
T er
itt y
d el
A L
näy ttää</w>
S o
mahdoll ista</w>
varmis ta
3 0
a t
ss in</w>
pahoi llani</w>
al e
hd e</w>
myö nn
vel vo
o tetaan</w>
muu n</w>
tuo ta
vii me</w>
s ol
Ku inka</w>
H u
l ei
Mei llä</w>
ar vo</w>
kiinn i</w>
p i</w>
n sä</w>
a mme</w>
Kats o</w>
pi an</w>
jäsenvalti oissa</w>
joi hin</w>
k to
Ku ten</w>
k kuu
esi in
asi aa</w>
M on
laa jen
ti iv
tehtä vä</w>
jä t</w>
j i
pa ikka</w>
käsi ttele
han sa</w>
.... ....
ver ta
is issa</w>
ta mmi
lu ettel
turvall isuus
lisä ä</w>
ai van</w>
pi d
V ai
os an</w>
Ä Ä
Ka t
S uu
har joitta
tt una</w>
2 3</w>
oikeu dell
var masti</w>
U s
ta kia</w>
tta vaa</w>
su ku
r ei
on ko</w>
tta vasti</w>
l uul
myön tä
h to
Nä y
ko ulu
ratka is
201 5</w>
t kin</w>
jä ä</w>
he itä</w>
it sen
st ää</w>
Sa ks
ka h
va ar
ma ll
tapahtu i</w>
sy r
K au
ta b
st uo
toimenpi teet</w>
p yö
ky ky
P el
tul isi</w>
vä hi
Ju mal
öl j
asi anoma
komissi olle</w>
S itä</w>
isen ä</w>
neuvo sto
e r</w>
pu h
neuvo ttel
oi lle</w>
tu sta</w>
he inä
de lla</w>
R ans
si lloin</w>
valmis ta
II I</w>
a sen
asi an</w>
minu lla</w>
B ry
mei llä</w>
vaatimu kset</w>
os in</w>
ka hde
na u
et si
1 2.
E r
oi t</w>
jäsenvalti ot</w>
pu r
kerto a</w>
maal is
y llä
st ru
ne u
ole massa</w>
pi ir
op pi
v ity
ko tiin</w>
palvel ujen</w>
koske via</w>
aihe utu
lo ka
a b
ky l
c i
osuu s</w>
vuo ti
myö he
alu eiden</w>
tapahtu u</w>
J A</w>
ik in</w>
di o
itt u</w>
lu kien</w>
Va ikka</w>
yy n</w>
ha kemu
ky mmen
joh on</w>
puol u
oll en</w>
ss el
e stä
suora an</w>
pa per
er ä
tehd yn</w>
tte ko</w>
pää tty
sisäl tää</w>
vä ksi</w>
to den
lu e
v istä</w>
vapa u
organ is
kse si</w>
min uu
eh to
L o
vaiku ttaa</w>
l yh
6 0</w>
pi dä
työ llisyy
ol ette</w>
l uu
kyse isen</w>
ha a</w>
m et</w>
is in
perustamis sopimuksen</w>
lainsäädän tö
la inen</w>
K ol
hi en
an i
v e</w>
kul ttuu
ka ver
te ki</w>
Se ura
var ma</w>
ta hansa</w>
Y ksi</w>
m ole
O N</w>
ksi lle</w>
2 8</w>
E hdo
kap pal
mie t
mo o
kaa su
is ti
nn an</w>
T Ä
it än</w>
toimin taa</w>
lo u
k y</w>
kol man
tetu n</w>
a voi
B o
ensimmä isen</w>
kas va
jo utu
s er
ta isiin</w>
mis sa</w>
I M
d oll
so vi
no jalla</w>
tan a</w>
laa tu
lähe sty
tei dän</w>
järje stö
ki in</w>
amp ;</w>
& amp;</w>
kor ja
tieto a</w>
lu ku
ist u</w>
je kti
lis ää
väl ttämä
E tkö</w>
yhti ö
vuu den</w>
h il
E t
inti a</w>
C ar
päätö s
täytäntöön pan
hi e
ki ä</w>
tu en</w>
par ha
oike us</w>
S ano
stan dar
ko on</w>
sinu sta</w>
miet inn
kaik kia</w>
g o
8 0</w>
ni mi</w>
9 .
työ sken
T ää
ri en</w>
suo s
to tta</w>
vi en
vasta a</w>
uu tta</w>
D e
sopimu s</w>
Yhd ys
vi h
ko ke
T ei
kse stä</w>
tul e</w>
voi da</w>
voi mme</w>
k kaa</w>
pi dä</w>
ole va</w>
ll ään</w>
toimin ta</w>
ala kohdan</w>
alku perä
muu ta
nn in</w>
e si</w>
uu sia</w>
yks inkerta
9 8</w>
järje sty
sosiaal i
Si ksi</w>
p re
Yhd isty
tyy pp
a jan
ta var
sin ne</w>
nope asti</w>
Halua tko</w>
mpä nä</w>
ise llä</w>
tiedo sto
anne taan</w>
y ä</w>
vuu tta</w>
si ksi</w>
mu kana</w>
de llä</w>
va u
K er
mä ttä</w>
han kin
tie ty
yhteisö jen</w>
tarkoi ttaa</w>
f er
est äni</w>
ve si
vi ik
yhden muka
r ä</w>
tur va
maail man
suu ri</w>
a vat</w>
Ol in</w>
tt o</w>
itt i</w>
is s
laa ju
ty h
siir ty
m isten</w>
ke ho
vil jel
el in</w>
nouda tta
menne ssä</w>
S y
ku t</w>
lainsäädä nnön</w>
l ann
en ä
M yö
tt aneet</w>
se t</w>
to si
pöy tä
Kan sa
ke ä</w>
ka hden</w>
H en
mm a</w>
toimenpi teitä</w>
minu sta</w>
so r
u no
hei dät</w>
kä y</w>
markkinoi lla</w>
ain eiden</w>
op u
uni on
jo sta</w>
sa malla</w>
ti laa
E L
Yhte is
ne iden</w>
ma ton</w>
Y le
sa anut</w>
j al
nä itä</w>
Neuvo sto</w>
viranoma iset</w>
Ni in
2 6</w>
it o</w>
A si
itu n</w>
ha us
markkinoi lle</w>
vaikutu ksia</w>
sää ntel
f o
va lla</w>
T U
m o</w>
to uko
voi maan</w>
ki er
kse llä</w>
kesä kuuta</w>
tä vä</w>
ku s</w>
ma la
ra hoi
ih an</w>
ud u
mar ras
b er
O ike
ja lle</w>
käy ttö</w>
sto jen</w>
m pa
ed isty
vapa a
kiin no
e ita</w>
pu oli
mei dät</w>
K uul
vä he
ala kohdassa</w>
kuu kauden</w>
sa maa</w>
Hä ne
yhteistyö tä</w>
ku ka</w>
o tettava</w>
syy s
Neuvo ston</w>
sa i</w>
hallin to
k kaan</w>
i mme</w>
2 9</w>
tell ään</w>
jo pa</w>
2 7</w>
ko or
ole vat</w>
8 .
ryh män</w>
tek ni
ta u
T A</w>
tu ho
te llä</w>
hu n</w>
tarkoi tettu</w>
ttö myy
parlamen tti</w>
ik ku
ti on
tu llut</w>
su r
asi oita</w>
t ol
näh nyt</w>
N o
seuraa vat</w>
s ke
käyttö ä</w>
kaup an</w>
o mina
9 0</w>
muu ttu
I r
Men e</w>
Ai van</w>
ma issa</w>
stu u</w>
laus un
osu hte
en s
kel po
energi a
ista n</w>
ni a</w>
ttä nyt</w>
tarv itse
va ksi</w>
kuul e
i vat</w>
kau pa
d y</w>
valmi s</w>
oikeu ksien</w>
asetu ksessa</w>
oh ja
Tä tä</w>
vasta ano
voi taisiin</w>
T eh
te li
aihe utta
E si
i ksi</w>
M o
liik ke
is ke
su hte
use in</w>
koh taan</w>
ä t</w>
ity s
isi mman</w>
ko kemu
myöhe mmin</w>
in kin</w>
9 6</w>
lla kin</w>
kiin ni
Ti la
isuu dessa</w>
kir jan</w>
raha a</w>
hoi ta
t ri
ra joi
toim et</w>
te e</w>
ka sta</w>
k is
ke ll
t issa</w>
mu s</w>
g ra
määr än</w>
ks .</w>
M A
na inen</w>
ki t</w>
ver ra
kaik issa</w>
velvo ll
ei hin</w>
lop p
n tä</w>
le hd
t is
nel jä
K ir
ra ja
lle si</w>
e ste
iste ttava</w>
re a
e lla</w>
mi lle</w>
poi ka</w>
ol osuhte
L U
ss ani</w>
ty nyt</w>
luo n
la h
kke iden</w>
hu ll
os o
pit i</w>
tä n</w>
ta vara
varmis taa</w>
keh itty
a ll
en ä</w>
työn tekijö
ET S
tta miseksi</w>
ta son</w>
B ar
mer kin
kau an</w>
hu hti
tel u
ä si</w>
199 8</w>
Y mmär
le ik
A f
is ä</w>
kaup pa
isuu teen</w>
ede llä</w>
V er
tta kaa</w>
tee seen</w>
P yy
hoi don</w>
anal yy
l e</w>
mieh en</w>
hetke llä</w>
tää ltä</w>
sa ll
sääd ö
tt ien</w>
ongel mia</w>
Ol e</w>
Tää llä</w>
esi ttää</w>
ajo neuvo
I tali
un ut</w>
tärke ä</w>
st ön</w>
sa ar
u va</w>
liik en
koske vista</w>
ensimmä inen</w>
Euro opa
tun ti
Kat so
mahdoll isimman</w>
o nne
de ksi</w>
i ko
P y
laa d
O S
työ tä</w>
toimi tta
ol ta</w>
vo inut</w>
7 0</w>
täy dell
maa t</w>
kuning as
ti lin
laus el
yhte nä
H ei
ta ll
H er
yhte isen</w>
toi hin</w>
9 5</w>
e c
va lla
g en
g e</w>
A ja
si e
I h
us in</w>
s ar
myy nti
valvo n
oll eet</w>
oike assa</w>
m l</w>
pit änyt</w>
ongel ma</w>
varo jen</w>
min kä</w>
kaiki lle</w>
a lle
vuo s
n tä
EU :
o f</w>
h jel
ni ihin</w>
direktii vi</w>
mu ista</w>
ta vall
kesku s</w>
ratka ise
po ista
toi me
il en</w>
2 ,
apu a</w>
y stä</w>
muu ttaa</w>
vahv is
vähen tä
jo jen</w>
toimi en</w>
N or
oh je
ann a</w>
us taa</w>
oi lla</w>
sa an</w>
Kerr o</w>
ih miset</w>
hie man</w>
tä nä</w>
V enä
H an
di t</w>
kansall isten</w>
kuulu vat</w>
yksityis kohta
sis ään</w>
si mme</w>
komite a</w>
si vat</w>
Jäsen valtioiden</w>
ko lle
vaikutu s</w>
al a</w>
kse lle</w>
ity s</w>
is istä</w>
na ssa</w>
oikeu den</w>
vi er
tammi kuuta</w>
a ktiiv
yle ensä</w>
menettel yn</w>
olo g
3 2</w>
im et</w>
op er
koko u
van sa</w>
ik kaan</w>
tu t
ku kaan</w>
maa tt
kehity s
saa t</w>
tett una</w>
ke in</w>
ke mi
ett i
ala an</w>
hai tta
eh kä
p en
t ;</w>
ssa si</w>
R A
alka en</w>
am pu
asia sta</w>
p in
maa ilman</w>
ja an</w>
istu s</w>
ver ko
sovelta mis
Va in</w>
us ko</w>
ttö mä
käsi tel
otta en</w>
tta vien</w>
ll istä</w>
M enn
pä ä</w>
tapau ksissa</w>
pa a
tarvi ttaessa</w>
sel ke
an to</w>
ju ttu</w>
tilan ne</w>
tarvi taan</w>
En si
itt e</w>
joh tu
isuu desta</w>
he ille</w>
liitty y</w>
käytö n</w>
EU RO
va ara
stu s</w>
lä mp
it kö</w>
ul ta</w>
use ita</w>
tta via</w>
jan a</w>
k raa
in an</w>
kke en</w>
kesku span
odo ttaa</w>
u mu
al i</w>
ju h
r än</w>
ka t</w>
kysymy s</w>
an si
voi massa</w>
liitty viä</w>
u ssa</w>
isi ja
pare mmin</w>
tehd ään</w>
o sta
S I
U ni
F ran
f or
it y</w>
O L
Tä stä</w>
vi ttä
j alta</w>
strate gi
toden näkö
r ikko
to si</w>
ohjel ma</w>
puu ttu
kse mme</w>
ri in</w>
mise lle</w>
an toi</w>
ö s</w>
seuraa vaa</w>
s -</w>
häne stä</w>
pa ikko
päätös lausel
7 5</w>
e ksi</w>
heinä kuuta</w>
ri lle</w>
har joi
vaikutu kset</w>
in ko</w>
on kin</w>
amma tti
alu eilla</w>
it oi
ty yty
tarkoitu ksena</w>
P or
Muu t</w>
maks a
aa mu
aja ttel
hel mi
P ro
ö t</w>
puheenjohta ja</w>
yrity ksen</w>
to ista</w>
mo in</w>
elin ten</w>
ll isessa</w>
O PA
pyr ki
en sin</w>
Sinu lla</w>
eläin ten</w>
Si itä</w>
te ko
er in</w>
mahdoll isuus</w>
yks in</w>
kiin te
ik inä</w>
ks in</w>
- En</w>
myön te
pa itsi</w>
viranoma isen</w>
t re
ett ää</w>
- Ei</w>
teho kkuu
a inen</w>
syy tä</w>
ss e
toimi i</w>
pa kkau
palvel ut</w>
v en</w>
anne ttava</w>
kulu essa</w>
kaik kea</w>
o ma</w>
loka kuuta</w>
tuotan to
osa a</w>
uni oni</w>
rekiste rö
j un
si den
ett u
ti lle</w>
van he
Bry ssel
ti en
ka hd
lis äänty
Voi t</w>
2 5
stru k
i mm
P e
it on</w>
Tä lla
c h</w>
10 .
jälje mpänä</w>
ke ino
ö no
teri aal
mu kau
u m
sääntö jen</w>
K A
t sa
an teeksi</w>
aihe uttaa</w>
tor ju
de lle</w>
al kaa</w>
I N</w>
in sa</w>
suunta vii
19 8
va tko</w>
esi tteli
tu ki</w>
organis aati
pää ll
jo itus
doll ar
ksen sa</w>
L ope
men na</w>
V Ä
re ita</w>
jo ko</w>
sää detään</w>
luo tta
Jo h
ku ollut</w>
199 7</w>
hä iri
py st
tä t</w>
ist o</w>
mer i
ihmis iä</w>
O ta</w>
sil tä</w>
yksi ttä
järjestel mien</w>
en kin</w>
ku mo
vahv istaa</w>
1 1.
T E</w>
pol tto
3 4</w>
esi te
koh ti</w>
pa ll
ss opimu
kir ja</w>
kala stus
valti on
ä iti</w>
kohd istu
9 7</w>
V oin</w>
ehdo tuksen</w>
vii ta
vahin g
C a
in jekti
viest in
ö ssä</w>
joh taa</w>
kol me
ver en
pain op
pu hd
se ka
ra struk
lyh y
oikeud en
läh tö
ki itos</w>
kas vu
ed istää</w>
U KS
lähte ä</w>
Ensi mmä
tu on</w>
EURO OPA
vä nä</w>
L öy
pää tel
Hi en
b u
vä hä
vir he
In ter
m mu
ttä mään</w>
l kää</w>
Hy vää</w>
paika n</w>
ri ä</w>
tap paa</w>
S ä
ä it
P oi
asian tunti
liik enne
kansala is
potila illa</w>
li ha
P it
ka ssa</w>
arvio inti
W in
ö iden</w>
p po
3 5</w>
Menn ään</w>
B a
ris ti
ens isija
tti vat</w>
EUROOPA N</w>
L II
lä pi</w>
Tiedä tkö</w>
kunn es</w>
Ta i</w>
ni men
vä est
kansala isten</w>
kustann ukset</w>
p in</w>
il me
saa vat</w>
suos itu
utu a</w>
pel i</w>
vuos ina</w>
säännö t</w>
ih misten</w>
in e
var maan</w>
ain oa</w>
maalis kuuta</w>
ti i
muka inen</w>
ette ko</w>
ku vi
vaatimu sten</w>
saata villa</w>
sy dä
ulko puol
raken ne
hallinn oll
he del
kan san
ud et</w>
ryh mä</w>
Odo ta</w>
199 6</w>
väl tä</w>
E span
ke in
pare mpi</w>
jat kaa</w>
1 .</w>
hall itu
U u
pi de
edell yttä
ta pa</w>
viranoma inen</w>
Tu tki
k ään
ha an</w>
lämp ö
M Ä
järje stä
i de
ä kin</w>
suunn ittel
löy tä
a v
asi at</w>
k l
ty ttö
pyy tää</w>
ed u
9 2</w>
y ssä</w>
sa si
K un
aie mmin</w>
il i</w>
is issä</w>
raken ta
ll isiä</w>
pu oli</w>
tarko itus</w>
kuu kautta</w>
Ko mite
val ko
hyvä ä</w>
Toi vo
A nn
Häne llä</w>
q u
r on</w>
kki ä</w>
lausu nnon</w>
mu assa</w>
mat kusta
Tila sto
ko mp
vaihto eh
mil jar
d ro
mpi en</w>
- Mitä</w>
Ky se
vara in
tap pa
B el
ko to
C O
la isia</w>
sella isena</w>
toimin nasta</w>
A lu
toimenpi teiden</w>
toteu ttaa</w>
ar von</w>
hti a</w>
sa ma</w>
joi lle</w>
ud un</w>
Euroopa ssa</w>
in g</w>
in a
v u</w>
kehity ksen</w>
tie dä
yhte en</w>
perä isin</w>
tei llä</w>
sisäl ty
tu ll
tyyty vä
ter ä
tuota nn
vahv istetaan</w>
f a
inn an</w>
ks istä</w>
viime ksi</w>
maa han
2 4
jo lloin</w>
tu a</w>
käyttö öno
9 9</w>
lu van</w>
ku va</w>
touko kuuta</w>
tavoitte ena</w>
liitty vien</w>
sisä llä</w>
ko a</w>
si joitta
mpä ä</w>
P an
täy den
ma teriaal
ka ks
ma assa</w>
tei dät</w>
te ita</w>
alu e</w>
to isi
V an
o mista
Hel sin
r y</w>
istu ksen</w>
sella isten</w>
kan ta
osoi ttaa</w>
rau ta
ma kse
tell aan</w>
3 3</w>
sa an
huo no
E dellä</w>
tun tia</w>
J e
tule vat</w>
y din
par i</w>
mie tin
Si llä</w>
va taan</w>
sää de
tta misesta</w>
päivä stä</w>
uu sien</w>
tuo tte
oike a</w>
ETS K</w>
T ai
3 6</w>
union issa</w>
i ttää</w>
mme ko</w>
ten sa</w>
asia kka
V ir
tutkimu ksen</w>
sel västi</w>
muutta misesta</w>
K en
julk isen</w>
Ra ka
E lä
tö ntä</w>
m pu
na isten</w>
ain akin</w>
yks il
hyväksy ä</w>
kyse essä</w>
ilmoi tettava</w>
löy tää</w>
vaihe essa</w>
mu u</w>
tu li
n ai
utu u</w>
I L
I sä</w>
edell yttää</w>
tta isi</w>
jota kin</w>
hal ti
marras kuuta</w>
e taan</w>
m m</w>
hi ili
Tä llä</w>
t ke
aloi lla</w>
K E
pa si
luonn on
elintarvi ke
vähe mmän</w>
lä hd
e ur
D o
jaks on</w>
o jen</w>
k lo
t ra
in ter
isuu det</w>
v itse
te sta
n in</w>
on a</w>
huoma utu
ks u
g u
tuo mi
n ti</w>
D a
Luul in</w>
välin e
johta ja</w>
pan e
mie hi
pyr itään</w>
par as</w>
jo ja</w>
A :n</w>
G e
K ar
hd ään</w>
ttömä sti</w>
oikeu ksia</w>
r e</w>
Bryssel issä</w>
Pu he
miel i
199 5</w>
R au
pää se
liitt een</w>
Tar vit
vien ti
ll eni</w>
vä h
Jo ten</w>
k kä
demo kraa
ol enna
nnö ssä</w>
T y
hallin no
ala inen</w>
luonn oll
keski tty
s al
tietty jen</w>
otta matta</w>
h isto
talous arvio
de stä</w>
s y</w>
mer en</w>
t kut</w>
p iste
määr in</w>
lu pa
kau ni
ett en</w>
ha ke
KO M</w>
tarkoitetu t</w>
tte kö</w>
määr ää</w>
r un
H al
suh teen</w>
lu kuun</w>
tte ja</w>
par antaa</w>
Jo o</w>
ma ista</w>
ttä vää</w>
Halua isin</w>
ss ään</w>
c a
M er
jo s
teke mään</w>
vi ksi</w>
hti en</w>
Er ity
en ne</w>
J ul
toi mi</w>
Va sta
inf rastruk
4 5</w>
ja tka
u ihin</w>
esiin ty
y lä
met sä
ty ttö</w>
pää ttää</w>
kan i</w>
e tenkin</w>
ksi lla</w>
vuo teen</w>
p os
raha t</w>
se kto
yrity kset</w>
kan sa</w>
kol men</w>
uu s
nä istä</w>
valti o</w>
vaatimu ksia</w>
tee sta</w>
tie tä
K :n</w>
ke hy
kki a</w>
is itko</w>
oli t</w>
utu nut</w>
mie he
etto muu
li e
ku or
sa se
säil y
tie dät</w>
esi tetään</w>
J uu
suure mpi</w>
Ä iti</w>
väl isen</w>
puole lle</w>
esi in</w>
kke et</w>
Vi ime
u tta</w>
tapa a
kki en</w>
an in</w>
tt unut</w>
pi eni</w>
erity isen</w>
n o</w>
eni mmäis
k liin
huo menna</w>
perustu u</w>
E d
käytettä vissä</w>
jou kko
tarkoi tettujen</w>
vai kea</w>
saa pu
mu sta</w>
te o
d er
ta voin</w>
ala s</w>
E nnen</w>
kse ksi</w>
tta misen</w>
kär si
ist ään</w>
al t
huomio ta</w>
S c
p u</w>
kaik ki
py sä
jo kin</w>
sil ti</w>
täytäntö ön</w>
nuo r
aihe u
vi ikko
tava ta</w>
sano o</w>
B ri
koh taa</w>
haus kaa</w>
mu istu
verra ttuna</w>
k g</w>
ke i</w>
ki lo
pu itte
Mi c
C h
hy vät</w>
Y N
numer o</w>
luo vu
ka ap
väli aika
jäsen et</w>
luo ki
fer en
Di rektii
ttu ja</w>
koske vaa</w>
ma ase
2 8
4 3</w>
pre siden
U T
kes k
viik on</w>
huhti kuuta</w>
stu nut</w>
p il
Vä li
si i
ja ka
uud et</w>
se itse
Ase tuksen</w>
sääntö jä</w>
T un
ko t</w>
m .</w>
pol ku
sisäl tä
eri ko
al ha
o ja</w>
tell ut</w>
a ste
A R
ta istel
k re
syy stä</w>
ra joitu
b b
k än</w>
ist on</w>
lopp uun</w>
b ud
ke t
talous -</w>
val tuu
B i
vara sto
nel jä</w>
0 1</w>
ha ki
li uo
järjestel y
M I
tie dän</w>
asetu ksella</w>
ti o
häne llä</w>
ra joitta
maks aa</w>
suu ri
tut kin
muodo ssa</w>
hyväksy i</w>
Ku kaan</w>
EK P</w>
lähe s</w>
o staa</w>
tuomioistu imen</w>
L uu
vuoro puhel
pi ene
tu lli
ole via</w>
ole vassa</w>
tutkimu s
in ia</w>
U N
tett ä</w>
M inä
ti u
maa talou
varmis tettava</w>
Jo tta</w>
tarkoitetu n</w>
Par lamen
hu oli
va lle</w>
issa an</w>
la j
mahdollisuu ksia</w>
J os
politi ikka</w>
tta a
politi ikkaa</w>
kaik ista</w>
lähe llä</w>
kunni oi
sopimu s
lle et</w>
e hd
Aja ttel
Myö s</w>
main itt
syys kuuta</w>
talous arvi
oi da</w>
varmista miseksi</w>
an d</w>
I tä
O li
T alo
va la
O N
val uu
I V</w>
mu ihin</w>
ulo ttu
sel vity
o itu
Lä he
vuo si</w>
ääne sty
R uot
val tu
kir je
hel v
ä r
tavoi tteiden</w>
j alo
hoito a</w>
Pu hu
Ter ve
tab l
vi isi</w>
sito umu
te ta</w>
kka a
IN EN</w>
use a
ky y
ilmo itu
To tta</w>
4 8</w>
il u</w>
pi detään</w>
ik ään</w>
sisäll y
tä s
kansa llisen</w>
nor maal
T e</w>
op iske
järjestel mää</w>
us -</w>
en in</w>
vo jen</w>
T O</w>
asi oiden</w>
ist e</w>
v isi
miel estäni</w>
3 7</w>
suu n
tapahtu nut</w>
pu ite
ha u
vi era
suu rin</w>
var us
C har
Teh ty</w>
Pu ol
3 ,
tarka ste
v uot
sovelta mista</w>
u m</w>
oper aati
sääntel y
suh teessa</w>
mieh et</w>
mur ha
man sa</w>
9 3</w>
ann ut</w>
koko on
vä stä</w>
väl inen</w>
te r</w>
itt o</w>
kuu lla</w>
mahdoll isesti</w>
3 5
jä ttää</w>
ke tään</w>
d ino
tulo kset</w>
stoi min
Mi el
s ten
Tä y
ka pasi
LII TE</w>
tod iste
u ksista</w>
9 1</w>
kuu kau
mi hin</w>
lisä tä</w>
yhteistyö n</w>
to nn
jäl ke
tee mme</w>
na a
20 0</w>
d ut</w>
L A
Komite a</w>
kala stu
merk ki</w>
var sin
6 5</w>
halua isin</w>
tuo ta</w>
ä lä</w>
korke a
ity ksen</w>
tarpee ksi</w>
ymmär rä</w>
isi ksi</w>
mi kro
moo tto
ro uva</w>
kun kin</w>
tele e</w>
tta miseen</w>
val in
te ttä
la ista</w>
ran s
menettely ä</w>
ty ön</w>
a d
p pa
ra vin
pi iri
hui ppu
tuo tteet</w>
e ti
n ro</w>
i lla
in e</w>
pp o</w>
halua vat</w>
jos kus</w>
do t</w>
r oi
m yks
tun tuu</w>
sovel taa</w>
ko lla</w>
myön tää</w>
histo ri
vi ha
Ol iko</w>
raha sto
s tar
ter ro
mise ssä</w>
tarv itsee</w>
ku oll
yhteis kunn
jäsenvalti ossa</w>
tila sto
politi ika
sta si</w>
te isiin</w>
Us ko
yhteis kunnan</w>
N u
tunn in</w>
M ää
sovel tu
kolle g
ki inti
lä htien</w>
ise mmin</w>
vi ed
on ut</w>
vä ssä</w>
ko i</w>
Vuo nna</w>
yl ös</w>
j e</w>
oh i</w>
tote utu
po tilaa
vähi mmäis
kohd at</w>
t si
C A
Y H
I t
Niin kö</w>
valti ot</w>
ehdo tus</w>
lo ma
kii re
ala kohta</w>
val taa</w>
est ää</w>
vir ka
m äni</w>
saa daan</w>
ti an</w>
jä ttä
la a</w>
ma tonta</w>
A mer
l a</w>
ty i</w>
E tte</w>
myö nne
ll iseen</w>
väli ttömästi</w>
m yr
T T
k inen</w>
ssa kin</w>
Ol ette</w>
saman aika
men e</w>
tor jun
al in</w>
perus tel
sella ista</w>
- tiedo
hi r
D L
pyst y</w>
kan is
S lo
man a</w>
tuo tteen</w>
ain een</w>
to ri
na iset</w>
edellyty kset</w>
t he</w>
vä ki
sija an</w>
tto a</w>
Tarvit sen</w>
l yö
sa ta
in su
kat so</w>
it ut</w>
tyy ppi
h ti</w>
TÄ MÄ
P re
1. 3.
lehd essä</w>
4 9</w>
myö hä
J ee
Seura a
huoli matta</w>
maailman laaju
ni ille</w>
muu tettuna</w>
ta kaa</w>
uude lleen
sel vää</w>
pel kä
Ol i</w>
tu jen</w>
ho ito</w>
tu kseen</w>
S te
mie sten</w>
tetty jen</w>
s teen</w>
jon kun</w>
yy s
muka isia</w>
vi llä</w>
sove ll
tyypp i</w>
Y ks
muuto kset</w>
Jo ku</w>
st on
yri ttää</w>
pä te
ra t</w>
muka ista</w>
vira llisessa</w>
Jumal a</w>
investo inti
Ä lkää</w>
ken e
vä t
ttu jen</w>
periaa tte
men ta
ik kala
muuto ksia</w>
I han</w>
ty s</w>
E M
neuvosto lle</w>
mu ksen</w>
an a
eur on</w>
P :n</w>
säil yttä
toimi in</w>
B er
d os
määrä t</w>
elä män</w>
henkilö iden</w>
poh ja
epä il
Tilasto keskus</w>
N y
2 6
teoll isuuden</w>
teknolo gi
lann in</w>
poi ka
jon kin</w>
3 9</w>
muka iset</w>
koor dino
kö yh
ten a</w>
Kor vataan</w>
laitt eet</w>
po issa</w>
tta ja</w>
nn y
asi aan</w>
yhd istel
Pi dä</w>
ain e</w>
me kanis
VA L
yksil ö
yhte ensä</w>
kau s</w>
p k</w>
var muu
tuo tteita</w>
hin ta</w>
moni a</w>
e ikö</w>
S ai
K on
Sa in</w>
c a</w>
B u
j utu
yhtey ttä</w>
sta vat</w>
ker ä
taulu kko</w>
re sur
mä ttö
S A</w>
is ku
is a
ä mme</w>
helmi kuuta</w>
nn ä</w>
än ä</w>
ann on</w>
mi kään</w>
sopimu kseen</w>
Vi i
9 4</w>
haa ste
ET A</w>
val o
P oh
maa talous
yrity s</w>
komissi ota</w>
W i
S ää
ö stä</w>
terve ys
p ei
tavoi tteet</w>
ku oli</w>
tar kka
valio kunnan</w>
demokraa tt
Ky sy
tu kset</w>
riippu matto
Jee su
anta nut</w>
tod istu
palvel uja</w>
kas vi
la sten</w>
Tar vitse
viestin tä
uu s</w>
Ka ksi</w>
vira ston</w>
ajo neu
p ö
sano in</w>
mi llä</w>
f en
sa moin</w>
sa ttu
puitte issa</w>
E C
4 2</w>
ha t</w>
O nne
ntel e</w>
tu g
demo kra
teke vät</w>
luo ja</w>
an sa
suo r
te en
katso a</w>
tarkoi tetaan</w>
kymmen en</w>
de r</w>
työntekijö iden</w>
puheenjohta ja
määri ttä
j ään</w>
is tettu</w>
L ää
ohjel mien</w>
väl in</w>
U se
e mb
arvo a</w>
käytö stä</w>
P ol
A lan
kysymy ksiä</w>
per uu
Mi e
tarjo aa</w>
kke jä</w>
vuo desta</w>
henkilö kohta
ka ta</w>
ttele e</w>
tö itä</w>
te eni</w>
K ai
ol isin</w>
het ki</w>
pal ja
pa ke
........ ........
2 7
kul ta</w>
soi ttaa</w>
osapuol ten</w>
n to
ll y
kun tien</w>
ris ki
koh tuu
is o</w>
nn o
ministe ri</w>
e ssaan</w>
halu nnut</w>
si in</w>
en si</w>
turvall isuuden</w>
Jo ka
so ke
mu nu
isuu ksia</w>
minuu ttia</w>
hall ituksen</w>
laajen tu
ministe ri
tiedo te</w>
aloi tte
Hy vin</w>
d un</w>
esi m.</w>
uu t
elä i
puol en</w>
on sa</w>
tu nne</w>
an e
suh tee
henkil ö</w>
tarvi ttavat</w>
c e
na an</w>
ai ku
To inen</w>
rä jä
st u</w>
kehity stä</w>
g lo
tuo lla</w>
R u
vo ite</w>
kon feren
P itä
ansi osta</w>
yri ttä
tien nyt</w>
hoi taa</w>
nn än</w>
kil ta</w>
arvo t</w>
Jumal an</w>
Rans kan</w>
ni m
merki ttävä</w>
ala a</w>
g in
c he
itt i
la in</w>
toimin taan</w>
mi lla</w>
ain eet</w>
hin nat</w>
hin ta
ja u
jä lleen</w>
ent istä</w>
mmä t</w>
Lope ta</w>
6 4</w>
le tko</w>
E ikä</w>
vi de
laito sten</w>
yksik kö
ar ma
sopimu sten</w>
TÄMÄ N</w>
työn teki
munu a
Pi dän</w>
vi e</w>
Juu ri</w>
muo to
oikeu tta</w>
her ä
sella inen</w>
vastaa vat</w>
paika lla</w>
DL L</w>
ma ni
au rin
hallinn on</w>
Is ra
te ett
jäsenvalti oille</w>
er e
sija itse
huoma ttavasti</w>
rapor to
sta ni</w>
mon i</w>
prosen tin</w>
ympärist ön</w>
markkin at</w>
li a</w>
osa t</w>
d o</w>
lo g
aloi ttaa</w>
anno s</w>
enna kko
E tel
koske vassa</w>
tasa paino
än sä</w>
L as
ase ma</w>
toiminta suunnitel
o mis
6 8</w>
tulo a</w>
Af ri
Nä hdään</w>
tasa vallan</w>
I A
ti lla</w>
pu a</w>
ro h
vii tta
sella isen</w>
ker ra
lii kaa</w>
Helsin ki</w>
Hien oa</w>
Mu ista
inn ut</w>
Ol isi</w>
Minu sta</w>
Min ne</w>
kan ssasi</w>
ro s
kulu ttua</w>
myö s
johd on
strate gian</w>
ih o
henkilö stö
rea kti
van ha</w>
suh ta
h ön</w>
u ku
M U
k ku</w>
it s
ty jen</w>
u kse
p is
aiko o</w>
vaikutu sta</w>
3 8</w>
koro staa</w>
Ha ll
tuomioistu in</w>
arvo isa</w>
tapa a</w>
jo hdo
k kä</w>
ole maan</w>
dollar ia</w>
nnö stä</w>
en kä</w>
lle kin</w>
ist ön</w>
si hte
t h</w>
st it</w>
a ksi</w>
kirja ssa</w>
hyvä ksi</w>
lu vun</w>
199 4</w>
yhte inen</w>
lu o</w>
mene sty
jäsen ten</w>
tyy li
nu kku
kolman sien</w>
Puhe enjohta
ver si
kokona an</w>
stu sta</w>
Raka stan</w>
T ans
. .</w>
ten kään</w>
mi ta
kansainväl isen</w>
tilan teen</w>
Tar koi
jatku vasti</w>
kuu llut</w>
oi vat</w>
Saa t</w>
ulko puolella</w>
Ne w</w>
ma ala
P äi
t ista</w>
se p
0 6</w>
tulo ssa</w>
verta ilu
itu r
tan i</w>
varo ja</w>
kai ke
di en</w>
m on</w>
v yn</w>
L ai
Si ellä</w>
saa tu</w>
n tää</w>
u ksena</w>
menettel y</w>
isi llä</w>
ene mm
kan ssaan</w>
is elta</w>
sopimu sta</w>
luo da</w>
käytä nnön</w>
koulutu ksen</w>
2 4.
isty ö</w>
hi u
ruu mi
ko jen</w>
p ikku
kyse isten</w>
ki la
aal i
me istä</w>
pää oma
lainsäädäntö ä</w>
yrity ksille</w>
Ta pa
ä sti</w>
eurooppala isen</w>
lue tel
yhteistyö ssä</w>
5 5</w>
M el
nai mis
f e
laito ksen</w>
d än
g t;</w>
& gt;</w>
ma inen</w>
hoito on</w>
yh tä
koh tel
ne ita</w>
pyy tä
toimi vat</w>
oikeud et</w>
täy ttä
na apu
aine ita</w>
en ta
mie stä</w>
Si ir
kerto i</w>
han ne
l ik
tu ksessa</w>
perus te
säännö sten</w>
ken ut</w>
seura a</w>
min uun</w>
ro ko
ö itä</w>
vaa di
ty ttä
4 4</w>
EU: ssa</w>
tunn usta
joh to
ryh mien</w>
pit kän</w>
4 6</w>
do w
ett et</w>
G u
sääd etty
M ene
g issa</w>
S A
siir to
4 7</w>
insu liin
tu h
no us
an ti
Ol etteko</w>
Nä iden</w>
vi in
käytö ssä</w>
8 5</w>
pito isuus</w>
S oi
ist ö</w>
ann ett
V I
pos iti
ta al
tarka stus
l l</w>
avoi muu
in an
c k
Alan ko
n en</w>
tu nut</w>
L issa
k kää
el ää</w>
parlamen tille</w>
ase en</w>
kehity s</w>
e ks
sti e
T ap
usko a</w>
väl istä</w>
ol isivat</w>
Jä r
til an</w>
Lu x
ta an
yhd iste
si joitus
Va i</w>
hd on</w>
onn ettomuu
elä ke
vä llä</w>
ase man</w>
pu ll
työ paikko
per in
p yh
z z
uni o
Toivo ttavasti</w>
Li ite
E ri
Lissa b
ss uu
alu eet</w>
enn y
van i</w>
Tar k
iti t</w>
st ro
ra a</w>
kii ttää</w>
elä mä
val eh
P oli
pää sy
kor kea</w>
isyy s</w>
Por tug
vää rin</w>
muuto s</w>
ölj y
vakuu tus
pel aa
ole vaa</w>
käyte ttävä</w>
mu ille</w>
sisäl tyy</w>
7 1</w>
lähesty mista
b e
ke e</w>
bud j
poh jalta</w>
kuul u</w>
hä vi
toimi tettava</w>
ker ro</w>
mon ta</w>
koo di</w>
ista minen</w>
tieto kone
Ä ä
ed el
to isin</w>
säännö ksiä</w>
alu ksen</w>
K ul
puol et</w>
n tö</w>
näke my
Tä hän</w>
main itun</w>
is iko</w>
Saks an</w>
in ni
mie hen
kann an</w>
EY :n</w>
V e
ni illä</w>
har vin
San o</w>
ti fi
ih an
U l
- -
päätö ksen
jä lleen
S er
til a</w>
läh että
järjestel mään</w>
vähen tää</w>
H et
Yhteis ön</w>
Hal usin</w>
kri te
pol y
kai kilta</w>
koske vasta</w>
I D
Te k
Kes ki
inno vaati
j ua</w>
M al
201 7</w>
kon a</w>
päätö kseen</w>
Ge or
vapa a</w>
yö tä</w>
kä vi</w>
L ap
Ymmär rän</w>
il e</w>
hoi do
Tei dän</w>
ti li
kansall iset</w>
tta isiin</w>
in t
merkity stä</w>
v että</w>
hyödy ntä
tetta vasti</w>
raha ston</w>
tunn us
hankin ta
ol ia</w>
joi takin</w>
en päin</w>
sito utu
las ku
B e
ll i</w>
ko vin</w>
im pi
5 00</w>
jon a</w>
vaike aa</w>
muu ten</w>
ir ti</w>
E s
O kei</w>
ri lla</w>
or i</w>
am mu
te issa</w>
osa ksi</w>
käy dä</w>
o ne
al koh
mole mmat</w>
ei llä</w>
päi vään</w>
so tila
s op
ssa mme</w>
ratka isu
KO MIS
toimenpi teistä</w>
turvall isuu
hyö ty
va ki
osa ssa</w>
ih misen</w>
Hy vä
tu ksia</w>
te ra
KOMIS SI
va sto
Toi mi
sovelle ttava</w>
valvo nnan</w>
ta po
inte g
tuotann on
vät kä</w>
asian mukaisesti</w>
kaiki lla</w>
- Se</w>
pää lle</w>
20 20</w>
7 4</w>
o maan</w>
mi lla
vahv iste
o inti
päi vi
ilmoi ttaa</w>
vää r
ks e</w>
et kö</w>
hä tä
tavar oiden</w>
liiken teen</w>
toimi elinten</w>
sa man</w>
YH TE
u sa
direktii vissä</w>
tervey den
arvio inti</w>
- Hän</w>
moo ttor
kertomu s</w>
di kaa
g re
E D
st ö</w>
jäsenvalti o</w>
py ri
hy vältä</w>
e ilen</w>
rii ttää</w>
ud u</w>
ma ito
mietinn ön</w>
ten i</w>
o maa</w>
kolma nnen</w>
sella isia</w>
IS S
o ri
osallistu a</w>
miel estä</w>
T il
8 7</w>
il un</w>
ge en
ko ja</w>
joh tuu</w>
op ol
puhe en
to hto
ku van</w>
käsi tellään</w>
suu nni
al is
pp i</w>
luo tt
Y T</w>
op ää
yrity ksiä</w>
ta so</w>
M ihin</w>
sel vä</w>
a ss
ta h
su la
ett iä</w>
pää asiassa</w>
he iken
pa i
ka lu
las ki
n et</w>
TE L
Pää tö
asi oista</w>
k issa</w>
Venä jän</w>
kahde ks
pa kko</w>
to iseen</w>
t h
taloudell isen</w>
v ut</w>
it sen</w>
Suo men</w>
in sä</w>
la iset</w>
w w
vara t</w>
merkittä västi</w>
Mi lloin</w>
tuo te
suojel u
maail massa</w>
ta ju
Tiedä t</w>
sa isi</w>
kahd en
maa han</w>
sy y</w>
matto mat</w>
ett una</w>
ho r
mon et</w>
hd a</w>
kir joitta
kil tti</w>
Lux emb
tuon ti
Voi mme</w>
kerto nut</w>
ain ee
4 1</w>
san onut</w>
tutkimu ksessa</w>
Val i
H oi
le vi
oi re
ik ku</w>
sa maan</w>
me ta
A le
is ina</w>
Vo inko</w>
pain o</w>
viime istään</w>
täy ttää</w>
järjestel mät</w>
järje ste
in st
k k
Etel ä</w>
ise mpi</w>
il tana</w>
te it</w>
kan a
5 2</w>
il ma</w>
ran ga
vied ä</w>
alle kirjoi
ista va</w>
Joh n</w>
yty y</w>
valmis teen</w>
O T
myös kään</w>
L opu
Te e</w>
7 2</w>
pi i
miel en
täy si
vo ja</w>
va jaa
7 7</w>
koto na</w>
turvall isuutta</w>
r ik
nn ä
eh toja</w>
l ista
se hdo
hal usi</w>
itsen ä
isen aan</w>
D u
he ik
pää ttä
E S</w>
keski määrä
työsken tel
Win dow
dio ksi
o tettu</w>
tan sa</w>
vastuu ssa</w>
teki jä</w>
L au
man i</w>
yli op
yle isesti</w>
käy täntö
ni issä</w>
liitty vän</w>
raka sta
Sano in</w>
katso taan</w>
järjestö jen</w>
iken teen</w>
hd in</w>
0 5</w>
sasi a
ede ssä</w>
laa di
palvel un</w>
na lla</w>
d ll</w>
3 00</w>
v is
S opimu
Tu nn
bo ra
0 2</w>
lausun to</w>
kunn assa</w>
g h
kan ssani</w>
jo usta
ti o</w>
siir r
laitt eiden</w>
noudatta en</w>
u ksiin</w>
tö ä</w>
varo va
nn eet</w>
kes ken</w>
mahdoll isuuden</w>
Kes ku
amma ti
in eet</w>
enn us
yh tään</w>
7 8</w>
ag en
4 ,
Sa anko</w>
ehkä ise
saa kka</w>
tote si</w>
e se
säännö istä</w>
te si</w>
vyy s</w>
ete enpäin</w>
k r
ta ri
lope ttaa</w>
stuo mioistu
6 6</w>
va kau
perustu vat</w>
lopu llinen</w>
kaik kiin</w>
M c
en g
kor jaa
il ua</w>
a kseen</w>
kuulu vien</w>
Lä h
kilpail un</w>
tty ä</w>
pääll ik
mu tka
vakuu tu
Jär je
ja o
ho tell
unio niin</w>
5 1</w>
sella isenaan</w>
o i</w>
w a
ei vätkä</w>
tarjo ta</w>
mu si
ehdo ttaa</w>
lä mm
er o</w>
U n
seuraa van</w>
no use
lle mme</w>
alu sten</w>
t s</w>
ty tä
vih re
arvo paper
lähe ty
tarka sta
ll an</w>
kysy ä</w>
est i
kä vel
tie don</w>
sin nä
H err
Y VÄ
ruo ka
Ni iden</w>
la isten</w>
raho ituksen</w>
A K
sen i</w>
S isä
ar d</w>
isi tte</w>
pelkä stään</w>
koor din
jäl j
käsitel tä
merkity kse
kulttuu ri
Ehdo tus</w>
toteu tetta
s ista</w>
ur he
ti mme</w>
pää llä</w>
j ani</w>
al usta
riittä västi</w>
tava no
hyö tyä</w>
kesku ste
ty tö
tta malla</w>
ja ssa</w>
voima ssa
o tti</w>
tu ssa</w>
he vo
ty ssä</w>
anno ksen</w>
ääne stä
sa aneet</w>
main i
tyytyvä inen</w>
inn ista</w>
ra ja</w>
ystävä ni</w>
suo stu
itu sta</w>
ll in</w>
tu oll
kan s
kilpailu kyky
vaikutu sten</w>
to isessa</w>
KOMISSI O</w>
Yhdys val
ku usi</w>
la t</w>
po istu
v yö
van kila
ymmär tä
na is
s ään</w>
B ra
si r</w>
luotta mu
S ta
6. 2016</w>
ta ar
aja t</w>
tietty jä</w>
oll inen</w>
kustann usten</w>
viita ttu</w>
osi ttain</w>
y llä</w>
paika llis
lap set</w>
aa tti</w>
tu ja</w>
helpo sti</w>
täy tty
ja ke
Mi es</w>
r en</w>
tuo nnin</w>
. e
ann etta</w>
infrastruk tuu
kun ta
Si lloin</w>
isuu de
N au
ss u
neuvottel u
erila isia</w>
Sä h
h taa</w>
ris ke
ka mp
inf e
varmis tetaan</w>
ih minen</w>
ee ssa</w>
ni in
tto masti</w>
I K
kä li</w>
vastaa va</w>
kustann uksia</w>
A b
0 8</w>
stu ksen</w>
il mi</w>
ise e</w>
8 8</w>
saavu ttaa</w>
ku via</w>
6 2</w>
tutkimu s</w>
Ma ks
ta voite</w>
tta vissa</w>
P as
energi an</w>
n an
Vuo den</w>
strate g
jää dä</w>
ve to
Lissab onin</w>
o sia</w>
tt ää
valvo nn
kaver i</w>
la is
Tul en</w>
N A
e sti</w>
a var
R E
ista mista</w>
anno sta</w>
ymmär tää</w>
ikko jen</w>
lä hen
f os
mu l
edell y
valmis tel
u i
it uo
he istä</w>
ol o</w>
ka al
U no
ohjel mia</w>
al koi</w>
- tiedosto
si joi
miljar dia</w>
Ko ko</w>
mel ko</w>
po st
seur anta
ik ke
jäsenvalti oita</w>
p ri
S il
K rei
talo us</w>
kauni s</w>
Ny ky
ed iste
Jo ka</w>
de s</w>
k s</w>
Luxemb ur
jär ke
pe to
nn ossa</w>
jat ke
tarkoi tettua</w>
L in
hankke iden</w>
maan tietee
lap sia</w>
välin eiden</w>
myy n
varain hoito
ve den</w>
UKS EN</w>
s sia</w>
M an
hy lä
K oh
aluee lle</w>
so hjel
tä mme</w>
ko ir
kir jan
ist oi
hy l
L an
Miel estäni</w>
yhte istyö</w>
ra i
ss ää
C on
saa tava</w>
mit us
il l</w>
S O
pid ettävä</w>
kokou ksessa</w>
Tie do
esi tetty</w>
au to</w>
u den</w>
kan taa</w>
todennäkö isesti</w>
keho ttaa</w>
v ol
il in</w>
tuota nnon</w>
tti vät</w>
tehokka asti</w>
per inte
lu vu
7 3</w>
osa ston</w>
d ään</w>
tärke itä</w>
toimi ttaa</w>
5 6</w>
kaup paa</w>
saa ttavat</w>
tä h
ulko ma
mer kkejä</w>
ö in</w>
hin tojen</w>
pöytä kirjan</w>
Toi von</w>
periaa tteen</w>
tu i</w>
ta ud
yhte istä</w>
Men en</w>
vuo sien</w>
taloudell ista</w>
t oli
ä ly
voima kka
na isen</w>
säännö kset</w>
ll o
M ik
tu tu
sopimu ksessa</w>
tote aa</w>
men ossa</w>
bora tori
kaup pa</w>
T een</w>
pää ssä</w>
ava ta</w>
täytäntöönpano a</w>
6 7</w>
pyy nnön</w>
8 9</w>
6 1</w>
m paan</w>
koske vaan</w>
Pi dä
isi vät</w>
ta vaa</w>
yleis sopimuksen</w>
ai vo
kor vaa
my s</w>
eri t</w>
O hjel
sy istä</w>
ta kana</w>
ll isiin</w>
sano en</w>
jä te
ty ö</w>
kuva us</w>
henkil ön</w>
ste r
hyväksy nyt</w>
ssi t</w>
viime inen</w>
a tt
va al
j ala
nä e</w>
tie tenkin</w>
0 3</w>
po nn
sa lli
lopu ssa</w>
pala a</w>
huo mi
s oli
rahoitu sta</w>
tälla ista</w>
julka istaan</w>
iss ani</w>
riittä vän</w>
R oma
har k
in dikaa
yhti ön</w>
A m
ta si</w>
pyy si</w>
mi t</w>
ain etta</w>
ta sa</w>
o s</w>
pi la
Luo ja</w>
V au
hy viä</w>
kon kre
ka do
lu ku</w>
tarkoi tat</w>
nn y</w>
U L
alu sta</w>
aa t</w>
Luu letko</w>
. dll</w>
viljel i
o saa
tyy pin</w>
vi elä
c o</w>
S inä
8 2</w>
infe kti
k ky
ker ta</w>
L aa
kehi ttää</w>
lä hde</w>
kin ä
Pyy dän</w>
ta in</w>
ö ö
te in</w>
ta usta
oike asti</w>
lap si</w>
5 8</w>
ka ttaa</w>
syr j
seur an
ra di
mahdollisuu det</w>
ke stää</w>
min äkin</w>
maase udun</w>
ma si</w>
U S</w>
tä lle</w>
kanna ttaa</w>
päätö ksessä</w>
kan ta</w>
stu a</w>
lä s
utu s</w>
vapa utta
ra jat</w>
ki ell
uni oni
ro sen
lä hi
t t</w>
5 4</w>
prose ssin</w>
pit kään</w>
miehi ä</w>
N el
d an
sase tuksen</w>
pyy ntö
It se</w>
itsen sä</w>
or u
ity stä</w>
arvio innin</w>
kun in
pa ikkaa</w>
I R
ann an</w>
viikko a</w>
s p
Ajattel in</w>
is u</w>
si eltä</w>
liitty vistä</w>
P P
ma i
vuo kra
sie men
luo kan</w>
tehtä vä
aika välin</w>
Tul kaa</w>
ko mis
Ki inan</w>
työ ttömyy
p sy
a kaan</w>
Yr itän</w>
Us kon</w>
hy vin
P ÄÄ
vo isivat</w>
ppo a</w>
s än
pala u
D E</w>
vuosi ttain</w>
terro ris
Minu a</w>
sa tu
pal kka
kell o</w>
määrä raho
j ista</w>
arvioi da</w>
a vaa
alt istu
var ti
sai rau
Ker ro
ja sta</w>
met riä</w>
siirty mä
tä ni</w>
lla si</w>
san o</w>
tett uihin</w>
sisäl tävät</w>
mo ja</w>
tode taan</w>
g ne
5 3</w>
teh neet</w>
tod ista
he esi
rakenne uudistu
arma ko
hä tää</w>
j alka
sinnä kin</w>
ky vyn</w>
ko itu
koko uksen</w>
vel je
ilo inen</w>
riippu matta</w>
no t</w>
Se lla
B ro
8 4</w>
k tro
ai o</w>
puh u</w>
syr jä
hu r
jälje llä</w>
7 9</w>
hall itus</w>
ar i</w>
tek sti</w>
uude staan</w>
maks ut</w>
il y
merk itsee</w>
tavara t</w>
e tel
VA T</w>
tetty ä</w>
tap pi
h ää
hil ja
han kki
siir tä
u pe
tarjo us
yksi miel
val ita</w>
opiske li
Ää ne
käy nti
vuo dessa</w>
os ana</w>
vapaa ehto
B A
Luul en</w>
ma hdo
in ne</w>
pää se</w>
tervey den</w>
A sia</w>
kysy myks
elä män
järjestel mä
huu me
er ino
kestä vän</w>
ur in</w>
ja ksi</w>
ehdotu ksia</w>
tarkoi tettuja</w>
li ite</w>
ohjel mist
ta s
ehdo t</w>
J EN</w>
yle isen</w>
ase ttaa</w>
ää ni
sto a</w>
ISS N</w>
Ensimmä inen</w>
tilan teessa</w>
tu ista</w>
hd i
0 7</w>
suo je
pel e
ta ito
su hde</w>
kansa llis
tyy pi
tuleva isuudessa</w>
suu ria</w>
tutkimu ksissa</w>
ta kaa
mi lloin</w>
n sa</w>
D avi
konkre ett
maa talouden</w>
Ki in
Uni onin</w>
toteu tettava</w>
ttel u
alo o</w>
t kaa</w>
sääde tyt</w>
ala isen</w>
O sa
tohto ri</w>
ki lle</w>
par a
is äni</w>
L en
men t</w>
selvi ttää</w>
B K
ll y</w>
kul ku
vaati i</w>
Y or
vai vaa</w>
G i
itä t</w>
ll on</w>
si tte</w>
julka istu</w>
valmis te
vä r
saa mme</w>
ta tko</w>
ky vy
suunn a
seuraa va</w>
kehittä minen</w>
ola ito
p pe
määräy sten</w>
U usi</w>
samanaika isesti</w>
ko ne</w>
teke mistä</w>
vasta ta</w>
miljoon an</w>
suojel e
yhd isty
hallin ta
pää oman</w>
i an</w>
n on</w>
A ino
ulko puolelle</w>
vää rä
ttel e</w>
0 4</w>
l t;</w>
& lt;</w>
ma lle</w>
mma ssa</w>
7 6</w>
mel kein</w>
yle inen</w>
O lit</w>
kulutta jien</w>
b in</w>
g y
elintarvi kkeiden</w>
aja a</w>
tä hden</w>
kaupun gin</w>
soveltamis alaan</w>
til annetta</w>
y so
P ala
J A
ka to
k käy
H YVÄ
sin uun</w>
peru stus
men ot</w>
au ton</w>
ystä vä</w>
st äni</w>
e ta</w>
läh ettää</w>
en ko</w>
vii te
määri tellään</w>
Kansa inväl
talousarvi on</w>
ma ssa
W al
5 7</w>
vaiku ttavat</w>
5 9</w>
Liite taulukko</w>
le y</w>
tee tin</w>
im i</w>
kertomu ksen</w>
viranoma isille</w>
M Y
tulo ksia</w>
väli ä</w>
auto maatt
hyväksy tty</w>
osoi tta
painop rosen
voi ttaa</w>
bi o
ase massa</w>
teknolo gian</w>
väli ttä
isä si</w>
ol u
ti lo
koh tia</w>
H aloo</w>
löy d
an to
8 1</w>
HYVÄ KS
mootto ri
kyse inen</w>
vaihe en</w>
ke r</w>
Ja ck</w>
seura uksena</w>
vi iden</w>
30 .
sosiaal isen</w>
vasto in</w>
ta lle
P ys
li e</w>
ell ei</w>
pu na
ka mer
järjestel miä</w>
ris ki</w>
koske viin</w>
luul et</w>
te st
ajoneuvo jen</w>
ras ka
s sien</w>
AS ET
muka isen</w>
d at</w>
sekto rin</w>
tila a</w>
maa ta</w>
täyden tä
pal kki
lap si
hi da
vast usta
E ttä</w>
ul g
pää stä
lin e</w>
koulutu s
ki e
Kä s
k kää</w>
lan ti</w>
tode llakin</w>
tek sti
main itu
kehittä mistä</w>
E li</w>
itt eet</w>
lähesty mis
it iin</w>
istu s
väline itä</w>
Saks a</w>
Muu tetaan</w>
moni mutka
it on
TA R
halua mme</w>
e ista</w>
2 9
välttämä töntä</w>
kansainväl isten</w>
sil mä
G a
yl pe
luon te
tele visi
Asi a
iti e
kier ro
ma hta
K aa
ks issä</w>
vii kolla</w>
me di
la ite</w>
koulutu s</w>
kas vu</w>
Mic ha
toimi joiden</w>
ar mei
va mma
Kuu lo
o sil
kul ta
ruo kaa</w>
mi käli</w>
nouda tettava</w>
säännö llisesti</w>
käsi tellä</w>
E F
oll aan</w>
o mien</w>
p la
pa kka
ma ihin</w>
in tä</w>
dell inen</w>
hyvä n</w>
ky sel
inti in</w>
Lisä tään</w>
par asta</w>
vyy den</w>
pala ta</w>
tärke ä
sta mme</w>
kesku ksen</w>
voima an
ul u</w>
as ke
B an
tto i</w>
ja si</w>
g an</w>
yhtey s</w>
pyy nnöstä</w>
suunnitel ma</w>
tiedo tus
Säh kö
U T</w>
huo no</w>
kon ser
pit kä</w>
ky ky</w>
L on
ten si
vuoti as</w>
menettel yt</w>
E ll
määrä stä</w>
valvon taa</w>
C or
maatalou stuo
hd y
otta maan</w>
vel j
itä mme</w>
tuo da</w>
ttel i</w>
lääkä ri</w>
Ta ulu
me star
koh te
d s</w>
in een</w>
i mmat</w>
tavoi tteita</w>
myö tä</w>
potila iden</w>
aihe esta</w>
väl itä</w>
YHTE IS
sovelle ta</w>
6 3</w>
maa sta</w>
to sis
tuke e</w>
ttä is
K Ä
E pä
i ku
Mi kset</w>
hai ttaa</w>
Pys y</w>
hä ir
S t
uusi utu
hull u</w>
täydell inen</w>
ss issa</w>
vienti ä</w>
merki lle</w>
tuo te</w>
Itali an</w>
tell en</w>
kau pan
ympä ri</w>
hy dro
A ika</w>
i den
M ur
mahdoll isuutta</w>
yks ino
Ka s
par hai
ohjel maan</w>
mer en
M or
seuraa via</w>
ttä vän</w>
inn än</w>
vaihto ehto
täytäntöönpan on</w>
pi dän</w>
Vai ku
8 6</w>
sa u
yhd istä
mahdollisuu ksien</w>
to tuu
taa juu
kas vun</w>
arvo n
Y K:n</w>
lu pa</w>
m u</w>
myönn etty</w>
käy nyt</w>
painoprosen ttia</w>
las ken
h ö
san oit</w>
k m</w>
osil taan</w>
kaikki alla</w>
ttel en</w>
r ann
199 3</w>
seuraa vista</w>
o mat</w>
ty stä</w>
ass osi
men ta</w>
Hen kil
Toi min
aamu lla</w>
jat ko
pä r
d yn</w>
vir us</w>
täy nnä</w>
la use
tälla inen</w>
te etti</w>
W a
yy li
eri en</w>
asiakir jat</w>
kas vo
re hu
tteli jä</w>
piiri in</w>
hankke en</w>
ri kos
isyy ttä</w>
G ar
V el
toim isto
yö n</w>
J O
laa je
I T</w>
tu sten</w>
G re
vi t</w>
s issa</w>
Jäsen valtiot</w>
O r
Kuu ntele</w>
la boratori
kuningas kunnan</w>
pela sta
ho ja</w>
lan d</w>
hai ta
yrity s
Jos kus</w>
pan kki
Tutki mu
va si</w>
ete ne
S yy
ryh mä
tunn iste
presiden tti</w>
minu lta</w>
luo tto
pa ikka
g en</w>
si joitu
esitteli jä</w>
ka usi</w>
Ju mala
tap po
sa steen</w>
IS ET</w>
s .</w>
suunnitel tu</w>
päätö kset</w>
alo jen</w>
av usta
tto man</w>
mu issa</w>
si vät</w>
h innan</w>
Mi lla
ess ään</w>
seitse män</w>
ann os
mis sään</w>
ta ikka</w>
kasvu a</w>
teoll isuus
h on</w>
yhte isestä</w>
F a
: lle</w>
Te l</w>
teh tiin</w>
vuo tu
pää tti</w>
b ri
L op
toi mista</w>
taloudell inen</w>
ra dio
ho us
g ly
huole hti
budj etti
1 50</w>
ty per
- Niin</w>
En g
a alta</w>
ty yli</w>
to ri</w>
me ssa</w>
luo k
vahv istettava</w>
ta vat</w>
ett ua</w>
ko pi
tur vapa
it uu
8 3</w>
määr ää
isuu ksien</w>
valvon ta</w>
vi is
Q u
vastaa van</w>
L E
a mmin</w>
T Y
prosen tti
olosuhte issa</w>
inn issa</w>
luettel o</w>
di gi
työ järjesty
Tul in</w>
valmis tetta</w>
päästö jen</w>
hi mo
, 5</w>
mieli pi
ti e</w>
2 3
merkity s</w>
ss äni</w>
yhteis ö</w>
inn oi
K U
jäl ki
t issä</w>
a se</w>
6 9</w>
suur en</w>
kehittä misen</w>
vi hanne
la isen</w>
minuu tin</w>
mpi ä</w>
J on
ta anko</w>
menettely jen</w>
Ri c
kohd alla</w>
stä si</w>
velvoi ttava</w>
ge r</w>
Het kinen</w>
painop iste
tä män
L O
käy tetty</w>
nä ihin</w>
ASET UKSEN</w>
läh ti</w>
Lopu ksi</w>
Window s</w>
va se
päätö stä</w>
ET A:n</w>
ll isuuden</w>
Vo itko</w>
mm inkin</w>
kumppan uu
HYVÄKS YN
ver kon</w>
il ä
työ markkina
rauta tie
T EN</w>
pitkä aika
issa kin</w>
ra h
kyse iset</w>
vää rin
mä tön</w>
poli isi</w>
ÄÄ R
poli isi
E i
koo stu
toimin na
puh ut</w>
ja kau
käytä nnössä</w>
kos ke</w>
c y</w>
Puheenjohta ja</w>
poliitt inen</w>
tuotan to</w>
poh jo
mm ista</w>
osoi tettu</w>
po istaa</w>
esi lle</w>
tul en</w>
mon en
ai o
ikko ja</w>
hil jaa</w>
tyy dy
n to</w>
ajan jaks
koulutu sta</w>
rau ha
suojel un</w>
vi an</w>
sa in</w>
asi oissa</w>
si dos
1. 4.
ko heesi
no u
luo tetta
tä si</w>
me tall
in to
merkittä viä</w>
toi mitus
valio kunta</w>
Hyvä ksy
käyttä en</w>
ilma ston
sy dän
ohjel maa</w>
l in</w>
tett uun</w>
vi itsi</w>
tavano ma
0 9</w>
pa peri
anal yso
Kol ma
vir ta
tule van</w>
T yy
Ko ko
ett ö
it sin</w>
ympä ri
pas ka</w>
d is
tavoi tteen</w>
alu ssa</w>
A i</w>
vuo deksi</w>
vä i
si el
Terve tuloa</w>
tonn ia</w>
käsittel y
kirja a</w>
in ten</w>
täy s
T Ö
Pit ää</w>
ssa in</w>
c on
Yhdysval tojen</w>
ää ri
kun taa</w>
f fi
ar e
aa ttor
pa ha
kke ita</w>
mu ka</w>
tule hd
nä hden</w>
valmis telu
parlamen tissa</w>
epä onnistu
a ta</w>
ss ä
Tar ka
tta vaksi</w>
johdo sta</w>
so ker
ri itä</w>
kansala iset</w>
suo jaa
muuto ksen</w>
kerto o</w>
o ve
ss el</w>
M ÄÄR
va un
201 8</w>
edel tä
K ro
muka va</w>
tosi asia
ään i</w>
p ikku</w>
erity istä</w>
bi olog
IT Y
il ta
Tarvitse mme</w>
en iten</w>
tetta isiin</w>
ni an</w>
o b
huol to
n kin</w>
vyy ttä</w>
Näy tä</w>
la itos</w>
pien en
nn yt</w>
Herr an</w>
ratkais u</w>
vapau den</w>
anta maan</w>
vel ka
ho uku
e tä
päätö ksellä</w>
teki jät</w>
po jat</w>
Al oi
vää rist
g on</w>
r yö
ha jo
S E</w>
tois aalta</w>
G ra
viik ko</w>
teki jä
seura ta</w>
era ha
S ve
ka ta
tö issä</w>
määri tell
ala isten</w>
hel ve
Tä rke
Katso kaa</w>
ensimmä isessä</w>
tiedä mme</w>
Kuul in</w>
johd anto</w>
lääkke iden</w>
t kaan</w>
ku vaa</w>
alue ita</w>
osapuol et</w>
huo ne</w>
poliitt isen</w>
o mia</w>
199 0</w>
sel v
B ur
ajoneu von</w>
laajen ta
hoi de
katso maan</w>
järjestel mässä</w>
sisäll yttä
Jeesu s</w>
her mo
u ksien</w>
neuvo a</w>
pi me
mu ista
j ne</w>
kumo a
V I</w>
Kol me</w>
sse ja</w>
T oh
kas vaa</w>
e ett
ra ha</w>
eurooppala isten</w>
ala iset</w>
pala utta
K il
tö ihin</w>
joka isen</w>
san a</w>
me s</w>
keskustel u</w>
mer o</w>
vara a</w>
nä l
yhteisö ssä</w>
ir e</w>
nouda ttaa</w>
hien oa</w>
B ulg
sopimu kset</w>
lisä tään</w>
d assa</w>
joka inen</w>
tervey ttä</w>
Parlamen tti</w>
tta an</w>
rakenn us
v et</w>
muuta man</w>
Isra elin</w>
matto muu
Niin pä</w>
anta ina</w>
n is
suun taan</w>
matka lla</w>
ne iti</w>
E ura
Afri kan</w>
pe r</w>
n te
b an
käyttä yty
er g
o to
asen n
tu lle
Ky se</w>
ile e</w>
me en</w>
pyö rä
ku vat</w>
ksen ne</w>
pro f
kl o</w>
utu mis
Ase tus</w>
pan i
muu tettava</w>
lu ke
tek st
vuoro kau
vi ent
tie de
men nyt</w>
Hei dän</w>
Ar vi
aiko ina</w>
h u</w>
sopi i</w>
merk itse
sto t</w>
poikke a
ma lta</w>
je k
2 5.
siir tää</w>
m ö
puole staan</w>
o sti</w>
aal i</w>
ehdotu sta</w>
E I
Ra ho
arvo jen</w>
sosiaal itur
isyy den</w>
käy tä</w>
tetty jä</w>
kau della</w>
inno vo
väh enn
hedel mä
toteu tetaan</w>
ri s</w>
oike astaan</w>
liitty vä</w>
si do
menettely jä</w>
ko neet</w>
paika ssa</w>
f yys
al ä
al taan</w>
fo oru
koko us</w>
yhd eks
il an
: ssa</w>
itt iin</w>
pitä vät</w>
Hän et</w>
teho kas</w>
e llinen</w>
20 .
ar in</w>
ki err
z i
re he
mil tä</w>
maks ujen</w>
osoi ttavat</w>
C N</w>
mietin tö</w>
kesku s
F B
vahvis tettu</w>
Si ihen</w>
ta vasti</w>
se ko
o ttanut</w>
luo ttaa</w>
ke tta</w>
joi s</w>
Jo tkut</w>
O nn
To d
oi ka
järje stön</w>
ett eivät</w>
Sy n
199 2</w>
O tan</w>
g lu
kä teen</w>
Rans ka</w>
strate gia</w>
selke ästi</w>
uude sta</w>
met rin</w>
O R
Eura to
Te in</w>
na isia</w>
n etto
määräy ksiä</w>
ssi in</w>
Muista tko</w>
I C
varsin kin</w>
sisä markkinoiden</w>
Mää rä
häne en</w>
Ku i
A c
vä sy
ä ssä</w>
voi man</w>
Y mpä
san on</w>
p us
näkö kul
T he</w>
vii py
M ER
hava ittu</w>
ttel u</w>
H itto</w>
s ope
sa ks
vo isin</w>
ver ta</w>
sel ittää</w>
Var o
aja ssa</w>
E l
tu ul
välin eet</w>
tekni ikan</w>
ope tta
o ksi
v ina</w>
ssuu nnitel
h en</w>
myönn että
tulo sten</w>
musi ik
jo itus</w>
lääkä rin</w>
ä kään</w>
kone iden</w>
T ee
Ka p
tehtä vät</w>
d elta</w>
kilpail ua</w>
muistu ttaa</w>
par ann
päätel mät</w>
ty jä</w>
le ve
lap sen</w>
ru ko
Kesku stel
Men kää</w>
Y li
yli ttää</w>
ho itu</w>
u kseen</w>
i di
f il
anta vat</w>
käyttä vät</w>
L y
tappo i</w>
S EU
kuu den</w>
A su
3 1.
hde tään</w>
el ossa</w>
val itse
todell inen</w>
TO IM
p ti
kes ken
ton sa</w>
to istu
ten sä</w>
suori ttaa</w>
sopimu ksia</w>
os ää
mma a</w>
tell u
jo lle</w>
ty istä</w>
c m</w>
b ur
mist oi
hei llä</w>
ist in</w>
d ri
Val mis
sija itsee</w>
prosen ttiin</w>
tarkastu stuomioistu
seuraa vien</w>
e ko
Re kiste
vaih to</w>
maahan muu
vai mo
myy nnin</w>
va ale
el imen</w>
Mi ks
a mi
määrä tään</w>
sää nnön</w>
la sta</w>
j iin</w>
lain kaan</w>
Ymmär rä
ele ktro
henkilö t</w>
aika isemmin</w>
sisälty vät</w>
vira sto</w>
työn anta
e sin
ty yl
it si
hyväksy y</w>
J uo
yy li</w>
het ken</w>
al ta
as teen</w>
vä tkö</w>
E H
lääkke itä</w>
aihe ell
kka at</w>
järjestel mästä</w>
suojel ua</w>
op p
korke an</w>
huol ta</w>
ku do
saavu ttamiseksi</w>
g na
seuraa mu
is ilta</w>
ken i</w>
köyh yy
korja ta</w>
a ista</w>
T ra
tod ettiin</w>
Espan jan</w>
kiel täy
Poh jois</w>
ymmär ry
ole vista</w>
hyvin vo
ilmoi tettu</w>
de ja</w>
le s</w>
te tyt</w>
po sti
A T
asiakir jan</w>
I A</w>
a vo
pa ik
Ja c
ku olla</w>
te mp
kohte ena</w>
ohjel ma
Bry ssel</w>
päätö ksiä</w>
kansall ista</w>
käsittel y</w>
ty sti</w>
myönne tään</w>
ku vaa
aika välillä</w>
re ag
Onne ksi</w>
tode ta</w>
pe su
vuo sia</w>
ö lle</w>
toimi tetaan</w>
ll isesta</w>
K ell
M ikä
vaiku ta</w>
k ista</w>
kulje tus
tö r
investo inte
ny ttä</w>
kappal e</w>
M oo
määri ä</w>
puol usta
da kseen</w>
utu i</w>
p lan
seuraa vana</w>
pa ha</w>
men ojen</w>
suor itus
la ki
pa h
V A</w>
henkilö stön</w>
jäsen en</w>
- -</w>
täytäntöönpano sta</w>
elä mää</w>
F re
sa jan
ensimmä istä</w>
ol isit</w>
sinu lta</w>
y a</w>
Kä si
uu teen</w>
f inan
Il man</w>
kemi a
nuor ten</w>
I tä</w>
tutki a</w>
glo b
kka ita</w>
ta van</w>
Toh tori</w>
perus teet</w>
kansa llinen</w>
ann ettiin</w>
N oin</w>
tul kin
su ju
kki in</w>
kes kinä
koske vissa</w>
el imet</w>
tälla isen</w>
sy nn
laatu a</w>
us kon</w>
kas voi</w>
laa ja</w>
kansall isia</w>
j iä</w>
K r
San oit</w>
perus taa</w>
teho sta
ongel mat</w>
VA N</w>
P A</w>
alu etta</w>
parhai llaan</w>
va tiiv
Y UT
on en
i i</w>
sai vat</w>
mm i</w>
ilmo ituksen</w>
nn a
h tt
Ky pro
viljel y
ra ali</w>
tti ä</w>
julk is
tark ista
tt an
nu o</w>
lap se
ed un</w>
v utu
et kä</w>
s it
rin na
viest in</w>
täy d
t lan
nimi ttäin</w>
tt inen</w>
pu hta
kui va
ä iti
ih mistä</w>
yh ty
oi reita</w>
tuo ttaa</w>
p e</w>
liitt o
moni muoto
asetu sta</w>
Se hän</w>
osoi tte
h ol
Tul e
saira sta
I stu
pää ss
KÄ Y
S E
b i</w>
Micha el</w>
a kti
U kra
äit isi</w>
d ele
elo kuuta</w>
ma ita</w>
raka stan</w>
mma ksi</w>
1 5.
len toli
puol ten</w>
eri kseen</w>
kaike sta</w>
kau kana</w>
u ksesta</w>
k enn
pele jä</w>
keskustel un</w>
yksik ön</w>
R y
Näy tät</w>
nn el
ll iseksi</w>
sano t</w>
vel kaa</w>
tur vaa
Ul ko
väl isten</w>
ystä viä</w>
maks an</w>
valuu tta
taloudell isten</w>
a vun</w>
tel e</w>
hyö kkäy
risti rii
potila ille</w>
t itu
elä mä</w>
käsittele vän</w>
pitkä lle</w>
tetu ista</w>
ä ske
j enn
julk isten</w>
ett ia</w>
Ku in</w>
löy tyy</w>
d on
O h
väl ity
tar ke
miel essä</w>
julka is
B al
laad un</w>
il man
s ö
katso i</w>
paranta miseksi</w>
u ksissa</w>
tell i
sul ke
M oni
sa it</w>
K ää
yhden ty
luo na</w>
e ttava</w>
ke stä</w>
yhd y
li mme</w>
F or
ilmoi tta
hyväksy ttiin</w>
Itali a</w>
V ih
pal kin
kko ja</w>
a c
päivä ssä</w>
jou kku
halua tte</w>
to isella</w>
opol iti
kesk ity
laitt e
HYVÄKSYN YT</w>
ettu ina</w>
asia an
T än
n ar
4 00</w>
ole ske
ol in
Min kä</w>
ne ste
määräy kset</w>
a mer
au ki</w>
oma sta</w>
neljä nne
tehtä viä</w>
ne tään</w>
n ö
mme kö</w>
Ha us
ho jen</w>
luonn o
tal on</w>
lop ulta</w>
kolma s</w>
ene mpää</w>
ve si</w>
no sta
muodo sta
mma lla</w>
hakemu ksen</w>
b ru
p las
1 4.
inni t</w>
pa ten
Ro uva</w>
lu paa</w>
ll öin</w>
Vi ra
di in</w>
F I</w>
Ai o
op ti
hy po
asiakir ja</w>
vir he</w>
is ikö</w>
J an
periaa tteiden</w>
oll e
riippu u</w>
muuto sta</w>
aja tus</w>
Joka inen</w>
a ko</w>
haa sta
ko ho
: sta</w>
ul kona</w>
hake maan</w>
naimis iin</w>
Tie to
pa iko
Ympä rist
ve r</w>
He inä
vähi ttäis
män ä</w>
välin e</w>
M et
llis ista</w>
ka at</w>
tuomioistu ime
P ain
te mme</w>
arvioi daan</w>
su ol
kaik kein</w>
ihmis oikeuksien</w>
suori tta
te ista</w>
m isto
isuude ssaan</w>
kuningas kunta</w>
nimen sä</w>
ll isella</w>
aal inen</w>
kuning as</w>
se koi
mahdoll inen</w>
l ö
puu tte
kanna tta
ty tön</w>
tu k
E ivät</w>
munua isten</w>
matto mia</w>
tu ksesta</w>
C l
main ittu</w>
hel ppoa</w>
el a
M y
b y</w>
Ter ve</w>
Tie tenkin</w>
Direktii vin</w>
ohjel massa</w>
saa stu
5 ,
artikla a</w>
välttämä ttä</w>
g o</w>
o vi</w>
näy tä</w>
mm o
sovelta misesta</w>
un i</w>
järje stää</w>
Tuo lla</w>
soke ri
ta tte</w>
valla ssa</w>
ka an
mietinn össä</w>
vo itu</w>
maa ilma
jo ssain</w>
T or
kalta iset</w>
Nä itä</w>
vaatimu sten
ase maa</w>
pu l
Suo si
2 .</w>
llis ena</w>
b ro
kehity kseen</w>
keske inen</w>
eriko is
injekti opu
Esi merkiksi</w>
vahing oi
f y
tt ei
p pa</w>
da ar
el taan</w>
verkko sivu
omina isuudet</w>
Tu nnen</w>
L ou
halua isi</w>
la ssa</w>
r et</w>
to ista
tek isi</w>
V ara
ki ito
vaa d
lopu ksi</w>
matto man</w>
puhu u</w>
yli määrä
Mi et
Py sy
ai ot</w>
y den</w>
kolleg at</w>
jake lu
yhteiskunn a
yh män</w>
vi isu
htt p</w>
en saa
t r
vih oll
vali koi
Mon et</w>
po ten
pää asia
pan na</w>
tehtä vien</w>
kulje tta
huone essa</w>
sto ssa</w>
A la
ilmoi tetaan</w>
mahdoll iset</w>
käytä nnö
ole vansa</w>
stä vä
j u</w>
in de
tarka sti</w>
rin ta
puolu stus
ohjel masta</w>
todiste ita</w>
ris kin</w>
pela staa</w>
taso lle</w>
Ä it
yhte isiä</w>
Tän ään</w>
union ista</w>
tarkoitu ksiin</w>
tehokkuu tta</w>
VAL MIS
tä minen</w>
ohje et</w>
mo ne
YHTEIS Ö
tuotta jien</w>
la ino
poi kani</w>
puhel ime
j y
: tä</w>
tutkimu sta</w>
kein o</w>
yhteen sovi
Taulu kko</w>
6 ,
ro oli</w>
suuntavii vojen</w>
ehkä is
ma te
suunnitel man</w>
tod ettu</w>
kamp an
R os
raho itus</w>
ta hto
kaik en
Amer ikan</w>
kul ut</w>
leik kau
1 6.
uot o</w>
toimivalta isten</w>
määritel ty</w>
keskuspan kin</w>
ku itu
tie toihin</w>
yksik kö</w>
le vy
yhd ellä</w>
sovelta minen</w>
kiel te
kaupun ki</w>
valmis tus</w>
men et</w>
ilmoi tti</w>
kehittä miseen</w>
va stuu</w>
ra al
Tarkoi tan</w>
Minä kin</w>
tuo nn
sel ville</w>
ympärist ön
ener gia</w>
tarv e</w>
keskustel ua</w>
s s</w>
sel i
En kä</w>
pysty y</w>
pas ki
es ity
käy nti</w>
ni mel
ta r</w>
BK T
tu kien</w>
pyy d
mu illa</w>
pa ikkaan</w>
mis -</w>
tasa valta</w>
R uo
hyvä ks
tta vista</w>
Jä l
etu ja</w>
tarv etta</w>
Ker to
muka isuuden</w>
ki it
säil yttää</w>
helv ettiä</w>
H il
O T</w>
kat sa
markkin oita</w>
Muu to
taloudell isia</w>
paika lle</w>
tu lit</w>
nyky istä</w>
yle istä</w>
suunn itt
Un ka
a maan</w>
raken tee
ole vaan</w>
eri tel
taa sti</w>
yli ttä
kysymy kset</w>
oso ite</w>
huole stu
S opi
C ha
myr ky
in hi
luku määrä</w>
läh ett
Vi elä</w>
lla kaan</w>
Rau hoitu</w>
lääkä ri
mahdoll ista
hyväksy ntä
ko mmen
val taan</w>
-tiedo ston</w>
amer ikkala
ol uo
puheenjohta jan</w>
le v
suu n</w>
mar gin
tälla isia</w>
i ha
tava ro
poliitt isten</w>
us e</w>
Yhdisty neen</w>
: stä</w>
kä te
edellyttä en</w>
liik enn
ohja us
E lin
w i
kappal eessa</w>
etu a</w>
työllisyy s
voi ma</w>
viime isen</w>
täysi määrä
käs ky
teoll isuu
ikä y
vuu desta</w>
direktii viä</w>
y lle</w>
p rin
laa du
hien o</w>
periaa tetta</w>
tä ltä</w>
johd an
me ja</w>
- Olen</w>
pel o
g t</w>
Ni itä</w>
Henkil ö
s c
mma sta</w>
nyky ään</w>
eurooppala inen</w>
veren pain
mall in</w>
den kin</w>
ss anne</w>
a st
tiety sti</w>
anno ssa</w>
yksino maan</w>
mi in
tu us</w>
ll o</w>
di lle</w>
edistä miseksi</w>
ehdo kas
tto muu
al enn
ilme sty
toi von</w>
nel jän</w>
mu kan
per he</w>
se ksu
nuo ri</w>
julka ise
E x
väärä ssä</w>
ko sta</w>
R an
vaikutu ksen</w>
käsittel yssä</w>
viranoma iselle</w>
N uo
Ta voi
tie to</w>
ma h
mahdoll istaa</w>
tark istaa</w>
u min</w>
hä tänä</w>
hyväksy ttä
ole tko</w>
li pu
vä le
komp onen
laske taan</w>
p uun</w>
tuo mio
jo sta
ha ku
tur vassa</w>
K re
re sep
kyse istä</w>
ih me
täytäntöönpan o</w>
tty jen</w>
hallitu sten</w>
menetel mä</w>
Vi e
sano taan</w>
pitkä llä</w>
- Hei</w>
per in</w>
To iseksi</w>
tii vi
nä issä</w>
Kan na
hyödy ntää</w>
liitty vää</w>
YUT P</w>
suku pol
mu sta
Kaik kien</w>
osa sto</w>
ar k
pan i</w>
tois sija
ti ä</w>
L IS
Au to
lu ki
mer kin</w>
er gi
periaa tteita</w>
Vii me</w>
kuole e</w>
etty jen</w>
läh etti</w>
ole viin</w>
poliitt ista</w>
ma gne
An d
maan sa</w>
M yy
hiili dioksi
ka tta
Tie sin</w>
tu urin</w>
po jan</w>
nimi kke
komite alle</w>
täs mä
menetel miä</w>
edistä minen</w>
tekn iset</w>
hän eltä</w>
toimenpi teisiin</w>
tulo s</w>
lu ettuina</w>
osuu den</w>
us tel
Suo mi</w>
N ope
asiakir jojen</w>
J ää
ver ran</w>
su ih
tal o</w>
tai da</w>
ttö miä</w>
sisäl tö</w>
lisä y
ko e
voi tte</w>
na a</w>
vaikutu ksista</w>
P ete
R aa
liitt e
turvall isuus</w>
ett ujen</w>
pyy dän</w>
tiedon anto</w>
prose ssi</w>
tutkimu sajan
W or
valtu us
tarkoitu ksen
li ja</w>
hankke ita</w>
ja kaa</w>
Bri ta
vapa utu
Väli meren</w>
riske jä</w>
lou kka
ty llä</w>
min ne</w>
e teen</w>
luu le
La t
p inta</w>
t hän</w>
jä nn
kahdeks an</w>
ar ia</w>
kun taan</w>
P hi
ik on</w>
esi tti</w>
kokona isuudessaan</w>
a ks
A li
L än
stru men
hyväksy tään</w>
itt oa</w>
illa lla</w>
lento ase
sä te
rakenn eraha
tekn inen</w>
muodo stu
väl ttää</w>
laa tu</w>
vä lle</w>
A N</w>
F i
st ri
a minen</w>
raa ka</w>
neuvosto ssa</w>
tett u
Löy sin</w>
pi ka
Ir lannin</w>
käsittel yn</w>
var oi
markkina järjestel
Davi d</w>
ro u
jan sa</w>
myönte isesti</w>
Il ma
TA N
ika t</w>
sihte er
pa ho
Krei kan</w>
avu stu
ttä minen</w>
Ih miset</w>
ki mp
her rat</w>
Po tila
sydä me
vira llisen</w>
e x
v ei</w>
yhti ö</w>
nä ki</w>
Sa moin</w>
Ol kaa</w>
kansalais yhteiskunnan</w>
F R</w>
dä mme</w>
f armako
a hd
k ön</w>
viha inen</w>
AK T</w>
pid että
valmi ina</w>
hava itse
is e</w>
indikaa tto
äit ini</w>
lu ji
Tä ytyy</w>
ole kin</w>
jutu n</w>
ker ää
nä et</w>
kansala isille</w>
mu i
pu do
anta sa
energi an
voi tava</w>
ver en</w>
tuo mar
a iset</w>
ju tella</w>
tilan teesta</w>
pro fi
va stu
Huo menta</w>
paika t</w>
kysymy ksen</w>
aiheutu vat</w>
Parlamen tin</w>
ala t</w>
g er
finan ssi
pää si</w>
vo isimme</w>
hin nä</w>
ni men</w>
tilan teeseen</w>
nime ä
euro pa
osallistu mista</w>
kata stro
ik ko</w>
yh mä</w>
2 8.
lu ettuna</w>
kustann us
käynn issä</w>
yty s
mall i</w>
Kuulo staa</w>
suur ta</w>
oi du
Seuraa va</w>
valmis teet</w>
S ha
vii kossa</w>
ul un</w>
päätö sten</w>
yri tti</w>
vyö hy
tan ssi
kah ta</w>
M ain
tai taa</w>
kon f
Mu ka
päätty y</w>
mo r
tekijö iden</w>
rau hall
men en</w>
kä si</w>
tarvitse t</w>
kyse isessä</w>
Tur kin</w>
lä pi
O vatko</w>
ko neen</w>
nuo ris
pan kin</w>
P C
vai hde
tai va
ity sten</w>
ap tee
tu han
T on
saar i</w>
inf uusi
koo stuu</w>
te tyn</w>
ber t</w>
ta vana</w>
Yle is
lau ta
yhd is
aja ksi</w>
Pal vel
kolma nne
edusta ja</w>
na p
10 00</w>
Sa ma</w>
työsken ne
var ha
itse ään</w>
yhtenä is
le r</w>
ke uh
S ar
toi vat</w>
matka n</w>
l än
ali jää
lop ul
määri ttää</w>
ist ossa</w>
te ttavat</w>
inno vatiiv
vaatimu ksista</w>
ol on</w>
paranta minen</w>
Nä yttää</w>
työpaikko jen</w>
etu jen</w>
määri en</w>
I sä
ttele mme</w>
ma ksi</w>
Hy vät</w>
A lo
ne itä</w>
S oita</w>
tie tyn</w>
sa mat</w>
piene mpi</w>
o is
kann u
valmis tettu</w>
syö dä</w>
ste r</w>
kko jen</w>
saa maan</w>
luo pu
te ura
sovelle ttavien</w>
I so
oi daan</w>
itsen i</w>
ha kea</w>
tarvitse mme</w>
La us
hel ppo</w>
helpo ttaa</w>
T Ä</w>
ha mma
e päi
n ista</w>
Tie tysti</w>
tarkastel u
o sto
lähte e</w>
oikeu sasteen</w>
väest ö
tus kin</w>
yhtiö iden</w>
tu pa
suoje lla</w>
A d
kutsu taan</w>
toimenpi de</w>
pel kää</w>
hoido ssa</w>
ko vasti</w>
b y
ll en</w>
Y P
taud in</w>
Eurato m</w>
v inä</w>
S is
S ch
6 00</w>
laa tia</w>
Li ike
mpi in</w>
osallistu minen</w>
Esi ttelijä</w>
kuu nne
vaadi taan</w>
tta en</w>
poten ti
pain on</w>
Minu lle</w>
Te oll
24. 6.2016</w>
ä lä
u ksessa</w>
voimakka asti</w>
Pää stä</w>
tu aan</w>
ihmis ille</w>
Yhdisty neiden</w>
al en
se kun
oh jaa
š e
tila pä
pe h
ko t
Val mista
sä ili
ma ti
energi alä
ka si</w>
am paa</w>
täys istu
elä mäni</w>
vaka vasti</w>
tie tenkään</w>
tee ssä</w>
elä mään</w>
ma tka</w>
tie tävät</w>
sen kin</w>
os opimu
etty ä</w>
erity isiä</w>
heng en</w>
odo tetaan</w>
A gen
y ttä</w>
kysymy ksiin</w>
tunn ista
kuule mma</w>
voi maa</w>
näy tte
olosuhte et</w>
esiin tyy</w>
maail ma</w>
d yt</w>
H A
kysymy kseen</w>
vie sti</w>
vaih ta
viljeli jö
san a
ehdotu ksesta</w>
En sin</w>
kansainväl istä</w>
itu ksia</w>
Kuul e</w>
raka staa</w>
valmis teiden</w>
oma isuus
sa massa</w>
Ko ti
poikke ukse
tekijö itä</w>
lää kin
kirja llinen</w>
maks uja</w>
a m</w>
Tei llä</w>
asu in
asian aja
kesk isuu
ase tta
arvio intia</w>
pi ilo
ky llä
et sin
tieto jen
ravin tol
mmä lle</w>
a kseni</w>
mainitt ujen</w>
Yhteis ö
isin ko</w>
- Onko</w>
tion al</w>
Erity isesti</w>
l an</w>
o ttavat</w>
taloudell iset</w>
me te
yhteen ve
a j
kap teeni</w>
ih on</w>
R :n</w>
puheen vuoro
muuto sten</w>
keskustel u
hä vittä
fo r</w>
Vau htia</w>
synty mä
lääkke en</w>
vastaa vien</w>
ystävä si</w>
uno htaa</w>
pi dät</w>
kulutta ja
pala uttaa</w>
viipy mättä</w>
f f</w>
pa he
I S</w>
ho it
Sa m</w>
pi r
assosi aati
valmis tetut</w>
vuosi tta
yksikkö ä</w>
laa juu
kor ko
me tab
komp ro
vaati a</w>
tee stä</w>
jaks o</w>
nouda tetaan</w>
sul j
Slo ven
I F
H aa
te ette</w>
Yhdisty nyt</w>
a d</w>
tila isuus</w>
itse si</w>
Tiedä mme</w>
M it
ke itti
asu u</w>
vai mo</w>
jää dy
pyrki my
laito kset</w>
au ta</w>
ksi llä</w>
asianoma isten</w>
Mu ita</w>
huo n
Huo ma
liitty mis
pa hen
mu s
pysy ä</w>
vira llinen</w>
yty s</w>
na tri
positi iv
Suo messa</w>
no staa</w>
pääse e</w>
jä lle</w>
Sa man
käynn in</w>
ent syy
CA S</w>
jä nä</w>
arvo ista</w>
r us
avi o
päätöslausel man</w>
p ään</w>
käynn istä
jaks olla</w>
g ista</w>
vi a
lainsäädän tö</w>
men n
ide a</w>
Mikä li</w>
tutkimu kseen</w>
t ku
toime ksi
mma lle</w>
hd i</w>
ta soi
hy d
F in
voi hin</w>
osallistu vat</w>
ediste tään</w>
kansainväl inen</w>
v opää
tärke i
lä hinnä</w>
lap sen
vii li
re tään</w>
un saa
sosiaal ista</w>
myy nti</w>
T al
valmi iksi</w>
: ssä</w>
Y h
ra si
henkilö ä</w>
vah va</w>
ta essa</w>
tehtä vänä</w>
ir i</w>
sisä lle</w>
en kään</w>
en o
esittä nyt</w>
tosi aan</w>
vä sty
suunta utu
LU K
T I</w>
te sti
määr ään</w>
Ih mis
toimi eli
ras va
puuttu u</w>
Fran k</w>
digi taal
Heinä kuu</w>
Par i
19 .
näy ttä
san ka
pi il
s h
w ar
vuoti ai
il menee</w>
korva taan</w>
ajattel in</w>
D ar
vaka va</w>
tekn isten</w>
pien iä</w>
maks u</w>
esite tyt</w>
S ul
miel ell
ee seen</w>
U D
vaih taa</w>
arvon lisä
nyky isen</w>
kap sel
sel väksi</w>
s .
he r</w>
ssopimu ksen</w>
ksi aan</w>
in aan</w>
tuotannon alan</w>
maail maa</w>
nime si</w>
työsken tele
aati on</w>
Ma hdoll
uno hta
sen tään</w>
lopp u</w>
Ki va</w>
tu etaan</w>
st yö
ero on</w>
tod istaa</w>
jon ko</w>
E P
tapa an</w>
kunni an
k la
istu sta</w>
mielen kiin
periaa tteet</w>
arvo ja</w>
ris kin
suo jaa</w>
tap pan
EU V
jä tä</w>
ky n
jo udu
tu mis
taulu kossa</w>
men nään</w>
he i</w>
integ ro
Soi tan</w>
Euroop pala
hallin to</w>
ty li
ou toa</w>
err y</w>
ta iste
palvelu iden</w>
K ulu
pro tei
ene e</w>
sa vu
Py sä
jäsen iä</w>
antu nut</w>
tekn isen</w>
ilmo itus</w>
tila ssa</w>
laa ja
4 0
demokra ti
f in</w>
ymmär r
T arvi
ympäristö ä</w>
perusta misesta</w>
tehokkuu den</w>
- Kyllä</w>
täh tää
S ää</w>
var sin</w>
so dan</w>
C la
kaup paan</w>
Pal jon</w>
lai ttaa</w>
kuul ostaa</w>
män sä</w>
tel tu</w>
haitta vaikutuksia</w>
käyttä jien</w>
oli mme</w>
tulo sta</w>
pitä mään</w>
bi an</w>
a vai
c to
mani taar
tälla isten</w>
muu alle</w>
mo d
menta ja</w>
ist ot</w>
ul a</w>
vaike uksia</w>
pur ka
main ita</w>
le vittä
g on
anne tussa</w>
konf lik
s tetaan</w>
ese en
MY YN
va ali
lle kään</w>
kau he
euro alueen</w>
ase tetaan</w>
puhu nut</w>
lu en
Li itt
Val ko
keske y
tt uun</w>
F o
kohd asta</w>
l enn
10 7</w>
väl iset</w>
riippu va
kustann uksista</w>
koh tana</w>
ää kö</w>
kon tro
B en
vii ttaa</w>
ti he
kaupun ki
su p
min i
mahdo tonta</w>
kel i</w>
tetta vissa</w>
ra jojen</w>
soi tti</w>
er ää
kri isin</w>
vuu teen</w>
utu minen</w>
tie tä</w>
laitt een</w>
ratka ista</w>
a ar
Char lie</w>
O p
määri ttele
rau han
Ruot sin</w>
käsittel yä</w>
Pete r</w>
5 0
varmista maan</w>
Ol isin</w>
taso a</w>
istu u</w>
w e
vuu s
sä r
o inti</w>
vopää lly
pp u</w>
lainsäädä nnössä</w>
ta isi</w>
vuorokau dessa</w>
so ta
asianoma isen</w>
Inter ne
ma ille</w>
Halua mme</w>
stu tki
pyrki i</w>
M iltä</w>
Il moi
raska ana</w>
Yr itin</w>
ryh mässä</w>
nä illä</w>
energialä hte
myy nn
alu s</w>
jä tti</w>
b l
la tti
ne ga
ra han
S U
analyy si</w>
palvel i
aste i
lu kea</w>
vaihtoeh to</w>
näy ttö
inst ituu
b on
Nä etkö</w>
myöhä ssä</w>
hyväksy nnän</w>
En sinnäkin</w>
P aika
näke e</w>
elä mää
Lä hdetään</w>
p isto
C hi
ryh mään</w>
Ko re
tto mia</w>
7 ,
muo doll
esi tettävä</w>
yksik öiden</w>
o sien</w>
osa an</w>
sto on</w>
P au
päällik kö</w>
määri ttel
g li
T an
ista si</w>
A in
keskuste lla</w>
pää sy</w>
ka te
un el
puhu i</w>
vaihtoeh toja</w>
mi llään</w>
raha sto</w>
no ista</w>
il mi
utu vat</w>
tuli vat</w>
tele vat</w>
hu oli</w>
p elä
tuki kelpo
kehittä mis
velvoll isuu
si u
ik enne
To ki</w>
Mar i
t inen</w>
ryh mät</w>
2 1.
tion aal
h etta</w>
Na inen</w>
gi t</w>
J er
ker ron</w>
toimin nassa</w>
pu t
men että
Si is</w>
i ä
kulje tu
ks a
kunn olla</w>
S osi
välity ksellä</w>
A ina</w>
r eiden</w>
E rä
jo ll
kerra lla</w>
van ke
toimivalta isen</w>
pro jek
lap sille</w>
enemm istö
py yh
Kro a
pare mpaa</w>
ra tifi
ölj y</w>
vii västy
kaasu n</w>
T ri
C E</w>
An takaa</w>
vaih e</w>
haus ka</w>
tul et</w>
vai hdon</w>
ss an</w>
in strumen
väle in</w>
tulo t</w>
in t</w>
c u
Hän tä</w>
ko va</w>
O sa</w>
Kä yttä
ma ino
L ÄÄ
yhteisö ön</w>
raken ne</w>
al ist
tu ken
a mm
Vo isitko</w>
ty s
vau ri
a vaa</w>
ER ITY
2 9.
Nä en</w>
to iselle</w>
li ppu
periaa te</w>
valti o
suo tu
bru tto
asu n
O IT
ma ali
Espan ja</w>
muo toi
s ara
myö tä
idi oo
N A</w>
peru sta</w>
vaiku tta
alu eille</w>
Bulg ari
vähen e
tabl etti</w>
vi ttu</w>
kansala isia</w>
täy ttävät</w>
vopäälly ste
nel i
va t
la illa</w>
kä s</w>
ka li
julk isia</w>
2 50</w>
L ain
politi ikkaan</w>
ohjel mat</w>
löytä nyt</w>
kes kuu
oh j
ka lli
ala isia</w>
sa mmu
johtu vat</w>
käyttä mällä</w>
muodo staa</w>
mi s</w>
valmista jan</w>
r yhdy
G o
liuo s</w>
M il
st osi</w>
neuvottel ujen</w>
c hi
yks in
2 7.
vä nsä</w>
Lisä tietoja</w>
taa ta</w>
ll ise
Ki inte
YHTEISÖ JEN</w>
he ikko
tarko ita</w>
puole en</w>
ki pu</w>
Yhdys valta
oni a</w>
arvo sta</w>
tärke in</w>
turvall isuuteen</w>
n kö</w>
m uoto</w>
rajoi ttaa</w>
miel estä
To m</w>
tehtä vän</w>
ole massa
vähe mm
työllisyy den</w>
saira ala
kilpail u</w>
Ko ke
potila ista</w>
oikeu teen</w>
sovelta misen</w>
suojel u</w>
si ä</w>
keski määrin</w>
Hä iv
ky t
s t</w>
eurooppala ista</w>
toteutta mista</w>
san at</w>
ano sa
tilin tarkastustuomioistu
sin äkin</w>
ttä miseksi</w>
S ara
aja tella</w>
tä mään</w>
tie si</w>
kat se
s ka
ll isuutta</w>
1 3.
A nnan</w>
tarv itsen</w>
keino ja</w>
pel in</w>
sti vat</w>
tu minen</w>
muu ttunut</w>
A jo
tie tyt</w>
la si
I U</w>
vä ri
Ä I
kat sel
La ita</w>
ka ise
ha mpa
tois istaan</w>
aktiiv isesti</w>
mete o</w>
huoma ttava</w>
v .</w>
sta t</w>
sa telli
jo lla
Jul k
muodo stavat</w>
alku per
Sa malla</w>
jä i</w>
MYYN TI
PÄÄ TÖ
saman lainen</w>
politi ikkojen</w>
kon i</w>
tapo ja</w>
ky tke
T ho
o tettiin</w>
tt ei</w>
merkittä vää</w>
W e
Su ite</w>
g a</w>
M EN
t se
b il
muuta ma</w>
poliitt isia</w>
koulutu kseen</w>
itse äsi</w>
Inter net</w>
it yö
TA MIS
n it
p etty
su ru
c el
pi t</w>
lähestymista pa</w>
s ki</w>
tu esta</w>
mist ään</w>
is änsä</w>
istu a</w>
di e</w>
verkko jen</w>
vasta us</w>
ki va</w>
pa ti
perustu va</w>
tarv ita</w>
soli daar
d issa</w>
mo men
han kkia</w>
Vo isin</w>
M itä
- Kiitos</w>
saira us</w>
kunn on</w>
mal a</w>
ec ua</w>
ist oa</w>
etsi ä</w>
vira llisesti</w>
hall itse
A vaa</w>
v itun</w>
la ki</w>
ala a
arvio i</w>
Jo tain</w>
toimi maan</w>
Oli mme</w>
neuvottel ut</w>
ista n
rapor tti</w>
las kel
tunn u
toimivalta inen</w>
keske llä</w>
tapahtu a</w>
jo tkut</w>
C H
re ja</w>
ero ja</w>
9 ,
18 .
ohje ita</w>
tarvitse vat</w>
sta nne</w>
äi din</w>
työ hön</w>
tarjoa vat</w>
sii vo
vali tettavasti</w>
isi tteko</w>
f luo
toime en
ko ita</w>
un sa</w>
k te
vast uun</w>
J i
valla t</w>
Yhdysvalta in</w>
2 6.
hä l
mat ku
investointe ja</w>
ka tka
menetel mät</w>
har ra
varova inen</w>
Kerr on</w>
ma kuu
perhe en</w>
tuon ti</w>
si viili
pyö ri
Mu istan</w>
erino ma
äske ttäin</w>
issa si</w>
kirjoi ttaa</w>
ik y
työ stä</w>
ensisija isesti</w>
yhd istää</w>
kunn alle</w>
2 2.
ty mä
Geor ge</w>
tapau ksen</w>
ala kohta
investointi en</w>
lo s</w>
niin kuin</w>
en te
17 .
t ola
ista ni</w>
Yhdisty ne
rapor tin</w>
ole kaan</w>
kas vin
ho mma</w>
1. 1</w>
tt eille</w>
potilaa t</w>
odo ta</w>
väl isiä</w>
Ri i
torjun ta</w>
hy per
pu ke
koh taa
c or
e ja</w>
Kil pa
al f
tehd yt</w>
enn y</w>
itä y
1 20</w>
liitty ä</w>
luottamu kse
hin taan</w>
op a</w>
er ot</w>
b ia</w>
ista mme</w>
kä sin</w>
H U
elo ku
K ur
inter ne
aika ise
ava in
tie s</w>
potila an</w>
kal vopäällyste
I ON
alle kirjoitta
a r</w>
tab le
yhteis ymmärry
ih m
ratkais uja</w>
kysymy stä</w>
f on
yksity isen</w>
tu ensaa
o ven</w>
in deksi</w>
potilaa lla</w>
An gel
koh den</w>
kahde sti</w>
x in</w>
tuk itoi
itu kset</w>
tarkaste llaan</w>
Kau pun
ehdotu kset</w>
väest ön</w>
pa haa</w>
moni vuot
si v
oll essa</w>
vel i</w>
joulu kuussa</w>
ka du
rii ttävä</w>
sto d
ke ksi
On pa</w>
aloi tteen</w>
utu s
Af gan
yhteen kuulu
po istetaan</w>
pe u
Lä hde</w>
................ ................
vapa asti</w>
inhi mi
v isu
si vi
ri e
ympärist ö</w>
velvoll isuus</w>
lu va
matka ilu
i py
tuomi o</w>
kulttuu r
1. 2.
ar o
tabl ettia</w>
aamu na</w>
Pel a
KS EN</w>
ku mma
kestä vää</w>
huo llon</w>
BA R</w>
pa s</w>
kel ta
tör mä
ru is
ga an
arvioi tava</w>
suur et</w>
mi hin
so sa
juh li
ttä kää</w>
enn alta</w>
kul ke
Rekiste rö
vient itu
valmi ita</w>
po is
kansall isella</w>
ha h
e mmin</w>
R as
taka isin
Ko o
kesken ään</w>
a inu
199 1</w>
se iso
ttele maan</w>
yhte iset</w>
pel kkä</w>
ku si
ID EN</w>
nyky aika
E gy
enna koi
menetel mien</w>
tiedä tte</w>
pyy ntö</w>
Euro pe
s tettiin</w>
pan ee</w>
nä en</w>
main itut</w>
I han
ks ina</w>
ala ista</w>
L L
ase iden</w>
B ru
totuu den</w>
kyky ä</w>
Mu iden</w>
yö nä</w>
J Ä
vasta si</w>
tiedon annon</w>
la an</w>
o r</w>
a is
ta ko</w>
kerro in</w>
ka lla</w>
I stu</w>
lää ke</w>
asianmuka ista</w>
ne y</w>
välin een</w>
Lisä ä</w>
lle ja</w>
järjestö t</w>
ta kau
so tilaa
hu manitaar
ympäristö ön</w>
Yhdys vall
europa .e
Muu ten</w>
edellyty ksiä</w>
ka ll
peru sasetuksen</w>
erity inen</w>
ton in</w>
Mar kkin
uut isia</w>
kas v
me ts
ll isuus</w>
ta ika
kulu tus</w>
Tek n
di ab
vaih toa</w>
Miks ei</w>
sisä isen</w>
ponn istel
alu ksi</w>
per h
mo on</w>
tuleva isuuden</w>
Kan a
luettel on</w>
K KA
lo h
to ni
t ran
erä s</w>
kierr ä
MÄÄR Ä</w>
rapor toi
Mu ista</w>
muu alla</w>
sel kä
8 ,
järjestel yt</w>
oll een</w>
nyky isin</w>
vahvista misesta</w>
järjestä yty
K uo
yhteistyö hön</w>
toisi aan</w>
tetu sta</w>
M ole
hau ta
avoi me
R en
le h
vaikutu s
mm y</w>
sovelle ttavat</w>
muka vaa</w>
2 3.
ul os
S tan
määrittä miseksi</w>
lausu nn
vaka via</w>
isa alta</w>
vastaano tta
sydä men</w>
löy dä</w>
ja mme</w>
el u
d ö
vi enn
palvel u</w>
- Minä</w>
laadi ttava</w>
ryh tyä</w>
energi aa</w>
juu ta
pi kar
Puol an</w>
yle iset</w>
muka isten</w>
kyse en
vii kon
mp ään</w>
mihin kään</w>
r eni</w>
ta mi
Järje stel
huole llisesti</w>
sto ja</w>
u r</w>
tarkistu ksia</w>
tuomi on</w>
tarkaste lla</w>
var alta</w>
min a</w>
in ta
Bel gi
1, 5</w>
aika ta
määrä tä</w>
se o
raja tyli
o tan</w>
ylpe ä</w>
H ai
sää stö
Kos o
Ka i</w>
tuo ssa</w>
kirja an</w>
aiheell ista</w>
uu mmin</w>
täy tettävä</w>
väli in</w>
pysy y</w>
a k
Hei llä</w>
C :n</w>
L t
mahdoll isia</w>
teh o</w>
Lu e</w>
vastaa maan</w>
avi oli
varo ista</w>
osa kke
nn un
ri an</w>
ra han</w>
pela ta</w>
kuole man
määri tellä</w>
as u</w>
To isaalta</w>
han ke</w>
Käy ttö
Per u
Mik e</w>
mietin töä</w>
aske l</w>
ito ista</w>
g os
tutkimu kset</w>
isto jen</w>
tutu stua</w>
teki vät</w>
te d</w>
ol en
kiinni ttää</w>
m osi</w>
hyväksy ttävä</w>
enn ut</w>
edellyty sten</w>
levi ä
oppi a</w>
re u
pä h
saman kalta
g h</w>
di e
use imm
P ER
roh ke
lähestymis tapaa</w>
ks u</w>
ne r</w>
hen keä</w>
tapa us</w>
- Älä</w>
järjestely jä</w>
ster da
liikke eseen</w>
tapahtu van</w>
K ulta</w>
To isin</w>
mestar i</w>
infrastruk tuurin</w>
Et sin</w>
r ten</w>
ll yt</w>
iti mme</w>
etel ä
ajo issa</w>
Kuu le
N ap
sy mb
sto lle</w>
me r</w>
inst itu
hei ja
työ voima
mm ene
tetty nä</w>
D ani
ww w
syy ttä
jul ki
aloi tteita</w>
E ttekö</w>
su hd
ver on</w>
sää ti
suhte et</w>
ntö jen</w>
miehen i</w>
m man
työjärjesty ksen</w>
Ra por
ääri mmä
kaup pi
agen tti</w>
kiinno stu
Tar jo
Am sterda
suo ja</w>
kaks inkerta
todell ista</w>
o he
nega tiiv
uud ista
ris kiä</w>
tel u</w>
kilpa ili
elä kke
ttu u</w>
Ku tsu
osapuol en</w>
jäsen yy
suuntavii vat</w>
luul tavasti</w>
P uu
EU R</w>
lai va
aja tu
Maa ilman</w>
to ks
koh tien</w>
asianmuka inen</w>
sa ste</w>
K ala
esittä mään</w>
esite tyn</w>
mei hin</w>
kutsu a</w>
si gna
tulo jen</w>
Jo e</w>
ilma sto
l o</w>
lla mme</w>
oikeu sasia
luo daan</w>
tele maan</w>
yhd ys
työpaikko ja</w>
luo kka</w>
rekisterö i
la jien</w>
tiedo ksi</w>
hyväksy minen</w>
menetel mää</w>
vastaa vasti</w>
le hden</w>
kka iden</w>
vahvis tettujen</w>
ha ppo</w>
synty nyt</w>
tar ina</w>
prose ssia</w>
rajoitu ksia</w>
UN ION
keskimäärä inen</w>
mma lta</w>
hei ko
TT Ö
L ar
vä ittää</w>
no ita</w>
eri ff
lann issa</w>
ih än</w>
ne ista</w>
perustu van</w>
hy p
VALMIS TE
KS ET</w>
Yks ity
T še
maks un</w>
kapasi teetin</w>
kehy ksen</w>
urhe ilu
pa ka
klo ri
mise lla</w>
T aa
tus -</w>
B os
tun tu
rau haan</w>
kö ön</w>
demokra tian</w>
c an</w>
re en</w>
b is
ito d
käyttä mään</w>
kri itt
pyö r
ra jan</w>
tode llakaan</w>
ma s</w>
stoimin nan</w>
huo maa
organisaati oiden</w>
seksu aal
s ho
30 .</w>
Au ta</w>
aa tto
määri tetään</w>
pane uvo
S enkin</w>
keske yttä
kis ää
suu ru
LÄÄ KE
toi men</w>
E ur
is at</w>
N EUV
pi den
S yö
LU VAN</w>
palvel un
an kin</w>
Jä tä</w>
Muu ta
nope u
LUK U</w>
ti eli
saa dut</w>
ty l
kann usta
ölj yn</w>
vielä kin</w>
C YP
kuole man</w>
ala lle</w>
ito umu
Ma c
onn istu</w>
bb y</w>
torju miseksi</w>
ari o</w>
pysy vän</w>
osallistu u</w>
k äänty
H ol
naimis issa</w>
ta jua</w>
asetu sten</w>
vo ista</w>
Ol isit</w>
un ta</w>
puol is
poliitt iset</w>
etu käteen</w>
kol mi
Ne iti</w>
t inut</w>
kir joitu
polku myyn
tre ff
pi a</w>
Voi tte</w>
3 .</w>
jou kko</w>
muu tettu</w>
Va pa
aloi ttamista</w>
markkin ointi
näky y</w>
mm issa</w>
sall itt
s onin</w>
ll iselle</w>
Cl ar
kää nnö
päivä määrä</w>
p r
neuvo n
kah teen</w>
e maan</w>
kuu ntele</w>
ir ro
harvin ainen</w>
tekn isiä</w>
maini taan</w>
kasvi huone
puhd istu
ty minen</w>
te s</w>
mah tava</w>
Kui tenkin</w>
joll ei</w>
vuu n</w>
tutki ttu</w>
Bel gian</w>
paika sta</w>
a h
Y l
ta ki
yhteen sopi
on line</w>
ol koon</w>
ei ksi</w>
op era
Vi e</w>
ky ken
tel i</w>
d ista</w>
yhdenmuka ista
tytö t</w>
muu hun</w>
tasa puol
iss ään</w>
ss äsi</w>
Is äni</w>
ee ssä</w>
m s</w>
ko men
na h
val inta</w>
sa tunn
hir vi
suhtee llisen</w>
joi denkin</w>
is inä</w>
Ai on</w>
kaupun gissa</w>
pä in
nimen oma
pi ke
injekti one
P har
Egy p
saata ville</w>
johdon muka
men ettää</w>
vä itt
is än</w>
llisyy s</w>
koir a</w>
nnö t</w>
Ta ka
sosiaal inen</w>
rajoitta matta</w>
o itu</w>
lento ken
hakemu s</w>
Toi menpi
ir in</w>
An taa</w>
k kun
stä mme</w>
utu ksen</w>
Län si</w>
to ki</w>
sa si</w>
julki lausu
onne llinen</w>
kuole maan</w>
au ttamaan</w>
kumoa misesta</w>
na ista</w>
In ti
ehdo ttomasti</w>
ainu t
el l</w>
suo jan</w>
huol to</w>
to isen
yhte ys
yrity ksiin</w>
valko inen</w>
ilma inen</w>
asianmuka iset</w>
uude ssa</w>
os altaan</w>
Yhteisö jen</w>
käytä t</w>
pää ttänyt</w>
strategi aa</w>
ik kun
0, 5</w>
Kulu tta
näy tti</w>
e mpi</w>
n en
ver i
f ir
ongel man</w>
tuo sta</w>
tuo m
vuo delta</w>
ma kro
kaks ois
pit uus</w>
S al
kuulu via</w>
A a
johta jan</w>
gos la
huol en
joh onkin</w>
K eh
uusi in</w>
ke vy
edistä mään</w>
liikke eseen
teoll isuus</w>
pien ten</w>
mat kaa</w>
he mo
H oll
paranta maan</w>
f i</w>
yksityiskohta iset</w>
paika llisten</w>
itys lista
al l</w>
m 2</w>
ihmis oikeu
mene vät</w>
S co
2 -</w>
yksik ö
ver i</w>
lä p
Raho itus
ta hd
nope ammin</w>
hi ll
kunnian himo
tarpe isiin</w>
merkin tö
matto mien</w>
hal usin</w>
si vu</w>
politiika sta</w>
yhte isten</w>
ka lo
tul on</w>
perus tana</w>
ih y
tutkimu s-</w>
Al ku
st r
henkilö itä</w>
halti jan</w>
tehtä vää</w>
kesä kuussa</w>
IM I</w>
myö h
oi lta</w>
makse taan</w>
velvoi tte
Tans kan</w>
ki lla</w>
mu n</w>
- Miksi</w>
a ste</w>
M ikään</w>
tar in
tin i
menetel män</w>
V in
vajaa toiminta</w>
pyri ttävä</w>
yhteistyö stä</w>
työ ll
EL L
plan ee
arvi o</w>
Sinä hän</w>
sosiaalitur va
Yr itä</w>
S tu
P E
t han</w>
sosiaali komitean</w>
Len to
tuo tetta</w>
t istä</w>
se er
eri ä</w>
sella iset</w>
kai vo
terroris min</w>
tarkastu sten</w>
markkin a</w>
b r
B la
jär ky
hull u
kiinno sta
valla sta</w>
ed unsaa
elä imet</w>
sopimu ksesta</w>
kyky yn</w>
oi dun</w>
Ju gosla
tuotan toa</w>
koul un</w>
edelly tetään</w>
vall an
säh kön</w>
ongel mien</w>
tuke maan</w>
Tälla inen</w>
muutta minen</w>
itu sten</w>
osa puoli
u ksella</w>
yksik öt</w>
vasta vuoro
teho kasta</w>
ma mme</w>
liittee seen</w>
menettely ssä</w>
l uot
V II
Ol enko</w>
tapau ksia</w>
pien en</w>
A tlan
W il
ke i
al e</w>
kuu n
NEUV OS
puhu n</w>
al enta
oi mme</w>
nouse e</w>
sano vat</w>
rii ttämä
h o</w>
vuoropuhel ua</w>
Pitä isikö</w>
muu tetaan</w>
kyse isiä</w>
A D
puhel in
standar dien</w>
rau han</w>
tapaa maan</w>
kyvy ttömyy
teksti ili
pääsy ä</w>
Yhdys vallat</w>
P O
A ika
vai hd
Talo us
Ja tka</w>
moni en</w>
tutkimu ksia</w>
parha iten</w>
ty mis
anal ys
psy ko
tetu ssa</w>
V ed
L ei
selvi yty
8 00</w>
puhu maan</w>
kin ta
kokemu sta</w>
ris kien</w>
vastuu ta</w>
Ja pan
kan tojen</w>
kunn at</w>
ensimmä isenä</w>
kokoon tu
Voi mmeko</w>
ryh ty
mme kä</w>
me a</w>
ma ke
kun han</w>
A U
voi tto
st re
potenti aal
Odo ttakaa</w>
ihmis oikeus
histori a
väärist y
va stus
Var o</w>
par issa</w>
Per us
kolma nn
mu istaa</w>
yr itä</w>
on e</w>
jä nne
g ar
tila isuuden</w>
julk inen</w>
st änyt</w>
poltto aine
päi vittä
to sin</w>
myy dä</w>
To della</w>
P S</w>
A M
w or
san oivat</w>
hark ita</w>
Al an</w>
rau hoi
ed ut</w>
On gel
pää hän</w>
mis ia</w>
E ihän</w>
tarkastu ksia</w>
tä mistä</w>
jat kuu</w>
K al
päästö jä</w>
käy mään</w>
Vai hto
ter in</w>
Vali tettavasti</w>
kke essa</w>
suosi tel
taa kseen</w>
par an
g ene
ent inen</w>
li en</w>
vaar assa</w>
kysymyks istä</w>
men tävä</w>
laa tik
käytettä vät</w>
l it
H AL
aiko jen</w>
ikä vä</w>
oi tte</w>
kku a</w>
ta hdo
A utta
J imm
ai hetta</w>
in kaan</w>
Y ri
Portug alin</w>
pöytä kirja</w>
direktii vien</w>
vi ri
Jo ko</w>
j yr
P la
rah ali
kiinte istö
toi minut</w>
es itäy
edusta jien</w>
ss uo
tavaro ita</w>
sto lla</w>
oma sti</w>
kuulu van</w>
ssi iv
paho in
päästö t</w>
vaatimu s</w>
paski ainen</w>
valin ta
olo gi
S in
viranoma isia</w>
u re
j un</w>
Wi lli
ei llään</w>
joutu a</w>
V II</w>
ku men
Ku vi
S aan</w>
Europe an</w>
direktii villä</w>
E li
VA RO
Kun han</w>
vai moni</w>
tappan ut</w>
vo ineet</w>
toimenpi teen</w>
si an</w>
Aio tko</w>
huole htia</w>
Ja mes</w>
muuttu u</w>
luonnoll isesti</w>
tutkimu sten</w>
Suu rin</w>
luetel ma
To de
vähemm istö
utu neet</w>
ase ita</w>
nu tta</w>
gra mmaa</w>
P ri
puu tar
ett emme</w>
Va h
pel i
l y</w>
yksityiskohta isista</w>
ole vasta</w>
löy si</w>
vier ai
hankke et</w>
haa voi
tulo ksena</w>
Pal jonko</w>
istu o
valtu udet</w>
ole ville</w>
Lää kä
J o</w>
Haus ka</w>
teh tyjen</w>
O pe
tälla iset</w>
kas vien</w>
jon kin
impi en</w>
C he
aika inen</w>
Il mo
V aa
mer i</w>
Kes ki</w>
huo neen</w>
sy ö</w>
inter ven
korva ta</w>
ttel ua</w>
I V
is uo
er s</w>
talo ssa</w>
se kunn
velj eni</w>
S en
ky mmene
se ks
ko mmu
CO D</w>
perus tettu</w>
helv etti</w>
korva us
T R
ratkais un</w>
Kan sala
te sti</w>
syn tyy</w>
kestä vä</w>
kahde sta</w>
arvo stel
teho kkaan</w>
toteu tettu</w>
pyytä nyt</w>
si r
itoi min
ett uja</w>
sy ty
li ity</w>
kaa mme</w>
etsi mään</w>
tul o</w>
ho t</w>
yhtä lä
mur haa
1. 6.
se ll
aika an
llisyy ttä</w>
K s.</w>
saira s</w>
Onne a</w>
mp ana</w>
kilpailu kyvyn</w>
peru ssää
lääke ttä</w>
huono sti</w>
sisäll yttää</w>
o mi
alo ja</w>
f lu
j illa</w>
et h</w>
säännö stön</w>
mist e</w>
AN TO
2. 1</w>
-tiedosto tunniste
mu na
Alanko maiden</w>
H D
esi merkki</w>
es s</w>
hiu kka
politiika ssa</w>
ttel un</w>
Pau l</w>
z in</w>
tie teen</w>
se ksiä</w>
ni lle</w>
luo ta</w>
kiire ell
E le
raha stojen</w>
Et si</w>
ista vaa</w>
P U
A l</w>
sattu u</w>
ja ko
ajo in</w>
tau ti</w>
- Miten</w>
täytäntöönpano asetus</w>
mmi lle</w>
tuotan toon</w>
muu lla</w>
A .
lainsäädä nnö
onne a</w>
B en</w>
luott olaito
teke illä</w>
mi tenkään</w>
kaupa ssa</w>
lisää minen</w>
tekijä n
eh tojen</w>
raken teen</w>
il y</w>
S ala
p lo
lentoli ikenteen</w>
Y M
MYYNTI LUVAN</w>
siir ro
f in
toista iseksi</w>
di ag
asi oihin</w>
toimi vien</w>
ttel in</w>
eng lan
IN N
la kia</w>
k it
häiri öt</w>
a sti
tärke änä</w>
järjesty ksessä</w>
py säh
ki vi
itu ja</w>
vo isit</w>
valvonn asta</w>
jäsen tä</w>
enn u
taa kse</w>
me tyyli
ud en
ma sen
TE ET</w>
toimi van</w>
nimel tä</w>
kiinni tettävä</w>
tarke mmin</w>
er ään</w>
Ymmärrä tkö</w>
pöy dä
sano tun</w>
tetta vien</w>
laitt eita</w>
Fran c
o massa</w>
nyky isten</w>
es t</w>
Lt d</w>
tari ffi
ed ustaa</w>
tiedon annossa</w>
tu et</w>
väli lle</w>
en kaan</w>
inf laati
vi hdo
keske isiä</w>
hdi ttava</w>
arvo on</w>
Ko ul
H uu
to tuus</w>
mene mme</w>
ni met</w>
P ÄI
T ro
tell yt</w>
lääkke et</w>
x i
Yhte ensä</w>
Toimi valta
KO S
teh os
usko nn
pu itteet</w>
w oo
keskustel ut</w>
nyky inen</w>
tehd y
ju mala
ve h
utu mista</w>
kuoll e
ka ksi
U h
ke ks
Ma hta
tta mis
näkökul masta</w>
tunn en</w>
käyttä nyt</w>
p on</w>
ha vai
ki ih
ent ise
koko el
kko on</w>
jär keä</w>
-tiedo sto</w>
ll enne</w>
usea mman</w>
prosen tilla</w>
Ir lanti</w>
usko nut</w>
ko iden</w>
aja tellut</w>
kor tti</w>
2, 5</w>
hä pe
Li ite</w>
us p
kolman sista</w>
C C
Ääne sty
Lä hd
ett anut</w>
EK P:n</w>
Ric har
ess ori</w>
yhtey den</w>
noudatta misen</w>
por ta
is -</w>
Direktii vi</w>
Saks assa</w>
velvoi tteiden</w>
sis ar
usko o</w>
su b
Ain akin</w>
Sinu a</w>
Va kuu
farmako kin
yhte nä</w>
kokonais määrä</w>
li han</w>
UKS ET</w>
op äi
ll äni</w>
kiinti ö
ho m
sa ali
pää ty
arvo paperi
tul in</w>
sähkö isen</w>
J oi
tosis sasi</w>
ru isku
aluee seen</w>
yhdeks än</w>
b e</w>
su mma</w>
1 -</w>
toisi insa</w>
viita taan</w>
mon o
luettel oon</w>
mietin tö
näy ttävät</w>
pi ll
maahan muutta
nope a</w>
li ha</w>
toteutta minen</w>
Ruot si</w>
Ra ken
Nor jan</w>
a to
Nä issä</w>
yksittä isten</w>
Itä vallan</w>
väl iseen</w>
luo kkaan</w>
a teri
Lu paan</w>
nni e</w>
jäsenvalti ota</w>
Käy tä</w>
Se kä</w>
k ruu
erila inen</w>
v r
komis saari</w>
pan naan</w>
IS O</w>
hyväksy misestä</w>
suur en
näkö kohdat</w>
tetta vaa</w>
vuoti aat</w>
halti ja</w>
mmä ksi</w>
ainut laatu
ik äänty
k inä</w>
Pu hel
uh ka
pää osaston</w>
lai min
Sc heng
S an</w>
c us</w>
tta vasta</w>
ki ttava</w>
kiinno stunut</w>
kan si
i än</w>
seuran ta</w>
mu isto
yri ttänyt</w>
h ittoa</w>
yksinkerta isesti</w>
met r
kohd e</w>
oire et</w>
ehdo tta
se in
oluo k
kaikki aan</w>
ni missä</w>
ul e
vuoropuhel un</w>
ne ille</w>
vi lla
Hel v
llä si</w>
ol a</w>
kah via</w>
teh ty
o malla</w>
lii a
kann ustaa</w>
tu kia</w>
yhdistel mä
M ä</w>
tarpe et</w>
määrä rahat</w>
kulutta jille</w>
paik kansa</w>
las kea</w>
Lää ke
soker in</w>
Katso taan</w>
ohjel miin</w>
alu n</w>
use iden</w>
säädetty jen</w>
täysimäärä isesti</w>
mu n
lisä tietoja</w>
V il
käyttä jä</w>
or gaan
raa tti</w>
al ia</w>
ttaa ko</w>
Ku va
Aino a</w>
A va
keuh ko
pas kaa</w>
esiin tyä</w>
u mero</w>
päätty nyt</w>
muuta mia</w>
Li e
ään tä</w>
st il
kir jat</w>
hava ittiin</w>
yhd estä</w>
pel iä</w>
mi a
Ma x</w>
vankila an</w>
I kä
c t</w>
jo issakin</w>
nime ä</w>
edusta jat</w>
ai he</w>
T us
C u
kuning a
co m</w>
z a</w>
tarkistu kset</w>
moi tte
ed er
ju ttuja</w>
saa tetaan</w>
P är
ver kossa</w>
pa ks
no usi</w>
syr ji
mm .</w>
lin ja</w>
l t</w>
tapa hd
miel uummin</w>
löy tynyt</w>
k kään</w>
TI ED
suhte ita</w>
tapahtu mien</w>
Te hdään</w>
z o
yllä pitä
hin g
ai on</w>
Et si
n os
ti tte</w>
lis en
tä nyt</w>
muuto ksista</w>
P I
ehdo tetaan</w>
poli isin</w>
tule vien</w>
tarkistu ksen</w>
AN TAN
ele men
markkinajärjestel ystä</w>
vaa tteet</w>
periaatte essa</w>
annett ujen</w>
Pa itsi</w>
Lon to
ni vel
käsittel yyn</w>
all erg
osuu tta</w>
asi anosa
enn en
Kap teeni</w>
b or
Tu nne
pien et</w>
kontro ll
arvio innissa</w>
epä ile
in yt</w>
tte eseen</w>
C N
T S
men eillään</w>
liikku vuutta</w>
ja pani
käytettä vien</w>
er otta
jä llä</w>
In f
är sy
op ro
ilma ista</w>
a f
ehdotu ksessa</w>
Kau anko</w>
g g
y k
tte jä</w>
l en</w>
u tkaan</w>
vai hdo
esi tettyjen</w>
menettely stä</w>
V III</w>
S IS
Sve itsin</w>
vuoti a
raken taa</w>
automaatt isesti</w>
F lo
koulu ssa</w>
stu i</w>
Bel gia</w>
pääss yt</w>
su rke
käsittele vä</w>
o tsi
Brita nni
pel it</w>
verko ston</w>
myöntä mistä</w>
ta se
asiakir joja</w>
Poi ka</w>
au toa</w>
mit ä
terä stä</w>
prose ss
12 34</w>
pit o</w>
Val vo
kko a</w>
kir jo
po mo</w>
Ken en</w>
kulta seni</w>
kans an</w>
ik ki</w>
f aa
kos te
itt anut</w>
artikla an</w>
henkilö ille</w>
Ma t
rak kau
pur je
määrä ys
ver sti</w>
vapaa ta</w>
laad ittu</w>
kuu ntel
asian tunte
sää tää</w>
a min
ain akaan</w>
le hti</w>
do sta</w>
saa miseksi</w>
do kumen
ke sto</w>
a isia</w>
so ta</w>
r iste
Kansa kuntien</w>
perus teiden</w>
Usko matonta</w>
innovaati o
toteutta maan</w>
sall ia</w>
s ää</w>
17 98</w>
nukku maan</w>
mu isti
ku o
S tre
por t</w>
koti talou
jo tenkin</w>
puheen vuo
läh den</w>
rans kala
maase utu
Ho me</w>
g as
sii pikar
UNION IN</w>
aluee llisten</w>
aati o</w>
Vä hän</w>
palvelu ihin</w>
poli isille</w>
is eltä</w>
ap u</w>
aluee llisen</w>
ity kset</w>
I ran
Y stävä
: ta</w>
poista minen</w>
tavoi tetta</w>
si lla</w>
ne s</w>
kuule mis
las ten
Sai mme</w>
oikeudell inen</w>
tuotte isiin</w>
anta ma</w>
toi ve
par i
us kon
ba kte
hoi dan</w>
Poli isi</w>
ksen ä</w>
o ksen
sekun tia</w>
valmis tukseen</w>
PÄÄTÖ KSEN</w>
ka us
PP E</w>
da sta</w>
vä ni</w>
tar jon
is ikin</w>
san an</w>
ti s</w>
läs nä</w>
asia kirjassa</w>
a va</w>
järje stö</w>
yhteen toimi
huone eseen</w>
M E
tarkastel tavana</w>
te tä</w>
moni puol
a tko</w>
tapahtu mat</w>
osa puoli</w>
c ia</w>
ki d
ilme isesti</w>
ris kit</w>
Ta vall
O u
ryh mi
pel kää
o vatko</w>
B us
tavoitte isiin</w>
li u
työ ssä</w>
aine ista</w>
oike an</w>
joutu u</w>
aluee sta</w>
Scheng enin</w>
Ma tka
er oa</w>
talousarvio on</w>
ul an
voimassa olo
uu den
kos ki</w>
ar va
usp ensi
Ta ju
utu misen</w>
käy tti</w>
J ess
dy naa
tarkastel tava</w>
turvapa ikka
an tai</w>
laati i</w>
vapa an</w>
ka ista</w>
kan ut</w>
vapa us</w>
tausta lla</w>
sul je
Lu ettel
liik e</w>
ver su
Pi en
P R
saavu tettu</w>
ETS K:n</w>
vi lta</w>
A da
Jugosla vian</w>
o ksi</w>
lope ta</w>
kuvi tella</w>
W TO
mit kä</w>
tarkastu s</w>
1. 2</w>
tuo nne</w>
tetta essa</w>
työllisyy ttä</w>
O i
M INEN</w>
Halu at</w>
odo tta
Kaik en</w>
Minu t</w>
K ene
Minä hän</w>
min kään
tavall ista</w>
toim isto</w>
kuu sta</w>
kehy s</w>
mer kki
b an</w>
10 0
ty ksen</w>
in tila
He ti</w>
sija sta</w>
näh neet</w>
ken g
vaka vara
ttaa kseen</w>
Rans kassa</w>
PÄI VÄ
edellyttä vät</w>
Elin tarvi
ki ire</w>
väl issä</w>
is än
häiri ö</w>
ver on
suositu ksia</w>
merkin tä</w>
P et
to sta</w>
vapau tta</w>
tilan teissa</w>
O ttakaa</w>
potila sta</w>
I ra
A C
opää tö
päätöksen teko
Odo tan</w>
il et</w>
al yy
huu to
Al a</w>
edell isen</w>
sotila s
ö r
- Et</w>
vi s</w>
edellyty s</w>
pidä tty
li ini</w>
aiheu ttavat</w>
rauha ssa</w>
syrjä yty
käytettä väksi</w>
ud ut</w>
in it</w>
E ET</w>
ett änyt</w>
tunte a</w>
resur ssien</w>
yr itän</w>
sopimu ksiin</w>
al us
kulutta jan
w n</w>
N imi</w>
M uo
osoi ttanut</w>
Oike astaan</w>
se ssa</w>
nimen omaan</w>
run saa
ase tettu</w>
to iset</w>
ma ta
per se
kasvihuone kaasu
Koh ta</w>
ään kö</w>
ystä vi
na ura
puheenjohtaja valtio</w>
maataloustuo tteiden</w>
jä nni
kos u
toimi tettu</w>
myr s
päätöksen te
tuo hon</w>
na mme</w>
mer kkiä</w>
rinna kka
H or
ANTAN UT</w>
san aa</w>
pääsy n</w>
pakka us
2. 2</w>
kilpailukyky ä</w>
konferen ssin</w>
vahv isti</w>
hiilidioksi di
sääntö jen
vala isi
institu tionaal
harjoi ttaa</w>
tä r
todennäkö istä</w>
valmis tele
tava sta</w>
d u</w>
paikko ja</w>
nä t</w>
Slo vaki
käsiteltä väksi</w>
sisäll ön</w>
oikeudell isen</w>
neuvosto a</w>
kat son</w>
hin toja</w>
hi taasti</w>
ve ll
jen sa</w>
aa v
G oo
toimin tojen</w>
s kel
perusta mista</w>
R uu
Tai dan</w>
3 6
tis ano
liuo sta</w>
josta in</w>
X X
toimintasuunnitel man</w>
to s
er ottaa</w>
4 .</w>
laimin lyö
fy si
n ett
mi ini</w>
M au
ra an</w>
ma ssaan</w>
kiel ellä</w>
Tied on
m y</w>
e x</w>
arvi on</w>
lisä ttävä</w>
kunin kaan</w>
my stä</w>
pike mminkin</w>
alue elta</w>
tur vo
to t</w>
E tu
I X</w>
it h</w>
lääke tietee
al tti
ni s</w>
toimin toja</w>
lou na
ke a
yks issä</w>
st y</w>
myönn ettävä</w>
N U
sul kea</w>
täyden tää</w>
Tul o
j yy
utu maan</w>
mie s
käy tettiin</w>
va ste
En pä</w>
avoimuu tta</w>
Aino astaan</w>
tarkastu ksen</w>
TE R
väl isenä</w>
riippu en</w>
tavall isesti</w>
is on</w>
tto on</w>
kyseen ala
edusta jan</w>
lu vut</w>
rann ikko
p an</w>
mur ha</w>
ista nin</w>
tila st
T re
hä ipy
Uno hda</w>
käs ki</w>
val miste</w>
lain a
palvelu ista</w>
5 .</w>
liitty mistä</w>
keskuu dessa</w>
iti on</w>
aa vi
hedel mien</w>
st än</w>
tä misestä</w>
seka isin</w>
te ja</w>
tar ttu
E A</w>
ud an
itse lleen</w>
maksa maan</w>
aiko ja</w>
tt il
el v
oi tava</w>
mer ellä</w>
- Hyvä</w>
Alu eiden</w>
alkoh oli
suur ten</w>
jää kaap
o hi
Ma g
Kysy mys</w>
glo bi
kiel i
tervey teen</w>
kal u</w>
N IMI</w>
mis taan</w>
31. 12.
kal en
ba ar
Hien o</w>
b en
vahvista minen</w>
Tur vall
gh t</w>
pall o</w>
laajen taa</w>
su per
itse stään</w>
toimivalta iset</w>
täytty vät</w>
lämpö tila</w>
ve tää</w>
kann us
B ud
vakuu tus</w>
Alanko maat</w>
Ja tka
suo da
Pitä kää</w>
Vi isi</w>
taan pa</w>
rekiste r
itu a</w>
äit insä</w>
tod istuksen</w>
Y T
K oi
sil ta</w>
lähestymista van</w>
alu kset</w>
numer ot</w>
pää johtaja</w>
margin aal
valvo a</w>
sis ään
Jo r
tta vana</w>
kor tin</w>
Yle ensä</w>
kanna ta</w>
edu stu
s on
arviointi in</w>
uno hda</w>
hyväksy mistä</w>
huu ma
pito isuuden</w>
sidos ryhmien</w>
este itä</w>
yhtey ksiä</w>
kasvin suojelu
suku puolen</w>
puolu een</w>
Si inä
taloudell isesti</w>
natri um
anta mista</w>
Mi eh
tte ena</w>
eläi miä</w>
muu sta</w>
jäl tä</w>
tee lla</w>
sopi vat</w>
ymmär rä
tieto inen</w>
Til anne</w>
D an
stoi menpi
lääkä r
hä mä
k istä</w>
vahin koa</w>
siir retään</w>
Lu pa
toimi jat</w>
viest innän</w>
hoi d
A ss
mahta vaa</w>
f t</w>
San on</w>
C an
me kaan
työnteki jät</w>
suhte iden</w>
diab ete
oma isuuden</w>
pi en</w>
mu kset</w>
U r
saa tte</w>
pan kkien</w>
merki t</w>
luul en</w>
arvo inen</w>
täytäntöönpano on</w>
menettel yyn</w>
saa tiin</w>
piste et</w>
miehe lle</w>
llis ina</w>
löy tyi</w>
parlamen ttia</w>
Helv etti</w>
Poi s</w>
standar do
päivi ttäin</w>
kohd ista</w>
pu nainen</w>
kke eseen</w>
e p
näyttö ä</w>
D ann
P C</w>
ke ja</w>
väh enny
Ma an
yrity stä</w>
asetu kseen</w>
ss ämme</w>
pi ha
kokemu s</w>
tote a
jalo stus
ve den
pa kko
kapasi teetti</w>
läs nä
toivo a</w>
luul in</w>
tietty ihin</w>
kä vi
ky nn
ku la
g i</w>
asen ne
tarkistu sta</w>
sol ujen</w>
tiedo ista</w>
lo istava</w>
tuonn issa</w>
huol issaan</w>
llis istä</w>
para met
ver kko</w>
toimi va</w>
tark kaan</w>
eriko istu
yhte iseen</w>
Muka va</w>
ko li
rahoitu stu
val itu
its isi</w>
f un
ett yyn</w>
tunn iste</w>
Ni c
a voin</w>
Men ettel
k isi</w>
ilma is
jäl ji
hilja ttain</w>
KOS KE
oleske lu
ll isin</w>
S ol
ste jä</w>
investo innit</w>
las ku</w>
B r
A IN
toden ta
työmarkkina osapuolten</w>
tetta van</w>
S TA
a mpi</w>
stie dot</w>
omina isuu
S ei
huol issani</w>
tti met</w>
Kre ikka</w>
G ran
makse ttava</w>
1 1
mukan aan</w>
täy tä</w>
He itä</w>
rajoitu kset</w>
toteutta miseksi</w>
si li
nimi kkeen</w>
merkitykse llinen</w>
ri ksi</w>
luvu lla</w>
nuoris o
e mmekä</w>
Pidä tkö</w>
muu takin</w>
Ma ke
perus teita</w>
l ista</w>
7 8
it os
i tali
tehokka ita</w>
kirja sta</w>
parha at</w>
li haa</w>
ää r
S .</w>
oi maan</w>
koh an</w>
arvio itu</w>
B re
kuul e</w>
pit kin</w>
ell isen</w>
ven älä
vall itse
4 -</w>
S mit
-- --
näh tä
au ttoi</w>
su n</w>
nä ille</w>
ki e</w>
inf or
valmis tu
toimi valta</w>
asu nto
sil mällä</w>
in o</w>
määräraho jen</w>
i mi
tarkastu kset</w>
käyttööno tto</w>
ala is
pää tä</w>
erila iset</w>
Pu hun</w>
H au
versi o</w>
toimin not</w>
ali as</w>
P ur
normaal ia</w>
tul ta</w>
laa jenn
joh ti</w>
te lit</w>
maalis kuussa</w>
ryh miä</w>
järjestel miin</w>
kur ssi
Hen ry</w>
t rans
ty issä</w>
ise mpaa</w>
dio visu
d usta
medi a
Tä mä
Mar y</w>
ku kin</w>
ki ve
ih ana</w>
Itä valta</w>
saa tta
ke si</w>
säännö ksistä</w>
ker ty
huomautu ksia</w>
h ia</w>
W as
mietinn östä</w>
Mahta vaa</w>
C hu
Laus un
ko ista</w>
pakkau s</w>
ess ani</w>
c es</w>
S he
liiken ne</w>
ts u</w>
onnistu nut</w>
Työ n
y tä</w>
Amsterda min</w>
Ha en</w>
naapu ri
Talo u
teett ia</w>
V U
Toimin ta
Kyse essä</w>
Itali assa</w>
asetu kseksi</w>
hankke isiin</w>
van g
raken teiden</w>
valtion tukea</w>
lopu llisen</w>
yleis ön</w>
Tans ka</w>
kala sta
oikeuden käynti
ee ksi</w>
pu tki
eh an</w>
aattor i</w>
li itä
PA KKA
issa mme</w>
e vä
vielä kään</w>
paika ll
ka sti</w>
Kes ke
eurooppala iset</w>
helv ettiin</w>
Jimm y</w>
vaara llista</w>
tunn istaa</w>
tari ff
suosi tella</w>
di lla</w>
sto sta</w>
luott oluok
c al</w>
tiedosto a</w>
ki ro
FB I</w>
luo maan</w>
mon sa</w>
le en</w>
Häiv y</w>
ika ssa</w>
raporto itu</w>
tuon tia</w>
kkau s</w>
hte et</w>
ku us
istu kset</w>
haitta vaikutukset</w>
seuraa vaksi</w>
0 4
saavu tetaan</w>
se inä
ta pe
juu ri
- Mikä</w>
Af r
rahasto sta</w>
ttö mät</w>
T osi</w>
teli ja</w>
b ar
G al
tapahtu mia</w>
an toa</w>
vähentä miseksi</w>
leik kiä</w>
Euroop paa</w>
rai vo
pu u</w>
sil mät</w>
yh mien</w>
tarvi kkeet</w>
kuvi o</w>
sovelta miseksi</w>
ä s
kemi ka
ttele vat</w>
ku ssa</w>
c he</w>
Ympärist ö
toime en</w>
tion s</w>
uude lla</w>
muu nto
osoi tti</w>
kal a</w>
ole vani</w>
koro sti</w>
van ut</w>
las ki</w>
es pan
osa ke
lop ut</w>
kri isi</w>
tulo ksista</w>
turvall isuudesta</w>
hallin ta</w>
na lle</w>
hu vi
ul an</w>
tarkoitetu ista</w>
jää nyt</w>
Au str
saa ttoi</w>
P ä
tuho ta</w>
toiminta lin
po istettava</w>
lla ko</w>
alo ite</w>
tä hd
le hti
osallistu i</w>
198 9</w>
siir to</w>
A T</w>
pa hi
c ar
luvu ssa</w>
Voi ko</w>
suori tetaan</w>
jal os
tulehd us</w>
IS TA</w>
täyd enn
oll enkaan</w>
pila antu
van hen
luo minen</w>
suuri mman</w>
hoido sta</w>
seka komitean</w>
aurin ko
tekni iko
kon sul
nä ä</w>
nuor et</w>
tun tui</w>
tu kku
siir ron</w>
os uudet</w>
: lla</w>
isyy teen</w>
h innoi
talou teen</w>
par in</w>
kiel tää</w>
itt o
kansainväl isiä</w>
europa.e u</w>
sopimu ksella</w>
d ra
sel keä</w>
o tat</w>
val o</w>
j eni</w>
jä tteiden</w>
suunnitt ele
hui ja
Ra kenn
O S</w>
ken enkään</w>
3. 1</w>
kene llekään</w>
Val ti
keskitty ä</w>
kohta isesti</w>
Mel ko</w>
ma ani</w>
sisäl töä</w>
ra ke
Kypro ksen</w>
tty jä</w>
auto on</w>
potila s</w>
Päi vä
Tee mme</w>
Kiin asta</w>
krite erit</w>
toteutta misesta</w>
tuke vat</w>
Roma nian</w>
käytettä essä</w>
tehd yssä</w>
etto man</w>
henkilö tietojen</w>
muu n
perus tan</w>
koro stetaan</w>
edellyty ksin</w>
c en
syy t</w>
y n
köyhyy den</w>
häiri ö
etty jä</w>
C ent
iste tun</w>
teho a</w>
k kos
seuraa vassa</w>
Luxembur g</w>
Seura avat</w>
K K
b us
jat koa</w>
es itys</w>
lu kee</w>
kolme en</w>
mall ia</w>
L E</w>
ET TEL
O s
tekn istä</w>
ol isimme</w>
ju ma
KÄY TTÖ
tyh mä</w>
halu taan</w>
b it</w>
B on
Bar cel
ro n
elä mässä</w>
s tee
inä ky
direktii viin</w>
hi i
ase tettava</w>
kahd essa</w>
ttor i</w>
näkö kohtia</w>
ol iko</w>
kertomu ksessa</w>
ir tisano
g ol
ulkopuol isten</w>
tiedo ssa</w>
el ia</w>
ilmoi ttanut</w>
me tyyli</w>
kuukau si
seuraa viin</w>
ka ar
väki valta
Ky sy</w>
taulu kon</w>
en sinnäkin</w>
tuotta ja
ni en</w>
Keskustel u</w>
: hen</w>
Is o</w>
tta viin</w>
pan kki</w>
yhtiö t</w>
suo ra</w>
kyse iseen</w>
h t
torjun ta
seur antaa</w>
tunte e</w>
tasa paino</w>
G lo
kysel y
luo nne</w>
ampu a</w>
kokonais valta
lyhy en</w>
jaks ossa</w>
ta is
Til in
kann e
muu kala
sähkö n
Nä itkö</w>
te ne
käyttööno ttoa</w>
s pe
tarkoi tan</w>
so vi</w>
Uu den</w>
Use immat</w>
Ju li
talou tta</w>
vä itti</w>
Li ian</w>
kirjoi tti</w>
määrä ajan</w>
S tar
valvonn assa</w>
K liin
Nä ke
J opa</w>
aika taulu
todistu s
käynn istää</w>
elintarvi kke
jar ru
10 3</w>
Rekisterö inti</w>
Tiedä ttekö</w>
se ikat</w>
muka ani</w>
llisyy den</w>
ks elta</w>
jatke ttava</w>
gi e</w>
yl ö
tä mällä</w>
vai va
Yhdysvall oissa</w>
raa ka
virhe en</w>
kyl mä</w>
runsaa sti</w>
po ja</w>
ob je
A pua</w>
maks ua</w>
ho mo
yksimiel isesti</w>
Val eh
nouda ttamista</w>
Milla inen</w>
lop un</w>
Va st
tta inen</w>
laske ttu</w>
suosi tellaan</w>
sol u
myynti ä</w>
isto on</w>
sor men
10 4</w>
Tä nne</w>
yhteis kunta</w>
tuotta jat</w>
vali ttu</w>
va kauden</w>
tiedo ksi
Sinu lle</w>
Oike in</w>
Mää ri
ni l
var jo
kunn ia</w>
itse kin</w>
Halua tteko</w>
ohjel misto
kuole ma</w>
aati o
suunnittel u
tt er
prose ssissa</w>
saa tujen</w>
hde ks
Eur o</w>
val e
su nnun
tie llä</w>
tar tunn
ongel maa</w>
syö mään</w>
ko vaa</w>
esittä mä</w>
ehdotu kseen</w>
mp yy
ryh ti
pid ettiin</w>
haaste isiin</w>
istu i</w>
voima kas</w>
va tkin</w>
le vo
Tiedä thän</w>
lle r</w>
K ali
tto mat</w>
nime llis
val tava</w>
mä ttömyy
vihanne sten</w>
v y</w>
vaati vat</w>
et u</w>
mon issa</w>
jä tteen</w>
ise si</w>
au s</w>
RA A
Ne w
tarkistu s</w>
kky ys</w>
euro on</w>
tärkei mmät</w>
saata vissa</w>
vä ri</w>
varmuu den</w>
itse äni</w>
Ki ito
liikku vuus</w>
iho ttu
S .
ohj eiden</w>
joutu vat</w>
tun ti</w>
p iste</w>
etu sija
äänestä mästä</w>
yksinkerta ista
valti oissa</w>
i la
hallinn an</w>
E L</w>
R T
esitteli jän</w>
ristirii dassa</w>
T he
haavoi ttu
tarkka ili
liikku vuuden</w>
käsitel ty</w>
harjoitta jan</w>
näl kä</w>
tod istus</w>
G er
kas vanut</w>
Elä in
oike ten</w>
Viime isin</w>
eri llis
Yle inen</w>
suori tettava</w>
prose ssiin</w>
vankila ssa</w>
A mma
perhe en
ser tifi
tarpe ita</w>
CO M</w>
lisää mään</w>
täytäntöönpan osää
ne esta</w>
sääntel yn</w>
ket ju
Portug ali</w>
C I
lisä tty</w>
käytäntö jen</w>
Ky l
rekisterö inti
- Oletko</w>
ru p
ma is
yle isiä</w>
käsi ttää</w>
Va ka
ssel os
asianmuka isia</w>
Ale x</w>
ongel mista</w>
vaar a</w>
ito ssa</w>
bo ur
E dellinen</w>
4. 2</w>
upe a</w>
Ann o
Jeesu ksen</w>
J oll
Ell ei</w>
mahdoll isen</w>
lää k
sta nut</w>
jau he
ra kka
maalis kuu</w>
seitse mä
qu e</w>
Syn tymä
Kir ja
o ks
nouda ttaminen</w>
pin ta
ik e</w>
D :n</w>
pall on</w>
es si
mmi lla</w>
lisää miseksi</w>
hall ussa</w>
G mb
dele go
Par as</w>
ongel miin</w>
mel ää
nope us</w>
el im
R is
te lle
ito t</w>
kuunne lla</w>
nan tti</w>
kä det</w>
tu lleet</w>
ministeri ön</w>
Kerro in</w>
ma ksi
Kä yn</w>
sel ven
Pi eni</w>
Kun pa</w>
anta minen</w>
meta lli
kansainväl iset</w>
Jo ulu
te nne</w>
suure sti</w>
puu te</w>
TA I</w>
Si r</w>
1 10</w>
tee llinen</w>
us ale
te att
perus oikeus
teknolo gia</w>
mme kin</w>
u p
Pi an</w>
Kun kin</w>
19 .</w>
valmista ja</w>
jä tte
raporto inti
Val itse</w>
tieto -</w>
tel tava</w>
näy ttel
kemi kaal
operaati on</w>
PÄIVÄ MÄÄRÄ</w>
tyttä re
an ia</w>
nuo re
hu a</w>
liike toiminnan</w>
har ha
vuo sin
tä llöin</w>
kulttuu rin</w>
Li ettu
Ki i
lo o
. europa.eu</w>
tee si</w>
mietinn ö
el jänne
sti mme</w>
entise stään</w>
Was hing
P SE</w>
sta ap
sa moja</w>
Päi vää</w>
mil ta</w>
Talo us-</w>
to iseksi</w>
v itsi</w>
istoi min
hiili ve
lu s</w>
muodo t</w>
s päin</w>
Pu hu</w>
huoma uttaa</w>
mu se
f u
päi vity
huoma ttavia</w>
M A</w>
kiinte ät</w>
sa al
use amma
Jer usale
tun ten
sano ja</w>
NEUVOS TO</w>
so jen</w>
osapuol ia</w>
pääse mme</w>
tro mb
saata vuus</w>
o mista</w>
L yh
ra is
kai va
opera tiiv
osallistu vien</w>
lipu n</w>
la da
kri isin
pa t
myöh ään</w>
sää nne
sisä inen</w>
tti men</w>
loppu a</w>
toteutta miseen</w>
ee sta</w>
säädetty jä</w>
ikä s</w>
järjestely jen</w>
Bo b</w>
lainsäädäntö ön</w>
hyväksy ntää</w>
Ku ole
uno hd
Oike u
18 0</w>
ll isuus
d ik
S to
Kell o</w>
kaver it</w>
jäsenvalti oista</w>
Inter na
A s
tytä r
Ensimmä isen</w>
st ulo
kon ta
Van he
kuole maa</w>
pääll y
tu un</w>
sis a
ka ttamaan</w>
U R
c in</w>
gi o
ker taan</w>
ll an
Unka rin</w>
perusta minen</w>
kon soli
äärimmä isen</w>
16 0</w>
kohta inen</w>
Sara h</w>
Nel jä</w>
ä nne</w>
yle isten</w>
13 6</w>
helve tin</w>
A ra
täy si</w>
ee lla</w>
ve do
ttä viä</w>
00 0
Päätö s</w>
ito a</w>
es ar
13 .</w>
to ksi
virhe et</w>
tyttä reni</w>
pu to
täytäntöönpano asetuksen</w>
ti in
B ill</w>
mui takin</w>
dell yty
g eri
mu ksia</w>
hyl kää
tunten ut</w>
jar r
hi er
ha ppo
yks inä
pää s
vyy s
vienn in</w>
hydro ksi
S ur
so ita</w>
ne eseen</w>
P T</w>
säädetty ä</w>
ratkaise maan</w>
b ent
llis issa</w>
Venä jä</w>
uh kaa</w>
mielell äni</w>
hy my
f re
ön sä</w>
ääne stää</w>
avar uus
tarkoitu kseen</w>
anta ja</w>
kir jojen</w>
b ra
Lap set</w>
vasta ttava</w>
mi o</w>
jo ssakin</w>
use immat</w>
laajen ne
tyypi t</w>
todiste et</w>
julk ista</w>
sää stä
kuu kausi</w>
tu i
lah ja</w>
tei li
ään in</w>
toimi ttava</w>
jää mien</w>
täntö ön
ta ke
Ki el
ar kki
Ra y</w>
vi alla</w>
sel os
Ch rist
löy sin</w>
Luo nn
tty nyt</w>
au tojen</w>
p ist
marras kuussa</w>
ERITY IS
vr k</w>
auto ssa</w>
pyy detään</w>
sis ko
kan ssanne</w>
koske maan</w>
n än</w>
SEU T</w>
va sten</w>
teo ri
sken tel
A 4</w>
nn assa</w>
huoma u
uni versu
huuma usa
yle iseen</w>
nn ia</w>
muu tti</w>
metab oli
En kö</w>
ihmis oikeuksia</w>
f ia</w>
sel ä
sääd ettävä</w>
syrj in
var maan
Vuo si
SIS Ä
vaikutu ksesta</w>
Asi an
uu ni
iku isesti</w>
Las ke
osallistu maan</w>
jäl kiä</w>
hävi ä
vaa tte
tettu ina</w>
omina isuuksia</w>
ka ra
us opimu
ju ttua</w>
N N
iken ne</w>
g or
vahviste tut</w>
katso vat</w>
heik ko</w>
puolu e
kymmen tä</w>
kysymy sten</w>
idioo tti</w>
ole vasi</w>
kahde lla</w>
c kin</w>
udu ttava</w>
ka ssa
Jul kis
kusi pää</w>
kka asti</w>
kohd e
lopul l</w>
direktii viksi</w>
U los</w>
a mista</w>
Jo hd
kaa ksi</w>
hall itus
leik ki
polkumyyn titu
h öl
Yhte inen</w>
EK P
S au
Ha e</w>
tytä ryhti
koo de
Sai t</w>
pare mman</w>
muo tojen</w>
lä mpi
0, 1</w>
12 5</w>
tilo jen</w>
kro on
1 12</w>
har voin</w>
P rin
Me itä</w>
liitty viin</w>
g ri
kiit ollinen</w>
sisälly tettävä</w>
ope tus
E nna
jää vät</w>
And re
saira alaan</w>
unioni a</w>
juh lat</w>
erity ise
d ennen</w>
avoimuu den</w>
kke ja</w>
maa lla</w>
koi vat</w>
luo kse</w>
inve stoi
te etti
muutta mista</w>
mise llä</w>
O tetaan</w>
myöhä istä</w>
leve ys</w>
Y llä
toi t</w>
on ta</w>
kohtel un</w>
T V</w>
3 2
man in</w>
käy n
aie mpaa</w>
vel at</w>
st yy
pysä yttää</w>
Käy tä
riippumatto muu
istu ksia</w>
S h
p ra
suos ituksen</w>
n ur
D en
odo ttanut</w>
Tei t</w>
Maa talouden</w>
alha inen</w>
NU MER
9 0
toivo o</w>
hetke ksi</w>
l istan</w>
j ilta</w>
sihte eri</w>
äi di
tell un</w>
velvoi tteita</w>
direktii vi
g men
Mar tin</w>
menettely istä</w>
K el
puhel in</w>
H it
Et kä</w>
y ti
o ra
riittä vät</w>
pro te
Tun tuu</w>
Ni meni</w>
vähi mmä
kein ot</w>
k lu
tarkastel un</w>
kerto maan</w>
Hil jaa</w>
oike aan</w>
ni meni</w>
e il
jou kossa</w>
j ina</w>
ruu miin</w>
lik vi
Tä llöin</w>
M P</w>
hall ita</w>
M un
oppi la
Afri kassa</w>
jatke taan</w>
asiantunti joiden</w>
muu ssa</w>
luo vutu
lehd istö
VALMISTE EN</w>
iton ta</w>
ratkais ua</w>
stoi hin</w>
vä si</w>
tu ksi</w>
au diovisu
rakenn u
par annetaan</w>
laske e</w>
ile maan</w>
ys tee
tyypp inen</w>
pal o
Ji m</w>
Maa ilman
miel e
SEU RAA
mi an</w>
e uvo
te l</w>
katsa us</w>
liike toiminta
esi ttel
kyllä sty
kunni oitu
analyy sin</w>
y ö</w>
lä pä
alka vat</w>
yksilö i
pal uu
jä tteet</w>
sää stää</w>
N T
ttä isiin</w>
tava nnut</w>
Ukra inan</w>
veren vuo
Tark ista</w>
pan o</w>
op al
ist ys
aiheutu u</w>
keskustel ussa</w>
C O</w>
ja etaan</w>
b ee
vasta uksia</w>
hei ttää</w>
d etta</w>
Yhte en
tu eksi</w>
määrä ajassa</w>
tode ttava</w>
so h
tera peu
En ergi
van han</w>
lu e</w>
H yö
seura uksia</w>
demokraatt isen</w>
Ton y</w>
va kiin
aine ena</w>
I :n</w>
Lä hden</w>
kulu tuksen</w>
Tie dot</w>
Li i
Ha ista</w>
Sä ily
Mar ia</w>
Viime inen</w>
tuomar i</w>
asi ain
ise mpia</w>
heik kene
e mo
Hu i
kirje en</w>
O :n</w>
nau re
edistä vät</w>
el ime
säädö ksiä</w>
talousarvio sta</w>
o st
s kann
Hen g
pää lle
IS U
sano ttu</w>
M IN
kyl mä
ene minen</w>
Isä si</w>
tettä essä</w>
ta poi
päh kin
pela stus
vapa uttaa</w>
O EC
ve sillä</w>
e ko</w>
nu k
kaupun kiin</w>
Poh jo
Vo isimme</w>
sän g
ih me</w>
hyväks y</w>
tarkoi tettuihin</w>
enn alta
s kin</w>
tarp eiden</w>
kirja llisesti</w>
edusta vat</w>
ti eltä</w>
kappal een</w>
L is
kuningas kunnassa</w>
loka kuussa</w>
Jo kin</w>
d ito
ymmär rän</w>
ri ito
M os
M is
Erä s</w>
Richar d</w>
u ko</w>
lah ja
te ihin</w>
ha tta</w>
rekisterö ity
hamma s
Val mi
Nä istä</w>
sääde tyn</w>
hiu kan</w>
men oja</w>
kuu hun</w>
erity iset</w>
Y S
Täy täntöön
ES SA</w>
Bulgari an</w>
toimenpi de
inf luen
esi tellä</w>
asiantunti ja</w>
markkinoi hin</w>
sol uu
hä v
a isen</w>
Raa ma
www .
päivä llä</w>
lisää mällä</w>
tarkastel ua</w>
presiden tin</w>
oli i
mp an
loppu u</w>
työntekijö itä</w>
varus tettu</w>
ministeri ö</w>
li vat</w>
vahvis tettuja</w>
p o</w>
toimi tti</w>
po istettu</w>
puu ttua</w>
eriff i</w>
e tur
suunnittel u</w>
peru ssopimu
päätö ksestä</w>
nukku a</w>
un g</w>
A .</w>
tu ettava</w>
tehokkuu s</w>
ta nnon</w>
ilmo itus
edisty stä</w>
E lo
O sall
I H
tosiasia llisesti</w>
keskuspan kki</w>
kau tta
3. 2</w>
si ka
hemo globi
sovelle ttavan</w>
nuo ria</w>
kehittä mään</w>
hä iv
asianmuka isen</w>
jao ston</w>
suunni tellut</w>
väl i</w>
Kats on</w>
F er
te iltä</w>
ette ja</w>
Ro bert</w>
Ol isiko</w>
u mia</w>
resur sseja</w>
vi ini
oi dut</w>
varmuu tta</w>
4. 4</w>
tuo tteille</w>
tto ri
määritel tävä</w>
muu nta
keskity tään</w>
ty ksi</w>
vi haa</w>
g ener
to isesta</w>
hoita ja</w>
vasta uksen</w>
mur ta
han ketta</w>
kustann uksiin</w>
sy itä</w>
25. 6.2016</w>
mainitu ssa</w>
ks ilta</w>
6 0
tran sa
st ra
tar i</w>
kiinno sta</w>
M usta
sääntöjen vasta
inn an
Läh i</w>
oikeu ksista</w>
Viime ksi</w>
järjeste tään</w>
kas vuun</w>
imm istä</w>
lle tään</w>
ky lä
Sei s</w>
teke vän</w>
Per usta
Pel aa
ta pan
luule e</w>
tytä r</w>
ma x</w>
yhteisö t</w>
d että</w>
10 9</w>
10 6</w>
vuosin eljänne
Ra ha
teknolo g
ili a</w>
tiety istä</w>
re s</w>
P L</w>
di ini</w>
Py sty
f ra
voi tta
h ope
Tu on</w>
ika sta</w>
myynti luvan</w>
No use</w>
Myy nti
v ei
elämän sä</w>
se k
etsi i</w>
kehittä miseksi</w>
re ä</w>
nau ttia</w>
b a</w>
at si
saavu tta
valio kunnassa</w>
mu a</w>
3 1.</w>
le u
t kin
la sta
ö ön</w>
ka ttava</w>
o ton</w>
lisäänty nyt</w>
Tap pa
olosuhte iden</w>
vajaa toimintaa</w>
ku ssakin</w>
ol ai
nouda ttavat</w>
F is
Yhdistyne essä</w>
kehity ksestä</w>
riko llisuuden</w>
ki ir
se is
ve sto
piste en</w>
ra joja</w>
os ista</w>
läp inäky
no lla</w>
p on
mahdoll isten</w>
kan ssamme</w>
te ro
h yy
neljä nn
ede lleen
V ien</w>
kiinno staa</w>
B oo
ent isen</w>
vah ve
aika ista</w>
määrä aika</w>
muo toja</w>
potila ita</w>
ken sä</w>
kuul in</w>
Euro pe</w>
määri tettävä</w>
b o</w>
tyyppi ä</w>
al issa</w>
J as
suositu kset</w>
lääkin tä
yö llä</w>
Sel vi
puhu taan</w>
kutsu u</w>
ehdo tti</w>
T ele
tee ksi
ra tsa
taa taan</w>
ilma antu
epäil y
e d</w>
mitta us
ver o</w>
ttä mistä</w>
osoi tettava</w>
se mina
usea mmin</w>
pu re
S iten</w>
In jekti
toissija isuus
määrä inen</w>
m itu
nor maali
standar din</w>
täytäntöönpan opäätö
a ja</w>
tapa tur
c ha
tuon t
ä kseen</w>
omis tus
luonn on</w>
johd u</w>
c en</w>
tutkin ta
C ro
täy den</w>
o innin</w>
mmä sty
ve llä</w>
Pa k
A asian</w>
viin iä</w>
K I
Erity is
kui va</w>
ään sä</w>
vahing ossa</w>
ilma ilu
tapahtu neen</w>
lyh yt</w>
Häne stä</w>
en ke
sopi va</w>
kilo metriä</w>
es ityksen</w>
yhteenve to</w>
Eri ttäin</w>
kir joja</w>
Tuo ssa</w>
tuleva isuutta</w>
tehtä viin</w>
pai koi
Kansainväl isen</w>
tutu stu
t isi</w>
j usin</w>
eko log
Tunne tko</w>
TA VA</w>
kun toon</w>
sy nny
il taan</w>
osapuoli lle</w>
ka ttu</w>
asu a</w>
tark ka</w>
yr ität</w>
Per he
C ES
Kore an</w>
se kin</w>
lie ven
jo llekin</w>
TÄ MIS
vo issa</w>
P alaan</w>
W ar
voi ttoa</w>
D el
yks istä</w>
w ard</w>
soke ria</w>
valti oita</w>
Tä ltä</w>
Pre siden
pal annut</w>
saata isiin</w>
er ia</w>
ra joissa</w>
ki pe
den sa</w>
jäsenvalti oon</w>
ase et</w>
perustu vaa</w>
my ksen</w>
kysymyks issä</w>
istu sten</w>
vaatimusten mukaisuuden</w>
elin ikä
uus ista</w>
k risti
cto r</w>
per inn
jäsen ille</w>
ää li
myönte inen</w>
anta malla</w>
yksinkerta inen</w>
nous u</w>
A ur
voi tto</w>
iste tään</w>
ho a</w>
A ih
Yle iset</w>
PA R
o maksu
yl hää
va tsa
ha ja
W h
V an</w>
on g
hen k
Lu c
Ty ttö</w>
oikeuden muka
toimi elimet</w>
huoma nnut</w>
neuvottelu issa</w>
teho staa</w>
maa per
he pati
Ar vaa</w>
Luo jan</w>
M aa</w>
harjoitta jien</w>
Dani el</w>
valvon taan</w>
tuke miseksi</w>
0 2
A lle
li iton</w>
ra l</w>
väär ää</w>
puol elta</w>
kansall isessa</w>
Mie tin</w>
kysy nnän</w>
ehdotu sten</w>
Miet inn
li ka
aloi tti</w>
liitä nnä
ver kon
nou ss
nime llä</w>
ro man
käynn isty
kalastu ksen</w>
mene ty
koti ma
tunn et</w>
la si</w>
koordino inti
elo kuva
otta miseksi</w>
G ol
la mpa
ren to
tunn etu
an d
Make do
tt eihin</w>
usea mpi</w>
syys kuu</w>
Euroop paan</w>
M ol
hall u
vastaa via</w>
rahoi ttaa</w>
lu melää
ase tetut</w>
odo ttavat</w>
huomautu kset</w>
hakemu sten</w>
Val ko</w>
tavall inen</w>
tuke minen</w>
ma ise
van ha
itä tkö</w>
T änä</w>
normaal i</w>
- Tämä</w>
velvoi tteet</w>
tyttö ä</w>
par antu
sy dän</w>
On han</w>
par ane
miljar din</w>
löytä mään</w>
Sinu sta</w>
kokoon pano
raho ja</w>
sisältä vien</w>
r ikka
useimm issa</w>
voimassa olon</w>
vien ti</w>
kalen teri
isti ä</w>
te stin</w>
ttää kseen</w>
tto jen</w>
kruu n
Suu nnitel
Mon tako</w>
ope ttaa</w>
In tian</w>
keskustel uun</w>
ityslista lla</w>
hyväksy ntä</w>
re ista</w>
pää n
Y K
löy ty
hen ki</w>
maan antaina</w>
vapaa eh
vastus taa</w>
vaihtoeh toa</w>
table tit</w>
pää stää</w>
hyväksy tyn</w>
3 8
neuvottel uja</w>
min äkään</w>
Ri ittää</w>
gene ett
tark kuu
johta vat</w>
huo maa</w>
Pysy kää</w>
väli ttää</w>
yhteis kunta
ul kosu
men nyttä</w>
L or
täyd enny
in taan</w>
haaste ita</w>
f e</w>
selvi ää</w>
na ts
tera pi
syys kuussa</w>
säädö sten</w>
ko kenut</w>
by ro
R S</w>
to istaa</w>
kunn a
C D
sel viä</w>
A nne
re alist
5 -</w>
itu jen</w>
ka mala
I .
kolme sta</w>
aja sta</w>
ediste ttävä</w>
Ka h
käsitel tävä</w>
huolen aihe
ilmoitu kset</w>
ha as
väl ttämiseksi</w>
Har ry</w>
muu tkin</w>
mate mati
otta malla</w>
inn a</w>
estä miseksi</w>
yle ise
pyh uo
o l</w>
tarkoitu sta</w>
ase maan</w>
V ero
R yh
voi da
pysty nyt</w>
miel een</w>
Sinu t</w>
yli jää
tarjo taan</w>
ää kseen</w>
sän ky
S har
Vo isit</w>
ajan kohtana</w>
. int</w>
te ssa</w>
Tuo ta</w>
anta man</w>
pain e
ol aa
kier to
tila t</w>
C as
Tar ko
saa dakseen</w>
S S
työ t</w>
ne ena</w>
at ri
tapo jen</w>
rii dan
aika isesti</w>
a vain</w>
yrity ksistä</w>
W är
S uun</w>
3 9
Tu en</w>
ka tosi</w>
houku ttele
Kä y</w>
laino jen</w>
kierro ksen</w>
so t
moottor i</w>
isuu n</w>
lähe lle</w>
tun a</w>
eurooppala isia</w>
mo raal
perustel tua</w>
Ann oin</w>
li ä</w>
hallinnoll isten</w>
B :n</w>
do ne
Ä T</w>
tuotte ista</w>
jakau tu
asetu kset</w>
käyttööno ton</w>
pis tettä</w>
ongel maan</w>
in kö</w>
tett yyn</w>
len tä
itte itä</w>
si um
elintarvike turvallisuus
ilma istu
ll isty
tke t</w>
tahd o</w>
F ar
kaupa sta</w>
enemmistö llä</w>
on an</w>
lento kone
vir ta</w>
vero tuksen</w>
valti ossa</w>
täytäntöönpano ssa</w>
kat ko
o nni
na mi
ras kauden</w>
mp ikin</w>
käy dään</w>
kai paa</w>
pake tin</w>
jao sto</w>
hypo gly
aktiiv inen</w>
tse go
todell isen</w>
sääd etty</w>
tii vii
tarko ittanut</w>
perus tettiin</w>
löyd ettävä</w>
jatku va</w>
Nu o</w>
yllä tys</w>
mi ett
g l
ter min
NUMER O</w>
työskenne llä</w>
suojele miseksi</w>
ker uu
WTO :n</w>
al kanut</w>
sito utunut</w>
Tapa htu
Il ma</w>
stuo tteiden</w>
kompro mis
10 8</w>
iss ut</w>
hallinn oi
pe lle
h ut</w>
uh kaa
yhtey det</w>
parha an</w>
aa si</w>
heiken tää</w>
L a</w>
synty i</w>
täy tyi</w>
lainsää tä
esti in
anta van</w>
Her tsego
obje ktiiv
kulutta jat</w>
itse llesi</w>
toim itu
tee llä</w>
rahoitu kseen</w>
A F
j in</w>
Mene mme</w>
tunn ustaa</w>
palvelu ita</w>
ap ol
re et</w>
tarjo uksen</w>
10 1</w>
muuto sehdo
Lope ttakaa</w>
N L</w>
Autta kaa</w>
i llan</w>
laj in</w>
Sopimu ksen</w>
ro ol
S w
sija inti</w>
luettel ossa</w>
ke itä</w>
Kolma nne
erila isten</w>
TIED OT</w>
Vi haan</w>
Aih e</w>
osoi ttaneet</w>
koul uun</w>
na isille</w>
perä ssä</w>
din g</w>
te na
luonte eltaan</w>
heng issä</w>
Char les</w>
puh etta</w>
päättä vä
men ivät</w>
u mer
touko kuussa</w>
muu ttua</w>
kans antasa
kan taan</w>
liikkeeseen laski
ha ar
a -</w>
selvity ksen</w>
oikeudell isten</w>
maatt inen</w>
kumppan i
Äit ini</w>
ku t
komite aa</w>
kiel i</w>
po tkut</w>
kuulu a</w>
tapahtu ma</w>
is tettiin</w>
MER K
vuot o</w>
N O
E X
ole ttaa</w>
anta isi</w>
pysä kö
len tää</w>
To te
markkinoi lta</w>
päätöslausel ma
Poi kke
B R
vaara llinen</w>
p l
st ikin</w>
Suu ri</w>
A pu
käyte tyt</w>
kumppan uuden</w>
Kuul itko</w>
ve det</w>
moottor in</w>
instituu ti
To in</w>
g as</w>
au ttavat</w>
pa ss
matkusta jien</w>
etu us
Y li</w>
tt ilä
muodo stuu</w>
Ki ina</w>
ve s
EU: hun</w>
parha ita</w>
ol itte</w>
kiel en</w>
astei ttain</w>
val ossa</w>
terve tulle
huole hdittava</w>
kansall isille</w>
vähi tellen</w>
tekni ikka</w>
siu na
su k
jälj enn
hd ys</w>
teke misestä</w>
ilma isu
laati maan</w>
Espan jassa</w>
ly kä
ki vat</w>
b esar
koke illa</w>
jäsenvalti oihin</w>
pas ka
ohe lla</w>
ympä rö
hyödy llisiä</w>
t raa
luo mista</w>
laajentu misen</w>
jä ttänyt</w>
Vä l
Sa itko</w>
dollar in</w>
is ten
I nno
saa vutu
S or
ka tu
hallin toa</w>
tarjous kilpailu
oikeudell ista</w>
mi um</w>
ilma iseksi</w>
A h
toimin tansa</w>
La ito
tel un</w>
vakuu ttunut</w>
f an
itt eiden</w>
Pan e</w>
syrj innän</w>
sosiaal isia</w>
koh tiin</w>
Hei ppa</w>
F armako
neuvo ja</w>
ympäristö ssä</w>
se ikkoja</w>
liitty vissä</w>
T V
tek stin</w>
odo tettavissa</w>
Y hti
vakuu ttaa</w>
o teta</w>
use issa</w>
mene mään</w>
ku ri</w>
johta nut</w>
jää hd
mole mpien</w>
keske iset</w>
laadi taan</w>
kä dessä</w>
ku a</w>
halu sit</w>
alu ksella</w>
ken en</w>
elektro n
fi el
alkuperä isen</w>
3 -</w>
198 7</w>
Alku perä
Tarka stel
hte iden</w>
to isia</w>
säilyttä minen</w>
00 1</w>
korva uksen</w>
ha uda
Hall into
poltto aineen</w>
paranta miseen</w>
ni ksi</w>
2 2
tai de
vai lla</w>
tsa pi
ket jun</w>
Helsin gin</w>
to in</w>
p innan</w>
d rin
g :n</w>
Se pä</w>
luotta musta</w>
heinä kuussa</w>
enn enkin</w>
väli ttö
vaatimu ksiin</w>
me iltä</w>
tehtä vistä</w>
pain e</w>
tää nkö</w>
vaiku tti</w>
sar ja
VA IK
la kkau
O H
tiety issä</w>
merkittä vän</w>
puhe en</w>
vin nyt</w>
ka ttavat</w>
y lo
am b
nä is
Pa tri
seura ttava</w>
vähen netään</w>
mielestä mme</w>
vier essä</w>
Te ho
hankin toja</w>
maail maan</w>
koheesi o
armei jan</w>
la je
ruumi s</w>
Lausun to</w>
ri pu
ja ettu</w>
haki jan</w>
tul os
vasta inen</w>
S han
Ber liin
osallistu misen</w>
den ne
b än
suju u</w>
O saa
sai mme</w>
suhta utuu</w>
P en
yrity kselle</w>
tod ennut</w>
määrä tty</w>
Ohjel man</w>
lau ta</w>
Mel kein</w>
tasa painon</w>
ra kas</w>
hu s</w>
b ana
Mitä s</w>
asiakka iden</w>
pysty vät</w>
pi don</w>
hal ka
saman laisia</w>
Pit ääkö</w>
er y
Us ko</w>
van hoja</w>
O MI
h is
satu ttaa</w>
kaupun kien</w>
este et</w>
erä iden</w>
4 14</w>
a ktii
EF TA</w>
1 30</w>
vähentä minen</w>
ä stä</w>
il o</w>
sel vä
har joitu
per so
olenna inen</w>
a van</w>
tapahd u</w>
i kan
an nat</w>
tuomioistuime ssa</w>
lähd össä</w>
annett ua</w>
Asi anoma
ta kseen</w>
mu ttei</w>
hyväksy mis
Saa mme</w>
kuu ma</w>
kir ur
ell iset</w>
täytäntöönpan e
ju ri</w>
in ho
Pää stä
lla s</w>
kau si
pu ja</w>
La tin
mieh istön</w>
lausun toa</w>
Jan e</w>
mat kaan</w>
ti ota</w>
nap sa
Pit kä
ryh mää</w>
prof essori</w>
Ale x
talousarvi o</w>
asianoma inen</w>
9 .</w>
nähd ään</w>
Z a
tor sta
suojel uun</w>
määräraho ja</w>
hin taa</w>
nnel kaa</w>
Puol a</w>
oire yhty
kel in</w>
taistel u
mo inen</w>
mättö mät</w>
kul kee</w>
Tus kin</w>
M ul
tuotta ja</w>
onnistu u</w>
is tetty</w>
keino in</w>
il uun</w>
vel an</w>
oike alla</w>
val oa</w>
va mpyy
käsittele e</w>
ti ksi</w>
tarjoa jien</w>
käytäntö jä</w>
ed us
injektiopu ll
Pain u</w>
kansall iseen</w>
Vali tan</w>
tuleva isuu
ss ar
Euroop paneuvo
suunnitel mia</w>
Tavoi tteena</w>
jatka maan</w>
insuliin in</w>
G ab
käyttä jän</w>
hö yr
Va staa</w>
hen gi
hd y</w>
5. 1</w>
t so
ou to</w>
hah mo
sovelle ttaessa</w>
ammati llisen</w>
Na isten</w>
Tho mas</w>
päi vinä</w>
menesty kse
Ase tuksessa</w>
Äit isi</w>
tu keen</w>
Kul je
su ola
P ir
y er</w>
tietee llisen</w>
sää ntö</w>
nimenoma isesti</w>
vastaa vaa</w>
toteutta misen</w>
vi ettää</w>
ll ia</w>
tasoi lla</w>
peh me
To mmy</w>
soveltamis alan</w>
m l
yri ttävät</w>
vuo sisa
liitty en</w>
in han</w>
15 .</w>
sy stee
kann ut</w>
päivä n
vihre ä</w>
tilintarkastustuomioistu imen</w>
pan kk
erityis piir
koh teli
E ne
IT TA
re lla</w>
kilo metrin</w>
selvity s</w>
kor ko</w>
Puhu in</w>
7 .</w>
yleis ölle</w>
sairaala ssa</w>
vihdo in</w>
ttel et</w>
s ha
hir ve
stu kseen</w>
tavoitte ista</w>
ll isuu
asianoma iset</w>
luku isia</w>
auto maa
D NA</w>
C -</w>
talo on</w>
ko e</w>
vaa tteita</w>
tt ista</w>
sijaitse vat</w>
teknologi aa</w>
merk kinä</w>
Huo menna</w>
ker in</w>
die sel
pare mpia</w>
magne ett
kuulu i</w>
s tetty</w>
ihm ettel
Z o
c ol
3, 5</w>
japani lainen</w>
8 5
Si i
kohta iset</w>
tutki ttava</w>
ky p
Ruot sissa</w>
musiik kia</w>
Kor ke
mi ini
ll it</w>
julk isesti</w>
Puhe mies</w>
päätel mien</w>
po ra
hyvä stä</w>
kä tesi</w>
jö itä</w>
staap eli</w>
si vun</w>
kan in</w>
alue isiin</w>
G or
hen ki
D ou
jää t</w>
Pi e
Joh nny</w>
sisälly tetään</w>
keho tetaan</w>
ikäy ttö
us ää
määr istä</w>
Ni ck</w>
E ro
VARO IT
KS I</w>
u ha
al ki
tutki i</w>
lääkä rille</w>
la kisää
tau tien</w>
Ha ki
velje si</w>
tap pel
do r
tartunn an</w>
ne ulo
lä iset</w>
lin tu
Ta var
työ voiman</w>
Je an</w>
D on
väl isestä</w>
Nä illä</w>
onni tella</w>
no ksi</w>
pö ly
et y</w>
4. 1</w>
vir us
tar joi
hull ua</w>
Par i</w>
tutkimusajan jakson</w>
poikke us</w>
helve tissä</w>
täs men
het k
o I
lain at</w>
kär sin
väl it
pel kkää</w>
na pa
tin g</w>
1, 3</w>
s tettu</w>
ann in</w>
U N</w>
sto ista</w>
opoliti ikan</w>
ta ani</w>
sa ta</w>
nuo rille</w>
luo kseni</w>
siir tyä</w>
z e
vuo k
istä si</w>
olo a</w>
tul k
ik ki
tasa lle</w>
hallin nassa</w>
viime isi
rakenta minen</w>
kolmann essa</w>
toime sta</w>
käyttä jille</w>
joukko jen</w>
tta koon</w>
opal vel
Na iset</w>
rau haa</w>
ky sy</w>
ko inen</w>
peru ste</w>
syö pä
kohtel ua</w>
kansall isiin</w>
ajan jakson</w>
vasta usta</w>
muuto s
o tsa
Var masti</w>
Tur kki</w>
komite assa</w>
Se itse
Interna tional</w>
Il me
ran ni
hal ve
ta hdon</w>
toimi valtaa</w>
p pä
tu hatta</w>
r uot
ko tel
joka ista</w>
e vat</w>
insuliin ia</w>
standar dit</w>
ste ttava</w>
M itään</w>
väliaika isesti</w>
Ste ve</w>
mu tten</w>
ta ku
S p
nyky iset</w>
pysy vät</w>
yhden verta
tta isin</w>
is eni</w>
häiri öitä</w>
tut k
huolehti i</w>
Je p</w>
Liitt eessä</w>
10 5</w>
mu t</w>
vahvista mista</w>
hallin taan</w>
S Ä
vil pi
tonn ika
p itu
löy dät</w>
Var sin
val he
va ikka
löy dämme</w>
al d</w>
19 80</w>
Bos nia</w>
c c
keski arvo</w>
lopu llisesti</w>
- Olet</w>
tta jien</w>
torjun taa</w>
1. 3</w>
maksu ista</w>
keske yttää</w>
vasta ista</w>
te la
päin vastoin</w>
jou kot</w>
vasta nnut</w>
la kien</w>
käy tettyjen</w>
ituo tteiden</w>
C o</w>
aja tuksia</w>
val u
tetty ihin</w>
Ku va</w>
min kä
merki tty</w>
kau deksi</w>
y mp
vaatimu ksen</w>
työ kalu
kal ut</w>
muo don</w>
Osall istu
ilma isu</w>
lasken ta
eni mmä
po sti</w>
Gmb H</w>
väl isessä</w>
te ssaan</w>
bud je
a ksesi</w>
omis taa</w>
isto ja</w>
peruste ista</w>
tiu ke
Puheenjohta ja
G ri
pahoin vo
Kun ing
Dann y</w>
äs ken</w>
paikko jen</w>
herä ttää</w>
no usta</w>
men a</w>
kehi tettävä</w>
pö r
Saa tte</w>
tu issa</w>
päälle kkä
aste tta</w>
me lla</w>
kehi tetään</w>
en s</w>
jatko ssakin</w>
ar t</w>
joulu kuu</w>
j .</w>
Bi lly</w>
mu ist
isuu sasetuksen</w>
de s
Hoi dan</w>
uh ri</w>
kutsu i</w>
paper it</w>
Vie kää</w>
ra ta
esi ttele
P yh
sairasta villa</w>
pää set</w>
Äänesty s</w>
A ir
terveyden huollon</w>
pyr kiä</w>
kohdistu vat</w>
ll ien</w>
C han
oso itus</w>
tule va</w>
henkilökohta isesti</w>
myöntä misestä</w>
nn ittel
mi ettiä</w>
sallitt ua</w>
na udan
puhu mme</w>
pala si</w>
ni t</w>
b li
tärke immistä</w>
ver n
udu mme</w>
t nantti</w>
ve teen</w>
analyso i</w>
av un
ge eni
kolme a</w>
toimi ttamaan</w>
tavall aan</w>
ko illa</w>
ken ties</w>
c an
vahviste tun</w>
saa ttaisi</w>
hyväksy mään</w>
Ke itä</w>
pidätty essä</w>
kiinti öiden</w>
laitt oman</w>
Pa ko
näy tän</w>
konkreett isia</w>
apol iti
euro järjestelmän</w>
tekni ikkaa</w>
lyhy esti</w>
luetel tujen</w>
V ää
vaiku ttanut</w>
han ki
E ri</w>
juo kse
toim iston</w>
kulu nut</w>
en nä
Sopi i</w>
sisälly tetty</w>
Kiito ksia</w>
koi ra
P yö
-- -</w>
per j
järjestel yn</w>
jä tetään</w>
ette kö</w>
Mu u</w>
pal jo
H C
ki vi</w>
in tensi
tee lle</w>
Ir lannissa</w>
kysy i</w>
toimitta ja</w>
saira an
kää nn
korva us</w>
si an
K IR
otta minen</w>
lääke valmisteiden</w>
korva usta</w>
: een</w>
apu asi</w>
Jo u
pöy dän</w>
Ki itti</w>
s itkö</w>
elämä si</w>
2. 3</w>
diag no
v itu
sulj ettu</w>
va in
integ roi
vau va</w>
va kaa</w>
Y ksi
E G
vaih telee</w>
vai monsa</w>
maatalous politiikan</w>
väsy nyt</w>
tilast oll
auto sta</w>
siir toa</w>
puu tu
Kä vin</w>
E mil
pe a</w>
myöntä mis
C le
oikeudell isia</w>
ente nä</w>
ri ba
isyy s
usko tta
Luxembur gissa</w>
ve toa</w>
amma tin
eri aa
K öö
ö ä</w>
ede tä</w>
de l</w>
da mme</w>
har kin
tuhan sia</w>
su n
C ana
mu re
kan saa
jä tetty</w>
pidä mme</w>
huon etta</w>
injektiopu llo</w>
palvel ua</w>
- Kuka</w>
st ilan
mu is
li ber
tunn etaan</w>
saman a</w>
c s</w>
ne essa</w>
Tiedo te</w>
tettä isiin</w>
tieto suoja
Mit kä</w>
us telu
nä ki
Sa isinko</w>
kiel tä</w>
S us
pri ori
poi kaa</w>
paha sti</w>
ile vat</w>
hava in
liikke elle</w>
järjesty ksen</w>
alkuperä inen</w>
mur tu
me sta</w>
a asi
ll isestä</w>
yksityiskohta isesti</w>
tuleva isuus</w>
va inen</w>
main itse
nau tti
ka lle</w>
ise mme</w>
uudistu ksen</w>
oike alle</w>
lu k
P öy
o -</w>
RE IT
an teeksi
puite ohjelman</w>
tois inaan</w>
mo jen</w>
O tin</w>
hous ut</w>
Mar o
gra fi
tel in</w>
t hu
ongel ma
voi mien</w>
ttä essä</w>
Oike asti</w>
Hu ole
vaara llisten</w>
kse ssaan</w>
rakenneraha stojen</w>
vanhe mmat</w>
is el
organisaati on</w>
er ä</w>
ehdo ista</w>
puhel i
le et</w>
räjä h
tap an</w>
tel ua</w>
pien tä</w>
dele g
St rate
sitoumu ksia</w>
Pa hoi
istu ksessa</w>
er än</w>
pi te
pen ha
määräy ksen</w>
vaka vaa</w>
haa ste</w>
tarkastel u</w>
erino mainen</w>
Näke miin</w>
m po
li uot
kannu sti
hien o
ki llä</w>
osoi tetaan</w>
kilpail uun</w>
epäile mättä</w>
ä lkää</w>
yrittä jyy
enemm istö</w>
men in</w>
ke ttä</w>
tee ma
Tarvitse t</w>
ve dessä</w>
ERITYIS VAROIT
syy ttää</w>
u ks
s ani</w>
Kolma s</w>
tehtä väksi</w>
et n
tasa lla</w>
r ön
Re g
Liike ttä</w>
otta mista</w>
kokemu sten</w>
is it
ar mo
kesku sten</w>
ll isellä</w>
P ara
mi aan</w>
a ma
tä hti
pa eta</w>
paranta mista</w>
vi itt
tammi kuussa</w>
pake tti</w>
välttämä ttö
joutu i</w>
tapau sta</w>
päätty mistä</w>
han a</w>
1 1.</w>
ver isuo
T hai
ään en</w>
anta neet</w>
tei mme</w>
U K</w>
Ti esi
e kos
standar deja</w>
kuva taan</w>
da lla</w>
di plo
Köö penha
henkilö stö</w>
jä t
utu sta</w>
histori an</w>
sar ja</w>
rak kautta</w>
p istä
h itto</w>
kuu lleet</w>
bi oo
6 .</w>
tetu lla</w>
maa mme</w>
kerro t</w>
julk iset</w>
ss aa</w>
anno in</w>
S uh
tu illa</w>
bis ne
ttämä ttä</w>
tto ja</w>
nni llä</w>
tehtävä nsä</w>
Par empi</w>
H erä
verkko on</w>
koko usta</w>
elektro ni
vähentä mään</w>
an tsapi
kokou kseen</w>
R O</w>
A L</w>
tavara a</w>
laito ksia</w>
helpo ttamiseksi</w>
Rii ppu
iste tut</w>
in ien</w>
Po w
vau htia</w>
Ju ma
kymmen entenä</w>
sähkö post
oi l
h err
Ky mmen
ölj yä</w>
no ssa</w>
m eiden</w>
ke t</w>
glob aal
tiivi isti</w>
murha sta</w>
kar ko
t ri</w>
näy tö
kilo a</w>
valti ota</w>
tt ina</w>
vaal ien</w>
tavar an</w>
Puhu taan</w>
pro jekti
murhaa ja</w>
kompro missi
ag gre
Chi c
ku olleet</w>
il a</w>
vara ttu</w>
tuotann ossa</w>
säännö stö
muo toa</w>
määritell yt</w>
katse lla</w>
te lleet</w>
pää sen</w>
pyrki vät</w>
US A</w>
tä miseksi</w>
e k
Pel it</w>
kan teen</w>
anta misesta</w>
- Selvä</w>
ti etty</w>
tetu sti</w>
Ban k</w>
Tarkoi tatko</w>
us itoumu
Kerto kaa</w>
purje hti
Ei pä</w>
tää kö</w>
st oli
sanka ri</w>
aluee llista</w>
Mu istu
uh ka</w>
S ou
yhtä kkiä</w>
kaupan käynnin</w>
kka si</w>
sall ittu</w>
mainitt uja</w>
tu ihin</w>
U udet</w>
tieto on</w>
aj antasa
M aan</w>
yksity isten</w>
- Ja</w>
täy ty
kuulu va</w>
tärke än</w>
ksi t</w>
re y</w>
matto mana</w>
laa jan</w>
rekiste rin</w>
noudatta matta</w>
muu ttamaan</w>
työntekijö ille</w>
tu ksella</w>
la isille</w>
jäsenvalti olle</w>
jättä minen</w>
Slovaki an</w>
r iton
paika llisen</w>
ki usa
Bo bby</w>
va ura
L A</w>
re ilua</w>
nö yr
TO L</w>
5. 2</w>
1, 2</w>
D O
tukitoi menpi
puu tteita</w>
si ki
en omista
ve ty
hä mmästy
tehty yn</w>
tulo ksiin</w>
s u</w>
kliin isissä</w>
en e</w>
erila ista</w>
Mi llä</w>
tärke intä</w>
järjestel missä</w>
yli her
tulo ja</w>
palvel uksen</w>
liitty i</w>
ri ka
nne kin</w>
ansa itse
-tiedo stosi</w>
teke mä
syy n</w>
tte ina</w>
tarv innut</w>
palja staa</w>
lii tetään</w>
7 0
tu in</w>
kala stus</w>
väki vallan</w>
huhti kuussa</w>
use at</w>
turvall inen</w>
rakenn us</w>
minuu tissa</w>
ruo ka</w>
keskuspan kkien</w>
F inan
nouda ttamaan</w>
konferen ssi</w>
ro ma
vapaa ksi</w>
johd on</w>
terveys -</w>
ve lla</w>
työsken telee</w>
perh että</w>
It se
do ssa</w>
aloi tteiden</w>
lähte istä</w>
mist o</w>
mahdoll isista</w>
liikenn että</w>
ko mentaja</w>
p h
tyh jä</w>
mu ksessa</w>
kir joitus</w>
pel ottaa</w>
p ilo
e y</w>
va kautta</w>
jalo sta
paper i</w>
keho tti</w>
Yl ös</w>
P H
on s</w>
tervey s</w>
tau tia</w>
esi tettyjä</w>
t si</w>
ttu ihin</w>
riippu maton</w>
hallinnoll iset</w>
TT I</w>
väliaika ista</w>
A B
ol ikin</w>
vast e</w>
vaki o
maa si</w>
Yhte istyö
Tu k
tark istettava</w>
sp on
Sai ra
to isten</w>
tie sit</w>
it usta
ANTO REIT
pää ministeri</w>
mur han</w>
ja ko</w>
viera ilu
vir heitä</w>
rakenn uksen</w>
Er ää
se ikka</w>
jä ksi</w>
Ed ition</w>
d ge</w>
tule maan</w>
re hun</w>
olenna isen</w>
In done
lu kenut</w>
na ar
markkin oista</w>
ur a</w>
ste k
miehe si</w>
ilmaston muutoksen</w>
B or
kunn o
joi lta</w>
vä istä
t iset</w>
terä s
perustu ttava</w>
yhte isessä</w>
sta s</w>
jou kon</w>
tetta via</w>
sisä markkinoilla</w>
isi mmeko</w>
ih oi
z a
tul tava</w>
tt isen</w>
maks a</w>
E R</w>
tuotta jan</w>
le s
hallinnoll isia</w>
jan ne</w>
välttämä tön</w>
luonnoll inen</w>
1 40</w>
V ittu</w>
ve lle
us u
u .int</w>
tta vassa</w>
la k
tietty ä</w>
ste et</w>
yleis sopimus</w>
turvallisuus neuvoston</w>
V esi
Tše kin</w>
varmuu s</w>
toimivalta isille</w>
ke mia</w>
säte il
V ol
Pre mium</w>
C re
ttömä ksi</w>
myöhä sty
tappa ja</w>
8 4
c ur
ista mis
erä t</w>
kapasi teettia</w>
che r</w>
huume ita</w>
hd it</w>
ke aa</w>
hel tä</w>
Enna kko
7 00</w>
toimivalta iselle</w>
la itonta</w>
saa da
liitte enä</w>
joh to</w>
lento aseman</w>
mm etti</w>
men tti</w>
lau la
er on</w>
vahvis tettiin</w>
tun ke
to u
yhteis kuntaan</w>
Bal kanin</w>
ki vaa</w>
vira stojen</w>
työn sä</w>
soi tan</w>
korkea mpi</w>
sa ine
0, 2</w>
infekti o</w>
pan tava</w>
kku ja</w>
saa tettava</w>
infor maa
Ta hdon</w>
sovi ttu</w>
ampu i</w>
poi kansa</w>
istu nto
asia kkaan</w>
par annettava</w>
d usta</w>
luo tava</w>
lo ista
sovelle ttavia</w>
y dy
luovu ttaa</w>
ka is
uudistu ksia</w>
unioni lle</w>
liik keen</w>
Kä vel
ken raali</w>
S M
kesä kuu</w>
osoitte essa</w>
mil j.</w>
Sinä kö</w>
Jä sen</w>
edusta jia</w>
tarvi ttavien</w>
milla inen</w>
kau ko
toiminta ohjelman</w>
saan eilla</w>
maailmanlaaju isesti</w>
Lop pu
Luxembur gin</w>
ku mpi</w>
elo kuva</w>
TA A</w>
Säily tä</w>
S ain
tarvi ttava</w>
käyttä jät</w>
sy vä
turvall ista</w>
par haa
V EL
to s</w>
teki jän</w>
istu nnossa</w>
aiko ihin</w>
vaih telu
kann asta</w>
edistä miseen</w>
In su
puhu vat</w>
teke mis
liikenn ö
tos ise
ki pua</w>
A S</w>
osi in</w>
impi ä</w>
S C
ope ttaja</w>
loka kuu</w>
kansala inen</w>
tä tte</w>
määritel mä</w>
hy vity
r uud
etsi vät</w>
lausu nnossa</w>
kää r
A mmu
ku ta</w>
satunn a
stoimin taa</w>
kone ita</w>
aiheu tti</w>
salli taan</w>
koul u</w>
tuo daan</w>
tunn us</w>
im in</w>
p s</w>
ili t</w>
tyytyvä isiä</w>
PA N
kala a</w>
K ri
pako on</w>
is la
ministe rin</w>
yhdistel mä</w>
ilmoitu sta</w>
A TI
sopimu ksissa</w>
perin tö
l el
ku takin</w>
ik kö</w>
rak kaus</w>
a mis
tehtä vi
W ill</w>
saa ttamista</w>
mole mpia</w>
sar jan</w>
veto o
v ene
pull o</w>
muuto in</w>
vähä inen</w>
s ulo
vahing on</w>
injekti o
iko ista</w>
pysy vä</w>
käs ite</w>
hauta ja
käy vät</w>
P ho
M eri
ttan een</w>
siir ry
s uspensi
äi d
mmo l</w>
määrä ys</w>
ilma ise
alf a</w>
tapa us
llä mme</w>
s hi
13 8</w>
10 2</w>
ma to
hallin taa</w>
heng ity
v yt</w>
tel et</w>
koske valla</w>
Jon kun</w>
mpu t</w>
taiste lla</w>
ihmis istä</w>
vaatimusten muka
il taa</w>
D aavi
tutki maan</w>
päi vät</w>
pe ll
kö y
Ja ke</w>
C i
tä vää</w>
säädö ksen</w>
päästä vä</w>
pit oa</w>
1, 4</w>
juo da</w>
amma tt
glob alis
vähen i</w>
kiir että</w>
av ustaa</w>
ll yn</w>
enimmäis määrä</w>
soi ttanut</w>
esitteli jää</w>
ke y</w>
ke sto
ha pon</w>
Poli itt
ulkoma illa</w>
hyväksy ttyjen</w>
suuntavii voja</w>
ratkaise miseksi</w>
sta maan</w>
lähe tetään</w>
Tur pa</w>
s ka</w>
myrs ky
käsittele mään</w>
istu maan</w>
Lääkä ri</w>
pi el
tunn el
ni assa</w>
C al
bi e</w>
toimi valtaan</w>
taloudell isiin</w>
työllisyy s</w>
varmaan kin</w>
luon teen</w>
Ke sä
vaara llisia</w>
monimuoto isuuden</w>
ker i</w>
Koso von</w>
vaal it</w>
Lo istavaa</w>
J en
tu llaan</w>
T :n</w>
suositel tavaa</w>
kado nnut</w>
ala sta</w>
Her ra
mu sten</w>
D ra
korke us</w>
Rau ta
t kään</w>
pain a
ist äni</w>
je et</w>
j i</w>
vä ke
vaar antaa</w>
ko ihin</w>
lis ään
tena kymmenentenä</w>
Jäl je
G ene
viisu mi
Kol man
än kin</w>
val on</w>
Au to</w>
ll anne</w>
julka isu
hur s
myönn ettiin</w>
lääkär isi</w>
hyödy llistä</w>
ven tti
pysy västi</w>
erity istoi
Nä ihin</w>
oikeu dessa</w>
f lo
tyydy ttä
no sti</w>
asia kas</w>
rahoitu ksesta</w>
kimp puun</w>
viitta us</w>
yrity ksissä</w>
käytä ntö</w>
valmis tus
miehi lle</w>
ajoneuvo t</w>
Goo g
rehe llinen</w>
talou dessa</w>
a h</w>
tuotta jille</w>
Kansainväl inen</w>
talous politiikan</w>
piir issä</w>
tuu li
0 3
- On</w>
ch ten
kirjan pito
hyödy nn
elä vät</w>
P V
12 .</w>
tarkoitetu issa</w>
puheenjohta jana</w>
alue ista</w>
ste in</w>
i mu
mu istan</w>
T eet</w>
m onin</w>
f ar
gu a
Kyse inen</w>
tuo ma
aluee llinen</w>
an e</w>
my y</w>
d l</w>
ppi a</w>
ee ko</w>
Vah v
Näy tän</w>
ver oa</w>
perustel ut</w>
kuul tuaan</w>
Jo hta
välttämä ttömiä</w>
työ markkinoiden</w>
Tule tko</w>
kaa vi
c hin</w>
Kuu letko</w>
puole stani</w>
va ri
seura ukset</w>
ravin noksi</w>
ola inen</w>
ll yttä
tilo issa</w>
ol y
nä it</w>
määritel män</w>
k kyy
tapahtu mista</w>
maks oi</w>
huol ta
B ran
Kyse isen</w>
va si
CES E</w>
teh tyä</w>
asiakka ille</w>
täydell isen</w>
vuot is
myyn tiin</w>
T ET
lähte nyt</w>
Yhd essä</w>
kaike ssa</w>
fi ksu</w>
8 .</w>
organ iso
päätö kseksi</w>
pi ä</w>
Pas ka</w>
laati ma</w>
aiheutu vien</w>
ra vitse
K AN
rapor tissa</w>
ymp yr
säily tettävä</w>
asu vat</w>
uskonn oll
tavar an
laaja sti</w>
investo in
pito isuudet</w>
kaupun gista</w>
suunnittel un</w>
järjestel y</w>
hyö ty</w>
is ki</w>
ha ju
va kaa
aal isen</w>
Mar k</w>
Va u</w>
Uu de
vuosi ksi</w>
resur ssit</w>
ll isille</w>
ho ris
Keski viikko</w>
tta jan</w>
kä nny
b oo
val itse</w>
ä y
Liite kuvio</w>
ll u
ar y</w>
perä kkä
n ta</w>
ikko ihin</w>
asu nn
poika si</w>
S itä
poikke uksia</w>
voi mia</w>
oi ksi</w>
muuto ksiin</w>
Bar ro
tiu kasti</w>
Britanni an</w>
esi merkkejä</w>
Komite an</w>
u stu
tarjo us</w>
kelpo isia</w>
Jumala a</w>
ekos ystee
näy tät</w>
mättö miä</w>
muo dos
henkilö lle</w>
seuraa valla</w>
ih on
Sel v
suositu sten</w>
tar tun
laski moon</w>
jä y
V aati
ke ksi</w>
Ai emmin</w>
vasta isen</w>
ss e</w>
vaike uksissa</w>
harjoi ttavat</w>
Mole mmat</w>
HAL TI
myynn istä</w>
re itä</w>
farmakokin eti
tai vaa
saa tettu</w>
Le on
lähte mään</w>
koulu jen</w>
ell istä</w>
alo itus
O P
Ki itän</w>
milla ista</w>
luon to
kal vo
edisty mistä</w>
rapor toi</w>
keh on</w>
tai pu
katastro f
jalka pall
asiakir joihin</w>
ai d
asia kas
Ch ris</w>
teke minen</w>
te ks
kann at</w>
käyttä jä
Vi et
vuoro kauden</w>
Ta istel
likvi di
vää rä</w>
sosiaal isten</w>
reakti oita</w>
pää omaa</w>
pan nut</w>
luo nut</w>
anta massaan</w>
S t</w>
An ta
isi en</w>
klori di</w>
istu nut</w>
ryhdy ttävä</w>
asetu ksia</w>
O I
arvio innista</w>
aa ksi</w>
vallan kumo
vai mosi</w>
s ina</w>
per ään</w>
mpu n</w>
kä t</w>
Ta isin</w>
Seura ava
Kroa tian</w>
12. 2006</w>
tu pako
St ras
ttää kö</w>
B ec
pyy dä</w>
R N</w>
vyöhy kke
tuon titu
pal a</w>
aika isin</w>
kuul ee</w>
ku olin
ehdo tettu</w>
päätöslausel ma</w>
perso on
näytte eno
eh to</w>
ro olia</w>
jan tai</w>
kahden tenakymmenentenä</w>
varmis taakseen</w>
tervey delle</w>
osa sta</w>
kirje ellä</w>
kerä tä</w>
katso ttava</w>
tiedosto ja</w>
prosen tista</w>
aurin gon
ulottu vuus</w>
lähd emme</w>
kon sen
tieto isia</w>
tehokka ammin</w>
pa ken
lue tellu
Ni issä</w>
O so
ik ö
ku llekin</w>
johtu i</w>
ehkäis y
in eiden</w>
Usko tko</w>
Hy västi</w>
rakenn ettu</w>
tar ken
kokemu ksia</w>
on issa</w>
vahvista maan</w>
e itä</w>
mä töntä</w>
Hai tta
jo tkin</w>
yty ksen</w>
val mista</w>
vaa ti</w>
puol ta</w>
poista miseksi</w>
hi ukset</w>
b ensi
Mei lle</w>
kor rup
Mie ti</w>
sano ttuna</w>
Uni oni</w>
riba viri
n oll
tuont itod
- Missä</w>
taloudell iseen</w>
poly me
itie do
ha h</w>
saa ttaminen</w>
mar i</w>
et si</w>
Ku nni
näy ttö</w>
Ääne stin</w>
tuli tte</w>
tila an</w>
saata t</w>
i mp
poltto aineiden</w>
f ur
mukau ttaa</w>
kan aan</w>
var tio
h i</w>
re jä</w>
mo der
tavoi te
päivä tyllä</w>
tä vän</w>
lain käyttö
Ko hd
A vi
kolleg ani</w>
huhti kuu</w>
aloitte esta</w>
uu ni</w>
talo a</w>
o k
asen ta
kasvo t</w>
amm oni
Käs kin</w>
kir je</w>
Ma ksu
toisi amme</w>
perus telu
brutto kansan
T yh
tulo ksen</w>
kohdistu u</w>
Kolmanne ksi</w>
viljelijö iden</w>
pide mmälle</w>
miehen sä</w>
me sta
fluo ri
järjestel mistä</w>
anne tut</w>
Tutki mus</w>
ni e</w>
määritel tyjen</w>
mi tta</w>
iden ti
pal estiin
ee lle</w>
Ke tä</w>
tarvi ttavia</w>
Valmi ina</w>
x e</w>
ju mala</w>
I n</w>
s yt</w>
Kööpenha min
mu kse
tila stojen</w>
ol yy
laa tinut</w>
al uo
yhtenä isen</w>
arkki teh
Tälla iset</w>
kaik in</w>
Y LE
saapu u</w>
ne e</w>
A ar
korke u
epä toivo
Ä lä
väliaika isen</w>
ss on</w>
munua is
a isten</w>
ha ssa</w>
Chic ag
teke män</w>
pu lassa</w>
ma lleja</w>
tu sti</w>
sosiaal iset</w>
Y hden</w>
E EN</w>
perustee llisesti</w>
nne tään</w>
ale ja</w>
Tu ki</w>
jä n
u ne
typer ä</w>
val ituksen</w>
usko vat</w>
oike aa</w>
uh rien</w>
py sy</w>
Ajattel e</w>
20 .</w>
voi mat</w>
vir uksen</w>
vamma isten</w>
u mp
eh ti
al ani
kyse isellä</w>
tte isiin</w>
K ES
päätöslausel massa</w>
mmä llä</w>
sata ma
os issa</w>
Stras bour
Py st
Gal ile
Met sä
pyy nti
Pas kat</w>
Me di
sisä istä</w>
nimi ttä
kaupan käynti
hy gi
tammi kuu</w>
P E</w>
Löy simme</w>
tyttö jen</w>
kunin kaa
TA LO
Es ityslistalla</w>
osakke enomista
en taa</w>
k ry
- Tiedän</w>
prosentti yksikköä</w>
lausunn ot</w>
jaks a</w>
di fi
d t</w>
Moo se
Lie chten
A sen
neli ö
muuto ksen
ke sti</w>
aati t</w>
pään sär
oika is
alu ksia</w>
vastuu lla</w>
saavu ttamaan</w>
am p</w>
tee tä</w>
p ö</w>
kyt ken
2 99</w>
ki u
heinä kuu</w>
so taa</w>
laad un
den t</w>
Su ku
lakisää te
elo kuvan</w>
vel ka</w>
koir an</w>
la ita</w>
kalta isten</w>
väär enn
N aa
ud an</w>
is sä
o ttaneet</w>
eläi mistä</w>
uh rin</w>
pien i
a ari
Vi de
Kaik kia</w>
pel issä</w>
s pi
puhelime ssa</w>
käytä vä</w>
p istä</w>
op o
an sula
s ko
ber g</w>
horis on
Ihan ko</w>
4 4
ro mani
raken teet</w>
O ma</w>
aktiiv isen</w>
Ni me
EI P:n</w>
a .</w>
tiedosto on</w>
se ikka
mu kseen</w>
tä misen</w>
las kun</w>
isuu tena</w>
lii tettävä</w>
hui pu
P aa
kohtel u</w>
kah vi
Aloi tetaan</w>
Men in</w>
vaiku ttava</w>
Kä det</w>
E l</w>
korja us</w>
oikeudell isesti</w>
en kö</w>
tt ini</w>
krite ere
vuoropuhel u</w>
eli min
synn yttä
ri ita</w>
du ista</w>
mo ista</w>
ke ri
val ot</w>
voi tti</w>
vapau ksien</w>
toimi lla</w>
Van ha</w>
hedelmä -</w>
ulko maan
onnettomuu s</w>
t ren
rakenn etta</w>
puheenvuo ron</w>
le vä
vi kaa</w>
ty r
paino ttaa</w>
p eni
käytä n
Tie tojen</w>
M O
K IL
oppi misen</w>
mekanis mi</w>
markkina osuus</w>
pa u
nä emme</w>
ala ito
Pi la
an en</w>
yhtey ksien</w>
ge o
öö ri</w>
ryhmi tty
kuor ma</w>
julka istu
valmi uksien</w>
analyy si
kyl pyhuo
Kuu nnelkaa</w>
- Anteeksi</w>
tor jua</w>
nyky isiä</w>
S hi
t v</w>
tar inan</w>
met ri
ge l</w>
aiheu ttanut</w>
teke mässä</w>
ee si</w>
ol taan</w>
n yr
assosiaati osopimu
EI P</w>
vir tsa
te illa</w>
suure mpia</w>
Muu ta</w>
198 8</w>
vi ttua</w>
oikeudell iset</w>
Ke stä
Ar thu
tulo kseen</w>
hoita maan</w>
sää dä
oikeu desta</w>
ava taan</w>
1 11</w>
stä nne</w>
to ver
pohjo is
kin a</w>
tu kse
ss elo
O ma
väest östä</w>
tu ri
Kai killa</w>
vied ään</w>
En er
merkintö jen</w>
A p
suku puolten</w>
päätty i</w>
et on</w>
uh ra
omina is
tila isuutta</w>
kerra ssa</w>
seuraamu ksia</w>
hyvä n
ti man
ehd i</w>
Sopi iko</w>
vit ro</w>
puuttu va</w>
pist os
tarkoi tettuun</w>
kerra llaan</w>
suori tettu</w>
sti la
ratkaise van</w>
ni lla</w>
innovo innin</w>
hin nasta</w>
alue -</w>
Yksity is
pysä y
tull ia</w>
tapan a</w>
R T</w>
Päätö ksen</w>
Ki oton</w>
in iä</w>
di o</w>
M as
r el
peruu ttaa</w>
mon ista</w>
keskuspan kit</w>
pää dy
osallistu misesta</w>
Ka hden</w>
vä keä</w>
elin keino
saa minen</w>
Kyse iset</w>
neljä s</w>
AU C</w>
ta l</w>
polku myynnin</w>
minkään laista</w>
C hil
tie detään</w>
1. 1.
tuotann osta</w>
qu i
kulttuu ri</w>
loukka antu
täydell istä</w>
tull ien</w>
tila lle</w>
seuraa vissa</w>
ve to</w>
va l</w>
ole skel
kon sa</w>
kehitys maiden</w>
ik kää
me to
kiel to</w>
direktii ve
helmi kuu</w>
ell isesti</w>
Maks an</w>
ing in</w>
valmi it</w>
hde lla</w>
SÄ IL
hakemu kset</w>
enn a</w>
tie sin</w>
o kei</w>
materiaal ien</w>
el py
Et hän</w>
luo kka
lapsi lla</w>
ja kel
A n</w>
men o
ensi ksi</w>
KO MI
Yhte isen</w>
pää osasto</w>
huippu kokouksessa</w>
na ppa
vide o</w>
suos itus</w>
lenn on
le po
kau nista</w>
yhteis istä</w>
verko sto</w>
laati minen</w>
t it
kiinte ä</w>
varo itus
tapaa minen</w>
llis elta</w>
Onn ittel
suunnitel maa</w>
laa j
kor vaa</w>
kan sojen</w>
ase masta</w>
Ira kin</w>
luoki ttele
lääkä rin
R us
Oike us
ks on</w>
T rans
pakkau ksessa</w>
lisä arvoa</w>
eko no
ve sien</w>
asia kirja
po eti
luoki tellaan</w>
kul ki
todell isia</w>
poliitt iseen</w>
men ettänyt</w>
jäsenvalti osta</w>
a an
pain aja
kärsi vät</w>
p en</w>
Valvo nta
mb er
tutkimusajan jaksolla</w>
terveyden huolto
väh iten</w>
Vi ite</w>
merkin nät</w>
oike asu
käs itys</w>
Tarvi taan</w>
vakuu tuksen</w>
t .
hui ma
aloi tetaan</w>
esi tettiin</w>
Roma nia</w>
Ku mo
a stu
C D</w>
R I
sopimu ksista</w>
rik ki</w>
luonnon varojen</w>
kulje tus</w>
komis ario</w>
K ei
poista mista</w>
osa stossa</w>
Neuvo stoli
täysistu nnossa</w>
reakti ot</w>
maks ettu</w>
myönte isiä</w>
tunn issa</w>
sella isiin</w>
vuo delle</w>
toimin nan
huomi on</w>
vol yy
la ulu
Bri an</w>
toiminta ansa</w>
t rak
0 .
ede stä</w>
Is lannin</w>
var moja</w>
tarjo lla</w>
r yn</w>
tehd yllä</w>
19 70</w>
Te ki
sisäl tö
pol in</w>
sitoumu sten</w>
sisäll y</w>
ki ven
alkuperä is
vii ri
llä kin</w>
iso itu
sselo ste</w>
numer on</w>
ku lo
koske a</w>
Ka ver
4. 3</w>
tarvi ttavan</w>
nä y</w>
mm ä</w>
Elintarvi ke
A g
sijoitta utu
Tar koitu
G rou
ru h
näky mät</w>
mieh istö
aloi tteet</w>
tava ksi</w>
palvel usta</w>
in enkin</w>
pid etty</w>
asia mies</w>
toi mis
talo sta</w>
sunnun ta
lu paan</w>
hyö kkää
energialähte iden</w>
aika iset</w>
paika lliset</w>
kai pa
n enä
L AS
ar ka
Val o
vase mmalle</w>
t -</w>
ryh mäni</w>
t hi
län si
ksi ksi</w>
palkin non</w>
kynn ys
korke alaa
te is
er ossa</w>
3 50</w>
Taka isin</w>
Ri ko
hyö kä
hyväksy misen</w>
10 .</w>
onne kas</w>
mmä ssä</w>
b le
C at
valmi uksia</w>
va el
i j
tietee llinen</w>
pakkau sselos
a jalta</w>
ne e
N S
lyh en
etto mia</w>
ylä puolella</w>
oikeu ksiin</w>
mp pu</w>
lyhy taika
ky kene
17 .</w>
tu ella</w>
liik u</w>
Wor l
aihe ista</w>
varainhoito vuoden</w>
olo gia</w>
toimi vallan</w>
ci al</w>
D E
puhd as</w>
lisää mistä</w>
elä mästä</w>
SI S</w>
ma tal
tarkoitetu ssa</w>
ntö jä</w>
ss y
ra mi
Ti es
Las ke</w>
tuon ut</w>
tappa maan</w>
isyy destä</w>
Kir joi
tule vaa</w>
Ma x
Keski -</w>
il men
Ikä vä</w>
piir i</w>
o man
Ha m
tietä vän</w>
sy l
perus tellu
kää mme</w>
kol ta</w>
S op
yhtenä inen</w>
etusija lle</w>
V annon</w>
anno ksella</w>
ratka istu</w>
ki itän</w>
Lyh y
sydä men
juo tavaa</w>
heng en
Ry an</w>
erä itä</w>
ty kkää</w>
mi e</w>
en ia</w>
a kuu
Viet na
ö tä</w>
5 43</w>
yhteis markkinoille</w>
parlamen taar
Pa kkau
Ed die</w>
ista misen</w>
opol tto
määri tetty</w>
min kään</w>
ee stä</w>
pan tti
c tion</w>
ristirii ta
lo gi
K A</w>
lii ku
koordino intia</w>
haaste et</w>
aluee llisia</w>
aio mme</w>
Tä män
Tu ki
kiinni tetään</w>
eur o</w>
Alo ita</w>
ruo stu
e u
vakuutu syr
työ ryhmän</w>
ko lle</w>
ä ki
on ta
Y stä
kul ma
hark itse
selvi ä
f er</w>
hin toihin</w>
ity ksiä</w>
halka isi
elo kuu</w>
ne elle</w>
muu nn
hti in</w>
sel o
Joh n
kkuu s</w>
suure mpaa</w>
ve s</w>
ko ti</w>
an gio
Teh kää</w>
yhteisymmärry kseen</w>
standar de
pää t</w>
pää ltä</w>
w en</w>
teoll isuudessa</w>
metsä stä
ker a</w>
joukko on</w>
hoide taan</w>
ystävä nsä</w>
täydell isesti</w>
kirjoi ttanut</w>
aihe et</w>
osuu s
sara kkeessa</w>
toimintasuunnitel ma</w>
pika isesti</w>
esi tteli</w>
aiko vat</w>
hallitu kset</w>
mä r
J aa
vaar aa</w>
rahoi tetaan</w>
konferen ssissa</w>
Ka ks
H un
tilin tarkasta
asu nto</w>
hallinno inti
Me ksi
h anoma
hallinnoll isen</w>
näkö kohtien</w>
neljänn es
arvio itiin</w>
Du b
18 .</w>
kie lletään</w>
lä mmi
ER Ä
kään tää</w>
kansa kuntien</w>
Tode llako</w>
tuoll oin</w>
ma ri
un d</w>
kat s
järjestel mällä</w>
P OL
Atlan tin</w>
käte is
ken eet</w>
d g
Jo hanne
hallitus ten
ensimmä isestä</w>
Y o
Jo issakin</w>
kur ssi</w>
luetelma kohta</w>
o tamme</w>
mekanis min</w>
ehdo ttoman</w>
Unka ri</w>
kustann u
jatku van</w>
te taanko</w>
reakti o</w>
lausun tonsa</w>
kan tansa</w>
CYP 3
perhe eni</w>
muu lle</w>
te ko</w>
seuraa vaan</w>
oll isuuden</w>
myön si</w>
aloi ttamisesta</w>
H in
yhteis yrityksen</w>
Päästä kää</w>
tull i</w>
P ikku</w>
TI ET
O K
wa y</w>
neu tro
ku kka
epä puhta
Kaik issa</w>
talousarvio ta</w>
t isen</w>
puol ustaa</w>
itt oon</w>
arvo ste
16 .</w>
virka miesten</w>
Ved ä</w>
Kul ttuu
va s
poli ise
yksik ään</w>
paika llinen</w>
lou kkau
ett ien</w>
vo itiin</w>
tan an</w>
Nope asti</w>
is h</w>
ili ja</w>
tulo hinnan</w>
kansallis issa</w>
juo ma
merkity ksen</w>
jat kossa</w>
ver ot</w>
jo ituksen</w>
Taa s</w>
Al b
3. 3</w>
as etta</w>
a joi
poikke uksen</w>
tyttö jä</w>
tt ään</w>
tarko in</w>
avar uu
stoimin ta</w>
naapu ruu
lan g
inu mer
de si
tarka staa</w>
käsittel ystä</w>
suo mala
tta vaan</w>
taa lla</w>
johta jat</w>
pitä en</w>
M S</w>
piir in</w>
in tre
y o
ka iden</w>
itse lleni</w>
he h
Po istetaan</w>
taso t</w>
menetel mällä</w>
vaatimu sta</w>
ruis ku</w>
korja us
jo nnekin</w>
it ulo
aiheutta ma</w>
Sil ti</w>
no sta</w>
san an
muotoi l
helmi kuussa</w>
Tälla isia</w>
kaik ke
f ta
pel otta
suunnitel mien</w>
kana van</w>
tarkoitu ksessa</w>
saavu ttamista</w>
potila s
B .</w>
vuotu inen</w>
tyh jen
luottamu s
ju o</w>
ss u</w>
sano ma
ll isiksi</w>
Kai ke
min ne
Yor kissa</w>
Ju h
II a</w>
vii vojen</w>
te re
paika llisia</w>
käsiteltä vänä</w>
: ää</w>
m oll
kor tti
Ehdo tuksen</w>
an o</w>
Mol do
uude lle</w>
tehtä vissä</w>
po ru
on g</w>
näke vät</w>
lo i</w>
er itty
jo na
lin e
Iran in</w>
ta seen</w>
m per
lu na
kuoll een</w>
Oi kea</w>
ohjel mista</w>
kyl py
Eng lannin</w>
Afr ikka</w>
kto rin</w>
sis ten
pol ttaa</w>
ka asu</w>
N YT</w>
v ö
ty mistä</w>
seer umin</w>
lähd et</w>
So vi
ttor in</w>
fil oso
an toivat</w>
J al
14 .</w>
muuto kseen</w>
hyvä kseen</w>
r .</w>
it sel
Li itty
D an</w>
vali taan</w>
tarjoa maan</w>
Fin land</w>
E C</w>
ti ini</w>
maini ttava</w>
lisä ys</w>
kä vellä</w>
kulu tus
nu ksen</w>
kulje tuksen</w>
Kene lle</w>
vero jen</w>
luonnon vara
johd a
glu ko
vir taa</w>
verko t</w>
säily tetään</w>
jälj et</w>
kau ne
hetke ssä</w>
ensimmä iset</w>
ttä vien</w>
p si
ta innut</w>
Sy ste
myönte isenä</w>
marras kuu</w>
hyvä nsä</w>
avoi men</w>
pako ttaa</w>
neu von</w>
Kana dan</w>
Interne tin</w>
lopul takin</w>
rau hanoma
tila vuus</w>
osi tta
ksen sä</w>
keskisuu rten</w>
jolla isia</w>
JA N</w>
je mme</w>
Min iste
vahin ko</w>
uudistu sten</w>
ar vel
Koko nais
yhteiskunn assa</w>
ohjel missa</w>
tarjo nnan</w>
nor mien</w>
vaiku tte
3 7
mikro grammaa</w>
i llaan</w>
e issa</w>
todell isuudessa</w>
lääkä riin</w>
eh tin
sukupol ven</w>
ll isessä</w>
komissi olla</w>
oikeus -</w>
puoli lla</w>
c al
kil pi
in tö</w>
hien osti</w>
Se ur
W oo
yty ä</w>
luotta muksen</w>
Euro sta
tu vat</w>
ala ikä
Tää ltä</w>
te stit</w>
Tai dat</w>
rakenn usten</w>
alkuper ää</w>
es itys
C ra
ryh miin</w>
puole stasi</w>
tavoitte eseen</w>
suora a</w>
st in
ka taan</w>
jäsenvalti oilla</w>
el it</w>
OMI O
utu kaa</w>
t her
pääasia llisesti</w>
Joll ei</w>
valmis tuksessa</w>
istu nto</w>
c i</w>
teke mällä</w>
p innoi
ist änyt</w>
tä hti</w>
Hel ve
ri e</w>
ko issa</w>
Suo s
R ä
sy lin
sta so
valuu tan</w>
paks uus</w>
tarjo usten</w>
Huo ne
vanhe mpi
1 15
ä kkiä</w>
pel iin</w>
muunto geen
S iltä</w>
nn asta</w>
lii ttää</w>
hallitu sta</w>
10 ,
materiaal in</w>
t he
mä mme</w>
juh la
au tan</w>
vahvista miseksi</w>
täytäntöönpane miseksi</w>
tietokone esi</w>
EN N
syö ttö
pää nsä</w>
materiaal ia</w>
haki ja</w>
Bra sili
jal ti</w>
toi missa</w>
seur annan</w>
sääntö ä</w>
il maa</w>
ve ja</w>
oi s</w>
myr kky
e mä
testa us
sta kaan</w>
siir tola
sosiaali komitea</w>
teknologi a
T as
itt ele
Eri c</w>
koo din</w>
aa tin</w>
ymmärr että
tuotte esta</w>
samanaika inen</w>
kaupun kia</w>
injektione ste</w>
ansa itsee</w>
Työ ttömyy
H ir
liitty misen</w>
korke intaan</w>
T w
Sopimu s</w>
A meri
ol kaa</w>
T ru
viestin tä</w>
tö ö
tuo ttavat</w>
k rea
aloi lle</w>
Mu sta</w>
mon en</w>
helpo mpaa</w>
a .
sella iseen</w>
kau e
infrastruktuu ri
kalta inen</w>
impi a</w>
de ssaan</w>
che l</w>
tas ku
toimi ttanut</w>
Kuva us</w>
tä kää</w>
A ja</w>
tetta vaksi</w>
ker r
la keja</w>
kla ss
E mmekö</w>
hava ita</w>
joutu nut</w>
sää li
uot e</w>
st itu
sekunn issa</w>
tu ksiin</w>
taajuu s
itä kin</w>
as ut</w>
vaih televat</w>
ta ks
suo stu</w>
opp inut</w>
kilpail usää
hy vien</w>
sop ia</w>
Ka s</w>
mu ksesta</w>
koro sta
et s
Japan in</w>
vero ja</w>
vaike udet</w>
poliitt isesti</w>
Y TE
rekisterö ity</w>
oma isuu
V :n</w>
täy tynyt</w>
luonno ksen</w>
keski pitkän</w>
Saa tat</w>
li jat</w>
käyttö tarkoitu
Käs ke</w>
löy sit</w>
l inn
tta massa</w>
politi ikka
en nyt</w>
ajattel e</w>
O MA
war e</w>
si on</w>
Phi li
m r</w>
Uno hdin</w>
0 9.
re sisten
lap seni</w>
ika lla</w>
198 5</w>
laus e</w>
kuva ttu</w>
ri kas</w>
yksi puol
har kittava</w>
To isen</w>
K ari
EM EA</w>
vuo rist
ta hojen</w>
rin euvo
poli isit</w>
ole valla</w>
o ud
käyte tä</w>
ke ksiä</w>
c on</w>
Pel kään</w>
tule via</w>
pöytä kirjassa</w>
b le</w>
Bi o
syy llisty
sisä isten</w>
M es
ensimmä isellä</w>
keng ät</w>
Uni ted</w>
Jäsen valtio</w>
Alanko maissa</w>
kalta isia</w>
ä l
var oihin</w>
se ja</w>
ihy dro
pää oma</w>
li ity
insuliin i
yhteiskunn all
ku k
us t</w>
ttel uun</w>
po ja
ti ot</w>
is min</w>
anne tulla</w>
sa masta</w>
järjestäyty neen</w>
Kul ta
vakiin tu
is ää
huoma ta</w>
h ra</w>
Ar tik
tekijö istä</w>
te tyssä</w>
mp el
ti ettyyn</w>
uh reja</w>
te ri</w>
j alan</w>
Pyy sin</w>
luo miseksi</w>
En si</w>
maa lle</w>
avi irin</w>
huoma ttavaa</w>
ehdo in</w>
aihe ita</w>
liikku a</w>
tarka lleen</w>
Yks inkerta
kan toja</w>
indikaatto rit</w>
tulo kse
kaupun ge
iti es</w>
si ini</w>
sivi ili</w>
koo dit</w>
pääll ys
Kes k
uu sille</w>
o vet</w>
kiell etty</w>
vau hdi
myöntä misen</w>
man n</w>
käyn tiin</w>
D A</w>
oso vell
al ar
Ni illä</w>
2 1.</w>
säte ily
kohd issa</w>
klo ori
Window sin</w>
udu in</w>
krite erien</w>
kse päin</w>
A mm
tta jat</w>
mootto rit</w>
L isa</w>
laj it</w>
avai met</w>
toimenpi dettä</w>
ku rin
aiheu ta</w>
jää nnö
aiku is
n tele
Pa ikka</w>
li it
ensisija inen</w>
Halua isitko</w>
Po ista</w>
Nor ja</w>
vel a
kar toi
ti ka
Wal ter</w>
O saan</w>
järjestö jä</w>
poh jan</w>
istu minen</w>
Lat vian</w>
sano isin</w>
Kr istuksen</w>
pä s</w>
ky r
Ra k
M ir
voi lle</w>
ty illä</w>
ol ä
saira us
pito isuutta</w>
lä isten</w>
ke is
k g
Pro f
-tiedostotunniste tta</w>
L I
lääkäri llesi</w>
kolme ssa</w>
ne eksi</w>
Tuk hol
perus tetaan</w>
peri llä</w>
koh teeksi</w>
Ser vi
valmi u
tehtä vään</w>
avu ksi</w>
pide tyssä</w>
Sis ään</w>
18 2</w>
op in</w>
le mmi
siirty mistä</w>
Suo kaa</w>
viikon loppu
sovelta miseen</w>
D un
pel aa</w>
Mi ele
avoime sti</w>
Voi tteko</w>
velvoll isuutta</w>
sano ttava</w>
olo jen</w>
Tuo te
Ties itkö</w>
kliin isesti</w>
kel paa</w>
ET Y
olo issa</w>
kamala a</w>
ei ttain</w>
pi h
yö py
vah vasti</w>
minne kään</w>
omista ja</w>
kiinti ön</w>
ess äni</w>
valvo o</w>
tuom itse
her eillä</w>
Ole mmeko</w>
Ö N</w>
pu ku
oi ko</w>
lau ka
lan tila
laa jalti</w>
asia in</w>
viitta avat</w>
ilmaisu lla</w>
Kiin assa</w>
var usta
so sa</w>
o intia</w>
tapahtu vaa</w>
suure mmat</w>
min er
al v</w>
perussää nnön</w>
su a</w>
käsi tellyt</w>
Lähe tä</w>
12 3</w>
iky mmen
vaihe eseen</w>
for d</w>
tapa si</w>
tapau kset</w>
stu r
BK T</w>
väär ään</w>
järke vää</w>
interven tio
fooru min</w>
O per
ista maan</w>
Uu sien</w>
poi kki</w>
uudistu s</w>
sivu lla</w>
E dell
toimeen pano
odo tan</w>
luo pua</w>
li o
suhd etta</w>
perä vaun
kemi an</w>
Vir on</w>
Pi din</w>
ve d
tieli ikenteen</w>
suojel usta</w>
re aali
koto isin</w>
hd u
yhteis kuntaa</w>
t ra</w>
LÄÄKE VALMISTEEN</w>
pääse vät</w>
iste et</w>
f aatti</w>
en ti
vuotia ana</w>
ki pu
inn on</w>
Li ikku
na isilla</w>
myöntä minen</w>
täytäntöönpanosää dö
esiin tynyt</w>
Krei kassa</w>
vil ja</w>
kasva ttaa</w>
su kka
muka asi</w>
vahingoi ttaa</w>
ttomuu s</w>
kehittä misessä</w>
jää hdy
Pitä isi</w>
vara us</w>
pur kau
puheenjohtaja valtion</w>
perustu via</w>
he hta
T est
T US
A ri
pakkau sseloste</w>
liha s
Talou dell
vä ite</w>
tarkastel ee</w>
kasvi t</w>
este iden</w>
vaihe issa</w>
vasta ukset</w>
lou kkaa
valvonta viranomaisen</w>
aluee lliset</w>
Tul i</w>
Julk isen</w>
A ma
ÄÄ N</w>
ase tettujen</w>
VAIK UT
yksity inen</w>
t .</w>
sisälly ttävä</w>
mata la
Ja co
E ts
op is
go ri
TU S</w>
mmi ksi</w>
yli ttävät</w>
an tuu</w>
toimi elimen</w>
li ika
kansainväl isesti</w>
tää kseni</w>
si e</w>
tihe ys</w>
rin ta</w>
ikkun an</w>
ydin voima
kimp puu
il massa</w>
hinta indeksi</w>
Myynti luvan</w>
.. ..</w>
W est
täs menne
ki ista
g ot</w>
P os
1. 4</w>
kyse iselle</w>
P ikku
rajoitu sten</w>
alha alla</w>
sano ttavaa</w>
syy nä</w>
vel ko
Ka te</w>
saa miset</w>
ato mi
Sco tt</w>
sy ksy
J .</w>
kirja taan</w>
ar ki
siirr että
näl kä
ve mmin</w>
So itin</w>
op pa
muo vi
E riko
li in</w>
is ku</w>
T Y</w>
tyyppi hyväksyntä
tene g
lu pien</w>
ase ttamista</w>
ylhää llä</w>
työ ni</w>
F A
juu r
toim ist
talous alueesta</w>
aloi hin</w>
Kuu lu
potilaa lle</w>
avi iri</w>
ti ve</w>
ost os
osoi ttamaan</w>
järjestely istä</w>
halti joiden</w>
au ttanut</w>
pienen tää</w>
kka ri</w>
ol isiko</w>
tasa verta
nne s</w>
toimi joita</w>
laa t</w>
tunte maan</w>
tunn ettu</w>
lain an</w>
r ää
verta il
sula utu
mahdollista vat</w>
kann ano
valtuu ksia</w>
i ii</w>
vir t
0, 3</w>
voi mis
kon etta</w>
Sul je</w>
al ku</w>
S :n</w>
tiedo stosi</w>
poistu a</w>
glu koo
Valmista jan</w>
T os
torju nnan</w>
työskentel y
sitoumu kset</w>
muu tettiin</w>
tro poi
se tä</w>
ta lla</w>
j ur
Ö l
vuotiai den</w>
lope ttamaan</w>
toteutta misessa</w>
po hd
palvelu ksessa</w>
ra jaa</w>
O G
D V
per ille</w>
ihan aa</w>
ir to
O y
soveltu vin</w>
Hu ll
ks ikin</w>
julkais tiin</w>
vara puheenjohtaja</w>
kiell on</w>
halu sivat</w>
työ ttö
s tettä</w>
keskustel uja</w>
hullu ksi</w>
au toja</w>
st olta</w>
ohjelmist osovell
jat koi</w>
tapahtu man</w>
si pu
ehdo tetun</w>
1 15</w>
raka stunut</w>
demokrati aa</w>
si tt
ha m</w>
ta vissa</w>
hemoglobi ini
Ma h
A z
vastuu vapauden</w>
ll isilla</w>
äänesty ksen</w>
kaa tuu</w>
b in
a misen</w>
Jo o
sito utuu</w>
on en</w>
ase ma
C oll
n issa</w>
määrä aikaa</w>
F u
van haa</w>
Egyp tin</w>
ran nalla</w>
Si e
P in
An ti
kolman siin</w>
aja tellen</w>
OH J
D e</w>
toimi joille</w>
m 3</w>
1 14</w>
- Mistä</w>
lisäänty minen</w>
ista nne</w>
Vä hi
yk kö
yh mässä</w>
jatku vaa</w>
aloi tetta</w>
d ing
U E</w>
os y
ito sta</w>
kansallis ista</w>
valvonta viranomaisten</w>
to r</w>
pyst yt</w>
ohjelmist ot</w>
jä stä</w>
siemen et</w>
JO IT
ttä isi</w>
pito isuu
Mie hen
ratkaise va</w>
pro to
ajoneu vo</w>
In du
Ha kemu
ä kseni</w>
is y
Kaik ki
pää tettävä</w>
isi vu
Le a
ajattel et</w>
V en
muuttu vat</w>
ma us
yhtey den
ole vissa</w>
ihoi don</w>
ke le
g inen</w>
Mon teneg
Agen da</w>
st ia</w>
R uko
pär jää</w>
katso massa</w>
kumppan i</w>
he ihin</w>
ai ke
O ttaen</w>
M yr
tahto o</w>
kyse isestä</w>
rekiste riin</w>
laboratori o
dy nami
kerro s</w>
et sin</w>
AS IA
tosis sani</w>
sella isina</w>
ko d
Ada m</w>
pä tee</w>
kuulu mattomat</w>
odo ttamaan</w>
o miin</w>
kel e</w>
Ta ll
ve ss
kirjoi tettu</w>
C ity</w>
Kansa lliset</w>
tili en</w>
M r</w>
M ai
t ha</w>
Täy dellinen</w>
Ho tell
yllä pitää</w>
ro ssa</w>
kl in</w>
joh tuen</w>
Kymmen en</w>
ttä mällä</w>
kiito ksia</w>
o tin</w>
kunni a
esittä mät</w>
strategi assa</w>
mar k</w>
tta viksi</w>
ry t
ke kaa</w>
ity y
T ale
estä mään</w>
puuttu minen</w>
ik ää</w>
sisä iset</w>
Stan dar
Pu do
Luul tavasti</w>
va s</w>
4 50</w>
po mmi</w>
Täytäntöön pano
oso ituksia</w>
fen yyli</w>
25 .</w>
tto mien</w>
suur elta</w>
s an</w>
woo d</w>
van hu
saan eiden</w>
hi il
selv itä</w>
Onn istu
laj i</w>
Ja t
ta kuu
ki h
etsin tä
kuul i</w>
ulkopuol isia</w>
po t</w>
perustus lain</w>
kiel inen</w>
Tul ehan</w>
vyy destä</w>
ra hti
tu kahd
pysä yttä
hti vät</w>
Koo di</w>
2 :n</w>
kohd enne
anno ksesta</w>
Ma dri
4. 2004</w>
kur ssin</w>
Ni istä</w>
us o
pu tket</w>
määrä iset</w>
siirr etty</w>
mistoi menpi
Työ skentel
B ab
le mp
is ot</w>
valti oille</w>
tarjo ajan</w>
kau as</w>
turvallisuus -</w>
Kali for
sy ks
tteli mme</w>
riko s</w>
ki taan</w>
kehity sa
S EK
Mik ro
tta va
maito a</w>
J erry</w>
näke mään</w>
ke tä</w>
kats onut</w>
te issä</w>
sosa ssa</w>
sisä markkinoille</w>
riippumatto mien</w>
no issa</w>
k lin
ttu aan</w>
o w
Agen tti</w>
tunnus tetaan</w>
prose ssi
myöntä nyt</w>
isto sta</w>
Kansa llisten</w>
vel kojen</w>
ry pä
onnistu i</w>
vasta kka
C ol
t isesti</w>
oikeasu hte
kohd enn
tee sken
n g</w>
päivi tetty</w>
ime yty
an toon</w>
tekn isesti</w>
liitt o</w>
jala t</w>
P oiketen</w>
tai vaan</w>
mmä s</w>
syn teett
raha sta</w>
pa han</w>
oto kseen</w>
ko le
eläin perä
edellyty ksistä</w>
O ri
tunn u</w>
Ilme isesti</w>
as t</w>
Mietinn össä</w>
vahvista vat</w>
kamer a</w>
apu lais
Mieh et</w>
Le e</w>
aa ko</w>
valmis teita</w>
tasapaino a</w>
suol at</w>
löy dän</w>
hy vi
ole villa</w>
ruo an</w>
kkää t</w>
rajoi tettu</w>
joh tava</w>
aal to
Ku nnes</w>
N C
Ke vin</w>
tai teili
rahasto a</w>
johta jien</w>
a jel
unohta nut</w>
sek tor
je si</w>
Sella inen</w>
: llä</w>
sil mi
.e xe</w>
sopimus puolten</w>
sekoi ttaa</w>
pää te
mp pu
kar ton
tilaa t</w>
teh tyjä</w>
est ään</w>
Val tion
Pu hd
Am y</w>
po jen</w>
yhd elle</w>
met sien</w>
edell is
T yttä
ta antu
ro bo
ka nne</w>
la sin</w>
tut ki</w>
ka d
Eh kä
al ene
Lo s</w>
Kuu si</w>
san tti</w>
konser nin</w>
helpo mpi</w>
Willi am</w>
elä vien</w>
So velle
Ke ho
velvo ite</w>
ssuunnitel man</w>
Fre d
väärin käytö
Varo vasti</w>
tui jo
keske isten</w>
kehitys yhteistyö
hde taan</w>
vi tami
kärsi vä
n ko</w>
laa jaka
Liettu an</w>
H z</w>
periaatte ista</w>
ks istaan</w>
erity isten</w>
tur haan</w>
todistus voima
soveltamis ala</w>
Tu li
M alta</w>
Elä mä</w>
sovi ttelu
si en
miel i</w>
yliop iston</w>
korva ukset</w>
ääli ö</w>
vir ran</w>
a ito
pää sihteer
ka ttavan</w>
saa ttamisen</w>
laajentu minen</w>
huoma ttavan</w>
al ihan
Yor k</w>
voimaan tulosta</w>
C am
harvin aiset</w>
Bulg aria</w>
syrjin tää</w>
ket jua</w>
varsin a
ko p
a tion</w>
12 2</w>
tuoll aista</w>
Z e
tärkeä mpää</w>
mie tin</w>
versi on</w>
ken ttä</w>
4. 2.
vo iton</w>
E u
rauhall isesti</w>
ulko -</w>
or in</w>
kä nn
BKT :hen</w>
tuo tto</w>
lääkin nä
gor it
T ri</w>
1 19</w>
äänesty s
tau ti
Si vu
sovelle ttavista</w>
sa taa</w>
liik kuu</w>
vakuutus -</w>
turvallisuus politiikan</w>
tiety n
pää stään</w>
a te
esi llä</w>
MERK INN
nimel tään</w>
e versti</w>
henkilöstö ä</w>
maks avat</w>
B .
pal k
odo tamme</w>
koti paikka</w>
D y
televisi o
la issa</w>
ttä en</w>
lev y</w>
kkun i</w>
Ty tö
elä in</w>
fun kti
anti bioo
G ro
12 6</w>
yhdenmuka inen</w>
fa vir
yksittä isiä</w>
taso on</w>
sisälty vien</w>
ko u
ulko isen</w>
määrä llä</w>
ympäri llä</w>
kke itä</w>
Pyy dä</w>
tutki taan</w>
F :n</w>
val itus
takaa miseksi</w>
Ver ta
Anne taan</w>
viime iset</w>
sta voi
G la
Alu ee
pal ka
ol isikin</w>
Perusta mis
tunnusta mista</w>
yhd eksi</w>
voimassa olo</w>
ppe jä</w>
työ markkinoille</w>
mman kin</w>
ala kohtaa</w>
saata vuutta</w>
numer olla</w>
tek stit</w>
nouss ut</w>
jo en</w>
han ke
työnteki jän</w>
siirty minen</w>
edisty sa
ön tä</w>
ne isiin</w>
is an</w>
L IN
z an</w>
pääty ttyä</w>
ó n</w>
tan ssia</w>
sisäl tävä</w>
Sloven ian</w>
tek isin</w>
sala inen</w>
n oi
kon staapeli</w>
hallinto -</w>
1 17</w>
Väli meri</w>
Päi vä</w>
muu tt
van kil
poista maan</w>
e tin</w>
e ksy
äänesty ksessä</w>
C ap
hel iko
la it</w>
käytettä vän</w>
3 4
tälla iseen</w>
ta maan</w>
merkintö jä</w>
ino ita</w>
hä mmen
asiaan kuulu
miett inyt</w>
luoki tel
kin g</w>
yty stä</w>
Ehdo ttomasti</w>
Y K</w>
vapa aseen</w>
va koo
usea mpia</w>
mai don</w>
yksin ään</w>
do sti</w>
sänky yn</w>
säil ö
positiiv inen</w>
k issä</w>
g s
valla lle</w>
erity ista
MERKINN ÄT</w>
taa ksepäin</w>
integro itu
auto lla</w>
Mi tta
politi ikkoja</w>
U ru
Tul et</w>
Ni zz
ymmärtä nyt</w>
maksu kyvyttömyy
Sisä l
Kuu ntel
ll isuudesta</w>
plas man</w>
an ti</w>
Mer ki
2 2.</w>
mättö män</w>
le ikka
saapu i</w>
an g</w>
ab soluu
Huo m</w>
ystä vät</w>
rakenta misen</w>
elin kelpo
N I
prosen tti</w>
kaik keen</w>
1 18</w>
mul ti
her ää</w>
Et simme</w>
poikke us
ann u
J ar
20 1</w>
ää re
ky lä</w>
hu mala
W TO</w>
heliko p
as ettu
Kerr an</w>
ss uh
sin inen</w>
valti osta</w>
tuleva isuudesta</w>
mon ina
men oista</w>
aiheutu via</w>
te inen</w>
korkealaa tu
In vesto
leik kaa
ku mu
er ään
i dän</w>
vanhe mp
pu itteiden</w>
luo ton
valmista jien</w>
Ste p
eri llistä</w>
elintarvi kkeita</w>
valko isen</w>
sairau den</w>
mp ö
liitte issä</w>
ko nats
E I</w>
riittä vää</w>
utta malla</w>
turvall isesti</w>
tte itä</w>
taud in
osaa mis
ja uh
tule mme</w>
eri llinen</w>
ra v
osall istu</w>
puhel u</w>
myy nnillä</w>
m g:n</w>
omina isuuksien</w>
i ma
KOSKE VAT</w>
C A</w>
z e</w>
To si
Suu r
koulu a</w>
le yn</w>
op oli
fa k
aktii vista</w>
ty le
perus tetun</w>
laati mista</w>
käyte tyn</w>
S ho
hen ge
touko kuu</w>
Asia kirja</w>
T au
2 10</w>
pel asti</w>
muo kata</w>
min im
its ette</w>
Fran ce</w>
lisäy ksessä</w>
päi viä</w>
kaasu a</w>
as kel
Arvo stan</w>
pi in</w>
is aa</w>
toimenpi teillä</w>
mod uu
aika isen</w>
Ra chel</w>
V ene
s ut</w>
muu ttanut</w>
itse stäsi</w>
et sit</w>
ennu ste</w>
valvonta viranomainen</w>
oll isia</w>
sy ven
keino teko
ty neet</w>
itt ujen</w>
hen kensä</w>
mieh istä</w>
Y ö
toteutta mis
asiantunti jat</w>
ajo i</w>
Hertsego vin
suunnittel ua</w>
lämm ön</w>
kadu lla</w>
htu u</w>
huone ese
Ro oman</w>
Presiden tti</w>
uud an</w>
tta si</w>
na isiin</w>
Tutki muksen</w>
jäsen istä</w>
Nä yttä
pako lais
tiedo ston</w>
- He</w>
olo gian</w>
alkoh olia</w>
K in
ne uro
Joka isen</w>
tta matta</w>
mita ttuna</w>
Venä jällä</w>
sa in
op in
23 .</w>
ve en</w>
tuleva isuuteen</w>
ss ua</w>
jää tel
yl itä</w>
kalvopäällyste inen</w>
bi opoltto
ammu ttiin</w>
Puol u
pelaa ja</w>
me d</w>
muuttu i</w>
ilmaistu na</w>
la s</w>
valmis taa</w>
va isuudessa</w>
kein on</w>
Tap a</w>
ruoka vali
ajattel en</w>
suunnitel mat</w>
sääntel yä</w>
henkilö kunnan</w>
gan is
Vo isitteko</w>
Itä meren</w>
- O
ystävä llinen</w>
je ste
hil ä
Ra y
lla kseen</w>
lai llisesti</w>
ilmoi tettiin</w>
rakenta miseen</w>
ulko nä
tila lla</w>
vie hä
vide o
tte essa</w>
joukku e</w>
pyr stö
mainitu ista</w>
sää tö
suo ran</w>
uusiutu vien</w>
ti aa</w>
plas massa</w>
tä vien</w>
raken teita</w>
Ku kin</w>
A G
TE H
sisä vesi
lau laa</w>
lupa si</w>
favir ent
ainee sta</w>
Seuraava ksi</w>
työttömyy den</w>
Vai moni</w>
24 .</w>
M P
kumppanuu ssopimu
lisää vät</w>
liike vaihto</w>
haki joiden</w>
Mic he
lai tetta</w>
ro mu
osuu ksien</w>
mä inen</w>
ase malle</w>
er iin</w>
Me ta
talou ksien</w>
pu he</w>
is ino
9 00</w>
st ituu
mer kkien</w>
liiken teen
erityise dusta
vasta -</w>
to rin</w>
tall enn
f ri
uh r
merkin nö
maailmanlaaju isen</w>
Pol y
verkko ja</w>
yr itin</w>
vi ka</w>
vi ini</w>
Tapa sin</w>
puhel un</w>
myönne tyn</w>
l tään</w>
OS A</w>
stoi met</w>
toteu ttanut</w>
teh ta
huippu kokouksen</w>
an g
ty in</w>
ei lle
Luonn on
vira llisten</w>
si ed
pää tetään</w>
poeti ini</w>
perustu vien</w>
ihottu ma</w>
väl tetään</w>
in tumis
aa mi
Brita nnia</w>
arvio intila
A mpu
sa isin</w>
riippuva inen</w>
ihm että</w>
tär kke
korkea taso
13 9</w>
rahoi tta
laino ja</w>
hyvinvo intia</w>
kehitty nyt</w>
f uusi
Ra tka
rapor tit</w>
po t
Juo kse</w>
pe sä
p ed
tyytyvä isenä</w>
olog inen</w>
ih to
tti mien</w>
IA S</w>
ise t
is itkö</w>
78 30.</w>
tiety illä</w>
luottoluok itus
velvoll isuudet</w>
tu ur
tarkoituksen muka
moni lla</w>
joka iselle</w>
g n
etsi vä</w>
Tu h
Pöy tä
12 1</w>
Vir anoma
2, 4</w>
pyy dy
ne eni</w>
ainee lle</w>
Ni mi
- Entä</w>
28 .</w>
älä kä</w>
va r</w>
arvo isen</w>
äänesty s</w>
lasku a</w>
mall it</w>
Cla ire</w>
suosi ttaa</w>
johdan naiset</w>
asia lle</w>
toimi elin
puu villa
olii vi
Isra el</w>
oma isuutta</w>
kau h
ar issa</w>
puhdistu ma</w>
saa ttanut</w>
He mmetti</w>
po mmi
o ttivat</w>
E :n</w>
0 5
taiva s</w>
ilma ilun</w>
SO D</w>
u lle</w>
D on</w>
näy ttämään</w>
mur s
mu istettava</w>
ka rke
Si mon</w>
kan kaat</w>
ha jau
erää t</w>
huu meiden</w>
arvioi miseksi</w>
S I</w>
p öl
mi lli
anta va</w>
Sano taan</w>
suih ku
hermo stu
f ran
P ai
yksityiskohta isia</w>
sitoumu ksen</w>
järjesty stä</w>
allerg inen</w>
löytä neet</w>
vapa us
Jess us</w>
tahdo t</w>
R J
lue tellaan</w>
tetu issa</w>
saa tuja</w>
IS SA</w>
anta jan</w>
ista miseen</w>
kunnioi ttaa</w>
viime istä</w>
it sa
KOMI TE
B SOD</w>
valtuu tettu</w>
si mu
kyy tiin</w>
K AS
järjesty y</w>
lähett ilä
er ehd
laje ja</w>
Ne u
vanhe mpi</w>
työnteki jää</w>
työll istä
sovell ettu</w>
asiantunti ja
Käy nn
4 68</w>
pala an</w>
a u</w>
17 8</w>
öy stävä
raho jen</w>
luo tettava</w>
ista nut</w>
aiheutta man</w>
nu ku
horison taal
digi ta
Uni ver
G ö
pain aa</w>
kuukau dessa</w>
kun to
Ma tt</w>
p oike
luonnoll ista</w>
koke ita</w>
TA VAT</w>
Sa mmu
P r
istan issa</w>
joulu a</w>
tiedo tu
lä hde
arvonlisä vero
mb er</w>
jö iden</w>
an ssi</w>
ä llä</w>
margin aali</w>
m f
yksittä isen</w>
utta minen</w>
ssu hte
istu n
histo ria</w>
Mat kusta
J ere
sähkö isten</w>
mi di</w>
vaka van</w>
p että
Mar s
sääntel y</w>
va steen</w>
paika llaan</w>
en .
C .</w>
vasta isia</w>
valvonta -</w>
täy ttämään</w>
kuu ma
hyö dyt</w>
tul opäi
vel oi
menettely ihin</w>
Val tion</w>
Ky llä
käyttä minen</w>
ehdotu ksensa</w>
anta misen</w>
Chu ck</w>
ensimmä iseen</w>
H IV
syö pä</w>
merk itse</w>
ka ista
Euroopa sta</w>
voi dakseen</w>
maks usitoumu
Austr ali
mall ien</w>
ko lo
harjoitta vien</w>
sy tty
Po jat</w>
vä ki</w>
teke mä</w>
tilin päätö
satelli itti
polku myynti
ma nn
tar in</w>
ka sa
ttei taan</w>
l on</w>
istu nnon</w>
suostu mu
nny in</w>
itoi mi
Sano inhan</w>
uut inen</w>
laaju isen</w>
Mal tan</w>
En tä
A sh
viera ita</w>
rajoi tetaan</w>
E ar
parha iden</w>
kulje tusten</w>
komissi olta</w>
hava inno
Ei vätkö</w>
hallinnoll ista</w>
5 000</w>
tarjous kilpailun</w>
mahdollisuu ksista</w>
H IV</w>
tilan ne
Tutkimu ksessa</w>
Re d</w>
ruumi in
an namme</w>
taa mme</w>
jo o</w>
vo ita</w>
t olaito
is ra
J UL
täydenny sosassa</w>
Hi e
tunte maton</w>
lai van
kulu n</w>
väli llisesti</w>
materiaal it</w>
estä vät</w>
aja ttele
o men
kappal etta</w>
al koivat</w>
IL LE</w>
kansan terveyden</w>
o o</w>
enna llaan</w>
Sopimu s
9 9
alani mi
Si eltä</w>
kysy ttävää</w>
Har vin
organisaati ot</w>
E versti</w>
Phar ma</w>
tel mä</w>
kä de
Valko inen</w>
tuh la
teknologi oiden</w>
siirtymä kauden</w>
saa ttamisesta</w>
poikke usta</w>
opiske lu
lä inen</w>
F il
ttel ujen</w>
ni e
kar sin
ho mman</w>
lain ata</w>
Ar va
201 9</w>
ty kö</w>
lyö dä</w>
he ilu
fooru mi</w>
sohjel man</w>
pääss eet</w>
Sosi aal
j ol
aattor in</w>
val en
tavar ali
le ff
äi dille</w>
ty kö
teke vä
ol ot</w>
. com</w>
C max</w>
jo udun</w>
Laus u
De u
päätöksen sä</w>
mahdollisuu desta</w>
juh lia</w>
ymmärtä mään</w>
ro so
ide oita</w>
lev yt</w>
ikö hän</w>
ho mo</w>
pu no
jota kuta</w>
pää tellä</w>
ero jen</w>
e pide
oi reiden</w>
Te sta
kuu me</w>
Kon gon</w>
udu taan</w>
D is
mur haa</w>
al kuun</w>
US A:n</w>
A 5</w>
pal kkaa</w>
An dy</w>
17 96</w>
lan ka</w>
kul taa</w>
epä suotu
pain een</w>
mietintö ön</w>
kunn asta</w>
e staan</w>
Ro y
poi kien</w>
m mio
toi min</w>
käyttööno tosta</w>
luo kkaa</w>
IS TÄ</w>
syö nyt</w>
tunte vat</w>
matku staa</w>
Uru gua
suun taa</w>
pain eita</w>
lähett änyt</w>
vihanne s
Var mis
tuo tettu</w>
säily y</w>
vahvista nut</w>
sääntö ihin</w>
rahoi ttamiseen</w>
organisaati o</w>
vir tojen</w>
sähkö posti
käsi ksi</w>
jo llakin</w>
anno ksia</w>
ettu ihin</w>
Ky le</w>
A voi
toistu vasti</w>
han kal
ehd on</w>
vi il
tto maksi</w>
opu laati
An der
17 2</w>
puhu neet</w>
ainutlaatu inen</w>
Yr itysten</w>
vaadi ttava</w>
henkilö istä</w>
kansainväl iseen</w>
S ö
u po
pää osin</w>
yhdis tetty</w>
sala a</w>
ni u
na si</w>
al bu
Tie tääkö</w>
tekst iä</w>
rahoitus osuus</w>
julka isee</w>
c hel
F e
ehdo tus
o maa
li kaa
kommu ni
työnteki jä</w>
tuoll ainen</w>
sano maan</w>
lause kkeen</w>
eli miä</w>
B ir
nou sivat</w>
akti vo
M aal
Arthu r</w>
nä ette</w>
F ir
konsoli do
avoimuu s</w>
ste tään</w>
198 6</w>
henkilö ihin</w>
eli a
Ma tt
A ll
kuule misen</w>
toimi ttamista</w>
tapau sten</w>
Sa maan</w>
syy llinen</w>
kkin i</w>
Kr istus</w>
ku ole</w>
2. 4</w>
mi etti
Täy dell
tar kas
paiko ista</w>
Koke ile</w>
tarkoitetu lla</w>
pyrkimy ksiä</w>
mu ilta</w>
mainitt ua</w>
ko ot</w>
etu t</w>
varainhoito asetuksen</w>
oikeusasia miehen</w>
kon gre
Teoll isuuden</w>
lyhy ellä</w>
mon d</w>
komissi ossa</w>
elim istö
itu kseen</w>
harjoitta ja</w>
ma ja
san ne</w>
itur vall
kui vu
kalastu sta</w>
turvo tus</w>
aav istu
varasto inti
kansainväl isellä</w>
avu stus
mä si</w>
me hilä
mar in</w>
i e</w>
hankke eseen</w>
Poi kani</w>
Na me</w>
säännö issä</w>
kerro taan</w>
est e</w>
alku a</w>
vihre än</w>
vali ttiin</w>
neuvo tella</w>
ko ur
toivo mme</w>
myön teistä</w>
työttömyy s</w>
puuttu vat</w>
toi da</w>
eri miel
MU O
ly ö</w>
anta jien</w>
su va
m mia</w>
viest it</w>
W ol
vähentä mistä</w>
ope tu
mma s</w>
met for
kokemu ksen</w>
esittä neet</w>
Laa jen
rahoitus näky
it itte</w>
alen taa</w>
luo kseen</w>
käsittele vässä</w>
koo diin</w>
ky nä</w>
annett uun</w>
kan ssa
kysy ntä</w>
kaus ina</w>
kansainväl isessä</w>
CN S</w>
Tuo tan
MU UT</w>
Asi at</w>
tilasto t</w>
suo ria</w>
mieli ku
Het ki</w>
taso sta</w>
por no
osallistu mis
na ur
kysy y</w>
itu u</w>
hal va
avu sta</w>
ohjelmist on</w>
ko s</w>
ne ensä</w>
Alb ani
y dy</w>
tuotte eseen</w>
pun taa</w>
it sit</w>
Portug alissa</w>
m os
joka isessa</w>
ja iset</w>
neljä nnen</w>
laatu un</w>
Pidä mme</w>
Da ve</w>
tt ihan
kulje ttaa</w>
hoid ettu</w>
V O
- Emme</w>
y din</w>
surke a</w>
sisäll östä</w>
pan tu</w>
n s</w>
ku p
hankke ista</w>
auto t</w>
Luettel o</w>
van hurs
huo ra</w>
aloi ttain</w>
Use at</w>
työskentele vät</w>
ti lta</w>
kyken e</w>
eläkke elle</w>
puoli intumis
on kaan</w>
määritel tyjä</w>
ell ista</w>
di alyy
ak kre
toisen sa</w>
maailma sta</w>
kohd a
integ raa
he iltä</w>
torjun taan</w>
in aa</w>
re t
koh teen</w>
hal l</w>
lehd et</w>
b ec
strategi oita</w>
puhel u
mie llyttä
histori aa</w>
armei ja</w>
uut iset</w>
sa toja</w>
räjä hd
henkilö illä</w>
hankin ta</w>
N G
Bryssel in</w>
K UN
yle isty
normaal isti</w>
luo kat</w>
lin jan</w>
nimi ttää</w>
tt isesti</w>
vira llista</w>
ol antsapi
ministe rineuvo
lu vat</w>
j alainen</w>
edusta vien</w>
ympäristö lle</w>
tutkimu ksista</w>
teh on</w>
koh teita</w>
a ito</w>
Maa han</w>
tuli pal
ras kaaksi</w>
f eder
S OL
6 4
merkittä vin</w>
merkin tä
b s</w>
A pp
Tei mme</w>
teoll is-</w>
sö pö</w>
ruu h
kutsu ttu</w>
Myö he
- Joo</w>
lann oi
kiinn itys
Suo jel
tunte ita</w>
par ia</w>
jälje lle</w>
h ala
S inne</w>
IF RS</w>
velvoll isuuden</w>
va mpi</w>
rau taa</w>
m .
ee llä</w>
toi pu
tarkoitetu sta</w>
liitty nyt</w>
Tai w
Minä kö</w>
Cana di
kulu jen</w>
julka ista</w>
huole hdi</w>
Kanna tan</w>
sisä isiä</w>
A man
val innan</w>
v eivät</w>
pare mmat</w>
lau antaina</w>
koordino inti</w>
suunna ttu</w>
sin isen</w>
saata vat</w>
ryh mille</w>
kg m</w>
itt u
tutk inut</w>
Oli pa</w>
un an</w>
sattu i</w>
miljoon a</w>
kau sia</w>
ine ja</w>
is oi
aja tusta</w>
Jatka kaa</w>
ann oit</w>
ma lli
olosuhte ita</w>
hepati itti</w>
ä h
hedel mät</w>
pan kit</w>
tapau ksista</w>
in sin
edistä mistä</w>
ajoneuvo ja</w>
poikke u
johta isi</w>
laa din
Tur va
Ene mmän</w>
käännö s</w>
an -</w>
R ei
ystä vän</w>
kasva vat</w>
muu nne
tarvi kkeiden</w>
in iin</w>
Amer ikassa</w>
ff in</w>
tte ista</w>
aine en
N et
viime in</w>
te er
VA STA
pidä ttää</w>
pidä tetty</w>
kor ttia</w>
tutki joiden</w>
Pet e</w>
viera ilua</w>
rauta teiden</w>
k rei
tel mät</w>
tel kaa</w>
kuole vat</w>
h ih
ver osta</w>
velj ensä</w>
teura sta
ne ula</w>
kku us
J essi
na vi
mur u</w>
kau la
F en
mi ensa</w>
mukau tu
muka ansa</w>
lue tellut</w>
ku vassa</w>
koke et</w>
isi mmät</w>
demokraatt inen</w>
Haus kaa</w>
var maa</w>
te itte</w>
o ekono
vira stolle</w>
se teli
m ö</w>
va ik
O K</w>
Alu e</w>
- Sinä</w>
vit sa
liiken teessä</w>
julka isi</w>
henkilökohta ista</w>
tava lio
määri in</w>
Ka hdeks
ett omasti</w>
tois in
lisään tyy</w>
esi a</w>
U ud
valtuus kunnan</w>
tote an</w>
hinta inde
L .</w>
Jäsen valtion</w>
imm uuni
Osa puolet</w>
se ksi</w>
ke vää
itse mme</w>
sol mi
nope an</w>
luo miseen</w>
Pre ss</w>
toteu ttavat</w>
sijoitus palvelu
ihme essä</w>
hen kiin</w>
le mpi
Lu in</w>
Kat sel
sotila s</w>
rah alaito
lli e</w>
B N</w>
mitta kaa
li joiden</w>
epäi llä</w>
aikata ulu</w>
ERITY ISET</w>
re pu
1, 1</w>
pen ia</w>
is tettua</w>
pi ini</w>
op etti</w>
lämpö tilassa</w>
kokemu kset</w>
tap ettiin</w>
harjoitta jat</w>
assosiaati o
Kilpa ilu
tila isuu
järje sti</w>
Ol itko</w>
Määrä raha</w>
tieto isuutta</w>
sasi oiden</w>
Car ol
tärke impiä</w>
matto masti</w>
ennakko ratkaisu
Co un
velvoi tteen</w>
mm et
kansainväl isissä</w>
Miet intö</w>
I P</w>
tila sta</w>
sairau ksien</w>
hi us
vi ih
paiko issa</w>
koske mattomuu
jo ina</w>
JO S</w>
totuu tta</w>
ministe rit</w>
lope tettava</w>
kor tit</w>
in d
löy dy</w>
li enee</w>
avoi mia</w>
tuo vat</w>
Pol tto
Gu ine
tarjo ttava</w>
ma iset</w>
kohta us</w>
teke mät</w>
ken tällä</w>
bi osi
Vasta us</w>
Vasta a
ES TA</w>
tuu ri</w>
ku kkia</w>
ETTEL O</w>
peruste in</w>
ulottu vuuden</w>
loma kkeen</w>
tiedon anno
hygi eni
monimutka inen</w>
it ro
te tra
Jo tkin</w>
mitta a
kokoel ma</w>
kiire inen</w>
S ti
l on
UL KO
juhli in</w>
z ab
säili ö
kanta ja</w>
2, 2</w>
itä tte</w>
15 7</w>
moottori ajoneuvojen</w>
kaupun g
Kysy in</w>
pyy nnöt</w>
kuule minen</w>
infrastruktuu ri</w>
hylä ttiin</w>
di mme</w>
yle isestä</w>
sau ta</w>
pa inu
R ed
va ino
pe se
aikata ulun</w>
vie mä
nau ta
is tit</w>
usko maton</w>
val on
materiaal i</w>
jä tettävä</w>
itu ksessa</w>
asiakka ita</w>
tekn isistä</w>
c ker</w>
Co mm
- Mutta</w>
vau van</w>
utu ivat</w>
istä mme</w>
isra eli
ulkopuol elta</w>
luot u</w>
e tan
Tiedä tte</w>
to nnin</w>
suure ssa</w>
paljo a</w>
u ta</w>
tu pakka
itu tki
eri llään</w>
enn etty</w>
ta ani
vyy teen</w>
mekanis meja</w>
anno stus</w>
merkin nän</w>
kaupun gin
tie lle</w>
aiko i</w>
op positi
ui ma</w>
ty misen</w>
ter ve</w>
olenna ista</w>
maahanmuu tto
ell aan</w>
Kää nny</w>
siirro t</w>
op pi</w>
ke ro
26 .</w>
tyyppi en</w>
la kkaa</w>
insu liini</w>
yhteis sijoitus
Su u</w>
S ing
kutsu n</w>
yksinkerta ista</w>
luotta mus</w>
F le
En tinen</w>
varo vasti</w>
tehdy istä</w>
osi hte
muistu tti</w>
au toi
Mun u
vä ite
vähä istä</w>
käytä vän</w>
kuole masta</w>
hu olen</w>
luo ttor
Vo isiko</w>
B as
nyky isessä</w>
kestä vään</w>
K ra
K la
18 5</w>
vaihtoehto isten</w>
vaale issa</w>
ss ista</w>
pro pa
kamp pa
sosiaal iseen</w>
kalastus politiikan</w>
aja lla</w>
w in</w>
käsitel tiin</w>
b er</w>
F ri
te on</w>
ik enn
haki ja
O y</w>
A lue
taloudell isesta</w>
kuoll eita</w>
ki at
an neet</w>
S yl
tuon tiin</w>
säädä nnön</w>
rak kauden</w>
1 16</w>
taito ja</w>
kehitty y</w>
jäsen eksi</w>
valmista jat</w>
M Ä</w>
pa kkaa
ter oi
ratkais ut</w>
ih i
vil ja
vaihde ttava</w>
kiire e
isyy dessä</w>
tiede tä</w>
alu ksiin</w>
sp esi
pare mpaan</w>
Li ha
E AK
säädö kset</w>
- ohjelman</w>
huo menta</w>
Vä est
riippumatto man</w>
pide tä</w>
ky yli
se i
Kypro s</w>
raka sti</w>
suk laa
Har mi</w>
men etti</w>
is tettujen</w>
erä stä</w>
So vel
varmista minen</w>
mo ti
1. 5</w>
ääni ä</w>
so dassa</w>
s itko</w>
Man u
vie tiin</w>
t n
päätö ksiin</w>
MA R
puhel imen</w>
8 0
vuo det</w>
sano isi</w>
na isista</w>
aavistu stakaan</w>
Lai tan</w>
I B
kuninga tar</w>
TA n</w>
sy to
korke i
ratkais ujen</w>
Nau ti
pää ttämään</w>
ihmis ravinnoksi</w>
b al
Tilin tarkastustuomioistu
20 6</w>
perustel tu</w>
laajentu mis
la itu
kä tensä</w>
kehittä misestä</w>
ett ani</w>
po hti
jäsen enä</w>
taistel u</w>
itu ksesta</w>
väest ö</w>
kohta isia</w>
te kos
saata vien</w>
n us
lähen tymis
Ta ylo
Luo ta</w>
velvo llinen</w>
va kaus</w>
ma nne</w>
ku vern
esiinty i</w>
asiantunti jar
ansi o
S T
Ma y
Car l</w>
myy dään</w>
kerto ja</w>
osallistu nut</w>
kolle go
este tään</w>
Te d</w>
00 000</w>
johtu va</w>
j ali
isty s</w>
H ur
inte ja</w>
Au tan</w>
5 9
käsi var
Yksi ttä
hyl käsi</w>
luule vat</w>
Jas on</w>
määräraho ista</w>
lii tettä</w>
josta kin</w>
vaih tele
tel tiin</w>
sin ä
silmä si</w>
kulu ja</w>
kohd enta
Tun te
Ta voite</w>
yhteen liitty
Oso ite</w>
leviä misen</w>
kka ro
Ty ttö
MIS TO</w>
ar a</w>
Voi maan
liitto valtion</w>
laajuu s</w>
kerta inen</w>
ka mu</w>
: ään</w>
S V</w>
vall itsee</w>
lausu nno
indikaa ttor
ha itt
järje stettiin</w>
ammatti taito
poi kia</w>
on osoituksia</w>
il maan</w>
pa to
loppu i</w>
ssi ä</w>
ku olet</w>
ku ol
Afgan istanin</w>
oike ita</w>
näyttä isi</w>
kävel e
Yh tä</w>
ympärist öystävä
yhteis päätös
tehdy issä</w>
ista lo
Miel en
E A
varus teet</w>
valti olle</w>
täy tetään</w>
ai s</w>
Her ää</w>
2, 3</w>
kanna ttaisi</w>
t z</w>
Mu si
koulu sta</w>
Ko mis
tele viestintä
vo r
roh ka
koulutu ksessa</w>
utu misesta</w>
riko sten</w>
tabl etteja</w>
osa kkeiden</w>
Isra el
maataloustuo tteita</w>
vaikutu sten
er ittel
K ing
usko matonta</w>
valti oista</w>
miehe stä</w>
f ero
edellyttä mät</w>
Ko ulu
va mm
tt eilla</w>
rahali iton</w>
Ken raali</w>
mi inin</w>
Smit h</w>
Belgi assa</w>
tutkimu ksesta</w>
Nel jä
M S
tietee llistä</w>
ity kseen</w>
Op iske
m bi
Tuo mioistu
Pahoi ttelen</w>
liitty västä</w>
yrity ks
taloudell isista</w>
puu ta</w>
val innut</w>
isel itte
hi ilen</w>
te ste
sa moi
kala talous
ap uun</w>
matto masta</w>
luo kassa</w>
Ystävä ni</w>
13 1</w>
väliaika inen</w>
täyttä miseksi</w>
rakasta t</w>
kerto vat</w>
turva ta</w>
voimaan tulopäi
ulko maala
tuke miseen</w>
t isti</w>
puu n
lin g</w>
tt isi</w>
pit ivät</w>
nä stä</w>
Ä i
tehokka a
suuntavii voissa</w>
piste iden</w>
Kau nis</w>
tarpee llista</w>
monimuoto isuutta</w>
mel u
27 .</w>
vuosi kymmen
th ro
seuraa villa</w>
ol d</w>
verkkosivu illa</w>
luettel osta</w>
luetel tu</w>
vedo ta</w>
i mmät</w>
hy bri
Cent ral</w>
se os</w>
r ikkala
vaihdo sta</w>
Ta hdo
D R</w>
Var ti
ku ri
29 .</w>
osta maan</w>
kehy stä</w>
t ini</w>
määrittä minen</w>
la sia</w>
G M
12 8</w>
ta ho
edisty misestä</w>
bb s</w>
Phi l</w>
2 30</w>
viranoma isilla</w>
tuken sa</w>
maailmanlaaju inen</w>
aal in</w>
17 1</w>
1. 7.
lann in
Kor ja
siirr ettävä</w>
prose ssien</w>
B SE</w>
is on
asu i</w>
kar kuun</w>
esiinty mis
yh mät</w>
muka iseen</w>
kärsi i</w>
kirje en
it ul
N an
vien tiin</w>
tuo mit
ta minen</w>
Wär tsi
Tor sta
tan ko</w>
kolman sissa</w>
ni miä</w>
hallinto neuvoston</w>
huomio tta</w>
epä rö
Pu h</w>
vaiku ttavan</w>
tilan teita</w>
rau ha</w>
main itsi</w>
kor vi
väki valtaa</w>
kuor m
H oida</w>
ti vat</w>
osa valtion</w>
nouda ta</w>
lopu lla</w>
ista so
Te ch
Ehkä pä</w>
5. 3</w>
sija inti
voida anko</w>
ts an</w>
sää nnel
soveltu vat</w>
muo toinen</w>
Stu dent</w>
pyyntö ä</w>
il mene
etä isyy
ase tettuja</w>
yhtenäis markkinoiden</w>
tarkastu sta</w>
las kenut</w>
häpe ä
kasv usopimu
ci en
II N</w>
se ikkojen</w>
laa tti</w>
ka maa</w>
Kysy n</w>
kysymy ksessä</w>
ku oli
juh l
Emil y</w>
tasa vallassa</w>
koro t</w>
aa ll
ne istä</w>
markkina talous
kuulu isa</w>
si s</w>
puhelime en</w>
matkusta ja
is kin</w>
vapau teen</w>
luettel oa</w>
strategi aan</w>
johdon mukaisesti</w>
LU ETTELO</w>
se u
pu tosi</w>
Tarvitse tko</w>
yh täältä</w>
siir tyy</w>
tta mme</w>
kulu tusta</w>
kiinte än</w>
elämää ni</w>
säil yty
seura si</w>
luku ja</w>
lii tetty</w>
V aan</w>
O tatko</w>
kä stä</w>
US E</w>
Pi dät</w>
Ki inn
kuul ustel
Sain t</w>
Tun sin</w>
Ta sa
siirto verkon
pu nn
o tto</w>
kään tä
ka ma
mi ks
ihmis iin</w>
Clar k</w>
2 70</w>
keske istä</w>
4. 5</w>
kiel illä</w>
ker ran
Pohjo is
4, 5</w>
ryh missä</w>
is ul
verenpain e</w>
sijoitta jien</w>
ju missa</w>
hy vissä</w>
Energi a
yhte isesti</w>
täs menn
kaupa t</w>
Tälla isen</w>
ista kaa</w>
kir kon</w>
I P
1 13</w>
itte kö</w>
Seura a</w>
Li ettua</w>
re ssa</w>
pysy i</w>
oper aatto
tiiv istel
parlamen tti
yhteis kun
rik ki
pyr kin
nöyr yy
i ki
g ala
U TU
Odo tamme</w>
OEC D:n</w>
la taa</w>
si il
tarjo ukset</w>
ku mpa
järjestelmä llisesti</w>
kuljetta jan</w>
M oni</w>
Helve tin</w>
paran ee</w>
huono ja</w>
avo inta</w>
aiku isilla</w>
vastaano ttavan</w>
ku mpikin</w>
tu e
indikaatto reita</w>
sella isista</w>
kytken tä
kyllästy nyt</w>
kuul unut</w>
Ti i
typer ää</w>
so v
energi apoliti
Lou is</w>
sunnunta ina</w>
sekunn in</w>
pi zz
M ann
ka ri
Milla ista</w>
piste itä</w>
nor meja</w>
siirtä minen</w>
poliitt isista</w>
Hy p
C ES</w>
pa ppi</w>
leik kaus</w>
byro kra
aja lle</w>
yl an</w>
Moo ttori
IA AL
ssuu nta
ran kkaa</w>
työ paikkaa</w>
tiedosto t</w>
mmä stä</w>
auto no
Z i
py l
krea tini
- Eikö</w>
sosi oekono
sall i</w>
amin o
aine iston</w>
12 7</w>
IT TEL
yleis istä</w>
päivä ksi</w>
kohdistu via</w>
aa kaan</w>
viljelijö ille</w>
u teli
T K
Kä vi
yhteisö lle</w>
lada ta</w>
Ver kko
ku olen</w>
vara staa</w>
tte eksi</w>
ku tsu</w>
hyvinvo innin</w>
taka isino
pull on</w>
hen keni</w>
ehdo ttanut</w>
Tans kassa</w>
R AN
valtio varain
t kää</w>
lö i</w>
lä htivät</w>
häipy ä</w>
strategi oiden</w>
riittä viä</w>
kaup paneuvo
C B</w>
200 0
ttä neet</w>
Yr ity
s bur
in en
gli ta
sähkö isesti</w>
sivu ston</w>
määrä aika
jäsenvalti o
lähe tettiin</w>
halu ta</w>
To p</w>
H oo
ly n
D es
Ko ro
ohjel mo
jal ka</w>
E KSI</w>
vuotiai lle</w>
pär jä
Yhd en
S ori</w>
varo toimet</w>
palja sta
ile tko</w>
alkuperä nim
tämän hetk
tappi ot</w>
täy ttä</w>
mai l</w>
r s</w>
ly kkää
korva uksia</w>
keski pitkällä</w>
da y</w>
Julkis asiamies</w>
Is än</w>
ve ssä</w>
tappa vat</w>
so itin</w>
a je
arvioi maan</w>
tan dar
jär j
Ali ce</w>
1 107</w>
vertailu kelpo
kehi tetty</w>
hel ppo
til in</w>
stu ksesta</w>
E PA
sis koni</w>
nope aa</w>
po ista</w>
asianoma isia</w>
yhdenty misen</w>
ul in</w>
sil miin</w>
sano tte</w>
ks ikö</w>
Je stas</w>
oly mpi
merk itä</w>
kulutta jia</w>
kannus tetaan</w>
Ja tke
miel u
e u</w>
Vuo si</w>
ERITYISVAROIT US</w>
vesi viljely
tapahtu nutta</w>
ta tuo
kohta uksen</w>
Eli zab
C li
sop uso
pano s</w>
ke ille</w>
ka inen</w>
ensimmä isten</w>
ehtin yt</w>
kerr oit</w>
f t
T TÄ
toiminna lle</w>
o min</w>
- Minulla</w>
y ksen</w>
osu i</w>
her ku
ko menta
keske yty
ji ksi</w>
OL E
G S
selvi ttämään</w>
pitkä t</w>
hu n
Ma d
tel en</w>
ess äsi</w>
uus issa</w>
val itsi</w>
stoi mien</w>
pu ku</w>
i taan</w>
ar it</w>
Ra kas</w>
sal pa
edistysa ske
ain eille</w>
3. 4</w>
si a
riko ksen</w>
lii kunta
ktiiv inen</w>
klo or
ma ss
Vir he
päivä määrän</w>
huomautu ksensa</w>
dä ssä</w>
G en
sääti ön</w>
sop i</w>
19 75</w>
valmistel u</w>
työllisyy teen</w>
Te hd
suhtee llisuus
Luo vu
isi mmin</w>
Jul ka
D A
ylö späin</w>
vii des</w>
pää sit</w>
pis teeseen</w>
T el
Pysä hdy</w>
ta ssa</w>
Kansa llisen</w>
määräys vallassa</w>
tul on
sisä markkinat</w>
lainsäädä nnöstä</w>
kö hän</w>
menettely issä</w>
lap suu
ase taa
S pe
Mei dät</w>
Ch lo
sano ttiin</w>
ro olin</w>
ne esti</w>
is tettuja</w>
ravin to
enemm istön</w>
tarjoa misen</w>
määritel ty
lle s</w>
vähentä miseen</w>
kuoleman ranga
hakemu ksia</w>
oll y</w>
määrä nnyt</w>
menesty s</w>
terä s</w>
se ksi
ste ri
ss eihin</w>
kokou ksiin</w>
ar iin</w>
perj antaina</w>
maks anut</w>
korjaa miseksi</w>
annett uja</w>
lä isiä</w>
koko a</w>
ole tetaan</w>
isti vat</w>
H V
voima kkaa
17 0</w>
paikka ansa</w>
ai r</w>
- Ehkä</w>
vara sti</w>
suunni tella</w>
IS EN</w>
polku myynnillä</w>
peto sten</w>
mist i</w>
J ud
vaihto ehdot</w>
lausun toja</w>
it sivat</w>
Sää nnö
pyst yn</w>
pit oon</w>
S kot
kiinte ä
ik äär
VII ME
si iv
päätö kse
Var ain
Tul ee</w>
ss tandar
ol utta</w>
e pää
Tarko itin</w>
va ku
kyse isiin</w>
ve y</w>
val ka
ste roi
luo kkien</w>
kansalais järjestöjen</w>
peruste ena</w>
af rikkala
ehkäise miseksi</w>
Lu ku</w>
11. 2007</w>
ympäristö -</w>
ken ttä
h inn
H D</w>
Deu ts
sta kaa</w>
gl ys
saata vana</w>
Vuo desta</w>
Var maan</w>
näkemy ksiä</w>
määritel mää</w>
määr itys
in s</w>
12 ,
vaka us-</w>
lo r
a ksemme</w>
miljoon aan</w>
MY Ö
sisältä vän</w>
koo d
isä ä</w>
vuosineljänne s</w>
maa -</w>
hyödyntä minen</w>
asu kkaat</w>
asenn ettu</w>
Sy dä
E ni
ratka isuun</w>
a in</w>
kolme lla</w>
mita taan</w>
het kinen</w>
Sella ista</w>
In tro
me ett
iti iv
tapoi t</w>
Terve y
Lat vi
Ko k</w>
0, 4</w>
persoon all
kar bo
TAR PE
In ho
kolleg a</w>
lä hdetään</w>
kansainväl isiin</w>
ala puolella</w>
Lu ci
H Ä
kke isiin</w>
Tul eeko</w>
viera il
ope tuksen</w>
ettö män</w>
SEURAA VAT</w>
Barcel onan</w>
ti c</w>
osoitta utunut</w>
itt ia</w>
Vir o</w>
vir k
oi miseksi</w>
miehen ä</w>
La h
tuotta vuuden</w>
pohjo iseen</w>
S EL
toi ko</w>
kohdistu vien</w>
e kin</w>
vuos itu
näke myks
nime ssä</w>
Yhte istyö</w>
l ti</w>
ilta päivällä</w>
ta hall
su mman</w>
seka antu
Win 32</w>
vai mon</w>
usko t</w>
ttu i</w>
it ke
anne ta</w>
ppi en</w>
kotitalou ksien</w>
Mo i</w>
tarkastelu jaksolla</w>
Tu tkin</w>
A t
---- ----
aiheutta mat</w>
- Voi</w>
yleis hyödy
ta kuu</w>
pahoinvo inti</w>
kos kivat</w>
K usta
vie stejä</w>
tied ustelu
yy kö</w>
soveltamis alaa</w>
numer o
ne i
lan ga
jää neet</w>
ke stänyt</w>
Taju atko</w>
P lan
toi mit
ta mmi</w>
suunnitel massa</w>
Mer k
Kä r
C R
sala a
kulutta jan</w>
Yr itämme</w>
parann uksia</w>
ery tropoi
Eurosta tin</w>
neuvo nta
hi lle</w>
al enne
pa hoja</w>
in illa</w>
Ai he
vaka us
sovelta vat</w>
paino a</w>
oikeus valtion</w>
nouda tettu</w>
euro lla</w>
Ol koon</w>
y ne</w>
negatiiv inen</w>
jo udut</w>
ttel ut</w>
toivo ttavasti</w>
osihte eri</w>
le e</w>
johto kunnan</w>
Sloven ia</w>
kielte isiä</w>
kerro ttava</w>
otta misesta</w>
Varo kaa</w>
paika lta</w>
is iltä</w>
sp p</w>
oh ju
Car ter</w>
A I
ulottu ville</w>
mm istä</w>
Ai ku
ta via</w>
va nn
4 8
vää ren
tiety ille</w>
sella isesta</w>
bent so
uu ko</w>
maaper än</w>
ara bi
Kolman sien</w>
tarko itti</w>
saapu mis
D ur
suuri mmat</w>
kusta kin</w>
valta van</w>
päätö ksistä</w>
kumppan uus
juuri kaan</w>
fin al</w>
viime isten</w>
u lla</w>
kokou ksissa</w>
ista vat</w>
her ine</w>
korke at</w>
asiakka at</w>
naapuruu s
: a</w>
tuomioistu inten</w>
sopi vaa</w>
Euro polin</w>
ttä jä</w>
oikeu ssuo
muodo sta</w>
laito ksissa</w>
valeh tele</w>
tuo maan</w>
ko mea</w>
aja ttelee</w>
yksity istä
el oh
puu tteet</w>
palvelu kseen</w>
C y
no s</w>
jaka minen</w>
Tap an</w>
NA CE</w>
var mista</w>
peri ksi</w>
hirvi ö</w>
Ry an
kat soi
äi din
C PA</w>
vapa ana</w>
i ra
asenn ettuna</w>
oikeu tettu</w>
OL TAVA</w>
päivi ttää</w>
oma ksi</w>
velvoll isuuksia</w>
maa talous</w>
infrastruktuu rien</w>
Me ks
Kiinte ä</w>
amm u</w>
13 5</w>
valtuu tetun</w>
ta mis
To tuus</w>
selvi tettävä</w>
oll isen</w>
loma ke</w>
väl isiin</w>
p h</w>
eläi mille</w>
pyyd ettiin</w>
D re
varha is
koostu vat</w>
kieltäy tyä</w>
neljänne ksellä</w>
merk itään</w>
b el</w>
u ttava</w>
sähkö -</w>
perus teen</w>
tuonn ista</w>
kaver in</w>
vi ll
p istää</w>
kuiva -</w>
ett ette</w>
test ien</w>
meren kulku
eloh ope
su s</w>
ro ni
häir itä</w>
välin että</w>
suku puoli
ma illa</w>
lähte vät</w>
lle ssaan</w>
kelta inen</w>
katso ttiin</w>
U H
tö istä</w>
menetel mistä</w>
vero tusta</w>
suure mman</w>
mielenkiin toista</w>
vii ttaa
ne ja</w>
miljo onia</w>
kar bon
vien yt</w>
ominais piir
Vasta ano
jau he</w>
tapahtu isi</w>
laa jaa</w>
Luo kka</w>
Goog le</w>
allekirjoi ttaa</w>
vähene minen</w>
todistu sten</w>
maahanmuutta jien</w>
II ä</w>
ta kaan</w>
hallinno innista</w>
U UD
TAR G
Par asta</w>
- Jos</w>
op into
ku mm
ka ali</w>
pur kaa</w>
ölj yt</w>
vi ite</w>
Miehen i</w>
vau hd
uude ksi</w>
tul ette</w>
olenna isia</w>
ju ttu
heng itys
Mari e</w>
E mma</w>
op an</w>
ka mala</w>
joukko ja</w>
g issä</w>
ai kanaan</w>
matka ilun</w>
investointe ihin</w>
Voimaan tulo</w>
sala isuu
vii v
sisäll ettävä</w>
anta mien</w>
O i</w>
Jos é</w>
rahan pesu
kaiken laista</w>
Ver en
x ia</w>
[...]
