#version: 0.2
e r</w>
d e
i n
t i
e r
e n
e n</w>
o r
a n
s t
d e</w>
e t</w>
e l
s k
o g</w>
l i
a f</w>
r e
d er</w>
f or
a t</w>
o r</w>
a r
v i
o n
a l
e d</w>
b e
s i
o m</w>
de n</w>
de t</w>
l e
ti l</w>
f or</w>
n in
k k
o m
s e</w>
g e</w>
d i
n e</w>
h a
t t
u n
r o
ø r
m i
a g
kk e</w>
e g</w>
p å</w>
æ r
r i
m ed</w>
a n</w>
a m
i kke</w>
a t
e d
u d
o l
e s</w>
s om</w>
sk a
nin g</w>
g s
l e</w>
e m
g er</w>
l er</w>
r a
t er</w>
o v
en de</w>
de l
@ -
@- @</w>
s p
sk e</w>
v a
ha r</w>
an d
in g</w>
o p
ti l
e k
er ne</w>
r e</w>
l a
li g
g i
el se</w>
æ n
er e</w>
in d
en t
o t
r u
æ l
e t
de n
de r
el s
D et</w>
g en</w>
a ti
a f
e l</w>
J eg</w>
v ær
d u</w>
j eg</w>
p ro
å r</w>
tt e</w>
t e</w>
q u
o n</w>
k an</w>
f r
e de</w>
qu ot
quot ;</w>
& quot;</w>
el ler</w>
k on
v e</w>
r æ
e s
u r
s am
2 0
s si
u l
e g
or d
f ør
f a
k ti
d t</w>
h v
ska l</w>
h ol
fr a</w>
v en
g en
h e
t er
p o
st e</w>
li ge</w>
vi l</w>
l an
t al
g t</w>
u ro
t a
v ed</w>
f ø
s y
f i
m å
nin ger</w>
v i</w>
t r
e f
h en
uro p
s k</w>
s l
g r
le m
h ed</w>
be j
b i
c i
di g</w>
v er</w>
k om
m ed
ov er
on en</w>
m o
de s</w>
s er</w>
mi ssi
ar bej
ti k
s t</w>
va r</w>
t ag
k l
el i
st em
vi s</w>
i ske</w>
K om
f re
n o
s æ
ø r</w>
s å</w>
en s</w>
r k
del se</w>
Kom missi
m en</w>
b li
1 9
li g</w>
m e</w>
k t
g et</w>
20 0
tik el</w>
b ru
d r
va d</w>
vi l
g an
d u
. .
l y
b le
m en
p p
ati on
m an
f in
ska b
E urop
re s</w>
v e
s ø
n i
st at
æ g
D e</w>
m er</w>
s se</w>
v ar
n e
æl le
h and
er i
d s
mi g</w>
fre m
in gs
g ør
D en</w>
vær e</w>
un der</w>
r å
al e</w>
be t
v et</w>
er et</w>
u n</w>
ø j
un d
la g</w>
den ne</w>
vi rk
u d</w>
els er</w>
re t
i l
f f
s ti
ord ning</w>
med lem
l o
m in
he der</w>
k a
v al
m u
Kommissi onen</w>
V i</w>
.. .</w>
b a
in ger</w>
gs å</w>
ov er</w>
g o
u t
ar tikel</w>
o gså</w>
m ar
lig t</w>
fø l
un der
D u</w>
ef ter</w>
s s
v ed
n em
nin gs
t et</w>
in gen</w>
m a
al le</w>
o s</w>
on er</w>
v er
t u
re g
n y
s å
æ iske</w>
di g
nin gen</w>
y n
si g</w>
pro du
or t</w>
m el
l er
R å
a po
in g
k t</w>
for ordning</w>
l ø
tt er</w>
f t
hand l
y l
apo s
apos ;</w>
& apos;</w>
de tte</w>
E F</w>
medlem s
for b
t s</w>
h er</w>
p a
els en</w>
stem m
n u</w>
h j
n r</w>
ælle s
b er</w>
hol d</w>
v or
ha n</w>
E U</w>
s til
an ven
m å</w>
st ø
s en</w>
ble v</w>
k o
den de</w>
st e
H vad</w>
k en
l am
li ti
s om
d a
s el
h er
F or
h el
mi d
b y
s er
di re
g ti
P ar
s a
s ag
le m</w>
& #
&# 9
el le</w>
n es</w>
fa st
ud vi
b er
st r
gen nem
p ar
v æ
p å
g ra
p i
g ende</w>
ati on</w>
and re</w>
v n
p ri
be sk
20 1
al t
en e</w>
lam ent
l et</w>
t ro
m p
I n
ar e</w>
b r
de l</w>
a d
n a
eg et</w>
19 9
m ere</w>
h an
h vis</w>
al t</w>
mar k
p er
s e
de res</w>
s u
g erne</w>
for s
or t
hv or</w>
om rå
p r
o k
a l</w>
å r
o ff
k un
for sk
di sse</w>
de ts</w>
ti d</w>
må l</w>
Par lament
D er</w>
s en
st k</w>
t ra
ha v
l æg
in ter
medlems stat
l and
si k
po liti
n æ
o p</w>
h ed
n ø
g år</w>
a kti
de m</w>
v an
a r</w>
ha ve</w>
m an</w>
g æl
ø n
h vad</w>
st y
t ræ
sk er</w>
gi v
l u
mel lem</w>
n ation
d an
Europ a</w>
tt et</w>
F ælles
A r
k ter</w>
b ør</w>
Europ æiske</w>
k ra
l æ
no get</w>
an st
in den</w>
sl ut
an den</w>
æn dr
e j</w>
et s</w>
er ing</w>
st er</w>
m eget</w>
eli g</w>
gør e</w>
on ens</w>
sø g
gan g</w>
mi n</w>
kk er</w>
d re</w>
t e
man d</w>
0 0</w>
s at</w>
ti g
or i
ly s
di n</w>
anst alt
ti on</w>
arbej de</w>
mo d</w>
vil le</w>
p ræ
in e</w>
kon om
forb in
vil k
r et</w>
en t</w>
s o
kun ne</w>
en d</w>
sp ør
H an</w>
l ag
dire kti
re d
st a
D e
g a
ha m</w>
for anstalt
sk ri
tt else</w>
g ør</w>
st an
kk er
en s
k un</w>
n år</w>
s ek
O g</w>
ær k
lan d</w>
f al
af tal
f t</w>
M en</w>
el t</w>
v in
for m
t y
t o</w>
st er
d ri
f ar
j en
virk som
c h
els es
st ru
f ri
f ter</w>
le de</w>
r ør
H vis</w>
æn k
for t
en c
hv er
t ek
h ør
u m
er es</w>
un kt</w>
an s
æn g
s ning</w>
pro c
u den</w>
m ind
fors lag</w>
st ri
i s
d at
ta ge</w>
d ning</w>
udvi kl
he den</w>
m e
A n
on s
Kommissi onens</w>
be stemm
an si
E U
da g</w>
k ø
yn dig
f un
e urop
op lys
nø d
s ær
re gi
J a</w>
gennem før
F or</w>
tt es</w>
i l</w>
h øj
spør gs
U ni
Ar tikel</w>
m yndig
gr un
es t</w>
forbin delse</w>
d a</w>
n et</w>
be slut
å et</w>
ved rør
ska b</w>
g e
1 .
st en</w>
bli ve</w>
hav de</w>
Rå dets</w>
U d
m ærk
bli ver</w>
ø konom
E Ø
k ri
di ge</w>
gr æn
sy n</w>
g j
S t
d te</w>
H v
der ne</w>
foranstalt ninger</w>
ælle s</w>
l ing</w>
f å</w>
r .</w>
l ov
af gør
g er
le s</w>
ar t</w>
in de
E n</w>
f e
em ber</w>
per s
stø tte</w>
b o
å n
en ter</w>
ve j
i n</w>
d ste</w>
si kker
min i
in d</w>
off ent
m ø
nation ale</w>
nød ven
h vilk
de re</w>
f ul
d i</w>
n er</w>
vor es</w>
bru g</w>
i sk</w>
l ere</w>
b are</w>
tag et</w>
h u
b an
mo d
direkti v</w>
gr und
hj æl
t en</w>
A l
oplys ninger</w>
g le</w>
mi l
ble vet</w>
I N
å b
hv er</w>
N ej</w>
R e
Parlament et</w>
fin ansi
Rå det</w>
ul t
be g
bli k</w>
j er
t et
tag er</w>
ø v
3 ;</w>
&#9 3;</w>
ru pp
19 8
1 ;</w>
&#9 1;</w>
j er</w>
ord an</w>
t ning</w>
si g
k ræ
sti tu
E r</w>
f ælles</w>
d y
p e</w>
el e
for mand</w>
del s
ny e</w>
le des</w>
re s
sel v</w>
føl gende</w>
kon tro
æ ssi
før ste</w>
ek ti
c ent
be handl
s ent
h i
f ol
E R</w>
b el
vi gti
kom mer</w>
bet y
sy n
D en
1 0
mu lig
g å</w>
hen syn</w>
kom m
p unkt</w>
k r
var er</w>
er ede</w>
1 0</w>
S å</w>
ti d
sam t</w>
st ra
2 .
st ør
del sen</w>
gæl dende</w>
am m
hen hold</w>
skab et</w>
st or
s et</w>
hv or
lig ere</w>
b or
by g
re de</w>
Den ne</w>
ens stemm
kom p
m æssi
vedrør ende</w>
sam me</w>
f æl
om fa
be tal
a d</w>
besk y
l en</w>
di gt</w>
over ensstemm
go dt</w>
u s</w>
den s</w>
del ser</w>
EØ F</w>
eli g
si n</w>
d ag
a c
f ær
der for</w>
en d
or gan
sp e
go d
eli ge</w>
d o
p en
h æn
jen e
stan d</w>
ation er</w>
g es</w>
tra kt
st år</w>
s ni
tr y
men ne
arbej ds
vær et</w>
eri o
sk ul
h o
at er</w>
m et
overensstemm else</w>
hed s
lan de</w>
D E
k ur
forsk el
gi ver</w>
b ud
st ed</w>
v ent
a b
til fæl
gi ve</w>
ek sp
an det</w>
ær e</w>
europ æiske</w>
produ kter</w>
g rupp
t or
hel e</w>
a li
D i
tt en</w>
h un</w>
eli gt</w>
T a
d an</w>
d ø
no gen</w>
spørgs mål</w>
må de</w>
sl u
ud val
er s</w>
ek s
p u
h ov
f yl
t eg
ta l</w>
ef ter
man ge</w>
b ag
k la
r an
ti on
R E
h æ
ol o
dan n
fø r</w>
en k
tr ag
sam men</w>
sk yl
næ vn
arbej d
under søg
er er</w>
1 .</w>
c e</w>
ef f
v s
skul le</w>
si den</w>
k an
b e</w>
de lig</w>
sam men
hen vi
ba ge</w>
i g
De tte</w>
en er
er nes</w>
anven delse</w>
st å
tr an
I S
j ek
h y
f år</w>
st o
j e</w>
no gle</w>
kk en</w>
b lem
be trag
p lan
b lo
tal e</w>
f ly
so ci
så ledes</w>
bi l
in stitu
p la
E F
hol der</w>
grun d</w>
i mp
si ge</w>
afgør else</w>
k al
de ne</w>
els erne</w>
til bage</w>
k æ
områ de</w>
c e
føl ge</w>
bi lag</w>
U n
stor e</w>
d om
før t</w>
n ær
for et
f er
fi c
spe ci
p l
hen blik</w>
sik re</w>
al ler
P å</w>
ne m</w>
sl ag
S i
Parlament ets</w>
stru kt
medlemsstat erne</w>
bestemm elser</w>
st at</w>
r er</w>
u m</w>
K on
mu ligt</w>
f an
t red
p erio
nin gerne</w>
H r.</w>
mid ler</w>
sk i
sag de</w>
l in
at ur
forskel lige</w>
tilfæl de</w>
produ kti
gi vet</w>
sy stem
trakt at
ind u
pro gr
ka y</w>
skab er</w>
beslut ning</w>
politi k</w>
ar i
mil j
vi sse</w>
på gældende</w>
k or
anven des</w>
han s</w>
r in
pro blem
fin der</w>
a u
d ra
n ed
mark ed
2 0</w>
kk et</w>
sæ tte</w>
be dre</w>
ud dann
sp ro
L i
m on
H un</w>
er hver
va li
for handl
gen nem</w>
un i
tr or</w>
udvikl ing</w>
for hold</w>
de lige</w>
f lere</w>
H vor
I I</w>
f ælles
am p
st ræ
t jene
p lig
e ste</w>
g ere</w>
for di</w>
F O
h ende</w>
god ken
inter es
b en
d s</w>
sp il
k te</w>
så dan</w>
e m</w>
Hv or</w>
u r</w>
sæ r</w>
E n
proc ed
bet ænk
V i
t ol
no k</w>
gj ort</w>
j u
si s</w>
hel t</w>
f o
v el</w>
kom me</w>
for m</w>
l le</w>
res ult
gen er
t re</w>
økonom iske</w>
hol de</w>
Fælles skabet</w>
M i
men er</w>
præ sent
før e</w>
m or
si de</w>
v ur
te ter</w>
er ings
h ån
E R
m at
ent e</w>
1 2</w>
tek n
K om</w>
mind re</w>
gra m</w>
kur r
D E</w>
pro jek
op re
behandl ing</w>
st off
in i
v t</w>
h os</w>
ti ske</w>
si tu
ø j</w>
T I
t o
bet ing
bru gs
fø res</w>
b l
on s</w>
ti oner</w>
t og</w>
b et</w>
vi dt</w>
tag else</w>
5 0</w>
fin de</w>
b in
de c
mark e
3 .
b u
op fyl
ra pp
v ende</w>
re j
sæ ttes</w>
dels es
st and
a k
M ed</w>
fi k
ag er</w>
vær di
an går</w>
skab s
n u
aller ede</w>
grund lag</w>
r ing</w>
k vin
r ø
S p
h r</w>
lov giv
områ der</w>
n ed</w>
y der
b ri
sta dig</w>
sam arbejde</w>
virksom heder</w>
si ger</w>
mid ler
st æn
eff ekti
de le</w>
li dt</w>
kon kurr
fi sk
her under</w>
ste m</w>
i gen</w>
vær ende</w>
E N
beg yn
til la
Hvor for</w>
de de</w>
myndig heder</w>
be græn
1 2
a s</w>
st ol
milj ø
mi li
g ar
si on</w>
kontro l
am mer</w>
æn d
lig e
r y
m m
dec ember</w>
R O
o b
v æg
end nu</w>
k vali
d og</w>
organ is
E N</w>
V ed</w>
medlemsstat er</w>
T i
akti vi
fal d</w>
n or
D er
er en</w>
ele van
for plig
B e
sa tte</w>
st or</w>
medlems stat</w>
tran sp
vi st</w>
r elevan
sni t</w>
k om</w>
ko st
k s</w>
ag t</w>
1 8
di t</w>
s at
P ro
n y</w>
g å
før er</w>
E C
L ad</w>
k ol
1 1</w>
s es</w>
mi t</w>
in form
lu ft
arbej det</w>
si dste</w>
stil ling</w>
1 5</w>
o f
b ør
henvi sning</w>
d ok
bet s</w>
a p
ka pi
h al
h ur
strukt ur
EF T</w>
in ve
G o
v n</w>
eg ne</w>
øn sker</w>
l å
s eret</w>
gæl der</w>
lag t</w>
l æng
3 0</w>
hv ordan</w>
sær lig</w>
for el
offent lig
t ru
v and
s al
A N
b re
sp ek
fi k</w>
be stem
tt ede</w>
tt e
H ar</w>
19 7
3 0
N år</w>
dig hed</w>
ska bets</w>
dri g</w>
or de</w>
ud tal
d æ
olo gi
ti den</w>
ør er</w>
S om</w>
æ f
A R</w>
g i</w>
1 5
al y
kl u
t erne</w>
stoff er</w>
hvilk et</w>
p er</w>
tr a</w>
re præsent
må l
pr in
1 7
v ol
s var
æ r</w>
j e
ræ kke</w>
1 4
menne sk
fer enc
tag es</w>
b ar
nævn te</w>
vi dere</w>
k e
EU T</w>
pers on
S T
eks .</w>
la de</w>
man g
i t
sy stem</w>
200 6</w>
1 6
n atur
k at
fi l
s an
konkurr enc
pr ø
Hv ordan</w>
komp et
t es</w>
he derne</w>
h ar
A f
ud gi
al drig</w>
b å
m est</w>
tig heder</w>
nødven digt</w>
T y
gj orde</w>
med del
f y
ber et
hjæl p</w>
k ar
0 00</w>
vi ser</w>
dire kte</w>
an mo
S am
ati onen</w>
fun kti
pro gram</w>
ø b</w>
ret nings
nin g
L S
k i
for es
200 4</w>
I kke</w>
v el
pa ss
d re
indu stri
bi li
mæssi ge</w>
ce p
k er</w>
v ne</w>
f .
M ed
sty rk
g u
li tra</w>
K O
erhver vs
aftal e</w>
j un
ti gt</w>
M ar
ud try
vur der
t ri
po si
fast sat</w>
reg ler</w>
aftal en</w>
na vn
M a
gan gs
al tid</w>
O kay</w>
besk æf
n ov
land brugs
problem er</w>
k re
an d</w>
v else</w>
ing erne</w>
sp i
a u</w>
k y
ind re</w>
mat eri
lig hed</w>
ni ve
min e</w>
enk el
ad mini
go d</w>
s or
o li
ation s
stør re</w>
el ek
ri gti
n et
le ver
op er
g t
må ne
træ ff
j o</w>
områ det</w>
p ati
vi de</w>
sæ ttelse</w>
foret ag
prin ci
marked s
for be
men ter</w>
fe j
hj em
for sø
kæ mp
forplig t
pl an</w>
L u
.. ..
skyl d</w>
f. eks.</w>
proced ur
hov ed
læ g</w>
må ske</w>
mulig hed</w>
1 3</w>
mark ed</w>
re ss
ter i
kontro l</w>
hver t</w>
regi on
finansi elle</w>
stat s
traktat en</w>
af hæn
200 7</w>
s ine</w>
Ud val
op n
la d</w>
1 4</w>
ti onen</w>
dan ne</w>
må let</w>
met o
i sær</w>
v æl
j ul
ti dig</w>
an ti
s ol
c er
i en</w>
p ra
fa kti
200 5</w>
T il
sp r
t æ
F r
f jer
jun i</w>
sp il</w>
Fælles skabets</w>
t i</w>
E t</w>
4 .
yder ligere</w>
U S
A R
li v</w>
af snit</w>
æn d</w>
da ge</w>
b al
o ur
stil l
al er</w>
200 3</w>
an u
tid sp
for val
sæ tter</w>
or d</w>
besky ttelse</w>
dat a</w>
l erne</w>
De m</w>
politi ske</w>
t ing</w>
cent r
v å
fre m</w>
g else</w>
N u</w>
a pp
str at
K an</w>
mi s
E D
t an
k e</w>
k er
ændr ing</w>
f on
bi dra
bå de</w>
s el</w>
si d
g te</w>
sel v
H ej</w>
be mærk
sikker hed</w>
hol dt</w>
øj e
v en</w>
d ine</w>
1 3
D eres</w>
Ta k</w>
s c
k ning</w>
t ænk
for en
h en</w>
in f
va re
r am
B ru
om kost
mind st</w>
offent lige</w>
m æng
1 8</w>
1 6</w>
2 5</w>
vi d
tag en</w>
kra v</w>
far t
L L
ser ing</w>
n ede</w>
fol k</w>
an søg
ta li
in de</w>
sk il
frem me</w>
o ci
f .</w>
tid ligere</w>
stand ar
Uni on</w>
fin des</w>
d om</w>
and t</w>
in er</w>
st å</w>
o liti
v es</w>
E S
nødven dige</w>
N e
gi k</w>
produ c
k en</w>
lan dene</w>
inde holder</w>
ans var
i r
men t</w>
udval get</w>
kra ft</w>
for ord
ri ge</w>
pers oner</w>
tred j
al min
til stræ
ændr inger</w>
før st</w>
F ran
måne der</w>
sæ t
v ok
g et
t en
anu ar</w>
ændr ings
for dr
soci ale</w>
N IN
ti sk</w>
sa g</w>
vigti gt</w>
lig vis</w>
ste det</w>
sær lige</w>
g hed</w>
ener gi
progr amm
perio de</w>
br y
si t</w>
fa mili
or er</w>
gan ge</w>
a ge</w>
in stru
bel øb</w>
for ud
øj er</w>
in di
200 9</w>
b ur
S el
els e
j anuar</w>
Di sse</w>
fi l</w>
navn lig</w>
sam lede</w>
tet en</w>
imp ort
gen s</w>
R o
L e
af gi
jul i</w>
virksom hed</w>
sek tor
t or</w>
vær k
c a</w>
midler tid</w>
op ga
ver den</w>
fort sat</w>
inve ster
lig ger</w>
hjæl pe</w>
ret tigheder</w>
uddann else</w>
s und
200 0</w>
M å
beting elser</w>
de mo
for mål</w>
O N
u re</w>
l æn
200 8</w>
de fin
le j
man den</w>
æ isk</w>
or ter
dr ø
fa r</w>
ful d
til bag
sæ tning</w>
væ sent
st u
c k</w>
b land
for bru
vi de
betænk ning</w>
D an
s m
E fter</w>
Uni ons</w>
mø de</w>
ve j</w>
admini stra
tilstræ kk
ber eg
s erne</w>
g ø
in teg
hån d
beskæf tig
u s
N o
marke det</w>
me di
inter nationale</w>
grupp e</w>
sk y
fun det</w>
aktivi teter</w>
K A
d ræ
H ol
2 9
O p
ini ti
ho v</w>
skri dt</w>
situ ation</w>
D a</w>
f le
menne sker</w>
Der for</w>
ud sty
o kt
væ k</w>
sk on
t h
reg n
na vn</w>
ac cep
200 2</w>
regi str
S e</w>
In d
stil let</w>
Al le</w>
le der</w>
dr ag
relevan te</w>
kla r</w>
økonom isk</w>
ad gang</w>
ve m</w>
virk elig</w>
V il</w>
tredj el
be hov</w>
mi o</w>
ti s</w>
i s</w>
kl art</w>
bør n</w>
blo t</w>
k si
EU R</w>
de ligt</w>
ble m</w>
s ser</w>
vær di</w>
an aly
be l</w>
H vem</w>
M o
arbej der</w>
B i
sag er</w>
k li
gra d</w>
i midlertid</w>
pp er</w>
t s
p un
k ro
h å
li lle</w>
p e
g ning</w>
dag en</w>
pu bli
stå ende</w>
medlem mer</w>
afhæn gi
6 .
lovgiv ning</w>
en i
ind til</w>
omfa tter</w>
1 00</w>
bru ge</w>
201 3</w>
v ede</w>
1 7</w>
kl ar
t em
del ing</w>
mar ts</w>
kr ing</w>
en hver</w>
kti oner</w>
o ber</w>
200 1</w>
fø j
0 0
pro blem</w>
fakti sk</w>
udtal else</w>
for e
pen ge</w>
D om
kø ret
D L
2 8
virk ning</w>
m or</w>
si gt</w>
er ken
u den
kvin der</w>
ti ve</w>
er et
op rin
tol d
sæ tt
ind før
okt ober</w>
S y
an ske</w>
amp ;</w>
& amp;</w>
g ået</w>
o g
199 9</w>
t el
ser ede</w>
initi ati
sk et</w>
er kl
handl et</w>
forhandl inger</w>
st ag
er ende</w>
tal er</w>
sty r
læg ge</w>
in a</w>
S å
j f.</w>
s stat
kol le
i mod</w>
hol ds
é n</w>
s n
læng ere</w>
M in</w>
giv es</w>
t ere</w>
a ut
er ingen</w>
ek si
vi se</w>
sk u
dy r</w>
ær er</w>
kk e
vent u
H er
så danne</w>
4 0</w>
v at
2 5
j a</w>
hand lede</w>
or den</w>
y delser</w>
g eri
w e
p t
pr øv
Un d
udgi fter</w>
hvilk en</w>
mid del
s vær
o w
G E
var e</w>
S I
hvilk e</w>
li c
ved taget</w>
lig n
val u
i det</w>
europ æisk</w>
an t</w>
be dste</w>
J o
S k
fol k
A T
bestem t</w>
s ninger</w>
h ø
ri si
t ede</w>
gø res</w>
2 7
kompet ente</w>
nem lig</w>
sp oliti
om handlet</w>
c er</w>
nation al</w>
ma j</w>
gennemfør elses
ati ve</w>
ti ge</w>
n um
F a
2 4</w>
fælles skabs
2 1</w>
hør er</w>
gen e</w>
F in
Med lem
fr i</w>
st re
bety der</w>
st ar
pati enter</w>
F ø
ændr et</w>
tekn iske</w>
betrag tning</w>
M an</w>
r el
em p
si ske</w>
ind sat
s j
sk ud</w>
f u
L A
om kring</w>
bestemm elserne</w>
ændrings forslag</w>
der s</w>
B ul
nive au</w>
1 9</w>
al vor
en este</w>
lag et</w>
m g</w>
a .</w>
v ek
aftal er</w>
an de</w>
del en</w>
ent en</w>
kti on</w>
for slag
k ort</w>
k a</w>
m ænd</w>
1 2.
lan g</w>
s mu
over vå
lo k
ind hold</w>
mel lem
ret s
dok u
en g
su pp
progr ammer</w>
stil le</w>
skab e</w>
pp et</w>
G i
ga v</w>
nov ember</w>
9 0</w>
g elig</w>
E l
sti ske</w>
h in
par t
den ti
s v
um ent
at et</w>
van sk
9 2</w>
H er</w>
H a
k ny
an g
ti g</w>
K E</w>
ba seret</w>
par ter</w>
f ået</w>
mulig heder</w>
projek ter</w>
sy nes</w>
t in
bety dning</w>
u del
r un
m ot
gå ende</w>
e ventu
fa kt
hol dning</w>
201 1</w>
s må</w>
s ende</w>
on i
fort æl
læn ge</w>
ov en
for mer</w>
v egne</w>
kri g</w>
han del</w>
a kt
la ver</w>
t el</w>
T A
6 0</w>
m ens</w>
Fælles skab</w>
L I
gennemfør elsen</w>
lan det</w>
ord in
pri l</w>
medlemsstat ernes</w>
undersøg else</w>
c y
al l
komm ende</w>
lø bet</w>
O m</w>
mil li
v ere</w>
fores l
st ati
FO R</w>
udvikl ings
eksp ort
ø m
hand ler</w>
F i
et ab
g ent
lø sning</w>
gennemfør else</w>
fø de
si kker</w>
re du
lan gt</w>
før te</w>
ti ds
ro lle</w>
svar ende</w>
ri sik
An dre</w>
e j
for sik
201 0</w>
M M
fa st</w>
T il</w>
nor m
væ k
hj em</w>
ud ny
pt ember</w>
be kæmp
myndig hed</w>
In gen</w>
udvi k
t æg
føl ger</w>
kon klu
sag t</w>
Und skyld</w>
ø d</w>
f andt</w>
2 3
udval g</w>
un ge</w>
nu værende</w>
vi den
k sis</w>
fej l</w>
O G</w>
sto f</w>
sk re
g em
un d</w>
tidsp unkt</w>
hv em</w>
EU RO
for vent
F re
Må ske</w>
a pril</w>
pp e</w>
tet s
kon ven
ud gør</w>
f at
5 .
ma sk
sy g
udel u
fast sættes</w>
a s
virk ninger</w>
ig hed</w>
år et</w>
r ings
rapp ort</w>
fi ci
elig hed</w>
s and
system er</w>
o l</w>
8 0</w>
sti sk</w>
op mærk
pa pi
st ede</w>
mæssi gt</w>
201 2</w>
over vej
se ptember</w>
a re
k ul
Dom stol
2 2</w>
om fan
gør else</w>
c k
und tagen</w>
træ der</w>
transp ort
ken der</w>
kon tra
ka l</w>
forbe dr
el les</w>
bru ar</w>
t ok
c om
be slu
bur de</w>
201 4</w>
ed t</w>
høj ere</w>
st ori
præ ci
Medlem sstat
o d
n er
un det</w>
pr .</w>
f ru
enk elt</w>
vi a</w>
sag en</w>
For en
bidra g</w>
ti ons
en hed</w>
ra tion</w>
fe bruar</w>
næ ste</w>
kon ta
re tten</w>
B AR</w>
g am
omfa ttet</w>
udsty r</w>
læg e
G en
o kay</w>
Ty sk
EURO P
læg ges</w>
ret ning</w>
hå ber</w>
i denti
fi re</w>
van d</w>
I II</w>
S a
r inger</w>
stø tte
tjene ste
B E
m al
fisk eri
ær ing</w>
an erken
var i
Ø konom
2 4
ben y
2 3</w>
med lem</w>
st erne</w>
mor gen</w>
opre ttelse</w>
x i
c c
ste der</w>
omkost ninger</w>
be kræ
m and
lign ende</w>
g æng
a st
sl ø
f te</w>
olo gi</w>
forsk ning</w>
A V
h øj</w>
nø dt</w>
ster ende</w>
an tal</w>
7 .
Udval get</w>
væ gt</w>
besky tt
ord ninger</w>
di stri
han dels
programm et</w>
s lag</w>
sk ol
kri teri
eg n
kor re
u t</w>
B o
di o
hvor for</w>
pri ser</w>
D es
ele des</w>
system et</w>
le dning</w>
øje bli
bud get
Bru x
eks emp
do b
ff et</w>
ful dt</w>
fic eret</w>
hur tigt</w>
sø ge</w>
b ud</w>
O r
læg ger</w>
Foren ede</w>
forpligt elser</w>
meddel else</w>
Re gi
T E
in ge</w>
kl are</w>
al ene</w>
om handlede</w>
b ø
A t</w>
A F</w>
vi kl
be fal
beg ge</w>
hen des</w>
læg gende</w>
Brux elles</w>
Kon geri
proc es
in tet</w>
sam tidig</w>
dig heder</w>
Uni onen</w>
be væg
nævn t</w>
sen ere</w>
hi stori
re vi
pa r</w>
o gra
R i
stør r
si on
g ste</w>
kræ ver</w>
udvikl ingen</w>
ans et</w>
k ør
er i</w>
i værk
by r
ta b
perio den</w>
grupp er</w>
hj er
c he
rå det</w>
hol det</w>
G ud</w>
k u
s na
enkel te</w>
NIN G</w>
tred je</w>
In ter
D a
ti v</w>
b art</w>
ky m
produkti on</w>
Hol d</w>
la der</w>
fe m</w>
result ater</w>
hør e</w>
st et</w>
li de</w>
ter et</w>
be kym
anven delsen</w>
US A</w>
bland t</w>
indsat s</w>
si ons
sikker heds
værdi er</w>
2 6
styrk e</w>
ans var</w>
tt ende</w>
uni k
sk o
st ort</w>
ha ft</w>
t ninger</w>
be vil
spro c
ty pe</w>
fr u</w>
si gti
institu tion
EC U</w>
ci tet</w>
ta k</w>
LS E</w>
tal let</w>
ful d</w>
op fa
en ti
til træ
arbejd stag
er e
EØ S</w>
pers on</w>
l ed</w>
s la
k il
Tysk land</w>
om stæn
t vi
tredjel ande</w>
IS KE</w>
dok ument
besk ri
en delig</w>
for del</w>
ne j</w>
r en
kre di
y gti
b y</w>
c h</w>
2 .</w>
ek t</w>
O ver
undersøg elser</w>
demo kra
gan gen</w>
H an
lig eledes</w>
sen est</w>
bili tet</w>
ult ur
vek sl
lige som</w>
si oner</w>
B a
go de</w>
1 ,
. a.</w>
her af</w>
ft s
pri ori
lok ale</w>
lo v</w>
ru m</w>
mar k</w>
p ol
B el
åb en</w>
le d
f ler
produ kt
af slu
institu tioner</w>
v eret</w>
vurder ing</w>
føl gelig</w>
9 5</w>
B ar
grund læggende</w>
re tte</w>
ord ningen</w>
virk er</w>
til pa
vedrør er</w>
T h
t lige</w>
kra f
7 5</w>
am eri
for retnings
ken dt</w>
Å h</w>
pri s</w>
T r
dat a
ri m
st op
for eg
l inger</w>
politi sk</w>
tal te</w>
reg ering</w>
dat o</w>
9 6</w>
hav n</w>
n øj
m ul
pra ksis</w>
at erne</w>
tu r</w>
hol des</w>
Medlemsstat erne</w>
fa bri
S oci
m ag
M an
e gi
ress our
vi s
vigti gste</w>
de les</w>
. .</w>
nin gens</w>
ati sk</w>
2 8</w>
traktat ens</w>
tek ni
proc ent</w>
an vende</w>
s ul
e gen</w>
Go dt</w>
for elig
til gæng
vi n</w>
T ra
kom bin
el em
næ sten</w>
Ti dende</w>
hol d
sk ede</w>
I tali
A F
dre jer</w>
9 3</w>
kat eg
kon stat
s li
sam fun
S u
ju ri
I r
bi stand</w>
kk ende</w>
de ri
st re</w>
s me</w>
su b
c o
pass ende</w>
h eller</w>
af ten</w>
stør ste</w>
l ende</w>
G ener
bor gere</w>
A f</w>
tr o</w>
h år
ber ør
m er
B are</w>
ft w
omfan g</w>
å s</w>
inform ation</w>
0 ,
m m</w>
spørgs målet</w>
kk es</w>
betænk ningen</w>
bal an
g lo
g læ
t om
p ot
ør en</w>
bl .a.</w>
s on</w>
el sker</w>
interes se</w>
A L
B et
de le
an i
p or
tr å
et e</w>
retnings lin
9 1</w>
j o
fuld stæn
lø se</w>
n en</w>
ska ff
hin anden</w>
ma ksi
s var</w>
an ter</w>
of te</w>
men ing</w>
transp ort</w>
der en</w>
val g</w>
foretag es</w>
o f</w>
2 7</w>
8 5</w>
l y</w>
N a
ri gs
R a
n å</w>
sikker t</w>
j erne</w>
h ind
r amm
FO R
2 6</w>
ti dige</w>
sk om
ek om
tal t</w>
in e
o s
S kal</w>
m ent
mennesk eret
æn dre</w>
3 1</w>
af stem
an befal
d am
F ol
d ro
reg ul
vi d</w>
S KA
f ag
dø d</w>
cer ti
ti mer</w>
pri vat
.... ....
reg er
br inge</w>
ænd res</w>
Ta g</w>
konkurrenc e
g ter</w>
betrag tninger</w>
3 2</w>
er far
forslag et</w>
F Ø
tro ede</w>
proced ure</w>
J u
for sy
re ferenc
oprin delse</w>
opn å</w>
gr øn
for bedre</w>
d år
a ss
hør ende</w>
be hand
N i
organis ationer</w>
ologi ske</w>
en heder</w>
sk ær
Fran krig</w>
rå dighed</w>
u de</w>
eg en
l a</w>
jer n
b ol
k ultur
be folk
form and
Fr u</w>
9 8</w>
3 1.</w>
H AR</w>
an ført</w>
an sk</w>
vigti ge</w>
on e</w>
di get</w>
tilbag e
ter er</w>
tag elsen</w>
hol delse</w>
fr y
f ikke</w>
lå n</w>
sen este</w>
201 5</w>
b ort
Bul l</w>
ler s</w>
opfyl der</w>
Fælles skab
syn s
giv else</w>
kl æ
bo ur
enkel t
pla ds</w>
r en</w>
udtry k</w>
enc e</w>
den en</w>
s ør
forel æg
si den
be hø
ny t</w>
stat us</w>
C O
almin delige</w>
be føj
til fre
2 9</w>
Økonom iske</w>
ær t</w>
ind tæg
sikker hed
bi l</w>
k g</w>
procedur en</w>
rå d
7 0</w>
græn se
sammen hæn
1 1.
g ede</w>
bru ger</w>
L a
I s
ar d</w>
199 2</w>
ver si
tok ol
kapi tel</w>
g s</w>
træff e</w>
tru ffet</w>
10 .
li n</w>
A m
for står</w>
tilla delse</w>
re ttet</w>
ven e</w>
skri ft
tt er
bud get</w>
f ra
DL L</w>
komm et</w>
gør elsen</w>
strat egi
mis sær</w>
t ør
v eri
åb ne</w>
speci fikke</w>
sek ven
P er
op r
B I
st ær
O m
D in</w>
publi kken</w>
de tal
gam le</w>
S e
di ske</w>
M on
integ r
alt så</w>
la ve</w>
a spek
N or
gar an
akti oner</w>
spoliti k</w>
sk ra
behø ver</w>
vej en</w>
h r.</w>
kk ede</w>
øv rige</w>
so ftw
mæssi g</w>
b æ
t æn
region ale</w>
9 .
U N
le ve</w>
fle ste</w>
l ine</w>
U D
C o
ko ordin
eksi sterende</w>
gs t</w>
de ro
Dan mark</w>
bud ge
m l</w>
ur o</w>
- -
fælles skab
afgør ende</w>
ser vi
hov e
c eret</w>
s ere</w>
procedur er</w>
C ent
del t</w>
li ste</w>
199 8</w>
cent ra
b t</w>
natur ligvis</w>
vi dste</w>
prø ver</w>
g lem
C ar
c el
C h
må tte</w>
bi laget</w>
t op
relevan t</w>
dr en
so li
m me</w>
199 4</w>
spr og</w>
de su
kapi tal
anmo dning</w>
u middel
sn art</w>
g yl
t on</w>
godken dt</w>
f lo
hed der</w>
u afhængi
al ban
f la
P a
stø tter</w>
sektor en</w>
risik o</w>
regi oner</w>
gennemfør e</w>
milli oner</w>
G EN
kvali tet</w>
3 5</w>
desu den</w>
re spek
vi sning</w>
hen sig
har mon
forbin delser</w>
Domstol en</w>
c in
ek an
199 5</w>
199 6</w>
kr y
organ er</w>
min u
sp la
m a</w>
i et</w>
interes ser</w>
du mp
for stå
ån d</w>
net op</w>
st ået</w>
be sø
omstæn digheder</w>
L o
be grun
nær mere</w>
i d
eg i</w>
mi ske</w>
201 6</w>
forval tning</w>
for ekom
k ende</w>
H el
g ræ
op hæ
ri gt</w>
slag s</w>
9 4</w>
instru menter</w>
ud veksl
fortæl le</w>
ø ge</w>
8 .
gen der</w>
ramm erne</w>
sp ar
H u
H e
e vne</w>
S ch
a z
R I
dire kt
3 4</w>
Des uden</w>
7 7</w>
så som</w>
v or</w>
s on
godken delse</w>
num mer</w>
hu s
e uro
elek tr
Kongeri ge</w>
kom missær</w>
finansi ering</w>
frem skridt</w>
dø de</w>
do sis</w>
Itali en</w>
de re
3 3</w>
nation alt</w>
ft erne</w>
mø det</w>
supp ler
E D</w>
c on
strukt ur</w>
an læg</w>
199 3</w>
g ri
opfa ttelse</w>
f tet</w>
tvi v
risi ko
or i</w>
f ot
of fici
ven ter</w>
tjeneste ydelser</w>
til by
ø del
m t</w>
strat egi</w>
ogra fi
industri en</w>
lø b</w>
le ver</w>
viden skab
fast sættelse</w>
produc enter</w>
under stre
meto der</w>
3 6</w>
9 7</w>
199 0</w>
k s
0 1</w>
til svarende</w>
sammen lig
F ar
hør t</w>
Ar bej
vi tet</w>
E M
effekti v</w>
inf ra
gener elle</w>
beslut ninger</w>
sel skaber</w>
sam let</w>
mang ler</w>
kon sekven
ta g</w>
Sel v</w>
si der</w>
kl ag
li vet</w>
over før
m æl
K a
R A
sk ete</w>
st ærk
bag grund</w>
gennem sni
invester inger</w>
rigti gt</w>
lig gender</w>
gt ;</w>
& gt;</w>
produ kt</w>
be står</w>
bin dende</w>
bil leder</w>
P or
kan ske</w>
situ ationen</w>
u ge</w>
opr inde
G S
opga ver</w>
b s
ri t
ener gi</w>
EUROP Æ
M e
k am
j ekti
ati v</w>
4 5</w>
n eg
B an
re b</w>
eksemp el</w>
sal g</w>
m i</w>
direkti vet</w>
fast satte</w>
mot or
in t</w>
begræn set</w>
doku menter</w>
8 7</w>
spil ler</w>
uddann elses
tæ t</w>
199 7</w>
c ar
und gå</w>
b en</w>
Så dan</w>
for ker
F ør
be d
rå d</w>
u la
mæng de</w>
bru ges</w>
arbejd slø
ort en</w>
reg el
V er
væk st</w>
sek s</w>
vær else</w>
frem t</w>
gra tis</w>
vær k</w>
at ur</w>
ud st
Uni onens</w>
dom me</w>
ger nes</w>
øjebli kket</w>
pro tokol
s mi
sl å</w>
kla ssi
an mel
vs .</w>
tt ere</w>
p eg
hu s</w>
vilk år</w>
nær værende</w>
akti on</w>
j eres</w>
stem me</w>
materi aler</w>
pun kter</w>
bour g</w>
ressour cer</w>
å ende</w>
EUROPÆ ISKE</w>
foret age</w>
ven ner</w>
ud ste
prø ve</w>
en der</w>
la s</w>
ska de</w>
sam ling</w>
behandl ingen</w>
hal v
sæ t</w>
in st
LA G</w>
ud arbej
Go d
væg t
4 3</w>
soci al</w>
8 9</w>
EC B</w>
M å</w>
br ing
b elt</w>
luft fart
Sp ør
vær kt
P o
r ene</w>
æl dre</w>
by en</w>
ur en
standar der</w>
pra kti
sek tor</w>
s æl
Un der</w>
O L
an ien</w>
8 8</w>
virk e</w>
e valu
opfyl de</w>
d ser</w>
No gle</w>
r ent
at ori
funkti on</w>
e ter</w>
W ind
kredi t
drø ft
d vs.</w>
der med</w>
tel ef
G ræ
6 5</w>
op fordr
gennem føres</w>
pri m
forsk nings
elek tri
L and
af fald</w>
ver den
u ger</w>
beting elserne</w>
2 ,
k op
K ina</w>
H vilk
si sk</w>
sk ud
d l
ka pa
O N</w>
eksp er
kolle ger</w>
vigti g</w>
sp ekti
op byg
KO MM
mid del</w>
f anden</w>
mod tag
y de</w>
forord ningen</w>
sto d</w>
Un der
mæng der</w>
sk at</w>
ow s</w>
komm unik
E uro
opga ve</w>
en gang</w>
ter ing</w>
stil les</w>
øn ske</w>
di al
G u
omfa tte</w>
umiddel bart</w>
foretag et</w>
nive au
re ser
at er
slut ning</w>
ba sis</w>
bemærk ninger</w>
mu m
anven dt</w>
sp erio
aut om
sand syn
s varer</w>
red ygti
ans es</w>
kt et</w>
Sel v
an tallet</w>
tr ans
forsø g</w>
hån d</w>
B il
SI ON
sk yn
P ol
bidra ge</w>
mo der
ba r</w>
Rå d</w>
e jen
or g
Wind ows</w>
besky tte</w>
minu tter</w>
ful de</w>
vor e</w>
ma l</w>
l an</w>
m y
b ærer</w>
R D
P E</w>
se j
ologi sk</w>
em a
hove det</w>
gan ske</w>
V ent</w>
L æ
G rupp
af fa
r y</w>
tek st</w>
m ekan
6 8</w>
an givet</w>
b og</w>
1. 3.
S M
fær diget</w>
li sten</w>
IS SION
for uren
re tt
Sp anien</w>
c han
ka li
reg lerne</w>
foranstalt ning</w>
sen dt</w>
indi vi
f li
pa a</w>
b ende</w>
k v
beskytt elses
fore byg
famili e</w>
fal der</w>
4 8</w>
norm alt</w>
materi ale</w>
try k</w>
ord før
m erne</w>
del s</w>
spil le</w>
di sk</w>
B er
KOMM ISSION
ar ter</w>
3 7</w>
o en</w>
s le
é t</w>
tran sa
com pu
tjene ster</w>
at e</w>
r ing
t nings
en delige</w>
køret øjer</w>
x em
ud betal
g ul
sk æ
p en</w>
30 .</w>
administra tive</w>
pot enti
g al</w>
DE N</w>
8 6</w>
meto de</w>
kriteri er</w>
må ned</w>
Al t</w>
græn ser</w>
M il
ft en</w>
ko de</w>
S c
jo b</w>
be var
ved tog</w>
l eret</w>
E K
h ot
dag sor
beret ning</w>
or es</w>
æ t</w>
ri s</w>
par t</w>
par lament
str i</w>
indtæg ter</w>
V I
DE T</w>
så vel</w>
offent lig</w>
del tag
land bru
s inde</w>
D el
stra ks</w>
a kter</w>
del tagelse</w>
N E</w>
ram me
ss en</w>
ar er</w>
bæ redygti
m øn
privat e</w>
k ort
be stræ
tilstrækk elig</w>
v åben</w>
Por tu
3 5
M en
En delig</w>
mang lende</w>
ø get</w>
stø tten</w>
I følge</w>
lø n
f æn
H en
defin i
stil ler</w>
ti n</w>
produ cent
b ro
stat er</w>
still inger</w>
199 1</w>
rej se</w>
fri st</w>
tekni sk</w>
i følge</w>
budge ttet</w>
beskæftig else</w>
G r
I V</w>
læ gs
ed s
fi ler</w>
p re
fin t</w>
udvik le</w>
J o</w>
kon tin
et er
str øm
f er</w>
E S</w>
dere fter</w>
over sti
n ene</w>
Fø l
produkti on
kt at
ag ent
C om
Pro du
ø n</w>
ret sa
H ar
for manden</w>
at i</w>
k ed</w>
størr else</w>
H ER
Fr a</w>
BI LAG</w>
j æ
C on
sær ligt</w>
elektr on
her til</w>
run dt</w>
berør te</w>
e st
fr anske</w>
udelu kkende</w>
kon stru
lo d</w>
l ingen</w>
re ali
redu c
he dens</w>
k el</w>
bestemm else</w>
ma d</w>
stan de</w>
els t</w>
h yl
oli e</w>
fri t</w>
Ud færdiget</w>
ly s</w>
opmærk som
s ler</w>
Vi rk
result aterne</w>
beslut nings
beføj elser</w>
fa ste</w>
betrag tes</w>
J ac
elig heder</w>
til kny
Ud vikl
væl ge</w>
4 9</w>
m et</w>
sk e
po s</w>
G e
imp ort</w>
K un</w>
6 4</w>
produkti ons
d nings
T E</w>
n ot
sik rer</w>
frem stillet</w>
d van
uden rigs
analy se</w>
s va
8 2</w>
ru s</w>
omfa ttende</w>
ær en</w>
grupp en</w>
menneskeret tig
ret fær
G ør</w>
S en
mili t
ati ske</w>
bekæmp else</w>
b te</w>
Græ ken
Di re
u anset</w>
b un
H ør</w>
M I
proc es</w>
princi pper</w>
hensig ts
F ord
br æn
KO M</w>
4 0
forb undet</w>
Fre m
gu st</w>
h ør</w>
op ret
end videre</w>
høj t</w>
n ar
st eri
øv rigt</w>
lø s
G ra
b at</w>
or e</w>
ent lig</w>
kl ager</w>
ci li
over skri
R u
lan g
p le
H j
akti ver</w>
mø der</w>
vi ste</w>
a m</w>
forsk ri
bar n</w>
t vær
præ siden
etab ler
mod taget</w>
samfun d</w>
ta kke</w>
N æ
vide re
ken d
land ske</w>
ba g</w>
S A
kræ ves</w>
4 2</w>
sty kke</w>
ter ede</w>
sk ov
øje blik</w>
s ede</w>
læ ge</w>
del se
F N</w>
AV S</w>
in den
affa ttes</w>
tra di
sø ger</w>
e missi
Mi d
tilfre ds
princi ppet</w>
fort sætte</w>
forbedr ing</w>
F Æ
i m
k vi
indivi du
sti g
h elst</w>
c i</w>
ti get</w>
gi en</w>
sproc ed
g amm
mø de
sen der</w>
R et
in vol
ing s</w>
f ok
N y
rigti ge</w>
b on
skyl des</w>
del tage</w>
kom men</w>
certi fik
handl ings
S O
fast lagt</w>
invester ings
betal e</w>
ci n</w>
3 9</w>
on line</w>
ban ge</w>
beret tig
ar tik
frem tiden</w>
be de</w>
s eri
fun ger
her med</w>
effekti vt</w>
Lu xem
Gi v</w>
t re
g o</w>
spe j
V ed
arbejd spla
aspek ter</w>
politi kken</w>
sk el
ek n
G ER</w>
y des</w>
hvor i</w>
app ar
eni g</w>
Is ra
ta b</w>
eventu elle</w>
miljø et</w>
P i
g lad</w>
8 4</w>
pi ge</w>
frem stilling</w>
hen hørende</w>
bil lede</w>
sund heds
gennemfør t</w>
N å</w>
giv ende</w>
betal ings
lige vel</w>
KOMMISSION EN</w>
kra vene</w>
kon ferenc
P ræ
indu stri</w>
Udval g</w>
her rer</w>
sund hed</w>
f es
For manden</w>
teg n</w>
ga ve</w>
i gennem</w>
7 8</w>
k l</w>
- Jeg</w>
tviv l</w>
at ri
spr øj
b le</w>
Ty rk
slut ningen</w>
er sta
mask iner</w>
el s</w>
ber e
erkl æring</w>
org an</w>
FÆ LL
20 0</w>
li v
ind fly
En d
eff ekt</w>
retningslin jer</w>
sk øn
198 9</w>
Ford i</w>
forsik rings
vægt procent</w>
gra der</w>
behandl et</w>
kar akter</w>
8 1</w>
hy dro
væsent lige</w>
r ag
re tter</w>
ad skil
V ores</w>
Ir land</w>
V ær
ti me</w>
ud arbejdet</w>
ko l</w>
begyn der</w>
ud fordr
pri s
dob belt</w>
7 1</w>
åb en
for ny
tekn ologi</w>
opfyl dt</w>
her om</w>
ved kommende</w>
ter r
in nov
fan ta
ori er</w>
ta bel</w>
ø s</w>
A d
ES SKA
pri sen</w>
s h
l ar
T ER</w>
sæt ninger</w>
frem går</w>
é r</w>
ser es</w>
ter es</w>
th e</w>
før else</w>
e vn
R es
for d
sam arbejds
r øv
dr ager</w>
fort ol
ma sse</w>
suppler ende</w>
år lige</w>
vin de</w>
si di
proces sen</w>
J a
ter n
komp on
udveksl ing</w>
an satte</w>
tro ds</w>
land s</w>
sæ dvan
sel skab</w>
ch ar
9 9</w>
mind ste</w>
O P
inform ations
rin ge</w>
direkti v
au gust</w>
5 5</w>
projek t</w>
V ED
D o
inter ven
tem per
han delen</w>
nødven dig
K ø
s vi
to kol</w>
gamm el</w>
læge midler</w>
værdi en</w>
fic erede</w>
t ari
pu blik</w>
i r</w>
v og
hu ske</w>
mu lige</w>
7 2</w>
o v</w>
speci elt</w>
r ent</w>
politi kker</w>
S E</w>
initiati ver</w>
ning s</w>
handl ing</w>
es y
ser er</w>
sp en
bru gt</w>
fuldstæn dig</w>
for h
stil lede</w>
initiati v</w>
korre kt</w>
fjer n
E r
E T</w>
mi sk</w>
h und
m mer</w>
result at</w>
af ri
lej lighed</w>
G E</w>
F ælles</w>
histori e</w>
in k
ind føre</w>
C a
sy mp
tænk er</w>
Man ge</w>
gi ven
part ner
for klar
el lers</w>
j our
le tte</w>
ansvar lige</w>
e x
holds vis</w>
fik ationer</w>
markeds før
bestem te</w>
forel agt</w>
træff er</w>
dels erne</w>
ret s</w>
tol d</w>
sæt nings
G å</w>
harmon i
rigti g</w>
mærk e</w>
v ning</w>
mi ss
g ets</w>
sek ret
be hov
Fællesskab ers</w>
jen er</w>
der nes</w>
dam er</w>
hver ken</w>
fri e</w>
anven der</w>
de st
Luxem bourg</w>
kontrol ler
d ol
Græken land</w>
forhandl ing</w>
p ul
skre vet</w>
em m
blo d
øj e</w>
an n
ul y
IN G</w>
V al
doku ment</w>
4 4</w>
6 6</w>
7 9</w>
ka st</w>
rø v</w>
oprinde lige</w>
or ter</w>
GE T</w>
syn sp
ha vn
med før</w>
rapp orter
ti vt</w>
øj et</w>
de ler</w>
k var
le ds
bet egn
protokol len</w>
k ine
i tali
n dr
ø st</w>
c ha
bor d</w>
afgi fter</w>
rin ci
kl in
dl l</w>
2 2.</w>
m else</w>
sammenhæn g</w>
4 7</w>
over be
forbru ger
3 8</w>
sto l</w>
kl o
on d
M or
soci al
fi r
præ mi
øn skede</w>
i d</w>
gar anti
de sig
4 6</w>
opmærk som</w>
ob ser
15 .</w>
m om
offentlig gørelsen</w>
elem enter</w>
Si g</w>
le s
g in
Gen nem
væ r</w>
arbejdslø s
le dende</w>
stå l</w>
over træ
sø n</w>
for år
f lu
s ed
vær re</w>
stu di
gener elt</w>
ind gå
ty per</w>
sp ort</w>
træff es</w>
så ret</w>
ud by
besk re
forb ere
besø g</w>
ali tet</w>
an liggender</w>
fa cili
milj ø</w>
2 1.</w>
p ress
ri st
si ve</w>
Lu ft
C A
itali en
20 .</w>
GEN DE</w>
n ere</w>
str a</w>
beskri velse</w>
dom s
al e
s ov
ss el
lig gende</w>
br ænd
f at</w>
gr en
stati sti
en ighed</w>
problem et</w>
ba d</w>
b om
ram me</w>
betal ing</w>
kø d</w>
marke der</w>
høj e</w>
FÆLL ESSKA
RE N</w>
posi tion</w>
RD NING</w>
ti m
ver en</w>
funkti oner</w>
Spør gs
un g</w>
8 3</w>
der et</w>
tilstrækk eligt</w>
del tager</w>
l ær
kal dte</w>
va res</w>
s tik
ken dte</w>
k amp
C I
le vende</w>
hjem me
si onen</w>
tænk te</w>
Ne der
ne tt
su kker</w>
høj st</w>
ud ø
Bi lag</w>
dra ge</w>
ci t
str en
kon e</w>
red de</w>
jern ban
c a
g æ
dat oen</w>
Portu gal</w>
V ær</w>
frem gangs
kø be</w>
me ste</w>
hør te</w>
FO RO
fast sætte</w>
dero ver</w>
ind gået</w>
r om
økonom i</w>
f e</w>
st jene
ch l
for stå</w>
vi r
ass oci
under søge</w>
afslu ttet</w>
c u
afgør elser</w>
L GENDE</w>
f ter
R U
anven delses
El ler</w>
bru ger
ind ført</w>
p il
akti ve</w>
tt ræ
mini ster</w>
be viser</w>
føde vare
u elle</w>
6 7</w>
su cc
e uro</w>
FORO RDNING</w>
mekan is
ra l</w>
produkti onen</w>
r ammer</w>
Cent r
R eg
arbejdstag ere</w>
enkelt heder</w>
forelig ger</w>
defin eret</w>
Han s</w>
ne den
b or</w>
4 1</w>
sta bili
med mindre</w>
Gener al
vol u
G ar
fast sl
sætt elsen</w>
god t
plan er</w>
j ø
L an
198 5</w>
Tyrk iet</w>
ind rø
fisk eri</w>
spør ge</w>
tjene ste</w>
fær d</w>
Æ ndr
indfly delse</w>
aktivi tet</w>
RE N
D u
S pi
Si kker
op ført</w>
sp ort
7 6</w>
F R</w>
re stitu
ne ttet</w>
be der</w>
sti gning</w>
mi kro
l t
vin der</w>
organis ation</w>
kvin de</w>
EF T
o k</w>
virksom heden</w>
alvor lige</w>
5 1</w>
fores lå
17 .</w>
hen syn
ameri kanske</w>
var ende</w>
E k
at or
no gen
eni ge</w>
nødven dig</w>
fi sk</w>
S er
n a</w>
ødel æg
egen skaber</w>
om struktur
un sti
mærk et</w>
Jo h
di sku
lag de</w>
fler tal</w>
b ånd</w>
glæ der</w>
for dele</w>
sam arbejdet</w>
læg ning</w>
R E</w>
sektor er</w>
Bel gien</w>
b lø
indfør else</w>
se ende</w>
kraf ttræ
fri hed</w>
tr æn
Tr or</w>
t ot
konven tionen</w>
compu ter</w>
und tagelse</w>
in klu
re sten</w>
bor gerne</w>
fre d</w>
fa se</w>
L y
ur en</w>
fy r</w>
repræsent anter</w>
inter national</w>
in terne</w>
funkti ons
så fremt</w>
na tten</w>
konkurrenc e</w>
al tern
eksp orter
ser ings
D A</w>
si mp
pp en</w>
medi cin
tænk e</w>
ul ov
dri ft</w>
ds en</w>
5 8</w>
sø gt</w>
fik ation</w>
6 9</w>
, 5</w>
y l</w>
erkl ær
bereg net</w>
stats støtte</w>
demo kr
p an
n å
mm et</w>
berettig ede</w>
for læng
fart øjer</w>
ti k</w>
behand les</w>
vil je</w>
0 5</w>
ban k
5 2</w>
tion elle</w>
V ar</w>
0 6</w>
F ri
kon kre
frem tidige</w>
gen si
dele g
Tra ktat
si en</w>
st ering</w>
b o</w>
bestræ b
l ære</w>
del ingen</w>
oprin delses
O R
år s
rel at
læg gelse</w>
DE LS
la r</w>
udst edt</w>
forhandl ingerne</w>
s h</w>
DE N
be given
r o</w>
for mid
198 7</w>
0 2</w>
li e</w>
valu ta
ly der</w>
eksp on
dial og</w>
ab sol
sk ræ
mellem store</w>
svær t</w>
an ce</w>
f are</w>
198 8</w>
s .
gener al
Soci ale</w>
overvå gning</w>
em ne</w>
kapi tal</w>
ty ske</w>
D at
for sigti
bed st</w>
bl om
n æg
e der</w>
til skud</w>
effekti ve</w>
U d</w>
we b
som rå
grun de</w>
pol y
regn skabs
In den</w>
erhvervs gren
ud t</w>
fil m</w>
E LL
be s</w>
a g</w>
M A
fæn gs
ar ran
kri min
g alt</w>
K or
i hj
6 2</w>
m un
H ver</w>
B ER</w>
ob lig
frem mest</w>
f l
begyn delsen</w>
po li
begyn de</w>
ly st</w>
al ligevel</w>
n at</w>
ar m
vn et</w>
hjæl per</w>
bort set</w>
ud øv
ind kom
fakt orer</w>
u g
tilfæl det</w>
be vid
er inger</w>
5 4</w>
an ledning</w>
B es
ø bi
- Det</w>
d ør</w>
sen dte</w>
almin delig</w>
kti ve</w>
E T
hensyn tagen</w>
C y
kon centr
f æ
foresl år</w>
plan en</w>
c o</w>
ret lige</w>
t y</w>
lovgiv nings
K o
opn ået</w>
i de
v a</w>
pro tokol</w>
hoved sag
de bat</w>
la vere</w>
lt ;</w>
& lt;</w>
St or
M el
tilgæng elige</w>
c m</w>
forord ningens</w>
5 00</w>
201 7</w>
for høj
efter som</w>
kø b</w>
mod tager</w>
op dat
dump ing
5 6</w>
høj de</w>
Sy d
16 .</w>
ri g
ge ografi
FØ LGENDE</w>
kateg ori</w>
ny t
Re publik</w>
sid st</w>
Re publikken</w>
sen t</w>
Europ as</w>
r ende</w>
pr om
la tion</w>
lever and
væsent lig</w>
nø g
in ten
syg dom</w>
ati vt</w>
til li
ihj el</w>
effekti vitet</w>
s ne</w>
0 8</w>
ha vet</w>
repræsent ant</w>
inde bærer</w>
29 .</w>
drag et</w>
Fælles skaber</w>
7 3</w>
tro l
re bet</w>
ek stra</w>
ordfør eren</w>
fø ler</w>
tro l</w>
ned sat</w>
pri serne</w>
k ører</w>
lys et</w>
en ser</w>
stem mer</w>
føde varer</w>
lan dede</w>
regn skab
år ene</w>
g y
f ro
h vi
198 0</w>
bekræ ft
198 6</w>
ved tage</w>
M ini
kom miss
ad vok
par ti
te st
kti on
risi ci</w>
sl et</w>
S veri
t v</w>
konkre te</w>
frem hæ
dagsor denen</w>
gennem sigti
vi den</w>
til læg</w>
6 1</w>
hvor vidt</w>
d ør
finansi erings
behov et</w>
dæ kke</w>
g nings
mo del</w>
lig heden</w>
19 .</w>
N ation
l ån
centr alban
al ko
værkt øj</w>
R us
ø se</w>
ud før
ind holdet</w>
P I
7 4</w>
mi a</w>
an s</w>
juri diske</w>
konta kt</w>
kør e</w>
k ationer</w>
arbej dere</w>
vej e</w>
K ar
t a</w>
ut a</w>
sen des</w>
ind går</w>
br agt</w>
kon centra
H all
person ale</w>
or den
for fat
fon d</w>
EK S
kon trakt
gen op
gennemførelses forordning</w>
ul d</w>
accep tere</w>
ol u
C har
H o
ss e
result atet</w>
ek stra
Re vi
K i
af vi
F å</w>
. dll</w>
henvi ser</w>
t j
frem tid</w>
an mod
18 .</w>
stat en</w>
stra ff
E I
bi o
kon tor
sto f
he ders</w>
nogen sinde</w>
E ur
formand skab</w>
S lov
5 3</w>
M u
ud form
hæ v
ansvar lig</w>
ag en</w>
for an</w>
sp rinci
sid der</w>
E L
lø sninger</w>
demokra tiske</w>
myndig hederne</w>
a de</w>
si de
kapa citet</w>
ens ar
re de
fal dt</w>
h a</w>
a vi
D I
vn eds
al et</w>
fy siske</w>
der af</w>
kk eligt</w>
eksp ort</w>
integ ration</w>
stø tt
os v</w>
landbrugs produkter</w>
arbej dede</w>
bru gere</w>
c t</w>
j ord
sti gende</w>
ind bere
li ber
funger er</w>
et ære</w>
fle ksi
sig te</w>
h emm
5 9</w>
r a</w>
søg te</w>
an giv
s ma
ski ft
p lu
p at
s in
C ol
O gså</w>
hjem me</w>
bety delig</w>
ast ro
tag elser</w>
lov e</w>
ser ingen</w>
di men
gar n</w>
f jerne</w>
f em
E O
B ud
d ø</w>
sal gs
under teg
H am
J es
S o
stær kt</w>
til slu
s vin
spil let</w>
op le
eventu elt</w>
opfordr er</w>
hur tig
kti v</w>
T o
28 .</w>
forel øbi
læ se</w>
S te
bil le
For slag</w>
d der</w>
et a
offici elle</w>
byr des</w>
æ rede</w>
dan t</w>
dom men</w>
j ap
lø st</w>
bor atori
re st
hi d
ti digt</w>
5 7</w>
gan g
F F
for brug</w>
der til</w>
myndig heden</w>
TA GET</w>
år s</w>
y der</w>
dri fts
30 .
fil ty
udvi delse</w>
akti v</w>
ud føres</w>
servi ce</w>
ska tte
opre ttet</w>
Ne w</w>
en z
centr ale</w>
3 .</w>
it é</w>
arbej dning</w>
undersøg elsen</w>
infra struktur
selv følgelig</w>
rej ser</w>
hand le</w>
vent e</w>
elig heden</w>
oversti ger</w>
le y</w>
25 .</w>
2. 1.
g elsen</w>
lø ber</w>
sp lan</w>
ru m
vi rus</w>
VED TAGET</w>
ga s</w>
ved lige
fabri kan
val g
svar e</w>
A u
sør ge</w>
de rede</w>
fortæl ler</w>
Selv følgelig</w>
p op
lag te</w>
jer n</w>
st eg
inde holde</w>
ori ent
per f
glo b
ud arbejde</w>
ds els
foranstalt ningerne</w>
t lig</w>
vi su
dy r
6 3</w>
leds ag
videnskab elige</w>
h or
els k</w>
A b
han del
ved varende</w>
åb ner</w>
P u
h un
Rus land</w>
ved tages</w>
ol d
lø bende</w>
land distri
n om
a tt
s andt</w>
oven nævnte</w>
x y
til stand</w>
til føj
st an</w>
mo del
p s</w>
tt elsen</w>
beslut ningen</w>
til syns
gæl d</w>
G ud
Hall o</w>
over gangs
skri ve</w>
der ende</w>
bru d</w>
næ v
for and
offentlig gjort</w>
su spen
W il
al der</w>
form ul
æ vn
bevil linger</w>
giv ning</w>
par terne</w>
ur er</w>
bel ø
d ningen</w>
ri g</w>
forpligt else</w>
k ig
forvent es</w>
st rå
vur dere</w>
begyn dte</w>
bo g
l ings
A D
TI L</w>
æ l</w>
posi tive</w>
sy m
fakti ske</w>
kar ak
I T</w>
sp or
dræ be</w>
sj ov
spro gr
198 4</w>
v l
Th e</w>
forbe hold</w>
beskre vet</w>
syg domme</w>
0 3</w>
z i
om m
foreg år</w>
ansøg ning</w>
Hj æl
afstem ning</w>
eter in
gi ske</w>
land brug</w>
bre v</w>
for styr
kompet ence</w>
t je
br or</w>
ly kke</w>
kon fli
den es</w>
ud over</w>
198 3</w>
ved tagelse</w>
norm ale</w>
la vet</w>
k ære</w>
tik a</w>
Li ge</w>
ch e</w>
re stri
ek tor
St ø
14 .</w>
beret tiget</w>
In stitu
medlem merne</w>
el a
så dant</w>
efter følgende</w>
T e
ent et</w>
End videre</w>
kk else</w>
lovgiv ningen</w>
S al
nøj ag
j orden</w>
kon ver
mini mum
fic ering</w>
Mid del
3 00</w>
ater ale</w>
Neder landene</w>
P PE</w>
import en</w>
tred je
Ø stri
softw are</w>
C an
I I
i mm
0 7</w>
B eg
23 .</w>
godken dte</w>
7 .</w>
12 .</w>
v ind
st anden</w>
an del</w>
omkost ningerne</w>
kun st
sj æl
en e
or det</w>
hu set</w>
ter rit
udgi fterne</w>
en skom
sy re</w>
v erne</w>
y s</w>
forker t</w>
fors var
l å</w>
sam fundet</w>
tekn ologi
B N
T je
we i
at om
v o
s a</w>
mini steri
kræ ve</w>
sp er
hen holdsvis</w>
y delse</w>
Fø de
fælles skab</w>
M AR
rapp orter</w>
missi on</w>
t v
0 4</w>
til bud</w>
E fter
kal der</w>
g g
anerken delse</w>
alvor lig</w>
kompon enter</w>
B u
ud føre</w>
S A</w>
kt erne</w>
væ g</w>
her fra</w>
funktions måde</w>
dob bel
ud ført</w>
skab t</w>
B ri
ka stet</w>
An ven
forud sat</w>
fri vil
27 .</w>
........ ........
sam tlige</w>
opre tte</w>
bi len</w>
ind byrdes</w>
Sveri ge</w>
si r</w>
hu man
ti t
vansk eligheder</w>
val gt</w>
pro fes
c en</w>
for holds
papi r</w>
T o</w>
ste urop
e x</w>
Føl gende</w>
instru ment</w>
kontrol lere</w>
fo d
er ens</w>
oper at
bo li
br an
appar ater</w>
finansi el</w>
ch i
26 .</w>
symp tom
St op</w>
S ta
af spej
lan ge</w>
val uta</w>
medi cin</w>
n ået</w>
frem sat</w>
S E
1 1.</w>
D y
absol ut</w>
sikker heden</w>
Regi ons
dokument ation</w>
gi ft</w>
projek tet</w>
k ær
må der</w>
anven dte</w>
præsiden t</w>
med fører</w>
In di
s em
virksom hederne</w>
le t
k et</w>
ska tt
ka p
chan ce</w>
n s</w>
uni versi
G I
fast sætter</w>
vi t
fin ans
st reg
u l</w>
NIN GER</w>
S ø
L E
tidsp un
for mel
k na
sy v</w>
pa sser</w>
Fol k</w>
in jekti
B ra
menneskerettig hederne</w>
g a</w>
k under</w>
j ol
em ent</w>
198 1</w>
s dag</w>
maksi m
H y
ne der
sp æn
forsø ger</w>
em ner</w>
sk al
ra dio
forekom mer</w>
20 .
forh indre</w>
C E</w>
d ing</w>
dy re
ud gangs
lig heder</w>
for talte</w>
k m</w>
e c
13 .</w>
bæredygti g</w>
B ro
h il
IN D
V il
pass ag
h ente</w>
erhver v
TI ON
4 .</w>
forelig gende</w>
forsk el</w>
gen t</w>
HER REN</w>
ti der</w>
met al
p r</w>
ved tagelsen</w>
kla sse</w>
J er
forsk elle</w>
mål ene</w>
pla c
S U
præci s</w>
bri tiske</w>
ent erne</w>
b re</w>
P ri
sam hør
s ort</w>
un g
le vneds
kli ma
Re tten</w>
ag ter</w>
C .</w>
anmo der</w>
beslu ttet</w>
1. 2.
R Å
n lo
at om</w>
ind byg
st en
sp ur
ken de
g ro
u p</w>
ni en</w>
da tter</w>
ma il</w>
é en</w>
temper atur
B y
sm er
L ig
kny ttet</w>
M al
fø dt</w>
on dt</w>
p sy
di sp
l ene</w>
ski be</w>
bu re
udny ttelse</w>
ba de
g las</w>
ud s
ut ro
kat astro
ud gave</w>
institu tion</w>
St at
ben ævn
RE LSE</w>
8 .</w>
til nær
oven for</w>
reg ula
be vis</w>
ind vand
sub sidi
J am
at or</w>
stå l
bety delige</w>
artik ler</w>
blo d</w>
autom atisk</w>
R um
an er</w>
ind føres</w>
S P
ra di
transa ktioner</w>
forskri fter</w>
kl am
overfør sel</w>
ur et</w>
w w
v at</w>
komm ent
lag er</w>
pen ge
Mi t</w>
6 .</w>
fic ere</w>
5 .</w>
over ra
føl som
tilstrækk elige</w>
ben z
a h</w>
V æ
be vare</w>
M ari
bre m
mu lig</w>
dæ kker</w>
understre ge</w>
re sse</w>
forb ud</w>
C H
m agt</w>
T ran
terr ori
0 .
akt uelle</w>
over enskom
konklu sioner</w>
fær dig</w>
direkt ør</w>
ru l
sund hed
bud s
begræn se</w>
betal inger</w>
lø s</w>
re ste</w>
C B</w>
softw are
hur tig</w>
EKS F</w>
C la
bor ger
handl inger</w>
l ut
for deling</w>
le dt</w>
ss et</w>
ation erne</w>
res olu
akti vt</w>
balan ce</w>
st ere</w>
stop pe</w>
i krafttræ
10 .</w>
distri bu
M or</w>
fo der
som rådet</w>
behand le</w>
ci rk
lin je</w>
rå ds
bet j
afgi ft</w>
f eri
bring es</w>
hør ing</w>
dy gti
V EN
an a</w>
tilby der</w>
fal det</w>
Eur atom</w>
kon cer
p on
retsa kter</w>
c ol
ord fører</w>
fat tig
M ine</w>
be vares</w>
træ kke</w>
grøn t
y det</w>
de svær
Sen est</w>
fors ink
str ø
niveau er</w>
desvær re</w>
erfar ing</w>
g li
revi sion</w>
re ag
garan ti</w>
sik ring</w>
g re
t øj</w>
udvikl et</w>
t ons</w>
198 2</w>
tilla dt</w>
til skyn
sl år</w>
oplys ningerne</w>
st lige</w>
soli d
indi kat
selv stæn
væsent ligt</w>
ter s</w>
f i</w>
begræn sninger</w>
befolk ningen</w>
fjer de</w>
es til
betal t</w>
in stan
B ek
beny tter</w>
sel ve</w>
succ es</w>
bo gen</w>
w i
Men ne
nar ko
ven der</w>
M eget</w>
k ven
an givelse</w>
kon tor</w>
tiltræ delse</w>
under vis
ind gå</w>
pen a
SM V</w>
data ba
i møde
kom prom
n es
be klager</w>
op løsning</w>
landbrugs politik</w>
K N</w>
mulig vis</w>
EO EF</w>
pi ger</w>
spi se</w>
mulig heden</w>
24 .</w>
tu ri
midler tidig</w>
Østri g</w>
kil der</w>
197 9</w>
id é</w>
filty pena
ind givet</w>
Q u
p h
9 .</w>
t ens</w>
bi virkninger</w>
F ar</w>
tek stil
tilpa sning</w>
forval tnings
ind læg</w>
ud gangen</w>
sig n
Næ ste</w>
ty deligt</w>
hel lere</w>
KO N
kæmp e</w>
ansøg ninger</w>
ar ki
und ne</w>
her ende</w>
bevæg elighed</w>
bi drager</w>
ad resse</w>
yn a
ny lig</w>
par at</w>
for ud</w>
lig ner</w>
lever ing</w>
Or d
om e</w>
spro du
ska de
stat erne</w>
hår dt</w>
høj re</w>
italien ske</w>
le ve
n ord
fru gter</w>
TI LL
mæl k</w>
kontra kter</w>
klin iske</w>
pro te
m und
ek sterne</w>
sandsyn ligvis</w>
w a
sta bilitet</w>
A fri
ud kast</w>
prø ve
ster er</w>
f ed
am in
an der
reduc ere</w>
IN GS
pen gene</w>
indfør sel</w>
Arbej ds
stær k</w>
plan ter</w>
ag de</w>
foren ede</w>
opmærksom hed</w>
Spørgs mål</w>
Isra el</w>
risiko en</w>
L Æ
be finder</w>
lan des</w>
æn k</w>
V E
Bet ænk
gennemsni tlige</w>
dren g</w>
bi ler</w>
o d</w>
j ob
sy d
fon den</w>
bestræb elser</w>
fi bre</w>
øj ne</w>
m ør
k ret</w>
i kke
S ty
po st
etab leret</w>
J ap
hel vede</w>
3 1.
køret øj
direkti ver</w>
ko b
D O
region al
facili teter</w>
markeds ordning</w>
se x</w>
hel hed</w>
institution elle</w>
p eget</w>
rag ende</w>
ag te</w>
br inger</w>
H ot
t ur
B r
ra ti
me ter</w>
le ttere</w>
fær dige</w>
stri d</w>
med føre</w>
t ningen</w>
ful gt</w>
tr æ</w>
c es
Pol en</w>
hel d</w>
ssi on</w>
er stat
Li ss
U T
net værk</w>
M c
in direkte</w>
el ske</w>
3 ,
o t</w>
bety deligt</w>
papi rer</w>
offentlig gøres</w>
kti ons
e u
komm un
verden s
T el</w>
juri disk</w>
registr eret</w>
i i</w>
demokr ati</w>
dan ske</w>
fy sisk</w>
for nu
fol kning</w>
k red
konsekven ser</w>
T u
FÆLLESSKA BER</w>
st al
Fin t</w>
da m</w>
be dri
arbejdspla dser</w>
ble tter</w>
meddel t</w>
ci vi
b elig
ban k</w>
foreg ående</w>
tilfreds still
beskæftig elses
l om
re di
medlemsstat s</w>
kateg orier</w>
B A
standar d</w>
men e</w>
hjæl p
sl en</w>
grund laget</w>
kul tur</w>
be væ
proc ent
K e
til syn</w>
eng ag
C or
le vere</w>
Før st</w>
li ve</w>
g al
fej l
F R
po st</w>
Joh n</w>
vansk eligt</w>
under retter</w>
foresl ået</w>
Liss ab
G Ø
skri ver</w>
benævn t</w>
kræ vet</w>
b ra
eg entlig</w>
eg net</w>
byg ning</w>
over holdelse</w>
fores til
person lige</w>
h år</w>
sig ter</w>
ha sti
kri se</w>
ord nede</w>
va cc
frem sætte</w>
ari tet</w>
val gte</w>
re d</w>
kra ft
kontra herende</w>
sprinci ppet</w>
ska der</w>
dy rk
der ing</w>
v indu
skri velse</w>
et hvert</w>
In du
an al</w>
stati stiske</w>
e an</w>
tilli d</w>
eng elsk</w>
ansvar et</w>
C O</w>
op pe</w>
standar d
F ør</w>
bri tan
201 8</w>
f ly</w>
vær d</w>
ken delse</w>
mo derne</w>
U anset</w>
sam lingen</w>
ter nes</w>
Grupp en</w>
fors en
alvor ligt</w>
d o</w>
betal er</w>
å rige</w>
j en</w>
overskri dende</w>
s ind
o se</w>
tet erne</w>
ri n</w>
P oliti
V I</w>
udval gets</w>
gennemførelses bestemmelser</w>
For anstalt
si li
o tte</w>
ænd rede</w>
græn se</w>
gra d
gen stand</w>
æg te</w>
be styr
repræsent erer</w>
institu tter</w>
respek t</w>
M r.</w>
si k</w>
reger inger</w>
politi et</w>
su s</w>
Stor britan
be folkning</w>
1. 4.
al d</w>
A t
U den</w>
vær ker</w>
al en</w>
spro gram</w>
ven stre</w>
kti onen</w>
posi tiv</w>
skol e</w>
individu elle</w>
regi on</w>
ema sk
ind sættes</w>
anmo de</w>
L ond
di c
komp ens
forb i</w>
hy pp
de t
D ER</w>
be dø
for holdet</w>
administra tion</w>
tæn kt</w>
var m
v eterin
reg el</w>
g ly
anti dumping
fin an
li gst</w>
F US
så kaldte</w>
do w
Ud tal
ry d
dø ds
undersøg else
sp red
Hvor når</w>
nøj e</w>
forbru gerne</w>
gi v</w>
sp ri
skrift lig</w>
hen seende</w>
Domstol ens</w>
ing skon
lig ste</w>
forker te</w>
f und
S an
n i</w>
bl å</w>
or k</w>
sperio den</w>
foreslå ede</w>
er ci
i t</w>
erfar inger</w>
regi onen</w>
yder st</w>
V el
pp erne</w>
interes san
luft havn</w>
b ler</w>
hund rede</w>
efter spørgs
hov ed</w>
den t</w>
rapp orten</w>
for ældre</w>
dår ligt</w>
a jour
Al min
van de</w>
v ort</w>
tilfredsstill ende</w>
van det</w>
Regions udvalget</w>
j a
t un
op står</w>
sø d</w>
sæt ningen</w>
mini ster
ag ne</w>
dy b
sjov t</w>
mod tage</w>
fanta stisk</w>
an førte</w>
missi ons
m ente</w>
a .
hån den</w>
geografi ske</w>
af holdt</w>
ali sering</w>
udtal elser</w>
RE G
la boratori
d øren</w>
hind ringer</w>
fakt or</w>
ver dens</w>
ø k
z z
ind virkning</w>
ve au</w>
Gud s</w>
bre d</w>
s vin</w>
Ge or
hensigts mæssigt</w>
li vs
sy ge
kontrol len</w>
fi g
B or
forsik ring</w>
injekti ons
fær dig
p a</w>
FUS P</w>
mennesk elige</w>
ly se</w>
år sager</w>
vej r</w>
under streg
far ve</w>
afgør elsen</w>
byg ge</w>
fo er
mang el</w>
B al
pun kt
be stående</w>
st eret</w>
i de</w>
fort sætter</w>
le k
skaff e</w>
m elig</w>
st ed
for del
S ar
overvej e</w>
invol veret</w>
sl ået</w>
H ov
Sch wei
grønt sager</w>
c ro
fre kven
posi tivt</w>
F ly
at in
le gi
el li
op dag
sty ring</w>
L AN
eksporter ende</w>
v s</w>
sty kker</w>
Hvilk en</w>
beslu ttede</w>
Rum æn
referenc e
p ligt</w>
For tæ
be myndig
mål sætninger</w>
ek on
Lond on</w>
k af
S ær
ds el</w>
dra g</w>
gi sk</w>
UD ST
for ø
T ro
for men</w>
lig eg
struktur fon
Æ R
kal de</w>
ven t</w>
o er</w>
W al
kend skab</w>
sp on
grun den</w>
kan t</w>
del vis</w>
1 50</w>
frem m
P la
s els
15 .
foruren ing</w>
der er</w>
N ord
til fø
b læ
produc ent</w>
kam p</w>
E x
forstå else</w>
Am eri
c enter</w>
vel kommen</w>
komm erci
for æl
kvali teten</w>
ju ster
elektron isk</w>
tilnær melse</w>
end da</w>
in en</w>
perio der</w>
k ningen</w>
He y</w>
ang reb</w>
In ve
grænse overskridende</w>
slu t</w>
hovedsag elig</w>
de ba
UN I
træ k</w>
F o
En g
Fortæ l</w>
g ari
sel skabet</w>
Luft havn</w>
institution erne</w>
F A
neg ative</w>
by er</w>
ing ent
sl ov
overvå gnings
S U</w>
Si den</w>
Storbritan nien</w>
ektor en</w>
R y
in tel
reg eringen</w>
still ingen</w>
Sam tidig</w>
ved tager</w>
hid til</w>
ta k
situ ationer</w>
F I
Frem stilling</w>
ophæ velse</w>
es sen</w>
oper ation
For sk
j ord</w>
bry der</w>
ly d</w>
under visning</w>
Ti d
marke dets</w>
behandl ings
dri v
st a</w>
over hovedet</w>
si s
lan dets</w>
Revi sions
do k</w>
å l</w>
p al
S yn
kon soli
b jer
træ de</w>
re klam
k le
d y</w>
Hjæl p</w>
el les
frem ragende</w>
forsø ge</w>
di ag
famili en</w>
detal jer</w>
r eli
d ru
am bi
lov en</w>
k no
an g</w>
tilla de</w>
forebyg gelse</w>
sp ænd
kor n</w>
W e
lem ent
Cy per
T er
papi r
vej e
skri min
ED T</w>
t est</w>
stol e</w>
AF GØ
høj este</w>
begræn sning</w>
tt erne</w>
EUROP A</w>
ho spi
kk elig</w>
lo kal
h t</w>
rim elig</w>
s s</w>
Udvikl ing</w>
und skyl
udvi delsen</w>
fun gere</w>
na l</w>
bun ds
ka st
la v</w>
udsty ret</w>
Bru g</w>
at s</w>
infra struktur</w>
kommiss æren</w>
vin d</w>
glob ale</w>
hed s</w>
inform ation
hold ninger</w>
parlament s
on erne</w>
missi onen</w>
kultur elle</w>
u be
ander ledes</w>
bekæmp e</w>
B ur
ste de
m æn
i er</w>
16 .
vi ses</w>
admini str
st ens</w>
stu derende</w>
glæ de</w>
DEN NE</w>
f en</w>
K at
sp anske</w>
bekym ring</w>
hvor ved</w>
ger s</w>
dræ bte</w>
produkt et</w>
spør ger</w>
til delt</w>
in su
Par is</w>
klar er</w>
inten si
0 9</w>
m on</w>
perf ekt</w>
kun net</w>
und gå
kan di
fyl dt</w>
vilk årene</w>
oli e
UDST EDT</w>
s til</w>
KA PI
- Hvad</w>
byg ger</w>
sna kke</w>
an gives</w>
sl og</w>
integr eret</w>
til pass
su m
sø konom
dann else</w>
territ ori
for tro
kol on
tilla der</w>
Ved taget</w>
bereg nes</w>
rett el
amm et</w>
ber ører</w>
regula tiv</w>
plan te
C i
Regi str
elektron iske</w>
meddel elsen</w>
næ vne</w>
i stan</w>
e k</w>
T ræ
g el
mo di
che f</w>
ud lig
ta il
R ef
udny tte</w>
E P
medlemsstat en</w>
de lighed</w>
di skrimin
korre kte</w>
harmoni sering</w>
tidspun ktet</w>
Jap an</w>
symptom er</w>
ud væl
betal es</w>
et o
lam ent</w>
sk en</w>
m .
forelæg ge</w>
M at
aut ori
N L</w>
f el
sta ur
-- --
oper ationer</w>
bel ast
hjer te</w>
op ford
til sætnings
næv nes</w>
kal d</w>
d yna
en stem
vurder ings
ud sat</w>
fal de</w>
tion erne</w>
til sag
d tes</w>
p hen
go de
fly gt
e tisk</w>
hasti ghed</w>
jap ansk</w>
de j
or denen</w>
af deling</w>
dol lar
græ ske</w>
is ol
LS ER</w>
I mp
st in
mul ti
ki rk
H al
natur lige</w>
evalu ering</w>
skra v</w>
af vikl
poli tik
m r</w>
ke miske</w>
val get</w>
beny tte</w>
udtry kt</w>
u se</w>
princi p</w>
hen sigt</w>
Ta bel</w>
prakti sk</w>
fan g
på virk
on a</w>
kine siske</w>
EFT A</w>
e vi
b ære</w>
kk erne</w>
star te</w>
M ø
m æg
dæ kning</w>
registr ering</w>
a pi
un kter</w>
ændr er</w>
forb ry
h ul
le je</w>
hen stilling</w>
pri vat</w>
indfør elsen</w>
til veje
TE L</w>
for stærk
redu ktion</w>
beskæftig elsen</w>
afhæn ger</w>
konven tion</w>
E d
inter nationalt</w>
eff ek
mi d</w>
sko le
xi d</w>
skil t</w>
ta bletter</w>
sla vi
Si dste</w>
land s
kr ænk
mærk er</w>
forsk els
ha m
ør e</w>
filtypena vnet</w>
sk r
kv ot
interes serede</w>
en or
imp orter
g la
on d</w>
forslag ene</w>
under søgt</w>
afri ka</w>
di tet</w>
far ligt</w>
å l
bru gte</w>
v est</w>
æg t
afstem ningen</w>
ind lede</w>
su kker
N atur
tri n</w>
S kri
b ort</w>
hav s
sek under</w>
in k</w>
kon to</w>
ret ninger</w>
sik rings
G a
ti ger</w>
elem ent</w>
le kt
ma j
forstå s</w>
am me</w>
197 5</w>
d on
P en
sperio de</w>
AFGØ RELSE</w>
ver sion</w>
navn et</w>
14 .
demokra ti
mø des</w>
und heds
far vande</w>
en es</w>
ar t
hvor af</w>
far lige</w>
dri vende</w>
C hi
For ordning</w>
advok at</w>
til stede
hav ne</w>
P al
om sætning</w>
til rettel
tradi tionelle</w>
æ g</w>
dobbel t
mo ds
sik res</w>
eksper ter</w>
tjene stem
aftal ens</w>
over holde</w>
still ings
BN P</w>
bel y
stan t</w>
Spi l</w>
go slavi
ad a</w>
menneskeret tigheder</w>
mi dt</w>
d rej
bevid st
nem t</w>
sp or</w>
dom in
En er
for klare</w>
e pi
fr ø</w>
Jac k</w>
P as</w>
um mer</w>
over fla
ber ed
28 .
G re
dest o</w>
FØ R
Bul gari
reli gi
offentlig heden</w>
h vid
Udtal else</w>
m em
KAPI TEL</w>
næ r</w>
Fin land</w>
lø be</w>
hu l</w>
mor gen
slag et</w>
K un
In tet</w>
stats lige</w>
re par
kombin ation</w>
T S
Sam men
re publikken</w>
hurtig ere</w>
fast lægge</w>
byg get</w>
st eg</w>
M ak
landbru get</w>
S æt</w>
sen g</w>
M ag
b ne</w>
væ ske</w>
or en</w>
V A
I C
deri mod</w>
ra tion
dræ bt</w>
Da vid</w>
M ad
it éen</w>
de tail
sy g</w>
- -</w>
indgå else</w>
Centr alban
accep tab
Sp e
lig estil
opret holde</w>
b a</w>
T ek
di e</w>
p res</w>
godken des</w>
fast lægges</w>
ek s</w>
bru gen</w>
Læ s</w>
hol dende</w>
str an
uafhængi ge</w>
di gi
Far vel</w>
ord net</w>
ci vil
over sky
lan de
ff er
on e
sty re</w>
197 8</w>
opn ås</w>
for hind
to ba
K ro
lic enser</w>
re aktion</w>
forvent ede</w>
B ed
reg erings
k ler</w>
V ER
k van
dår lig</w>
tru kket</w>
D S
S ki
y r</w>
MAR K
Mil jø
S ol
tag elses
ta j
m el</w>
S tra
luft havn
ent lige</w>
innov ation</w>
en kl
understre ger</w>
s ningen</w>
le g
problem erne</w>
hvor når</w>
sek su
t ligt</w>
evn en</w>
Gr øn
P e
n at
forplig tet</w>
Før ste</w>
P RO
al u
str ene</w>
den nes</w>
mulig hederne</w>
fort egn
mu m</w>
neden for</w>
ch t</w>
v an</w>
konta kt
gæl de</w>
st nævnte</w>
på li
ud peg
ch en</w>
gensi dig</w>
certifik at</w>
smu k</w>
B liv</w>
For målet</w>
speci fikationer</w>
vol d</w>
O M</w>
k n
P A
p y
svar et</w>
hæn der</w>
IS K</w>
far ma
v undet</w>
skol en</w>
stem te</w>
udfordr inger</w>
t es
LÆ GE
4 ,
kla ge</w>
b ul
c om</w>
s -</w>
konkurrence evne</w>
al o
ha der</w>
s g
Vi s</w>
T R
kal dt</w>
forlæng else</w>
po int</w>
klæ der</w>
re former</w>
in s</w>
LÆGE MI
ind sam
s ci
Kom ité</w>
her på</w>
Ham ster</w>
ge by
vok sne</w>
bry ster</w>
le dere</w>
ba serede</w>
B N</w>
ud bre
T ri
ø ver
sn ar
la st
197 7</w>
på virker</w>
dr ing</w>
x Hamster</w>
g n</w>
besk ed</w>
inst al
markedsfør ing</w>
foret ager</w>
til tag</w>
u muligt</w>
g reb</w>
selv om</w>
4 00</w>
s es
N U
ator iske</w>
over alt</w>
udvi de</w>
til hører</w>
afgi fts
fru gt</w>
la dt</w>
g ud</w>
temperatur er</w>
s i</w>
hy l</w>
næ st
F an
lever es</w>
er a
Nor ge</w>
r ingen</w>
o i
EI B</w>
besk at
af slutning</w>
bure au
fed t
begyn dt</w>
for mu
sp ra
19 .
vi teten</w>
in o</w>
bør ne
Afri ka</w>
F akti
Fi sk
B em
erhvervsgren en</w>
potenti elle</w>
glem me</w>
l ort</w>
Fin ansi
maksim ale</w>
l ler</w>
an føres</w>
fa tter</w>
projek t
ræ kker</w>
ger ede</w>
em æssi
Op lys
at ør</w>
g um
trå dte</w>
kø ber</w>
H øj
stoff et</w>
fornu f
Y der
r ens
10 00</w>
veterin ær
spur gte</w>
spro g
k nings
mid dag</w>
mennesk e
kompet enc
I M
enstem mi
tek sten</w>
p ort
Æ N
t ør</w>
på virke</w>
ø d
h el</w>
tj ene</w>
lin jer</w>
g lu
fo der</w>
F u
RÅ DET</w>
sø ster</w>
sti k</w>
fr ansk</w>
D em
fisk er
y a</w>
T O</w>
gener el</w>
karak ter
Rumæn ien</w>
tilpa sse</w>
mind re
forny et</w>
di am
op hold</w>
f lå
S K
struktur er</w>
ferenc en</w>
re form</w>
far t</w>
ar gu
P lan
w are</w>
resolu tion</w>
V ej
ru ssi
k ere</w>
sva rede</w>
san ktioner</w>
demokra tisk</w>
elek omm
synsp unkter</w>
bland ing</w>
bereg ning</w>
virksom heds
le delse</w>
var ighed</w>
beny ttes</w>
kriteri erne</w>
før ste
funkti on
mor d</w>
di tion</w>
T ænk</w>
kr on
forskels behandling</w>
be kendt</w>
Inve ster
ind drag
pe ge</w>
M er
Kø ben
midler tidige</w>
garanti er</w>
ver ede</w>
P O
per man
and s</w>
opn å
dow nlo
s væ
offent ligt</w>
gi ft
B ør
under skud</w>
h åb
op stå</w>
res s</w>
s oner</w>
s ch
Ka pi
sti ge</w>
ra f
for stået</w>
Soci al
i gt</w>
br ød</w>
arran gem
For mand</w>
Sa g</w>
fic eres</w>
F er
2 4.
nødvendig vis</w>
fort satte</w>
kolle ga</w>
foreløbi ge</w>
C he
o .</w>
ansi gt</w>
of re</w>
Mel lem
und hed</w>
form at</w>
skri ft</w>
under lagt</w>
for venter</w>
b red
Mo d
in spek
stats borgere</w>
op lag
c eller</w>
kke des</w>
inde holdt</w>
telef on</w>
kæ ft</w>
glo ba
op taget</w>
pa kke</w>
TI ON</w>
vi g
a ssi
B on
in gens</w>
LI GE</w>
th i</w>
læ gen</w>
W in
re st</w>
over ordnede</w>
regel mæssigt</w>
S L
part nere</w>
virk eligheden</w>
a sy
elekomm unik
tilby de</w>
10 7</w>
Schwei z</w>
beskytt elsen</w>
k næ
kontroller es</w>
æ d
En hver</w>
Sam arbejds
begiven heder</w>
tor et</w>
O G
b ut
ban ker</w>
app el
speci ali
niveau et</w>
fly v
bemærk es</w>
prakti ske</w>
pla der</w>
de mon
u en</w>
om et
T ER
Indu stri
6 00</w>
o ter</w>
Under søg
t h</w>
U R
styrk else</w>
vand t</w>
inden for</w>
B landede</w>
ar iske</w>
hy gg
ho l</w>
Be stemm
c an
tid ligt</w>
kær lighed</w>
T S</w>
ingent ing</w>
ED S
d ne</w>
rim eligt</w>
regnskab såret</w>
p et</w>
O n
K ri
k ser</w>
af ten
c erede</w>
profes sion
e jer</w>
Fakti sk</w>
Ref er
virk ningerne</w>
konkurrenc en</w>
for arbejdning</w>
s ult
dollar s</w>
ani mal
ot ek
No get</w>
sområ de</w>
fir ma
Cyper n</w>
V AR
ven dt</w>
prøv ede</w>
synsp unkt</w>
Res ult
A .</w>
over holdes</w>
ad færd</w>
t jener</w>
Ju goslavi
H elt</w>
29 .
Mor gen
kæ reste</w>
skaff else</w>
be handler</w>
u re
beting else</w>
ag t
re staur
u i
vurder ingen</w>
Hot el</w>
ss es</w>
sion erne</w>
ds ger
ny de</w>
som t</w>
ssi kker
midler tidigt</w>
la vede</w>
ha stig
t æl
ori gin
bø ger</w>
cent re</w>
kontra kt</w>
ensar tet</w>
ned sættelse</w>
Indi en</w>
hu sker</w>
s or</w>
va l</w>
tig hed</w>
fremgangs måde</w>
plan lægning</w>
nor mer</w>
styrk er</w>
foren elig</w>
begræn sede</w>
belø bet</w>
P Å</w>
Bes lut
dren ge</w>
g år
A ut
l o</w>
Jes us</w>
No gen</w>
N et
U kra
kapa ci
steurop a</w>
c y</w>
nu kle
he dernes</w>
kræ vede</w>
ind led
kal des</w>
inform ationer</w>
hen hører</w>
mp er</w>
l i</w>
Til syns
A le
AT O</w>
mid lerne</w>
le dte</w>
kvali ficeret</w>
ersta ttes</w>
for mo
cent ration</w>
li cit
18 .
u el</w>
E P</w>
sam handelen</w>
kon kret</w>
henvi ses</w>
frem lagt</w>
op tagelse</w>
etab lere</w>
dimen sion</w>
prim ært</w>
r ør</w>
K li
K il
P re
søg eren</w>
teri er</w>
ol d</w>
ud peget</w>
euro en</w>
be hør
Syd afrika</w>
mæng den</w>
erhvervs drivende</w>
udgangs punkt</w>
sk o</w>
ver t</w>
ru st
Grupp e</w>
E L</w>
Tid ligere</w>
meto den</w>
skre v</w>
handl ingen</w>
mon etære</w>
her efter</w>
ss til
Bud get
områ derne</w>
h on
Li ge
b la
menne ske</w>
sæl ge</w>
fik ations
elektri ske</w>
til gang</w>
fisk e
køret øj</w>
ma li
person ligt</w>
p i</w>
sand heden</w>
1 3.
- Ja</w>
am et
vej ledning</w>
b op
tin gene</w>
els es</w>
B en
sig tede</w>
forår sag
akti on
var me</w>
eri er</w>
frem lægge</w>
defini tion</w>
beg rebet</w>
y pe</w>
bekym ret</w>
ræ kke
pe ger</w>
g heden</w>
ud bud</w>
27 .
pa ssi
ma ss
drøft elser</w>
sel skab
h tt
kon ser
ud løbet</w>
star ten</w>
s ven
af sl
ken dsger
X X
mi kali
U den
D on
relat erede</w>
D r.</w>
hvor på</w>
fly tte</w>
hol dige</w>
uden for</w>
plu s</w>
forstyr r
dat er</w>
åb nes</w>
spekti ve</w>
kamp en</w>
mat em
c her</w>
ek tion</w>
fan get</w>
peg od
f a</w>
sna kker</w>
sekret ari
civi le</w>
snar ere</w>
pop ul
Mini ster
ind sig
hvor ledes</w>
Regi on
k el
stjene ster</w>
gen stande</w>
sk in
præ par
M ere</w>
2 1.
es ti
kor te</w>
kommunik ation</w>
l else</w>
tilfø je</w>
Traktat en</w>
opre ttelsen</w>
pen sions
O ff
Hov ed
udø ve</w>
lan denes</w>
luftfart ssel
Ver den
gen i
be sid
20 20</w>
de ru
væl ger</w>
l ingerne</w>
fag lige</w>
anmo det</w>
a kk
ov en</w>
levneds midler</w>
institu t</w>
direktiv ets</w>
St ater</w>
sk ar
ån d
arbejds markedet</w>
Å r
vur deres</w>
p eri
ban ken</w>
ameri kan
17 .
æg tede</w>
sø n
L t
For bunds
ram t</w>
l .</w>
ten dens</w>
mærk ning</w>
F il
ek sk
k nu
tilrettel æg
ma ks</w>
udarbej delsen</w>
r i</w>
han dic
spoliti kken</w>
D ri
udvik lede</w>
finansi eres</w>
N A
be klæ
S om
tt eg
strategi en</w>
forbin delserne</w>
W i
smu kke</w>
sg u</w>
konferenc e</w>
B la
am e</w>
prim ære</w>
frem satte</w>
forb undne</w>
TILL A
Tje kk
sk ema
anbefal es</w>
land sk</w>
som kost
em bal
prøv ning</w>
re spektive</w>
s nings
virksom hedens</w>
jer ede</w>
hjemme side</w>
ek sam
mul til
h vide</w>
arbejd skra
Inter nationale</w>
kø re
formand skabet</w>
for talt</w>
bø l
Virk som
øj nene</w>
s må
lo t</w>
- Du</w>
star t
ru mmet</w>
bi n</w>
k ninger</w>
hy per
præ ferenc
var erne</w>
at orer</w>
pa s</w>
rå der</w>
met a
lan gs
samhør ighed</w>
ø mm
formel le</w>
ud gøre</w>
hj ul
fri tagelse</w>
af stand</w>
IS BN</w>
ag ten</w>
interes seret</w>
K ra
kon stant</w>
t ær
ko de
u gen</w>
solid aritet</w>
pl en
meddel elser</w>
hol delsen</w>
na r</w>
star ter</w>
forsy nings
forud sætning</w>
Betænk ning</w>
li der</w>
sli ppe</w>
væk st
beslutnings forslag</w>
desig n</w>
præmi s</w>
betegn else</w>
A S</w>
foresl å</w>
sproced ure</w>
pen et
konstat eret</w>
ber t</w>
tal en</w>
af bry
an læg
ro lig</w>
197 6</w>
R om
med arbejdere</w>
k ne</w>
min de</w>
fal ds
før ende</w>
ring ede</w>
tekn ologiske</w>
Fa elles
inde ha
lu kket</w>
D R</w>
lic ens
et hyl
C P
L ø
ven dte</w>
b ok
kur s</w>
be s
marked san
før elsen</w>
V ar
P eter</w>
human it
stræ kning</w>
bru tt
ob jekti
opbyg ning</w>
gr ø
fr on
Y ork</w>
f jen
A pp
I TE</w>
H i
mis brug</w>
n o</w>
tiltræ delses
re aktioner</w>
smu le</w>
ty sk</w>
y dre</w>
S tr
st ammer</w>
inve stor
S til
Per soner</w>
an gående</w>
ju l</w>
dri ft
em ed
S ky
sky de</w>
fort jener</w>
lø n</w>
In form
an e</w>
li ster</w>
Lige som</w>
ekn ologi</w>
re volu
C ha
regul ering</w>
sk æf
o x
dr er</w>
l d</w>
R om</w>
til syn
ati k</w>
akt ører</w>
v eks
H ome</w>
kvali tets
bekræ ftet</w>
nødvendig heden</w>
v åben
registr erings
ansøg ningen</w>
over f
Bulgari en</w>
Sc hen
t elekommunik
fjer nes</w>
reg net</w>
par ti</w>
2 2.
belig gende</w>
v elsen</w>
oplys ning</w>
gør elser</w>
por tu
hå b</w>
forval tningen</w>
ss el</w>
sen delse</w>
SU ITE</w>
proces ser</w>
Na vn</w>
ty pegod
j et
be ds
finansi eringen</w>
vær elser</w>
j eret</w>
sk ur
sc en
C am
ru p
li k
bety dningen</w>
g han
vær ste</w>
A .
M O
K y
st ek
r at
forskel len</w>
ga s
præci st</w>
c erne</w>
øn sket</w>
t yn
byg ninger</w>
bevæg elser</w>
gy p
dri kke</w>
oven stående</w>
an giver</w>
D el</w>
e tter</w>
L Y
stor iske</w>
bi le</w>
ejen dom</w>
mand at</w>
atori sk</w>
M y
ad var
græn sen</w>
H OL
bur g</w>
P S</w>
L in
krimin alitet</w>
om t</w>
flygt nin
pr o</w>
l ærer</w>
forb udt</w>
forbru get</w>
st al</w>
år ligt</w>
V en
min er
N r.</w>
region alt</w>
Ch ri
reg ne</w>
an ser</w>
ut ere</w>
Lt d</w>
E uro</w>
Di t</w>
dør s</w>
Der efter</w>
tilkny tning</w>
erhvervs uddannelse</w>
eg nede</w>
els ens</w>
græn serne</w>
dri kke
tilsag n</w>
P R
tredjel and</w>
beslut ning
Spe ci
koncentra tioner</w>
for hånd</w>
udste delse</w>
t ar
ministeri et</w>
ger en</w>
ven ligst</w>
Så fremt</w>
sj ov</w>
Pu bli
interessan t</w>
åb net</w>
pl uds
hvi ler</w>
P SE</w>
El lers</w>
Europ a
ør erne</w>
ansøg eren</w>
før sel</w>
euro området</w>
f edt</w>
ejen doms
i m</w>
studi er</w>
myndig heders</w>
Ø SU</w>
materi el</w>
kend t
b s</w>
stærk e</w>
cent rum</w>
speci fi
qu e</w>
samfun ds
kon centration</w>
fast læggelse</w>
sat s</w>
an f
hen ter</w>
s eg
per spekti
2 3.
htt p</w>
insu lin</w>
em od
n atri
ameri ka</w>
ori d</w>
afspej ler</w>
inve stering</w>
Med lem</w>
mod tog</w>
marke derne</w>
res ul
Yder ligere</w>
lu ft</w>
e a</w>
omstruktur erings
sid de</w>
f est</w>
h vid</w>
a v
å re
d ér</w>
sammenlig net</w>
k va
num re</w>
moder ni
ann ul
forord ninger</w>
tag ne</w>
ind ledt</w>
S ka
gennem snit</w>
l ing
kro p</w>
K TI
til lægs
ord re
må le
medlemsstat ers</w>
bestemm elses
indikat orer</w>
kolon ne</w>
v eg
op løs
tvær s</w>
eksemp ler</w>
st j
st æ
forud gående</w>
op bevar
skæf tig
ry g
be kendt
anbefal er</w>
Un garn</w>
vol d
ud fører</w>
a van
halv delen</w>
anerken dt</w>
nor mal</w>
B ES
c es</w>
fok us</w>
med deler</w>
princi pperne</w>
k øn
K en
pla dser</w>
pa sse</w>
for målet</w>
kø bt</w>
fol ke
mu sik</w>
dag lige</w>
k erne</w>
teknologi er</w>
sor te</w>
6 ,
her for</w>
forord nings</w>
begrun delse</w>
hi storiske</w>
O M
undervis nings
anmod ningen</w>
T U
bor gernes</w>
un de</w>
Sam arbejde</w>
a b</w>
be spar
hånd tering</w>
my r
ind gives</w>
sprogr ammer</w>
portu gi
indrø mm
eventu el</w>
Slov ak
ag et</w>
emissi oner</w>
akti v
t hi
i re</w>
fok u
k ni
for vær
væ sen
var me
overbe vist</w>
bemærk ning</w>
st art</w>
alko hol</w>
skon trol</w>
o gen</w>
be gra
1 20</w>
EU F</w>
kø n</w>
es el
dæ kket</w>
lan aly
W TO</w>
ud fyl
milit ære</w>
Kro ati
statisti k</w>
UNI ON</w>
statisti kker</w>
ør dag</w>
F y
hvor efter</w>
tol er
sær deles</w>
pi k</w>
for lade</w>
stat u
råd givende</w>
sti mul
hen stillinger</w>
ti gst</w>
år sag</w>
min der</w>
A kti
over sigt</w>
le veret</w>
byg ge
kræ fter</w>
kvali tet
ski b</w>
l over</w>
kvali fikationer</w>
el skede</w>
in get</w>
Ind til</w>
5 ,
til deling</w>
mod sætning</w>
stem t</w>
Morgen ens</w>
arbej des</w>
ska pa
en sen</w>
eksi sterer</w>
detal jerede</w>
offici elt</w>
pi sk</w>
forb r
V e
h und</w>
bekræ fter</w>
sy net</w>
ly d
hj ul</w>
komp lic
forelæg ger</w>
fængs el</w>
top mødet</w>
p s
r on
m s</w>
specifi kt</w>
sni veau</w>
spæn dende</w>
vej ret</w>
fi n</w>
hæn ger</w>
sproc essen</w>
ke mikali
direkt or
2. 2.
b ær
hi m
taj n</w>
2 50</w>
s hed</w>
vent et</w>
p et
begrun det</w>
T re</w>
ela dende</w>
F L</w>
handic app
K rist
CA S</w>
p æ
ly kkedes</w>
I K
inklu sive</w>
ra k</w>
und tagelser</w>
tt ens</w>
ni e</w>
etabler ing</w>
z one</w>
B re
ved tæg
N ær
Hel e</w>
c al
tari f
S T</w>
le ge</w>
DE R
der under</w>
in vi
Pro gr
kø b
am ent
hur tigst</w>
Virk elig</w>
t .</w>
aftal erne</w>
g le
Menne sk
u de
over le
stol en</w>
plan lagt</w>
car bon
penet ration</w>
ski bs
d r</w>
nø d</w>
retningslin jerne</w>
for dre</w>
lem ent</w>
kil de</w>
au l</w>
Ukra ine</w>
anmo dede</w>
vn er</w>
ver es</w>
hol dene</w>
S tu
bety de</w>
lig ge</w>
der i</w>
LI G
arbejdsløs hed</w>
over skud</w>
mi o.</w>
P røv</w>
udarbej delse</w>
bevæg else</w>
ord re</w>
sør ger</w>
ek stre
it y</w>
ty rk
25 .
giv ere</w>
bru g
a tte
dan sk</w>
detal jeret</w>
deltag ende</w>
n ek
gennemsigti ghed</w>
31. 12.
chl or
relat eret</w>
sætt elses
over holder</w>
skol er</w>
sk øn</w>
ir ske</w>
udtry kkeligt</w>
kon t
ski fte</w>
stop per</w>
skær m</w>
grund forordningens</w>
re cep
natur lig</w>
t hed</w>
ind stilling</w>
S and
lø ses</w>
ulov lig</w>
ok sek
hjæl pe
o kk
ba ss
ar der</w>
in spi
V est
værdi papirer</w>
di sk
mi stet</w>
2 6.
bor ger</w>
a y</w>
før ing</w>
m 2</w>
be hør</w>
o u</w>
deba tten</w>
hy dr
bor g
f tt
Ban k</w>
mini strene</w>
drø fte</w>
Per son
s mar
is eret</w>
mini mum</w>
der ved</w>
nå ede</w>
ter ings
s ur
import værdier</w>
støtte berettigede</w>
man i
uni on</w>
er kende</w>
W o
ti onens</w>
k es</w>
iværk sat</w>
Der udover</w>
n erne</w>
Føde vare
forretnings ordenen</w>
F ind</w>
markedsfør ings
lo y
For bin
do ser</w>
ST O
nom enkl
e p
kaf fe</w>
al der
na vne</w>
hol delses
po ster</w>
tilgæng elig</w>
A l</w>
a bilitet</w>
b ræ
sc an
slut ninger</w>
å de</w>
r ere</w>
A ss
Can ada</w>
L il
M P
spred ning</w>
Kommissi on</w>
K la
T or
ti de</w>
beskæf tiger</w>
feri e</w>
Hvilk e</w>
forbedr inger</w>
pro p
virk ningen</w>
ri ske</w>
trans fer</w>
af givet</w>
Sikker heds
B RU
ud stø
erhvervsgren ens</w>
l at
arbejds markedets</w>
je tte</w>
publi k
føl ges</w>
Mar k
3 8
alu mini
vær dighed</w>
part ner</w>
For val
uddann else
vedlige holdelse</w>
b eri
Dem ok
Vel kommen</w>
sl ås</w>
afgi ft
Sa m</w>
end og</w>
programm erne</w>
ov o</w>
ro ligt</w>
reg nes</w>
Ha v
di er</w>
kur ser</w>
software program</w>
hot el</w>
erhver v</w>
Go d</w>
centr al
5 0
for dø
amm er
d t
T ja</w>
forskel lig</w>
em a</w>
fil m
mind ske</w>
koordin ering</w>
C C
sig tet</w>
dig heden</w>
va sk
sprøj t</w>
model ler</w>
TILLA DELS
til deles</w>
di ci
regn skaber</w>
ind lægs
l s</w>
V II</w>
lic ens</w>
V æl
by der</w>
bedø mm
MARK EDS
øn ner</w>
lø j</w>
hot el
fast slå</w>
spra ksis</w>
organ i
kø le
europ æ
ven s</w>
jene ste</w>
frem mer</w>
ty der</w>
rå de</w>
prøv en</w>
kk en
oversky et</w>
e -</w>
s .</w>
s go</w>
mekanis mer</w>
fru gt
dr et</w>
åb ent</w>
kon tan
beslutning stag
é er</w>
associ erings
TE T</w>
bel giske</w>
M ED</w>
mæn dene</w>
2 -</w>
spør ge
V in
S h
iværk sætte</w>
G ro
reg ning</w>
S Y
ud ryd
ær k</w>
Så ledes</w>
be hol
ter min
erklær inger</w>
marked søkonom
em beds
efter navn</w>
for me</w>
strategi er</w>
fem te</w>
lø be
al p</w>
bog sta
DE L
opre ttede</w>
G er
producent erne</w>
tab t</w>
le get
s men</w>
hospi tal
mon i
lok alt</w>
speci fik</w>
Invester ings
ta kker</w>
li p</w>
pul ver</w>
b redde</w>
ligeg lad</w>
instru ment
vin kel</w>
dag ligt</w>
met hyl
da tter
omkost nings
forhandl ingen</w>
O per
rel ation</w>
bemærk er</w>
fy re</w>
blom ster</w>
di a
sø l
udvi det</w>
organis ationen</w>
su m</w>
c le
tor er</w>
åb ning</w>
uni ver
rej se
yl lu
Land brugs
re elt</w>
indlægs sed
retsa kt</w>
trå d</w>
telef on
fr at
identi ficere</w>
vansk elige</w>
hygg eligt</w>
ig heden</w>
afhængi g</w>
O f
Foranstalt ningerne</w>
Bar cel
fri ster</w>
pl at
eksp lo
Af stem
konferenc en</w>
fri sten</w>
to i
EN S</w>
ko st</w>
I E</w>
M in
or s</w>
d res</w>
op hør</w>
ap i</w>
re ttes</w>
k em
N AV
i mellem</w>
ST E
ga vn</w>
LÆGEMI DL
ation s</w>
af holdes</w>
MARKEDS FØR
kli k</w>
m b
ve stlige</w>
omfan get</w>
B S
ste in</w>
l en
tilfreds hed</w>
D ø
for fær
læge middel</w>
pl om
operation elle</w>
Køben havn</w>
ed ygti
Be skæftig
re formen</w>
ju stering</w>
hånd hæ
foren inger</w>
Am ster
bor g</w>
nær meste</w>
jek ter</w>
frem over</w>
sty r</w>
fø le</w>
passag er
kraf tigt</w>
u sædvan
Er hver
forø gelse</w>
R app
terrori sme</w>
landdistri kter</w>
CO 2</w>
In de
me j
For t
la ge</w>
ber øm
N E
af give</w>
hj ør
a y
ori son
mekanis me</w>
uden landske</w>
rej st</w>
k væg</w>
o fr
ju dici
integr erede</w>
ta kt</w>
lever er</w>
esy stem
f lag</w>
sy d</w>
re sterende</w>
eri et</w>
ud g</w>
sammen sætning</w>
E st
diag no
F B
beslu tte</w>
af slutningen</w>
læng de</w>
de tek
aften en</w>
tan ke</w>
Mi cha
mi ste</w>
M ens</w>
er a</w>
elek tro
c s</w>
in sul
gly kæ
K os
e tiske</w>
a se</w>
indkom st</w>
h om
agent uret</w>
bil aterale</w>
sk la
adskil lige</w>
DE LSE</w>
rø de</w>
O li
B land
under liggende</w>
procedur erne</w>
Forbunds republikken</w>
kra vet</w>
Centr al
tr in
j or
oversti ge</w>
gennem gang</w>
S .</w>
Af deling</w>
3 7
sig nal</w>
tekn ologisk</w>
mask in
op føl
har d
komprom is</w>
and s
Ø steuropa</w>
kv oter</w>
sat elli
histori en</w>
alko hol
minimum s
su r</w>
ikrafttræ den</w>
sv ag
l f</w>
MARKEDSFØR INGS
mi ster</w>
nød ne</w>
sæl ger</w>
stand s
K an
træ t</w>
bor det</w>
ber g</w>
anmod ninger</w>
1 30
h æng
AN VEN
skrift ligt</w>
konstat ere</w>
seri e</w>
be dt</w>
grænse værdier</w>
forsy ning</w>
læ re
na bo
v ater</w>
regi ster</w>
li kvi
C u
on y</w>
n else</w>
ski de</w>
gyp ten</w>
bet inget</w>
an give</w>
Uni versi
over drag
forholds regler</w>
Or gan
bru gerne</w>
ind køb</w>
forelæg ges</w>
h ent
fællesskabs retten</w>
udste des</w>
v o</w>
k o</w>
ødelæg ge</w>
hu se</w>
kon sult
tilføj es</w>
P ati
defini tionen</w>
tæn der</w>
be ska
Med del
An den</w>
uly kker</w>
op lyse</w>
S NINGER</w>
frem skyn
tari f</w>
k æl
for nødne</w>
ven lig</w>
F e
neg ativ</w>
S N
ver ing</w>
s hi
b undet</w>
dræ ber</w>
god kende</w>
bekræ fte</w>
udarbej des</w>
an sat</w>
G lem</w>
bri k</w>
k ot
tra fik
på krævet</w>
sp o
forhandl ings
bereg ningen</w>
inde holdende</w>
i dio
stø ttet</w>
af balan
An tal</w>
hvor til</w>
or tt
le gem
di sci
af grø
inf ekti
mot orer</w>
Dire ktiv</w>
konkurrenc edygti
tr om
sl æ
vacc in
sym bol
prø vet</w>
bet jen
plac ering</w>
bevil ling</w>
s ho
ud strækning</w>
par k
grad vis</w>
aspek t</w>
bestem me</w>
bland inger</w>
For slaget</w>
underteg net</w>
Europ æisk</w>
præ get</w>
g n
b rede</w>
Så danne</w>
be handlede</w>
M et
erstat ning</w>
fore spørgs
J orden</w>
skri ves</w>
ud tag
sø de</w>
pro vin
for bliver</w>
ali stiske</w>
føl else</w>
vil lige</w>
en de
fry gt
c ks</w>
R T</w>
oper ation</w>
br udt</w>
ka s</w>
forårsag et</w>
Da g</w>
fly dende</w>
udfordr ing</w>
omfa ttede</w>
sig es</w>
vi sninger</w>
system ets</w>
a der</w>
H os</w>
fors vare</w>
.. ..</w>
op ti
sproced uren</w>
S ha
kt en</w>
nøg le
form el</w>
M ac
ti er</w>
forsø gs
b lan
- Nej</w>
komm and
s w
8 00</w>
dag s</w>
kro ppen</w>
udviklings landene</w>
br agte</w>
nyt tigt</w>
ka ste</w>
ra li
overvå ge</w>
accep terer</w>
med dele</w>
fø dsels
du m</w>
in der
fi ske</w>
Des værre</w>
uni onen</w>
centralban ker</w>
ophæ ves</w>
P å
tjene steg
akti er</w>
meta boli
es s</w>
d ninger</w>
retfær dighed</w>
udø ver</w>
glem t</w>
kvan tit
for mere</w>
o .
g unsti
ban e</w>
strategi ske</w>
A c
A T</w>
emod tag
sid stnævnte</w>
el ef
sam linger</w>
spi ser</w>
ag ent</w>
skud det</w>
industri elle</w>
kon sul
forbru gere</w>
vari g</w>
E A</w>
komment arer</w>
m und</w>
ci a</w>
Li ta
ser ende</w>
Gra tis</w>
ar m</w>
for holdene</w>
C al
kri gen</w>
Ser vi
besky ttet</w>
overra sk
region al</w>
Traktat ens</w>
l ært</w>
sammenlig ning</w>
må ling</w>
over for</w>
over slag</w>
sk jul
p c</w>
må ned
Ord fører</w>
Lissab on</w>
oli er</w>
bør nene</w>
Udvikl ings
høj t
Læ g</w>
H us</w>
sov e</w>
Kapi tel</w>
form ater</w>
y er</w>
e tik
ba si
region erne</w>
ker e
bestem mer</w>
bi ske</w>
197 3</w>
S er</w>
M alt
så r
n ende</w>
hal v</w>
hæ tteg
An liggender</w>
er o
deleg ation</w>
nær heden</w>
fortol kning</w>
sk i</w>
ag a
fortegn else</w>
for arbejd
bi draget</w>
tik a
E m
ny re
mom s</w>
lu kke</w>
gennemfør er</w>
g ge</w>
D ef
Her re</w>
G AT
perman ent</w>
milli arder</w>
ekspon ering</w>
restri ktioner</w>
berør t</w>
værk et</w>
eksport restitu
sam ordning</w>
re form
st ation</w>
min us</w>
maksi mum
P is</w>
styr ings
M P</w>
bille det</w>
mæl k
T O
sv ing</w>
undersøgelse sperioden</w>
ø ger</w>
k ut
Si r</w>
følsom me</w>
op holds
far ver</w>
be stand
Efter som</w>
strø m</w>
G R
konta kter</w>
udtry kke</w>
tem melig</w>
plan lagte</w>
ma sser</w>
ER E</w>
tan ker</w>
kri sen</w>
n el
skri fter</w>
deru de</w>
servi ce
stem p
lu s</w>
K K
konklu sion</w>
g ler</w>
w o
vok sende</w>
L æg
s ænk
sa e
Be skrivelse</w>
a stri
handlings program</w>
for vir
b landet</w>
hun de</w>
overtræ delse</w>
j i
B .</w>
Af ghan
a tte</w>
teg ner</w>
æ stin
rø d</w>
ud mærket</w>
tu ationen</w>
altern ative</w>
L et
me dens</w>
nings -</w>
IS O</w>
mask ine</w>
stø ttes</w>
pun ktet</w>
produkt erne</w>
br and
L om
U S</w>
træ kker</w>
met al</w>
milit ær
st ationer</w>
trakt at</w>
til behør</w>
sk ø
sområ der</w>
ven de
re ttede</w>
produc eret</w>
Inter national</w>
fi len</w>
deltag ere</w>
til side
i te
identi tet</w>
g elser</w>
progr am
finansi ere</w>
sammen lign
off er</w>
anvendelses område</w>
mej eri
luft en</w>
Arbej d
for retninger</w>
S la
la vt</w>
kompens ation</w>
tal s
S R</w>
hår d</w>
præpar ater</w>
fabri k</w>
vil de</w>
virksom heders</w>
strukturfon dene</w>
sm ør</w>
sk y</w>
engag ement</w>
sø en</w>
st op</w>
Mi cro
re sp
repræsent ative</w>
ler ede</w>
godt gørelse</w>
partner skab</w>
forb erede</w>
elektri sk</w>
skud t</w>
Me xi
pen sion</w>
dele gerede</w>
arbejdsløs heden</w>
sk ju
finansi elt</w>
op varm
m eret</w>
f elt</w>
d at</w>
ekstra ordin
kor rup
0. 000</w>
d inger</w>
uafhængi ghed</w>
leverand ører</w>
fattig dom</w>
u regel
re el</w>
gri be</w>
år hundrede</w>
su per
foren kl
Kroati en</w>
lam enter</w>
ef ri
rede gørelse</w>
Barcel ona</w>
fly ve
Middel hav
u x</w>
flo t</w>
sek on
Revisions retten</w>
ve au
landdistri kterne</w>
de s
ud gjorde</w>
bely sning</w>
re elle</w>
S .
t ning
dagsor den</w>
as h
kommunik ations
sp lan
kommerci elle</w>
forstyrr elser</w>
ter en</w>
elektri citet</w>
sætt elser</w>
grøn ne</w>
del tog</w>
c ed
den gang</w>
inter nettet</w>
k yn
ø l</w>
b ær</w>
T ha
Sær lige</w>
Kongeri get</w>
ty de
af gøre</w>
tru ssel</w>
Vær sgo</w>
v agt</w>
W or
bestemm es</w>
Mon etære</w>
ar k
a k</w>
12 34</w>
A N</w>
fuldstæn digt</w>
br yllu
ke misk</w>
ind ledende</w>
bel len</w>
person oplysninger</w>
9 ,
kri gs
forbedr et</w>
S ov
g h</w>
arbejdstag erne</w>
trå dt</w>
hj alp</w>
sammenhæn gende</w>
Bek lager</w>
foresl og</w>
understreg ede</w>
til slutning</w>
ba tt
vå g
e jer
vide o</w>
ali as</w>
t and
dan net</w>
F I</w>
ful gte</w>
ab le</w>
m alt</w>
uafhængi g</w>
ni sk</w>
MARKEDSFØRINGS TILLADELS
for nem
re fer
R ed
ven dige</w>
z a</w>
fast lægger</w>
ta kket</w>
N O
TION ER</w>
centra l</w>
yn d</w>
tilslu tte</w>
C ity</w>
væ sen</w>
repræsent an
til del
par amet
f en
fan ge</w>
Al t
ændr ingerne</w>
medlems lande</w>
at ser</w>
hy po
ud landet</w>
b landede</w>
St ående</w>
Micha el</w>
sær skilt</w>
ansøg er
gen ter</w>
famili er</w>
s ind</w>
ind tryk</w>
T an
rin get</w>
certifik ater</w>
ny der</w>
St ati
ø sten</w>
ly k
medicin ske</w>
ord rer</w>
ler en</w>
multil aterale</w>
V III</w>
overvej elser</w>
indsat sen</w>
P T</w>
mo den</w>
betj ent</w>
S øn</w>
ud lø
BE J
om gående</w>
gen hed</w>
viden skab</w>
cy kl
ind stillinger</w>
run de</w>
fu gle</w>
tjenestem ænd</w>
n t</w>
ELL E</w>
s lem
ge vin
altern ativ</w>
bedri fter</w>
h t
dy bt</w>
L and</w>
i g</w>
Væl g</w>
Is land</w>
kal en
Lu k</w>
størr elsen</w>
konklu sionerne</w>
bring else</w>
er eg
sag erne</w>
di ffer
forklar ing</w>
f j
nett o
mot or</w>
standar di
ad s</w>
n r.</w>
soci alt</w>
almin deligt</w>
ku l</w>
betegn elser</w>
æg te
efterspørgs el</w>
AN D
op fordre</w>
el t
mi um</w>
køret øjet</w>
tæ ttere</w>
s o</w>
f f</w>
Hen des</w>
råd givning</w>
bi t</w>
t ed</w>
kom missions
de char
fi li
bom uld</w>
tilbag ek
behør igt</w>
h um
I .</w>
for samlingen</w>
ska tter</w>
fo el
over holdt</w>
disp oni
kli kke</w>
her i</w>
on de</w>
acceptab elt</w>
plen ar
Sy stem
dår lige</w>
ww w
mo du
st jer
lag er
for stand</w>
tr ansi
gæl ds
tids rum</w>
an ordning</w>
ud sigt</w>
overvej ende</w>
tilla delsen</w>
kontor et</w>
ch ok
sekret ær</w>
priori tet</w>
an ordninger</w>
P C
speci ficeret</w>
197 0</w>
ef fici
ka de
før eren</w>
B ag
pla ceret</w>
hånd tere</w>
ek ster
k on</w>
metal ler</w>
avi r</w>
me ster</w>
be des</w>
Afghan istan</w>
mi s</w>
St and
oblig atoriske</w>
effekti viteten</w>
con ta
Jugoslavi en</w>
ner v
ra ci
øn sk
Ber lin</w>
on i</w>
Selv om</w>
økonom ien</w>
spil lere</w>
ly kkes</w>
sam le</w>
skri v
g re</w>
kop i</w>
Malt a</w>
mang fol
tt ers</w>
svi g</w>
sy ge</w>
år lig</w>
accep teret</w>
c l
under ligt</w>
hu komm
d in
L ar
C N
betænk ninger</w>
Isra els</w>
Europ ean</w>
læ st</w>
bar net</w>
stør st</w>
are al</w>
ad gangen</w>
om handler</w>
fon de</w>
ty kke</w>
ti dens</w>
N ov
kontrol leret</w>
syn te
undersøg es</w>
ud arbejder</w>
enk le</w>
for samling</w>
so ur
ba k
potenti ale</w>
ELL ER</w>
I R
10 4</w>
vog ne</w>
licit ation</w>
K L
an den
W hi
z o
fø les</w>
modtag ere</w>
ne y</w>
si v</w>
Fran k</w>
e u</w>
for delt</w>
medlem s</w>
dag ens</w>
animal ske</w>
ud bud
t om</w>
Hvilk et</w>
ska bes</w>
An søg
K ul
Ma astri
rett ens</w>
på lagt</w>
dig hed
f x</w>
ledsag es</w>
SKA L</w>
ø gede</w>
fors var</w>
byg ningen</w>
E li
Ir an</w>
analy ser</w>
leget øj</w>
REG IS
om eter</w>
dri ve</w>
di plom
deri vater</w>
c or
en a</w>
J on
h ær
1, 5</w>
røv en</w>
rapporter et</w>
197 4</w>
At lan
gi e</w>
kombin eret</w>
klo kken</w>
oblig atorisk</w>
fot ografi
I rak</w>
r enter</w>
fleksi bilitet</w>
sva g</w>
for lader</w>
R U</w>
mø dt</w>
indbere ttes</w>
h op
føl elser</w>
fot os</w>
ø ges</w>
bo ok
Me di
er ing
s fær
V ER</w>
Rå ds</w>
opre ttes</w>
mb H</w>
neder landske</w>
c ker</w>
g tet</w>
NAV N</w>
bevil lingerne</w>
miljø beskyttelse</w>
gum mi</w>
væ v</w>
0 3.
z a
sa d</w>
il lu
A M
t van
10 3</w>
udbetal es</w>
koncentr eret</w>
in tra
tilfre ds</w>
In ds
ff er</w>
tilsyn eladende</w>
i e</w>
sti ger</w>
bevid st</w>
mi st
arbejdspla dsen</w>
transp orter
B en</w>
garan tere</w>
eta bil
i te</w>
ind beret
gen gæld</w>
sik ret</w>
3 6
in si
a er</w>
lov ede</w>
C E
forfat nings
vil lig</w>
skab else</w>
vil d</w>
B lo
giv ningen</w>
H ur
be fordr
Af snit</w>
ta r</w>
RE T
vi teter</w>
mo ti
bu ti
overfør sler</w>
tra vl
bo lig
afhængi gt</w>
arki tek
mål sætning</w>
sam arbejd
mennesk ers</w>
ss ek
emask iner</w>
g no
b lade</w>
OP LY
for løb</w>
ho sp
næ st</w>
ti mod</w>
undersøg elses
sikkerhed spolitik</w>
Be sky
ati v
sk ru
vurder et</w>
O p</w>
O b
reger ingskon
SO M</w>
værdi erne</w>
godken delsen</w>
sol gt</w>
ar en</w>
væsent ligste</w>
ra m</w>
GAT T</w>
16 0</w>
dol lar</w>
udvik ler</w>
foreslå s</w>
nær ings
A li
betrag tede</w>
mi stede</w>
sa ge</w>
dri ver</w>
tro du
syd lige</w>
klin isk</w>
D U
afhængi ge</w>
sp re
obser vat
læ der</w>
Stø tte</w>
am atør</w>
op bevares</w>
inf ektion</w>
fri ske</w>
Vil le</w>
s jette</w>
støtt emodtag
princi pi
e w
ska delige</w>
c lo
R am
-- -</w>
ni fi
s ens</w>
fiskeri et</w>
4 14</w>
fast sættelsen</w>
Pro jek
regn skab</w>
eksk lu
be søge</w>
ødel agt</w>
Fællesskab s</w>
Slov en
V an</w>
ti t</w>
ky st
e des</w>
Stra s
Amster dam</w>
afgi ften</w>
skyl dig</w>
folk es
Par lament</w>
web sted</w>
ind samling</w>
ak va
travl t</w>
sag ens</w>
tilstede værelse</w>
syn tes</w>
m es</w>
R ing</w>
videnskab elig</w>
redu ceret</w>
brænd stof</w>
be klag
pro por
bry de</w>
an lægs
frivil lige</w>
af del
DE L</w>
pluds elig</w>
nor d</w>
par tik
agent ur</w>
sel skabs
tilsætnings stoffer</w>
D ar
N T
M S
disku ssi
ss ektoren</w>
suspen sion</w>
sek und
tt ets</w>
G FL</w>
dag lig</w>
e tin</w>
1 -</w>
T red
bi en</w>
br ø
str af</w>
di r
speci al
på stand</w>
ver er</w>
u op
fu sion</w>
D ow
Sp il
til hørende</w>
kna p</w>
handicapp ede</w>
mu s</w>
x y</w>
væk sten</w>
r sdag</w>
priori terede</w>
10 0
P ak
o e
eks em
psy k
1 30</w>
afslu tte</w>
Jam en</w>
D K
B O
sø j
dan ner</w>
ol y
b ning</w>
omstruktur ering</w>
overtræ delser</w>
mo bili
K al
bevar else</w>
T un
M is
emæssi ge</w>
dele shed</w>
T om</w>
E ri
ord ne</w>
g ske</w>
instan s</w>
forand ringer</w>
A ir
gent age</w>
n atur</w>
besid delse</w>
Dat o</w>
pil ot
ur a</w>
sle ttet</w>
L ov
begræn ses</w>
fal dende</w>
gi ver
registr eres</w>
tak nem
in spekti
dig vis</w>
sig nifi
G mbH</w>
T old
parti er</w>
gang værende</w>
T V</w>
kombin erede</w>
kar ri
kal det</w>
fry gt</w>
Samarbejds område</w>
chl orid</w>
REN DE</w>
led ninger</w>
T RA
V are
forsy net</w>
L O
mo bil
beskæftig else
ud lej
r ente</w>
gi n</w>
anerken der</w>
mo bilitet</w>
opbyg ge</w>
ar ten</w>
nom in
hjem sted</w>
S mi
0 1.
Th om
konstru eret</w>
ri d</w>
spro blem
forestil le</w>
skom itéen</w>
o st</w>
g ud
for søgte</w>
be vise</w>
fabrikan ten</w>
ø de</w>
Minister rådet</w>
z oner</w>
system atisk</w>
nævn er</w>
å rig</w>
C o</w>
ret ss
natur ligt</w>
fr an
ac h</w>
ab ri
kontin genter</w>
ve ste</w>
sp a
j f</w>
Stras bourg</w>
fastsl ået</w>
o xi
produ k
V AL
gul d</w>
ensar tede</w>
frem ad</w>
anbefal ede</w>
mø dte</w>
Ne w
inst all
fuldstæn dige</w>
kor n
person lig</w>
................ ................
sa l</w>
tv un
O ver</w>
op mun
i a</w>
IN DE
læ ser</w>
1 12</w>
k in
b und</w>
anst alt</w>
stø d</w>
is me</w>
passag erer</w>
7 ,
kon g
Pro blem
Jam es</w>
13 6</w>
on ien</w>
OPLY SNINGER</w>
A I
ær ligt</w>
uly kke</w>
r und
om gang</w>
konta kte</w>
fan ger</w>
inst aller
ud veks
hv ede</w>
s me
r s</w>
sammen slutninger</w>
mid ten</w>
liber ali
iværk sættes</w>
Eng land</w>
4 -</w>
traktat erne</w>
Men er</w>
sær deleshed</w>
priori teter</w>
ci s</w>
star tede</w>
skil de</w>
u undgå
byr de</w>
kla rede</w>
la v
em net</w>
diam eter</w>
til lige</w>
sø gs
opfyl des</w>
stærk ere</w>
gre ssi
sk ema</w>
pla st</w>
af tes</w>
vi sion</w>
op ro
ot e</w>
pu t</w>
MM ER</w>
g ningen</w>
I P
foranstalt ningen</w>
stra li
stat ens</w>
ab sor
si l
an cer</w>
Almin delige</w>
REGIS TER</w>
an kom
vansk elig
M ot
A G</w>
se par
bar hed</w>
told tarif</w>
vær dig</w>
K ender</w>
struktur elle</w>
gyl dig</w>
g ol
and a</w>
met hyl</w>
T jene
H vert</w>
re l</w>
RE S</w>
b us</w>
fremhæ ve</w>
forbr ænd
am a</w>
v red</w>
forplig ter</w>
ersta tte</w>
b i</w>
ma kro
giv ne</w>
lo kali
sk a</w>
stør ste
b ene</w>
pla ce
R N</w>
tet sprincippet</w>
J e
opford rede</w>
ter ende</w>
For handlingen</w>
motor køretøjer</w>
ten den
dokument et</w>
maksi mal
h orison
1 10</w>
Mar okk
mag t
T ekn
Region al
forsigti g</w>
jernban e
tilskyn de</w>
ud steder</w>
ret tig
S ÆR
Bem ærk</w>
lu ftt
Si d
gti ge</w>
beskat ning</w>
on g</w>
emissi ons
databa sen</w>
i gangværende</w>
J ean</w>
lys ende</w>
volu men</w>
sa kti
ind gangs
urop æiske</w>
bre dt</w>
glykæ mi</w>
197 2</w>
sti t
d vs</w>
ny heder</w>
lo kal</w>
Uden rigs
st ro
K ap
over føres</w>
besky ttede</w>
Mellem østen</w>
br un
Kil de</w>
1. 6.
der inde</w>
Her ren</w>
beg ået</w>
Kun ne</w>
skyl dige</w>
en det</w>
offentlig gørelse</w>
kæmp er</w>
fo d</w>
læg gelsen</w>
som me</w>
sal get</w>
10 6</w>
ur t</w>
uden dørs</w>
medi er</w>
kk elige</w>
kør te</w>
F lere</w>
fot o</w>
FR A</w>
kvi val
G ran
3 9
st eget</w>
ud skift
arbejdstag ernes</w>
Geor ge</w>
forsø gt</w>
al li
organis eret</w>
uddann elser</w>
f ler</w>
red skaber</w>
kontrakt en</w>
c us</w>
m yn
is tika</w>
kig ge</w>
for blive</w>
v ri
t n
sl å
opfyl delse</w>
lan gs</w>
S an</w>
regnskabs år</w>
P U
el d</w>
miljø mæssige</w>
mini stra
til læg
kri ti
lan gti
tek ster</w>
N ed
sk året</w>
g l
v on</w>
betal te</w>
or erne</w>
industri el</w>
ind sigt</w>
fjer net</w>
Go o
RE T</w>
ER I
Kon toret</w>
mål t</w>
kør sel</w>
fir ma</w>
skøn t</w>
arbejdslø se</w>
x er</w>
drøft else</w>
G ol
mæl ke
fæn om
T lf</w>
kry ds
el l</w>
T al</w>
hand les</w>
gra vid</w>
højt stående</w>
0 9.
gra vi
skr ænk
dr og</w>
18 0</w>
ud det</w>
2, 5</w>
de stru
under try
russi ske</w>
FB I</w>
cel l
RO N
må den</w>
slu tte</w>
blo k
b øj
på lægges</w>
kig ger</w>
begyn delse</w>
o c
inf lu
k yl
ing ton</w>
stø v
Bo sni
skon tra
orden tlig</w>
Tilsyns myndigheden</w>
ot er
o ut
pi stol</w>
dump ing</w>
for delingen</w>
F un
intel lekt
h at</w>
ug unsti
u held</w>
pre mi
. com</w>
indkom st
hæ mo
Tje k</w>
af falds
sprodu kter</w>
san g</w>
Hu sk</w>
interven tions
fig ur</w>
antidumping told</w>
Mar tin</w>
gr an
stol t</w>
ot o</w>
0 4
å rets</w>
tu s</w>
jek tion</w>
H ED</w>
organis ation
Au strali
P h
imp lement
for an
system erne</w>
vær ts
forebyg ge</w>
an klag
ned sættes</w>
Y P
kendsger ning</w>
reag ere</w>
le ts</w>
far ve
virk elige</w>
dæ k</w>
c re
organ et</w>
els et</w>
tilla delser</w>
distribu tion</w>
tol v</w>
lem mer</w>
rapp ort
op dage</w>
A ra
orden tligt</w>
prøv nings
øjebli kkeligt</w>
b ord
a i
e ders</w>
lej ligheder</w>
angiv ne</w>
størr elser</w>
Anven delse</w>
åben bart</w>
Jo e</w>
temper atur</w>
kan aler</w>
S ikke</w>
forhøj else</w>
L a</w>
med deles</w>
sili en</w>
gi fter</w>
M and</w>
sk ød</w>
C R
M A</w>
A 4</w>
ople vet</w>
lig heds
ba ck</w>
try k
skyl der</w>
hæn delser</w>
c ere</w>
op lever</w>
fok us
Sty r
klar et</w>
Lissab on
- Vi</w>
und tagelses
op dræ
Mi ke</w>
ag tt
P AR
fiskeri politik</w>
Spørgs målet</w>
oli ven
12 5</w>
ma r</w>
afri kanske</w>
ag er
God morgen</w>
mod stand</w>
medlem skab</w>
ar k</w>
St re
Pro ced
S at
sp are</w>
rø d
in cit
S ag
lær te</w>
komp lek
hur tige</w>
Natur ligvis</w>
centra li
a si
t on
bi ologiske</w>
F .
kor ri
sp lig
intel lig
Char lie</w>
Af gørelse</w>
øj s
foren ing</w>
insul in
famili e
gra den</w>
Kos ovo</w>
speci elle</w>
fag lig</w>
b lin
bekræft ede</w>
medicin sk</w>
ing redi
Bland t</w>
kun de</w>
ka r</w>
in trodu
flu or
sp ansk</w>
si citet</w>
bestyr elsen</w>
portugi siske</w>
tt o</w>
rim elige</w>
uafhængi gt</w>
kø bs
e y</w>
par lamenter</w>
tjenesteg rene</w>
registr erede</w>
fær digheder</w>
ligestil ling</w>
be svare</w>
hjem mem
p ort</w>
ver ings
po l</w>
ve der
Kom mer</w>
besky tter</w>
neden stående</w>
selvstæn dige</w>
vil dt</w>
pi s</w>
P an
uddann elsen</w>
betrag ter</w>
are aler</w>
fær re</w>
at mo
handlings plan</w>
disponi ble</w>
ul le</w>
g ten</w>
dø den</w>
argu menter</w>
rør ende</w>
udval gte</w>
g lade</w>
sven ske</w>
stol er</w>
formel t</w>
an o</w>
S j
kø bte</w>
pati ent
OL OG
End nu</w>
drø ftet</w>
veksl ing</w>
H il
ud seende</w>
akt en</w>
tilgæng eligt</w>
hi dr
tal es</w>
s ef
man n</w>
US E</w>
operat ører</w>
kandi dat
repræsent eret</w>
c al</w>
sky der</w>
hus hold
try kket</w>
ly tte</w>
forekom me</w>
A gent
natri um
bå d</w>
o u
vurder inger</w>
Lita uen</w>
imp on
ck y</w>
ør et</w>
udfør sel</w>
til kende
Bør n</w>
d se</w>
mu sk
Bosni en</w>
beføj else</w>
st ent</w>
Slovak iet</w>
vende dagen</w>
G U
bi drag
P aul</w>
0 3
s af
mid let</w>
di um</w>
demokrati et</w>
ri sk</w>
g else
under rette</w>
Læg e
til sat</w>
organis mer</w>
medlem m
Verden s
w or
ar ke
um ul
posi tioner</w>
ko kine
il d</w>
H ånd
De bi
pla dsen</w>
do sering</w>
K in
B LI
overenskom st</w>
konstat eres</w>
m .</w>
M EN
mini stre</w>
skapa citet</w>
pal æstin
fuld byr
italien sk</w>
lem sstat
telef onen</w>
Bi fald</w>
di k
MM E
gode ste</w>
mi gra
somkost ninger</w>
den des</w>
administra tiv</w>
P ra
oksek ød</w>
ap eu
giv elser</w>
risik ov
spænd ing</w>
kam era
her ved</w>
fre ds
D ine</w>
ud går</w>
dat e</w>
10 8</w>
hår de</w>
til bud
kri se
minister en</w>
befolk nings
sæl ges</w>
stø ttede</w>
paramet re</w>
værkt øjer</w>
gen er</w>
1. 1.
ud løb</w>
op stået</w>
Oplys ninger</w>
EU GFL</w>
forlæng es</w>
fre d
Registr ering</w>
propor tion
Dire kti
drø m</w>
ambi ti
di versi
institu ttet</w>
ar a
Nation ers</w>
træ den</w>
t at
otek et</w>
T i</w>
Marokk o</w>
O EC
ver se</w>
idio t</w>
ang ri
energi kilder</w>
veg etabil
C at
sna rest</w>
sku ff
m te</w>
hjer tet</w>
T ry
virk elig
Ba de
h uden</w>
N A</w>
Om buds
beskæf tiget</w>
ag g
sem in
fællesskab splan</w>
hæ m
T ol
kalen der
h indre</w>
udbetal t</w>
retfær dig</w>
F on
install eret</w>
plante beskyttelses
forbere delse</w>
kl ø
inter n</w>
ga ver</w>
træn gende</w>
Maastri cht</w>
Erhver vs
udform ning</w>
c eg
Almin delig</w>
Sla p</w>
globa l</w>
ov re</w>
downlo ad</w>
mist ænk
rej ste</w>
sk at
s und</w>
fokus ere</w>
b at
sko de</w>
tilbag et
y d
strøm me</w>
lu kkede</w>
udtal elsen</w>
erklær ingen</w>
jour na
narko tika
differ enti
oprindelses status</w>
liber alisering</w>
næst formand</w>
vel ly
gen etisk</w>
bo l</w>
F ru
rel ativt</w>
forår sage</w>
ø g</w>
op stillet</w>
10 5</w>
I .
fang st
vej ledende</w>
u f
ss erne</w>
spri sen</w>
P P
bag fra</w>
SÆR LIGE</w>
Ass oci
we ek
ar g
ori en</w>
disku ssion</w>
mellem tiden</w>
gennemførelses afgørelse</w>
af sat</w>
man u
godken delses
sp li
bi bli
kompet ent</w>
EFT L</w>
Ha m</w>
Dan sk</w>
hel dig</w>
c yl
sæt ningerne</w>
Centralban k</w>
E t
opnå ede</w>
sa ktioner</w>
fat tige</w>
e ch
u ri
Vær di
f jol
TI L
C ro
not e</w>
sæ d</w>
Sy stem</w>
gent agne</w>
flygtnin ge</w>
fly tter</w>
N at
ændr ingen</w>
var mt</w>
under rettet</w>
r ater</w>
sk vali
spar t
R K
æ mi</w>
ko ster</w>
tol ds
vol ds
ud sættes</w>
finansi eret</w>
virksom hedernes</w>
men ings
in jektion</w>
ha v</w>
Le j
på ber
kri st
nord lige</w>
p iske</w>
sig ten</w>
Med mindre</w>
me ster
fin e</w>
an a
OEC D</w>
afbalan ceret</w>
u e</w>
EF RU</w>
ferenc e</w>
bun den</w>
tran se
kk es
karakter istika</w>
tilkny tnings
8 5
v et
ud løber</w>
S ml</w>
F la
tjeneste y
be holde</w>
an i</w>
sam tykke</w>
k jol
run den</w>
kæ den</w>
tilla dte</w>
mon op
kontroller ede</w>
virk ede</w>
f ås</w>
un drer</w>
man dens</w>
influ enz
tion s</w>
ram te</w>
fl .</w>
bel æg
fre dag</w>
tyrk iske</w>
teg net</w>
Joh n
Goo gle</w>
under søger</w>
St ør
fol ks</w>
l ens</w>
vent ede</w>
erhvervs livet</w>
N u
Gr und
undersøg te</w>
på hviler</w>
ta bellen</w>
stat s</w>
c hel
x a
defin eres</w>
af græn
uregel mæssi
ktion erne</w>
ssikker hed</w>
G al
v elser</w>
turi sme</w>
---- ----
D AN
ty pen</w>
forny else</w>
Kli k</w>
W ar
kor tet</w>
Kon trol
m es
stan s</w>
p t</w>
8 ,
ad fær
Spør g</w>
skab te</w>
kt or</w>
ty pisk</w>
H jer
sov e
v .</w>
mods atte</w>
ma d
Di g</w>
geby rer</w>
ann on
tilby des</w>
over sættelse</w>
lin e
eksp eri
infrastruktur er</w>
kri tik</w>
initiati vet</w>
fund ament
fer sk</w>
cle ar
re dig
tilpass es</w>
indeha veren</w>
him len</w>
M S</w>
l ørdag</w>
ber edt</w>
Fa mili
se x
s mel
øver ste</w>
reg ner</w>
beslu tter</w>
h ud
kl æring</w>
for nøj
kolle ktive</w>
hensigts mæssige</w>
und skyld</w>
che f
U DL
G lo
vurder er</w>
art an</w>
missi oner</w>
gi ej
Ret s
overfla de
5 75</w>
u ra
Z e
N B</w>
iværk sættelse</w>
e w</w>
Ny e</w>
sed ler</w>
forklar er</w>
som hed</w>
mark s</w>
p lej
dam e</w>
aktivi teterne</w>
universi tet
be h
st jæ
sat ser</w>
reger ings</w>
lig et</w>
lovgivnings mæssige</w>
af holde</w>
10 9</w>
el der</w>
sel skabets</w>
her re</w>
ati ver</w>
der fra</w>
di sses</w>
væg ten</w>
M ul
indsig else</w>
bre dere</w>
stren ge</w>
over tru
anmel delser</w>
sa d
ken e</w>
som mer
i land</w>
forbru gernes</w>
Th i</w>
An det</w>
langs omt</w>
b ån
æn t</w>
B ort
steg n</w>
moder at</w>
fil tilknytnings
ar v</w>
at eri
H or
opford res</w>
læ ger</w>
nation al
ro l
er .</w>
G D</w>
ur dering</w>
dre vet</w>
forhind rer</w>
Styr elses
fors vinder</w>
Bestemm elserne</w>
ru r
ar isk</w>
kon ti</w>
eg entlige</w>
sta bil</w>
visu elle</w>
ind givelse</w>
Ro lig</w>
t å
O h</w>
G T</w>
æng de</w>
kti vt</w>
væl g</w>
udlig nings
incit am
o gs
ær lig</w>
smer te</w>
li ter</w>
i .
St k</w>
forsk ningen</w>
løbe tid</w>
kast es</w>
ski bet</w>
forh åb
ig heds
Su pp
individu el</w>
for mali
a tter</w>
NIN GS
A sien</w>
demon stra
ud kastet</w>
ga sser</w>
T ur
h ud</w>
ele ver</w>
mun den</w>
se parat</w>
10 1</w>
bli n</w>
an dele</w>
dial ogen</w>
kt ur
Ban ken</w>
knæ gt</w>
e iske</w>
forsen delse</w>
en heden</w>
le dige</w>
nin gernes</w>
al ske</w>
hin der</w>
vil d
me gen</w>
vog n</w>
konfli kter</w>
af delingen</w>
A L</w>
y de
virk ende</w>
fri sk</w>
Sloven ien</w>
ec u</w>
nomenkl atur</w>
slu tter</w>
desig net</w>
Fort sæt</w>
ul d
skab erne</w>
popul ære</w>
C A</w>
tr on
h vidt</w>
g elses
l n
k under
k i</w>
hæmo glo
hospital et</w>
k ens</w>
par ten</w>
kontin gent</w>
præci se</w>
bry st
frem stillings
G O
NU MMER</w>
esti ci
risik erer</w>
driv hus
reger ingerne</w>
ha d</w>
c ent</w>
v ag
nings vis</w>
fanta stiske</w>
Re præsent
udvi des</w>
Sk ynd</w>
ø en</w>
udøv elsen</w>
Re j
T re
Å b
påvirk et</w>
menneskerettig hed
vær dige</w>
aftal t</w>
H ør
se værktøj</w>
mejeri produkter</w>
Afstem ningen</w>
punkt um</w>
m ult
bekæmp elsen</w>
Cent ral</w>
disk utere</w>
po in
dest in
ramme program</w>
bop æl</w>
anerken dte</w>
forpligt elsen</w>
vansk elig</w>
sor g</w>
T al
k ru
S D</w>
smu kt</w>
gem me</w>
ig nor
fø dte</w>
geografi sk</w>
vide rede</w>
s alt
kø d
tu sind
beg unsti
ad ress
V and
Let land</w>
J ud
sø iske</w>
min ut</w>
l or
CO M</w>
kræ ft</w>
For bruger
op tim
OLOG ISK</w>
B eret
for arbejdede</w>
centr alt</w>
om me</w>
scen ari
sal te</w>
fod bol
va tion</w>
slem t</w>
am bass
ba by</w>
STE MME
enor me</w>
ty kkelse</w>
styrk en</w>
cent ret</w>
domin erende</w>
utro ligt</w>
M Å
su ver
kvin ders</w>
ga den</w>
F RE
DO K</w>
en den</w>
sty ret</w>
komp le
tekni k</w>
fy r
bevidst hed</w>
Sk at</w>
op i
Sov jet
efter komme</w>
anbefal inger</w>
resp ons</w>
hovedsag eligt</w>
markedsan del</w>
forarbejd nings
udvik les</w>
udgi ft
fler årige</w>
Beskæftig else</w>
L ED</w>
E le
lanaly seværktøj</w>
Fi lanalyseværktøj</w>
e føl
gener al</w>
R egn
Dan i
mod tagelse</w>
en deligt</w>
Alt så</w>
0 2.
vind ing</w>
P at
be ha
ni tro
ula tion</w>
mag ne
fri heds
for retning</w>
for lod</w>
I X</w>
sc h</w>
al deren</w>
forebyg gende</w>
M ED
tæ gt</w>
belast ning</w>
al fa
B ER
sl y
kvin derne</w>
dom stol
vær elset</w>
opvarm ning</w>
afgrø der</w>
skre vne</w>
geri et</w>
Ma x</w>
fa ir</w>
M yndig
r å</w>
fabri kken</w>
vand s
Mi g</w>
ov a</w>
tra fi
Australi en</w>
Nor dir
a kade
skø ret
by de</w>
g heder</w>
b æl
syge ple
sæ de</w>
indi k
fi t</w>
ST Ø
I midlertid</w>
fa sen</w>
Ændr ing</w>
maj s</w>
steurop æiske</w>
lø fte</w>
U ru
ET S</w>
ar om
L atin
organ iske</w>
k ammer
forvent ninger</w>
o si
fu g
tradi tion
over gang</w>
op delt</w>
forel agde</w>
em yndig
atmo sfær
O K</w>
vin ge</w>
evn er</w>
do sis
sind s
ru brik</w>
dom stol</w>
au dio
elt hen</w>
G la
plig t
op kald</w>
efter hånden</w>
begiven hed</w>
frem stilles</w>
besk i
langti ds
Vi den
pro gno
ol er</w>
indrø mme</w>
g ru
udøv else</w>
res ser</w>
Til bage</w>
ledsag et</w>
skæ bne</w>
møn ter</w>
sel ekti
ud tale</w>
god s</w>
forb er
ch el</w>
m eren</w>
lufthavn en</w>
sty pe</w>
konstat erer</w>
hal sen</w>
D og</w>
ned sætte</w>
sproced urer</w>
sport s
sædvan lige</w>
går d</w>
R Ø
V ol
mø dtes</w>
accep teres</w>
pri vi
ulov ligt</w>
ind drage</w>
Du blin</w>
D ATO</w>
un ds
rel ationer</w>
Kon kurr
revi sions
for holdsvis</w>
ford rej
op leve</w>
kr æ</w>
Fa der</w>
re viderede</w>
invol verede</w>
europ a.
S eri
m. fl.</w>
harmoni serede</w>
st am
ar å
b und
kommunik ation
Ud vi
Ra a
Produ kt
spoliti ske</w>
succ es
e vent
ANVEN DELS
kri tisk</w>
i ge</w>
wa y</w>
St ore</w>
el la</w>
pro fil</w>
v re</w>
sl øb</w>
www .
ven lige</w>
ak e</w>
klu b
V arer</w>
God dag</w>
u li
t unge</w>
obser veret</w>
L UT
eksper t
aly se</w>
almin delighed</w>
al l</w>
bre v
sam råd</w>
restri ktive</w>
identi fikation</w>
virk eligt</w>
ot t</w>
st es</w>
si a</w>
di s</w>
on om
fort jeneste</w>
gr øn</w>
gent ager</w>
bil led
præ judici
ki g</w>
af ske
F T
berøm te</w>
Ha v</w>
hy dri
0, 5</w>
tvun get</w>
lyk ønske</w>
a bel</w>
sp ær
tredj em
ind beretning</w>
enstemmi ghed</w>
anmel delse</w>
forsk ere</w>
par all
kan ten</w>
HER REN
ko der</w>
formu lar</w>
Mexi co</w>
ret spraksis</w>
Ri ch
D C</w>
af hjælpe</w>
For mand
tilpass et</w>
komp let</w>
E X
ind skrænk
er lig</w>
al fa</w>
BE T
ly de</w>
Ja vel</w>
z e</w>
f ale</w>
sam arbejder</w>
T he
lang sigtede</w>
forb yde</w>
produc ere</w>
ma sse
liv ets</w>
un gar
Uru gu
model len</w>
led ningen</w>
Far ma
1 1
begræn ser</w>
u su
dag s
sjæl dent</w>
frem med
0 8
udby tte</w>
inf la
supp lement</w>
g es
ulov lige</w>
tid lig</w>
a en</w>
- Er</w>
0 5
ri ti
kontor er</w>
p li
Def ini
luft havne</w>
cy kler</w>
forud sætter</w>
for fal
partner skabs
anf ægtede</w>
I sær</w>
e tt
ER NE</w>
God nat</w>
ord ningerne</w>
mm ende</w>
bag efter</w>
p o</w>
at t</w>
mu se
e di
balan cen</w>
inde ks</w>
ski ft</w>
uop sætt
de pon
i agtt
h e</w>
reduc eres</w>
b j
p kt</w>
arbej derne</w>
ø l
træ ning</w>
histori sk</w>
dy res
simp elthen</w>
bekræft es</w>
hal vt</w>
bevæ ger</w>
ind gående</w>
dechar ge</w>
Ma c</w>
plan læg
M ænd</w>
g y</w>
behol dere</w>
Beg ge</w>
tilbage ven
kvantit ative</w>
for handle</w>
Fran ce</w>
transe uropæiske</w>
ind skud</w>
pi gen</w>
na evn
kk ens</w>
ag es</w>
dom mer</w>
imm uni
hæ r</w>
raf fin
br and</w>
Ny d</w>
sag søgeren</w>
gam mel
S S
BES LUT
om hyggeligt</w>
om bi
Beslut ning</w>
fic erer</w>
t jen
vid ne</w>
ind stillet</w>
stop p
understreg es</w>
rå dets</w>
kun st</w>
for brugs
Til lykke</w>
arbejdskra ft</w>
Mar y</w>
V E</w>
S agde</w>
ud skil
in formere</w>
administra tivt</w>
par lament</w>
indvand ring</w>
IK KE</w>
giv elsen</w>
foren elige</w>
K RON
ret ningen</w>
Meddel else</w>
arrangem enter</w>
att ra
N ed</w>
koncentr ere</w>
r art</w>
kvar tal</w>
10 2</w>
h ek
bran chen</w>
HERREN s</w>
tan ken</w>
efter fulgt</w>
A C
modi ficerede</w>
materi elle</w>
skud s
O ral</w>
karak teri
G R</w>
pre sse</w>
li l
humanit ære</w>
sul ten</w>
fjern else</w>
be holder</w>
PU BLI
hætteg las</w>
bety dnings
In dre</w>
til bered
V a
ti rsdag</w>
pa kninger</w>
yder ste</w>
fin ger
Hav de</w>
hy giej
sikkerhed sstil
nor ske</w>
Tran sport</w>
Chri sti
ur in
hvor med</w>
deltag erne</w>
s over</w>
Euro stat</w>
E dition</w>
ef re
Fol kere
milli on</w>
sy s</w>
inter net
bekym ringer</w>
tu re</w>
n on</w>
fik ation
til lægges</w>
GE LSER</w>
A KTI
jene ster</w>
dr on
spil lede</w>
komp li
hvor fra</w>
skrift lige</w>
fr ø
0 7.
K ør</w>
er y
kapaci tets
H z</w>
glem te</w>
forvent e</w>
indlægssed len</w>
ly ver</w>
la veste</w>
dr ene</w>
revolu tion
T ru
Mø det</w>
fart øj</w>
S lip</w>
U ds
Ju li
arm bånd</w>
under skrevet</w>
gr ene</w>
undskyl de</w>
ac k</w>
valuta er</w>
pen sion
KRON OLOGISK</w>
mom s
komplic eret</w>
ban en</w>
K u
sammen sat</w>
jæ vn
ø stri
al og</w>
teri erne</w>
E gypten</w>
ran g</w>
bar n
For står</w>
stati stisk</w>
p .
lø d</w>
in gi
far lig</w>
erhver vet</w>
en heds
Del e</w>
t ele
anven delser</w>
skema et</w>
re si
a bili
w an</w>
æ k</w>
ind give</w>
imm un
Op bevares</w>
VI RK
ro n</w>
sjæl dne</w>
kemikali er</w>
import ører</w>
produc erer</w>
instan ser</w>
for d</w>
famili emed
kop i
ind holds
A tom
udst ation
søg ning</w>
næ ppe</w>
N y</w>
hån ds
ST AT
I krafttræ
H AV
F T</w>
e de
orient eret</w>
regel mæssige</w>
foruren ende</w>
c tor</w>
komm uni
el dende</w>
føl te</w>
forfat ning</w>
evi gt</w>
to ges</w>
lige vægt</w>
tor sdag</w>
S il
fæl de</w>
mar gen</w>
over leve</w>
Refer enc
søl v</w>
tu rist
Dat a
ty vendedagen</w>
re ster</w>
ud nævn
sma g</w>
hæv dede</w>
fu sions
fabrikan ter</w>
la c
k ne
gyl dige</w>
var sel</w>
B li
u sal
premi er
ber st</w>
sag s
vigti gere</w>
lin k</w>
kraf tig</w>
P unkt</w>
lu kker</w>
gennem sku
Pol y
op tage</w>
be stande</w>
E l</w>
til gode
kø kken
indgå s</w>
tra fik</w>
strategi sk</w>
Gener elt</w>
ud stede</w>
az ol</w>
Udval gs</w>
esystem et</w>
medlems landene</w>
Est land</w>
rets grundlag</w>
perspekti v</w>
di o</w>
P A</w>
vok ser</w>
sprogr ammet</w>
hy pot
spørgs mål
rent es
p ine</w>
s alt</w>
oplag ring</w>
mu sik
simp elt</w>
Or d</w>
eksper ti
o ft
D ag
an sættelses
respek terer</w>
for um</w>
sla p</w>
A gen
ex e</w>
ar rest
byg nings
bud skab</w>
gæ ster</w>
S C
u lem
industri er</w>
Bra silien</w>
trå d
sa vner</w>
f and
undgå s</w>
sv ov
mangfol dighed</w>
le ttet</w>
is ra
un or
selvstæn dig</w>
terr or
respek tere</w>
sub kut
s un
iværk sættelsen</w>
enz y
Pre mium</w>
V Æ
N G
konstru ktion</w>
kri tiske</w>
Demok ra
bespar elser</w>
overf lade</w>
år sagen</w>
dr ink</w>
Nordir land</w>
matem atik</w>
l un
u forholds
reali stisk</w>
hol dte</w>
anerken des</w>
Land brug</w>
pati enterne</w>
af tryk</w>
AR BEJ
sp ris</w>
g ger</w>
på vist</w>
hvi le</w>
glem mer</w>
overvej es</w>
overensstemm elses
dej ligt</w>
General direktor
F ig
mod stan
køretøj ets</w>
t vinge</w>
top pen</w>
beskyttelses foranstaltninger</w>
Ad ministra
sa c
bevæ ge</w>
sa a</w>
udenrigs -</w>
la det</w>
id éer</w>
G ri
tilla des</w>
sli p</w>
g heds
lej ligheden</w>
under tiden</w>
meddel te</w>
va ku
s vær</w>
konklu derede</w>
d or
gener ation</w>
Forsk ning</w>
T om
med taget</w>
dr am
databa se</w>
ind fører</w>
kob ling</w>
opmærksom me</w>
opdat ere</w>
Dow nlo
tilbag es
at a</w>
ret lig</w>
produktion såret</w>
Kon gen</w>
kun de
fælles markedet</w>
st øj
opføl gning</w>
dri ves</w>
3 2
ret ur
ag tige</w>
fotografi er</w>
Ændr et</w>
henvi se</w>
hensigts mæssig</w>
inddrag else</w>
par tem
skil te</w>
be myn
mon teret</w>
digi tale</w>
inspek tion</w>
milit ær</w>
indfør te</w>
inf u
sy vende</w>
z on</w>
P E
d on</w>
reg ående</w>
Pati enter</w>
fast holde</w>
dø mme</w>
n ul
Bet al
reklam e</w>
identi ficeret</w>
ir a</w>
ind lysende</w>
gyl dighed</w>
klassi ficering</w>
åb enhed</w>
forbe dres</w>
fi ber
sal en</w>
bemyndig else</w>
Af talen</w>
bru get</w>
vel færd</w>
oprinde ligt</w>
N ar
maksi mal</w>
ekster n</w>
fly ve</w>
en si
Gar anti
økonom i
regul erings
lan ger</w>
ind gik</w>
dre v</w>
konsekven t</w>
kredit institutter</w>
mo l</w>
far s</w>
sk iner</w>
li delser</w>
foret rækker</w>
or al</w>
l æring</w>
arbejd sprogram</w>
um met</w>
sk ort</w>
D et
tab te</w>
kred sløb</w>
Forval tning
fakt um</w>
ind arbejdes</w>
foel gende</w>
an erkende</w>
tr af</w>
skrift en</w>
ind ven
ved toges</w>
bræn dsel</w>
C er
Par terne</w>
ly tter</w>
bi sk</w>
3 -</w>
over føre</w>
fordel ene</w>
u ta
Fa st
æ kvival
in ficerede</w>
for ring
Gener elle</w>
kvin delige</w>
frem lagde</w>
konstat erede</w>
infekti oner</w>
Mennesk eret
c tion</w>
An dre
tot alt</w>
skær m
B lu
ple je</w>
p æiske</w>
centralban k</w>
F al
mid dagen</w>
at sen</w>
sku b
defin ere</w>
Li dt</w>
på tænkte</w>
moderni sering</w>
t op</w>
te or
ska m</w>
port eføl
skri terier</w>
katastro fer</w>
overvej else</w>
største delen</w>
ned gang</w>
gensi dige</w>
kron isk</w>
H on
op når</w>
om ra
fart øj
ind greb</w>
marked s</w>
op føres</w>
R T
bade værelse</w>
Ud dannelse</w>
1 15</w>
il et</w>
k val
i den
und taget</w>
eg ang</w>
an tages</w>
Mo ses</w>
u tte</w>
af vist</w>
initiati v
konsekven serne</w>
tredjel ands
Hen ry</w>
hul ler</w>
forretnings orden</w>
næg ter</w>
luftfartssel skaber</w>
G EN</w>
sy rer</w>
seksu el</w>
Latin amerika</w>
b lu
be vis
inter oper
o xy
Organ is
w e</w>
BE STEMME
li s</w>
fag foren
An ti
th ro
p estici
gør ende</w>
Refer ence</w>
øk ologiske</w>
sk ør</w>
fortro lige</w>
re fle
sædvan ligvis</w>
g eret</w>
fjer kræ
be stå</w>
Sk ulle</w>
u rets</w>
udelu kket</w>
bo ede</w>
F lot</w>
tilbagek al
te ori</w>
investor er</w>
st ager</w>
B S</w>
må les</w>
Micro so
ker nek
inter vi
forbry delser</w>
teg nede</w>
ø st
giv en</w>
beskri ver</w>
ba seres</w>
sk ære</w>
di a</w>
accep tabel</w>
Ind hold</w>
Ener gi
brænd stof
H år
godken der</w>
bro w
B us
på lægge</w>
toba k</w>
repræsent ation</w>
t ø
koncentra tionen</w>
T ony</w>
er ind
R en
i. a.
G am
ide er</w>
sandsyn ligt</w>
forhøj et</w>
A U
forskri fterne</w>
mar gin
K l
e v
skæ de</w>
bekym re</w>
blø d
Inter net</w>
aut en
Schen gen</w>
or dene</w>
tusind vis</w>
mor ges</w>
k sen</w>
nyt tige</w>
ar y</w>
SI S</w>
S undheds
op lyst</w>
rent e
alt ing</w>
udlej ning</w>
udform et</w>
løs ningen</w>
sor er</w>
tær sk
Sikker hed</w>
va rede</w>
1 11</w>
vide o
op førelse</w>
kø kken</w>
stig ningen</w>
p in
møn ster</w>
Institu t</w>
lo ft</w>
a en
Fi k</w>
Jer usal
y per</w>
fremm ede</w>
00 1</w>
or te</w>
Pro gram</w>
N em
bal l</w>
arg ument
ø stlige</w>
iværk sætt
Al ban
Tha iland</w>
skab ende</w>
hæn derne</w>
P røv
på tage</w>
cel le
forpligt elserne</w>
red dede</w>
H æn
re sum
vær digt</w>
kom ité</w>
vis nings
kon sum</w>
Ø ster
sekretari atet</w>
c t
syn lige</w>
sti velse</w>
par ters</w>
del vist</w>
afvikl ings
Forbin delser</w>
str et</w>
tør t</w>
formid ling</w>
om talte</w>
ændrings forslagene</w>
P rin
M ang
der ingen</w>
tilveje bringe</w>
re ttelse</w>
eli min
ek te</w>
SL UT
erken der</w>
en delse</w>
af sted</w>
tredje part</w>
orient ering</w>
kil ometer</w>
ka ster</w>
li pp
konfli kt</w>
fjer kræ</w>
sty rer</w>
grun digt</w>
be dring</w>
lø gn</w>
blo ds
M ind
sek tionen</w>
bemyndig ede</w>
H æ
stø j</w>
tr et</w>
sam handel</w>
L øb</w>
vindu e</w>
programm ets</w>
nøg len</w>
nød der</w>
erkl ærede</w>
drikke varer</w>
signifi kant</w>
Kon g</w>
installer er</w>
over søiske</w>
qu i
den hed</w>
va ti
bo er</w>
Mad rid</w>
Li ber
Be vil
14 0</w>
mal ware</w>
p ænt</w>
oper ativ
D am
af sætning</w>
9 0
tan k
person alet</w>
U K</w>
fa ser</w>
le der
et n
at en</w>
C YP
frem lægges</w>
L IS
n ås</w>
sva ge</w>
esy stem</w>
opbyg ningen</w>
tilpa sninger</w>
tit len</w>
li gs
Tran sport
S end</w>
origin ale</w>
D S</w>
d l</w>
qu es</w>
v inter
on y
form ind
General direktør</w>
frivil lig</w>
fic erings
maksimum s
al erne</w>
kap tajn</w>
ss on</w>
over gangen</w>
6 0
sk um
num meret</w>
Stre et</w>
stand se</w>
st ation
be stand</w>
m o</w>
offentlig gøre</w>
territori um</w>
M au
hel bre
innov ative</w>
sted s</w>
bar ri
sj æl</w>
or a</w>
bi lag
forsigti ghed</w>
foretag endet</w>
tal lene</w>
søgs mål</w>
o se
ju le
dre je</w>
I D</w>
luftfart øjer</w>
Debi an</w>
her inde</w>
Jo han
sa m</w>
af gjort</w>
8 4
mod tagelsen</w>
ople velse</w>
fyl dte</w>
atur en</w>
understre get</w>
tæl ler</w>
Må let</w>
pa kker</w>
is ere</w>
U l
dø mt</w>
drøft elserne</w>
ster s</w>
men ingen</w>
fej lag
var m</w>
over ens</w>
blo det</w>
29 9</w>
alumini um</w>
gi veren</w>
inddrag es</w>
fængs let</w>
Thom as</w>
efterspørgs len</w>
Demokra tiske</w>
erkl ærer</w>
sk æl
J un
sum men</w>
priori ter
vid ner</w>
M ærk
D .</w>
for føl
Rå d
vide regående</w>
inter fer
fro kost</w>
g ar</w>
Al ligevel</w>
num mer
T EUF</w>
sammen slutning</w>
rent abilitet</w>
Bort set</w>
ker ne
Ti d</w>
Tr o</w>
ry ger</w>
landbru gere</w>
forretnings mæssigt</w>
no ed
tidsp lan</w>
H AN
t år
kon cep
skift e
pa p</w>
eksport en</w>
an sættelse</w>
bestræb elserne</w>
ó n</w>
næg te</w>
for uro
direkt øren</w>
Stat s
t øm
S pr
- Han</w>
vid de</w>
em e</w>
vari ge</w>
ski b
nukle are</w>
tem a</w>
spr æng
lige behandling</w>
erklær et</w>
sko de
W ash
kry d
S hi
sprøj te</w>
fo s
sø vn</w>
supp lere</w>
M r</w>
udtal te</w>
for sikre</w>
publi kationer</w>
med virke</w>
ceg ov
st ationen</w>
fastsl ås</w>
va ret
over holdelsen</w>
præferenc e
le delses
flo den</w>
ele j
ansvar s
Ret tigheder</w>
Gr æn
AF SLUT
u p
amerikan sk</w>
1 18</w>
fa vor
inf o</w>
e en</w>
t gående</w>
lo gisk</w>
St o
ret ligt</w>
fors vandt</w>
par a
over trukket</w>
R O</w>
a vl
likvi di
dy rene</w>
dy be</w>
udvi dede</w>
globa li
ta ber</w>
DI RE
bø de</w>
ver s</w>
gennemsni ttet</w>
s ation</w>
ka sse</w>
intra ven
san d</w>
cykl us</w>
modtag eren</w>
fa ttet</w>
ha h</w>
gennem gå</w>
I l
glob alt</w>
anlæg get</w>
7 00</w>
præsiden ten</w>
overtru kne</w>
kl .</w>
rust frit</w>
væl ges</w>
skab s</w>
kl ov
ud førelse</w>
konkurrenc ereg
fort yn
afslu ttes</w>
K vin
uregelmæssi gheder</w>
sam fund
vari erer</w>
udtry kker</w>
udfør elsen</w>
pol ske</w>
fi eld</w>
dri ften</w>
sti kker</w>
inter val</w>
ed te</w>
T ager</w>
fly ttet</w>
j el
sko effici
S ek
blæ ser</w>
be varer</w>
struktur en</w>
Pak istan</w>
gul vet</w>
var en</w>
ski fter</w>
dig hederne</w>
arbej der
1. 1</w>
sam tale</w>
opbevar ing</w>
op stille</w>
B un
s et
hypo glykæmi</w>
J .</w>
sk an
forbere dende</w>
styrk et</w>
åb e</w>
sl and
ekstraordin ære</w>
S lu
her sker</w>
udtal t</w>
gi fte</w>
eksam ens
D R
naevn te</w>
fik ationen</w>
nøjag tige</w>
pu mp
Publi kationer</w>
ab on
påli delige</w>
S ør
Europ arå
ned bry
ryg gen</w>
pil ler</w>
2 10</w>
diskrimin ation</w>
lag re</w>
fri stede</w>
forespørgs el</w>
sk and
ag ner</w>
t ål
Her cegov
B åde</w>
kompetenc e
indled ningen</w>
wo od</w>
op kræ
transport en</w>
mø derne</w>
dri velse</w>
videnskab eligt</w>
funger ende</w>
lever ings
cy kel</w>
M IN
ved tagne</w>
sk ende</w>
h l</w>
frivil ligt</w>
Forvaltning skomitéen</w>
ki rur
cell ul
Net op</w>
arbejds marked
F ær
bi stå</w>
beklæ dnings
ma ssi
z e
parlament ariske</w>
kvot e</w>
korrup tion</w>
MARKEDSFØRINGSTILLADELS EN</w>
lo tt
S ti
forvent et</w>
top møde</w>
konven tionens</w>
go er
G B</w>
po kker</w>
ene stående</w>
ce u
sp ore</w>
fastsl og</w>
re al
ar d
øk ologisk</w>
strå ling</w>
Dire kt
fla ske</w>
stik prøven</w>
dyna miske</w>
bi s</w>
hil ser</w>
Val uta
procent del</w>
U L
197 1</w>
karri ere</w>
inve stere</w>
B R
for længe</w>
egen skab</w>
Ta i
profession elle</w>
leverand ør</w>
sli pper</w>
u sikkerhed</w>
sk op
første behandlingen</w>
over la
opmærksom heden</w>
foreløbi g</w>
vej r
narko tika</w>
indbyg gere</w>
k at</w>
sproc es</w>
fal sk</w>
Urugu ay</w>
K ære</w>
Kon klu
mindre tal</w>
A S
S ig
udval gt</w>
forand ring</w>
nøjag tig</w>
ekn ologi
klassi sk</w>
hæv der</w>
eg ori</w>
Mak ed
projek terne</w>
ind kal
tal ere</w>
firma er</w>
an te</w>
pp ede</w>
M T</w>
op ly
argu ment</w>
fællesskab slov
1 19</w>
reser ver</w>
ser en</w>
mund tlige</w>
h æl
fl øj
C ra
R ør</w>
integ ri
t ation</w>
kar nar</w>
inden landske</w>
T RU
Investerings bank</w>
VE LSE</w>
le dighed</w>
u hy
TS I</w>
Su b
3 50</w>
skon trol
plantebeskyttelses midler</w>
Bar ro
typegod kendelse</w>
tra k</w>
tje kke</w>
tilslu tter</w>
bet eg
Lom é</w>
12 3</w>
skær men</w>
poli ti</w>
on kel</w>
ud pege</w>
kvin de
tab let</w>
pa kning</w>
fortol kes</w>
fornøj else</w>
ro tter</w>
BESLUT NING</w>
begrun dede</w>
nu l</w>
M U</w>
1 13</w>
M anu
ingi mp
interven tion
sl o
rør e</w>
K vinder</w>
ro d</w>
ordre givende</w>
omstæn dighed</w>
fri heden</w>
ka ge</w>
reg n</w>
Re ttens</w>
in vali
bruger en</w>
mærk ede</w>
mo de</w>
Krist us</w>
kvali ficerede</w>
besk e
W ord
præmi e</w>
stemm e
M L
3 ,5</w>
defin erede</w>
com p
udny ttes</w>
borger skab</w>
V an
U r
overenskom sten</w>
tru er</w>
Rich ard</w>
il l</w>
Mari a</w>
eksperti se</w>
FF ER</w>
ac e</w>
An gel
fø dder</w>
bestand dele</w>
a sse</w>
P L
K lo
sym bol</w>
nem meste</w>
i tet</w>
Gen nem</w>
D re
ba sis
F ir
Sovjet unionen</w>
m rende</w>
Progr ammet</w>
van vit
sl in
mennesk elig</w>
cirk a</w>
måne ders</w>
po ol</w>
enstemmi gt</w>
12. 2006</w>
udbetal ing</w>
n ens</w>
Schen gen
fremskyn de</w>
se y</w>
opfordr et</w>
fi lo
ogra fi</w>
embeds mænd</w>
dygti g</w>
L eg
3 4
en siske</w>
lov ligt</w>
c as
anmel dt</w>
sol dater</w>
Nation al</w>
tal e
person ale
vindu et</w>
bure au</w>
brænd stoffer</w>
ska r</w>
ind ledes</w>
dre vne</w>
F IN
emask ine</w>
ci um
ma kker</w>
interven tion</w>
betegn elsen</w>
de partem
ud givet</w>
it h</w>
kvali t
Dat a</w>
øj en
for vri
Win 32</w>
v es
skontra kter</w>
sk æring</w>
repar ation</w>
hv a</w>
Sam hør
Udvikl ingen</w>
P har
st on</w>
du mme</w>
Ale x</w>
øj tn
K ol
Ændr ings
T A</w>
O k</w>
ri en</w>
byg gede</w>
Wash ington</w>
frem med</w>
fe ed
overvej er</w>
ot ek</w>
inform eret</w>
bre ve</w>
r er
Ro bert</w>
w n</w>
arke det</w>
Al drig</w>
komplek se</w>
hot eller</w>
forbin delsen</w>
for fa
P ok
T ar
p hosp
fal ske</w>
K ir
afhængi ghed</w>
H and
mi stan
de bi
ren gør
tri kot
N ATO</w>
ud brud</w>
g ni
A dre
objekti ve</w>
ö r
væsen et</w>
individu elt</w>
UD VAL
grupp es</w>
d rede</w>
parlaments medlemmer</w>
H un
leve tid</w>
hel lige</w>
J ordan</w>
am pe</w>
An tallet</w>
inter val
G år</w>
tid s</w>
B ang
op havs
prøve udtag
beskri ves</w>
ac et
S æ
P ow
H im
lø ser</w>
lov et</w>
beg æring</w>
al sk</w>
s næ
Europ e</w>
op træder</w>
hver v</w>
op tages</w>
Dan marks</w>
mulig gøre</w>
kontroller er</w>
hen ne</w>
k und
15 1</w>
for læn
åre vis</w>
Middel havet</w>
T EN</w>
opret holdes</w>
betal ingen</w>
mål inger</w>
håb e</w>
er t</w>
Fisk eri
udtry kket</w>
b ød</w>
kriteri um</w>
gyl dighed
H C
Føl g</w>
ski dt</w>
ty ve</w>
registr et</w>
m 3</w>
anvendelses området</w>
bi ot
Sp ani
Su ite</w>
al le
Wil li
O VER</w>
væ d
sle tte</w>
am ning</w>
sk ind</w>
profes sor</w>
myndig hedens</w>
klar hed</w>
synte tiske</w>
s di
dri kker</w>
territ orier</w>
ed b</w>
styrk es</w>
Fi re</w>
Ameri ka</w>
vej s</w>
press et</w>
forb an
telekommunik ation</w>
spur gt</w>
influenz a</w>
E RE
C lar
af giver</w>
komp ati
ali serede</w>
C ES</w>
for t</w>
embal lage</w>
de stil
beg re
der hen</w>
bekym rer</w>
Som mer
opfordr ing</w>
ny este</w>
OP BE
p ning</w>
Ale x
vare tage</w>
pan el
hæmoglo bin
Beret ning</w>
indgangs prisen</w>
St .</w>
grund forordningen</w>
L ER</w>
2 20</w>
spil de
skri g</w>
m ale</w>
E C</w>
tilbage betaling</w>
s ort
opdat ering</w>
geby r</w>
T elef
borg eres</w>
hind ring</w>
le v</w>
direktiv erne</w>
udval gs
nin gers</w>
hj erne</w>
Y e
u tilstrækkelig</w>
kon ge</w>
INDE HAV
ne ut
dør e</w>
natur en</w>
mellem rum</w>
ud gang</w>
land mænd</w>
katastro fe</w>
Vi sse</w>
forbruger en</w>
dan se</w>
Fu ck</w>
eg n</w>
mør ke</w>
drø mme</w>
ul ver</w>
b øn
bemærk ede</w>
glu co
dan s</w>
subsidi ari
Fa st</w>
fa g</w>
st eknologi</w>
b nede</w>
F em</w>
uundgå eligt</w>
kontin u
udbre delse</w>
pi n</w>
Gener al</w>
med ført</w>
be svar
nær ing</w>
le tter</w>
2. 3.
hen ven
O ri
Ener gi</w>
u gent
or g</w>
fand tes</w>
inter nt</w>
F AR
for arbejdet</w>
chok ol
Sar ah</w>
på lægger</w>
over ført</w>
he pati
analy sen</w>
sammen holdt</w>
dump ingimp
S he
ung doms
v ot
gul v
sna k</w>
ber o
RE S
K ur
plig tige</w>
h eli
eng elske</w>
de kor
maksim alt</w>
oper erer</w>
fast lagte</w>
typegod ken
ber ø
Ind one
efter middag</w>
ven tion</w>
und lade</w>
ressour cerne</w>
person al
13 8</w>
tvær timod</w>
J an
Hercegov ina</w>
. exe</w>
hund re
Produ kter</w>
2. 1</w>
Økonom i</w>
ma il
lære anstalt</w>
angiv elser</w>
del te</w>
5 43</w>
udelu kkes</w>
funkti onen</w>
afdel inger</w>
acceptab le</w>
H EN
Be handling</w>
m na
bemærk et</w>
go der</w>
P ris</w>
vok se</w>
sta bile</w>
skju le</w>
rig ht</w>
hydri der</w>
ho w</w>
b ind</w>
b an</w>
udelu kke</w>
red skab</w>
grupp erne</w>
Tun e
S mu
ind ledning</w>
for ladt</w>
be vi
Ni ck</w>
til beredt</w>
pa kken</w>
J imm
RØ RENDE</w>
ut h</w>
SN IT</w>
år sagerne</w>
Ch rist
na m</w>
far vel</w>
mod strid</w>
gli p</w>
0 6.
virksom hed
sv øm
P L</w>
i ets</w>
akva kultur
z iske</w>
ud sætte</w>
Træ k</w>
repræsentan terne</w>
ni k</w>
evalu erings
ejen domme</w>
AND RE</w>
ødelæg ger</w>
offentlig gør</w>
beret ningen</w>
D ok
M ur
tilrettelæg gelse</w>
K lar</w>
n on
forbruger beskyttelse</w>
for vejen</w>
in i</w>
fil tr
du kker</w>
str u</w>
C D</w>
se p
en er</w>
ven digt</w>
forenkl ing</w>
an det
pa use</w>
i so
forår sager</w>
el vis</w>
1 17</w>
principi elt</w>
offici el</w>
lig ende</w>
Result aterne</w>
stran sport</w>
mag ten</w>
før er
c op
admini strat
skjul t</w>
E ks
BESTEMME LSER</w>
udtry kte</w>
Re publi
Sam let</w>
øv re</w>
sku e
na bol
kirk e</w>
fra vi
amm oni
H ent</w>
Præ siden
y n</w>
lær ere</w>
ven til
S har
smer ter</w>
pati ent</w>
VED RØRENDE</w>
Co un
stoff erne</w>
LÆGEMIDL ETS</w>
rej sende</w>
fry gter</w>
AF SNIT</w>
kli ma</w>
0 8.
bi falder</w>
b erne</w>
perf ekte</w>
Problem et</w>
forber edt</w>
peg ede</w>
henvi sninger</w>
boli ger</w>
F år</w>
in es</w>
af skaff
se cu
sk æn
Undersøg elsen</w>
vej er</w>
v inden</w>
skov en</w>
spørgsmål stegn</w>
interessan te</w>
ap oteket</w>
asy l
juri sdi
juster inger</w>
sl ægt
br in
nem mere</w>
Hel d</w>
plej ede</w>
ons dag</w>
Li ban
ba ck
avan cerede</w>
he j</w>
N ame</w>
m æ
statu tten</w>
mon o
stj al</w>
arbejds markeds
STO FFER</w>
EF SA</w>
frem sætter</w>
af vise</w>
læ ste</w>
frem sendt</w>
Finansi elle</w>
do ssi
I L</w>
pat ent
t an</w>
pa sning</w>
far vet</w>
op ba
cha uf
P y
Sk øn
ret sstat
østri gske</w>
tenden ser</w>
re publi
kk el</w>
forsink else</w>
konkurr enter</w>
0 7
for ly
St ar
vek sel
far ten</w>
K ort</w>
frekven s</w>
farma kokine
po t</w>
udpeg ede</w>
ci tets
befordr ing</w>
nøjag tigt</w>
u tilstrækkelige</w>
akk umul
H E
va er
kør t</w>
FF ET</w>
B jer
hed sprincippet</w>
br om
overfla den</w>
må le</w>
bar ber
str y
arbejd stager</w>
20 1</w>
skra vene</w>
pa aga
fremm ende</w>
Mis s</w>
C e
frem stillingen</w>
regeringskon ferencen</w>
dag es</w>
i gangs
pati enten</w>
c ering</w>
analy serer</w>
Fisk eri</w>
opfyl delsen</w>
ma x</w>
interven tioner</w>
disci p
op gra
Vare beskrivelse</w>
vok sede</w>
sol gte</w>
i ii</w>
TRU FFET</w>
under kastet</w>
må ler</w>
fjer ner</w>
N CB</w>
udelu kker</w>
del taget</w>
tilføj et</w>
ord ner</w>
ka ss
omfa ttes</w>
spørgs målene</w>
Ser bien</w>
drej ede</w>
anmel dte</w>
19 68</w>
tredjem and</w>
sac char
dio xid</w>
ud sen
garan teret</w>
belig genhed</w>
op deling</w>
Lo u
tok sicitet</w>
dej lig</w>
fors vundet</w>
4 4
le p
fors vinde</w>
D V
kny ttede</w>
eri sk</w>
api n</w>
sni ttet</w>
russi sk</w>
N Y
Al geriet</w>
ny tte</w>
gennem gået</w>
regul eret</w>
meto derne</w>
told myndighederne</w>
klima ændringer</w>
Fælles skabs
partik ler</w>
Jerusal em</w>
rå varer</w>
an t
Servi ce</w>
Fol ke
reser ve</w>
eksi stens</w>
hydro xy
be sl
nær mer</w>
ind tage</w>
imøde gå</w>
enk el</w>
Fø dsels
udny ttet</w>
gå s</w>
ba se</w>
sni veau
F is
yde evne</w>
imøde komme</w>
att est</w>
val sede</w>
Maked onien</w>
0 4.
erhver velse</w>
k g
Jimm y</w>
øjtn ant</w>
Tjekk iet</w>
18 2</w>
gent ing</w>
LA F</w>
udform ningen</w>
el eg
forval tes</w>
AL E</w>
kry stal
injektions væske</w>
ansøger landene</w>
C enter</w>
mi e</w>
for handler</w>
afvikl ing</w>
Aut om
provin sen</w>
che fen</w>
For skel
utro lig</w>
f lam
lin jen</w>
I L
F ra
net værk
em bry
paaga eldende</w>
ler ing</w>
Mil j
J en
skri vning</w>
la tter
ejendoms ret</w>
chan cen</w>
ds et</w>
filo so
sproblem er</w>
result ere</w>
an z
0 5.
to fler</w>
sl æt</w>
blods u
tot al</w>
levneds middel
balan ce
S Æ
blø d</w>
kred s</w>
ud gå</w>
hemm elighed</w>
kom ne</w>
sk am
. int</w>
blo w
M and
compu ter
Har ry</w>
for klæder</w>
ugunsti gt</w>
ty sk
ki e</w>
fort j
g eligt</w>
Microso ft</w>
k et
fly tning</w>
bekræft else</w>
vedlige holdelses
stan ce</w>
kapi t
ad til</w>
A z
hjer t
syn ligt</w>
P ort
kjol e</w>
F edt</w>
Fa ste</w>
hjer te
br o</w>
veder lag</w>
fornuf tig</w>
kva dr
h entet</w>
de pre
Spani ens</w>
ø er</w>
ech ten
an ti</w>
be stan
B lom
lø fter</w>
administra tions
neg ativt</w>
C re
pla sma
mon et
lig n</w>
B ob
k væ
Dani el</w>
virk elighed</w>
eksem pl
amp er</w>
Euro pol</w>
B at
verdens markedet</w>
retfær dig
hushold nings
b lad</w>
forb uddet</w>
t z</w>
ir ri
ur erne</w>
rapporter ings
opba kning</w>
vegetabil ske</w>
ka bin
aktivi tet
m ord
mis lig
For pligt
sign aler</w>
O S</w>
udviklings lande</w>
sae ttes</w>
fortol kningen</w>
æn dene</w>
dimen sioner</w>
gt s
d ge</w>
tvan gs
i.a. n</w>
eksklu sive</w>
ÆR K
indrømm es</w>
an lagt</w>
P il
Of fici
ra cer</w>
måne den</w>
Ru ssi
vare tager</w>
agent urets</w>
h est</w>
anmo des</w>
væ sker</w>
sø gerne</w>
lu kning</w>
indsam le</w>
h op</w>
syg dommen</w>
begræn sende</w>
ne den</w>
behandl inger</w>
af skaffelse</w>
1 14</w>
D eri
D ræ
tt i</w>
sammenlign elige</w>
eksportrestitu tioner</w>
stats borger</w>
BET IN
sk ro
over tage</w>
ly skilde</w>
audio visuelle</w>
Mak si
nø gle</w>
tekni kker</w>
skil der</w>
li tet</w>
fler tallet</w>
For ker
Betænk ningen</w>
hal skæde</w>
fy ret</w>
P et
sid dende</w>
hom o
B AT
inter institutionelle</w>
sol en</w>
c an</w>
ver i</w>
ag e
ad gangs
mulig gør</w>
mang el
C amp
inspi r
Stil le
støtte ordninger</w>
fra drag</w>
legi ti
an fald</w>
An aly
mø bler</w>
ko den</w>
vedrør te</w>
tør rede</w>
fly ver</w>
akti ons
bestemm elsen</w>
ag o</w>
LI TI
præsent ere</w>
an ge</w>
speci el</w>
Lig nende</w>
sta d</w>
føl gerne</w>
Si d</w>
z er</w>
ent re
gennemsni tlig</w>
Fan dens</w>
ø steuropæiske</w>
forud sætninger</w>
Revisions rettens</w>
L am
sti kke</w>
ly m
Inform ation</w>
gra fiske</w>
fro sne</w>
Mari e</w>
mand ag</w>
ko bl
data ene</w>
effek ten</w>
ba vi
bjer g
for deles</w>
ær ingen</w>
æ gt</w>
u acceptabelt</w>
ci vil</w>
Økonom isk</w>
fro sset</w>
analy sere</w>
Sam me</w>
kvar ter</w>
ind hente</w>
græn sef
Ti dendes</w>
for trin
Hol land</w>
O pr
bort skaffelse</w>
Å n
st el
Grøn ne</w>
bu kser</w>
A rk
velly kket</w>
le deren</w>
Bil l</w>
tal rige</w>
kry stal</w>
ang rebet</w>
mor s</w>
R et</w>
Atom energi
Kongeri ges</w>
æd le</w>
ø erne</w>
fleksi bel</w>
dæ mp
træn ger</w>
be arbejdning</w>
place bo</w>
erstat nings
ot s</w>
mellem lang</w>
liber ale</w>
fornuf tigt</w>
Jac k
J ø
. 1</w>
træ er</w>
w ar
mistan ke</w>
skri ve
Ra y</w>
s nu
kna ppen</w>
el en
bo ok</w>
Li echten
An t
ig hed
vi vl
va sker</w>
indvand rere</w>
W ien</w>
Sky d</w>
Kap tajn</w>
hol m</w>
flu gt</w>
præci sere</w>
hjem met</w>
Politi et</w>
M FI</w>
tre kant</w>
frem stiller</w>
Mar k</w>
kom st</w>
Dan ny</w>
beskæftig ede</w>
sk amp
ple jer</w>
fordr inger</w>
Ø MU</w>
w hi
ba l</w>
Central -</w>
gr å</w>
frem lægger</w>
kker s</w>
effek ter</w>
arbejds dage</w>
12 2</w>
civi li
in ficeret</w>
Le der</w>
fry sning</w>
Par k</w>
forsknings -</w>
hjæl pen</w>
V and</w>
fø de</w>
So ftw
stren gere</w>
overbe visning</w>
A ri
20 6</w>
træ kkes</w>
tyde ligvis</w>
V eg
pri vati
identi fikations
øv else</w>
tredjel an
sp is
ed ler</w>
l on</w>
Tra kt
H ED
E LSE</w>
mennesk et</w>
inde hav
an n</w>
13 9</w>
e po
W est
øjebli kkelig</w>
he ste
vi tets
in kl.</w>
be drag
ar men</w>
ag else</w>
op kræves</w>
Tr ans
Direkti vet</w>
red nings
ekspon eringer</w>
kan sk</w>
på pege</w>
hy bri
raci sme</w>
import licenser</w>
grupp ens</w>
døds fald</w>
D un
un ød
kompetenc er</w>
ben et</w>
For stået</w>
D an</w>
ti c
hel dige</w>
BETIN GELSER</w>
symbol er</w>
ent y
Land distri
søj le</w>
R ot
Char les</w>
rul ler</w>
revi sionen</w>
by ens</w>
P hi
E lekt
Alban ien</w>
san de</w>
CI A</w>
organis ationerne</w>
ned bringe</w>
so l</w>
etabler ingen</w>
udvæl gelse
ru ter</w>
ramme bestemmelserne</w>
klassi ficeret</w>
vi ru
e z</w>
drø fter</w>
træ dende</w>
j orde</w>
jap anske</w>
N I
j an</w>
J im</w>
sek tion</w>
arbejd s</w>
af hjælp
Gennem førelse</w>
0 000</w>
job bet</w>
bi produkter</w>
U P</w>
FOR B
taknem melig</w>
b ind
gennemfør te</w>
direktiv s</w>
defini tioner</w>
for hånds
be drift</w>
ut s</w>
om vendt</w>
at lan
P rø
kon fi
sta k</w>
invester ingerne</w>
du mt</w>
PRO DU
æ mp
ti e</w>
sor ter</w>
Viden skab
c r
akti veret</w>
der næst</w>
bok s</w>
på virkning</w>
møn stre</w>
mi k</w>
Ud gifter</w>
kun sti
sam tidigt</w>
om talt</w>
c en
afske dig
12 8</w>
sol vens</w>
certi ficering</w>
samarbejds villige</w>
premier minister</w>
kapi tali
øv ede</w>
fy ren</w>
Budget udvalget</w>
forekom st</w>
R ed</w>
C as
per atur</w>
kl og</w>
integri tet</w>
op p
C 4</w>
ve st
op stod</w>
humanit ær</w>
TE K
lå ne</w>
ta ske</w>
fe sten</w>
d skode
kk ere</w>
gravi ditet</w>
12 6</w>
æn ger</w>
kræ ft
f ekt</w>
sta dig
oi der</w>
gem mer</w>
x yl
ssek ret
fastsl år</w>
diskrimin erende</w>
ac k
bl ond
u til
ator en</w>
hensig ten</w>
Dy res
D om</w>
Ty pe</w>
Ro y
4. 2004</w>
tru sler</w>
tv ing
græ sk</w>
gen es</w>
t ømm
g h
budge tter</w>
sv ømm
af kast</w>
M AN
universi teter</w>
I denti
foder stoffer</w>
ingredi enser</w>
verden splan</w>
udøv es</w>
udvi ser</w>
bar ne
producent en</w>
F ond</w>
Bem ærk
reser ve
betal ing
afgift splig
års beretning</w>
p ag
ke y</w>
forsvar s
cer ende</w>
kla sser</w>
TI K
sjæl den</w>
godken delser</w>
be kost
par ts</w>
kende tegn</w>
forskel lene</w>
beskæf tige</w>
sk or
betjen ing</w>
tim ers</w>
tag ere</w>
m mol</w>
luftfart s
C han
tt elses
em b
ofr ene</w>
le det</w>
instal la
der som</w>
mask inen</w>
i k</w>
dygti ghed</w>
B SE</w>
gyl digt</w>
be fale</w>
h året</w>
am s</w>
hu man</w>
book ing</w>
Styrelses rådet</w>
em al
si ko
la dning</w>
12 1</w>
myr det</w>
h o</w>
forel sket</w>
ly kkelig</w>
al men</w>
E ff
konven tioner</w>
IND HOL
15 7</w>
S hel
Ø st
transa ktion</w>
sammenhæn gen</w>
In su
Na vn
In genting</w>
l ænd
andet steds</w>
T AR
Eks emp
betrag tet</w>
Åb n</w>
vig ation</w>
omstæn dighederne</w>
d ét</w>
be bo
dero vre</w>
F ac
kur s
di tion
han di
P rinci
for vand
F jern</w>
deri k</w>
B C</w>
foreg å</w>
P C</w>
stig ninger</w>
histori er</w>
re akt
oter api</w>
fe ber</w>
ch arter</w>
in ation
Del ors</w>
w s</w>
kker t</w>
følsom hed</w>
ber egne</w>
Si tuationen</w>
etabler es</w>
Middel havs
ko p</w>
is a</w>
skel ov</w>
ca p</w>
mor der</w>
V ED</w>
halv del</w>
chef erne</w>
L .</w>
w a</w>
erhvervs mæssig</w>
H ig
Bor gernes</w>
4 8
r erne</w>
af kald</w>
Der med</w>
syn lig</w>
rør er</w>
arbejds giver
I P</w>
2. 2</w>
ski ftet</w>
overgangs periode</w>
modi ficeret</w>
bet ød</w>
imp ortt
de ci
sm y
F abri
Besky ttelse</w>
opdag et</w>
g el</w>
nerv øs</w>
ophæ ve</w>
integr ere</w>
Bel gi
hal s</w>
far er</w>
stren g</w>
potenti elt</w>
på vise</w>
strøm men</w>
Ændr inger</w>
jek t</w>
ben ch
I V
mark ant</w>
g gelig</w>
T C</w>
v ine</w>
universitet et</w>
for e</w>
bi e</w>
al vor</w>
a i</w>
bli v</w>
bereg nings
ind trængende</w>
jo int</w>
prote in
c amp
tu sin
blo kke</w>
27 0</w>
tilbageven den</w>
te am</w>
C ON
kob ber</w>
in eret</w>
sam ler</w>
s ar
alder s
S C</w>
ES F</w>
BAT CH
redig ere</w>
koordin ere</w>
støtte foranstaltninger</w>
forsink et</w>
ha ver</w>
græn sekon
oliven olie</w>
demon str
trikot age</w>
ü n
sp ø
ind tager</w>
adskil t</w>
C .
ar us</w>
A ir</w>
udbre dt</w>
m ende</w>
Z i
skyl den</w>
IN DL
række følge</w>
dia bet
Ameri kas</w>
bavi rin</w>
over vinde</w>
obser va
gi f
15 6</w>
sammenlig ne</w>
vid under
uni ons
op gørelse</w>
Fly t</w>
s unde</w>
P H
ma den</w>
2 2
ansøg ere</w>
ge der</w>
nær t</w>
assi stent</w>
D ren
udby dere</w>
for holder</w>
st jerne</w>
sp ræ
scan ner</w>
restaur ant</w>
l atin
Nor malt</w>
Off ent
Gennem sni
læ sning</w>
14 08</w>
mar i
ktat en</w>
- Hvor</w>
sikkerhedsstil lelse</w>
he ste</w>
besky ttes</w>
ly den</w>
18 9</w>
sm ag
in geni
religi øse</w>
EM EA</w>
kam era</w>
indbyg get</w>
F C</w>
1, 3</w>
europæ ere</w>
medlemsstat ens</w>
ak ut</w>
produkt ets</w>
L e</w>
politik ere</w>
indtæg terne</w>
af sen
tag ende</w>
fore skrevet</w>
sk es</w>
discip lin</w>
uforholds mæssigt</w>
sty re
rø g</w>
D A
In stru
anti virus</w>
L en
u kendt</w>
hal ve</w>
bri tisk</w>
slu ttede</w>
mi ra
D is
va g</w>
konver gens</w>
arbejds tid</w>
å let</w>
tu rel</w>
straff eret
over stået</w>
tek st
phen yl</w>
reg len</w>
16 9</w>
lø ft
r ens</w>
af brudt</w>
Å r</w>
B rø
vi gt</w>
Folkere publikken</w>
ni s</w>
d amp
indikat or</w>
beklæ dning</w>
v ul
ud fol
to g
deri er</w>
blow job</w>
konsekven s</w>
ster ede</w>
ban er</w>
Lo v</w>
udlø bs
tredje del</w>
1, 4</w>
lo g
forud sig
ho c</w>
fly ttede</w>
vær elsen</w>
try kt</w>
an o
17 8</w>
st ende</w>
b ere</w>
toba ks
r and
organ erne</w>
over ing</w>
str anden</w>
blond iner</w>
yd my
produc eres</w>
lang sigtet</w>
hotel let</w>
sem eto
læ ses</w>
eksport ører</w>
K er
1 16</w>
ka stede</w>
il d
mål rettet</w>
Ar t
ra ce</w>
li d</w>
Ret lige</w>
suver æn
a e</w>
dyna misk</w>
bræn der</w>
A gent</w>
hjul pet</w>
stu den
li ta
Tai wan</w>
resul terer</w>
J ord
l l</w>
E .</w>
ægte skab</w>
toi let
li tter
ine a</w>
B T
r æn
g dom</w>
em or
c r</w>
B B</w>
Kor ea</w>
Bli ver</w>
v æn
grun dig</w>
Sam men</w>
SY N</w>
Dyres undhed</w>
by erne</w>
rit y</w>
fu sion
beslutningstag ning</w>
Sa int</w>
lang som</w>
for løbet</w>
ud sættelse</w>
reag erer</w>
m v</w>
h øn
an delen</w>
del ø
13 1</w>
kap sler</w>
. 000</w>
Ø n
Nem lig</w>
lo gi
havn en</w>
af viser</w>
F ot
min er</w>
betrag te</w>
stå s</w>
selskab erne</w>
bes artan</w>
Liechten stein</w>
tt elser</w>
kort ere</w>
disci pl
gy mna
z ol</w>
t else</w>
vari ab
Result atet</w>
t ef
ger i</w>
Al li
stadig væk</w>
kil de
ki r
mods at</w>
markeds føres</w>
ro s</w>
ko di
integ ra
overrask else</w>
Foranstalt ninger</w>
kre dit</w>
An na</w>
AD VAR
o ti
lig efre
virksom heds</w>
told kontingenter</w>
Milj ø</w>
reg nings
an bragt</w>
con dition</w>
benz in</w>
A 3</w>
feed back</w>
Ki rk
f fici
økonom ier</w>
virk nings
DIRE KTI
bu tik</w>
krimin elle</w>
budget mæssige</w>
Po si
still ing
hu g
und heden</w>
skri terierne</w>
Fr i</w>
læge middel
for mål
udvi se</w>
ko sme
væ vet</w>
gal s</w>
F F</w>
bi stands
tusin der</w>
an fører</w>
ki d
S l
grad vist</w>
Kon ge</w>
svær ger</w>
bri ller</w>
administr eres</w>
sko v</w>
i sland
9 00</w>
modtag er
ir o</w>
kol dt</w>
seri øst</w>
plan lægger</w>
e se</w>
Ki g</w>
v rede</w>
under kastes</w>
f ede</w>
stren gt</w>
Ver den</w>
For mål</w>
ved ro
smar t</w>
bemærk e</w>
profession el</w>
pr en
B ry
lo s</w>
Tysk lands</w>
sø gende</w>
el ov
beny ttet</w>
Se cu
1, 2</w>
ran sport</w>
bæredygti ge</w>
ved ygti
afvi ses</w>
f lade</w>
ci um</w>
kon to
ind tagelse</w>
certifik atet</w>
L ind
5 -</w>
fic eringen</w>
Samhør igheds
minu tters</w>
lø g
sø dt</w>
brun etter</w>
14 9</w>
seksu elle</w>
Kon takt</w>
rens ning</w>
en dte</w>
x a</w>
ly n
ment et</w>
Ti den</w>
B P</w>
stat ernes</w>
ud lån</w>
stjene ste</w>
C 3</w>
17 0</w>
mu ne</w>
sygeple jer
or lov</w>
Wor ld</w>
va ere</w>
rest koncentrationer</w>
i kk
spil ler
sam ordnet</w>
gli mrende</w>
mærk eligt</w>
heli kop
bet æn
c ul
selv mord</w>
foku serer</w>
Pro fes
Her til</w>
Af tale</w>
bereg ninger</w>
W ol
LS ES
ør ens</w>
friheds rettigheder</w>
ban e
A Y</w>
ån den</w>
frem ført</w>
sætt else
læ kker</w>
hemm elige</w>
klæ de</w>
arbejdskra ft
T RE
køn s
u ret
tradi tion</w>
mekan isk</w>
Cla ude</w>
bygge -</w>
Liban on</w>
Sto ck
tro værdighed</w>
kom it
dyres undheds
an befale</w>
i j
styr elsen</w>
overbe vise</w>
a ch
ST RU
udenrigs minister</w>
sacchar ose</w>
dom stole</w>
sø g</w>
Christi an</w>
Atlan ter
ssi tuationen</w>
sp rø
gla s
proced ure
ro se</w>
j agt</w>
af gav</w>
Oper atør</w>
press en</w>
importer ede</w>
morgen mad</w>
Ø j
dæ kkes</w>
dan nes</w>
F lu
Bo b</w>
mi l</w>
Tune sien</w>
familiemed lemmer</w>
sår bare</w>
bel agt</w>
K am
G jorde</w>
garan terer</w>
indi ske</w>
fel ter</w>
eksper t</w>
vide regi
mult ination
kar t
separ ate</w>
jern -</w>
ti tel</w>
o ut</w>
henvi st</w>
en i</w>
Æ L
fri taget</w>
Imp ort
sam vit
re siden
stø tter
l s
associ erede</w>
Tu be</w>
vand veje</w>
myndig heds</w>
i se</w>
N ort
mo bile</w>
0 6
toler ance</w>
tol den</w>
H ånd</w>
gem t</w>
frem sendes</w>
til sammen</w>
H O</w>
re spon
regel mæssig</w>
vare mærke</w>
T omm
ægt ef
ind sprøj
A dam</w>
slov ak
D F</w>
fre den</w>
træ nings
overra sket</w>
bureau kra
røv hul</w>
M .</w>
ele vat
Tekn iske</w>
institution el</w>
fru e</w>
bø der</w>
Fre d</w>
konferenc er</w>
k ager</w>
Indone sien</w>
F. eks.</w>
er n</w>
hydro gen
fø d
luft fart</w>
dy b</w>
løs hed</w>
Wal ter</w>
hv ori
pa tter</w>
miner al
ven ligt</w>
pla de</w>
forbru ger</w>
tje kk
sidi et</w>
by dende</w>
u forenelig</w>
fuld mæg
Lissabon traktaten</w>
18 5</w>
fødsels dag</w>
embal lag
sti d</w>
partner skaber</w>
Luft fart
ud adtil</w>
ES CB</w>
u gers</w>
kg m</w>
op stilles</w>
yl en</w>
konklu deres</w>
gu tter</w>
bed stem
man s</w>
hel bred</w>
form entlig</w>
ba b
tilkny ttede</w>
adskil ler</w>
ta be</w>
t ing
publik ation</w>
ga de
vok set</w>
kon jun
F em
skab elsen</w>
ari a</w>
tarif eres</w>
pro filer</w>
LAN DE
ka sser</w>
1. 2</w>
akti onen</w>
bemærk elses
stu e</w>
5 000</w>
op hi
T ale
tilbag em
etabler ings
St ru
importer et</w>
IN GER</w>
til lægger</w>
forsink elser</w>
C hu
vi ce
giv erne</w>
sm a</w>
klag eren</w>
bes vær</w>
hen vende</w>
lo ok</w>
betj ene</w>
ER A
12 9</w>
vi fte</w>
sekret æren</w>
under støtter</w>
referenc e</w>
stri der</w>
operat ør</w>
fly et</w>
cirk ul
m oner</w>
arbejds vilkår</w>
ør ende</w>
to get</w>
finan ser</w>
IN TER
ud slæt</w>
St ål
spro get</w>
institution ernes</w>
c em
op hører</w>
bedømm else</w>
Portu gals</w>
PRODU K
å ber</w>
ri l</w>
stats -</w>
carbon hydrider</w>
produkti vitet</w>
p el
mass age</w>
for tiden</w>
si tet</w>
mon tering</w>
under retning</w>
fornem melse</w>
eli v</w>
distribu tions
ta s</w>
el and</w>
an ten</w>
d å
VEN TU
2 30</w>
k ede</w>
gi der</w>
forhåb entlig</w>
transporter es</w>
k re</w>
D NA</w>
car b
søg es</w>
mand s</w>
autom atiske</w>
O ut
hæ mmer</w>
ger ende</w>
eksam en</w>
Gi b
fon dens</w>
beslutnings forslaget</w>
retfær digt</w>
fjen der</w>
accep t</w>
stjæ le</w>
kine sisk</w>
gennemsigti g</w>
for øge</w>
me xi
ud nævnt</w>
smi de</w>
lu k
k W</w>
forbrænd ings
fi xer</w>
ST E</w>
B ir
rettig hederne</w>
frem sendte</w>
spri ser</w>
mid t
erhvervs mæssige</w>
befolk ningens</w>
s næv
ligefre m</w>
person ers</w>
12 7</w>
O FF
DIREKTI V</w>
Vi r
tu sind</w>
under rettes</w>
Tomm y</w>
ge j
es sen
tjene sten</w>
epi de
lø bne</w>
forskel ligt</w>
s onen</w>
kan ter</w>
app el</w>
hjem land</w>
instal lere</w>
li kationer</w>
el at
kultur er</w>
klag e
inter im
indi kationer</w>
adfær dskode
J f.</w>
spi se
hø res</w>
fremgangs måder</w>
hav en</w>
bemyn diget</w>
Jo s
S try
C S
stimul ere</w>
nær mest</w>
bør ns</w>
udveks le</w>
seri en</w>
for enkle</w>
administr erende</w>
le vedygti
ka u
ck ing</w>
an søger</w>
Si ger</w>
lå st</w>
kon gen</w>
leg eret</w>
hen lede</w>
Fødsels dato</w>
stol d
TA L
u c
sek und</w>
m uni
20 7</w>
sl erne</w>
ski d</w>
k le</w>
hepati tis</w>
tilfre dse</w>
kontrol ler</w>
14 5</w>
sen gen</w>
St ri
ot land</w>
Tu ri
B 3</w>
AL T
3. 1</w>
å n</w>
cy klu
Vi et
N ord</w>
tiltræ delsen</w>
kk els</w>
buti kker</w>
fore skrevne</w>
fo lie</w>
de st</w>
fang ster</w>
tu sinde</w>
industri ens</w>
bogsta ver</w>
be stil
so eg
met ho
ma ge</w>
af holder</w>
undskyl dning</w>
satelli t
1 107</w>
udny ttelsen</w>
besø gende</w>
ky s</w>
vej s
Gro up</w>
DE TS</w>
be st</w>
enc e
slå ede</w>
fre delig</w>
0, 1</w>
o gr
on ation
lø g</w>
fort æl</w>
Ch ris</w>
ker a
Cla ire</w>
udveksl ingen</w>
kon stitu
K el
skøret øjer</w>
A ff
tør rer</w>
multi p
håndhæ velse</w>
V .</w>
beret ninger</w>
vær d
sho w</w>
mm ede</w>
med tages</w>
en hed
r ingerne</w>
le derne</w>
fa c
al s</w>
de me</w>
US D</w>
ind stille</w>
forsikrings selskaber</w>
sla ppe</w>
kompon ent</w>
Syn es</w>
G M
udval gs</w>
om sorg</w>
sky g
be søgte</w>
S han
Nation ale</w>
an holdt</w>
ter apeu
hæ vet</w>
bille tter</w>
amm erne</w>
LAN D</w>
beskri ve</w>
undersøg elserne</w>
aftal es</w>
klu b</w>
str eng
plan et</w>
hid tidige</w>
hypp ighed</w>
ci ga
studi e</w>
le delsen</w>
a st</w>
Ar t</w>
sekretari at</w>
firma et</w>
fal d
ed ri
datter selskaber</w>
Sk yl
tet ra
p agten</w>
Vi de
plat form</w>
k væg
i v</w>
Fol ket</w>
viden skabs
ol den</w>
for vol
dels ens</w>
mål sætningerne</w>
lo ftet</w>
som meren</w>
An der
Fødevare kæden</w>
Anven delsen</w>
12 4</w>
svin ek
emb aller
Sy rien</w>
E g
støtte ordning</w>
Fri st</w>
sakti viteter</w>
a sien</w>
V C</w>
ud buds
sign al
en et</w>
V IS
4 50</w>
Z o
oblig ationer</w>
s være</w>
Ek sport
jurisdi ktion</w>
yn gre</w>
stra f
teg ning</w>
E VENTU
D .
tilslu ttet</w>
kirk en</w>
ansvar ligt</w>
7 6
sti ft
W a
Middelhav sområdet</w>
nett o</w>
Faelles skabet</w>
ind samlet</w>
M ÆRK
Bel arus</w>
medi erne</w>
Si de</w>
inde bære</w>
udst edte</w>
komprom i
God kendelse</w>
række vidde</w>
J eres</w>
tilkny ttet</w>
sta dium</w>
forlæn get</w>
al arm
S øn
delses dato</w>
artik els</w>
L ang
5 6
lå ne
hu r</w>
c elle</w>
ube ha
soci ali
u ligheder</w>
15 9</w>
kunder ne</w>
f lag
in va
Ni ce</w>
v elses
ordfør erens</w>
ge jern</w>
Tjekk iske</w>
tag ning</w>
ind draget</w>
konver gen
car bo
opga ven</w>
an liggende</w>
åb nede</w>
kæ de</w>
for try
tidspun kter</w>
an tage</w>
sæ det</w>
som mer</w>
ophæ vet</w>
angiv elsen</w>
Sty rk
fisk ere</w>
af visning</w>
D ra
mo dig</w>
f åre
ban aner</w>
Stø tten</w>
201 9</w>
Ban kens</w>
par ternes</w>
ma s</w>
in -</w>
F jern
EVENTU ELLE</w>
fremm es</w>
an der</w>
sub stitu
af sagt</w>
hæn ge</w>
B A</w>
ven tionen</w>
oni ster</w>
forbedr er</w>
Al lerede</w>
si te</w>
g len</w>
A la
suppler er</w>
tt y</w>
et en</w>
esy re</w>
svov l
Nær heden</w>
Viet nam</w>
sp ring</w>
sam taler</w>
da y</w>
Må l</w>
somkost ningerne</w>
registrerings databasen</w>
fil men</w>
eu .int</w>
hy dra
samhør ighed
operativ system</w>
opdag ede</w>
A 5</w>
ser nes</w>
St art</w>
år ne</w>
z on
udny tter</w>
ti sh</w>
institu tionen</w>
fremgangs måden</w>
byr der</w>
rets mødet</w>
Bet ing
ss a</w>
kraf tige</w>
ekstre mt</w>
kry p
dann elsen</w>
S ing
ud lån
r ager</w>
udny ttede</w>
forfatnings mæssige</w>
gti g</w>
regional politik</w>
konsult ationer</w>
juster es</w>
fi lanaly
stæn ger</w>
onation al
tilgæng elighed</w>
stål industrien</w>
med virk
T us
Ma skiner</w>
FOR MA
regn skabet</w>
S w
ø ko
17 7</w>
krist ne</w>
fly gte</w>
skjul te</w>
lever ancer</w>
Bed ste</w>
forfat ningen</w>
an tag
po i
M anden</w>
S Ø
Næ sten</w>
konsoli derede</w>
ver denen</w>
in put</w>
b lande</w>
ci teten</w>
be stod</w>
ra v</w>
E G
Ombuds manden</w>
tiltræ delse
udstø dnings
komprom is
fa der</w>
E G</w>
A ni
result at
de centrali
tilbaget ræ
sa ttes</w>
V eterin
udfyl de</w>
tje kker</w>
ss al
lå s</w>
beg reb</w>
Ro ad</w>
of f</w>
br ud
bekym rede</w>
under stø
Ru st
subsidiari tetsprincippet</w>
l kke</w>
ansi gts
gul d
prioriter inger</w>
k ing</w>
an dens</w>
indbyg ger</w>
ta min</w>
T vær
T ari
ly ve</w>
ind ledte</w>
hukomm else</w>
vok sen</w>
ut vivl
palæstin ensiske</w>
konfli kten</w>
dygti ge</w>
C le
k es
fi t
fremhæ ver</w>
aftal te</w>
F l
w ard</w>
tokol len</w>
stå ede</w>
re kru
e tten</w>
tom me</w>
D al
ri bavirin</w>
b rej
sandsyn lighed</w>
modu ler</w>
brø dre</w>
Jer n
Fa x</w>
N ø
stj ålet</w>
kandi dater</w>
ka ka
sy ste
G ali
ber en</w>
an æmi</w>
in tet
hør inger</w>
vog nen</w>
la h</w>
hi az
del tids
af skaffe</w>
kop ier</w>
Pa ul
mo bil</w>
fedt stoffer</w>
bekost ning</w>
tru et</w>
op sving</w>
moni tor
europa. eu</w>
dæ kkede</w>
Ind ledning</w>
ved r
k r</w>
forbere delsen</w>
mi sly
for kyn
Ma j
intellekt uelle</w>
an ne</w>
P ress</w>
hæm mere</w>
In stans</w>
oven på</w>
køle skab</w>
fejlag tigt</w>
for stod</w>
bi ologisk</w>
akt u
imp ul
ar ch</w>
CP A</w>
kon fron
Deri mod</w>
KOMMISSION ENS</w>
Ti p</w>
S ønner</w>
præmi er</w>
der ens</w>
påvirk es</w>
giv elses
ta vs
symp tom</w>
sam les</w>
li ci
park erings
om tr
mi ted</w>
instal lation</w>
råd giver</w>
an søgt</w>
G AN
O VER
udryd delse</w>
oplys nings
ad y</w>
V A</w>
trafi kken</w>
om lægning</w>
foret og</w>
trom bo
si mul
Su per
De ut
opmun tr
S S</w>
A G
comp utere</w>
ac cel
Kø ret
plig ter</w>
ok e</w>
N ig
bom be</w>
V ene
3 18</w>
nin ger
et c</w>
altern ativer</w>
Sør g</w>
Pok er</w>
ha veren</w>
In d</w>
regul erede</w>
restaur anter</w>
Barro so</w>
for bi
agg reg
retningslin je</w>
kred se</w>
pri se</w>
O l
et han
beskre vne</w>
bræn de</w>
brev veksling</w>
ligeg yl
bag grunden</w>
secu riti
s år</w>
dren gen</w>
deleg eret</w>
ag ne
S lå</w>
hæ ve</w>
koncer nen</w>
vel sig
bop æl
Mel lem</w>
håb et</w>
sti n</w>
spil le
sammenlig nes</w>
skon ferencen</w>
NT 1</w>
utvivl somt</w>
soci alistiske</w>
Inds til
skær inger</w>
kammer at</w>
fort sættelse</w>
ude stående</w>
el in
b ly
oper ationen</w>
Skøn t</w>
n elsen</w>
C ali
A B</w>
a et</w>
rå ds</w>
avan ceret</w>
Generaldirektor atet</w>
Fig ur</w>
bedri ften</w>
akt indsigt</w>
afsl øre</w>
v rige</w>
for året</w>
Op rettelse</w>
A C</w>
ri tu
hæn g</w>
a ci
sp orten</w>
bring ende</w>
not erer</w>
eksemp elvis</w>
EN DE</w>
til kommer</w>
s y</w>
gø dning</w>
ær ende</w>
morgen en</w>
d op
overvå gningen</w>
forbry delse</w>
handi cap</w>
forretnings orden
impon erende</w>
fa x</w>
på stande</w>
kon g</w>
De sig
dobbel te</w>
Dom stol</w>
udvæl gelse</w>
udpeg es</w>
sta b</w>
do ktor</w>
sl ands</w>
di esel
usu l</w>
repræsent ere</w>
fænom en</w>
for nø
c a.</w>
fast læggelsen</w>
s ningerne</w>
hjemme hørende</w>
Y o
qu in
missi on
Kon trol</w>
Sikker hed
Mat eri
FOR M</w>
vi sende</w>
fremhæ vet</w>
infrastruktur en</w>
Han del</w>
s stat</w>
w er
hove der</w>
hemm eligheder</w>
island ske</w>
in erne</w>
tilpa snings
K vali
publik um</w>
ni a</w>
nation ali
ju st</w>
ud førte</w>
suveræn itet</w>
F lo
oli n</w>
hydr at</w>
for neden</w>
facili tet</w>
hav ne
B E</w>
é s</w>
beslut ningerne</w>
Softw are</w>
ru te</w>
Z hon
sc re
H ow
unor mal</w>
illu str
STØ T
transi t</w>
kul turel</w>
Tro ds</w>
samfun dets</w>
maksimal grænseværdier</w>
regi stre</w>
OL T</w>
ds ler</w>
Ra chel</w>
ler ende</w>
forsk ud</w>
G æl
år hundre
st s</w>
op give</w>
forpligt ede</w>
identi ficeres</w>
fleksi ble</w>
Bul le
mil f</w>
ger nings
visu m
o b</w>
ud peger</w>
sul fon
lokal er</w>
kolle gi
For retnings
var et</w>
fakt ura
D K</w>
17 5</w>
værdi papir
bræn dt</w>
SO M
14 8</w>
hoved sagen</w>
F ry
spr øv
arbejds gruppe</w>
23 5</w>
em e
ku gle</w>
Oplys ningerne</w>
ra s</w>
forklar et</w>
animal sk</w>
9 9
kamp agne</w>
tr yl
th a</w>
materi alet</w>
J or
a ir
P atri
lø bs
er ne
beskytt else
3 3
kommerci el</w>
K øb</w>
S vag</w>
kur sus</w>
informations -</w>
sk ør
event yr</w>
disp ens
d ar
1. 7.
Forsk nings
vent ure</w>
B .
forb yder</w>
XX X</w>
19 69</w>
syn ge</w>
op føre</w>
le vede</w>
mor e</w>
syn dr
prote in</w>
kø bet</w>
gen oprette</w>
der hjemme</w>
arbejds givere</w>
DELS ER</w>
es sour
P eg
elektro n</w>
Ved rørende</w>
Associ erings
ad gang
ni tr
n go</w>
P G</w>
passi ver</w>
Gennem se</w>
Wo w</w>
I T
stu dere</w>
instrument et</w>
al de
G em</w>
T ot
IN FORMA
p tion</w>
nes s</w>
G ul
7 7
amin o</w>
M old
C op
v amp
fly vning</w>
NA CE</w>
vel stand</w>
radi o</w>
foret ru
start ende</w>
ogra f
ef in
2. 4.
Agen da</w>
inve stor</w>
simp el</w>
bæredygti ghed</w>
Rapp orten</w>
ANVENDELS ES
4 5
w in</w>
s hal
over taget</w>
B ol
gs han</w>
ægtef æl
sp y
overvå ges</w>
Over vå
ss ede</w>
dyr s</w>
pa knings
Ta kket</w>
relevan s</w>
ci l
Ma x
hå bede</w>
halv år</w>
fla sker</w>
fu sioner</w>
L ørdag</w>
ungar ske</w>
gammel t</w>
Le on
pro tek
17 2</w>
registr ere</w>
00 000</w>
finans forordningen</w>
drøft ede</w>
T ex
harmon isere</w>
dæ kkende</w>
EU SR</w>
z onen</w>
så kaldt</w>
ter ra
bran che</w>
nation alitet</w>
kast ning</w>
0 2
sk else</w>
på begyndt</w>
over blik</w>
konver tere</w>
M L</w>
Ændrings forslag</w>
vand rende</w>
hjer nen</w>
14 7</w>
s ons</w>
fi a
fic er</w>
A P
stats lig</w>
mi tt
befolk ninger</w>
aut on
strø mper</w>
Vi dste</w>
mand atet</w>
wor ks
h u</w>
beteg nes</w>
ar et</w>
over ordnet</w>
Bevil linger</w>
r ate</w>
opret holdelse</w>
konklu derer</w>
vid st</w>
St ed</w>
orient erede</w>
nyre funktion</w>
bo lig</w>
efter retning</w>
ky sten</w>
for uden</w>
ska ffet</w>
liv skvali
fejl meddelelse</w>
søn dag</w>
ings -</w>
accel er
AFSLUT TET</w>
kla res</w>
et hyl</w>
Mi kro
H els
hastig heden</w>
ef ol
ag tig</w>
vide oer</w>
straff e</w>
vur derede</w>
str æ</w>
sk å
pun kterne</w>
Hal v
ter ingen</w>
s vis</w>
administra tionen</w>
35 4</w>
Ye ah</w>
G .
F jer
bur gh</w>
konven tionelle</w>
13 5</w>
konkurr ere</w>
da l</w>
ar me</w>
sand hed</w>
reduc erer</w>
mm es</w>
af sla
F æ
kat aly
V end</w>
nyt tig</w>
be brej
y tr
procent point</w>
ud lænd
stabili tets
over svømm
kon sen
henvi ste</w>
for enk
laboratori e
efter lod</w>
und går</w>
m ede</w>
OR T
dio x
di kt
bi d</w>
oci d
en del
UD VI
toi lettet</w>
fod note</w>
bå den</w>
ater al</w>
Ste ve</w>
privi legi
lig ning</w>
frem sættes</w>
O S
Fran k
dom mere</w>
ansi gtet</w>
lovgiv ninger</w>
Sj æl
In teg
institution ers</w>
da s</w>
bel øn
agent urer</w>
GEN ERE
c erer</w>
journa li
ale des</w>
M æl
Gre en</w>
syg doms
op skrifter</w>
r om</w>
General advokat</w>
lu der</w>
før elses
fyl des</w>
Geor gien</w>
pl æn
insu ffici
Institu ttet</w>
natur gas</w>
integ ration
all y</w>
ny heds
no ti
kro ps
dokument erne</w>
prøv ningen</w>
kor e
ing ernes</w>
di vi
udenrigs politik</w>
spor et</w>
konklu dere</w>
. d
gu l</w>
Zhon gshan</w>
Europa eiske</w>
se -</w>
import værdi</w>
sej r</w>
oprinde lig</w>
lever ede</w>
fon dene</w>
tænk es</w>
over draget</w>
forhandl ere</w>
kvin dernes</w>
frem læggelse</w>
w att</w>
op stilling</w>
fiskeri muligheder</w>
Tred jel
rel ative</w>
kont ing
gra ve</w>
Fan ta
F eri
press erende</w>
potenti el</w>
drag es</w>
markedsøkonom isk</w>
le u
film overtrukne</w>
led nings
der nede</w>
betj ente</w>
L andet</w>
f løj</w>
kid na
inter net</w>
gran ul
fødevare hjælp</w>
frem gang</w>
che ck</w>
at o
Industri politik</w>
in der</w>
accep terede</w>
sikkerheds -</w>
g elige</w>
z u
bj ør
ph t
med førte</w>
skade gør
J as
y e</w>
ny ligt</w>
for rige</w>
Social fond</w>
ty delig</w>
tri st</w>
n ære</w>
e f</w>
Gen è
D DEL
frem skri
ani k</w>
t uren</w>
19 67</w>
ajour føring</w>
stabili serings
S SI
skul de</w>
reali teten</w>
ble s</w>
a a</w>
skov e</w>
overdrag else</w>
be vist</w>
spr inger</w>
etn iske</w>
enor m</w>
dl ings
ga ven</w>
S et</w>
pla r</w>
di verse</w>
på begyn
foren elighed</w>
bet a</w>
Mi t
EU R
D SM
e ster</w>
dø d
klag en</w>
for dob
kvi k
Euro systemet</w>
indrø mmet</w>
f ed</w>
ori tet</w>
absol utte</w>
L or
G .</w>
Art hur</w>
14 2</w>
la delse</w>
forsy ningen</w>
ersta ttet</w>
p ent
fug l</w>
I AS</w>
Ar gent
E u
skra ft</w>
fr ag
hånd hæv
flyv ninger</w>
år tier</w>
vis ningen</w>
pi stolen</w>
lo b
frat ræ
fer sk
kun den</w>
isol eret</w>
afgi fterne</w>
Navn lig</w>
Lou is</w>
tot ale</w>
soci o
na v
for træ
H S</w>
bag age</w>
afspej le</w>
Stry gejern</w>
Vi ra
gum mi
brutt o
FR S</w>
na ar</w>
ministeri um</w>
undervis ningen</w>
kan al</w>
grun ds
livs lang</w>
ka ssen</w>
C D
m unik
føl elses
frem gik</w>
Til bag
ta kti
spro jekter</w>
RE PUBLI
M ON
ep est</w>
i c</w>
19 0</w>
råds formanden</w>
re ssi
tra eff
gra vide</w>
ram men</w>
bety dende</w>
ru p</w>
på peget</w>
lo fter</w>
an erne</w>
Væ k</w>
sol ven
kor rig
en .</w>
H us
tidsp lan
flå de</w>
Samhørigheds fonden</w>
med tage</w>
dat oer</w>
Bed re</w>
åb nings
opkræ vning</w>
Ø BS
st i</w>
social politik</w>
mind ste
under min
c at
råds formand</w>
Ry ana
overle velse</w>
koordin eret</w>
Må l
delø bende</w>
be fuldmæg
le ger
isra elske</w>
Stø tte
værdi fulde</w>
territori ale</w>
K R
t ets</w>
komplic erede</w>
associ eres</w>
MIN IS
T OL
Str at
sy re
dag o
an bringes</w>
S on
c ad
I sa
B l
sat an</w>
sa vnet</w>
bilag ene</w>
C I</w>
religi on</w>
kval me</w>
ikrafttræ delsen</w>
Pi er
fø je</w>
P lus</w>
Sø g</w>
11. 2007</w>
ma ppe</w>
lø sla
re videre</w>
fællesskabs ret</w>
S Å
påli delig</w>
konkurrencedygti ge</w>
D age</w>
opløs nings
interim s
ere des</w>
S ort
tr æng
m rs</w>
ite en</w>
stol te</w>
indsam les</w>
frem stille</w>
AN ST
e tte</w>
W est</w>
slut ningsvis</w>
ø ve</w>
ken des</w>
ga ar</w>
ag u
t un</w>
svin epest</w>
kig gede</w>
handels forhandlinger</w>
gift es</w>
a den</w>
indbere ttet</w>
henven delse</w>
plan erne</w>
f lø
brutt onational
M ån
suppler es</w>
om er</w>
efter året</w>
TA IL</w>
K lag
præjudici elle</w>
æl dste</w>
lig hederne</w>
hoved pine</w>
C T
sc o</w>
E -</w>
udfyl des</w>
A g
eksamens beviser</w>
M eg
blod tryk</w>
tvi ster</w>
medlemm ernes</w>
spi st</w>
T emp
L .
m alt
Z im
sa aledes</w>
ge omet
Offici elle</w>
nomin elle</w>
bedstem or</w>
hyper ten
GI VELSE</w>
bl y</w>
lig ne</w>
B og
forbe holdt</w>
15 2</w>
møde periode</w>
plan tes
berø res</w>
ten eg
Bil ly</w>
lovgivnings mæssig</w>
Sø l
A ma
try kke</w>
sø de
st ress</w>
frem kommer</w>
Universi ty</w>
u mp
M E</w>
ob jekter</w>
la m</w>
konkurrence evnen</w>
sær skilte</w>
akk redi
I FRS</w>
tari fer
fjol s</w>
egen kapital</w>
insuffici ens</w>
Sk ål</w>
w er</w>
laboratori er</w>
korre spon
Jack son</w>
Cu ba</w>
inde værende</w>
etabler ede</w>
ur s</w>
for ske</w>
L ord</w>
ANST ALT
ver n
sp æd
cyl inder
hind rer</w>
fa ttende</w>
elektr om
For e
18 7</w>
st es
ind ta
størr elses
S agen</w>
fil formater</w>
e .
præsent ation</w>
kommun er</w>
incitam enter</w>
UDL ØBS
al mene</w>
mekan iske</w>
c as</w>
betrag t
Bob by</w>
p d
fyl dest
un a</w>
udste delsen</w>
resum é</w>
re kt
gr å
epi so
ud dannet</w>
i k
fil typer</w>
bet h</w>
ni n</w>
el a</w>
bro ch
bil t</w>
3 47</w>
at serne</w>
forring else</w>
28 0</w>
funktion elle</w>
rets forskrifter</w>
ov n</w>
kontin ent</w>
gennemsni t
am eter</w>
TION S
sty per</w>
UDLØBS DATO</w>
Præ cis</w>
y p
vær t</w>
bevæg elsen</w>
ambass ad
tot al
prøv ninger</w>
spek ul
måned lige</w>
ødel agde</w>
la ds</w>
N et</w>
st el</w>
eta pe</w>
Fre dag</w>
klassi ficeres</w>
c ra
an gi
John ny</w>
ind fri
s mø
forekom sten</w>
br a</w>
K ry
Hj em</w>
Grøn land</w>
po sten</w>
op er</w>
ind køb
ski t
frem trædende</w>
be stille</w>
stol d</w>
ori a</w>
Arbej det</w>
ky st</w>
gå else</w>
Sc ott</w>
20 3</w>
sikkerhed sa
brem se</w>
Ho use</w>
respek ten</w>
missi onens</w>
kapaci teten</w>
ag ement</w>
vigti gheden</w>
fisker fartøjer</w>
stoff ets</w>
sc ene</w>
afstem ninger</w>
advar sel</w>
Politi sk</w>
T NING</w>
clear ance</w>
Li ste</w>
ulem per</w>
ej ere</w>
a di
K ultur
po ker</w>
sv agt</w>
recep t</w>
kontrol udvalget</w>
flå den</w>
S I</w>
evalu eringen</w>
BATCH NUMMER</w>
B ed</w>
16 8</w>
ler nes</w>
AR E</w>
u begrænset</w>
avi ær</w>
P oli
Jac ques</w>
An søgeren</w>
n ation</w>
cer ingen</w>
GU E</w>
A E
le g</w>
trans missions
konser va
Whi te</w>
u om
pen gem
fin ske</w>
y delsen</w>
kk ene</w>
ind tægt</w>
A 2</w>
inklu deret</w>
Car l</w>
- Hvorfor</w>
analy semeto
B ran
AL T</w>
o. l.</w>
af sættes</w>
v ler</w>
gevin ster</w>
fællesskab s</w>
un t</w>
G læ
folk et</w>
ak se</w>
Mark eds
Lil le</w>
vari abel</w>
kredit vurderings
ka sin
N ote</w>
videre uddannelse</w>
tæ ppe</w>
tilsyns myndighed</w>
indgå elsen</w>
S n
6 8
revi deret</w>
ord ningens</w>
kolle ktiv</w>
frekven s
RI A</w>
veri fikation</w>
deleg ationer</w>
ung dom
af sk
B ab
y r
væ bnede</w>
Euro systemets</w>
nabo er</w>
ag enter</w>
E pi
landbrugs -</w>
van t</w>
svin d</w>
so v</w>
gr en</w>
Menneskeret tig
Chi c
ol anz
c anske</w>
and res</w>
udnævn else</w>
k serne</w>
S var</w>
a de
T ing</w>
13 7</w>
bryllu p</w>
GE LSE</w>
kor ea</w>
til skrives</w>
monet ær</w>
h eri
kateg ori
besk yl
neut rali
mikro gram</w>
vare tages</w>
stu en</w>
4 7
un ikke</w>
Z a
Sk otland</w>
gunsti ge</w>
drøft es</w>
3 37</w>
bil lige</w>
anti bio
A 00
til delingen</w>
mu la
la k
kø let</w>
pu mper</w>
H R</w>
On line</w>
brem se
Hør te</w>
ver tik
komment ar</w>
st rej
b ønner</w>
Vira fer
ul tim
afvi ger</w>
ud bygning</w>
menneske heden</w>
Tek nisk</w>
min e
. europa.eu</w>
stal lation</w>
s che</w>
komple ks</w>
gør elses
es ser</w>
Her af</w>
dobbelt klikke</w>
tviv ler</w>
stop pet</w>
sk ål</w>
f urt</w>
af lægge</w>
markeds ordningen</w>
krænk else</w>
is h</w>
præci seres</w>
overvej et</w>
al bu
e i
begrun delsen</w>
S mid</w>
vedtæg ten</w>
hidr ører</w>
formid dag</w>
appar at</w>
Bek æmp
be svaret</w>
studi e
stemp el</w>
ol i</w>
m ur
h n</w>
middel hav
D okt
BN I</w>
teg ne</w>
foretag ender</w>
ude fra</w>
kæl ling</w>
4 68</w>
retfær dige</w>
tid lige</w>
forsø get</w>
solid ari
regnskab erne</w>
diabet es</w>
ER ING</w>
tv inger</w>
op fin
ka bel</w>
erkl ære</w>
LL A
14 3</w>
lem p
kapital en</w>
invol verer</w>
for ene</w>
arbejds tiden</w>
K ate</w>
Raa dets</w>
mod ul
13 3</w>
u ønskede</w>
gennem går</w>
der ind</w>
beskat nings
b ed</w>
stø v</w>
indrø mmer</w>
frem tidig</w>
Råd givende</w>
tradi tioner</w>
P .</w>
B ud</w>
pa kket</w>
le as
auten tiske</w>
motor en</w>
besl ægtede</w>
atmosfær e</w>
opdat eret</w>
Mo sk
ov e</w>
c ast
Mon teneg
ud an</w>
X P</w>
pun d</w>
S K</w>
g rim
sag kyn
pen si
må ttet</w>
medi e
ekspon erings
chan cer</w>
hvid bogen</w>
a kt</w>
P in
sp ons
ar s</w>
tur n
bru ser</w>
fred sprocessen</w>
Ed in
væg gen</w>
kol de</w>
L ort</w>
migra tion</w>
anvendelses formål</w>
UDVAL G</w>
O P</w>
reali tet</w>
mål tid</w>
Ek sterne</w>
Con go</w>
udgi veren</w>
m mel
hæ velse</w>
instru kser</w>
Adre sse</w>
sa erlig</w>
ej es</w>
Valuta spørgsmål</w>
til dele</w>
certi ficeret</w>
stabili tet
Projek tet</w>
intervi ew
bekendt gørelse</w>
be sat</w>
af slag</w>
ny lige</w>
Lig eledes</w>
ud sigter</w>
efter forskning</w>
by tte</w>
V o
klæ dt</w>
gem e</w>
for tid</w>
berettig else</w>
spi ste</w>
en gangs
LA MEN
ru mmer</w>
m erer</w>
arrangem ent</w>
M ol
Al l</w>
ser um
projekt ets</w>
are al
Forker te</w>
ver ter</w>
c eres</w>
Ky oto</w>
handlings planen</w>
fore skriver</w>
Medlemsstat ernes</w>
Kom bin
H ov</w>
gu i
stopp ede</w>
B lev</w>
kn æ</w>
17 3</w>
ud nævnes</w>
udby der</w>
po se</w>
net værket</w>
institu ttets</w>
forsvar lig</w>
is men</w>
rum æn
Er klæring</w>
revi deres</w>
ju stere</w>
bak teri
K LA
skov brugs
rapporter ing</w>
ind gri
hjemmem arkedet</w>
bank erne</w>
pri kkede</w>
he x
S af
ka tte</w>
Mod tog</w>
C S</w>
17 6</w>
bi om
af prøvning</w>
A h
organis ere</w>
Mot or
- De</w>
barber ing</w>
arbejdsløs hed
Try k</w>
Li mited</w>
Gib bs</w>
Forbruger beskyttelse</w>
conta ct</w>
betæn delse</w>
menneskerettig heds
for øget</w>
b landes</w>
slag te
der på</w>
del ene</w>
5 9
2, 4</w>
vog n
la eg
glu ko
F it
sundheds mæssige</w>
ok u
digi tal</w>
bån det</w>
bin ært</w>
forsy ninger</w>
forstærk et</w>
8 7
hy ggelig</w>
BES K
udvi st</w>
16 5</w>
skyl dtes</w>
ska delig</w>
sikkerheds status</w>
op brugt</w>
n el</w>
be gej
respek teres</w>
om stilling</w>
ud færdig
skre det</w>
am t</w>
af snittet</w>
ambiti øse</w>
blø dning</w>
Te ch
B s</w>
su ger</w>
u si
gener ationer</w>
folkes undheden</w>
fo eres</w>
alumini um
An giv</w>
opre tter</w>
krænk elser</w>
kl en</w>
vedro erende</w>
forpligt elses
ti tu
il le
efter middagen</w>
dero ppe</w>
usædvan lig</w>
gi fts
tt eren</w>
sag n</w>
nation er</w>
gri ber</w>
LÆGEMI DDEL
Gu inea</w>
kon geri
D rø
li delse</w>
in sek
integr ering</w>
for følge</w>
U sikker</w>
mis s</w>
indlægssed del</w>
ha vender</w>
T em
Jos é</w>
ST RI
IC ES</w>
u ændret</w>
forretningsorden ens</w>
at ets</w>
LI G</w>
nukle ar</w>
ersta tter</w>
advok ater</w>
a mi
PO LITI
om givelser</w>
forsik ring
be svær
J ane</w>
udstø delse</w>
Vi ser</w>
PAR LAMEN
K G</w>
skøn nes</w>
bon us</w>
20 2</w>
ikke -</w>
Pro tokol</w>
oft est</w>
mm el</w>
tør ret</w>
bed ste
Na vigation</w>
o fi
Dok ument
M .
30 2</w>
J ake</w>
- Har</w>
til rå
kommiss ær
igangs æ
an slås</w>
z in</w>
ver sioner</w>
føl som</w>
ben ene</w>
s lan
ara biske</w>
ansøg nings
E lek
c d</w>
14 1</w>
filanaly se</w>
mer værdi</w>
konsoli dering</w>
kode ks</w>
afstem nings
stil stand</w>
sp ligt</w>
multination ale</w>
S oli
AU C</w>
8 0
F RI
16 1</w>
markedsførings tilladelsen</w>
Bil leder</w>
An mod
su re</w>
sti pen
software programmet</w>
F uld
sta dighed</w>
miljø området</w>
la st</w>
Si mon</w>
Gennem førelsen</w>
E REN</w>
mennesk ets</w>
frem førte</w>
F .</w>
Itali en
fors ør
B run
c af
M R
v le</w>
uden landsk</w>
supp le
op førsel</w>
invi teret</w>
beske den</w>
st alt
mel a
programm erings
FOR ANSTALT
Øj ne</w>
ku gler</w>
Bi virkninger</w>
st eknologi
ol a</w>
ind be
gj orte</w>
g domme</w>
16 7</w>
vurderings rapport</w>
LÆGEMIDDEL FORM</w>
K æ
Centralban ks</w>
op træde</w>
filty pe
tilkny tter</w>
sta bilt</w>
fjern syn</w>
am bul
SE L</w>
mark en</w>
H eller</w>
køre kort</w>
che fer</w>
Agent uret</w>
tør re</w>
et y</w>
motor køretøj</w>
Over sigt</w>
Har moni
kalender år</w>
fo li
sinds syg</w>
filtype formater</w>
an kommer</w>
sy delser</w>
forvær ring</w>
filtilknytnings fejl</w>
spil d</w>
g lø
formul ering</w>
Bri an</w>
så s</w>
over væl
HED ER</w>
vej ede</w>
ord lyd</w>
bil let</w>
Tred je</w>
mand lige</w>
b ot
ind sendt</w>
hurtig este</w>
eksport ør</w>
arbej dende</w>
Tol v</w>
skab ers</w>
rati ficeret</w>
I S</w>
ti I</w>
indeha ver</w>
fors eg
filtilknytnings indstillinger</w>
TI V</w>
Ed die</w>
A ar
re gener
publi c</w>
g or
beskri velsen</w>
Vi gtige</w>
forskel lig
de ligvis</w>
Kom mis</w>
D ød</w>
sc he
gyl digheden</w>
13 2</w>
ster nes</w>
Soci al</w>
i brug
gevin st</w>
teg ninger</w>
indled nings
fil relateret</w>
Dire kte</w>
d jæ
Næ st
min g
el l
CO N</w>
16 2</w>
gymna si
tilbagem elder</w>
ind hent
flo k</w>
Y N
revolution ærende</w>
ramme bestemmelser</w>
kontan ter</w>
T ele
m y</w>
læge midlet</w>
et ag
23 4</w>
ma es
k væl
importer es</w>
bre vet</w>
c et
20 9</w>
omtr ent</w>
kon ces
immuni tet</w>
slægt stræ</w>
ar a</w>
S ej
underteg nelse</w>
sol dat</w>
conta in
reg nede</w>
hol denhed</w>
garanti en</w>
EL DR</w>
E ventu
F TER</w>
B 2</w>
ær lighed</w>
perman ente</w>
fattig ste</w>
Dy r</w>
FI KA
20. 12.
V O
Ma tt
usædvan ligt</w>
i ens</w>
INDEHAV EREN</w>
sæ son
pla st
ocid holdige</w>
godken delse
foruro ligende</w>
G az
farma ceu
Bal kan</w>
l og</w>
af ledte</w>
E DE</w>
D ro
Cer ti
epide mi
Cali for
god stransport</w>
Græken lands</w>
sænk e</w>
sor ti
plac ere</w>
nett ov
Wil l</w>
R ol
EM BA
Willi am</w>
VE J</w>
telef oner</w>
inter aktion</w>
kur sen</w>
fiskeri varer</w>
m ek
sæ sonen</w>
spi dsen</w>
mu si
lic ensen</w>
bestyr else</w>
Fællesskab ernes</w>
7 50</w>
inde k
am i</w>
Skri d</w>
Inform ations
Hu sker</w>
or y</w>
G A
EN T
o gen
fel tet</w>
V å
rul lende</w>
regerings cheferne</w>
erken delse</w>
dru er</w>
P ress
s ø</w>
Ma y
ar i</w>
ani a</w>
vaccin ation</w>
pen sioner</w>
Til lad</w>
By en</w>
makro økonomiske</w>
lin jerne</w>
M eto
visu m</w>
ud sendt</w>
c on</w>
De an</w>
Ber eg
ind foer
diplom atiske</w>
H T
udvikl ing
kil den</w>
forsigti gt</w>
behov ene</w>
æn der</w>
stilling tagen</w>
ri e</w>
påbegyn des</w>
på hæng
par k</w>
bereg nede</w>
belæg ning</w>
M r
For svind</w>
ud forme</w>
s ger
pan y</w>
3. 2</w>
sta digt</w>
likvi ditet</w>
Zim bab
i blandt</w>
forval te</w>
Genè ve</w>
sto k</w>
sej ler</w>
arbejds dag</w>
4 6
øje med</w>
foræl dre
f. eks</w>
el sk
Mar ked</w>
op fører</w>
fin gre</w>
ser s</w>
on avir</w>
ki s</w>
Hi stori
16 4</w>
Æ gypten</w>
træ kkende</w>
frem sender</w>
ø gning</w>
overfør slen</w>
A sh
4 ,5</w>
d skær
ag gressi
Smi th</w>
inspekti oner</w>
Stille havet</w>
Do u
ov ne</w>
sa ad
prøv es</w>
le vet</w>
til førsel</w>
STRU K
la de
hold ningen</w>
fil ter</w>
T XXX</w>
vi g</w>
om buds
o le
bank ens</w>
s ene</w>
pers onen</w>
af viste</w>
Hj em
to l</w>
overvå ger</w>
filtypena vne</w>
S ci
26 8</w>
ud sig
grun dene</w>
f o</w>
energi forbrug</w>
Him mel
trakt ater</w>
anbefal et</w>
ser inger</w>
bil ligere</w>
regi me</w>
bred te</w>
b ånd
Fil m
stjene sten</w>
likvidi tets
ind se</w>
eri a</w>
FRE MS
2 18</w>
kunst nere</w>
ekon om
H ører</w>
y dede</w>
tilfø jer</w>
på pegede</w>
diskussi oner</w>
an klager</w>
15 8</w>
lu gter</w>
bro en</w>
14 4</w>
r else</w>
løn ninger</w>
stjer ner</w>
sch wei
produktions år</w>
pi gerne</w>
ds erne</w>
bi a</w>
a ven
lu kkes</w>
foruren ingen</w>
batt erier</w>
Po st
n ef
mu skel
hard disk</w>
frem kal
forfær deligt</w>
H it
smu tter</w>
in ji
dyr læge</w>
Fre e</w>
År s
tro n</w>
es tim
tro pper</w>
stabili teten</w>
ord bog</w>
ed ra
still ingerne</w>
priori teret</w>
forel å</w>
L au
I ni
ch i</w>
Liber ale</w>
L EM
skøn ne</w>
mil y</w>
week end</w>
har pi
Kon tor</w>
pd f</w>
lan der</w>
subsidi er</w>
R and
M un
H O
E mm
ø re
vi tro</w>
sik rede</w>
omra ade</w>
X I</w>
F ej
lin s</w>
fodbol d</w>
ekstra kt</w>
10. 2003</w>
fin d</w>
V urdering</w>
Æ l
var igheden</w>
te x</w>
ba kke</w>
at o</w>
a o</w>
30 00</w>
tilsyns myndigheder</w>
syn d</w>
spri serne</w>
efter lade</w>
detek tion</w>
sor den</w>
priori tering</w>
komment ere</w>
fej re</w>
mærk ningen</w>
con azol</w>
afgiftsplig tige</w>
Jugoslavi ske</w>
17 1</w>
ã o</w>
s ale</w>
fordel ings
forb unds
på tager</w>
ografi ske</w>
skum met
f re</w>
I gen</w>
over skriften</w>
T op
Republi ks</w>
EMBA LLA
D ob
politik s</w>
harmon iseret</w>
bak terier</w>
ra bat</w>
pop ula
E i
st ad
ri b
ler es</w>
N o</w>
ro bo
posi tionen</w>
hvori mod</w>
c her
s vej
prote iner</w>
pp er
kraft værker</w>
N I</w>
lu xem
foruren ings
bo sat</w>
klo gt</w>
kateg orien</w>
ul t</w>
diagno sti
overenskom ster</w>
radio aktivt</w>
organi serede</w>
ateri ale</w>
a vn</w>
told myndigheder</w>
ra d</w>
Blu e</w>
sv ing
pro gressi
sven sk</w>
sat sen</w>
j om
Registr y</w>
for fatter</w>
enkelt personer</w>
byg ges</w>
Par t
sc ore</w>
ræ gn
regul ere</w>
Om fatter</w>
ti c</w>
sky de
miljø politik</w>
Frank furt</w>
u tilgængeligt</w>
klassi ske</w>
euro sedler</w>
afslu ttede</w>
slag tning</w>
na vig
maj or</w>
syndr om</w>
markedsførings tilladelse</w>
FORB IN
ska pi
overrask ende</w>
ma ven</w>
konsen sus</w>
ben ummer</w>
energi effektivitet</w>
app likationer</w>
D ens</w>
stra ktaten</w>
z o</w>
on ing</w>
al men
Bemærk ninger</w>
træn er</w>
rupp er</w>
Fy r
grupp e
par tis</w>
kam pe</w>
Ba yer</w>
vindu er</w>
ven dig</w>
st amme</w>
ind kvar
fyldest gørende</w>
begre ber</w>
20 4</w>
r é</w>
ne u
modtag erne</w>
l l
5 5
2 16</w>
informations samfundet</w>
hard ware</w>
Col ombi
bio diversi
atri um
bi standen</w>
V el</w>
Miljø -</w>
tt ering</w>
stran saktioner</w>
restitu tionen</w>
plac eres</w>
offentlig hed</w>
S lag
klub ben</w>
al ter</w>
Skri v</w>
und hed
operat øren</w>
ga elder</w>
A h</w>
compu teren</w>
Mold ova</w>
un ger</w>
stati sk</w>
bl ind</w>
Bade værelse</w>
afbry delse</w>
interfer on</w>
ind rejse</w>
frem sendelse</w>
fors varer</w>
SA MM
Om råde</w>
ur an</w>
sag søg
adress en</w>
ra ske</w>
kv inden</w>
S v
udtry kkes</w>
S ort</w>
software komponenter</w>
el let</w>
skal a</w>
parti et</w>
Supp lerende</w>
30. 4.2004</w>
protek tion
D T</w>
par ken</w>
emissi onerne</w>
Ord føreren</w>
h i</w>
plan te</w>
mag i</w>
grænse værdierne</w>
L U
es el</w>
markedsøkonom i</w>
byr den</w>
K re
benz o
T RO
H D</w>
for kastet</w>
syn er
fær digt</w>
16 6</w>
sper m</w>
hø f
hund red
føj et</w>
We b
Tek sten</w>
op skrift</w>
ko ste</w>
observat ører</w>
i ce</w>
dann elses
snæ vert</w>
hjem mel</w>
ti v
over tagelse</w>
intensi tet</w>
datter selskab</w>
sl ing</w>
19 1</w>
vacc ine</w>
plæn ek
ing o</w>
farve stoffer</w>
du kke</w>
Ry an</w>
Edin burgh</w>
tradition elt</w>
luxem bour
bræn dte</w>
indgri ben</w>
st est</w>
z y
op sig
fan deme</w>
ba sel
S V</w>
H A
luftt ra
g rebet</w>
rej sen</w>
med regnet</w>
id éen</w>
efter lader</w>
Læge middel
formul aren</w>
s land</w>
grøn t</w>
P .
Kat egori</w>
ressour ce
not eret</w>
kommunik ere</w>
evalu ere</w>
e siske</w>
der udover</w>
udtal er</w>
ud satte</w>
star tet</w>
legem er</w>
kem o
bille derne</w>
ali a</w>
Gu ang
É n</w>
ve -</w>
tor tur</w>
forval ter</w>
indi en</w>
S eks</w>
s ne
Europarå det</w>
sh eri
op stiller</w>
giv nings
Ob ser
Fin der</w>
sku ffet</w>
sa k
por no</w>
land ings
Atomenergi fællesskab</w>
autom ati
aktivi teten</w>
peri fer
inden rigs
10 ,
perspekti ver</w>
er ingerne</w>
foretag ende</w>
x i</w>
vari ere</w>
Y D
Politi ske</w>
pp ar
Videnskab elige</w>
Mar tin
Gi der</w>
skel ne</w>
civil samfundet</w>
Su per</w>
Argent ina</w>
mø dre</w>
Om kring</w>
C C</w>
intraven øs</w>
henvi sningen</w>
ud mærkede</w>
finger aftryk</w>
syg dom
sekund ære</w>
opdag er</w>
am iner</w>
spil de</w>
p ct</w>
kre ative</w>
Phar ma</w>
Mr s.</w>
sjov e</w>
shal l</w>
fisker essour
Stil le</w>
her ude</w>
handel spolitik</w>
f ekti
produkti ve</w>
hor mon
dyrk ning</w>
Chri stop
under givet</w>
op tager</w>
lo giske</w>
h æren</w>
J i
vel fær
ge de
fra vær</w>
Sundheds anliggender</w>
p es</w>
p erne</w>
min ori
ad o</w>
Klo kken</w>
F ag
op spar
l unde</w>
kni v</w>
bol d</w>
K redi
nøj es</w>
Monteneg ro</w>
Car ol
u se
for ræ
P ete</w>
tekstil varer</w>
skæ v
reg i</w>
AD MINIS
sædvan lig</w>
psy ko
eg orier</w>
Proced ure</w>
t -</w>
chokol ade</w>
amm uni
spoliti kker</w>
St å</w>
Publi k
A k
15 5</w>
tilstede værelsen</w>
til intet
hen føres</w>
fabri kker</w>
S li
ES MA</w>
blø de</w>
Qu in
forel agte</w>
Sikker t</w>
s ha
d der
SO CI
referenc em
hand le
am ent</w>
IM O</w>
C lu
arbejds marked</w>
lic en
fig ur
bil lig</w>
3 60</w>
hidr ørende</w>
VIRK SOM
d or</w>
Føde sted</w>
sikkerheds foranstaltninger</w>
Ø je
opbevar ings
gri n</w>
b inde
kandi dat</w>
beklædnings genstande</w>
hånd værk
REG LER</w>
vari gt</w>
tvan g</w>
bureau er</w>
over lever</w>
ma a</w>
hav ende</w>
un ø
til mel
modtag ne</w>
laboratori um</w>
F le
EØ SU</w>
her hen</w>
fyl der</w>
fan gst</w>
centralban k
FREMS TILL
Chi le</w>
ør ken
ned satte</w>
T ok
ry g</w>
mi tet</w>
interoper abilitet</w>
bestræ ber</w>
pet ence</w>
G il
-------- --------
til bøj
ot h</w>
P ass
5. 1</w>
20 5</w>
tildel te</w>
forsø mm
erhvervs uddannelses
amm eret</w>
9 99</w>
integr erende</w>
hel digvis</w>
Ze al
UN D
mang len</w>
kendsger ninger</w>
O LAF</w>
Bla ck</w>
fun d</w>
G æ
om tale</w>
ur deringen</w>
ge ar
tion ss
m elige</w>
over tager</w>
kri gs</w>
finansi erede</w>
en des</w>
tilbud t</w>
sle ttede</w>
opfyl dte</w>
op kastning</w>
forsen delser</w>
N ES</w>
2 11</w>
u skyldige</w>
præsent eret</w>
bo ur</w>
beting ede</w>
I A</w>
priori tere</w>
mer ter</w>
tal erne</w>
ny sger
an ordningen</w>
Vi d
kli ent</w>
gennemførelses foranstaltninger</w>
fod tøj</w>
V AN
La v</w>
u formelle</w>
stjene ste
disp osi
bl ind
Offent lig
Bi g</w>
13 4</w>
skema er</w>
15 3</w>
bi stand
Vi sta</w>
kvan ti
uhy re</w>
For bedring</w>
15 4</w>
undertry kkelse</w>
retur n
for rent
betænk eligheder</w>
J .
tilsætnings stof</w>
eg år
Kon tra
Ikrafttræ den</w>
emissi on</w>
kali br
Stock holm</w>
7 0
el de</w>
sen ter</w>
mo der</w>
j i</w>
S na
C our
åb ningen</w>
tal lige</w>
el le
O berst</w>
reali stiske</w>
frem stillede</w>
trans mission</w>
spæn dt</w>
ret ning
an else</w>
samarbejds aftale</w>
foreløbi gt</w>
- Så</w>
stat ers</w>
mål sætningen</w>
legem s
fremhæ ves</w>
enor mt</w>
Til læg</w>
fri stet</w>
udbud det</w>
beg å</w>
ADMINIS TRA
protokol ler</w>
op tagelsen</w>
køkken et</w>
hil se</w>
gennemsigti ge</w>
Li sten</w>
19 60</w>
restitu tion</w>
o ol</w>
grøn sager</w>
fornu ft</w>
Ini ti
In den
sæ son</w>
eg net
asy lan
Mosk va</w>
En ten</w>
na er
kol oni
ens betydende</w>
afbry de</w>
advar sler</w>
skatt emæssige</w>
begrun de</w>
u for
rå olie</w>
p orten</w>
mor det</w>
på peger</w>
hastig heds
ga .</w>
P eter
byg geri</w>
forklar inger</w>
To sc
MÅ DE</w>
FÆLLESSKA BER
æ n</w>
LIS TE</w>
Secu rity</w>
G AR
- Hun</w>
va sk</w>
forespørgs ler</w>
Vest indien</w>
olanz apin</w>
g on
forskellig ar
si e</w>
lov lig</w>
kr one</w>
iden tiske</w>
h ere</w>
elektr oni
udste dende</w>
fø dsel</w>
bøl ge
T TE
opbyg get</w>
LIG T</w>
sp leje</w>
pass et</w>
mekanis men</w>
A lu
fort sættes</w>
vi k
stø der</w>
slag s
præferenc er</w>
områ dets</w>
forbere der</w>
it a</w>
An ne</w>
Øster søen</w>
mer værdi
kontin ui
fi ce</w>
R æ
sø s</w>
s med</w>
revolu tion</w>
hjør ne</w>
ly gter</w>
leger inger</w>
ke j
høj ti
er næring</w>
- Og</w>
u skyldig</w>
t øj
kont amin
hvor under</w>
ban g</w>
adskil lelse</w>
Sen ere</w>
NU M
tilbag egang</w>
n ers</w>
S let</w>
defin erer</w>
blom st</w>
mar gen
lig es
for ce</w>
An er</w>
B j
akti e
Vi gti
OPBE VAR
D æ
nøjag tighed</w>
dokument eret</w>
le ger</w>
forvir ring</w>
EC E</w>
rapport erne</w>
ga de</w>
af gangs
til før
mistænk te</w>
Res er
P M</w>
nem ent</w>
onom i</w>
om læg
mar eri
m eg
atlan tiske</w>
at u
O ven
gen danne</w>
forsk er</w>
form et</w>
fa vi
Tosc ana</w>
fjer de
ch es</w>
P un
Kul -</w>
vi tamin</w>
o xid</w>
UN DER
miljø -</w>
kontrol foranstaltninger</w>
ind drivelse</w>
B LANDE
y e
vanskelig ere</w>
ed agen</w>
pla sma</w>
dæ k
inf lation</w>
beskri velser</w>
ela boratori
S TI
standar den</w>
progno ser</w>
lever ingen</w>
fornuf tige</w>
P ho
Gra vi
Ali ce</w>
19 5</w>
tviv l
til stande</w>
ti ders</w>
slag tek
fiske bestande</w>
eng ro
at a
Desig n</w>
BLANDE DE</w>
tæn dt</w>
kemo fibre</w>
høj re
19 2</w>
certi ficerings
transport midler</w>
op rør
forsvar et</w>
effek t
komp lement
INFORMA TION</w>
retss ag</w>
restitu tioner</w>
pp e
4. 1</w>
kernek ra
beri gti
Manu el</w>
sten sen</w>
me tider</w>
emæssi g</w>
buti kken</w>
bevil get</w>
G RA
standar derne</w>
proportion ali
op førte</w>
cirk el</w>
af gang</w>
19 64</w>
fili aler</w>
Bekæmp else</w>
st ing</w>
Le e</w>
kombin ere</w>
ff en</w>
beska dig
E M</w>
2 40</w>
l t</w>
favi ren
b net</w>
K amp
3 88</w>
tab le</w>
mu sli
hæn delse</w>
tu mor
opfa ttes</w>
energi politik</w>
ar v
V is
- Hej</w>
hu stru</w>
fast holder</w>
LL E</w>
hæ vn</w>
W at
Com pany</w>
opti mal</w>
aftal e
Fanta stisk</w>
o us</w>
kno w
for nær
beskyttelses niveau</w>
TR AN
semin arer</w>
kar tofler</w>
Ba y
F E</w>
per for
an cen</w>
A K
goer else</w>
Ro se</w>
integr eres</w>
tag elserne</w>
om sider</w>
lott eri</w>
flo tte</w>
Tvær timod</w>
18 6</w>
y la
ud vinding</w>
kom itéen</w>
der ings
K r
bræ t</w>
be holdninger</w>
Br and
skøn ner</w>
skifte holds
A B
mmel hed</w>
SK RI
Ko den</w>
A ven
For bere
hydra uli
16 3</w>
str amme</w>
Faelles skab</w>
mi gr
offentlig gjorde</w>
N G</w>
KK EN</w>
ter api</w>
indberet nings
universi tet</w>
cy c
By g
instru ktioner</w>
rets grundlaget</w>
jernban e</w>
bu ssen</w>
vask ning</w>
ud tømm
tt a</w>
rent abili
fuldbyr delse</w>
X III</w>
3 20</w>
intellekt uel</w>
fortj ent</w>
angri be</w>
administra tion
handl ingerne</w>
pers ons</w>
fodbol d
fj ende</w>
ing sk
depre ssion</w>
18 4</w>
sæl geren</w>
amp ul
Ele c
ma ve</w>
lig hed
kvar tals
folke afstemning</w>
NUM RE</w>
skon tor</w>
revi sion
rekt ang
16. 11.2007</w>
hi gh</w>
her over</w>
Hjer te</w>
æn ge</w>
træ thed</w>
rit onavir</w>
F red
vi dende</w>
red det</w>
U ti
Der næst</w>
0, 2</w>
py ri
fly ttes</w>
arbejds giver</w>
Mo d</w>
sy l
ler er</w>
ing skoeffici
Ke vin</w>
Jas on</w>
In jekti
é r
land mændene</w>
ind tjen
X II</w>
fa tte</w>
B om
trag e
18 3</w>
mi r</w>
fjerkræ kød</w>
reger ingens</w>
ordfør erne</w>
dskær ms</w>
formul eret</w>
ankom st</w>
ud sving</w>
tradition el</w>
mod parter</w>
finansi ering
af fær
Inter es
inklu derer</w>
od t
kri ser</w>
Mal ay
Føl gelig</w>
2. 3</w>
magne si
udarbej dede</w>
u ss
R .</w>
spre dt</w>
Menne sker</w>
horison tale</w>
B SO
spart nere</w>
pestici der</w>
neder landsk</w>
P op
ti ende</w>
kali um
appar atet</w>
dag lig
ssi tu
Ryana ir</w>
væsen er</w>
sikrings ordninger</w>
la sset</w>
M ün
tj ent</w>
tilbered te</w>
søl v
nødven dighed</w>
liti es</w>
20 8</w>
Øn sker</w>
svi gt</w>
kæmp ede</w>
J ensen</w>
4 9
un ges</w>
pi g
forelæg gelse</w>
de .</w>
Stand ard</w>
Am y</w>
y t
tig ere</w>
nomenkl aturen</w>
30 1</w>
eksperi ment
asy l</w>
Chic ago</w>
sp ru
fællesskabslov givningen</w>
sp rede</w>
ople vede</w>
handl en</w>
forhøj es</w>
skom pon
li p
ho use</w>
bol den</w>
Bar ry</w>
tekstil materialer</w>
oply ste</w>
fjen d
af re
K ron
I F</w>
mærk e
injektions stedet</w>
be slag
ud bygge</w>
BRU G
ru e</w>
for må
dron ning</w>
Forpligt elser</w>
smu tte</w>
es ager</w>
bred den</w>
G ent
akti vere</w>
U M</w>
mid ter
liberali seringen</w>
bar en</w>
T é
plan lægge</w>
fordø mmer</w>
fon ds
bestræ be</w>
afslu ttende</w>
Rust frit</w>
u overensstemm
reser va
ko le
Kra v</w>
K af
F ro
Budget kontroludvalget</w>
sat orer</w>
kr om
frem sende</w>
forbin der</w>
eksem plar</w>
tt o
over ordentlig</w>
ST EM
Per fekt</w>
17 4</w>
ad vare</w>
Ud givet</w>
med regnes</w>
E .
At hen</w>
kol d</w>
frem gå</w>
bi virkning</w>
ÆN G
rust ning</w>
refle k
organis atoriske</w>
op bevare</w>
klassi fikation</w>
E A
æng den</w>
us and
hen vender</w>
at h</w>
MARKEDSFØRINGSTILLADELS ES
Er far
speciali serede</w>
sam lings
r t</w>
ett ering</w>
bi stås</w>
avl s
T rin</w>
Q U
4 00
ja kke</w>
på ståede</w>
bæredygti gt</w>
an visninger</w>
I N</w>
EC Bs</w>
hu le</w>
ed yr</w>
ci al</w>
er bare</w>
3 43</w>
sm ænd</w>
fornø dent</w>
Sid st</w>
Landdistri kter</w>
Downlo ad</w>
o berst</w>
dyr t</w>
demokr ater</w>
Ø J
ing ers</w>
he im</w>
fejl tagelse</w>
sty res</w>
sikkerhedsa ut
organ isk</w>
imp rægn
diskussi onen</w>
Sar a</w>
kamera er</w>
Vær elses</w>
UDVI KL
kla ssen</w>
u korrekt</w>
k les</w>
handels mæssige</w>
Tyrk iets</w>
T ed</w>
besø ger</w>
Mi lan
J ef
Formand skabet</w>
ve y</w>
kra ften</w>
6 6
ø h</w>
ry ge</w>
Hel lig
ør ers</w>
in ske</w>
IM F</w>
BSO D</w>
tru sser</w>
suspen dere</w>
iværksætt er
ud stilling</w>
stat ut</w>
medlemm ers</w>
grænsekon trol
er lige</w>
bu sser</w>
ANVENDELSES MÅDE</w>
2 25</w>
telekommunik ations
system s</w>
referenc elaboratori
prim ær
liv s</w>
overf lø
natri um</w>
kan alen</w>
gyldighed speriode</w>
an ony
Fre mme</w>
udelu kkelse</w>
re da
pæ dago
modu l</w>
ag s</w>
Arbejd stag
GO DK
ud i</w>
an ty
2, 3</w>
amin o
An dro
Gi ver</w>
under skrift</w>
sundheds -</w>
ski ve</w>
indbere tte</w>
blo k</w>
3 96</w>
vej ene</w>
associerings aftalen</w>
Chu ck</w>
2, 2</w>
priori teres</w>
Ad gang</w>
vå gen</w>
uni form</w>
GODK EN
G uld</w>
CO R
mon d</w>
høj est</w>
Køben havn
op høre</w>
bær ende</w>
T el
formu e</w>
ri tus</w>
n g</w>
R on
mal ing</w>
enc er</w>
de kret</w>
J EN
skri v</w>
for løbne</w>
fia sko</w>
fabri k
5 10</w>
vare mærker</w>
spilde vand</w>
ses se</w>
ind gift</w>
her ind</w>
af gøres</w>
- Hvordan</w>
produktion skapacitet</w>
ol et</w>
legi time</w>
afri kansk</w>
umiddel bar</w>
forand ret</w>
St or</w>
op tiske</w>
foren et</w>
dri vere</w>
kri ser
formand skabs</w>
be vidste</w>
vent es</w>
ån de
sta di
inten sive</w>
ck et</w>
, 7</w>
samarbejds aftalen</w>
lå net</w>
be arbejdet</w>
transp lan
ny hed</w>
associ ering</w>
aller gisk</w>
far en</w>
f ek
beslutnings processen</w>
Ny t</w>
ty pe
Regions udvalgets</w>
God ken
v l</w>
ori s</w>
kor por
jord skæl
ev t.</w>
DE S</w>
VER ING</w>
TS O</w>
Off entlige</w>
stri n</w>
kk on
eksporter es</w>
FØ RES</w>
A SE
vir tu
resolu tioner</w>
ning skur
lag ring</w>
fusions markedsordningen</w>
an tager</w>
æ res</w>
sti ts
konfli kt
PA K
strå le
leverand øren</w>
leds ager</w>
fortræ d</w>
f et
For d</w>
D -</w>
Ch ina</w>
ind sende</w>
bevar ings
anti stoffer</w>
Fødevare sikkerhedsaut
Anven delses
understø ttelse</w>
µ g</w>
selskab ers</w>
til skuddet</w>
på visning</w>
ci ene</w>
ati vitet</w>
Bil aget</w>
ag ere</w>
St an
sna kkede</w>
frem kommet</w>
Veterin ær
told kontingent</w>
indkal delse</w>
beska diget</w>
2 b</w>
tun nel
simp le</w>
no ter</w>
av l</w>
ankom st
an gst</w>
af i
Le ver
efter la
smu g
l elsen</w>
indehav ere</w>
de sper
ytr ings
dyna mik</w>
web steder</w>
autom o
antidumping foranstaltninger</w>
I n</w>
turi smen</w>
erhver ve</w>
sl æg
c la
H va
rets lige</w>
nøg ler</w>
kredi tri
el ler
bru gernes</w>
all ene</w>
VI S</w>
Soci alistiske</w>
sk ning</w>
ster oider</w>
spla y</w>
h y</w>
d ingen</w>
udform es</w>
bevar ing</w>
Han dels
ol s</w>
offentlig hedens</w>
fr agt
y o</w>
musk ler</w>
Kommissi on
tilside sættelse</w>
li ske</w>
kvadr at
mund -</w>
rø dder</w>
ned bringelse</w>
general sekretær</w>
reklam er</w>
H J
19 58</w>
vi r</w>
od y</w>
en del</w>
nor mali
entre pren
bi ocidholdige</w>
ofi -</w>
Tale ban
nær er</w>
mærk es</w>
svær d</w>
Revi sion</w>
ser ver</w>
drag else</w>
sti ler</w>
her skende</w>
forb lø
af sætnings
U N</w>
Russi ske</w>
Hur tigt</w>
udgi fts
sm ør
les bisk</w>
blin de</w>
em enter</w>
behør ig</w>
teg n
la tions
H ver
journa lister</w>
berør e</w>
op løsninger</w>
mod stå</w>
Re sten</w>
Go de</w>
ube arbejdet</w>
cy clo
på vises</w>
markedsfør ingen</w>
i es</w>
op træden</w>
hand sker</w>
Universi tet</w>
umiddel bare</w>
t ha
sp ulver</w>
køretøj s
c ember</w>
An mel
te ste</w>
sk ærer</w>
mod tages</w>
da d</w>
an tik
in ess</w>
R ig
ødelæg gelse</w>
c ur
Virksom heden</w>
ønsk eligt</w>
fremkal dende</w>
Sand heden</w>
kredi tter</w>
fart øjet</w>
I CA
Hy dro
social -</w>
læn gst</w>
hypp igt</w>
opløs ningen</w>
ejer en</w>
døds straf</w>
konkurrencereg lerne</w>
begunsti gede</w>
Næst formand</w>
virkelig gørelsen</w>
ap s</w>
M es
. ht
du kkede</w>
Mad aga
C EN
ty delige</w>
teor etisk</w>
kende tegnet</w>
erfar ingerne</w>
hypp ig
fyl de</w>
bud t</w>
skræ mmende</w>
rim elighed</w>
bon de
tru ede</w>
lever funktion</w>
FOR HOL
knu st</w>
ha ster</w>
Li vet</w>
Bo x</w>
tiltræ kke</w>
ansigts sprøjt</w>
ro d
ne uro
Da ve</w>
hospi tal</w>
forstå eligt</w>
emissi on
Li byen</w>
skol erne</w>
selekti v</w>
p agt</w>
mani pul
kk elsen</w>
h oppe</w>
lo w</w>
stand punkt</w>
plan tning</w>
p hi
næg tet</w>
Word Press</w>
2 60</w>
sekon fli
hel digt</w>
fu gle
Gennem førelses
17 84</w>
B æ
hun de
fin ger</w>
belø ber</w>
vok s</w>
møn t</w>
g hed
rå bte</w>
del staten</w>
ud sæd</w>
skju ler</w>
over skud
hemm eligt</w>
fundament ale</w>
0 9
o tiske</w>
for ek
arkitek tur</w>
est ere</w>
ali sere</w>
Win thro
L T
uopsætt elig</w>
su per</w>
aktivi tets
a mid</w>
p h</w>
arbejdsløs heds
RA V</w>
for mandens</w>
paknings størrelser</w>
kaf fe
indven dinger</w>
TA C</w>
B V</w>
prøveudtag ning</w>
blom ster
L ok
v åb
tæg ter</w>
tyn de</w>
parlament arisk</w>
men uen</w>
mareri dt</w>
integra tionen</w>
H ej
turi ster</w>
penge politiske</w>
d .</w>
N ot
anden behandling</w>
F AL
re publik</w>
CH MP</w>
B ow
ind gav</w>
P ER
betal ingerne</w>
Vær kt
ko ka
an visnings
al les</w>
usædvan lige</w>
p ga.</w>
FIN AN
An befal
ru tin
genop taget</w>
S qu
P ro</w>
skæ b
forban dede</w>
databa ser</w>
Ne den
D Y
ssel skaber</w>
fag foreninger</w>
departem enter</w>
bl å
Sta r</w>
organisation ens</w>
es ult
af gives</w>
DEL ING</w>
skri der</w>
markeds ført</w>
bureau kr
EX P</w>
stra kt</w>
CC P</w>
tilfæl digt</w>
indsig elser</w>
K ali
tro et</w>
Til fø
N an
tem aer</w>
op ho
R end</w>
En ter
disku teret</w>
ch o</w>
indberet ninger</w>
grøn bog</w>
Zeal and</w>
NE LSE</w>
Insu lin</w>
tab eller</w>
sov je
al i</w>
LAN D
forhandl et</w>
ej et</w>
di esel</w>
borger lige</w>
ud der</w>
konom iske</w>
F A</w>
for blev</w>
V T</w>
3 75</w>
ci l</w>
L T</w>
om handles</w>
hjem mela
Var me</w>
Seri øst</w>
S D
sæ tte
parlaments medlem</w>
lov lige</w>
koncer n
de raf
Ti ds
udvi ses</w>
tids frist</w>
da værende</w>
und tagelsen</w>
transa ktions
st else</w>
p H</w>
overbe visende</w>
18 31</w>
land ing</w>
Reg ler</w>
hus dyr
forvir ret</w>
erhverv sa
19 66</w>
ug h</w>
producent ers</w>
tilskyn der</w>
ot on
opnå else</w>
kunst ner</w>
faviren z</w>
vok sen
tem po</w>
sl ot</w>
s ing
M oni
u tallige</w>
h s</w>
Beslut ningen</w>
var ernes</w>
ud sendelse</w>
prøv else</w>
form ænd</w>
bo ende</w>
San ta</w>
N -</w>
2 28</w>
ta ck
k ur</w>
hor n
analy seret</w>
R an
scen en</w>
Jon es</w>
ethyl en</w>
An al
gennem foer
tredje dele</w>
sk j
jernban et
hæng ere</w>
f ne</w>
25 1</w>
hu sk</w>
ær et</w>
nor m</w>
ind sat</w>
fremhæ vede</w>
dæ m
Schwei ziske</w>
S in
produc erede</w>
miner aler</w>
formali teter</w>
For samling</w>
NG L</w>
atur er</w>
Zimbab we</w>
sm ager</w>
hjer ne
føl ge
UDL E
PR Æ
L B</w>
vil let</w>
kyl ling</w>
krimin al
da r</w>
ajour ført</w>
Ra dio</w>
Hon g
tær skel
overskri der</w>
be sej
Malay sia</w>
bestand del</w>
B eri
place bo
forek om</w>
angiv eligt</w>
noed vendige</w>
di l
arran geret</w>
FÆLLESSKABER S</w>
E mily</w>
Dræ b</w>
Ø er</w>
te sten</w>
sund heden</w>
mo dighed</w>
L yn
C M</w>
manu elt</w>
gensi digt</w>
di ar
tredj edagen</w>
job s</w>
injektions sprøjte</w>
ind købs
hæn gende</w>
tan te</w>
t he
an føre</w>
gluco se</w>
S må</w>
mund tlig</w>
hop per</w>
elat erede</w>
t ov
co ok
af lægger</w>
C ast
virk som</w>
ha ste
v ningen</w>
toilet artikler</w>
støtte beløb</w>
loy al</w>
em ann</w>
regula ti
AN FØRES</w>
sk erne</w>
konkurrence forvri
a min</w>
25 3</w>
18 8</w>
ssekret ær</w>
ret tighed</w>
over nat
fabrikan tens</w>
demonstra tion</w>
Raa det</w>
H vid</w>
pro vi
lom er
10. 000</w>
luft forurening</w>
kl et</w>
frekven ser</w>
eg ler</w>
bal lade</w>
St ef
Organis ationen</w>
øver st</w>
lokali teter</w>
ind taget</w>
græ de</w>
glo bal
fast saettes</w>
Winthro p</w>
Fran ske</w>
gæl d
Slov eni
Po kkers</w>
E Y</w>
1. 3</w>
lej r</w>
Kar l</w>
transa ktionen</w>
europ a
T en
Rej s</w>
fast holdelses
afsl øret</w>
Ma de
Gi ft</w>
øn t
c ke</w>
ammuni tion</w>
udskil les</w>
svær ere</w>
ky sse</w>
central -</w>
gra fisk</w>
14 6</w>
skaff er</w>
sk rø
pan el</w>
be sidder</w>
A cc
skri velsen</w>
hygiej ne</w>
ry gning</w>
ammoni um
Ek sper
ment s</w>
gen skabe</w>
A kt</w>
smu s</w>
sektor ens</w>
o ekonom
Gravi ditet</w>
gj al
C lo
al arm</w>
T ow
we b</w>
ned skæringer</w>
fanta si</w>
K ød</w>
Di gi
autori seret</w>
P a</w>
Kor s</w>
E d</w>
ven stre
tt le</w>
myndig hedernes</w>
import ør</w>
alfa -</w>
H au
Cor por
V ari
M I</w>
t one</w>
pht hal
Ir lands</w>
æ de</w>
job skabelse</w>
Beg ræn
19 9</w>
dat am
transport politik</w>
innov ation
tt ype</w>
se j</w>
k .</w>
forbe drede</w>
udviklings bistand</w>
pro vok
over dre
væl gere</w>
stræ kker</w>
inspek t
dom stolen</w>
Kul tur</w>
for ligs
es er
landbru gerne</w>
interes sekonfli
UDLE VERING</w>
udbetal inger</w>
indvand rings
disku terer</w>
angri ber</w>
v agter</w>
portugi sisk</w>
g eli
regul eres</w>
af skærm
L Ø
Ko ordin
sk jol
mon tage</w>
bevæg elses
pass age</w>
l m</w>
Produ ktion</w>
Hv a</w>
bo et</w>
told område</w>
resul terede</w>
B y</w>
Fran krigs</w>
For bund</w>
ud tages</w>
ske p
ger er</w>
S pa
S m
Bi o
valu ering</w>
op per</w>
ka bler</w>
Colombi a</w>
Al i</w>
å rigt</w>
sej l
am p</w>
Mind st</w>
General sekretariatet</w>
Fr on
C ur
ændrings forslaget</w>
um s</w>
C -</w>
tjeneste ydelse</w>
an slåede</w>
afre mt</w>
H .</w>
interes senter</w>
Ni col
Medlem merne</w>
ø dder</w>
beklag eligt</w>
ad op
sa u
p ress</w>
fik ationerne</w>
c hen
tat overing</w>
pi zz
li sterne</w>
B Y
B T</w>
t øs</w>
splan en</w>
samfunds mæssige</w>
stra kt
præsent erer</w>
intellig ent</w>
Fi xer</w>
til give</w>
at ers</w>
Anal din</w>
v ol</w>
Th or
verden som
tæ tte</w>
stik prøve
fa elles
Om kost
Arbejd slø
s van
om sætningen</w>
I G
skov brug</w>
k ål</w>
for hand
Uni ted</w>
EL IS
til lagt</w>
laboratori et</w>
hi er
Pat h</w>
A re
sniveau et</w>
for samlet</w>
Læ gen</w>
ej ede</w>
autori teten</w>
forsik ret</w>
vel egnet</w>
H vid
Dokt or</w>
Di stri
sub stan
scre en
ke tter</w>
fri givelse</w>
til sætning</w>
stu kket</w>
gæ st</w>
ansøg ningerne</w>
afsl ører</w>
rø dt</w>
prø v</w>
nø ds
basel ine</w>
Le vneds
L os</w>
bo x</w>
L isa</w>
risi ciene</w>
L ande</w>
tredje parter</w>
til synet</w>
samfund s</w>
mor alsk</w>
kamera et</w>
invi tere</w>
pass erer</w>
budget forslag</w>
ar l</w>
Ma je
Fødevaresikkerhedsaut oritet</w>
h r
fol kene</w>
U M
19 3</w>
om tvi
G S</w>
ER H
ur i</w>
så re</w>
U tro
B lod</w>
va ske
kvali fikations
ko oper
ÆNG DE</w>
uddannelses institutioner</w>
skøn hed</w>
tal ent</w>
hår d
Milan o</w>
Hu man</w>
Ara biske</w>
r enten</w>
koordin ation</w>
cy pri
anf æg
Jun cker</w>
Fin an
st ations
sle ttes</w>
ind ing</w>
anmel delsen</w>
Bus iness</w>
wi ch</w>
vid tgående</w>
vi tet
fremgangs ma
betydnings fulde</w>
Til svarende</w>
udøv ende</w>
F i</w>
gjal dt</w>
fr æ
beh øvede</w>
V ok
Lu ci
3 D</w>
gt ede</w>
demo grafiske</w>
g .</w>
dra b</w>
Andro id</w>
reser vek
mail s</w>
Dø den</w>
variab ler</w>
stalt ninger</w>
ag nen</w>
To ilet</w>
Out look</w>
et ek
Ud over</w>
yn dlings
prøv erne</w>
nem me</w>
ali sme</w>
30. 6.
modstan dere</w>
kon kurs</w>
far vning</w>
bud det</w>
arbejds giveren</w>
Vå gn</w>
Cent re</w>
B ot
tj ente</w>
lil le
T H
xa cin</w>
ss er
a sk
lå se</w>
U F</w>
z á
godt gøre</w>
barri erer</w>
an alo
Jo ey</w>
Car ter</w>
Bel øb</w>
kompli ment
fremmed had</w>
ch ok</w>
almin deligvis</w>
5. 000</w>
sy dø
fu gti
ent s</w>
skib svær
ån ds
mot ordre
ly ttet</w>
bla det</w>
Sy d</w>
regul erende</w>
alt h</w>
Uti lities</w>
over sigten</w>
ned frysning</w>
form at
for langer</w>
afvi gelse</w>
B Ø
ste derne</w>
kom men
V or</w>
J our
Æ r
rom anti
om sætnings
Kar en</w>
ons ul
mang lede</w>
m at</w>
eksi stere</w>
besk ed
arbej dets</w>
Uds endelse</w>
til skuds
sprog lige</w>
mem or
fødevare sikkerhed</w>
KON OM
Injekti ons
våg ner</w>
plig ten</w>
markedsan dele</w>
sp p</w>
handl ere</w>
grøn bogen</w>
P r
stats borgerskab</w>
s ing</w>
Sc re
under skrive</w>
reduc erede</w>
farma k
18 1</w>
formo des</w>
vil dt
udskift ning</w>
ud kig</w>
kl yn
1. 5.
høj de
try ks
se mi
arbejds styrken</w>
af gør</w>
Referenc er</w>
GE T
om i
forord ningerne</w>
m p</w>
foreg ri
skri p
rel ativ</w>
eksport ere</w>
str and</w>
forsy ning
omstruktur eringen</w>
forbin delses
dy re</w>
c ement</w>
svag hed</w>
fakt a</w>
Hu set</w>
An dy</w>
y le</w>
hæ ft
gen etiske</w>
ud ledning</w>
fore stående</w>
e book</w>
dokument ere</w>
D M</w>
støtt ens</w>
sandsyn ligheden</w>
mør kt</w>
SAMM EN
konstat ering</w>
Tex as</w>
skapa citeten</w>
mark eret</w>
P le
und lader</w>
am te</w>
Land bruget</w>
flø de</w>
4. 2.
tt ra
kæmp et</w>
w ork</w>
jen st
bøl ge</w>
a ar</w>
God aften</w>
tilbage betales</w>
plen um</w>
forny ede</w>
blodsu kker</w>
bestyr elses
bag ud</w>
af standen</w>
Oli ver</w>
tolds atser</w>
telekommunik ation
nin ge</w>
insi sterer</w>
bran che
an streng
er o</w>
char tret</w>
DSM ÆNGDE</w>
struktur erne</w>
leg ale</w>
foren ingen</w>
S ur
INDHOL DSMÆNGDE</w>
FOR S
ær inger</w>
mod stands
associ eret</w>
app e
u tilstrækkeligt</w>
steri et</w>
helbre ds
2 24</w>
17 9</w>
planlæg nings
konjun ktur
koncer n</w>
Al tern
vinter en</w>
fre delige</w>
S udan</w>
N ationer</w>
op deles</w>
Li v
2 a</w>
19 8</w>
ny dt</w>
filoso fi</w>
M ET
Gi d</w>
ty piske</w>
red ning</w>
lemsstat erne</w>
indrømm elser</w>
Forbin delserne</w>
F S
BA T</w>
Ab ra
be standen</w>
Nær mere</w>
FAR MA
st rede</w>
infla tionen</w>
ä n
produk ters</w>
k olo
inf lam
be går</w>
Ti tan</w>
uly kken</w>
t é</w>
radio -</w>
eksk l.</w>
c ing</w>
Ab by</w>
parlament et</w>
kommun ale</w>
en sion</w>
ciga retter</w>
bjer g</w>
ajour føres</w>
B efol
syns vinkel</w>
st jern
ren es</w>
ori sk</w>
gu ide</w>
komp lette</w>
ej ser</w>
der om</w>
Telef on</w>
Ar m
ænk er</w>
p let</w>
gri bende</w>
fes ti
forsigti gheds
AR TIK
25 6</w>
Å ben
tag erne</w>
sæ der</w>
her o
kredit kort</w>
S we
oplys es</w>
Tilfø j</w>
R DE</w>
N om
Mat t</w>
sku b</w>
hemm elig</w>
MARKEDSFØRINGSTILLADELSES NUMMER</w>
Emm a</w>
sø vn
svag heder</w>
objekti v</w>
lej ligheds
j am
forsen delses
F P</w>
smi der</w>
sa et
data beskyttelse</w>
ssikker heden</w>
spænd ings
ker nen</w>
ater alt</w>
skro t</w>
ple je
ogr af</w>
mil de</w>
hal verings
gu le</w>
fi sker</w>
be gik</w>
Pro tokollen</w>
Medi cin
ab sur
Brø dre</w>
Ø h</w>
udveksl ings
betjen ings
opga verne</w>
Pro ces
Pa pi
vej ledningen</w>
tredjelan des</w>
st æt</w>
næ se</w>
for kort
beny ttede</w>
vel fungerende</w>
uni k</w>
hen t</w>
Undersøg elser</w>
forplig te</w>
bri dge</w>
Imp ort</w>
H øje</w>
udtømm ende</w>
u af
samvit tighed</w>
va ske</w>
tilbagetræ kning</w>
lufthavn s
ko s
produ cerende</w>
eksempl arer</w>
S us
Alu mini
y ou</w>
jø der</w>
G em
vari able</w>
interval ler</w>
and rag
17 82</w>
konkurrence fordrej
fri tids
SI KK
tilføj else</w>
gan gs</w>
akti vering</w>
sat or</w>
S mar
G. COM</w>
5 40</w>
stri dende</w>
bel en</w>
PC MA
PCMA G.COM</w>
u din</w>
tilbag el
gu vern
træ kning</w>
to sset</w>
de k
akade miske</w>
Kon g
ARTIK EL</w>
ration el</w>
gen opbygning</w>
a viser</w>
Vi a</w>
ud vej</w>
lig ht</w>
hul let</w>
dumpingimp orten</w>
skift ende</w>
konserva tive</w>
ga vn
Hjæl pe
ü r
st ress
by områder</w>
Kor n</w>
4. 2</w>
til fa
sal g
ning sta
gravi di
psy ki
S her
Reg lerne</w>
u acceptabel</w>
gro ft</w>
frø ken</w>
fedt indhold</w>
f an</w>
k iske</w>
ind hentet</w>
et jenester</w>
destil lation</w>
an lægge</w>
B AN
ny skabende</w>
S imp
Isra eli
mark er</w>
c .
RÅ DETS</w>
C l
men es</w>
ikrafttræ delse</w>
social sikrings
opret holder</w>
min des</w>
fol kere
Hver ken</w>
2 26</w>
tt eret</w>
amerikan erne</w>
Sn art</w>
CN S</w>
40 4</w>
tæ pper</w>
mennesk ene</w>
han d</w>
fri heder</w>
besk eder</w>
I A
3 91</w>
try kk
ba li
udsig terne</w>
P as
er indre</w>
ber s</w>
ma pper</w>
D J
sammen sætningen</w>
mp agne</w>
alkohol indhold</w>
tu ber
med virker</w>
t am
på stod</w>
organis ations
forelig ge</w>
re des</w>
p es
di ger</w>
P I</w>
formo der</w>
24 7</w>
F andt</w>
tt ab</w>
læ s</w>
Beg run
vare bevægelser</w>
spæd børn</w>
be fæ
socio økonomiske</w>
sammen lignende</w>
hvid bog</w>
FORANSTALT NINGER</w>
kny tte</w>
K B
Af slutningsvis</w>
und ladt</w>
se pon
il la</w>
fran sk
flo xacin</w>
Kom itéen</w>
nå len</w>
risikov urdering</w>
residen ter</w>
em bar
10 49</w>
downlo ade</w>
æ del
tænk ning</w>
te en
system komponenter</w>
h vir
gen kende</w>
fortrin svis</w>
stemm ende</w>
gennemsni tligt</w>
for æd
um é</w>
sun dt</w>
smi dt</w>
ra sk</w>
kernek api
dimen sion
P lat
udenrigs ministrene</w>
tilside sat</w>
indik erer</w>
ek spe
Turi sme</w>
Reg eringen</w>
oversky dende</w>
h in</w>
for le
er iske</w>
X VI</w>
Udval gets</w>
fo ssi
emballer ing</w>
L DR</w>
ven inde</w>
19 6</w>
teg ne
sen d</w>
red der</w>
arbejdstag er
E REN
Al an</w>
sj æ
fu sionen</w>
Ret nings
Myndig hed</w>
30 5</w>
hek tar</w>
formand skabets</w>
dan ser</w>
væg ge</w>
om i</w>
i ra
ap otek</w>
Virksom heder</w>
TA TIV</w>
Stru ktur
P ap
K ing</w>
Cam bo
politi kkerne</w>
konstru ktiv</w>
netværk s
løs nings
Lan de
De j
sagkyn dige</w>
phen yl
medvirk en</w>
konven tion
be fri
Jer ry</w>
san delig</w>
mu lation</w>
Le o</w>
præ st</w>
lin ks</w>
inklu siv</w>
u betydelig</w>
belø bene</w>
Jac ob</w>
sta dier</w>
R af
C li
sc ri
go ds
gennemsni ts
antibio tika</w>
and um</w>
K no
lov forslag</w>
G N
vari erende</w>
F rø
B 5</w>
35 8</w>
Ø KONOM
seri øs</w>
g ek
cy kel
bi drog</w>
T ISKE</w>
S ul
week enden</w>
speciali seret</w>
inspir eret</w>
dram atisk</w>
Ta yl
R øde</w>
26 58</w>
industri aliserede</w>
enzy mer</w>
In nov
Bur ma</w>
str o</w>
skon toret</w>
på står</w>
Bri tish</w>
7 5
jer no
hvi le
drivhus ga
Sp ort</w>
kart off
ery tro
e ur
destru ktion</w>
ind retning</w>
emed del
ambi tioner</w>
ST Y
Medlem sstat</w>
F ul
S aul</w>
Mark ed
sk øre</w>
arbejds grupper</w>
P R</w>
Her rens</w>
fi re
II e</w>
C ap
kø bes</w>
ind giver</w>
væg te</w>
r elsen</w>
indi ceret</w>
Lo t</w>
k ins</w>
hør ingen</w>
gæ tte</w>
an tæn
syn ger</w>
ser klæring</w>
ma an
ind sætte</w>
dyb ere</w>
formul arer</w>
for mi
udgi ft</w>
uddannelses -</w>
tro j
sty kket</w>
ko derne</w>
gent ages</w>
Præ sidiet</w>
Le i
stad fæ
opmun tre</w>
gra v
bestil t</w>
H vide</w>
Co sta</w>
overskri des</w>
lo gik</w>
a eg
R A</w>
In ti
sy gt</w>
spænd inger</w>
speci fikation</w>
sol rigt</w>
præ parat</w>
lang fristede</w>
absor ber
19 4</w>
oprindelses betegnelser</w>
gul v</w>
hjør net</w>
el o
af løn
po ser</w>
vel op
u sikker</w>
indholds stoffer</w>
A i
in o
19 65</w>
12 ,
skrø b
bemyndig es</w>
ÆN DR
u ska
ind arbejdet</w>
af levere</w>
Inter nettet</w>
å h</w>
kob let</w>
Gennemsni tlig</w>
F O</w>
lang varig</w>
g all
anst æn
af skræ
Hel digvis</w>
mester en</w>
Fem te</w>
6 -</w>
tre di
mark et
len ske</w>
frem tids
19 50</w>
ven des</w>
forbrænd ing</w>
I i
A pril</w>
materi al
ju steret</w>
incitam ent</w>
bedste far</w>
K n
GI V
23 6</w>
ol en</w>
fæ tter</w>
eg odt
29 0</w>
rede gøre</w>
met ro
anden behandlingen</w>
styr elses
scenari er</w>
ind sendes</w>
fælles foretagendet</w>
dia be
V ac
A fin
virk et</w>
ul en</w>
luxembour gske</w>
af sætte</w>
radi k
kommiss ærer</w>
kapit ler</w>
Skyl d</w>
3. 0</w>
w et</w>
u enighed</w>
fa elles</w>
ban d</w>
3 70</w>
ti es</w>
lam per</w>
konstru ktive</w>
ethan ol</w>
en dt</w>
ad resser</w>
artik lerne</w>
U L</w>
Nar ko
vedtæg ter</w>
par ts
lin gens</w>
f ere</w>
camp ing
af holdelse</w>
Kl art</w>
35 7</w>
kr oner</w>
industri elt</w>
ak u
universi tets
es am
ejen dom
be bu
Mar shall</w>
C ham
tilpa sningen</w>
mon teres</w>
chl or</w>
akti onerne</w>
Til syn
TA BE
Indu stri</w>
23 1</w>
strafferet lige</w>
si deløbende</w>
mo dige</w>
kun stige</w>
hen synet</w>
dan ce</w>
130 8</w>
ø ds
koordin eringen</w>
disp on
befolknings grupper</w>
S undhed</w>
CI S</w>
t ung</w>
l d
chi kan
be sætnings
distri but
N ød
I t</w>
sa vne</w>
hor moner</w>
dann ede</w>
Defini tioner</w>
tarifer ings
Max Utilities</w>
32 23</w>
værd sætter</w>
j alo
ar di
afvi gelser</w>
transi t
natur katastrofer</w>
Lu ke</w>
ANVENDELS EN</w>
vide res
til buds
T est
S lot</w>
ICA O</w>
verdensom spændende</w>
t at</w>
servi ces
te orien</w>
ryd de</w>
li den
hun den</w>
blod legemer</w>
ud bredte</w>
suspen deres</w>
rol len</w>
N um
udgift sområde</w>
træn ge</w>
revi sioner</w>
min dede</w>
foretru kne</w>
Fi lipp
Et hvert</w>
underteg nelsen</w>
forb ydes</w>
H um
ry gs
mælk spulver</w>
under vejs</w>
sp agten</w>
risik ere</w>
kon den
Ly t</w>
godt gørelser</w>
de ste</w>
be sti
Com pu
til bød</w>
STO F</w>
Øje blik</w>
udviklings samarbejde</w>
træ k
konkurrenc emyndig
Che f</w>
udval gene</w>
genop tage</w>
Tredjel and
Han k</w>
EP AR</w>
for kaste</w>
Kredi t
miljø er</w>
mat ch
general sekretæren</w>
uly kkes
nes byr
fød slen</w>
under støtte</w>
sætt elige</w>
lovgiv ende</w>
konkurr erende</w>
B 4</w>
men u</w>
lu gte</w>
befolk ningerne</w>
Regional politik</w>
Da vi
vir k</w>
landbru gets</w>
skul ær</w>
mål te</w>
hukomm else
forfær delige</w>
elektrom agne
T ør
L ag
p anik</w>
ind rettet</w>
hel lig
fri handels
facili teten</w>
byg gelse</w>
Sing ap
Off entlig</w>
D on</w>
AN S
12. 00</w>
- Tak</w>
skla sse</w>
begiven hederne</w>
ark ed
W y
sen i
ret ro
hon ning</w>
be kv
amp e
Pro te
Han sen</w>
ver nes</w>
frem byder</w>
fortro lighed</w>
by g</w>
Tredjeland skode</w>
Johan nes</w>
under lag</w>
blød dyr</w>
Ma in</w>
py ra
konstru ktivt</w>
kem oterapi</w>
spi r
sel le</w>
her ine</w>
g eres</w>
MED LEM
M M</w>
z en</w>
ne utro
kræ vende</w>
enc en</w>
Søl v</w>
IND RE</w>
tiltræ de</w>
sammen satte</w>
ba by
V og
Roy al</w>
M E
FINAN SI
B au
skriv ninger</w>
ci tet
C max</w>
sky gge</w>
[...]
