#version: 0.2
t h
i n
p o
a n
th e</w>
po s
r e
& a
t i
&a pos
&apos ;
e r
o n</w>
o u
in g</w>
o n
e n
t o</w>
a r
o u</w>
o f</w>
e d</w>
e r</w>
a t</w>
a l
o r
an d</w>
y ou</w>
i s</w>
i n</w>
i t
e s</w>
r o
s t
a t
o r</w>
o m
e l
a n</w>
v e</w>
a c
&apos; s</w>
i c
a ti
T h
n o
i s
e c
i t</w>
a l</w>
a s
h a
e n</w>
i l
w h
u s
e s
th at</w>
m e</w>
l e</w>
a s</w>
u r
er e</w>
l i
f or</w>
r i
l e
l o
s h
l y</w>
a y</w>
&apos; t</w>
ati on</w>
s i
b e</w>
q u
p ro
a b
d i
t s</w>
en t</w>
g h
u n
o t
e m
. .
@ -
@- @</w>
e t</w>
it h</w>
l d</w>
W h
al l</w>
ou r</w>
u l
w ith</w>
a g
Y ou</w>
e a
k e</w>
.. .</w>
c on
ou t</w>
e v
u c
ar e</w>
c om
gh t</w>
th is</w>
r a
th e
g o
no t</w>
b e
d o
r e</w>
c e</w>
no w</w>
Th e</w>
c h
ha ve</w>
n e
ti on</w>
on e</w>
a m
u t</w>
a d
ou ld</w>
w as</w>
o p
qu ot
ou n
us t</w>
quot ;</w>
& quot;</w>
e x
re s
o l
a p
t r
on s</w>
s u
f or
th er</w>
m e
t a
i d
i r
p l
w e</w>
h e</w>
y our</w>
&apos; m</w>
s e</w>
m y</w>
l l</w>
at e</w>
el l</w>
b y</w>
I t</w>
&apos; re</w>
2 0
A n
s e
t o
i m
k now</w>
ti c
it y</w>
h i
c an</w>
p e
an t</w>
d o</w>
o d</w>
C om
er s</w>
Wh at</w>
o w</w>
d e
N o</w>
th ing</w>
f f
e y</w>
w or
t er</w>
ur e</w>
a y
t ed</w>
p ar
po r
ro m</w>
k ing</w>
c i
il l</w>
d s</w>
wh at</w>
d on</w>
f rom</w>
s o</w>
re d</w>
c o
v er
t er
i d</w>
m o
p er
b er</w>
s om
m a
al ly</w>
u p</w>
m ent</w>
j ust</w>
W e</w>
g et</w>
s a
e g
b o
li ke</w>
d ing</w>
An d</w>
s t</w>
h ere</w>
f i
ab out</w>
t ing</w>
es s</w>
Com m
s p
th in
u s</w>
f in
a r</w>
ri ght</w>
en ts</w>
u t
u m
us e</w>
w n</w>
&apos; ll</w>
S t
w ill</w>
ou r
e ar
g u
re c
g i
e e
d uc
hi m</w>
si on</w>
an ce</w>
th ere</w>
d er</w>
n i
20 0
c l
h er</w>
st r
b ut</w>
i r</w>
A r
the y</w>
ac k</w>
g o</w>
sh all</w>
&apos ;</w>
k s</w>
re n
in e</w>
n o</w>
H e</w>
em ber</w>
ab le</w>
ea h</w>
as e</w>
or e</w>
ic h</w>
Th at</w>
at ed</w>
i f</w>
t e
an y</w>
ic e</w>
d e</w>
o ther</w>
ev er</w>
w ay</w>
ac c
O h</w>
u ro
o k</w>
e t
en t
go t</w>
v i
m in
& #
&# 9
Ar tic
Th is</w>
be en</w>
g h</w>
p p
sh ould</w>
wh ich</w>
r y</w>
ti me</w>
m on
E uro
in g
n a</w>
Y eah</w>
ha s</w>
w ant</w>
t w
v er</w>
&apos; ve</w>
ar y</w>
Artic le</w>
t h</w>
c h</w>
on al</w>
thin k</w>
l a
pro v
ar d</w>
ul ation</w>
m ore</w>
ti ve</w>
is sion</w>
d y</w>
as t</w>
k ay</w>
h is</w>
es s
som e
w ere</w>
an g
R eg
ti ons</w>
es t</w>
p re
ti es</w>
ag e</w>
d n</w>
ati ons</w>
sh e</w>
d ay</w>
ea r</w>
se e</w>
uc h</w>
v e
B ut</w>
m ar
it s</w>
d er
w ould</w>
a d</w>
at es</w>
a u
e p
for m
on g</w>
p r
w i
W ell</w>
i on</w>
d ed</w>
Euro pe
d is
es e</w>
s ec
the m</w>
Europe an</w>
p le
20 1
h o
a v
S o</w>
r ou
con t
re s</w>
s o
Reg ulation</w>
ec t</w>
Comm ission</w>
on na</w>
go ing</w>
b ack</w>
t y</w>
ac e</w>
ne ed</w>
i ght</w>
pro duc
s el
oun d</w>
t u
i c</w>
c re
wh o</w>
g onna</w>
ha d</w>
a m</w>
lo w
a use</w>
m an</w>
di d</w>
b le</w>
ev er
wh en</w>
I n</w>
s ti
f f</w>
ay s</w>
en d</w>
s er
ta ke</w>
en ti
por t</w>
com e</w>
the ir</w>
f e
wh ere</w>
ou s</w>
do wn</w>
o se</w>
p h
a me</w>
in to</w>
go od</w>
som e</w>
t al
c er
f e</w>
com m
o t</w>
il l
an y
M ember</w>
al l
c ould</w>
E C</w>
p res
i g
a f
th an</w>
el l
el y</w>
I f</w>
k ed</w>
for e</w>
o b
r u
e st
Th ey</w>
h ow</w>
b u
su b
en ce</w>
em ent</w>
re g
on ly</w>
S he</w>
an d
wor k</w>
p a
C h
u m</w>
e d
i es</w>
sp ec
m ay</w>
H ow</w>
s ure</w>
u b
n ing</w>
a re
f o
g re
u e</w>
an s
0 0</w>
s y
qu i
an k</w>
p ri
f ir
t ra
ver y</w>
v ing</w>
ma ke</w>
t le</w>
o ver</w>
is h
Y es</w>
ne w</w>
H ey</w>
h el
ear s</w>
I n
b ec
v es</w>
at ing</w>
wi th
cl u
op le</w>
f u
&apos; d</w>
re e</w>
E U</w>
s ay</w>
O kay</w>
f a
g ra
c oun
or y</w>
di dn</w>
ha pp
om e</w>
Th ere</w>
d ec
f ic
g e</w>
ac h</w>
i st
d ic
com p
y ing</w>
an c
St ates</w>
e l</w>
a in</w>
t ri
y ears</w>
le t</w>
b i
3 ;</w>
&#9 3;</w>
as s
ea d</w>
Wh y</w>
th ese</w>
1 ;</w>
&#9 1;</w>
t ur
re ally</w>
some thing</w>
an s</w>
o c
f ol
it e</w>
t en
th en</w>
or d
t ell</w>
pe ople</w>
el i
to o</w>
th ou
th or
bo dy</w>
al so</w>
f ac
tw o</w>
A ll</w>
ag o</w>
l it
ati onal</w>
m ust</w>
s or
is ion</w>
v ed</w>
g r
w an
in ter
o m</w>
sa id</w>
st e
is e</w>
a ve</w>
ff ic
ad e</w>
n ed</w>
op er
me an</w>
g e
pro c
t ec
il e</w>
L o
us ed</w>
ic al</w>
prov id
c ar
m an
D i
g en
m at
Com e</w>
o ff</w>
i al</w>
w a
s on</w>
fir st</w>
sel f</w>
m ents</w>
th ose</w>
i a</w>
ev en</w>
w ell</w>
al s</w>
w e
C oun
P ar
u res</w>
pl ic
j o
1 0</w>
ci al</w>
g s</w>
in t</w>
ing s</w>
un der
or s</w>
t ly</w>
t or</w>
U ni
is h</w>
i ties</w>
lit tle</w>
L et</w>
st u
n ever</w>
af ter</w>
b r
s uch</w>
b as
l ic
f ri
in form
tr y</w>
re l
po n
T H
y s</w>
D on</w>
1 9
ci l</w>
mar k
au thor
i l</w>
in d</w>
D o</w>
re ad
un der</w>
s c
be fore</w>
h e
Coun cil</w>
lo ok</w>
Uni on</w>
o w
f t</w>
do ing</w>
fol low
v en</w>
e en</w>
G o
m ade</w>
me as
ever y
en d
s ur
in clu
l es</w>
tr ans
d ev
lo c
d es
par tic
p e</w>
re f
su p
o l</w>
m il
lo w</w>
ch ang
ap p
m p
a in
fu l</w>
m uch</w>
r is
il ity</w>
bec ause</w>
lo o
inform ation</w>
M y</w>
at er</w>
st er</w>
Wh ere</w>
st ar
re at
ati ve</w>
gi ve</w>
ta in</w>
th rou
wh y</w>
in v
hel p</w>
u st
si de</w>
por t
ap plic
li fe</w>
ta in
D ec
ser v
ou l
ff e
lo ve</w>
ti m
n ational</w>
p s</w>
M ar
per i
j ec
un ity</w>
N ow</w>
en c
o kay</w>
sti ll</w>
G od</w>
re qui
f un
fin d</w>
w r
ac t</w>
ul ar</w>
F or</w>
n ec
o ld</w>
e i
el s</w>
ch o
as s</w>
Di rec
si g
li c</w>
il y</w>
c or
sh i
s et</w>
C on
pl ace</w>
l ast</w>
e w</w>
v al
p ub
res t</w>
be tw
t ter</w>
k no
betw een</w>
v en
r .</w>
h ear
c lo
1 0
ren t</w>
ay be</w>
J ust</w>
throu gh</w>
w s</w>
read y</w>
P ro
I s</w>
pro b
ic k</w>
m s</w>
sor ry</w>
is t</w>
p ec
th s</w>
ni ght</w>
T I
e ff
w ee
u h</w>
spec i
b l
mo st</w>
ab l
or der</w>
uc k</w>
b re
c ol
c ri
w ays</w>
in te
con si
oul dn</w>
o wn</w>
b ro
do es</w>
con cer
id e</w>
ee p</w>
si ble</w>
e ve</w>
ra p
ta k
is ed</w>
ic es</w>
l ong</w>
p ut</w>
c our
g ir
n um
p ur
ap pro
R e
s ed</w>
A re</w>
st o
ac h
st s</w>
follow ing</w>
ti c</w>
g y</w>
fi ed</w>
any thing</w>
happ en
el op
A l
- -</w>
h ou
ag ain</w>
c le
ex c
S h
N ot</w>
U n
c ap
ar i
Lo ok</w>
L i
tal k</w>
be ing</w>
b eli
u al</w>
the re
f ul
is i
y ear</w>
sa me</w>
t e</w>
ay ing</w>
l ess</w>
Th ank</w>
thou ght</w>
c all</w>
s s</w>
al i
c all
p le</w>
An ne
a ke</w>
mon ths</w>
s ol
c ase</w>
be tter</w>
le g
do c
si d
ee l</w>
n ame</w>
th er
f l
ut e</w>
meas ures</w>
O n
in t
a way</w>
Wh o</w>
t ure</w>
St ate</w>
ac ti
mark et</w>
b ot
acc ord
u d
produc ts</w>
Direc tive</w>
a k
m is
O N</w>
it ed</w>
est abl
E x
h ome</w>
2 0</w>
res pon
Comm unity</w>
e re
Y our</w>
g er</w>
ste m</w>
Anne x</w>
p ati
A c
ar ds</w>
p i
in ce</w>
N o
o ff
oun t</w>
c ur
to ld</w>
J o
Wh en</w>
str uc
I N
ar ound</w>
m ent
ac k
ve l</w>
d re
e ach</w>
st and</w>
thin gs</w>
er al</w>
C O
po int</w>
on d</w>
n er</w>
ou gh</w>
ro om</w>
b us
le v
di ffe
g l
w om
p en
d r
an ks</w>
A N
accord ance</w>
re gi
dev elop
s k
with out</w>
di rec
s ing</w>
at a</w>
em p
with in</w>
gu y</w>
es n</w>
o le</w>
com pe
par t</w>
in es</w>
th ree</w>
in cre
id e
m any</w>
w on</w>
S e
re m
f am
le ase</w>
ch ar
or g
er red</w>
Go od</w>
sy stem</w>
ir d</w>
par ag
ou t
M r.</w>
1 .
al ways</w>
w er</w>
te e</w>
G et</w>
ch il
cont ro
d u
gre at</w>
for m</w>
num ber</w>
m en
ro w</w>
u r</w>
pl ac
C an</w>
con di
ul t</w>
y our
li m
establ ish
bi g</w>
t a</w>
rap h</w>
ul es</w>
re as
hou se</w>
f ound</w>
res s</w>
an cial</w>
h ead</w>
P re
are a</w>
s m
d one</w>
im port
a il
ple ase</w>
lo t</w>
h an
j ect</w>
TH E</w>
di es</w>
h y
k eep</w>
z e</w>
ur ing</w>
c r
O J</w>
beli eve</w>
on om
t y
gu ys</w>
do esn</w>
f r
m ight</w>
l ine</w>
fri end</w>
partic ular</w>
n al</w>
R E
mon ey</w>
1 2</w>
k ind</w>
me ans</w>
wor ld</w>
chang e</w>
eff ec
al ity</w>
ne e
ever y</w>
et y</w>
st ed</w>
A s</w>
f eel</w>
d ays</w>
prob le
im ple
2 .
inclu ding</w>
an other</w>
u p
shi p</w>
s es</w>
no thing</w>
D id</w>
ti onal</w>
E n
k ill
ta king</w>
cour se</w>
qu es
s en
d ata</w>
in ess</w>
h um
d ra
an n
in i
pro gra
e f
nec ess
3 0</w>
I I</w>
l ar
re qu
com ing</w>
every thing</w>
g et
P o
bot h</w>
s it
fi c</w>
provid ed</w>
em s</w>
pl an
ec onom
d ro
pos ed</w>
ref erred</w>
isi ons</w>
T o</w>
gh ts</w>
parag raph</w>
t en</w>
E U
ou s
as k</w>
ri ed</w>
ren ce</w>
v ir
m en</w>
ge ther</w>
en g
po lic
a do
tec h
T E
wan ted</w>
Dec ision</w>
reg ard</w>
pos i
op e</w>
as n</w>
c as
le vel</w>
y es</w>
P lease</w>
Th en</w>
B o
av ing</w>
at ch</w>
al ready</w>
y e</w>
fin ancial</w>
p ect</w>
li am
c are</w>
is su
in s</w>
h ar
tri es</w>
proc ed
to gether</w>
G o</w>
jo b</w>
pati ents</w>
so ci
in ts</w>
le ft</w>
si r</w>
happen ed</w>
fic ation</w>
b ed</w>
tr ac
pub lic</w>
c a
4 .
m or
as si
is ation</w>
M o
b est</w>
tak en</w>
org an
p er</w>
d ate</w>
h ea
peri od</w>
sto p</w>
1 1</w>
I S
v is
n ess</w>
19 9
tim es</w>
it ing</w>
le ave</w>
ab ility</w>
5 0</w>
d ri
f uc
pos sible</w>
c ame</w>
A R
ti on
at h</w>
necess ary</w>
1 5</w>
it al</w>
gir l</w>
vi ew</w>
me dic
wr ong</w>
a ir
it tee</w>
tu ally</w>
en ded</w>
com ple
C o
M aybe</w>
ti l</w>
c es</w>
e as
b en
coun tries</w>
por ts</w>
er y</w>
ep t</w>
per s
in ation</w>
fin e</w>
m m
tic al</w>
wh ile</w>
pro tec
ne x
om e
em ents</w>
ain st</w>
al e</w>
n at
in k</w>
b ab
tal king</w>
d am
r ules</w>
B ec
b ur
ado p
fa ther</w>
c an
sti tu
at eg
some one</w>
ic k
Par liam
c ar</w>
ag re
R O
f ra
g rou
b ad</w>
po l
l an
ch ec
h ear</w>
under stand</w>
le ast</w>
U h</w>
c ra
b lo
ag ainst</w>
en ough</w>
appro pri
e p</w>
a z
k id
loo king</w>
man ag
Parliam ent</w>
fam ily</w>
em b
re al</w>
o ds</w>
l and</w>
oper ation</w>
ha ving</w>
k es</w>
el se</w>
h ol
h al
e m</w>
ell o</w>
st ing</w>
get ting</w>
ffic i
to p</w>
at t
inte rest</w>
par t
en tr
el ec
sid ent</w>
i str
to day</w>
200 6</w>
ur ity</w>
M a
k ill</w>
. .</w>
d uring</w>
d em
lo y
call ed</w>
d ead</w>
y s
nex t</w>
t on
B r
tr ying</w>
l ing</w>
sec ond</w>
wh ole</w>
cer tain</w>
u ation</w>
a id</w>
diffe rent</w>
l ed</w>
E E
hi gh</w>
f ace</w>
w ar
cont in
ac tion</w>
w al
condi tions</w>
b a
author ities</w>
sh o
requi re
import ant</w>
p ing</w>
in c
ad di
an ti
ad min
H ere</w>
min d</w>
o d
serv ices</w>
anc es</w>
st ance</w>
coun try</w>
our s</w>
sup port</w>
di v
en ds</w>
me di
i ous</w>
re port</w>
t reat
en sure</w>
tur n</w>
m er
Bec ause</w>
li ght</w>
w ent</w>
h ell</w>
is n</w>
at ely</w>
wor king</w>
t om
sh ow</w>
n s</w>
s ha
g ot
E C
re duc
Comm ittee</w>
un til</w>
av ail
pro m
On e</w>
c y</w>
bus iness</w>
s ince</w>
i ve</w>
er gy</w>
contro l</w>
per son</w>
m y
con tain
.. ..
o ver
ro w
an t
bu il
de fin
R ight</w>
m g</w>
G re
ris k</w>
produc t</w>
200 7</w>
sa w</w>
n y</w>
pre t
i z
rec ei
y eah</w>
M r</w>
se en</w>
de red</w>
w asn</w>
f ur
O F</w>
1 8</w>
u tion</w>
w ater</w>
su pp
ut es</w>
mo ther</w>
in dic
ou ble</w>
st ay</w>
enc y</w>
an im
s ul
li ve</w>
i p
k er</w>
th ird</w>
to ok</w>
b el
W a
li on</w>
wi fe</w>
h ard</w>
M E
c al
ad v
g g
wa it</w>
ro ss</w>
b ility</w>
for ce</w>
blo od</w>
comm on</w>
at or</w>
f il
he al
S ome
appropri ate</w>
your self</w>
h on
bre a
y et</w>
la w</w>
me et</w>
t ot
star t</w>
me th
t ers</w>
t ent</w>
treat ment</w>
0 00</w>
3 .
1 4</w>
applic ation</w>
O f</w>
ous ly</w>
i m</w>
id enti
H ello</w>
or m
in ing</w>
wh e
S ec
gi ven</w>
us ing</w>
n on</w>
pos e</w>
an ts</w>
ex am
l s</w>
re lev
p ic
r ang
F r
mo ve</w>
W i
st and
f ree</w>
in ten
mat ter</w>
s cho
i e</w>
rem ember</w>
wom an</w>
re co
avail able</w>
ar ly</w>
develop ment</w>
e ts</w>
R o
hear d</w>
pl ay</w>
2 5</w>
t re
200 9</w>
e qu
ver n
g ation</w>
ag es</w>
m m</w>
in al</w>
ab ly</w>
ide a</w>
ve st
fe w</w>
bas ed</w>
b it</w>
on ce</w>
en s</w>
s le
require ments</w>
1 3</w>
econom ic</w>
op en</w>
es ti
O n</w>
or d</w>
in d
proble m</w>
polic y</w>
a w
Th anks</w>
en ing</w>
sa f
as ed</w>
m aybe</w>
c ha
y l
pro f
no ti
e ting</w>
h and</w>
f y</w>
200 8</w>
ch e
speci fic</w>
concer ned</w>
ac tually</w>
D o
di e</w>
h ur
l ec
sh it</w>
it ted</w>
n ice</w>
J u
ex t</w>
acc ount</w>
a ff
un ic
ar m
v ely</w>
there fore</w>
H i</w>
bab y</w>
Wa it</w>
t ors</w>
prov isions</w>
A d
im um</w>
hum an</w>
m i
c ul
k new</w>
T reat
S or
H aving</w>
in ed</w>
dre n</w>
des ig
or ig
C ar
ma king</w>
D e
T r
b ea
ex p
vir on
bas is</w>
bo y</w>
1 6</w>
t able</w>
s aying</w>
ab o
Euro pe</w>
hal f</w>
ur al</w>
fo od</w>
P e
E EC</w>
en ergy</w>
s w
a ir</w>
do se</w>
A u
t on</w>
G u
Th ese</w>
di st
ty pe</w>
ini ti
mon th</w>
200 4</w>
w ouldn</w>
con f
bu d
fe rence</w>
A gre
e qui
Se e</w>
thou gh</w>
st ory</w>
un e</w>
fuc king</w>
200 5</w>
ad d
Pre sident</w>
enti al</w>
de ter
pro pos
ap prov
li st
ell ing</w>
am es</w>
hi gh
ful l</w>
ob jec
ac tions</w>
ve red</w>
h ic
provid e</w>
sec urity</w>
nee ds</w>
relev ant</w>
p ul
k ey</w>
scho ol</w>
kill ed</w>
in a</w>
res ul
dec ision</w>
M on
Sor ry</w>
admin istr
app ly</w>
res pect</w>
por ted</w>
wan na</w>
O R
pr in
g n
po wer</w>
b or
un i
mor ning</w>
ei ther</w>
produc tion</w>
leg al</w>
emp loy
f re
posi tion</w>
m a</w>
w ard</w>
a h</w>
chil dren</w>
J an
ati c</w>
ques tion</w>
re pres
t est</w>
L e
p ay
H A
d ers</w>
Treat y</w>
al one</w>
par ty</w>
h ours</w>
A TI
ass ess
inv ol
s ing
li e</w>
E ver
ou th</w>
ish ed</w>
f ar</w>
st an
O K</w>
b it
ent ly</w>
is s</w>
T o
c ou
con c
l ab
so cial</w>
y oun
Agre ement</w>
got ta</w>
b er
id ence</w>
v ol
l on
gu ess</w>
con su
ati on
d el
Ever y
r ic
ru n</w>
doc tor</w>
A t</w>
protec tion</w>
pret ty</w>
H ow
applic able</w>
ment ation</w>
i an</w>
do or</w>
m ine</w>
5 .
Ex c
ri bu
li ed</w>
E R
hear t</w>
u ti
si ve</w>
re ad</w>
whe ther</w>
br ing</w>
H ave</w>
gh ter</w>
in f
grou p</w>
tur al</w>
2 4</w>
fri ends</w>
ea k</w>
pl an</w>
ve hic
p ed</w>
s al
in vest
um ents</w>
en viron
si ons</w>
acc ess</w>
at ory</w>
g one</w>
n er
el d</w>
vi ties</w>
inte re
Dec ember</w>
in stitu
S o
E A
tic s</w>
c ause</w>
str y</w>
in st
201 3</w>
ac tly</w>
fur ther</w>
d en</w>
sh ow
m me</w>
er i
6 .
h and
val ue</w>
ph one</w>
i gh
a st
U N
p ass
sy st
comp any</w>
on es</w>
an al
W ith</w>
e b
Q u
ho ld</w>
1 7</w>
T ake</w>
wor d</w>
fi ve</w>
ta il
z y</w>
I S</w>
ma in</w>
h un
min utes</w>
reg ul
b and</w>
2 1</w>
m ul
serv ice</w>
f ast</w>
h or
proced ure</w>
cl us
wee k</w>
l ater</w>
can not</w>
compe ti
acti vities</w>
A b
fac t</w>
do m</w>
er ing</w>
h ope</w>
my self</w>
sm all</w>
in ion</w>
om s</w>
lo g
st at
se e
h er
de p
s uc
clo se</w>
wan ts</w>
ha ven</w>
sub m
G en
th ers</w>
rel ated</w>
div id
lo st</w>
so on</w>
as h</w>
v o
sub ject</w>
A L</w>
st ra
k y</w>
P l
H am
im p
0 .
In ter
or row</w>
r it
fun c
at s</w>
201 1</w>
I C
Li ke</w>
ge ts</w>
any one</w>
d ge</w>
1 00</w>
am ount</w>
pr ice</w>
How ever</w>
mo d
v ity</w>
manag ement</w>
is m</w>
f our</w>
o s</w>
ic a</w>
ar t</w>
de al</w>
mil lion</w>
re comm
m us
cle ar</w>
ffic ial</w>
O r</w>
c ir
imple mentation</w>
2 2</w>
u es</w>
po t
happ y</w>
go vern
m om
ti ves</w>
am ended</w>
mo m</w>
c ust
ut y</w>
s ays</w>
ati s
ful ly</w>
lo gy</w>
T ell</w>
I m
ut ure</w>
at ever</w>
kno wn</w>
bro ther</w>
l ist</w>
saf ety</w>
at ch
po n</w>
1 8
thin king</w>
r ate</w>
ex ist
youn g</w>
com b
201 0</w>
tr ue</w>
ear ch</w>
v ari
l ate</w>
B e
us ti
ri ghts</w>
se t
t ab
ot e</w>
com es</w>
f av
pr is
t ar
h ot
p ay</w>
I s
al low
3 1</w>
e f</w>
le ar
S top</w>
men ting</w>
A f
off ice</w>
consi dered</w>
n ical</w>
n orm
en ter</w>
r un
b al
d ar
sh ot</w>
M ay</w>
heal th</w>
prin ci
co sts</w>
ere as</w>
por ting</w>
4 0</w>
spec ial</w>
requi red</w>
wee ks</w>
ma kes</w>
F in
f uture</w>
abo ve</w>
c le</w>
d ad</w>
b il
gen eral</w>
g ave</w>
c ouldn</w>
is l
our ces</w>
s us
t ro
as h
0 0
oun ds</w>
or ies</w>
ton ight</w>
ac hi
gen er
reas on</w>
sit uation</w>
c k</w>
inv esti
plac ed</w>
me work</w>
th ank</w>
pri v
g ame</w>
A C
s ci
C ha
c am
author ity</w>
1 2
b ra
ni fic
h uh</w>
1 9</w>
w on
stu ff</w>
P er
sing le</w>
S p
d es</w>
happ en</w>
g ed</w>
b ar
u fac
tra de</w>
G er
wor ks</w>
chec k</w>
EU R</w>
as ked</w>
Re ally</w>
tot al</w>
ver s
op inion</w>
establish ed</w>
ben ef
S I
there of</w>
de ath</w>
wom en</w>
m ur
- -
sh or
ATI ON</w>
200 3</w>
mon it
it er
at ors</w>
m et</w>
inter national</w>
leg isl
be g
s po
per form
la id</w>
w in
d eli
comp an
f uck</w>
201 2</w>
f ile</w>
ex peri
en ding</w>
pp ed</w>
li es</w>
1 3
F un
A D
CO M
d it</w>
fr on
An y
prob ably</w>
cas es</w>
S u
P ol
s ent</w>
proc ess</w>
concer ning</w>
compe tent</w>
w o
kid s</w>
syst ems</w>
effec ts</w>
fo re
min ute</w>
L ist
in side</w>
qu ality</w>
G r
tom orrow</w>
201 4</w>
pl es</w>
A mer
de st
n a
A s
E S</w>
o x
j ud
every one</w>
k id</w>
1 7
b ut
gr an
t em
si mp
str ic
R ep
w ea
J une</w>
o f
as soci
ex actly</w>
D ad</w>
O N
p tion</w>
gen cy</w>
sig nific
adop ted</w>
f ish
co operation</w>
x ed</w>
kno ws</w>
N e
wor ry</w>
w ish</w>
an g</w>
ac tive</w>
ment al</w>
pur su
fi eld</w>
ter m</w>
st ate</w>
sec tor</w>
th y</w>
au ghter</w>
d ue</w>
st e</w>
emb ers</w>
bec ome</w>
d en
N ew</w>
d ings</w>
M an
co vered</w>
v ic
2 3</w>
sup posed</w>
ac y</w>
to wn</w>
b ri
T u
S er
partic ip
po w
incre ase</w>
List en</w>
g row
chil d</w>
c ent
in str
u ment</w>
Jo h
m ed</w>
pa in</w>
mp ;</w>
&a mp;</w>
y l</w>
O c
ut h</w>
we ight</w>
a im
out side</w>
H ar
ne t
fe el
c op
k ers</w>
eg r
on ed</w>
proc ess
trans port</w>
IN G</w>
re n</w>
h us
resul ts</w>
di ed</w>
e yes</w>
fi ght</w>
ch ance</w>
Ham ster</w>
se qu
ser ious</w>
st re
V i
rou ght</w>
x Hamster</w>
l in
ob li
F or
ma j
w el
ex pl
in divid
AN D</w>
ea m</w>
han ds</w>
comm unic
No thing</w>
uti ful</w>
t or
m ission</w>
G ive</w>
e at</w>
elec tr
st ances</w>
con nec
b ir
list en</w>
tech nical</w>
are as</w>
b ul
progra mme</w>
r ing</w>
or ding</w>
pres ent</w>
ven tion</w>
m ess
pol ice</w>
loo ks</w>
n et</w>
cer ti
co ver</w>
l at
des cri
star ted</w>
du stry</w>
p ap
Ch ar
u re
Po ints</w>
D r.</w>
ch em
h ind</w>
kno w
si bility</w>
st a
ub lic</w>
d ouble</w>
deter min
f el
cra zy</w>
direc tly</w>
C ap
me eting</w>
or ing</w>
Un ited</w>
h it</w>
sec tion</w>
O r
s ite</w>
un ch</w>
eff ect</w>
sa fe</w>
Wi en</w>
6 0</w>
str ateg
t ou
hur t</w>
s cre
ma in
Af ter</w>
m ach
eas y</w>
n am
c ut</w>
d um
A T
man ufac
H is</w>
gu ar
ex pec
ri st
T w
ys is</w>
ho sp
s .</w>
c are
N or
un g
bo ok</w>
inclu de</w>
d om
pa red</w>
10 10</w>
lo se</w>
tr an
B ar
fi re</w>
Wh ereas</w>
d aughter</w>
an e</w>
nat ural</w>
ep t
tu res</w>
J es
u ary</w>
Mar ch</w>
c us
, 000</w>
ffici ent</w>
b rought</w>
p ment</w>
C our
g ar
M r
sec re
be hind</w>
A h</w>
S C</w>
trans f
loc k</w>
Jan uary</w>
ti ll</w>
cir c
ou ght</w>
de b
e ase</w>
le ad
E R</w>
u ally</w>
propos al</w>
bo o
establish ing</w>
o gra
assess ment</w>
si x</w>
at ure</w>
d ru
mom ent</w>
int ro
hus band</w>
nee ded</w>
ti z
in dustry</w>
fu n</w>
jec ts</w>
go ods</w>
anc ing</w>
pa ren
stan ding</w>
cou ple</w>
sel ves</w>
en e</w>
pl ay
2 8</w>
intro duc
le y</w>
ther ap
g lo
fron t</w>
ec e</w>
bea utiful</w>
c y
B y</w>
Gen eral</w>
fra mework</w>
w ards</w>
Exc use</w>
gr ound</w>
M om</w>
res earch</w>
d in
Ju ly</w>
O ur</w>
201 6</w>
tech no
ic ally</w>
ati ves</w>
fl u
ig n</w>
ell s</w>
re ference</w>
de tail
n e</w>
agre ement</w>
brea k</w>
it ch
o h</w>
lev els</w>
C ol
E N
in no
S T
F o
m ag
co de</w>
po li
tr uth</w>
ev idence</w>
en ted</w>
s am
j ust
dr ink</w>
M i
1 5
7 .
in jec
ren g
gu n</w>
cont ribu
gu e</w>
lon ger</w>
on ic</w>
W or
v ation</w>
suc c
effec tive</w>
st or
ord ers</w>
tr act</w>
R es
ra id</w>
pro ve</w>
dam n</w>
requ est</w>
progra mm
loc al</w>
l or
car ried</w>
per f
2 6</w>
A n</w>
COM M
A L
proced ures</w>
cap ac
con trac
an k
ust ri
cur rent</w>
id ed</w>
to ber</w>
w atch</w>
2 7</w>
Oc tober</w>
M e
st oc
h ate</w>
f lo
addi tional</w>
tr ust</w>
ma x
enc es</w>
su per
200 2</w>
es sion</w>
s pe
I II</w>
are n</w>
go es</w>
wa iting</w>
No v
norm al</w>
tion ing</w>
O P
log ical</w>
.... ....
2 9</w>
c ity</w>
is ing</w>
ti s
7 5</w>
th ro
wor ds</w>
ro ad</w>
s il
fin al</w>
li ving</w>
de f
al most</w>
fa il
acc ording</w>
ne y</w>
i re</w>
pa id</w>
W ill</w>
bo ard</w>
S ure</w>
anim al</w>
ap pe
af raid</w>
im prov
sle ep</w>
col lec
ri b
J ap
1 4
c o</w>
il i
di ffic
tri ed</w>
int egr
any more</w>
G e
S ome</w>
ev al
ver se</w>
respon sible</w>
U L
E S
p es</w>
res ult</w>
entr al</w>
pro per
pos es</w>
t elling</w>
ar t
cr iter
cor rec
qu ite</w>
co st</w>
ter ms</w>
tra ining</w>
wal k</w>
p ast</w>
nat ure</w>
stu dy</w>
ic an</w>
ill ed</w>
ag ed</w>
pur pose</w>
bre ak
ad y</w>
O R</w>
M in
po ints</w>
incre ased</w>
U m</w>
sp eak</w>
sen se</w>
op port
O ther</w>
imp act</w>
priv ate</w>
at ten
R us
lo gi
t eam</w>
P r
g es</w>
h our</w>
H o
la u
guar an
compan ies</w>
Cour t</w>
st ain
T ur
le ts</w>
oun ts</w>
t al</w>
buil ding</w>
pr ices</w>
U S
k e
pec i
H el
cre dit</w>
proble ms</w>
im medi
equi pment</w>
201 5</w>
mar ried</w>
n ers</w>
k en</w>
j u
invest ment</w>
k et</w>
res pec
vehic le</w>
I T
m er</w>
Jes us</w>
ar rang
struc ture</w>
ric ul
S ir</w>
m embers</w>
T O</w>
air s</w>
ra di
1 6
char ac
ar s</w>
d a
ver age</w>
par ties</w>
chang es</w>
st reng
p t</w>
anim als</w>
y a</w>
gir ls</w>
M ic
se ts</w>
bel ow</w>
t ect</w>
RO P
or ity</w>
d ang
f er
m l</w>
ar m</w>
re placed</w>
fi g
ci tiz
le ad</w>
8 0</w>
contin ue</w>
a ther</w>
m ist
c ro
u pon</w>
ans wer</w>
g ar</w>
ch i
reg ar
er c
in e
for c
res ources</w>
qu anti
ho t</w>
C l
ta x</w>
ill s</w>
gran ted</w>
Ch rist
B i
p rec
si mil
ex ten
g as</w>
ec ted</w>
dep end
A T</w>
p ack
ne ws</w>
dis cus
B ri
S y
us h</w>
al ong</w>
Rep ublic</w>
issu e</w>
exam ple</w>
Y O
in ary</w>
re r</w>
ag ricul
capac ity</w>
EE SC</w>
0 6</w>
m id
legisl ation</w>
ear ly</w>
invol ved</w>
ex per
re li
max imum</w>
us es</w>
pub lic
add ress</w>
An y</w>
ept ember</w>
bo dies</w>
A S</w>
N E
pri l</w>
en ed</w>
er ial</w>
ur y</w>
si ster</w>
ter rit
wh atever</w>
st ri
stu dies</w>
s end</w>
pur poses</w>
H ung
S eptember</w>
pers onal</w>
pro g
Wh ich</w>
li ves</w>
run ning</w>
id es</w>
F ir
sp ir
t es</w>
a red</w>
cl in
sa ve</w>
prom ise</w>
200 1</w>
s ound</w>
z ed</w>
A pril</w>
9 0</w>
pr ac
th re
. e
w ise</w>
w ed
pers ons</w>
recei ved</w>
EE A</w>
sh are</w>
im port</w>
P h
sti t
tur ned</w>
experi ence</w>
Tw o</w>
tain ed</w>
L a
h im
pot ential</w>
conc entr
Gre at</w>
l l
200 0</w>
al low</w>
est er
ali ve</w>
repres ent
char ge</w>
your s</w>
cont act</w>
I tal
an ing</w>
defin ed</w>
w it
en try</w>
pursu ant</w>
es si
se par
o a</w>
Br us
cri min
sel s</w>
institu tions</w>
our nal</w>
pro ject</w>
low er</w>
s it</w>
dri ve</w>
re turn</w>
tu al</w>
ques tions</w>
b an
e duc
signific ant</w>
consi der
t ;</w>
organ is
approv al</w>
M iss</w>
Nov ember</w>
s mo
re ported</w>
pub l
sol ution</w>
feel ing</w>
se x</w>
com mod
criter ia</w>
ex pres
v ent</w>
ne w
some body</w>
bu y</w>
T i
f ish</w>
O p
contin u
im ports</w>
Brus sels</w>
TE D</w>
j usti
stand ards</w>
sig n</w>
id ent</w>
for get</w>
at e
plac es</w>
te red</w>
cl assi
k ee
b all</w>
simil ar</w>
ever al</w>
mul ti
wh ite</w>
ti n</w>
th em
v al</w>
an ese</w>
tak es</w>
st er
li ance</w>
se ems</w>
addi tion</w>
c u
w ar</w>
tr ouble</w>
F rom</w>
exist ing</w>
h ey</w>
0 1</w>
investi gation</w>
contain ing</w>
pay ment</w>
shor t</w>
gi ving</w>
rel ating</w>
mar k</w>
speci fied</w>
bl ack</w>
c ent</w>
ren tly</w>
re pe
A m
ur o</w>
av o
E ven</w>
ann ual</w>
paren ts</w>
individ ual</w>
k in</w>
reg ards</w>
st op
g ent
p id</w>
B ra
fol low</w>
a head</w>
all s</w>
fac il
ol s</w>
X X
V ery</w>
B l
c ross</w>
ari an</w>
g ations</w>
therap y</w>
Joh n</w>
requ est
ec han
ee ding</w>
pre gn
dis ease</w>
su stain
lar ge</w>
partic ul
R om
On ly</w>
ad just
J ournal</w>
H e
ot ing</w>
en ter
a im</w>
direc t</w>
O fficial</w>
him self</w>
hy dro
grow th</w>
ste p</w>
o thers</w>
stand ard</w>
vi ously</w>
administr ation</w>
ti s</w>
p an
programm es</w>
mis s</w>
pro tect</w>
inter nal</w>
EU ROP
ad ded</w>
T ra
EA N</w>
t un
1 2.
qu e</w>
W ould</w>
d ou
s we
for ward</w>
ha ir</w>
c ateg
cho ice</w>
chang ed</w>
form s</w>
know le
employ ment</w>
d uty</w>
tre ated</w>
high er</w>
pres sure</w>
ist er</w>
achi ev
str ong</w>
9 .
ro le</w>
ac ross</w>
do g</w>
every body</w>
subm itted</w>
8 .
acti vity</w>
D am
con sul
K eep</w>
o k
M e</w>
app lied</w>
i ons</w>
li k
g ing</w>
TH IS</w>
co ol</w>
L ord</w>
b le
s ch
an a</w>
u n</w>
7 0</w>
govern ment</w>
vi l</w>
rang e</w>
objec tives</w>
ent al</w>
anal ysis</w>
0 8</w>
ach ed</w>
v ill
inten ded</w>
vi e
e th
Fir st</w>
competi tion</w>
Jap anese</w>
stu pid</w>
pre ci
EUROP EAN</w>
L u
f all</w>
Artic les</w>
k g</w>
on er</w>
inclu ded</w>
wa ste</w>
res sed</w>
b ers</w>
co ord
sur ance</w>
poli tical</w>
ra ther</w>
bo ys</w>
I T</w>
com pl
im m
y er</w>
sp ace</w>
fun ny</w>
Au thor
bud get</w>
B el
la d</w>
le aving</w>
d le</w>
ing ly</w>
w ing</w>
un ities</w>
Ch ris
injec tion</w>
th anks</w>
ph ys
val ues</w>
li sted</w>
Th ose</w>
cap ital</w>
pati ent</w>
mat erial</w>
o ffic
ec h
c li
as king</w>
Rus si
dec ided</w>
an e
v ision</w>
off er</w>
c au
issu es</w>
fig ure</w>
W ow</w>
x es</w>
ac ts</w>
m it</w>
monit oring</w>
B ro
he re
l y
glo b
tr a</w>
s qu
pre par
call s</w>
p u
o p</w>
anc ed</w>
b on</w>
C or
vi ous</w>
it ation</w>
bas ic</w>
H on
c el
fo c
w in</w>
m as</w>
R em
C I
a il</w>
din ner</w>
t ation</w>
re view</w>
appro ach</w>
pr ise</w>
3 4</w>
cor por
C a
ven ess</w>
la w
0 5</w>
po p
c ris
g ni
wor ked</w>
do w
meas ure</w>
con fir
l am
vi a</w>
bi o
B u
ha ps</w>
ex clu
s everal</w>
supp ly</w>
hel d</w>
maj or</w>
su gg
f ru
incre as
approv ed</w>
pl aying</w>
ic ity</w>
regi onal</w>
cl ass</w>
re ly</w>
a k</w>
re ma
z z
environ ment</w>
con duc
YO U</w>
fa ult</w>
H old</w>
ex port</w>
lan gu
won der
ta il</w>
p ick</w>
fi xed</w>
ot h</w>
N ice</w>
m echan
s ick</w>
M m</w>
our ce</w>
fre e
min imum</w>
en s
ut ting</w>
ti vely</w>
P RO
ef for
3 5</w>
un k</w>
par ts</w>
n ear</w>
b in
m em
stu d
pro jects</w>
ter nal</w>
sec on
A S
al ing</w>
instr uments</w>
soci ety</w>
199 9</w>
fa ir</w>
w atch
do w</w>
em er
lim ited</w>
b ack
d ly</w>
environ mental</w>
er t</w>
J e
am ong</w>
ang e</w>
fish ing</w>
F uck</w>
it ure</w>
er ous</w>
clus ion</w>
expec ted</w>
l ying</w>
G ot</w>
p ter</w>
S tr
ho w
citiz ens</w>
f le
sig ned</w>
perform ance</w>
bit ch</w>
h u
C al
se em</w>
ad dy</w>
t el
U C
pl ant</w>
ic s</w>
ou d</w>
J ack</w>
agricul tural</w>
m outh</w>
A g
4 5</w>
mo vi
b ye</w>
associ ated</w>
commod ation</w>
cal cul
mo ving</w>
le t
re sid
perf ect</w>
p at
a ut
Im ple
ch ed</w>
comm it
ci es</w>
certi fic
struc tion</w>
pr acti
happen s</w>
h om
cont ent</w>
rel ation
b order</w>
Tu be</w>
e ye</w>
ser ved</w>
re stric
ch all
wr it
Do es</w>
administr ative</w>
comple te</w>
anc y</w>
s er</w>
HA S</w>
loc ation</w>
Cap tain</w>
follow s</w>
go ti
mat eri
beli ev
0 7</w>
D ev
3 2</w>
lo ss</w>
ex pos
Pe ople</w>
mo ved</w>
con tract</w>
d a</w>
ri c</w>
W il
mark ets</w>
I N</w>
so li
Mr s.</w>
re t
T S</w>
ev ent</w>
con clu
ch es</w>
ph ot
ren ch</w>
s li
de l</w>
bor n</w>
cer tain
l ines</w>
T a
P or
com pon
S ince</w>
M ad
manufac tu
id s</w>
F eb
bo x</w>
polic ies</w>
k ept</w>
mur der</w>
D av
s ev
ex change</w>
ec tion</w>
R ec
D oc
c anc
Feb ru
break fast</w>
uc ky</w>
Every thing</w>
immedi ately</w>
Febru ary</w>
R i
gre ater</w>
enti re</w>
produc ers</w>
o il</w>
e ed</w>
peci ally</w>
grou ps</w>
as su
atten tion</w>
L ea
fun ds</w>
sor t</w>
e x</w>
it ary</w>
benef it</w>
E l
ne goti
im ag
D one</w>
id el
in surance</w>
3 3</w>
Christ mas</w>
3 6</w>
s em
I V</w>
A p
to wards</w>
201 7</w>
tou ch</w>
m ic
m ember</w>
su gar</w>
sk in</w>
hosp ital</w>
func tion</w>
v a</w>
a po
provid es</w>
ag ree</w>
M ore</w>
es pecially</w>
v ers</w>
B e</w>
ar ri
F ine</w>
us h
sh ouldn</w>
imple menting</w>
s ou
l ady</w>
S ha
car ry</w>
su mm
recomm ended</w>
R I
acc ep
r an</w>
pap er</w>
ri ble</w>
hol ding</w>
ap po
pro posed</w>
cle an</w>
wor th</w>
ver i
B et
ph arm
any way</w>
ol ution</w>
f at</w>
jo y</w>
comp liance</w>
ab les</w>
enti oned</w>
of ten</w>
orig in</w>
l er</w>
contain s</w>
P ut</w>
am end
ar ing</w>
vi ol
assi stance</w>
intere sted</w>
mess age</w>
M E</w>
pi ece</w>
oper ating</w>
exc ept</w>
on y</w>
co ld</w>
M or
E D</w>
f ying</w>
1 ,
un less</w>
ter n
c lim
y ed</w>
lo ad</w>
S i
re ali
in sul
fel t</w>
gent le
En gl
re d
ing dom</w>
s tic
a verage</w>
ill ing</w>
h op
E con
st age</w>
ar r
strateg y</w>
call ing</w>
respon se</w>
ffe e</w>
ann y</w>
th i
cris is</w>
particul arly</w>
hi story</w>
un g</w>
oper ations</w>
medic al</w>
sta ff</w>
A gency</w>
lik ely</w>
M ed
how ever</w>
Econ om
B ye</w>
dou b
in ated</w>
Th ere
circ um
is on</w>
clin ical</w>
al o
materi als</w>
ti e</w>
educ ation</w>
li er</w>
author isation</w>
AD OP
prof essi
v ement</w>
4 3</w>
vehic les</w>
co l</w>
reco gni
b ank</w>
fic ations</w>
A R</w>
4 8</w>
prog ress</w>
dest ro
u me</w>
M an</w>
pl as
g en</w>
ADOP TED</w>
mp tion</w>
um p</w>
Lo o
exp lo
s n
defin i
che me</w>
pers on
sub stance</w>
f la
sur vi
doc uments</w>
x im
col le
cl aim
V E</w>
ap art
wh ose</w>
loc ated</w>
ab il
W al
t ely</w>
rec or
sc ared</w>
Some thing</w>
e red</w>
f requ
tur ing</w>
net work</w>
r ac
si ze</w>
c atch</w>
lear n</w>
issu ed</w>
s is</w>
us e
an ds</w>
H ol
sci enti
c ell</w>
s wee
practi ce</w>
9 5</w>
er a</w>
loo ked</w>
pharm ac
Ge or
Imple menting</w>
fil m</w>
k a</w>
organis ations</w>
SI ON</w>
sti c</w>
l led</w>
ul ations</w>
on str
w ear</w>
knowle dge</w>
D an
mus ic</w>
m ing</w>
f illed</w>
desig ned</w>
W as</w>
A U
mis sing</w>
ob s</w>
P ri
hon ey</w>
ec h</w>
in ating</w>
re ports</w>
S c
mil k</w>
reas ons</w>
D is
K o
C ould</w>
sub stances</w>
see ing</w>
Hel p</w>
AN NE
There fore</w>
hea ding</w>
ar tic
coun t</w>
ess es</w>
G i
gh t
A pp
wel come</w>
ni e</w>
se a</w>
Amer ica</w>
Par t</w>
any body</w>
H ot
el ess</w>
s atis
re ach</w>
regar ding</w>
v ide
bin ding</w>
ex erc
c ard</w>
in ning</w>
b et</w>
comm er
E L
O L
am ending</w>
ant i</w>
organ isation</w>
doc ument</w>
fin ally</w>
ig r
o fficial</w>
public ation</w>
l uck</w>
hot el</w>
ur b
e ding</w>
ti veness</w>
dem onstr
qu ar
y le</w>
g er
cour t</w>
p ass</w>
prac tic
em o
Sh ut</w>
fic i
S ar
b b
ev ents</w>
st ore</w>
ren ces</w>
pp ing</w>
ANNE X</w>
r a</w>
spec ies</w>
b ar</w>
F e
dow n
di a</w>
g lad</w>
reduc tion</w>
ogra ph
on g
vis it</w>
ac ked</w>
da ily</w>
dec isions</w>
medic ine</w>
some times</w>
agre ed</w>
B ud
le ment</w>
fin ancing</w>
expl ain</w>
le tter</w>
secre t</w>
ess ential</w>
ther wise</w>
lim it</w>
determin ed</w>
ut ely</w>
ci vil</w>
vari ous</w>
ex t
D u
me at</w>
ne l</w>
comple tely</w>
gr and
se ar
sho ot</w>
un d</w>
allow ed</w>
sh ut</w>
ac id</w>
territ ory</w>
happen ing</w>
e uro</w>
objec tive</w>
t ext</w>
in depend
consi der</w>
diffic ult</w>
cust oms</w>
s ex
9 6</w>
A t
9 8</w>
Sec tion</w>
N ever</w>
s y</w>
flo or</w>
S P
pic ture</w>
to col</w>
princi ple</w>
sp a
Fr ance</w>
transf er</w>
end iture</w>
in ted</w>
fe et</w>
pl at
U R
star ting</w>
econom y</w>
i ed</w>
res er
H er</w>
sol utely</w>
we ird</w>
st atis
ac ting</w>
0 2</w>
relation ship</w>
Ger many</w>
cust om
F ather</w>
in spec
C ause</w>
20 0</w>
re p
d ear</w>
ester day</w>
g .</w>
d ance</w>
wr ite</w>
Econom ic</w>
G rou
im prove</w>
adv ant
su fficient</w>
tab lets</w>
ou se</w>
s mar
part ment</w>
t ory</w>
- I</w>
ne igh
Wi th
rec ord</w>
it self</w>
sub paragraph</w>
mo di
in fra
j e
ne g
B ack</w>
M c
ent ation</w>
E ar
M il
dec ide</w>
ass es</w>
ag ing</w>
author ised</w>
Author ity</w>
stra ight</w>
de tec
A P
us ion</w>
tar get</w>
N O
wr iting</w>
cont ext</w>
set t
form ation</w>
b ig
T ot
publ ished</w>
ren cy</w>
s cheme</w>
prov ision</w>
A le
meth od</w>
contribu tion</w>
IS SION</w>
cor respon
gh ting</w>
comp u
dro p</w>
comb ination</w>
ho od</w>
st ation</w>
ha el</w>
di um</w>
un it</w>
posi tive</w>
qu ali
m ers</w>
p re</w>
medic inal</w>
respon sibility</w>
r o</w>
them selves</w>
w ine</w>
s ell</w>
uc k
S am</w>
Tr ans
cri me</w>
M al
sc ope</w>
co ffee</w>
w ide</w>
l es
cau ght</w>
m entioned</w>
3 7</w>
as sets</w>
Dam n</w>
l a</w>
oc c
ver sion</w>
le ar</w>
all ing</w>
we ren</w>
e .
we b
am az
diffe rence</w>
F rench</w>
Cha pter</w>
oc r
communic ation</w>
S ch
S lo
noti ce</w>
E very</w>
pos t</w>
g ust</w>
indic ated</w>
desig n
requi re</w>
w at
COMM ISSION</w>
RE G
ri es</w>
consu mption</w>
shi ps</w>
g ro
agre ements</w>
vo ice</w>
idel ines</w>
com pared</w>
ti ts</w>
e ffici
num bers</w>
s even</w>
h id
detail ed</w>
ch ing</w>
C H
0 4</w>
pl ans</w>
qu ick
wor se</w>
Ac tually</w>
St ay</w>
mp tom
rel ation</w>
ben e
com par
ear ing</w>
ME N
mark eting</w>
some where</w>
S a
sp ea
ad equ
ba g</w>
an tly</w>
wo od</w>
equ al</w>
eg et
cle arly</w>
A N</w>
con v
me ant</w>
obli gations</w>
re main</w>
in j
mo der
lo ved</w>
reduc e</w>
S ub
process ing</w>
C ro
m ut
ar ies</w>
A I
wed ding</w>
an ia</w>
fi gu
es tim
fe ed</w>
te sts</w>
cas h</w>
charac ter
0 ,
wor kers</w>
ch lor
T om
anal y
ind ustri
m ot
kid ding</w>
produc ed</w>
men ted</w>
19 8
R ob
sub si
sal es</w>
E F
em ed</w>
exp enditure</w>
gi ble</w>
com for
r ates</w>
lan ds</w>
n or</w>
D es
att ack</w>
it ch</w>
u red</w>
enc our
mat ure</w>
li qu
techno logy</w>
V al
p sy
it ting</w>
2 5
F i
princi ples</w>
g as
st airs</w>
EC B</w>
bo ss</w>
dr in
opport unity</w>
pre vent</w>
gl ass</w>
9 1</w>
S pec
condi tion</w>
ma d</w>
s l
vers ity</w>
res h</w>
Th e
sh own</w>
R a
dang erous</w>
b on
T V</w>
d ated</w>
adop t</w>
be at</w>
i ther</w>
4 2</w>
sustain able</w>
th us</w>
M ake</w>
S im
gir l
bal ance</w>
arrang ements</w>
ris ks</w>
regi on</w>
thou s
i er</w>
s h</w>
pro por
st ers</w>
r ying</w>
g ames</w>
identi fied</w>
Dav id</w>
ac ks</w>
part ner</w>
pri or</w>
reco gn
ri de</w>
stit ute</w>
or i
swe et</w>
guaran tee</w>
stat us</w>
simp le</w>
Au gust</w>
dre am</w>
it ely</w>
ta x
e ight</w>
an al</w>
1 1.
cre ate</w>
s ounds</w>
b at
A fr
over all</w>
ul l</w>
g a
il s</w>
spe ed</w>
fru it</w>
H y
or k</w>
em ale</w>
r ound</w>
reduc ed</w>
ur ch</w>
E ach</w>
D I
in o</w>
Grou p</w>
ri age</w>
F ur
dist ribu
K ingdom</w>
F OR</w>
pres s</w>
oc cur
H i
equi val
on line</w>
ner ship</w>
0 3</w>
l aying</w>
des er
avo id</w>
r an
d ea
se at</w>
fo ot
ple as
apart ment</w>
Mic hael</w>
benef its</w>
10 .
ffe red</w>
9 2</w>
movi e</w>
Sh it</w>
Th ree</w>
I ON</w>
ap preci
3 9</w>
pen sion</w>
Wh atever</w>
mo del</w>
Wh oa</w>
L E</w>
E d
g est</w>
th o
M at
am a</w>
wa ke</w>
eval uation</w>
glob al</w>
us ually</w>
ex ternal</w>
is sions</w>
Jo int</w>
as ks</w>
L is
no te</w>
m ir
po or</w>
tot ally</w>
reg ulation</w>
ep tion</w>
Ac cor
hand le</w>
Some one</w>
expos ure</w>
u le</w>
d y
em ia</w>
dru g</w>
B ank</w>
en se</w>
connec tion</w>
tra in</w>
develop ed</w>
Pro duc
l ucky</w>
inst ead</w>
h a</w>
consi st
mis sed</w>
sy mptom
du ties</w>
ti m</w>
recomm end
me aning</w>
mist ake</w>
t i</w>
y ond</w>
dra w</w>
applic ations</w>
ep s</w>
bra in</w>
4 7</w>
ty pes</w>
provid ing</w>
hol ders</w>
Comm on</w>
ad ap
Ch in
is si
en h
wor ried</w>
t in
ar ms</w>
d ress</w>
L I
stre et</w>
acc ident</w>
ec k</w>
es ome</w>
fun ding</w>
4 9</w>
6 5</w>
H er
b ly</w>
pregn ant</w>
sy n
ent y</w>
set ting</w>
ing ing</w>
establ ish</w>
sen si
gentle men</w>
circum stances</w>
F ri
cre ated</w>
sig n
G ra
d on
to x
is tics</w>
v eget
ON S</w>
D en
as on</w>
&apos; am</w>
op s</w>
dri ving</w>
be half</w>
orig inal</w>
meth ods</w>
ak es</w>
ob served</w>
g y
U S</w>
insul in</w>
con sequ
0 9</w>
follow ed</w>
so f
mat ters</w>
ach ing</w>
ti red</w>
in flu
F ol
4 4</w>
comp ly</w>
pre pared</w>
compu ter</w>
dec lar
f low
W in
commer cial</w>
iz ed</w>
W el
regi ons</w>
ex pect</w>
se l</w>
regul atory</w>
B er
ri d</w>
ter r
ho st
m ary</w>
pack age</w>
Amer ican</w>
Inter national</w>
ar ti
th reat
langu age</w>
jo int</w>
s ource</w>
thin ks</w>
CO N
clo sed</w>
ob tained</w>
T er
T R
ess els</w>
3 8</w>
phys ical</w>
re ven
Ab out</w>
pul l</w>
pur ch
achi eve</w>
tran spa
Pro gra
un t</w>
f arm
9 3</w>
v il
el op</w>
amaz ing</w>
in form</w>
professi onal</w>
i um</w>
facil it
S uch</w>
oun ded</w>
al ed</w>
Dev elop
tal ked</w>
appro xim
9 9</w>
do l
Doc tor</w>
un ds</w>
Ti me</w>
pre vious</w>
re porting</w>
cur rently</w>
girl friend</w>
v y</w>
ro r</w>
Y ork</w>
der i
b ase</w>
bro ke</w>
d ry</w>
No body</w>
stor age</w>
al tern
h es
en z
reg ular</w>
beg inning</w>
i di
Tot al</w>
de ed</w>
A G
watch ing</w>
D el
ig n
Go vern
w ed</w>
no body</w>
4 6</w>
TE R</w>
cont rib
r is</w>
af ter
v essels</w>
T able</w>
ru le</w>
O b
tem por
pe ace</w>
sit ting</w>
hea d
c entral</w>
e u
v ot
5 5</w>
b om
app ear</w>
an der</w>
v acc
So cial</w>
admin ist
B al
vol ume</w>
mach ine</w>
P i
proper ty</w>
ex ec
quick ly</w>
hot els</w>
er ies</w>
em issions</w>
sto od</w>
e. g.</w>
clo th
C all</w>
Accor ding</w>
H um
x i
u g
writ ten</w>
lo ad
ev ening</w>
A B
descri bed</w>
pres cri
su ff
foc us</w>
5 00</w>
Is n</w>
e fficient</w>
pop ulation</w>
Be fore</w>
th day</w>
et h</w>
me t
har mon
dev elop</w>
be yond</w>
dar k</w>
mid dle</w>
Pe ter</w>
pp er</w>
it able</w>
oc k</w>
L O
pol y
acc oun
di g
un its</w>
Chin ese</w>
v an</w>
C entral</w>
v ote</w>
ag ement</w>
ph s</w>
tre at</w>
ir y</w>
f it</w>
N ational</w>
bro ken</w>
Chris t</w>
us ers</w>
M ag
h en
detail s</w>
electr onic</w>
es cap
b la
at ur
g ate</w>
th row</w>
B a
establish ment</w>
est s</w>
ec tive</w>
ure ment</w>
Loo ks</w>
el ements</w>
m es</w>
C y
au l</w>
Every one</w>
Ac commodation</w>
wee k
stop ped</w>
Fun d</w>
J usti
infra structure</w>
h mm</w>
re actions</w>
l u
re lease</w>
C hi
desig n</w>
UL ATION</w>
li ver</w>
H en
ste red</w>
in s
B ur
w id
intere sts</w>
for d</w>
symptom s</w>
win dow</w>
ph en
han g</w>
20 20</w>
import ance</w>
bus y</w>
C am
en cies</w>
p un
read ing</w>
ma il</w>
tak ings</w>
noti fied</w>
ti vity</w>
certific ate</w>
sp ent</w>
Pro tocol</w>
j obs</w>
any where</w>
B ul
sp end</w>
oper ators</w>
plan e</w>
de gre
acc ounts</w>
gl y
fin ished</w>
al ised</w>
E X
vide o</w>
bo y
I R
es tic</w>
st ant</w>
ni a</w>
got ten</w>
z er
effici ency</w>
tem per
secon ds</w>
inst all
Mo ve</w>
s ale</w>
exclu ding</w>
H mm</w>
adop tion</w>
Ma j
care ful</w>
smar t</w>
p il
w il
lab our</w>
On ce</w>
fi x</w>
REG ULATION</w>
equival ent</w>
Ger man</w>
fail ure</w>
C an
N a
institu tion</w>
Ser v
B en
pris on</w>
comp ati
under taking</w>
exc eeding</w>
b s</w>
en em
aut om
certain ly</w>
si ght</w>
s en</w>
ter min
tw ice</w>
H uh</w>
di an</w>
Rem ember</w>
recei ve</w>
n ames</w>
clim ate</w>
o therwise</w>
logi es</w>
dre am
bec om
kill er</w>
P a
am ate
succ ess
Char lie</w>
am ounts</w>
part ners</w>
conclu ded</w>
oun d
hy per
f resh</w>
comp ens
acc ept</w>
adv ice</w>
av es</w>
n es
dum ping</w>
pres ented</w>
l in</w>
L uc
al co
pay ments</w>
sur ve
gi ves</w>
tr ack</w>
go d</w>
op ening</w>
stat ement</w>
con stitu
ac her</w>
6 8</w>
N ext</w>
contrac ts</w>
S an
mo tion</w>
under takings</w>
la dies</w>
O ff
ur ation</w>
2 ,
fu el</w>
Hot el</w>
show s</w>
de ep</w>
ach es</w>
represent ative</w>
Hung arian</w>
w all</w>
prom ote</w>
m al
re a</w>
dra wn</w>
plan ning</w>
Engl ish</w>
sev ere</w>
sur ing</w>
inno vation</w>
emer gency</w>
An g
ca used</w>
gh out</w>
sur g
c k
D r
consu mers</w>
5 4</w>
show ed</w>
u d</w>
gg ing</w>
m ac
h asn</w>
t ex
tra di
ill ance</w>
jo in</w>
ti al</w>
b us</w>
at est</w>
al th</w>
y esterday</w>
medic ines</w>
g t;</w>
& gt;</w>
Op en</w>
buil d</w>
h i</w>
D ar
pos sibility</w>
2 8
pl ying</w>
won der</w>
g un
T om</w>
ist s</w>
f ear</w>
ac qu
rec ent</w>
z ing</w>
applic ant</w>
por te
K ing</w>
........ ........
aff ect</w>
c ere
F re
low ing</w>
propos als</w>
ish ing</w>
ter y</w>
fin ish</w>
di r
lau gh
stoc k</w>
5 1</w>
progra m</w>
lim its</w>
administ ered</w>
li g
pris es</w>
f er</w>
Develop ment</w>
4 1</w>
amate ur</w>
cra ft</w>
Sec urity</w>
Ital y</w>
ex emp
defin itely</w>
re new
effor ts</w>
bo at</w>
5 8</w>
la ws</w>
ra phs</w>
ex pen
Lea ve</w>
bir thday</w>
hy po
play ed</w>
R ic
um ber</w>
pow ers</w>
N G</w>
G ar
&apos; Cause</w>
ra ise</w>
n ation
sec tors</w>
categ ory</w>
oper ate</w>
D id
neg ative</w>
Mi ke</w>
S ay</w>
separ ate</w>
b ought</w>
Ch ina</w>
colle ge</w>
I M
gr at
w earing</w>
B re
r ing
Con vention</w>
cloth es</w>
R el
S m
reas on
kee ping</w>
su d
k in
ver ing</w>
ser ve</w>
r s</w>
oper ational</w>
request ed</w>
dam age</w>
G H
Geor ge</w>
stic k</w>
dev ice</w>
5 2</w>
sle ep
p age</w>
cho ose</w>
au di
Ac c
l ess
sur prise</w>
pos si
compon ents</w>
dru gs</w>
instr ument</w>
XX X</w>
buil t</w>
c ells</w>
scienti fic</w>
air port</w>
sa ved</w>
n u
so ld</w>
lab or
tr u
pre sident</w>
it ors</w>
pec ts</w>
develop ing</w>
Wel come</w>
tran si
eval u
kill ing</w>
chall eng
ep h
mic ro
Spec ial</w>
Fun c
f ell</w>
sy m
ati stic</w>
initi ative</w>
bil lion</w>
ter rible</w>
consu mer</w>
3 00</w>
bro ad
ff s</w>
bud dy</w>
tw are</w>
contro lled</w>
offic er</w>
D addy</w>
ff ic</w>
col l
m oun
Direc tor</w>
f light</w>
us ual</w>
re ality</w>
p ack</w>
correc t</w>
op ened</w>
re ty</w>
mil itary</w>
e br
Fr ank</w>
as c
or al</w>
c at
no on</w>
it es</w>
achiev ed</w>
sw ear</w>
t ap
throu ghout</w>
7 2</w>
Ear th</w>
do ws</w>
for tun
p h</w>
fo ot</w>
regi stered</w>
en tered</w>
ar ance</w>
dom estic</w>
e e</w>
Sh ould</w>
St atistic</w>
enti rety</w>
r ati
vill as</w>
m ate</w>
ir t</w>
vic tim</w>
v el
Th ink</w>
ex tent</w>
intere sting</w>
in struc
L ast</w>
clu b</w>
proc ee
at ures</w>
in corpor
ell ed</w>
sur face</w>
e k</w>
T XXX</w>
R ev
v es
en suring</w>
N A</w>
Every body</w>
7 1</w>
O U
fi ghting</w>
alco ho
9 7</w>
l ack</w>
dem and</w>
enti ty</w>
5 6</w>
en forc
p hi
contrib ute</w>
amend ments</w>
ear th</w>
mo vement</w>
n one</w>
ess ed</w>
tra vel</w>
qu ick</w>
sch ed
in ate</w>
simp ly</w>
g in</w>
r ich</w>
aw are</w>
manufactu rer</w>
hu ge</w>
.e .</w>
is es</w>
J er
ea red</w>
R y
a c</w>
deb t</w>
S al
ba th
l t;</w>
& lt;</w>
g ment</w>
sc ene</w>
n ur
T al
del eg
m itted</w>
te en</w>
parag raphs</w>
adequ ate</w>
9 4</w>
fore ign</w>
H ea
qui et</w>
Wh ile</w>
m ass</w>
particip ation</w>
doub t</w>
O per
to m</w>
i .e.</w>
ag ent</w>
ea dy</w>
ac tual</w>
ex tra</w>
host els</w>
alo gue</w>
vie ws</w>
free dom</w>
mach ines</w>
fore ver</w>
st ly</w>
s ong</w>
con tain</w>
uc lear</w>
m and
gre en</w>
dra ft</w>
subm it</w>
exerc ise</w>
ul ture</w>
vis ory</w>
oper ator</w>
id ity</w>
plan ts</w>
boy friend</w>
Did n</w>
st eps</w>
Jo e</w>
H ur
bir th</w>
te sting</w>
ad verse</w>
bec ame</w>
o g
rel and</w>
H ouse</w>
8 7</w>
P L
sho p</w>
I r
L on
wonder ful</w>
continu ed</w>
al ities</w>
ser i
o s
ac e
be ha
neigh b
ear lier</w>
B en</w>
loc ked</w>
201 8</w>
hel ping</w>
a i</w>
S outh</w>
deter mine</w>
in hi
bl ue</w>
Russi an</w>
p utting</w>
n or
ma inten
pon s</w>
calcul ated</w>
Comm issi
Par ties</w>
I reland</w>
abil ities</w>
5 9</w>
mainten ance</w>
eng ine</w>
en joy</w>
itch en</w>
re ached</w>
ati c
tri p</w>
S am
D et
distribu tion</w>
co p</w>
ac king</w>
pass ed</w>
produc er</w>
st anti
cre w</w>
independ ent</w>
T ech
Par ty</w>
M er
spo t</w>
con form
b ear</w>
J ud
li ghts</w>
appreci ate</w>
St ar
- You</w>
pri ority</w>
S ur
quanti ties</w>
fe els</w>
sou l</w>
cl aim</w>
ag ue</w>
ag g
l unch</w>
al ia</w>
c ute</w>
t ari
requi res</w>
ak e
E N</w>
E T</w>
V er
x ing</w>
sit u
ain ed</w>
Per haps</w>
d red</w>
recei ving</w>
fil es</w>
s la
5 3</w>
G O
dis orders</w>
deb ate</w>
TI ES</w>
es ides</w>
fac tors</w>
chec ks</w>
P AR
it or</w>
C E</w>
ser ies</w>
char ges</w>
pr oud</w>
imag ine</w>
imple mented</w>
T el</w>
l ay</w>
concer n</w>
canc er</w>
de pen
as es</w>
A m</w>
coun ter
p ho
l t</w>
To day</w>
Bel gi
practic es</w>
add ressed</w>
p a</w>
o v
n it
bene fici
Any thing</w>
z en</w>
&apos; S</w>
sear ch</w>
vol un
a ster</w>
Fin ancial</w>
inclu des</w>
wh om</w>
car s</w>
f ro
industri al</w>
ar gu
I L
re ci
re la
f ly</w>
c ed</w>
descri ption</w>
reali ze</w>
ne ither</w>
beg in</w>
6 6</w>
pres ence</w>
temper ature</w>
gi e</w>
a x
tur ns</w>
j our
concer ns</w>
B ab
O ver</w>
5 7</w>
tis h</w>
wor k
Bo ard</w>
at o
approxim ately</w>
tra ffic</w>
pa ir
s ources</w>
inform ed</w>
ell a</w>
st eel</w>
- What</w>
dem ocr
dri ver</w>
terr or
lo t
aff ected</w>
S un
en a</w>
ve ter
str ation</w>
Off ice</w>
W atch</w>
H a
porte ur</w>
con struction</w>
Progra mme</w>
n es</w>
guaran te
Min ister</w>
advant age</w>
noti fication</w>
res olution</w>
P al
With out</w>
u tions</w>
T y
Comm unic
enti ties</w>
character istics</w>
pro of</w>
Hung ary</w>
S ta
he at</w>
pro hi
Any way</w>
iz ation</w>
crimin al</w>
Func tioning</w>
U se</w>
M ary</w>
O oh</w>
cel ebr
web site</w>
dam ental</w>
sup pose</w>
law yer</w>
v ac
z es</w>
ho le</w>
J ames</w>
mar riage</w>
prom ised</w>
at trac
e ut
o o</w>
Co de</w>
ne ed
obli gation</w>
b loo
M other</w>
pl us</w>
Mr s</w>
gr ant</w>
spir it</w>
t op
dr unk</w>
hon est</w>
eli gible</w>
v ous</w>
pa ir</w>
increas ing</w>
S U
po ol</w>
Un der
Por tu
tain ing</w>
N umber</w>
pre jud
Some times</w>
a x</w>
opport unities</w>
An al
Hi gh</w>
co ck</w>
diffic ul
pro te
for got</w>
7 8</w>
t ary</w>
Ch eck</w>
exc eed</w>
Bi g</w>
D UC
uni form</w>
ul ts</w>
b low</w>
ma ster</w>
s pl
nam ed</w>
am ing</w>
wor st</w>
sam ple</w>
st ar</w>
C F
ch urch</w>
ren al</w>
an ish</w>
pic tures</w>
k i</w>
C ity</w>
go ld</w>
O k</w>
integr ation</w>
Pro c
P R
TI C
sci ence</w>
consi ders</w>
r ise</w>
in ting</w>
hun dred</w>
radi o</w>
beha vi
initi al</w>
sub stanti
k itchen</w>
tic ally</w>
I .
expres sed</w>
sel y</w>
8 5</w>
7 7</w>
is tic</w>
bi an</w>
T A</w>
orig inating</w>
reco very</w>
b anks</w>
mat ch</w>
Sc ot
un c
prov isi
str ange</w>
exc use</w>
ro ll</w>
regul ations</w>
ag s</w>
enti t
gu il
pro per</w>
re si
B AR</w>
ag ents</w>
In formation</w>
op tion</w>
sol di
fri end
P aul</w>
mil es</w>
em ic</w>
ten der</w>
prejud ice</w>
h ide</w>
ev il</w>
gi ft</w>
h ep
ay er</w>
hou se
Justi ce</w>
k iss</w>
ell ent</w>
as y</w>
il ly</w>
ther more</w>
.. ..</w>
cro s
A si
6 2</w>
recor ds</w>
im possible</w>
hear ing</w>
r y
S pain</w>
cop s</w>
i red</w>
enc ed</w>
re v
resul ting</w>
P O
p ra
6 1</w>
wal king</w>
t ol
boo ks</w>
6 7</w>
chem ical</w>
f alling</w>
F ra
ind a</w>
fav our</w>
pri mary</w>
S till</w>
e es</w>
AT E</w>
hor se</w>
s ac
d ying</w>
im pres
sm ell</w>
A M
co ated</w>
il ing</w>
lo s
ang er</w>
st ates</w>
sof tware</w>
ha m</w>
ke ys</w>
N C
tri al</w>
coord ination</w>
ad a</w>
d ates</w>
form er</w>
p al</w>
bus in
ref lec
Is ra
S ho
av ir</w>
procee dings</w>
de pos
collec tion</w>
rema ins</w>
lead ing</w>
go d
D ay</w>
s un
a vi
main tain</w>
d il
lat est</w>
s ent
m ess</w>
li ved</w>
par k</w>
sa ke</w>
bath room</w>
sa d</w>
sc ale</w>
sk ills</w>
declar ation</w>
Wor ld</w>
men tion</w>
P ap
du de</w>
man ner</w>
C i
eut en
ur ant</w>
M y
gu idelines</w>
ang ry</w>
surve illance</w>
streng th</w>
fav or
doc um
e ating</w>
bel on
sig ns</w>
Al though</w>
comm ents</w>
con ver
S ing
el im
tr uck</w>
struc turing</w>
mar ry</w>
il li
t our
ic y</w>
por ter</w>
Ag ent</w>
7 3</w>
justi ce</w>
confir med</w>
p are</w>
i ze</w>
tri c</w>
s ession</w>
I P</w>
ex ist</w>
medi a</w>
g an
T e
Hen ry</w>
wh ere
w w
Mo st</w>
Joh n
Inter net</w>
s a</w>
D EC
tempor ary</w>
car rying</w>
per haps</w>
correspon ding</w>
er o
te acher</w>
P at
perform ed</w>
Le i</w>
F l
protec ted</w>
ab s
dis crimin
der o
A .
medi um</w>
g al</w>
od bye</w>
igr ation</w>
S A</w>
n uclear</w>
or ities</w>
seri ously</w>
euten ant</w>
negoti ations</w>
cal m</w>
comm unity</w>
cli ent</w>
in come</w>
do gs</w>
hol der</w>
chec ked</w>
ph ase</w>
Ju li
Ma x</w>
E M
sub sequ
bil ities</w>
l eng
v it
ab solutely</w>
bea uty</w>
z one</w>
et te</w>
E P
maj ority</w>
accep ted</w>
un to</w>
no tes</w>
W H
Commissi oner</w>
connec ted</w>
to ols</w>
n om
o ffered</w>
conform ity</w>
classi fication</w>
t asks</w>
o ts</w>
el ds</w>
e di
A no
J en
sk y</w>
T ry</w>
plan et</w>
o logical</w>
n ine</w>
surg ery</w>
ad s</w>
pow er
pos al</w>
b low
an ding</w>
Hon ey</w>
re al
s low</w>
ust ed</w>
sleep ing</w>
adjust ment</w>
pres er
v o</w>
be d
cam era</w>
M AR
la un
i or</w>
up set</w>
su it</w>
comple ted</w>
a u</w>
um n</w>
rec ently</w>
ro te</w>
E r
en able</w>
s chem
ro oms</w>
grow ing</w>
wat ers</w>
en ge</w>
ch ea
st ake
ul ous</w>
trans mission</w>
cap able</w>
frequ ency</w>
li kes</w>
6 4</w>
electr icity</w>
me tal</w>
l ac
bi tion</w>
sec ur
our selves</w>
plan ned</w>
com plic
c ut
P en
ess or</w>
er gi
p ir
e y
Pro f
et ary</w>
pow der</w>
fac tor</w>
as pects</w>
lo ves</w>
re sta
per cent
sh e
re over</w>
trans actions</w>
dis p
Ital ian</w>
ar rest</w>
st able</w>
t ree</w>
m el
lin ked</w>
dec reas
figu red</w>
li ked</w>
wea pons</w>
uc ks</w>
wea pon</w>
identi fication</w>
w ind</w>
bot tle</w>
H ome</w>
legisl ative</w>
do ses</w>
o ffici
direc tion</w>
ra w</w>
et c</w>
et ings</w>
ma p</w>
ex porting</w>
PRO DUC
Par is</w>
7 9</w>
im my</w>
recommend ations</w>
inv ited</w>
ti ght</w>
invest ments</w>
in y</w>
C N</w>
O ld</w>
inj ury</w>
w rote</w>
R ed</w>
P har
heal thy</w>
Sp anish</w>
te a</w>
as tic</w>
Ac tion</w>
S it</w>
integr ated</w>
commit ment</w>
g row</w>
f low</w>
de ep
b one</w>
M ex
COMM UN
en ger</w>
tur ning</w>
sy ring
quanti ty</w>
go ver
z a</w>
ves sel</w>
b ing</w>
sor ted</w>
el ine</w>
H or
cop y</w>
st uck</w>
thous and</w>
inf ection</w>
challeng es</w>
J ack
t ough</w>
categ ories</w>
Lon don</w>
ane ous</w>
cul tural</w>
fav or</w>
8 4</w>
h ang
D an</w>
imple ment</w>
re le
occ ur</w>
ar ity</w>
stric t</w>
g ers</w>
S how</w>
Hur ry</w>
D anny</w>
pr ised</w>
P ati
facilit ate</w>
us er</w>
re di
accord ingly</w>
spea king</w>
hes ion</w>
high ly</w>
pleas ure</w>
per man
Ano ther</w>
comfor table</w>
pro p
con vers
ti an</w>
ad d</w>
regi stration</w>
indic ate</w>
su n</w>
ra ised</w>
vic tim
Man agement</w>
hun g
cra p</w>
ic ked</w>
S P</w>
ic ide</w>
S up
B as
hel ped</w>
eb o</w>
contain ed</w>
Communic ation</w>
defini tion</w>
consul tation</w>
tim ate</w>
cl es</w>
sec ure</w>
C la
der ing</w>
we red</w>
artic les</w>
identi fy</w>
ill a</w>
deli very</w>
ec es</w>
contro ls</w>
require ment</w>
sit es</w>
ol der</w>
sel ling</w>
after noon</w>
ul a</w>
lear ned</w>
Wh ite</w>
lo sing</w>
clus ions</w>
ap plying</w>
an o</w>
MEN T</w>
dra w
Fur thermore</w>
S .</w>
app lies</w>
comm ittee</w>
app eared</w>
att emp
Lis bon</w>
H app
grat ulations</w>
Govern ment</w>
under standing</w>
custom ers</w>
w illing</w>
Lo ve</w>
a e</w>
stud ent</w>
di alogue</w>
A .</w>
is land</w>
claim s</w>
concentr ation</w>
fin ding</w>
F OR
Some body</w>
d in</w>
mem ory</w>
C ur
ing redi
7 4</w>
He alth</w>
func tioning</w>
drin king</w>
di men
-- --
ann oun
c um
it em</w>
enforc ement</w>
7 6</w>
car bon</w>
ro ck</w>
D ate</w>
A gr
b loc
su b</w>
cre ation</w>
au d
ro l
br inging</w>
8 8</w>
8 9</w>
r ace</w>
d uration</w>
veget ables</w>
6 9</w>
we igh
Cro ati
M A
ans w
idi ot</w>
i i</w>
g ri
appe ars</w>
vi al</w>
8 2</w>
hung ry</w>
summ er</w>
1 50</w>
produc e</w>
con clusion</w>
as ing</w>
dir ty</w>
no tic
p al
lar s</w>
Fin ally</w>
T it
Chi ef</w>
N i
st aying</w>
C R
ther n</w>
op tions</w>
er ation</w>
Fo od</w>
cy cle</w>
Bud ap
on ia</w>
CO UN
Ale x</w>
gra de</w>
jo ke</w>
j ail</w>
r are</w>
te sted</w>
ob serv
ar a</w>
bur n</w>
u als</w>
tu red</w>
clo ser</w>
F ive</w>
S O
and a</w>
TI NG</w>
eas ier</w>
prof it</w>
P et
lo vely</w>
D E</w>
on el</w>
S on</w>
sup ported</w>
o we</w>
list ening</w>
air craft</w>
h t
introduc ed</w>
wonder ing</w>
re rs</w>
victim s</w>
B I</w>
consist ent</w>
Y ep</w>
C z
comp il
be er</w>
W o
st one</w>
it ems</w>
Y P
To o</w>
u tive</w>
success ful</w>
fir m</w>
co o
feel ings</w>
C er
su e</w>
ord inary</w>
oc cas
te ach</w>
pl ate</w>
recogn ised</w>
b ac
e tr
sup porting</w>
e ted</w>
reason able</w>
hea ds</w>
alcoho l</w>
abs ence</w>
k ings</w>
jec ted</w>
p ush</w>
I TIES</w>
sc en
br an
pre hen
Budap est</w>
rel ations</w>
exam ination</w>
al though</w>
Vi ew</w>
S ME
re ve
re structuring</w>
Isra el</w>
tu de</w>
it a</w>
her self</w>
t ations</w>
on to</w>
c ru
comm itted</w>
reli gi
schem es</w>
destro y</w>
techno logies</w>
Nor th</w>
nec k</w>
Det ective</w>
TI ON</w>
favor ite</w>
supp le
L it
sho es</w>
op h
ag e
ru p
forc ed</w>
di ag
appo inted</w>
sh ar
f ab
th in</w>
er r
k ni
in ser
gas se</w>
altern ative</w>
manag ed</w>
ti l
d ating</w>
ch ick
dev ices</w>
de al
3 75</w>
Ma ster</w>
use ful</w>
here by</w>
direc tive</w>
initi atives</w>
speci fic
st ated</w>
di stance</w>
be ach</w>
Ex actly</w>
consider ation</w>
ob viously</w>
a th
6 3</w>
recogni tion</w>
C re
end ar</w>
M a</w>
signific antly</w>
po unds</w>
Jan e</w>
trans l
am pi
fi b
off ers</w>
ay ed</w>
M O
percent age</w>
fi red</w>
vir us</w>
le aves</w>
En ergy</w>
enter prises</w>
E li
fe rences</w>
S atur
degre e</w>
respec tive</w>
co m</w>
p ite</w>
week end</w>
ic ks</w>
A l</w>
bi e</w>
E T
wh oa</w>
le ep</w>
in fl
bl ing</w>
phi c</w>
lic ence</w>
A ustri
dang er</w>
ograph ical</w>
al isation</w>
au gh
n on
fun damental</w>
pic ked</w>
S il
est y</w>
C as
E mp
p aying</w>
sex ual</w>
inter vention</w>
emp ty</w>
am m
H al
discus s</w>
di am
re action</w>
v ative</w>
St u
f our
jud ge</w>
sig nal</w>
st yle</w>
al ty</w>
hur ry</w>
est er</w>
conf lic
SME s</w>
can di
prepar ation</w>
v is</w>
a .
in ter</w>
on a</w>
provisi onal</w>
ri ers</w>
net works</w>
escap e</w>
lear ning</w>
c ulation</w>
C C
fo ol</w>
succ ess</w>
fail ed</w>
wit ness</w>
pa rent</w>
ar my</w>
R ed
inspec tion</w>
gl uc
fa ith</w>
L y
k ra
hon or</w>
Mo reover</w>
plac ebo</w>
a h
tab let</w>
monit or</w>
facil ities</w>
ar re
ap art</w>
Afr ica</w>
Dan i
Agr ic
V ic
eas ily</w>
Or gan
le g</w>
D uring</w>
Sec ret
L ou
possi bly</w>
Ho ly</w>
cent re</w>
compati ble</w>
Gu ys</w>
car ds</w>
fac ts</w>
f ill</w>
p en</w>
S to
O ut</w>
c a</w>
mil f</w>
o red</w>
con s
ext rem
4. 4</w>
Str ateg
D S</w>
b ile</w>
mechan ism</w>
pho to</w>
fl ying</w>
ist an</w>
streng th
dol lars</w>
4 00</w>
rap porteur</w>
simp li
TH AT</w>
plas ma</w>
c at</w>
so dium</w>
speci ally</w>
bot tom</w>
mag ic</w>
aff ec
d ged</w>
ba st
di o</w>
Sar ah</w>
N ick</w>
M ul
L ar
busin esses</w>
a wa
b unch</w>
S ol
ess ing</w>
Russi a</w>
S af
compens ation</w>
hop ing</w>
b an</w>
D on
E I
deli ver</w>
lo ts</w>
pat ter
stud ents</w>
big ger</w>
c ab
Ch e
re in
lat eral</w>
gr ounds</w>
D O
competi tive</w>
S us
Sy stem</w>
Ac t</w>
ner vous</w>
is c
ex clus
im al</w>
Fri day</w>
au th
gh tly</w>
hea vy</w>
tari ff</w>
for give</w>
k is
fle xi
fortun ately</w>
3 0
cha ir</w>
mar ks</w>
I I
transpa rency</w>
l ink</w>
sus pect</w>
C ra
o ever</w>
bast ard</w>
ash ed</w>
E m
am p</w>
A ff
p ig
gu ard</w>
m 2</w>
chang ing</w>
istr ation</w>
see king</w>
peri ods</w>
B oth</w>
b ad
effec tiveness</w>
ag ency</w>
E lec
as sh
ri ver</w>
C op
p y
Z o
bi a</w>
hy dr
exist ence</w>
dic tion</w>
St and
g ay</w>
U p</w>
c ast</w>
gra du
S we
sugg est</w>
bla me</w>
st ability</w>
respec tively</w>
M s.</w>
stake holders</w>
leng th</w>
b ound</w>
dis h</w>
A ir</w>
ble eding</w>
ra in</w>
Mad am</w>
power ful</w>
il ies</w>
ic h
b lock</w>
Un der</w>
L oc
ir on</w>
Cz ech</w>
M us
ar ily</w>
As soci
an o
S k
sur prised</w>
me etings</w>
sp read</w>
spo ke</w>
T ri
k o</w>
TI ONS</w>
improv ing</w>
ol ly</w>
AU TH
tain s</w>
S E</w>
le af
Pol icy</w>
Y ear</w>
D NA</w>
8 1</w>
res ol
the tic</w>
rou gh</w>
investi g
ass ess</w>
sam pl
den ly</w>
instruc tions</w>
E D
R ay</w>
su itable</w>
me tab
apo logi
- No</w>
ar ch
del ay</w>
re t</w>
tech ni
gener ally</w>
ex ha
Gr and
AUTH OR
inno cent</w>
meas ured</w>
S en
H O
sto le</w>
B E</w>
v ey</w>
bom b</w>
ac i
statis tics</w>
o do
exten sion</w>
deli vered</w>
tra ding</w>
c enter</w>
effor t</w>
id ing</w>
Li eutenant</w>
en ting</w>
request s</w>
co des</w>
i us</w>
deser ve</w>
ri er</w>
ash ing</w>
th r
bl ind</w>
p ath</w>
conduc ted</w>
C lar
W ant</w>
introduc tion</w>
fi l</w>
enem y</w>
8 6</w>
res ses</w>
ph as
sol utions</w>
Du de</w>
S ci
show er</w>
COMMUN ITIES</w>
con clusions</w>
convers ation</w>
sha res</w>
ha m
ho st</w>
Un less</w>
il legal</w>
sensi tive</w>
exc ep
a qu
introduc e</w>
her o</w>
c e
id ance</w>
W ar
comple x</w>
manag er</w>
Rom ania</w>
st om
har m</w>
es h</w>
se emed</w>
val id</w>
I U</w>
el a</w>
pri orities</w>
hid ing</w>
Un cle</w>
om m
or ial</w>
CO M</w>
s on
ac ted</w>
care er</w>
S w
ow ner</w>
nu ts</w>
com prehen
develop ments</w>
C ent
chi ef</w>
H as</w>
sub jects</w>
assess ed</w>
ta ste</w>
ur a</w>
8 3</w>
dec la
le gs</w>
an ci
Fra mework</w>
compl ain
M B
exten ded</w>
Bo b</w>
conduc t</w>
qu it</w>
R u
v ul
con sci
Med ic
su s</w>
D ep
J immy</w>
process es</w>
M mm</w>
represent atives</w>
z e
Br ing</w>
s si
199 8</w>
en di
jud gment</w>
l and
ti le</w>
Ch il
A ud
Happ y</w>
p is
ide as</w>
F il
M el
M ay
acc ur
dest ination</w>
Lit tle</w>
I F
ha z
Bl ack</w>
ru b
3 ,
pi eces</w>
Hum an</w>
F BI</w>
TE R
metab ol
G l
ad mit</w>
norm ally</w>
cha in</w>
str on
sel ected</w>
determin ing</w>
Do esn</w>
Re port</w>
comb ined</w>
B ill</w>
form at</w>
C le
dar ling</w>
pen etr
im pair
Satur day</w>
mo bile</w>
f ts</w>
main ly</w>
lo ans</w>
charac ter</w>
ton nes</w>
ox ide</w>
quot a</w>
f emale</w>
propor tion
fun d</w>
p hosp
wil d</w>
Reg ulations</w>
ing ton</w>
adv ance</w>
bri dge</w>
war m</w>
see k</w>
M ac
re form</w>
M ur
appo int
In dia</w>
smo ke</w>
Slo v
compil ation</w>
L eg
diffe rences</w>
l shit</w>
th ou</w>
k ick</w>
chall enge</w>
Bet ter</w>
IS ION</w>
no se</w>
U N</w>
A my</w>
proper ly</w>
h h</w>
d are</w>
show ing</w>
ref und</w>
B esides</w>
ag encies</w>
r ay</w>
tar gets</w>
compan ied</w>
mi x
lead er</w>
estim ated</w>
struc tures</w>
in deed</w>
d at
Gre ece</w>
veter inary</w>
St re
gra b</w>
Croati a</w>
B un
competi tiveness</w>
j ack
sc ri
c lock</w>
ge ographical</w>
gen e
classi fied</w>
g t</w>
rou te</w>
j a</w>
ac companied</w>
k ets</w>
um s</w>
Al so</w>
W ed
N A
fish eries</w>
W om
lo an</w>
clo sure</w>
de tail</w>
re ign</w>
The ir</w>
p ush
thre at</w>
con tr
el ev
de pres
chea p</w>
s ons</w>
res sing</w>
every where</w>
tri als</w>
duc tion</w>
recor ded</w>
Bri tish</w>
thro at</w>
f ant
k n
pul led</w>
li ps</w>
cam pa
r ul
comm and</w>
D P</w>
phot os</w>
Tur n</w>
cre am</w>
leaf let</w>
t ee
u ght</w>
t an
For get</w>
k m</w>
Pol and</w>
reat h</w>
par king</w>
ac he</w>
co vering</w>
S ounds</w>
im age</w>
N ame</w>
vill age</w>
tap e</w>
func tions</w>
b es</w>
design ated</w>
I D
el low</w>
F ind</w>
c ry</w>
syring e</w>
de aling</w>
eas es</w>
IS ATION</w>
rec ital</w>
prom oting</w>
no t
h ello</w>
Lu x
me an
S hi
mil li
sus pension</w>
Pati ents</w>
ste al</w>
dream s</w>
on ing</w>
gener ation</w>
sk i</w>
reven ue</w>
influ ence</w>
hum ans</w>
impair ment</w>
gh o
di ble</w>
gre atest</w>
et ers</w>
reduc ing</w>
o dy</w>
no ted</w>
ha dn</w>
entit led</w>
ox y
col or</w>
ati vely</w>
exper ts</w>
ati n</w>
P H
D IC
pre pare</w>
div or
n ic
get ary</w>
3 0.
stan ds</w>
gun s</w>
dec re
eri ously</w>
employ ees</w>
s wal
need le</w>
she et</w>
Q U
fam ous</w>
Fr ank
b es
r on
ho li
resta urant</w>
ab sor
is ms</w>
ac le</w>
IN AL</w>
lic ences</w>
M s</w>
employ ed</w>
strateg ic</w>
accoun ting</w>
ap s</w>
inf ec
plac ing</w>
C HA
Har ry</w>
compon ent</w>
ur g
consequ ences</w>
contribu tions</w>
K ar
N one</w>
2 4
ba be</w>
E ur
cul ture</w>
regi ster</w>
k ness</w>
bl ed</w>
M S</w>
inhi bit
cre d
bloo dy</w>
Fe der
the art</w>
A rea</w>
Pro v
t ren
t ty</w>
ri dic
posi tions</w>
c ore</w>
in ations</w>
ag on</w>
j um
J im</w>
part ments</w>
ad es</w>
CI L</w>
cap tain</w>
K en
de partment</w>
int el
stoc ks</w>
Com p
W ere</w>
pol l
process ed</w>
no ise</w>
bur den</w>
prac tical</w>
Ph en
Ne ther
hid den</w>
kee ps</w>
Ric hard</w>
fi f
go l
prof ile</w>
in tra
clo sely</w>
bab ly</w>
ad ults</w>
I D</w>
do ors</w>
Sing le</w>
D ata</w>
f al
re move</w>
atic ally</w>
se ed</w>
F our</w>
veri fication</w>
eg u
O ffic
Pro bably</w>
war ning</w>
e a</w>
cal culation</w>
im posed</w>
bre ast</w>
our g</w>
relev ance</w>
eg gs</w>
wh ereas</w>
I C</w>
organ ic</w>
am bi
ad ult</w>
or t</w>
dig ital</w>
fl at</w>
j ur
m ad
uro pa
L ev
fam ilies</w>
Exc ept</w>
COUN CIL</w>
v ated</w>
effec tively</w>
man age</w>
Mar k</w>
fla g</w>
f a</w>
G al
t ask</w>
dero gation</w>
in fr
beg an</w>
S .
Un til</w>
par am
z o
ic o</w>
T ony</w>
S um
play er</w>
c in
p ants</w>
arri ved</w>
t ells</w>
D a
d i</w>
cor ner</w>
ish es</w>
i time</w>
Fol lowing</w>
Serv ice</w>
la b</w>
ur s
R un</w>
mot or</w>
flow ers</w>
sm all
sho oting</w>
AUTHOR ISATION</w>
eng ers</w>
Pol ice</w>
viol ence</w>
ju dic
S eriously</w>
c ket</w>
j ump</w>
up stairs</w>
bat tle</w>
en jo
multi ple</w>
wal ked</w>
high est</w>
pre ven
fi es</w>
Nether lands</w>
perman ent</w>
g am
mi xed</w>
b reath</w>
St eve</w>
pro motion</w>
c ue</w>
R en
c ake</w>
ain s</w>
purch ase</w>
ag end
mo on</w>
C r
&apos; T</w>
G ir
i ans</w>
ir ing</w>
enti ally</w>
G raph</w>
allow s</w>
cl ari
2 3
st on</w>
ti ous</w>
T A
E st
V I</w>
tru ly</w>
care fully</w>
fin ance</w>
encour age</w>
decre ase</w>
decla red</w>
tro l</w>
uc e</w>
5 0
artic le</w>
H u
D em
n ar
b alls</w>
fac tory</w>
les bian</w>
inf usion</w>
sh irt</w>
guil ty</w>
Res earch</w>
endi x</w>
m ale</w>
re moved</w>
Th om
con ven
modi fied</w>
Su per
un cle</w>
invol ving</w>
g are
sid ency</w>
subsi di
H a</w>
ge ant</w>
y ers</w>
ad ver
dro pped</w>
fuc kin</w>
sc r
ergi c</w>
de x</w>
Con gratulations</w>
rele ased</w>
for ces</w>
re turned</w>
es sive</w>
SP EC
lit er
Saf ety</w>
situ ations</w>
conf idence</w>
M embers</w>
amend ment</w>
commit ments</w>
al ist</w>
sa v
blow job</w>
abl ed</w>
C ust
c atch
app ed</w>
en ever</w>
tion ary</w>
con ference</w>
em al
B on
re y</w>
P ublic</w>
fi elds</w>
super vision</w>
extrem ely</w>
Al right</w>
fac es</w>
al located</w>
improv ed</w>
inc idence</w>
f arm</w>
l ord</w>
P ow
star ts</w>
Tr ust</w>
nur se</w>
an na</w>
s co
con soli
mur dered</w>
W est</w>
govern ance</w>
exper im
A ren</w>
bo ther</w>
y ou
statis tical</w>
ag er</w>
Mon day</w>
identi ty</w>
elec tric</w>
hand ling</w>
me al</w>
in after</w>
6 00</w>
emb arr
noti fy</w>
intel lig
F F
individ uals</w>
Tom my</w>
Par k</w>
St at
secur ities</w>
specific ally</w>
ac commodation</w>
plac ement</w>
w eak</w>
ang le</w>
con stitute</w>
dea d
cle an
pre vention</w>
As s
ingredi ents</w>
g ain</w>
big gest</w>
c utting</w>
aw esome</w>
em phas
mut ual</w>
at om</w>
destro yed</w>
at ell
fav our
Aff airs</w>
S peci
ta ught</w>
A ir
C A
th ir
as hi
L ong</w>
e h</w>
m ass
t um
mon ster</w>
Associ ation</w>
rela x</w>
sh oul
de emed</w>
improv ement</w>
i on
L in
C L
E ast</w>
per form</w>
let ters</w>
ob tain</w>
Mar ket</w>
th es
lab el</w>
hum an
col umn</w>
immedi ate</w>
pass enger</w>
gr and</w>
war ded</w>
b are
Comm unities</w>
pos t
incorpor ated</w>
H ang</w>
U kra
R eady</w>
so ft</w>
ni ght
B ea
chlor ide</w>
coun ter</w>
ick y</w>
L OR
Al ways</w>
apologi ze</w>
ho o
v isi
cr ying</w>
Ab solutely</w>
mon o
indic ators</w>
c ell
assu me</w>
tic ip
sen ding</w>
ac qui
st ories</w>
au dit</w>
M om
row ing</w>
P ur
to w
soli d</w>
al location</w>
K e
sud denly</w>
y ard</w>
val u
am ine</w>
CF SP</w>
justi fied</w>
appoint ment</w>
Ry an</w>
L at
org an</w>
k ne
out come</w>
di ab
ed ge</w>
play ers</w>
fel low</w>
god damn</w>
here inafter</w>
Ch ris</w>
t ac
ridic ulous</w>
brea king</w>
know ing</w>
D .</w>
tradi tional</w>
d addy</w>
F uc
fa ster</w>
cur rency</w>
Fr anc
k il
Asi an</w>
est ly</w>
Y o</w>
l ing
j er
O ver
s ity</w>
mechan isms</w>
g ger</w>
fac ility</w>
gro wn</w>
sent ence</w>
Tal k</w>
repres ent</w>
s in
becom es</w>
c row
i onal</w>
T O
mar ked</w>
un d
m in</w>
exc ellent</w>
2 9
ex plan
aim ed</w>
L ab
comprehen sive</w>
D om
ev ent
In dian</w>
loy ment</w>
Comm ander</w>
c ot
dra wing</w>
el ly</w>
c ks</w>
cr uc
believ es</w>
cre ating</w>
Wed nes
mo bility</w>
char ged</w>
the e</w>
c up</w>
ten sion</w>
stit utes</w>
s man</w>
ok ine
agend a</w>
ri g
scre en</w>
f eeding</w>
ne arly</w>
x y
Se a</w>
ME DIC
associ ation</w>
s an
bl on
hi stor
bel ong</w>
Portu gal</w>
n ut
U K</w>
Bab y</w>
claim ed</w>
struc tural</w>
vari ety</w>
concentr ations</w>
Col onel</w>
Th urs
notic ed</w>
DEC ISION</w>
fic ial</w>
hea ven</w>
sam ples</w>
y o</w>
ch est</w>
collec ted</w>
uni que</w>
T ru
rema ining</w>
l ays</w>
b its</w>
U .
m on</w>
sha pe</w>
part nership</w>
form al</w>
kni fe</w>
diag no
pregn ancy</w>
hou ses</w>
cho sen</w>
li gh
under stood</w>
streng then</w>
acc id
manufac ture</w>
to ol</w>
fin dings</w>
fur n
gly ca
exc ited</w>
th u
sched ule</w>
V AT</w>
exper t</w>
c ous
P S</w>
b al</w>
cam p</w>
W e
Pl an</w>
z i
dis eases</w>
bud getary</w>
Belgi um</w>
Gre en</w>
guarante es</w>
st ress</w>
infr ing
uni verse</w>
exc eption</w>
fam ili
le gi
po t</w>
S an</w>
cle arance</w>
los ses</w>
ffic acy</w>
let ting</w>
langu ages</w>
C ho
inv itation</w>
hang ing</w>
bro thers</w>
proc urement</w>
particip ating</w>
b i</w>
o logy</w>
b ird</w>
G ames</w>
en su
assh ole</w>
des k</w>
accep table</w>
m ol
LOR D</w>
a p</w>
S wed
prepar ations</w>
K no
as leep</w>
ER E</w>
att ached</w>
ra il
er n
B us
b a</w>
as m</w>
C o</w>
B ob
a emia</w>
Ad am</w>
Bu il
har d
Wednes day</w>
Par t
eri ff</w>
en cl
ver ty</w>
mo ther
survi ve</w>
Dani el</w>
dat ab
F ree</w>
MEDIC INAL</w>
cha mp
H E</w>
sh aring</w>
od d</w>
4. 2</w>
Ad di
K E
s outh</w>
tra v
sh emale</w>
per mit</w>
ch er</w>
pre mi
cr y
L t
em a</w>
psy cho
acc es
quali fied</w>
H ell</w>
tis sue</w>
ri ding</w>
em ission</w>
R ap
bir ds</w>
r ural</w>
as signed</w>
pil ot</w>
ten tion</w>
gu est</w>
N U
Tra de</w>
conv inc
d ary</w>
h at</w>
Stre et</w>
sac ri
transf erred</w>
C P
per cent</w>
fe der
f at
in ery</w>
re vol
nor th</w>
H igh
Eur atom</w>
er ship</w>
dis posal</w>
cri tical</w>
Austri a</w>
ment ary</w>
hea ded</w>
fi re
gran ting</w>
s anc
lau gh</w>
ste in</w>
CHA P
up date</w>
M IN
is ol
dre w</w>
mis es</w>
acc ession</w>
GH T</w>
Den mark</w>
perf ec
B or
go al</w>
arm ed</w>
inter net</w>
Al l
saf egu
sur r
chec king</w>
jur is
vis ual</w>
C AS</w>
Thurs day</w>
spe ech</w>
CHAP TER</w>
op tim
certific ates</w>
plas tic</w>
thre sh
L ady</w>
hel ps</w>
di c</w>
believ ed</w>
er ie</w>
r ant</w>
eng aged</w>
Strateg y</w>
wor l
r ice</w>
sel ection</w>
Li fe</w>
st ro
back ground</w>
four th</w>
e an</w>
art an</w>
N at
su m</w>
Phen 375</w>
su ffici
li ber
encl ature</w>
moder n</w>
in stance</w>
pap ers</w>
V e
App endix</w>
Char les</w>
sid es</w>
increas es</w>
tee th</w>
ap h
J ake</w>
li fe
inc ess</w>
particip ate</w>
Sun day</w>
fa ke</w>
W HA
r i</w>
v in</w>
sett lement</w>
buil dings</w>
S I</w>
Afr ican</w>
Gu ess</w>
u k
conf identi
gg ed</w>
se es</w>
f ever</w>
Slo ven
Pro tec
sa ving</w>
al right</w>
s pon
ester n</w>
occur red</w>
spl it</w>
stu ffs</w>
gi a</w>
Ad min
rati o</w>
it als</w>
fuc ked</w>
bu ying</w>
aw ful</w>
Cent re</w>
pass engers</w>
br ings</w>
organ ised</w>
199 6</w>
Le e</w>
La w</w>
pu ts</w>
ir s</w>
Swed en</w>
quot as</w>
ex ports</w>
subsequ ent</w>
or dered</w>
exam ined</w>
off ering</w>
D .
el ement</w>
discrimin ation</w>
custom er</w>
an i</w>
S A
w et</w>
S he
person nel</w>
Maj esty</w>
Offic er</w>
M any</w>
chick en</w>
sti mul
v ate</w>
s wi
inter view</w>
friend ly</w>
decreas ed</w>
E asy</w>
complic ated</w>
ent ary</w>
ht t
ini um</w>
yl ene</w>
fin ds</w>
w est</w>
sugg est
v ine</w>
reali zed</w>
tar ge
respon d</w>
conc ept</w>
E V
f ee
- Yeah</w>
k et
R A
As k</w>
199 7</w>
S el
cent ury</w>
ati tis</w>
D ou
di versity</w>
RE S
fi xing</w>
communic ate</w>
T im
tol er
op ini
m b
star s</w>
restric tions</w>
in clusion</w>
emb ly</w>
John ny</w>
regi me</w>
v oc
In vest
prote in</w>
10 7</w>
experi enced</w>
bur ning</w>
resid ence</w>
farm ers</w>
Y oun
Gr ace</w>
sm ile</w>
mus cle</w>
ra p</w>
certi fication</w>
Sh all</w>
US E</w>
199 5</w>
se y</w>
re min
dis ci
ol f</w>
pharmac ist</w>
difficul ties</w>
pre dic
H C
r ating</w>
sp ring</w>
pl enty</w>
ar dis
B O
La dies</w>
y al</w>
Mor ning</w>
sha red</w>
F ac
lat ter</w>
ous ness</w>
sup er</w>
quar ters</w>
b ucks</w>
stoc kings</w>
aim s</w>
r onic</w>
becom ing</w>
trans action</w>
ol en</w>
form ed</w>
t esti
but ton</w>
prec au
T ar
TH ER</w>
im ported</w>
WHA T</w>
ass et</w>
sto red</w>
om a</w>
Anne xes</w>
S C
t une</w>
co hesion</w>
3 1.
sul ph
B illy</w>
gl asses</w>
figu res</w>
pop ular</w>
T on
r ab
m al</w>
answ ers</w>
tion ally</w>
f an</w>
un ion</w>
af ford</w>
N ic
K ate</w>
vul ner
V ol
arre sted</w>
N et
stitu tion</w>
Mar tin</w>
&apos; all</w>
to il
gar den</w>
al le
stron ger</w>
Con trac
C YP
ph y</w>
expl ained</w>
vacc ine</w>
meth yl</w>
In st
discus sion</w>
v an
protec ting</w>
po verty</w>
B lo
v ent
penetr ation</w>
famili ar</w>
dum ped</w>
lar g
pr ints</w>
V ir
D or
vot ed</w>
mon y</w>
li f
stom ach</w>
Bul gar
se ason</w>
ro b
20 .
app ing</w>
l ect</w>
tel ev
E mil
ob ject</w>
po und</w>
pass ing</w>
cli ents</w>
CO 2</w>
recogni ze</w>
ut ch</w>
demonstr ated</w>
Bulgar ia</w>
T or
embarr ass
t our</w>
ha emo
P ho
s and
in cur
super visory</w>
fe atures</w>
ot ed</w>
al ous</w>
f are</w>
th a</w>
t les</w>
fo rest</w>
2 7
liqu id</w>
avail ability</w>
speci fications</w>
wea ther</w>
p in
brea thing</w>
ro of</w>
y n</w>
mo v
f li
ch an
blon de</w>
con struc
tox icity</w>
up dated</w>
b ited</w>
am i</w>
perfec tly</w>
occ up
Lux emb
pre viously</w>
E L</w>
ren ess</w>
bul let</w>
10 00</w>
zer o</w>
indic ation</w>
bul lshit</w>
hol ds</w>
P P
St e
e fficacy</w>
benefici ary</w>
gu ests</w>
squ are</w>
s low
la ke</w>
ach el</w>
N on</w>
M id
respon si
d ressed</w>
pr int</w>
at ric</w>
An na</w>
fr ag
stu died</w>
Gu idelines</w>
199 4</w>
ing er</w>
ref er</w>
ma st
Red Tube</w>
l ined</w>
Sec ond</w>
dom in
y ellow</w>
R ead</w>
Si x</w>
D ro
eng ine
spec tive</w>
em br
ev in</w>
H ead</w>
1 6.
Anal din</w>
b ol
OU T</w>
meth odo
e ter</w>
Rob ert</w>
th ly</w>
h o</w>
at us</w>
tic ket</w>
fro zen</w>
K a
t ack
p ical</w>
cre te</w>
ci vil
lead s</w>
swee theart</w>
L Y</w>
Gi ven</w>
substanti al</w>
I AL</w>
aw ard</w>
E ric</w>
a uc
s atell
equi pped</w>
supp lied</w>
ber t</w>
shi ft</w>
thous ands</w>
dist inc
P res
shor t
fuc ker</w>
Stand ard</w>
ti tle</w>
En ough</w>
fin ger</w>
mar gin</w>
ma x</w>
ru ption</w>
der ly</w>
dro me</w>
Prof essor</w>
K E</w>
Go odbye</w>
En viron
communic ations</w>
a king</w>
fo res
Bri an</w>
al leg
op ping</w>
1 20</w>
Maj or</w>
Qu een</w>
ob vious</w>
m ber</w>
certain ty</w>
ex hi
z er</w>
An n
exemp tion</w>
Gre ek</w>
ul ate</w>
main tained</w>
E G
2 50</w>
b ath</w>
ex act</w>
Co ol</w>
ur s</w>
co vers</w>
N ope</w>
proper ties</w>
htt p</w>
hor rible</w>
st olen</w>
ques tion
thou ghts</w>
bo w
Pre tty</w>
tr ick</w>
i o</w>
Reg istration</w>
m it
in gu
gluc ose</w>
depen ds</w>
Bra z
sign ment</w>
stat ements</w>
run s</w>
di et</w>
Luxemb ourg</w>
C ase</w>
prescri bed</w>
e ast</w>
1. 1</w>
es tion</w>
labor atory</w>
et al</w>
ru pt</w>
ane an</w>
S wit
adv anced</w>
out put</w>
pre fer</w>
fol ks</w>
del ic
cous in</w>
n ation</w>
H IV</w>
l un
all ergic</w>
Ed die</w>
gu idance</w>
vi g
v atives</w>
R achel</w>
dis covered</w>
renew able</w>
elec tion</w>
che ese</w>
b orders</w>
Win dows</w>
M ust</w>
er ror</w>
g ross</w>
so il</w>
id al</w>
al fa</w>
the ory</w>
inno vative</w>
Su pp
indic ations</w>
institu tional</w>
G DP</w>
consider ing</w>
J am
r um
drin ks</w>
cle aning</w>
Lt d</w>
Bo y</w>
t at
li p
sec tions</w>
it ty</w>
oun ding</w>
ti tude</w>
Tur key</w>
re tail</w>
M ama</w>
Scot t</w>
su icide</w>
ex trac
exp iry</w>
R ules</w>
ni ghts</w>
10 0
4 0
st y</w>
qu es</w>
ver si
Go d
ir a</w>
Man ufac
ow ned</w>
al ties</w>
mar ily</w>
allow ing</w>
sp are</w>
load ing</w>
Secret ary</w>
wh eel</w>
some how</w>
E gy
po ul
har dly</w>
fra ud</w>
O D</w>
s age</w>
s in</w>
ra il</w>
pos ing</w>
exc ee
electr ical</w>
D r</w>
Tom orrow</w>
Thom as</w>
telev ision</w>
deri ved</w>
r on</w>
as sa
cl ick</w>
sle pt</w>
r ick</w>
ever th
campa ign</w>
ar d
bed room</w>
rub ber</w>
pret end</w>
Med iter
pl ays</w>
sh el
mod els</w>
opini ons</w>
I cel
sol ve</w>
at en</w>
vie wed</w>
inter medi
wi re</w>
el le</w>
smo king</w>
summ ary</w>
everth eless</w>
fa il</w>
sus pen
sol ute</w>
kno ck</w>
Rep res
B ee
Con trol</w>
tor al</w>
li ability</w>
br and</w>
ass ist</w>
s word</w>
At lan
bare ly</w>
w ound</w>
Youn g</w>
transpa rent</w>
f ashi
de rer</w>
MB ER</w>
M P</w>
but ter</w>
Ty pe</w>
sha me</w>
min im
il ed</w>
dist or
determin ation</w>
fe ren
kid n
ci ties</w>
Mediter r
lo ose</w>
ac es</w>
mach inery</w>
awa reness</w>
is o
soldi ers</w>
nut ri
e ur</w>
reli able</w>
hep atic</w>
quar ter</w>
to ys</w>
res sive</w>
suff ering</w>
nam ic</w>
adjust ed</w>
PRODUC T</w>
la unch</w>
be red</w>
supp lies</w>
Ap plic
ast ro
ch e</w>
pos ite</w>
enti rely</w>
Pl us</w>
S O</w>
docum entation</w>
he ating</w>
pri marily</w>
Tit le</w>
res cue</w>
ca uses</w>
Mediterr anean</w>
B est</w>
monit ored</w>
dar ity</w>
F er
k i
P an
re l</w>
J on
sp ending</w>
dic k</w>
invol vement</w>
F ire</w>
- Yes</w>
eng ines</w>
Ro ger</w>
Li thu
A w</w>
ogra phic</w>
K evin</w>
install ation</w>
exam ine</w>
car b
ca sting</w>
small er</w>
sensi tivity</w>
belon gs</w>
ri d
8 00</w>
enz y
Bob by</w>
M R
Th us</w>
li ft</w>
s port</w>
Mom my</w>
mis sions</w>
V o
thre w</w>
at eral</w>
ei gh
car di
mast urb
UN ION</w>
inv o
B ut
re place</w>
for gotten</w>
re st
juris diction</w>
I ts</w>
um es</w>
ca st
4 ,
l ately</w>
mand ate</w>
D ri
Nor way</w>
p et</w>
Ri ghts</w>
jour ney</w>
cut aneous</w>
Th ird</w>
u pper</w>
Sim il
Af gh
brea the</w>
bur g</w>
lam p</w>
judic ial</w>
gover ning</w>
ins ane</w>
oper ated</w>
g ear</w>
exclu ded</w>
pharmac okine
l or</w>
go od
pr ay</w>
ca p</w>
glob in</w>
stri p</w>
ref lect</w>
rol ling</w>
v ar
C H</w>
inter pret
dev il</w>
g an</w>
ta r</w>
M is
cl .</w>
particip ants</w>
eph one</w>
D ra
urb an</w>
W A
foot ball</w>
T ext</w>
cruc ial</w>
par tial</w>
n ings</w>
b o</w>
vot es</w>
I A</w>
with draw
swee tie</w>
Engl and</w>
corpor ate</w>
h all</w>
K im</w>
jec tion</w>
2 2
conflic t</w>
suff er</w>
az ole</w>
in duc
inf ected</w>
ick ness</w>
Th ings</w>
c ents</w>
tre es</w>
MAR KE
Cust oms</w>
ro se</w>
B ased</w>
res sion</w>
a int</w>
R am
isc al</w>
her o
t ence</w>
u ted</w>
I F</w>
m p</w>
RE C
sw itch</w>
Co operation</w>
Mon th</w>
1 4.
as ide</w>
u l</w>
b ags</w>
Ukra ine</w>
es sions</w>
provid ers</w>
C ri
w alls</w>
movi es</w>
Wal ter</w>
ex posed</w>
Com pe
vers al</w>
stre am</w>
Uni versity</w>
al um
no where</w>
S ame</w>
AL L</w>
meth yl
the red</w>
TI VE</w>
re mind</w>
1 5.
vi gation</w>
propor tion</w>
b oun
reg im
cum shot</w>
ti ed</w>
fo ld</w>
strateg ies</w>
b ell</w>
k o
w are</w>
si mul
In te
fe e</w>
K ill</w>
meas urement</w>
des pite</w>
E mm
strength ening</w>
Ser geant</w>
we b</w>
P .
ar ding</w>
expen sive</w>
Ne w
St anding</w>
inv ite</w>
fin anced</w>
po e
del eted</w>
mar ine</w>
pp y</w>
P age</w>
i p</w>
ple ased</w>
C lose</w>
an ni
dis gu
s car
S hel
sud den</w>
inser ted</w>
M eas
lar gest</w>
Fin land</w>
incur red</w>
de dic
Phar mac
E uro</w>
stri ke</w>
Proc ed
repe aling</w>
t ons</w>
end or
P ic
wit n
ish ment</w>
2. 1</w>
wh is
ful fil</w>
uck les</w>
p ers</w>
load ed</w>
MARKE TING</w>
p in</w>
ven ous</w>
bro ad</w>
subm ission</w>
L ot
co he
iz z
Agric ulture</w>
illi ant</w>
cal endar</w>
B ir
pi g</w>
al d</w>
Cl u
D O</w>
manufac turing</w>
y outh</w>
str ong
enh ance</w>
hor iz
ic ian</w>
hur ts</w>
u tr
qu een</w>
Lu ke</w>
Pre sidency</w>
Ex ec
w ash</w>
s per
N ations</w>
com it
et es</w>
man i
il a</w>
S qu
ap par
in ner</w>
f alls</w>
fra me</w>
ac et
lab elling</w>
gre w</w>
di ff
compar ison</w>
H av
L im
dum b</w>
Sh h</w>
appe al</w>
St and</w>
G lo
secre ts</w>
b un
N ot
1 ,000</w>
ar ising</w>
expec ting</w>
pro pose</w>
fri ger
ref unds</w>
b um
dis appeared</w>
fe es</w>
m ay
y cl
ta xes</w>
A sh
nam ely</w>
me d
direc tor</w>
pres entation</w>
be g</w>
sh ee
regul arly</w>
fu els</w>
ell er</w>
ac tors</w>
y m
mass age</w>
na ked</w>
compe tence</w>
mess ages</w>
po p</w>
SPEC IAL</w>
assi ve</w>
fac ing</w>
sw itch
L au
g al
An dy</w>
d enti
compar able</w>
Jap an</w>
1 st</w>
con crete</w>
responsi bilities</w>
G a
confir m</w>
Chris tian</w>
co operate</w>
f ate</w>
chil d
W IT
PR C</w>
li ers</w>
techno logical</w>
er as</w>
produc ing</w>
Serv ices</w>
Wom en</w>
wh ore</w>
coll ect</w>
democr acy</w>
gen der</w>
leg ally</w>
moun tain</w>
j am
hi red</w>
t ea
depend ent</w>
att acked</w>
govern ments</w>
Pl ace</w>
ref use</w>
St .</w>
ha em
1. 2</w>
De fin
ti se</w>
Slov ak
Fuc king</w>
co ok</w>
Any one</w>
hor ses</w>
st ayed</w>
ext end</w>
out door</w>
c m</w>
e .</w>
mo de</w>
ha bit
stor m</w>
B ure
D ER</w>
ca res</w>
S D</w>
bre ad</w>
De tail
b ill</w>
sus pic
er ring</w>
ate ful</w>
fib res</w>
Emil y</w>
sup ports</w>
sp here</w>
NA ME</w>
invest ors</w>
H ou
App a
infec tions</w>
Fre e
5. 1</w>
mo stly</w>
2 6
for th</w>
toil et</w>
An imal</w>
neigh bor
resi stance</w>
ound ation</w>
IS O</w>
gra ms</w>
S T</w>
A C</w>
Produc t</w>
reg ret</w>
12 34</w>
L atest</w>
al ert</w>
behavi our</w>
b ite</w>
San ta</w>
glyca emia</w>
ex ported</w>
l ad
S cho
Do c</w>
pack aging</w>
sil ly</w>
offic ers</w>
B at
sor s</w>
benefici aries</w>
transi tional</w>
ob st
gho st</w>
harmon ised</w>
issu ing</w>
dis charge</w>
S ou
g ang
m id</w>
Car ter</w>
discus sed</w>
pr o</w>
acc el
doc tors</w>
or ation</w>
appe arance</w>
M ini
................ ................
scre w</w>
rel ative</w>
p ure</w>
sh ock</w>
r at</w>
rap id</w>
achiev ing</w>
ser um</w>
n is</w>
recommend ation</w>
re jected</w>
R ol
Contrac ting</w>
re ti
secon dary</w>
In deed</w>
ho p</w>
m u
recei pt</w>
bas eline</w>
depen ding</w>
in k
W E</w>
co at</w>
patter n</w>
l as
j unc
B Y</w>
repres ents</w>
s --</w>
datab ase</w>
wat er
on going</w>
ol ate</w>
br o</w>
Direc tives</w>
ter ing</w>
Produc ts</w>
B eli
fer on</w>
Appa rently</w>
St ra
per mission</w>
invol ve</w>
1. 5</w>
r ine</w>
W ar</w>
R T
dimen sion</w>
prescri ption</w>
ac les</w>
T em
des ire</w>
et ting</w>
em ail</w>
T en</w>
Des cri
NO W</w>
Mex ico</w>
cont ents</w>
speci fy</w>
P lan
ail s</w>
moder ate</w>
je alous</w>
contin ues</w>
W ater</w>
exc essive</w>
vulner able</w>
D un
pres ents</w>
Bro ther</w>
eu tic</w>
sampl ing</w>
N ote</w>
laugh ing</w>
stre ets</w>
S E
co ol
fo li
he ight</w>
B an
Repres ent
Buil ding</w>
eg g</w>
id a</w>
f on
k inda</w>
equ ity</w>
v ital</w>
po cket</w>
Rel ax</w>
detec tive</w>
all en</w>
K y
me ters</w>
T F
li abilities</w>
H om
wh enever</w>
.e u</w>
mon d</w>
tic kets</w>
ful filled</w>
param eters</w>
ton gue</w>
dist urb
Un fortunately</w>
j i</w>
dis cre
199 2</w>
S ig
un known</w>
appar atus</w>
Po int</w>
r ings</w>
our ing</w>
demonstr ate</w>
r ats</w>
min or</w>
bur ied</w>
ic als</w>
y ar
mon etary</w>
urg ent</w>
def ence</w>
per mitted</w>
che ating</w>
agricul ture</w>
Sim on</w>
ric s</w>
az ine</w>
F ish
c ep
pos s
G ab
C .
li br
199 3</w>
D A</w>
fo od
ti p</w>
contr ary</w>
Protec tion</w>
be aring</w>
G or
coun ts</w>
. com</w>
do x</w>
re friger
rac ial</w>
comb at</w>
de fic
scen ari
st ations</w>
Fol low</w>
ww w
under lying</w>
satell ite</w>
b right</w>
US T</w>
wh oever</w>
b y
il er</w>
Wor k</w>
nation als</w>
AR S</w>
su ffered</w>
consi sts</w>
C ut</w>
argu ment</w>
convinc ed</w>
democr atic</w>
set tle</w>
sc ore</w>
holi day</w>
satis fied</w>
bl ack
rec ru
deri vatives</w>
2 8.
UR E</w>
De partment</w>
gre en
J ord
EF TA</w>
reser ve</w>
at tri
spo ken</w>
mul ti</w>
mar itime</w>
ur ies</w>
s ports</w>
ir man</w>
P u
Mat t</w>
volun te
b ow</w>
g ang</w>
def ense</w>
d ust</w>
repe aled</w>
excep tional</w>
psy ch
est ate</w>
T re
uti l
withdraw al</w>
m igration</w>
gu ide</w>
har m
IT Y</w>
clo sing</w>
M A</w>
Bra vo
pro sec
flu or
f iscal</w>
zer land</w>
sha re
ug ly</w>
na p</w>
des per
E ll
pi ents</w>
2. 2</w>
0 s</w>
lin ks</w>
consi sting</w>
2. 5</w>
ex it</w>
So ci
veri fy</w>
lo y</w>
pre ne
t emp
no w
li min
li sts</w>
v ir</w>
O w</w>
expen ses</w>
s ea
T ro
re mo
mo od</w>
I ni
b ones</w>
Jo se
ul ated</w>
l oud</w>
fin gers</w>
Bravo Tube</w>
sym bo
person ally</w>
tr y
serv ation</w>
ent h</w>
Ag ain</w>
in put</w>
Pet e</w>
ro man
har der</w>
transi tion</w>
M eg
plat form</w>
ist ers</w>
Pr ince</w>
plat z</w>
exist s</w>
Tech nical</w>
Swit zerland</w>
soldi er</w>
Sh ar
re forms</w>
D C</w>
re placement</w>
kin ds</w>
evalu ated</w>
cl ass
ul ed</w>
d ancing</w>
ter ri
0. 5</w>
Comp any</w>
Reg ional</w>
H un
divor ce</w>
C .</w>
sal t</w>
tin y</w>
out ta</w>
c us</w>
div ision</w>
J ason</w>
Cal m</w>
compl aint</w>
ul tural</w>
gare t
fac ial</w>
expres sion</w>
K yle</w>
ee k</w>
p um
adjust ments</w>
D ow
R ome</w>
regar ded</w>
preci ous</w>
Le o</w>
am end</w>
des ir
g ence</w>
ex tra
protec tive</w>
in si
agg reg
N O</w>
an z
under taken</w>
lo dged</w>
sho ts</w>
inten tion</w>
ma r</w>
Per f
T E</w>
bi ke</w>
ci garet
emal e
classi c</w>
b id
haemo globin</w>
d or
mi x</w>
Au str
is ations</w>
an ded</w>
4. 3</w>
ra ising</w>
lar ger</w>
Emm a</w>
scre wed</w>
ill er</w>
d ation</w>
mom ents</w>
di str
Ch ic
kid ney</w>
bri de</w>
circ u
V en
F am
Sh emale
Ro ad</w>
ab solute</w>
restric ted</w>
h an</w>
trans it</w>
V ice</w>
Can ada</w>
p ills</w>
as se</w>
attemp t</w>
Bure au</w>
org asm</w>
C ast
ev a</w>
B s</w>
WIT H</w>
lam ps</w>
M ol
enem ies</w>
Pre viously</w>
Tu es
pa int</w>
fle et</w>
4. 5</w>
sk in
ed ly</w>
R an
Trans port</w>
masturb ation</w>
Cla ire</w>
cam eras</w>
ou red</w>
kno c
bro w
v om
si m
te aching</w>
repres ented</w>
par ti
deleg ated</w>
mem ories</w>
J ac
Mar k
Clar k</w>
elec tro
pa inting</w>
I X</w>
conf used</w>
initi ated</w>
s at</w>
fir ms</w>
on ers</w>
de fine</w>
cry st
v in
sli ghtly</w>
O ut
fun eral</w>
5. 2</w>
vir al</w>
circ ulation</w>
Cy pr
ther ing</w>
Ale x
Invest ment</w>
ch ose</w>
si zed</w>
Bl ue</w>
Slovak ia</w>
scho ols</w>
expres s</w>
s ules</w>
port ers</w>
incre dible</w>
H ear
Cl ass</w>
P C
ch ronic</w>
war rant</w>
d ges</w>
al arm</w>
m bo
ju ice</w>
fo ol
1 1
sig nature</w>
pro ph
es tic
suffici ently</w>
offici ally</w>
id ly</w>
gg le</w>
a w</w>
cl asses</w>
candi date</w>
Cypr us</w>
Part nership</w>
s uck</w>
I .</w>
ans wered</w>
bl u
a er
Elec tr
laun ched</w>
ri a</w>
wo ods</w>
N either</w>
W at
gen ic</w>
M en</w>
L L</w>
3. 1</w>
ac compl
With in</w>
str u
rem un
S n
Fo reign</w>
s z
coun ting</w>
anci ent</w>
B U
autom atic</w>
k ins</w>
comfor t</w>
princi pal</w>
gr ateful</w>
pen ding</w>
ber g</w>
M et
V II</w>
de par
er y
e ties</w>
V III</w>
youn ger</w>
enter ing</w>
rail way</w>
collec tive</w>
ph a</w>
W ash
event ually</w>
F ig
A ra
shee ts</w>
se ats</w>
b id</w>
ap paren
reco vered</w>
inhibit ors</w>
bab ies</w>
sol vent</w>
O m
C ateg
regul ated</w>
terror ist</w>
Exec utive</w>
go als</w>
fal se</w>
Wh e
rec ording</w>
it ations</w>
volun tary</w>
AN CE</w>
vis a</w>
S R</w>
as yl
apparen tly</w>
AC E</w>
Sp ir
D own</w>
Mini stry</w>
ac tor</w>
tra ined</w>
cere als</w>
Braz il</w>
fre ak</w>
ev ol
limin ary</w>
bac ter
so oner</w>
In d
HA VE</w>
E Y</w>
Bus iness</w>
ab and
E ver</w>
s or</w>
2 1.
slow ly</w>
P AC
g or
- It</w>
Tech no
E ast
Ma x
offici als</w>
j ury</w>
z ab
sav ings</w>
jo ined</w>
pl ates</w>
li am</w>
provid er</w>
survi val</w>
si e</w>
NO T</w>
disci pl
uropa .eu</w>
tho dox</w>
ro lled</w>
L a</w>
hi re</w>
p us
Fur ther</w>
ti er</w>
cr ash</w>
asyl um</w>
w ishes</w>
hou sing</w>
gen u
er n</w>
V is
dra g</w>
XX X
bur ned</w>
flow s</w>
C lear</w>
it ability</w>
h es</w>
St art</w>
ther ine</w>
g all
Addi tional</w>
b ang</w>
th ur</w>
an istan</w>
ch oc
ane ously</w>
F RO
me tal
ser ver</w>
P ull</w>
dre ds</w>
um a</w>
bor ing</w>
desir able</w>
acces sible</w>
N ah</w>
exc iting</w>
F orm
acc um
K i
B ad</w>
m atic</w>
ban king</w>
explan ation</w>
U r
there by</w>
milli ons</w>
contrac ting</w>
ne utr
stan tly</w>
g in
R ule</w>
att or
F ar
2 4.
mo bil
avi ation</w>
Organ isation</w>
swal low</w>
id ation</w>
bel t</w>
ten ed</w>
repe at</w>
in dex</w>
bas ically</w>
diab etes</w>
ter ies</w>
hi l</w>
lo g</w>
comple tion</w>
u no
tax ation</w>
Afgh anistan</w>
expos ures</w>
el and</w>
tr ou
techni ques</w>
eng en</w>
St ri
un able</w>
Chic ago</w>
sha ke</w>
ent re
A partments</w>
li ar</w>
sh opping</w>
degre es</w>
de fe
D ave</w>
C ali
com position</w>
Tues day</w>
Al ice</w>
t ank</w>
tr ace</w>
ol ine</w>
Sch engen</w>
dis sem
K at
S wee
con version</w>
str ang
ph ones</w>
ru ined</w>
prepar ing</w>
C lo
br un
there to</w>
secre tary</w>
cap sules</w>
Dro p</w>
or a</w>
depos it</w>
10 ,000</w>
In no
ap ine</w>
th care</w>
Wash ington</w>
L .
sett led</w>
C are
roman tic</w>
ti ll
19 .
thre esome</w>
gra ve</w>
bar s</w>
lan ding</w>
du ly</w>
ma id</w>
il st</w>
G ri
dri ven</w>
E specially</w>
U gh</w>
ß e</w>
ang el</w>
supp lier</w>
u el</w>
arrang ement</w>
ab bed</w>
continu ous</w>
contin uation</w>
but t</w>
pris ing</w>
pr ic
interpret ation</w>
sequ ently</w>
FOR M
lic ense</w>
f itted</w>
V inc
assi stant</w>
Op inion</w>
win ter</w>
P ak
Se an</w>
fo rec
Jo sh</w>
sel ect</w>
per spective</w>
al y
D E
Bun ker</w>
pap er
divid ed</w>
attrac tive</w>
difficul ty</w>
acc ept
R S</w>
re pair</w>
rev ised</w>
t ings</w>
po pul
me ter</w>
c ure</w>
R ural</w>
ag ged</w>
pic king</w>
par liam
n ect</w>
sp y</w>
bri ef
col our</w>
b les</w>
tou ched</w>
cont am
neighbor hood</w>
tex tile</w>
n ically</w>
G ol
fl esh</w>
Pap er</w>
contain er</w>
foc used</w>
bra ve</w>
ad vis
as sion</w>
cast le</w>
fant astic</w>
re fu
De an</w>
enc ing</w>
F ile</w>
enti onal</w>
inte st
acc o</w>
F lor
g a</w>
R et
mag ne
G ot
ou ter</w>
bo xes</w>
wid th</w>
co al</w>
tel ephone</w>
initi ation</w>
f ought</w>
bloc ks</w>
Me th
An nie</w>
a b</w>
R ose</w>
cha pter</w>
i vely</w>
T ow
v ail
con vic
Jer ry</w>
pri est</w>
ly mp
Lis a</w>
repres enting</w>
lau ghter</w>
cust ody</w>
.e uropa.eu</w>
gen ius</w>
K now</w>
prohi bited</w>
sil ver</w>
Ko rea</w>
AP P
ci um</w>
exec ution</w>
E v
ru in</w>
dead line</w>
Descri ption</w>
S even</w>
thresh old</w>
p .
sti pul
T ed</w>
affec ting</w>
pa in
lo s</w>
bil ateral</w>
il le</w>
L IS
targe ted</w>
Hon or</w>
mo ves</w>
less on</w>
professi on
Ang el
coo king</w>
is ely</w>
enz a</w>
ad o</w>
Ar thur</w>
ear n</w>
x y</w>
ra m</w>
sustain ability</w>
In spec
---- ----
phot ograph
dis closure</w>
Lithu ania</w>
watch ed</w>
M AN</w>
conven i
lic k</w>
dis aster</w>
W r
bu m</w>
sp ap
pi zz
v ampi
unic ip
di g</w>
er able</w>
Treat ment</w>
D ear</w>
dis appear</w>
2 9.
Po si
so le</w>
l en
syst em
on e
G ent
k er
Y et</w>
assi um</w>
E d</w>
re stra
ling erie</w>
your selves</w>
Con t
E ff
valu able</w>
I P
Ch urch</w>
spir it
J izz
manag ing</w>
loc ks</w>
tra p</w>
precau tions</w>
concentr ate</w>
pec ted</w>
P hot
occas ion</w>
consci ous</w>
inc ident</w>
ado les
ref ers</w>
con sent</w>
f lower</w>
En ter
t reas
D ef
IN G
W estern</w>
y n
autom atically</w>
v oting</w>
intellig ence</w>
M O</w>
f ice</w>
E .
Jizz Bunker</w>
t age</w>
guarante ed</w>
F R</w>
Con ference</w>
proportion ate</w>
bar riers</w>
Ch uck</w>
pl ain</w>
ren der</w>
mi ti
Z e
H ad</w>
vil le</w>
av ir
arti st</w>
appropri ations</w>
Ab by</w>
V eg
con g
4. 1</w>
int end</w>
ser ving</w>
bio logical</w>
offic es</w>
S ave</w>
fin ger
att acks</w>
un a</w>
Je ff</w>
M um</w>
A dri
2 7.
re views</w>
ug gl
sex y</w>
S end</w>
ti sing</w>
un employment</w>
all ed</w>
Jack son</w>
food stuffs</w>
bo t</w>
pis sed</w>
de fici
gh ty</w>
P hil</w>
defini tive</w>
poul try</w>
comp li
mo l</w>
ex cl.</w>
bo vine</w>
tu be</w>
US A</w>
con stitutes</w>
do sage</w>
XXX Dan</w>
po is
Ton ight</w>
ind ent</w>
Wil liam</w>
sol ely</w>
dec ent</w>
AR E</w>
Jord an</w>
ph il
U p
ea king</w>
Net work</w>
Al most</w>
v a
l o</w>
cot ton</w>
Se x</w>
brun ette</w>
not ably</w>
ut ation</w>
br illiant</w>
alle l</w>
N om
ato es</w>
ti ble</w>
soli darity</w>
ab use</w>
down stairs</w>
C at
religi ous</w>
er o</w>
Po or</w>
O therwise</w>
r ash</w>
jack et</w>
el ed</w>
fla v
Del eg
om et
ok ie</w>
Ch ange</w>
ro t
bor ne</w>
st a</w>
Pro m
a .</w>
po inted</w>
fer til
Th ought</w>
Reg ions</w>
N ING</w>
in o
co ach</w>
d less</w>
st ery</w>
reli ef</w>
lon ely</w>
h ome
Ar t</w>
Con si
Lar ry</w>
as i
S pr
E ither</w>
T ay
Fl ash</w>
P ot
im bur
ac knowle
am ent</w>
supp liers</w>
sing ing</w>
hol dings</w>
at mo
B .
A ye</w>
go odbye</w>
acqu isi
O T
addi tives</w>
cent res</w>
to ward</w>
sen ior</w>
ic ans</w>
fee d
entre prene
op er</w>
res ear
Ser bia</w>
t ative</w>
ou gh
U. S.</w>
3. 2</w>
gi ant</w>
F le
mot or
meas uring</w>
sol ved</w>
me rely</w>
h all
Lou is</w>
celebr ate</w>
mand atory</w>
territ orial</w>
po wered</w>
lot tery</w>
n t</w>
in direct</w>
in i</w>
rec k
Car l</w>
cu ts</w>
consider able</w>
t ine</w>
B .</w>
f ar
equ ality</w>
ag on
col labor
lic en
Bo x</w>
do in</w>
Scho ol</w>
z ones</w>
ch ers</w>
18 .
C E
necess arily</w>
Rec omm
cont ra
hear ts</w>
id er</w>
ON E</w>
vac ation</w>
methodo logy</w>
inter racial</w>
flexi ble</w>
f ancy</w>
Ta king</w>
rema ined</w>
k icked</w>
en vis
Or thodox</w>
w eg
form ula</w>
tri gger</w>
b by</w>
Y u
K elly</w>
ster o
cir cle</w>
organ ization</w>
gu ards</w>
C I</w>
in tra</w>
st al
shoul der</w>
radi ation</w>
il eg
produc tive</w>
st abil
cour age</w>
un usual</w>
inter action</w>
com ment</w>
AG E</w>
pi e</w>
go in</w>
programm ing</w>
I V
Al an</w>
t all</w>
exper tise</w>
abl ing</w>
therap eutic</w>
sp ell</w>
S et</w>
B R
O THER</w>
tra vel
ca using</w>
T ex
fac ed</w>
house hold</w>
PRO V
a warded</w>
St ep</w>
hand some</w>
announ ced</w>
ex pi
S ex
bea m</w>
manufactu rers</w>
mil d</w>
Com b
st ages</w>
gentle man</w>
win ning</w>
ell ec
vers ary</w>
le ather</w>
NU MBER</w>
z o</w>
M P
im plic
Ind ustri
coord inated</w>
Y esterday</w>
ST R
si x
bre ach</w>
wor ker</w>
Dep uty</w>
r at
pul se</w>
Br it
fa ir
ic y
ad or</w>
am s</w>
f illing</w>
H ope</w>
Perf ect</w>
D utch</w>
certi fied</w>
an ian</w>
Egy pt</w>
E duc
tal ks</w>
fa st
exclus ively</w>
hun ting</w>
m ust
it arian</w>
In cre
M Y</w>
orig in
ast y</w>
Fish eries</w>
ho ok</w>
nit ro
esti val</w>
Represent ative</w>
remun eration</w>
o ils</w>
Be ing</w>
ac ute</w>
R est
H OL
d ay
be tra
Beli eve</w>
A ah</w>
com mon
co ast</w>
te ach
acti vated</w>
Mar ia</w>
fo ods</w>
sc are</w>
G EN
Com ple
val uation</w>
transl ation</w>
new spap
Euro system</w>
ha med</w>
dedic ated</w>
am ide</w>
f ed</w>
e ds</w>
di pl
her it
pig s</w>
st at</w>
oc ean</w>
4. 8</w>
re tro
Gent le
Ap pro
threat ening</w>
dro ve</w>
Or der</w>
ho ly</w>
al ism</w>
addi tive</w>
y i
heal thcare</w>
asc ular</w>
an nex
for tune</w>
199 0</w>
g ins</w>
enh anced</w>
correc ted</w>
is her</w>
re imbur
Che ers</w>
pan el</w>
T im</w>
ar g
p atch</w>
Com ing</w>
Mex ican</w>
ain ing</w>
scre aming</w>
Recomm end
exclus ive</w>
Sub ject</w>
ush ed</w>
S op
b age</w>
aff air</w>
hi p</w>
alum inium</w>
L am
pro lon
Luc y</w>
R E</w>
TF EU</w>
indic ates</w>
arch it
mist akes</w>
mar king</w>
L en
m igr
enti c</w>
O w
cr ack</w>
ee z</w>
con comit
p el
A id</w>
import ers</w>
val idity</w>
for nia</w>
f allen</w>
im ages</w>
par allel</w>
intra venous</w>
attor ney</w>
D re
exc ess</w>
Proced ure</w>
bal anced</w>
oper ative</w>
l ap
happ iness</w>
L ist</w>
op a
ci a</w>
b ass
Pri me</w>
design ation</w>
bur y</w>
i th
W on</w>
sc ary</w>
ou ts</w>
ni c</w>
accel er
Re al</w>
i res</w>
Nor weg
Con sequently</w>
smo oth</w>
- l</w>
gr ants</w>
form ing</w>
di strict</w>
elec tions</w>
in n</w>
conv ince</w>
CI A</w>
con stant</w>
rel ate</w>
D al
4 14</w>
be ings</w>
m o</w>
priv ileg
at titude</w>
D ATE</w>
sh ed</w>
remo val</w>
T am
C T
Mal ta</w>
cur ious</w>
on tal</w>
Con tin
RE S</w>
zab eth</w>
accur ate</w>
terror ism</w>
th ri
suspen ded</w>
ll er</w>
de struction</w>
M u
tour ism</w>
F R
TE N
pul ling</w>
Sta r</w>
op ens</w>
rap idly</w>
th rowing</w>
rec ep
bran ch</w>
G ro
G ary</w>
pe ace
be ta</w>
ass embly</w>
visi ble</w>
behavi or</w>
rep ly</w>
def end</w>
O .
sol o</w>
a wake</w>
clus ive</w>
rel atively</w>
independ ence</w>
F lo
favour able</w>
pre liminary</w>
poll ution</w>
ch ro
tex ts</w>
defic it</w>
avir in</w>
es el</w>
o be
id en
ref used</w>
o b</w>
D A
sc ar</w>
sched uled</w>
increas ingly</w>
om atic</w>
do gging</w>
d ried</w>
ur ine</w>
sh eep</w>
re aching</w>
AU C</w>
Bo s
Sus an</w>
me ets</w>
Ph ili
publ ish</w>
wa ited</w>
con nect</w>
Dow n
A k
Ar my</w>
re sident</w>
t rem
Portu gu
op posite</w>
accept ance</w>
East ern</w>
hun dreds</w>
em ade</w>
co operating</w>
port ation</w>
manufactu red</w>
brea ks</w>
fif th</w>
cons ult</w>
satis fy</w>
nat ur
legi timate</w>
co ck
re ment</w>
flexi bility</w>
audi ence</w>
territ ories</w>
ass ur
ash es</w>
inter oper
Un it</w>
reven ge</w>
descri be</w>
Norweg ian</w>
Am end
v als</w>
ap e</w>
dis play</w>
on avir</w>
K ir
repe ated</w>
main taining</w>
Fun ds</w>
win dows</w>
st atic</w>
Hav en</w>
ic king</w>
be ef</w>
comm it</w>
f it
occur s</w>
Inst ead</w>
thi az
In t
1. 3</w>
peri o
v est</w>
stand ardis
re ferences</w>
u g</w>
ec ts</w>
tra ffic
pre ten
s ory</w>
to b
stre t
Gu ar
inspec tions</w>
lead ers</w>
B ren
Sw iss</w>
cho ices</w>
inter ven
Dem ocr
sand w
r ush</w>
s lo
ha ir
believ able</w>
13 6</w>
ol a</w>
assu med</w>
b is
gar age</w>
b and
U R</w>
tre me</w>
premi um</w>
F a
in ve
car rier</w>
whe at</w>
wel fare</w>
is er</w>
Chil dren</w>
uni or</w>
acqui red</w>
PAR TIC
Fig ure</w>
EX P
Bo ss</w>
e z</w>
e able</w>
ag ues</w>
acc ess
No ti
cop ies</w>
Eli zabeth</w>
N av
Ir ish</w>
Portugu ese</w>
auth entic</w>
su m
ali en</w>
res ource</w>
Bi ble</w>
PARTIC UL
p ump</w>
sacri fice</w>
h ates</w>
1 3.
choc olate</w>
m ama</w>
mir ror</w>
inc enti
d est</w>
ch ances</w>
rec ycl
mov ements</w>
s now</w>
continu ing</w>
Qu i
Atlan tic</w>
fab rics</w>
frequ ently</w>
CR R</w>
chan nel</w>
ad em
condi tioning</w>
i est</w>
Tay lor</w>
chlor o
Cali fornia</w>
Inter nal</w>
stop ping</w>
ay ne</w>
tw enty</w>
H ank</w>
situ ated</w>
imp acts</w>
Anal ysis</w>
ro bb
c ats</w>
bad ly</w>
Sh eriff</w>
Speci fic</w>
D ub
multi lateral</w>
pizz a</w>
i e
hun t</w>
junc tion</w>
1 10</w>
Any body</w>
W on
a unt</w>
p ine</w>
gr ace</w>
syn drome</w>
religi on</w>
see ds</w>
Sup port</w>
go ds</w>
com promise</w>
Sloven ia</w>
do sing</w>
S S</w>
where by</w>
wel comes</w>
priv acy</w>
17 .
prov ed</w>
objec ts</w>
hi e</w>
Un common</w>
I ran</w>
separ ately</w>
oxy gen</w>
v ice</w>
o ke</w>
strong ly</w>
S on
gener ated</w>
al ysis</w>
Clu b</w>
fi er</w>
se c</w>
re ar</w>
In stitute</w>
recomm end</w>
P il
lo e</w>
mer cy</w>
tion ed</w>
St eph
Gentle men</w>
us al</w>
ali zed</w>
Wor king</w>
mus e
Detail ed</w>
m .</w>
hel p
harmon isation</w>
cri mes</w>
ca b</w>
H I
Simil ar</w>
T AR
A w
resid ue</w>
h ill</w>
s s
vacc ination</w>
an don</w>
employ ee</w>
loc ations</w>
ge on</w>
bes artan</w>
restric tive</w>
P eg
hom emade</w>
J .</w>
C enter</w>
O l
N ight</w>
L A
liter ally</w>
consequ ence</w>
crow d</w>
18 0</w>
ble w</w>
hep atitis</w>
t ress</w>
suc ks</w>
th m</w>
P C</w>
Loo king</w>
En g
transf ers</w>
ER S</w>
Val ent
ch ann
jour n
el ing</w>
PAC K
wor e</w>
mechan ical</w>
t ant</w>
tr usted</w>
ten ders</w>
5 ,
symbo l</w>
do ll
Or al</w>
Str uc
pa ired</w>
istr y</w>
green house</w>
de duc
Lat via</w>
Re ference</w>
C ir
ellec tual</w>
en ia</w>
th al
serv ant</w>
Blo od</w>
ren tal</w>
in sp
eg o</w>
s ought</w>
perform ing</w>
R is
h ated</w>
compati bility</w>
Pol ish</w>
6 ,
car riers</w>
imm une</w>
ad mi
tob acco</w>
prin ted</w>
t end</w>
install ed</w>
arri ve</w>
st eady</w>
recogn ise</w>
Aud itors</w>
- Oh</w>
ra pe</w>
emo tional</w>
F F</w>
ph y
Rom an</w>
bra ke</w>
sh ore</w>
kis sing</w>
Sm ith</w>
cor n</w>
J ere
2. 3</w>
p ages</w>
where ver</w>
M AN
mb H</w>
l ayer</w>
as sure</w>
Ni k
wo ke</w>
Pl ay</w>
advant ages</w>
adap t</w>
assess ing</w>
199 1</w>
am bul
Ci vil</w>
per c
mic ro</w>
hydr ate</w>
A ut
W ake</w>
there in</w>
ST A
s ement</w>
defini tions</w>
sh ine</w>
P op
Sm all</w>
www .
- We</w>
re me
Jen ny</w>
an ticip
logi c</w>
hear t
Tu ber</w>
IT S</w>
bu ff
ben ch
ush ing</w>
writ er</w>
de fault</w>
Swe dish</w>
Ass ess
industri es</w>
dis order</w>
R ay
T el
Dr Tuber</w>
po ison</w>
ab dom
kill s</w>
libr ary</w>
liqu idity</w>
so red</w>
Go ing</w>
Ann ual</w>
PARTICUL ARS</w>
thro mbo
w as
an no
viol ent</w>
ow nership</w>
veget able</w>
ann e</w>
ri e</w>
s .
3 8
Sho ot</w>
EA R</w>
De ath</w>
deleg ation</w>
bro wn</w>
anal o
dar kness</w>
Gr and</w>
Sh er
&apos; t
Par ag
v ary</w>
an gi
dec k</w>
Emp loyment</w>
be l</w>
Ch em
organis ms</w>
re constitu
sig ning</w>
pi pe</w>
mix ture</w>
o therapy</w>
li ghting</w>
Re qui
el derly</w>
La ura</w>
Sto ck</w>
contrac tual</w>
cre ampi
K aren</w>
te en
N u
mur derer</w>
dist ingu
Con su
hon estly</w>
pro tocol</w>
fri gh
Swe et</w>
threat ened</w>
pot entially</w>
ar i</w>
t am
hand job</w>
wor thy</w>
pot assium</w>
B la
person ality</w>
G R
car go</w>
Feder al</w>
rec eption</w>
invest or</w>
ent ally</w>
allow ances</w>
C AR
For give</w>
shar p</w>
dam aged</w>
an ch
k ingdom</w>
ON AL</w>
E l</w>
cre ature</w>
te es</w>
R on
Pl ayer</w>
2 6.
eng age</w>
att end</w>
sub cutaneous</w>
st es</w>
TI T
integr ity</w>
Is land</w>
diffe ren
Pur su
v as
tre ating</w>
rem ote</w>
Y ah
injec tions</w>
G il
my stery</w>
fo ster</w>
ro g
th at
subsequ ently</w>
stu dio</w>
Ob viously</w>
diam eter</w>
M organ</w>
func tional</w>
ti les</w>
se iz
w ra
edi atric</w>
d ual</w>
creampi e</w>
2 3.
ti mat
M ission</w>
mir acle</w>
cau tion</w>
jer k</w>
m ask</w>
n ick
desper ate</w>
A ma
A M</w>
o v</w>
st ones</w>
G mbH</w>
fr ac
st ake</w>
PH AR
st en
G y
tim ing</w>
Li ve</w>
thro po
tra pped</w>
suggest ed</w>
po l</w>
vari able</w>
S in
p o</w>
chem icals</w>
Juli a</w>
conclu de</w>
0. 0
war n</w>
g rid</w>
ro ws</w>
di al</w>
we h</w>
confidenti al</w>
h em
author isations</w>
I ra
sem i</w>
ambi tious</w>
aband oned</w>
z ation</w>
co verage</w>
mother fucker</w>
Austr alia</w>
Jo ey</w>
pre mises</w>
po v</w>
Bee g</w>
w are
Sta ff</w>
RE D</w>
Mul ti
ste aling</w>
pp ers</w>
ven s</w>
ot er</w>
C ES
flu id</w>
com pounds</w>
P s</w>
Jack ie</w>
sus pected</w>
c and
imm ing</w>
sil ent</w>
improv ements</w>
doll ar</w>
p y</w>
appro ve</w>
appro aches</w>
- That</w>
sol v
el se
consist ency</w>
par tly</w>
s and</w>
o re
Ini ti
to se</w>
coord in
c ement</w>
dep th</w>
cour ts</w>
push ed</w>
lo ver</w>
ff y</w>
t g
infring ement</w>
consul tations</w>
ber ry</w>
Yah weh</w>
Leg al</w>
wit ch</w>
FRO M</w>
tea ms</w>
vom iting</w>
s ni
serv ants</w>
tr um</w>
2 2.
han ded</w>
escap ed</w>
rep utation</w>
ess a</w>
P ay
bor row</w>
Se ems</w>
be t
adap ted</w>
rit onavir</w>
V an
pri ze</w>
grand father</w>
inter pre
H it</w>
harm ful</w>
Gu y</w>
Pursu ant</w>
re viewed</w>
sha dow</w>
investi gations</w>
e fully</w>
1 60</w>
D onna</w>
with draw</w>
f ting</w>
na use
in ci
Categ ory</w>
l ining</w>
ag ging</w>
tal ent</w>
log ist</w>
fun ded</w>
pos session</w>
simul t
adv ent
Assess ment</w>
gene tic</w>
cou ch</w>
histor ical</w>
weigh ted</w>
prof its</w>
win ner</w>
al k
w ave</w>
o th
and om
d l</w>
good ness</w>
ann ah</w>
bud sman</w>
spirit ual</w>
k ind
3 A
sur vey</w>
fashi on</w>
eth yl</w>
W ea
Oper ator</w>
observ ations</w>
L ily</w>
Admin istr
ver t</w>
iden tical</w>
Exc ellent</w>
um my</w>
al ists</w>
separ ated</w>
feder al</w>
citiz en</w>
9 0
m um</w>
M ir
MEN TS</w>
vol umes</w>
possi bilities</w>
FORM ATION</w>
respec ted</w>
z zy</w>
tradi tion</w>
educ ational</w>
ex plic
Mag gie</w>
witn esses</w>
na vigation</w>
arri val</w>
K r
pursu e</w>
V an</w>
prec eding</w>
I denti
b ru
Sy n
Cor por
&apos; II</w>
detec ted</w>
ce iling</w>
num erous</w>
Sci enti
worl d
en abling</w>
H D
am ong
f ted</w>
ro ot</w>
c on</w>
Le on
k l
z om
lo ving</w>
phot ogra
ne uro
connec tions</w>
pen alties</w>
mi ghty</w>
W ay</w>
Pat rick</w>
ab or
tab les</w>
pleas ant</w>
RE P
sh oc
port foli
mor tal
estim ate</w>
5. 3</w>
S EC
J ones</w>
n d</w>
g ress</w>
loc ate</w>
associ ations</w>
r ated</w>
cle ared</w>
indic ator</w>
IN FORMATION</w>
trans mitted</w>
comp ul
incenti ves</w>
M .
ag ne</w>
anc er</w>
m are</w>
or r
6. 1</w>
ri but
og le</w>
adver tising</w>
1 25</w>
direc ted</w>
dem ands</w>
EI B</w>
preven ting</w>
Cal endar</w>
Pow er</w>
S ul
r us</w>
acquisi tion</w>
wh ilst</w>
se as</w>
applic ants</w>
N evertheless</w>
ex treme</w>
u de</w>
for th
adoles cents</w>
prec ise</w>
Com pu
Na than</w>
inter rup
Ro om</w>
ut ers</w>
p ill
in ity</w>
rec all</w>
hypo glycaemia</w>
assess ments</w>
To p</w>
dep end</w>
com pound</w>
tren d</w>
A gen
y pe</w>
M ight</w>
1 12</w>
Con di
veri fied</w>
ran dom</w>
do zen</w>
skin ny</w>
li ances</w>
in sufficient</w>
c s</w>
W O
magne tic</w>
rou tine</w>
J O
O li
j i
m mol</w>
re vision</w>
l ay
L an
ab road</w>
V ill
Gir l</w>
Fam ily</w>
co ins</w>
air ports</w>
A in</w>
b esides</w>
a f</w>
stop s</w>
reve aled</w>
y ro
obst acles</w>
termin ation</w>
sear ching</w>
mis sible</w>
min ds</w>
ack er</w>
furn iture</w>
yl er</w>
m ation</w>
M em
affec ts</w>
00 1</w>
AC P</w>
dec or
bre eding</w>
u x</w>
re verse</w>
elim ination</w>
M ot
Icel and</w>
w an</w>
er ce</w>
an i
ec tor</w>
eth ylene</w>
supp lement</w>
str anger</w>
else where</w>
resul ted</w>
kne es</w>
among st</w>
Care ful</w>
p unch</w>
En joy</w>
detec tion</w>
cont acts</w>
ti me
Vinc ent</w>
per si
u tionary</w>
3 2
con servation</w>
wh at
Veg as</w>
Environ ment</w>
back up</w>
Pap a</w>
ec o
contain ers</w>
threat s</w>
a ked</w>
car tri
comp any
Qu ick</w>
requ iring</w>
mix tures</w>
&apos; clock</w>
elec ted</w>
IN T</w>
D ig
common ly</w>
10 4</w>
dem on</w>
S pe
le um</w>
ex tract</w>
catch es</w>
w olf</w>
T un
eli gi
eas ed</w>
Th ough</w>
c able</w>
beg ins</w>
W ouldn</w>
S ud
se al</w>
influ enza</w>
di esel</w>
discus sions</w>
tox ic</w>
10 6</w>
rib avirin</w>
Wh oever</w>
Medic inal</w>
jud g
coll ap
help ful</w>
as hamed</w>
Shemale Tube</w>
A ShemaleTube</w>
m assive</w>
pa thetic</w>
vi c</w>
rec itals</w>
uni versity</w>
ak er</w>
so ve
pre domin
im pose</w>
a to</w>
L and</w>
si sters</w>
Wh oo</w>
or able</w>
sh r
tain ment</w>
tat too</w>
rem em
et ch</w>
correc tly</w>
cal cium</w>
ro l</w>
R .</w>
co s</w>
p iss</w>
n ut</w>
ex clusion</w>
IS TR
install ations</w>
t one</w>
et e</w>
adv ised</w>
V I
mo ti
Bro wn</w>
re fin
N orm
syst emic</w>
sanc tions</w>
e uro
ris on</w>
scenari o</w>
lo x
H im</w>
r andom
s mil
ff in</w>
8 5
E h</w>
grand mother</w>
ed ema</w>
t ear</w>
quali fications</w>
ris t</w>
Ph il
Je an</w>
C ar</w>
di oxide</w>
ar ia</w>
reco ver</w>
bri ef</w>
bas ement</w>
in der</w>
o tic</w>
gy m</w>
life time</w>
So on</w>
U M</w>
phen om
ro t</w>
ad ise</w>
M ach
m unicip
ch at</w>
relation ships</w>
remem bered</w>
c entr
deter i
Om budsman</w>
Ch loe</w>
head ache</w>
Cast le</w>
horiz ontal</w>
ad ding</w>
vir tu
ser ial</w>
con junction</w>
ru de</w>
R O</w>
P ress</w>
regar dless</w>
less ons</w>
genu ine</w>
tr ay</w>
air y</w>
exha usted</w>
el et</w>
10 3</w>
Techno logy</w>
S ister</w>
sal ts</w>
ham ster</w>
P ick</w>
D s</w>
R oc
P ass
l an</w>
re sting</w>
Supp lement</w>
vic tory</w>
delic ious</w>
aff airs</w>
u ps</w>
or ph
mon thly</w>
m emb
eng agement</w>
cab in</w>
depos its</w>
hydro gen</w>
D ead</w>
ol es
W est
Hal f</w>
M ain</w>
sh ops</w>
F ull</w>
in er</w>
Educ ation</w>
on ally</w>
week ly</w>
AR Y</w>
A unt</w>
profession als</w>
consul ting</w>
W S</w>
to ast</w>
company ing</w>
cha mber</w>
ha iry</w>
n am</w>
dum p</w>
Spir it</w>
t ears</w>
Est onia</w>
with drawn</w>
the me</w>
wan ting</w>
pen alty</w>
intest inal</w>
T an
D ue</w>
B is
whe els</w>
sil ence</w>
p acked</w>
obli ged</w>
uni versal</w>
su its</w>
v ag
evalu ate</w>
achiev ement</w>
X o
K al
progra ms</w>
b our
Go od
b ank
r d</w>
ti a</w>
reduc tions</w>
pro mp
L augh
k .
c it
clo thing</w>
Ro ss</w>
ili ation</w>
G U
met res</w>
W OR
re turns</w>
d ys
For ce</w>
ow ners</w>
interoper ability</w>
ambul ance</w>
M olly</w>
bra ins</w>
A ri
free ze</w>
em an</w>
C D</w>
An drew</w>
P L</w>
iz ing</w>
A ar
Coun try</w>
&apos; M</w>
u ma
tr o</w>
ren a</w>
L or
G N
pro spec
yar n</w>
E le
S pi
timat ely</w>
m ile</w>
eli a</w>
conv entional</w>
sugg ests</w>
Res pon
pe e</w>
na il</w>
an te</w>
be an</w>
ub s</w>
doub ts</w>
Th rough</w>
du le</w>
speci fication</w>
M AC
stro ke</w>
satis fac
b li
ga p</w>
candi dates</w>
pass port</w>
ren e</w>
sw elling</w>
S H
trac king</w>
w ell
push ing</w>
may or</w>
inter im</w>
2 5.
deser ves</w>
deal t</w>
v ations</w>
H ist
envis aged</w>
sec toral</w>
teach ers</w>
Gre g</w>
1. 4</w>
traffic king</w>
sol ar</w>
W ol
Amer icans</w>
tr ash</w>
star ing</w>
h ex
s laugh
indic ating</w>
vit ro</w>
ret t</w>
communic ated</w>
ro ads</w>
Char ter</w>
rou s</w>
S and
cy cles</w>
sh ell</w>
Jac ob</w>
Sar a</w>
imm igration</w>
Nom enclature</w>
IC T</w>
CO D</w>
U B
nation ally</w>
f en
int ellectual</w>
inf o</w>
Go ogle</w>
econom ies</w>
Th ir
tax i</w>
pl ause</w>
To ol</w>
disp ute</w>
acc red
proc eed</w>
st ays</w>
In sul
C A</w>
inter feron</w>
pr incess</w>
la p</w>
fl at
ME TH
Des pite</w>
ut ro
Geor gia</w>
ac ulture</w>
Fi f
ver sus</w>
gr as
Sec on
ven ue</w>
concer t</w>
G ame</w>
uti li
larg ement</w>
depres sion</w>
br a</w>
out standing</w>
eb all</w>
Bar ry</w>
L ou</w>
L ight</w>
thi ef</w>
ra z
s par
medic ation</w>
so m</w>
assur ance</w>
sli p</w>
p eak</w>
disgu sting</w>
ash a</w>
D ru
man ual</w>
encour aged</w>
cor ruption</w>
pa tho
St an</w>
igh s</w>
ha mm
equ ally</w>
ill ness</w>
ric h
patter ns</w>
H op
ti tion</w>
ref erring</w>
A h
experi ences</w>
dy namic</w>
Bo ok</w>
ev es</w>
son gs</w>
pris oner</w>
ar gue</w>
10 1</w>
ban kno
AT CH</w>
exam ples</w>
bat tery</w>
6 0
poli tics</w>
invol ves</w>
Recommend ation</w>
K NOW</w>
rou tes</w>
Ber lin</w>
Po st</w>
pro jec
cl ause</w>
ch er
man ip
E qu
ner ships</w>
si a</w>
on t</w>
sou p</w>
ri x</w>
cou pl
e aten</w>
T est</w>
prov en</w>
stra ße</w>
pre me</w>
ph r
coun ty</w>
si gh
li able</w>
anni versary</w>
acti vely</w>
YO UR</w>
Rom a</w>
tech nically</w>
adop ting</w>
wor n</w>
farm ing</w>
entr ance</w>
su peri
K ur
ell as</w>
Col le
bu re
tis ation</w>
com pres
PRODUC TS</w>
Asi a</w>
acqu is</w>
hea dings</w>
ati e</w>
Feder ation</w>
Cop y</w>
re ver
pus sy</w>
m ates</w>
low s</w>
cros sed</w>
hon our</w>
radi o
friend ship</w>
enter prise</w>
d am</w>
S IS</w>
B ay</w>
vide os</w>
amm ation</w>
add ressing</w>
se as
preser ved</w>
atmo sphere</w>
S aid</w>
dis appointed</w>
K ind</w>
safegu ard</w>
clin ically</w>
hom es</w>
D ist
h d</w>
Z illa</w>
tro ops</w>
propos es</w>
de gra
col lateral</w>
Inspec tor</w>
fish ery</w>
pan ic</w>
SU B
Sa int</w>
extra ordinary</w>
contribu ting</w>
pen is</w>
swi m</w>
tim ely</w>
human itarian</w>
comm unities</w>
boo st</w>
ti t
absor ption</w>
saf ely</w>
V ER
us eless</w>
P ack
En try</w>
dro w
Xo Zilla</w>
it er</w>
St an
we i
tr age
do ll</w>
public ly</w>
pan ties</w>
vo y
us age</w>
cle ver</w>
inc t</w>
HOL DER</w>
poe tin</w>
ty pical</w>
j ack</w>
Mat the
F el
Mon ey</w>
Go ver
Fil m</w>
yl on</w>
mid night</w>
Jer us
W AR
allow ance</w>
P ub
el eg
colle agues</w>
calcul ating</w>
resid ues</w>
moder n
gre at
su rely</w>
T eam</w>
ei ved</w>
mag azine</w>
Valent ine</w>
How ard</w>
inc id
u um</w>
in ine</w>
impres sion</w>
wea kness</w>
pa th
G un
refu ge
inv est</w>
abo lic</w>
R ound</w>
on ym
no ver</w>
ot a</w>
NC Bs</w>
lot te</w>
fortun ate</w>
bit r
w ow</w>
ac companying</w>
Sci ence</w>
7 ,
ig e</w>
K ING</w>
be ating</w>
thro wn</w>
satis factory</w>
g ather</w>
Tr an
w is
John son</w>
expl ains</w>
as pect</w>
boo ts</w>
bon ds</w>
tren ds</w>
T yler</w>
L EA
ensu red</w>
al es</w>
Vic tor</w>
to wer</w>
ass ass
adap tation</w>
Ju lie</w>
argu ed</w>
estim ates</w>
jo king</w>
mor al</w>
n ea
N az
te l</w>
pat ent</w>
Jose ph</w>
TIC AL</w>
ev olution</w>
MIN ISTR
J ay</w>
G ET</w>
h ath</w>
car riage</w>
w age</w>
ber ries</w>
gu es</w>
bec ca</w>
Jud ge</w>
G etting</w>
world wide</w>
Ge e</w>
Ma c</w>
un likely</w>
nom enclature</w>
Pr incess</w>
ide al</w>
c ow</w>
al em</w>
ud ine</w>
R N</w>
gl ory</w>
re insurance</w>
cre atures</w>
Coun ty</w>
Rob in</w>
impres sive</w>
cur se</w>
ap point</w>
clean ed</w>
ben z
can dy</w>
mon key</w>
uma b</w>
Tur k
Compu ter</w>
war ri
tack le</w>
K u
fre ight</w>
pri de</w>
pos ted</w>
tor ate</w>
Wh it
pir atory</w>
se aled</w>
Grand ma</w>
ic op
non sense</w>
break down</w>
D IS
i v
clo set</w>
reser ves</w>
d ens</w>
phosp hate</w>
M use
O liver</w>
criter ion</w>
Par ts</w>
AD MINISTR
expec tations</w>
des ert</w>
Agric ultural</w>
ar ise</w>
v elop
sm ells</w>
ra d
U l
RO U
In str
i x</w>
ini an</w>
subsi dy</w>
ex cre
3 5
natur ally</w>
accid ents</w>
Hon estly</w>
prof itability</w>
com posed</w>
D ON</w>
An d
cons ist</w>
Ne ws</w>
ap parent</w>
Jes se</w>
he els</w>
am ed</w>
C ross</w>
str uck</w>
o gen
den y</w>
access ories</w>
e ing</w>
No .</w>
Grand pa</w>
question na
Pro posal</w>
ES S
identi fying</w>
cre ative</w>
introduc ing</w>
For um</w>
ut or</w>
prec isely</w>
Li ber
con stantly</w>
L atin</w>
ass em
3. 3</w>
C in
st ressed</w>
Gi bb
establish ments</w>
read s</w>
Gover ning</w>
t elec
modi fication</w>
dri vers</w>
p ick
nause a</w>
refriger ator</w>
E at</w>
yl an</w>
De b
Glo bal</w>
muse um</w>
ign ore</w>
comm ander</w>
vit am
en sored</w>
ri gh
moun tains</w>
ris ing</w>
Mic hel
termin al</w>
Ca therine</w>
Medic ines</w>
ful fil
L ater</w>
ho ea</w>
In f
ti te</w>
pr ud
gr ass</w>
ge ous</w>
Jerus alem</w>
arrang ed</w>
N B</w>
En d</w>
- He</w>
hol es</w>
encour aging</w>
memb ership</w>
reve al</w>
ini b</w>
mess ed</w>
c er</w>
inv ent
wid er</w>
jo ining</w>
re ward</w>
in king</w>
hun g</w>
org ans</w>
dis abled</w>
po ker</w>
ograph y</w>
adequ ately</w>
explo itation</w>
CON DI
B au
Par ticip
cre ep
Hot els</w>
sampl ed</w>
reser vation</w>
pre f
is s
p ink</w>
chi p</w>
A x
tic o
gener ate</w>
O ff</w>
we en</w>
thiaz ide</w>
Hel en</w>
n asty</w>
Acc ess</w>
con y</w>
p ity</w>
P hy
produc tivity</w>
b all
pain ful</w>
sw imming</w>
f its</w>
per m
haz ard</w>
t us</w>
substanti ally</w>
kis sed</w>
dist ur
fores een</w>
c am</w>
Par ker</w>
depar ture</w>
W AS</w>
Am anda</w>
C max</w>
Nor thern</w>
st am
over come</w>
adem y</w>
spec trum</w>
pe l</w>
mac ro
chann els</w>
mat urity</w>
g ained</w>
ear ned</w>
deli ber
us i
l ling</w>
micro grams</w>
B ot
Inno vation</w>
Mar ie</w>
Sy st
M .</w>
elim inate</w>
ten ing</w>
sho e</w>
Qui et</w>
HO W</w>
arti ficial</w>
robb ery</w>
T ali
PO S
su le</w>
e tic</w>
uc h
sec ured</w>
ar ities</w>
s wa
aut onom
trac ks</w>
ra rely</w>
S ee
Dou g</w>
i ew</w>
um b
ra m
practic ally</w>
An s
Deleg ated</w>
reti rement</w>
On line</w>
Bea utiful</w>
hy bri
Dan ish</w>
mean time</w>
2. 4</w>
under take</w>
si zes</w>
F O
S ab
Su n</w>
an aemia</w>
sett ings</w>
fl ash</w>
night mare</w>
her d</w>
di arr
ci pients</w>
H all</w>
8 4
fe ature</w>
W TO</w>
techni que</w>
ban ds</w>
J o</w>
pris oners</w>
S mo
In tr
inter f
f asc
al i</w>
&apos; RE</w>
12. 2006</w>
l ers</w>
al t</w>
Manufac ture</w>
tic k</w>
comb ating</w>
Ko so
F ro
Ang ela</w>
be ast</w>
ati es</w>
ru b</w>
cour ses</w>
consider ations</w>
O il</w>
s oul
vi br
Le ft</w>
s al</w>
am ino</w>
M ob
assa ult</w>
Ne ed</w>
sp ac
H R</w>
F L
super vis
c ali
inst all</w>
10 9</w>
se duc
ser ves</w>
deep ly</w>
Tru e</w>
is sa</w>
cra w
t s
some time</w>
low est</w>
apart ments</w>
exten sive</w>
R ick</w>
ES C
S at
ex porter</w>
consoli dated</w>
avo ided</w>
star ds</w>
un fortunately</w>
consci ousness</w>
EC R</w>
lon g
pl en
h itting</w>
c ing</w>
bu g</w>
Scienti fic</w>
H ot</w>
tur nover</w>
d u</w>
L ucky</w>
F OL
at t</w>
char ging</w>
sw ine</w>
appropri ation</w>
p acking</w>
S ev
ac ids</w>
J ess
G O</w>
infl ammation</w>
dest iny</w>
Ex ternal</w>
o live</w>
declar ations</w>
b ills</w>
ut ter</w>
ne um
is co</w>
dis continued</w>
or ange</w>
inten sity</w>
L ac
C ub
author ized</w>
th ickness</w>
H A</w>
Gre en
pur se</w>
in qu
T our
go v
chem otherapy</w>
survi ved</w>
ant ine</w>
carb ons</w>
war ned</w>
ari at</w>
CONDI TIONS</w>
shi pment</w>
it ter</w>
alcoho lic</w>
dro pping</w>
pr ince</w>
vis itors</w>
tor ture</w>
o ve</w>
n ations</w>
success fully</w>
ne ys</w>
correc tion</w>
&apos; s
unc ensored</w>
tra il</w>
stru ggle</w>
tr ic
B ar</w>
free zing</w>
Under taking</w>
S po
w ill
arg uments</w>
pharmacokine tics</w>
knoc ked</w>
M ind</w>
assi sted</w>
Th er
Acc ession</w>
shi pping</w>
o ved</w>
Tali ban</w>
E aster</w>
enh ancing</w>
cohe rent</w>
Int egr
C ouldn</w>
ir rit
ro cks</w>
3. 5</w>
Char lotte</w>
eu tical</w>
en der</w>
S av
v s</w>
deal er</w>
mor tal</w>
b ond</w>
tw el
la x
An dre
noti fications</w>
app liances</w>
h its</w>
renew al</w>
cl ue</w>
ju red</w>
comp uters</w>
explo sion</w>
Al i</w>
fil ter</w>
dis played</w>
Bet ween</w>
ch ase</w>
e dy</w>
bot tles</w>
tra iler</w>
P T</w>
Max imum</w>
CA P</w>
observ ation</w>
J UST</w>
u a</w>
W eb
ti de</w>
ver tical</w>
di gn
a. k.
co incidence</w>
F E</w>
hur ting</w>
end ant</w>
A men</w>
mark eted</w>
complain ts</w>
cl ou
B een</w>
J eff
la h</w>
justi fy</w>
ou l</w>
we alth</w>
pun ishment</w>
dis count</w>
A vi
A D</w>
gi es</w>
compe ten
arrang e</w>
annex ed</w>
den om
H ay
Rev iew</w>
h u</w>
ca red</w>
D F</w>
Bos nia</w>
com bus
ure ments</w>
inten ds</w>
belon ging</w>
Pre par
un ning</w>
impres sed</w>
ic on</w>
W all
n i</w>
er ad
tu bes</w>
s i</w>
ob s
lan e</w>
S TE
cro ps</w>
scr ut
ch a</w>
un fair</w>
10 8</w>
vis its</w>
ure ly</w>
prin ting</w>
in ch</w>
Mar cus</w>
child hood</w>
dep loyment</w>
tem ple</w>
ro pe</w>
investi gate</w>
spir its</w>
K atie</w>
H ong</w>
ne ph
Re becca</w>
Po li
min us</w>
wa i
c yl
ab normal</w>
Cor rec
stud ying</w>
ad mitted</w>
pay able</w>
H ands</w>
vent ure</w>
sh y</w>
gr anny</w>
wa sting</w>
en velop
govern mental</w>
O ri
An ne</w>
3 9
no vel</w>
syn thetic</w>
i tion</w>
w ings</w>
ub by</w>
gi fts</w>
d ging</w>
in tly</w>
Pr inci
ment ally</w>
it ate</w>
acc used</w>
thou se</w>
reflec ted</w>
con sen
peace ful</w>
fil ed</w>
d ur
co c
P reg
5 43</w>
IC AL</w>
Ans wer</w>
prof essor</w>
bl ess</w>
Struc tural</w>
RE N
p ist
imm uno
cere mony</w>
O hh</w>
gu essing</w>
gen e</w>
Hy dro
198 7</w>
Co oper</w>
2 -</w>
pe di
ner ve</w>
atch ing</w>
In dic
N on
AN T</w>
zz le</w>
regi stry</w>
Euro stat</w>
re x
ter ly</w>
te ase</w>
Koso vo</w>
pack ages</w>
M ain
Qu ite</w>
subsi dies</w>
ol ds</w>
f ounded</w>
cap ture</w>
avo iding</w>
ch asing</w>
foot age</w>
es cor
al g
concentr ated</w>
pe tro
aw k
metabol ism</w>
c up
ad just</w>
sign als</w>
ev ed</w>
rec ur
CH MP</w>
rul ing</w>
p ays</w>
au to
wal let</w>
T H</w>
op position</w>
Ex p
ep id
ari ous</w>
p an</w>
IC ATION</w>
7 00</w>
3A 4</w>
Posi tion</w>
F IN
10 5</w>
ster n</w>
C S
mur ders</w>
C AN</w>
F li
ir ts</w>
sur geon</w>
L aw
L E
law yers</w>
7. 5</w>
EP AR</w>
gol f</w>
enjo yed</w>
w ounds</w>
cho o
la sting</w>
DI REC
tra uma</w>
ar k</w>
ar bitr
ne ar
abo ard</w>
- --</w>
dis pen
Pro ject</w>
tun a</w>
L ake</w>
sem en</w>
B ATCH</w>
supple mentary</w>
multi p
gradu ally</w>
fib re</w>
r hy
es ia</w>
ess entially</w>
en na</w>
S em
plan ted</w>
p us</w>
go sh</w>
n an</w>
ill u
aqu aculture</w>
C el
Mar ty</w>
en tive</w>
embarrass ing</w>
excee ds</w>
form in</w>
Je wish</w>
Acc ord
ton ne</w>
pi ent</w>
resol ved</w>
solv ency</w>
nar row</w>
C ER
l um
itch ing</w>
Re pe
sk i
cop per</w>
alleg ed</w>
ER AL</w>
A G</w>
consul ted</w>
par don</w>
Ira q</w>
real ise</w>
part nerships</w>
gu it
bo red</w>
si eur</w>
hand led</w>
as ion</w>
concomit ant</w>
P le
wh o
vol tage</w>
el e</w>
com a</w>
cl arity</w>
h at
fre aking</w>
dis cover</w>
vampi re</w>
cros sing</w>
in hal
al ise</w>
D ere
gas es</w>
fat al</w>
Ter ry</w>
Oli via</w>
mat h</w>
jum ped</w>
scen es</w>
ail and</w>
G E
D V
op en
investig ating</w>
omm unic
erad ic
request ing</w>
di alysis</w>
Secret ariat</w>
x hamster</w>
re turning</w>
Mid dle</w>
O H</w>
F arm
Tex as</w>
E ve</w>
Author isation</w>
Ex am
quanti tative</w>
Ar ch
Mon it
lo ser</w>
phil os
p it</w>
Wh ose</w>
Dr ink</w>
D R
Accord ingly</w>
b at</w>
answ ering</w>
Got ta</w>
Jere my</w>
Wil son</w>
S imp
uggl ing</w>
pa ediatric</w>
dimen sions</w>
Ch ang
h m</w>
predomin antly</w>
vis ited</w>
Sp eaking</w>
ol anz
Pri vate</w>
canc el</w>
P M</w>
Aar on</w>
Mo ses</w>
Har vey</w>
on ds</w>
S ust
suspic ious</w>
p assion</w>
c ann
A do
add resses</w>
sandw ich</w>
Res olution</w>
con grat
F red</w>
Dec lar
li ons</w>
cre at
dec ides</w>
charac ters</w>
P D</w>
D est
1 40</w>
ex am</w>
respon ses</w>
T .
fri dge</w>
Gir ls</w>
1 30</w>
Whe ther</w>
ic on
bra king</w>
ren z</w>
Vi et
Ch an
portfoli o</w>
isol ated</w>
W h</w>
Pak istan</w>
H annah</w>
inter rupt</w>
u ts</w>
conf erred</w>
ad dic
Co hesion</w>
ST O
cri ed</w>
it z</w>
bal isation</w>
an ne
st ea
olanz apine</w>
engine ering</w>
EL L</w>
prolon ged</w>
distribu ted</w>
establish es</w>
atch es</w>
Sur ve
Hy per
co ast
D e</w>
hu g</w>
wi ves</w>
lead ership</w>
psy chi
gar bage</w>
J ess</w>
Gibb s</w>
w ins</w>
Prom ise</w>
hel icop
Air port</w>
G row
E ight</w>
lan ded</w>
N ate</w>
E than</w>
tr ans</w>
dir t</w>
P A
re act</w>
Ta i
m ouse</w>
Tw enty</w>
IC ES</w>
mat ches</w>
hydro xy
ensu res</w>
Th ailand</w>
Muse um</w>
direc tives</w>
bal ances</w>
o edema</w>
parti ally</w>
Insul in</w>
ok ies</w>
gam bling</w>
ch ick</w>
tun nel</w>
Ko re
tr ust
resid ents</w>
treat ments</w>
co in</w>
en orm
as signment</w>
i g</w>
Pr ice</w>
M ine</w>
St ore</w>
Ro y</w>
scienti sts</w>
Ri ver</w>
y ards</w>
ar c
Pol y
lin ical</w>
gor geous</w>
aci fic</w>
Mark eting</w>
m as
9 11</w>
st ep
over dose</w>
D ER
k ie</w>
simpli fication</w>
R .
bo ards</w>
R ock</w>
Je ws</w>
Fo re
sh eriff</w>
pro mises</w>
Reg ion</w>
P ER
re store</w>
6. 2</w>
resol ve</w>
ga thered</w>
do ssi
MAC EU
recomm ends</w>
nom inal</w>
C lau
tour ist</w>
in jured</w>
coo ked</w>
w ashing</w>
Lev el</w>
w ines</w>
OR E</w>
cont est</w>
Is lands</w>
ten stein</w>
n ish</w>
wo od
E .</w>
i o
High ness</w>
jo intly</w>
pr on
ir regul
20 th</w>
resi stant</w>
l ending</w>
o on</w>
be ans</w>
b ust</w>
audi tion</w>
t anks</w>
m ly</w>
ax is</w>
AI L</w>
con signment</w>
NC B</w>
F A
separ ation</w>
od ds</w>
enzy me</w>
St atis
experim ent</w>
bo ats</w>
Soci ety</w>
PHAR MACEU
Gr ant</w>
tempor arily</w>
gover ned</w>
elev ator</w>
W asn</w>
circu it</w>
Dec isions</w>
e o</w>
Cas ey</w>
Produc tion</w>
Cap ital</w>
under ground</w>
bo dy
- How</w>
poli tic
g li
en largement</w>
To by</w>
Sh ouldn</w>
ab el</w>
ard ous</w>
am p
a ks</w>
op her</w>
B S</w>
Ang el</w>
U sing</w>
my ster
cros s
.e .
R ot
et t
Man ual</w>
C ou
dev i
C S</w>
EU SR</w>
author ising</w>
EF SA</w>
Condi tions</w>
survi v
near by</w>
dissem ination</w>
f em
tec h</w>
f ans</w>
exp an
Cha irman</w>
Monit oring</w>
neighb or</w>
D G</w>
Car los</w>
cri tic
Cer ti
s pot
dec line</w>
Li z</w>
surr ounded</w>
al bum</w>
Lo s</w>
on ate</w>
wh oles
dea ths</w>
Gra b</w>
h il
H z</w>
U F
collec ting</w>
stipul ated</w>
Bet h</w>
share holders</w>
Guar an
tail s</w>
reser ved</w>
IS I
In v
ght ful</w>
L ind
v or
L A</w>
PHARMACEU TICAL</w>
do or
dec l
sk a</w>
enjo ying</w>
D eli
4 50</w>
hop es</w>
m ou
F ound</w>
ther mal</w>
H it
op sy</w>
k a
H and
S om
E r</w>
Co ach</w>
M erc
appe tite</w>
anti bio
P la
me als</w>
hydro carbons</w>
h n</w>
vis iting</w>
EX P</w>
m ans</w>
accur acy</w>
f rench</w>
weigh ing</w>
sub scri
im porter</w>
il ers</w>
human ity</w>
regim en</w>
br ush</w>
FOL LO
represent ation</w>
Turk ish</w>
to y</w>
restric tion</w>
ff ed</w>
ar us</w>
se k</w>
chi ps</w>
ATI ONS</w>
fa thers</w>
0 2
gov ina</w>
t .</w>
pra yer</w>
min eral</w>
Pre v</w>
B P</w>
exec utive</w>
analy zes</w>
E mer
ous y</w>
op tional</w>
tou ching</w>
proced ural</w>
W anna</w>
lim itations</w>
intellig ent</w>
ab s</w>
Cont act</w>
conf ident</w>
M I</w>
top ic</w>
agre es</w>
employ ers</w>
law ful</w>
W ell
Mic ro
O lymp
sw ing</w>
clo s
anne x</w>
ze govina</w>
Ch er
app le</w>
treas ure</w>
pri me</w>
oc ar
w rec
exerc ised</w>
T ak
prohi bition</w>
laugh s</w>
cr ush</w>
inten se</w>
198 9</w>
Gab ri
facilit ating</w>
R il
b or</w>
Po p</w>
D y
As si
ex changes</w>
Luc as</w>
Her zegovina</w>
competi tors</w>
e --</w>
is y</w>
ere ly</w>
F oundation</w>
cor p
atch ed</w>
rep lied</w>
resear chers</w>
new ly</w>
frequ ent</w>
confidenti ality</w>
ware house</w>
red ness</w>
phys ician</w>
W y
lic king</w>
civil ian</w>
L aughter</w>
proportion ality</w>
im position</w>
B C</w>
stric tly</w>
exten ding</w>
E qui
rel ates</w>
T SI</w>
P acific</w>
I mm
tu b</w>
en ess</w>
od es</w>
mark t</w>
compul sory</w>
Dere k</w>
l ung</w>
Bre ak
fre sh
j o</w>
Mus ic</w>
ox y</w>
alg ori
squ ee
anti bodies</w>
vac uum</w>
S z
zz iness</w>
i b</w>
vi an</w>
initi ate</w>
L and
Prof essi
GEN ERAL</w>
s can</w>
kidn apped</w>
ck ets</w>
Ro yal</w>
twel ve</w>
to e</w>
oun tain</w>
li a</w>
ri p</w>
car bo
Tu be
vie wing</w>
glo ves</w>
D ol
si vely</w>
pass es</w>
comp are</w>
is lands</w>
s having</w>
s ar
mean ing
ent ries</w>
chloro thiazide</w>
Car ol</w>
ta p</w>
Frank ie</w>
recogni zed</w>
fast est</w>
Li ech
sk el
e ous</w>
c in</w>
F u
sk ull</w>
n .e.
ul timate</w>
b ay</w>
Me et</w>
fi anc
fa vi
calcul ate</w>
p tions</w>
b last</w>
Mar i
th an
S ally</w>
man n</w>
lun gs</w>
cl a
Ca fe</w>
fi able</w>
fair ly</w>
dec isi
AB LE</w>
cle aring</w>
int age</w>
Ve hic
P ul
At t
as ive</w>
vig il
gol den</w>
Liech tenstein</w>
w a</w>
nutri tion</w>
Rec o
gra m</w>
Justi n</w>
s ab
favi renz</w>
en tic
spea ks</w>
auc tion</w>
M un
tho lic</w>
am i
Ch uckles</w>
suggest ing</w>
soul s</w>
dis posed</w>
re tain</w>
31. 12.
in ks</w>
Im ag
analy sed</w>
Nat ural</w>
Cl assi
es tions</w>
R icky</w>
H ill</w>
archit ec
M ess
ru bb
employ er</w>
cas ino</w>
fe asi
mortal ity</w>
met formin</w>
9 9
Parag raph</w>
E ME
combus tion</w>
Th ank
eleg ant</w>
Administr ative</w>
i f
Cer tain
un necessary</w>
us s</w>
confir mation</w>
bran ches</w>
L ust</w>
attrac tions</w>
L .</w>
shi eld</w>
bass ador</w>
ab ol
F eel</w>
God damn</w>
F I</w>
min ister</w>
imm igr
- The</w>
emer ging</w>
inter vals</w>
blo wn</w>
rein forc
nam ent</w>
enc er</w>
satisfac tion</w>
Belgi an</w>
bul lets</w>
In don
inc entive</w>
en counter</w>
4. 6</w>
F i</w>
gener ations</w>
de als</w>
ow ns</w>
cl oud</w>
T ed
Dri ve</w>
terr ace</w>
qu in
laun dry</w>
K ids</w>
Jess ica</w>
Br uce</w>
je op
th ick</w>
char ity</w>
as is</w>
Bu y</w>
su es</w>
betra yed</w>
13 8</w>
renew ed</w>
champ agne</w>
differen ti
sy l
su res</w>
ligh ted</w>
Ma king</w>
ro ad
di bly</w>
Bi o
awk ward</w>
El ena</w>
Bo ston</w>
Agen da</w>
subsidi ary</w>
P A</w>
C ole</w>
Lim ited</w>
F red
10 2</w>
Slov ak</w>
M ee
R on</w>
Jam ie</w>
Con f
defe at</w>
b acks</w>
sel fish</w>
ro m
inhibit or</w>
T odd</w>
Ed ward</w>
den sity</w>
d res
TE E</w>
cul ti
rat ings</w>
O rig
Sp eak</w>
af for
sk irt</w>
orr ha
fil ms</w>
M iller</w>
decl are</w>
Sen ator</w>
sel ective</w>
dil do</w>
Sup er</w>
clari fy</w>
K in
off ense</w>
partic les</w>
gener ous</w>
purch ased</w>
clin ic</w>
p neum
az one</w>
m us</w>
re conc
p ile</w>
g au
H and</w>
In di
implic ations</w>
c ave</w>
ro ots</w>
ri sts</w>
Certain ly</w>
G en</w>
Bo dy</w>
A th
sustain ed</w>
w ashed</w>
to oth</w>
we ed</w>
organ iz
S ME</w>
d ressing</w>
in directly</w>
ev ac
sh ut
complain ant</w>
recycl ing</w>
inter face</w>
Govern or</w>
3 50</w>
des c
con dem
exec uted</w>
U P</w>
S ighs</w>
con tested</w>
7 0
f lights</w>
S co
E s
surr ounding</w>
car ton</w>
per or</w>
emphas is</w>
L es
squ ad</w>
ri an</w>
list ened</w>
Surve illance</w>
coord inate</w>
O pen
I AS</w>
contro lling</w>
pi ano</w>
K S</w>
hi d</w>
gra vity</w>
2 99</w>
um b</w>
St ev
D ouble</w>
AL S</w>
Grow th</w>
con stra
compe te</w>
COMM IT
ADMINISTR ATION</w>
ste pped</w>
in clusive</w>
con fig
Rest a
st ent</w>
s an</w>
ne utro
kee per</w>
organ ized</w>
pre feren
STA TE
home work</w>
F air</w>
un comfortable</w>
Ken ny</w>
k it</w>
at ories</w>
CYP 3A4</w>
bio diversity</w>
ra dic
disp atch</w>
der son</w>
ke y
sign ments</w>
conf usion</w>
ATI VE</w>
orm one</w>
meas urements</w>
eligi bility</w>
comp lied</w>
or atory</w>
ba stards</w>
author ise</w>
3 6
isi ble</w>
er ts</w>
Yu go
Bl ack
out comes</w>
c um</w>
P rec
super v
discrimin atory</w>
B uc
virtu e</w>
fa x</w>
wis dom</w>
Cha in</w>
mol ec
import ation</w>
hop ed</w>
A v
coun cil</w>
exha ust</w>
An ti
li ght
dis per
dec ades</w>
some day</w>
ma ker</w>
secur i
a than</w>
2 10</w>
pe ts</w>
Enter prise</w>
es c
S earch</w>
im paired</w>
pot atoes</w>
lip tin</w>
embarrass ed</w>
P ra
scre am</w>
ori entation</w>
no v
shi p
ro om
cro p</w>
demonstr ation</w>
cap sule</w>
Declar ation</w>
conflic ts</w>
HC lips</w>
pre v
guil t</w>
es is</w>
Yugo sla
sp ray</w>
bel oved</w>
V A</w>
larg ely</w>
in ject</w>
Bal tic</w>
multi annual</w>
L s</w>
inj uries</w>
Stu dy</w>
tr unk</w>
hydro x
S everal</w>
P y
M en
astro intestinal</w>
M uch</w>
reven ues</w>
enzy mes</w>
cru el</w>
bas eball</w>
s k</w>
ac in</w>
v et</w>
up id</w>
construc ted</w>
ick ey</w>
cardi ac</w>
Di vision</w>
ins ist</w>
ad ly</w>
W ayne</w>
ma ize</w>
herit age</w>
A mon
p ill</w>
conf ession</w>
b ang
am mon
sacri fic
cigaret te</w>
z z</w>
avi an</w>
idel ine</w>
consequ ently</w>
Pe g</w>
Le w
succ eed</w>
re ha
Mad ame</w>
du plic
pharmacokine tic</w>
wal ks</w>
a o</w>
Mar shall</w>
Du ke</w>
m ere</w>
0 9.
be gun</w>
V ince</w>
U sed</w>
pal ace</w>
exhi bition</w>
diffe rently</w>
newspap er</w>
am ic</w>
tox ic
mo tive</w>
petro leum</w>
ba il</w>
I mp
wid ely</w>
supple ments</w>
sur render</w>
haz ardous</w>
c ular</w>
analy ses</w>
loc k
K or
ex cipients</w>
adv ise</w>
Phar ma</w>
May or</w>
qu est</w>
down town</w>
Europe ans</w>
K ra
G all
saf er</w>
nea rest</w>
ali e</w>
ali ze</w>
trav elling</w>
Cha mber</w>
K ong</w>
Down load</w>
sp p</w>
head quarters</w>
t ability</w>
Con cer
conf ess</w>
Admin istration</w>
in compatible</w>
Reg ul
b att
c age</w>
here to</w>
wa sted</w>
be ds</w>
Matthe w</w>
L inda</w>
inter val</w>
cour t
Comb ined</w>
om i</w>
id ated</w>
co lo
preten ding</w>
im posing</w>
clim b</w>
Colle ge</w>
bon us</w>
the ater</w>
des ired</w>
f oundation</w>
Bet ty</w>
-- I</w>
rap ed</w>
Kore an</w>
kne e</w>
in land</w>
por tion</w>
simult aneously</w>
min ing</w>
T U
ma kers</w>
So li
ef s</w>
d ent</w>
201 9</w>
v ast</w>
in ev
Lea der</w>
div ine</w>
deep er</w>
p acks</w>
Ad dress</w>
low ed</w>
T ou
mo dule</w>
coun sel
N ur
loy alty</w>
g ut</w>
w aves</w>
fir ing</w>
F la
it us</w>
bl ank
analy tical</w>
Rom anian</w>
F I
kn itted</w>
dign ity</w>
diagno sis</w>
ti ps</w>
od y
Vi ra
ly wood</w>
struc tured</w>
diff er</w>
H ear</w>
fail s</w>
expl ore</w>
Meas ures</w>
extrac tion</w>
strength ened</w>
lin gu
e u</w>
st ain</w>
pro mis
Stat ute</w>
v intage</w>
to s</w>
righ te
re hear
ly n</w>
U s</w>
comp lies</w>
Mi ami</w>
Gor don</w>
al tered</w>
f ellas</w>
e ternal</w>
V C</w>
Min imum</w>
ul ative</w>
pi pes</w>
conduc ting</w>
H ard</w>
Rap porteur</w>
spec im
om er
coun ted</w>
M akes</w>
H aw
te m</w>
b atch</w>
Steph en</w>
im per
onym ous</w>
O B
swe at</w>
mus ical</w>
IC E</w>
Car oline</w>
8 0
ill ary</w>
sn ake</w>
enorm ous</w>
com prising</w>
s ile</w>
in spir
initi ally</w>
wi pe</w>
pic ally</w>
d augh
commit tees</w>
s ins</w>
Vi v
thri tis</w>
n n</w>
indic ative</w>
bankno tes</w>
N ine</w>
T AIL</w>
tra ins</w>
sp in</w>
s ation</w>
direc tions</w>
wh olly</w>
sc ape</w>
s laughter</w>
a sts</w>
T ari
1 15
I an</w>
questionna ire</w>
star ch</w>
no l
down load</w>
Ted dy</w>
m 3</w>
fl u</w>
li ke
che ted</w>
b is</w>
Gen er
J ar
Pe ace</w>
Mol do
scri pt</w>
entreprene ur
d able</w>
appo inting</w>
diarr hoea</w>
T rib
medi an</w>
char ming</w>
pe d
n ails</w>
1. 6</w>
sus pects</w>
n y
Applic ation</w>
e on</w>
veter in
di gging</w>
N ig
x on</w>
id ae</w>
G onna</w>
negoti ate</w>
individ ually</w>
at ter</w>
am in
Ac ti
UL D</w>
en sive</w>
apo logy</w>
dis hes</w>
ag ic</w>
grand ma</w>
Y up</w>
g est
en ship</w>
N ina</w>
EC D</w>
le ak</w>
f loo
sp r
six th</w>
Mar itime</w>
Pl ay
Defin itely</w>
C lim
manag ers</w>
loy al</w>
ail ed</w>
e b</w>
re stri
Dig ital</w>
preser ve</w>
fi a</w>
b lowing</w>
H an
N atur
ir o</w>
discre tion</w>
consoli dation</w>
In clu
rol ls</w>
mis erable</w>
foc using</w>
dam ned</w>
bloo d
L em
pl a
In surance</w>
res piratory</w>
ra d</w>
pursu ed</w>
CP A</w>
TE N</w>
ó n</w>
WAR NING</w>
ig ned</w>
no ble</w>
B y
Ra dio</w>
L ot</w>
Bo o
O scar</w>
w ind
K itty</w>
sla ve</w>
Ph one</w>
particul ars</w>
ut ory</w>
Chil d</w>
car bon
Industri al</w>
conclu des</w>
M I
4 4
worl ds</w>
ta g</w>
al tar</w>
inter ference</w>
gall ery</w>
Al ban
abdom inal</w>
Wom an</w>
the at
am oun
w ounded</w>
tal e</w>
ow ed</w>
calcul ations</w>
s ever
str ing</w>
ma ke
reci pient</w>
real istic</w>
infl ation</w>
stero ids</w>
injec ted</w>
conver gence</w>
1 11</w>
b ble</w>
inv al
dra ma</w>
cro cheted</w>
stic ks</w>
Ba be</w>
rib ly</w>
l ation</w>
investig ated</w>
H o</w>
et ly</w>
al pha</w>
colle ague</w>
Di ffe
cre ates</w>
US ED</w>
shor tly</w>
h ec
expan sion</w>
fru its</w>
ste ering</w>
St one</w>
Bal k
pi ed</w>
acet ate</w>
sev enth</w>
scrut iny</w>
contribu ted</w>
b in</w>
Ris k</w>
st ering</w>
co okies</w>
met abolic</w>
Vi enna</w>
Pl at
ID ED</w>
sal ary</w>
I sa
S S
z y
h ormone</w>
Ril ey</w>
incre dibly</w>
Requi re
Over all</w>
as er</w>
oc idal</w>
simpli fied</w>
metal s</w>
vi e</w>
ty re</w>
se g
d ine</w>
Mon t
fre ely</w>
&apos; I</w>
Bo ys</w>
after wards</w>
l ins</w>
rul ed</w>
qu e
Pho to</w>
Loc al</w>
Cha mp
exist ed</w>
V ER</w>
capac ities</w>
Michel le</w>
Gr an
min ority</w>
f ea
administr ations</w>
un anim
Secon dly</w>
per su
ed onia</w>
intermedi ate</w>
Y ou
Direc torate</w>
Qu inn</w>
assu ming</w>
ad ed</w>
beli ef</w>
surg ical</w>
thes is</w>
op posed</w>
Sp ace</w>
an xi
ul timately</w>
egr o</w>
an ol</w>
docum ented</w>
stra in</w>
3. 4</w>
over sight</w>
cur y</w>
ac ity</w>
COMMIT TEE</w>
ten sive</w>
s me
phenom en
S W
N ature</w>
enti eth</w>
R ac
ty res</w>
Lo is</w>
mad am</w>
k es
guit ar</w>
sto res</w>
T ab
F oc
un certainty</w>
advent ure</w>
DIREC TIVE</w>
Imag ine</w>
sk ill</w>
em e
nitro gen</w>
d ney</w>
he al</w>
2 nd</w>
bow l</w>
neighb ors</w>
men u</w>
In stitu
FOR M</w>
O ECD</w>
origin ally</w>
at er
o to</w>
creat inine</w>
OR T</w>
D ING</w>
B N</w>
log ically</w>
J .
prov ing</w>
re ts</w>
mat ory</w>
B A</w>
p estic
ne ath</w>
3 7
s u</w>
j et</w>
stra igh
p itch</w>
a fil</w>
Vic tor
end ers</w>
ath le
K er
ur n</w>
uc c
some place</w>
si ves</w>
inten sive</w>
excee ded</w>
comple x
A F</w>
lit azone</w>
Ve ter
t an</w>
Ir on</w>
C assi
pos ts</w>
Can a
A P</w>
dro ps</w>
w ick</w>
pre ad</w>
Re porting</w>
wor rying</w>
es y</w>
err ors</w>
B in
mom my</w>
col our
Wil liam
boo k
B row
wo ol</w>
Tr ying</w>
f ence</w>
mist ak
é e</w>
Hor iz
ad mission</w>
correc tive</w>
P .</w>
conc ep
p her</w>
collabor ation</w>
Ad visory</w>
Ci tiz
w rap</w>
b icy
Fr an
re feren
trans ported</w>
prec ed
thro p</w>
H D</w>
p ples</w>
An ti</w>
yi eld</w>
ph eral</w>
bene ficial</w>
Dav is</w>
mod ules</w>
superi or</w>
Ab ra
str o</w>
don or</w>
Tur ns</w>
remin ds</w>
f ella</w>
S li
in habit
D U
imag ination</w>
ch ron
an cies</w>
T en
P E
it ly</w>
ery thropo
Tra ining</w>
Bra d</w>
web sites</w>
tw entieth</w>
mo thers</w>
cu pied</w>
Sha wn</w>
daugh ters</w>
un acceptable</w>
re porter</w>
preferen tial</w>
pe op
mor tg
in ous</w>
re tri
paper work</w>
S low</w>
con spir
respec ts</w>
I l
0 4
m L</w>
Hol der</w>
mon ary</w>
S ue</w>
cap tured</w>
gene tically</w>
Resta urant</w>
y --</w>
vo ices</w>
n est</w>
i k
bu sted</w>
Rus sell</w>
9 00</w>
4. 2004</w>
prom oted</w>
farm er</w>
bar a</w>
sp aces</w>
shel ter</w>
divor ced</w>
ag liptin</w>
standardis ation</w>
a.k. a.</w>
Lew is</w>
C N
da wn</w>
Y outh</w>
S ource</w>
Chris ti
1 .</w>
eli hood</w>
cor rid
Fun ny</w>
C O</w>
Bri dge</w>
de tect</w>
Ara b</w>
val ve</w>
s giving</w>
in struction</w>
Gu ard</w>
Go ld</w>
pres um
hal f
Par don</w>
stu me</w>
pro m</w>
gu ts</w>
cat tle</w>
car cin
Noti ce</w>
G us</w>
li fer
in c</w>
br ut
18 2</w>
proc eeding</w>
ar thritis</w>
W N</w>
altern ate</w>
R are</w>
ig ns</w>
At tention</w>
l f</w>
im pe
ho stage</w>
fa ith
si de
subsidi arity</w>
Angel es</w>
nes ium</w>
re mark
be gging</w>
S ER
al it
H U
creep y</w>
Preg n
ob taining</w>
El i</w>
sli de</w>
exemp t</w>
B I
st y
- Hey</w>
con science</w>
O S</w>
Ran dy</w>
B ol
s ounded</w>
R ad
plan es</w>
R ab
do c</w>
ab ine</w>
P E</w>
hum ili
Ex change</w>
Ass embly</w>
trans portation</w>
gre l</w>
An ton
s light</w>
cigaret tes</w>
star ving</w>
Ho li
phen yl</w>
em powered</w>
aud its</w>
you --</w>
ro yal</w>
dy nam
St ation</w>
o o
le ments</w>
Sou thern</w>
M as
y right</w>
volunte ers</w>
in su
out fit</w>
PAR T</w>
vi als</w>
sp i
govern or</w>
RI GHT</w>
fi ghter</w>
testi fy</w>
form ats</w>
EME A</w>
sh ri
m ph
Ta e</w>
So f
smil ing</w>
holi days</w>
fail ing</w>
20 1</w>
interf ere</w>
M and
P RE
L ane</w>
agg ressive</w>
ro c
d um</w>
A F
ur ants</w>
s ink</w>
T old</w>
sigh s</w>
brow ser</w>
Z one</w>
pref erred</w>
B loo
tax able</w>
jo kes</w>
Mor oc
B B</w>
ren d</w>
S mar
St upid</w>
viol ation</w>
bli ster</w>
distinc t</w>
Di strict</w>
vir gin</w>
Co ord
ref usal</w>
N ancy</w>
load s</w>
in ant</w>
vi able</w>
ing ent</w>
great ly</w>
fore stry</w>
crimin als</w>
switch ed</w>
Win throp</w>
respon ding</w>
re plic
quali fy</w>
veterin arian</w>
b ever
To gether</w>
Sop hie</w>
rel ess</w>
u i</w>
Po s
leg end</w>
pric ing</w>
ea stern</w>
ch ubby</w>
auth or</w>
Mer ry</w>
p ts</w>
P sy
trac tor</w>
j a
contr ast</w>
Me an
Hol lywood</w>
AR TIC
sem in
infra structures</w>
Sy dney</w>
illu str
wh el
sch ol
h in
di zziness</w>
sus cep
bar rier</w>
U ru
phr ase</w>
loc ker</w>
fl ashing</w>
bul l</w>
Flor ida</w>
al ine</w>
j e</w>
diam onds</w>
catch ing</w>
ic ians</w>
col ors</w>
APP EAR</w>
toler ance</w>
gang bang</w>
discipl ine</w>
Environ mental</w>
uc ker</w>
St even</w>
J in</w>
di versi
IF RS</w>
por n</w>
0, 5</w>
scr atch</w>
elim inated</w>
ed oms</w>
every day</w>
an es
summ it</w>
sequ ence</w>
dis co
fi xes</w>
Si x
G ul
g us</w>
dist ribut
AR D</w>
whe el
acqui re</w>
X Cafe</w>
Ca tholic</w>
ha bit</w>
discus sing</w>
cy cl
voc ational</w>
F our
oun ce</w>
S G</w>
H ep
vi ability</w>
correspon d</w>
Mar gare
hea v
le th
5 ,000</w>
f lies</w>
co w
Viv ud</w>
a res</w>
Dar ling</w>
BU T</w>
Amon g</w>
dr ill</w>
e z
comm ission</w>
ast ers</w>
Brit ain</w>
Al bert</w>
o li
ap hy
en er
cool ing</w>
deli vering</w>
T P</w>
R al
defin ing</w>
tr icks</w>
co efficient</w>
cl ubs</w>
W en
An th
itch es</w>
T eva</w>
s no
fu r</w>
De al</w>
ro bot</w>
lu x
m i</w>
ar ts</w>
sum mar
popul ations</w>
ES MA</w>
mar gins</w>
ha i</w>
Professi onal</w>
EN T</w>
feder ation</w>
3 4
organ ism</w>
ati tude</w>
wh ist
res ist</w>
ad ing</w>
J a
Form er</w>
4. 2.
th less</w>
co stume</w>
cho le
V .</w>
L ow</w>
ch ill</w>
K id</w>
L et
µ g</w>
re alised</w>
at om
as th
integr al</w>
broad band</w>
Amend ment</w>
un al</w>
al in</w>
LI KE</w>
Any Sex</w>
p ace</w>
Syst ems</w>
Ear l</w>
pursu it</w>
occur rence</w>
low ers</w>
ch op
T .</w>
ur gency</w>
op pon
di ver
modi fications</w>
al a</w>
Franc is</w>
Car rie</w>
y ce</w>
pun ished</w>
B il
bl ade</w>
er gasse</w>
ee ks</w>
rab bit</w>
Avi ation</w>
- And</w>
versi ties</w>
te x</w>
gho sts</w>
some what</w>
dec om
reci pe</w>
o visual</w>
cu lo
stat utory</w>
dero gations</w>
bes ide</w>
tem plate</w>
defici ency</w>
telec ommunic
Jon athan</w>
Wal ker</w>
ear th
doc k</w>
bel ly</w>
Prov ince</w>
perm its</w>
C ab
reflec ts</w>
go at</w>
u ting</w>
arti sts</w>
ep iso
consen sus</w>
plas tics</w>
MO OT
Con stitution</w>
it ment</w>
A V
w rest
thor ough</w>
cartri dge</w>
V in
g ates</w>
g ains</w>
H S</w>
8 ,
ati gue</w>
hon ey
b acked</w>
le verage</w>
y elling</w>
den ied</w>
S ays</w>
Mil es</w>
reme dy</w>
j ah</w>
Mar ine</w>
ingredi ent</w>
sha ped</w>
boo ked</w>
WH O</w>
á n</w>
tri be</w>
sal ad</w>
cryst al</w>
L ES</w>
as pir
i do
bu yer</w>
te dly</w>
p end</w>
in tim
Th row</w>
cir cul
fel ong</w>
coordin ates</w>
competen ces</w>
F estival</w>
Bre ak</w>
s ickness</w>
entr usted</w>
del ayed</w>
c ease</w>
W eek</w>
G lad</w>
St or
M ade</w>
b ols</w>
Su preme</w>
Cra zy</w>
B LE</w>
end ea
V id</w>
1 107</w>
ten s</w>
m es
ot es</w>
So vi
Sh ane</w>
envelop e</w>
bloc king</w>
a ero
so ever</w>
aim ing</w>
W rit
Res er
x ious</w>
pro sper
on i</w>
gra in</w>
auth entic
H ERE</w>
pre fer
electr on
threat en</w>
st al</w>
So dium</w>
kill ers</w>
gra ph</w>
Ow en</w>
reimbur sement</w>
fi x
D ex
occur ring</w>
f arms</w>
ISI ONS</w>
p ha
H m</w>
C at</w>
sho oter</w>
or ous</w>
b uc
ni fer</w>
mess ing</w>
El li
H an</w>
gin ia</w>
bad ge</w>
Coun t</w>
ac on</w>
Adri an</w>
pair s</w>
c il
D ick</w>
- Why</w>
sym bols</w>
Ad just
ho se</w>
Co ffee</w>
plat forms</w>
grand pa</w>
rad ar</w>
p up
h ence</w>
fli p</w>
C au
pa int
un expected</w>
tu m</w>
d airy</w>
Fun damental</w>
A partment</w>
oper ates</w>
imm unity</w>
Margare t</w>
st eam</w>
quot e</w>
constitu tional</w>
lig ence</w>
consider ably</w>
Mar tha</w>
exemp tions</w>
def endant</w>
Guaran tee</w>
cohe rence</w>
bus h</w>
be e</w>
H allow
C ash</w>
vari eties</w>
id ine</w>
c av
sa uce</w>
episo de</w>
stimul ate</w>
ir respective</w>
thr one</w>
clos est</w>
al lo
adv oc
signific ance</w>
lim itation</w>
con vention</w>
car ries</w>
Won der
Bel arus</w>
ex porters</w>
ant agon
aer op
Nav y</w>
G am
D ur
f itting</w>
Hit ler</w>
is ite</w>
Franc isco</w>
th read</w>
system atic</w>
Sp encer</w>
IN TER
trage dy</w>
n r</w>
in um</w>
C ulture</w>
in take</w>
k le</w>
Mac edonia</w>
y og
tr ucks</w>
ine a</w>
high lighted</w>
Nu Vid</w>
ang els</w>
C D
atic s</w>
Laugh s</w>
L ING</w>
Wh enever</w>
Bud d
trans plant</w>
Tra vel</w>
d un
- Okay</w>
en ic</w>
om ing</w>
gly cer
Hist ory</w>
6. 3</w>
ra ys</w>
mus cles</w>
vail ing</w>
exclu de</w>
St ability</w>
N R
- Well</w>
gra pes</w>
Ken ne
00 0
Y Y
reason ably</w>
bo ot</w>
ig ni
cha irman</w>
ca ine</w>
bene ath</w>
bur st</w>
IR Y</w>
coast al</w>
In dustry</w>
Euro pol</w>
design ate</w>
analo gue</w>
ri f
n evertheless</w>
trans position</w>
prof ession</w>
O .</w>
Ap prov
sc ans</w>
ot ox
is ers</w>
dri ves</w>
emo tions</w>
Zo e</w>
wholes ale</w>
to col
fant asy</w>
bat teries</w>
che er
Bra vo</w>
hom o
Viet nam</w>
PL Y</w>
W ord</w>
N ar
re iter
TH ERE</w>
Moldo va</w>
need les</w>
Spr ing</w>
under wear</w>
he m</w>
an dic</w>
histor ic</w>
frigh tened</w>
C ot
t z</w>
l ou
cur ren
An n</w>
promis ing</w>
cat aly
Wal k</w>
Ash ley</w>
li sting</w>
j ac
invo ice</w>
DEC IDED</w>
photograph s</w>
ag ers</w>
Hallow een</w>
AS S
F al
ens in</w>
Mo sc
sper m</w>
re tention</w>
ho o</w>
ak i</w>
Leon ard</w>
FOLLO WS</w>
sc op
fin ite</w>
dra matic</w>
2 b</w>
with standing</w>
Ac ademy</w>
testi mony</w>
e be</w>
ec o</w>
W I
P eri
Uru gu
Pic tures</w>
re moving</w>
P ush</w>
under neath</w>
bur ns</w>
Oper ation</w>
Lo gan</w>
Cle an</w>
har ve
al ter
V E
com partment</w>
J as
finger prints</w>
acti vation</w>
Sum mer</w>
fil tr
Lan gu
Icel andic</w>
Ex per
swa p</w>
speci alised</w>
b iting</w>
algori thm</w>
Kno ck</w>
D im
pass word</w>
3 rd</w>
1, 5</w>
Mil k</w>
appro aching</w>
ob serve</w>
inten si
endea v
v em
g on
congrat ulate</w>
Y S</w>
Sust ain
induc ed</w>
bla h</w>
ac commod
Ma ur
M echan
Cour se</w>
&apos; mon</w>
pass age</w>
i ii</w>
inv ented</w>
Ta x
op tical</w>
C ru
po inting</w>
philos oph
en ables</w>
G reg
o let</w>
cy clo
PH P</w>
st amp</w>
cell u
bal cony</w>
ac ad
rou gh
AC H</w>
aqu atic</w>
S HE</w>
tax pay
ori ented</w>
ag ons</w>
A lic
Vir ginia</w>
there after</w>
scienti st</w>
h ers</w>
dream ing</w>
con gratulations</w>
champ ion</w>
c el</w>
Pa ige</w>
it i</w>
reci proc
prohi bit</w>
lat ina</w>
a ire</w>
inv isible</w>
AG ING</w>
ten nis</w>
pum ps</w>
igni tion</w>
mo ist
m bers</w>
RI P</w>
sac red</w>
Lau ren</w>
Jen nifer</w>
sel ec
r age</w>
pon e</w>
v enti
N .
METH OD</w>
heal ing</w>
T C</w>
miti gation</w>
in appropriate</w>
Bis hop</w>
s inc
gra des</w>
engine er</w>
bacter ia</w>
Imple mentation</w>
for warded</w>
expen se</w>
Ne il</w>
bal lo
Bo oth</w>
oc cupied</w>
inter n
id en</w>
K ee
sen ds</w>
par ano
ern ity</w>
d ental</w>
celebr ity</w>
Stu dies</w>
Min isters</w>
h ed
O thers</w>
Li am</w>
CYP 2
bo obs</w>
revol ution</w>
fertil ity</w>
Al pha</w>
embr y
Qu ick
myster ious</w>
C li
ff ing</w>
appe aring</w>
sn eak</w>
mod es</w>
for gi
Con nor</w>
C u
1 14</w>
invent ory</w>
bur nt</w>
AI D</w>
scho ol
cro wn</w>
ES S</w>
pi do
neph ew</w>
max im
loo p</w>
r ounds</w>
bit ches</w>
Urugu ay</w>
In tro
trans mit</w>
ali bi</w>
PRO C
Med ical</w>
K ey</w>
port able</w>
tis sues</w>
gra phic</w>
rep lies</w>
D G
depres sed</w>
p H</w>
hyper tension</w>
wea k
hy gi
anxi ety</w>
ty pically</w>
port al</w>
ha gen</w>
ch y</w>
TH EY</w>
F IR
har vest</w>
bo om</w>
escor t</w>
Require ments</w>
P a</w>
Mon ica</w>
Aw esome</w>
Con sul
om ide</w>
ö r
de t
b ou
ali ke</w>
II I
sk illed</w>
revol utionary</w>
rang ing</w>
audi o</w>
vol ati
s our
no thin</w>
sp reading</w>
see ks</w>
per ing</w>
a es
house wife</w>
M ON
Dor o
Austri an</w>
vest ock</w>
rein forced</w>
of i</w>
V ar
te d
D ylan</w>
tocol s</w>
anno ying</w>
P I
Ad d</w>
th is
row ed</w>
l it</w>
R as
al ley</w>
travel ing</w>
pres sing</w>
cent uries</w>
hor mon
Bud dy</w>
adjust ing</w>
Bar bara</w>
conver ted</w>
at ro
subsidi aries</w>
C ard</w>
17 2</w>
mark et
age ing</w>
Mon sieur</w>
sli pped</w>
r ation
ol es</w>
M L</w>
propos ing</w>
Tot ally</w>
prote ins</w>
thin g
c ub
attri bu
William s</w>
L ess</w>
K el
deep throat</w>
ag an</w>
sy ner
refuge es</w>
continu ously</w>
EXP IRY</w>
Ar ab
j an</w>
N S
restra int</w>
Ap plause</w>
p lot</w>
util isation</w>
boo king</w>
fin ances</w>
co caine</w>
bom bs</w>
ket ball</w>
is a</w>
strang ers</w>
Pack age</w>
Gu ideline</w>
de partments</w>
treat y</w>
thir ty</w>
Bo y
moun ted</w>
J unior</w>
hom eless</w>
con sec
be aten</w>
Tim es</w>
pur ity</w>
wor ding</w>
sa il
M ill
ag o
Hea d
c uck
Jo an</w>
in sec
announ cement</w>
11. 2007</w>
some thin</w>
M ickey</w>
M M</w>
Po ker</w>
su it
soci eties</w>
pa thy</w>
n as
ch uckles</w>
Dom in
Identi fication</w>
y ö
resta urants</w>
min ent</w>
inser t</w>
bl essed</w>
R ub
N or</w>
be have</w>
N er
phys ically</w>
occup ational</w>
k icking</w>
5 5
Hol ly</w>
1 15</w>
w estern</w>
in et</w>
accid entally</w>
Par adise</w>
pres sed</w>
wor ries</w>
f in</w>
resid ual</w>
Lin col
correspon ds</w>
In tel
1 18</w>
rac ing</w>
re b
tw ist
pi erc
o oh</w>
B o</w>
2 70</w>
str a</w>
r inging</w>
restri al</w>
rel la</w>
fe tish</w>
co ward</w>
R ou
ir besartan</w>
eli x</w>
fi res</w>
cont em
RES S</w>
phenomen on</w>
N el
A li
f ats</w>
Mon etary</w>
Mar s</w>
conveni ent</w>
l en</w>
k ing
de rers</w>
contrib utes</w>
Den nis</w>
Con tent</w>
over whel
Sh ort</w>
Bar cel
jud ges</w>
house holds</w>
duc k</w>
uc le
sub jected</w>
L ED</w>
CES E</w>
F inal</w>
neighb our
Pho ebe</w>
of the</w>
incorpor ating</w>
fr ank
scre ening</w>
inhabit ants</w>
fab ric</w>
PACK AGING</w>
ong side</w>
p unk</w>
cap it
st en</w>
hydro chloride</w>
Pre pare</w>
13 9</w>
sub str
mat ching</w>
be ars</w>
aff ir
C lick</w>
tak e
Rem ove</w>
ot ech
ga thering</w>
Mosc ow</w>
Jen na</w>
2, 5</w>
insp ired</w>
U pon</w>
K az
por nia</w>
dr agged</w>
Di al
er on</w>
B ow
dis till
won dered</w>
res a</w>
gu m</w>
hero es</w>
ell ation</w>
Ser bian</w>
Mi x
de tention</w>
acknowle dged</w>
I --</w>
ME S</w>
Ell en</w>
rein force</w>
fre edoms</w>
forec ast</w>
o tive</w>
int eg
pharmac eutical</w>
exten sions</w>
Ex port</w>
photogra ph</w>
O k
12 3</w>
experi encing</w>
T ob
CON TEN
us ions</w>
sc an
om ed</w>
Ac count</w>
et ine</w>
F ish</w>
dr ank</w>
un like</w>
Tra vis</w>
Inte resting</w>
St ef
s ay
pre sid
cha ins</w>
Th or
IM O</w>
Fri ends</w>
Electr onic</w>
g el
diab etic</w>
pos tal</w>
fol k</w>
fle w</w>
Mil itary</w>
Har ris</w>
termin ated</w>
sou thern</w>
QU I
Ar ti
radio active</w>
off ences</w>
UC H</w>
po le</w>
l i</w>
es tive</w>
for t</w>
enti s</w>
P in
G I</w>
Ber n
eas iest</w>
lif ting</w>
col m</w>
N eigh
ge red</w>
acqu ain
SU P
S H</w>
Pen ny</w>
Veter inary</w>
All ison</w>
warri or</w>
k u</w>
ann ually</w>
le an</w>
No ah</w>
3 -</w>
ome ter</w>
contam ination</w>
Direc t</w>
accoun ted</w>
dr agon</w>
Bar bie</w>
comm issi
R ail
hom icide</w>
Victor ia</w>
S t</w>
wra pped</w>
terror ists</w>
dest inations</w>
M itch
diam ond</w>
Anth ony</w>
E th
Chem ical</w>
ol er
en hagen</w>
Not withstanding</w>
Li b
ung le</w>
et t</w>
dea f</w>
cor d</w>
Wr ong</w>
prepar atory</w>
oc y
d ess
U su
Jud ah</w>
C are</w>
os ity</w>
feed ing
bi ocidal</w>
organ ise</w>
th yro
sk ip</w>
negoti ated</w>
com ed</w>
thor ough
fe wer</w>
Sel f</w>
dom ain</w>
config uration</w>
Hea ven</w>
ques tioning</w>
accred itation</w>
conc e
N et</w>
E va</w>
Loc ation</w>
peri pheral</w>
ac ter
N eg
Ho sp
Cl ay</w>
ou tw
ot ensin</w>
le uk
uni versities</w>
min i</w>
en th
Lo ts</w>
6. 6</w>
gr abbed</w>
Pal est
Con nec
d .
car t</w>
or i</w>
approxim ation</w>
Comm and</w>
17 8</w>
bo s
bench mark</w>
tour nament</w>
P ope</w>
plen ary</w>
Mal colm</w>
preven ted</w>
Tre aties</w>
Aud rey</w>
t ing
favour ite</w>
Pal ace</w>
po ur</w>
min al</w>
en coun
Mon ten
Lincol n</w>
en abled</w>
mistak en</w>
AC K</w>
las er</w>
ur ge</w>
red head</w>
dec ade</w>
U pornia</w>
Ob jec
Con federation</w>
r in
az z</w>
air lines</w>
o ven</w>
S car
JO INT</w>
vacc ines</w>
negoti ating</w>
wh i
w ol
sig nat
obs essed</w>
an ium</w>
L e</w>
Cre dit</w>
C R</w>
E u
un fortunate</w>
re vo
prog ressive</w>
fil ament</w>
al ter</w>
la me</w>
al loy</w>
dem ons</w>
Su rely</w>
LI C</w>
p urely</w>
condi tional</w>
che at</w>
ex tr
z i</w>
deb ts</w>
cere al</w>
mar row</w>
distinc tion</w>
G I
Dub lin</w>
ne ts</w>
pl un
exp and</w>
D ose</w>
reflec ting</w>
f red</w>
dossi er</w>
Bon nie</w>
1 17</w>
val idation</w>
hybri d</w>
un de
k W</w>
t ang
dis ability</w>
it ated</w>
Tai wan</w>
sh ou
imag ined</w>
é s</w>
T est
Alic ia</w>
ro d</w>
counter party</w>
Poli tical</w>
00 000</w>
or gy</w>
infring ements</w>
N L</w>
shoul ders</w>
perman ently</w>
Thank sgiving</w>
pen s</w>
at ers</w>
re no
Wen dy</w>
flo ating</w>
P ack</w>
Dial code</w>
es ar</w>
B lake</w>
Cop enhagen</w>
G lor
Ar gent
neighb ouring</w>
un used</w>
irregul arities</w>
econom ically</w>
pati ence</w>
ble ed</w>
res ort</w>
qui etly</w>
ME T</w>
EC E</w>
A z
st abbed</w>
pr ick</w>
gent le</w>
F ing
Gabri el</w>
ä r
Break fast</w>
d an</w>
c akes</w>
any time</w>
S aul</w>
Orig inal</w>
war ran
li a
S crew</w>
shi re</w>
St reng
C s</w>
2 20</w>
negoti ation</w>
re tained</w>
parliam entary</w>
PROV ISIONS</w>
Wal t</w>
comple mentary</w>
sing er</w>
ben zo
D S
un believable</w>
perio dic
A qu
mus cular</w>
US D</w>
pl ug</w>
ve in</w>
Don ald</w>
Ry an
pido grel</w>
Bre a
tra itor</w>
E M</w>
counter fe
ur i</w>
pa inted</w>
ali as</w>
Ap pe
hor n</w>
explo sives</w>
bur ger</w>
ster ol</w>
per pe
M ut
Bloo dy</w>
compl ying</w>
speci alist</w>
kl ace</w>
T ina</w>
Russi ans</w>
ro aming</w>
obli g
mani fe
F ight</w>
on ian</w>
fo cus
-------- --------
1. 7</w>
g gy</w>
Emp ire</w>
Al ready</w>
dom ination</w>
accum ulation</w>
T é
Meg an</w>
L ine</w>
pre sidency</w>
migr ants</w>
gg age</w>
at tract</w>
bul k</w>
K iss</w>
prov es</w>
Vill as</w>
G PS</w>
se gment</w>
mer ger</w>
fif ty</w>
st ub
sen sors</w>
po ly</w>
justi fication</w>
idi ots</w>
lim us</w>
cha irs</w>
P ass</w>
Mal ay
F .
bi om
val ley</w>
Fin nish</w>
B each</w>
w ished</w>
helicop ter</w>
alo g</w>
G ross</w>
over night</w>
I. D.</w>
S le
Mean while</w>
recep tor</w>
gh ted</w>
sh alt</w>
labor atories</w>
W ELL</w>
fat ty</w>
Ke ith</w>
phen yl
con qu
ail ey</w>
P ay</w>
Cal eb</w>
omet ric</w>
char t</w>
spo ts</w>
rob bed</w>
3 18</w>
P OL
ho sti
gr ound
Pil ot</w>
inve sted</w>
hero in</w>
O x
vo id</w>
p m</w>
fli r
decreas ing</w>
b ute</w>
fo ren
ed a</w>
e favirenz</w>
bi tions</w>
W it
Barcel ona</w>
min es</w>
inter actions</w>
loc king</w>
R A</w>
ell ers</w>
cul tures</w>
Free ze</w>
12 6</w>
under cover</w>
publ isher</w>
er als</w>
bo iling</w>
Bl u
por tive</w>
m ic</w>
char m</w>
Not es</w>
sp ite</w>
TE RI
Pregn ancy</w>
pen sions</w>
prop ag
particip ant</w>
consu med</w>
ali ens</w>
trans formation</w>
br on
Ger mans</w>
Do ing</w>
Bro ad
ul ating</w>
co a</w>
b locked</w>
web cam</w>
wa it
sh irts</w>
san itary</w>
f i</w>
comple ment</w>
HI M</w>
C old</w>
seduc ed</w>
fool ish</w>
Manufac tu
F ru
- Where</w>
wel comed</w>
Gal il
broad casting</w>
ag le</w>
pul monary</w>
Under stand</w>
S eth</w>
Cle arly</w>
distor tions</w>
com prise</w>
bl ank</w>
off ence</w>
loy d</w>
che f</w>
war ming</w>
m all</w>
acces sibility</w>
h en</w>
Car d
an as</w>
In stance</w>
Fli x</w>
therap ist</w>
issu er</w>
Ryan air</w>
il es</w>
Reg arding</w>
Approv al</w>
An im
nec klace</w>
low ering</w>
S id
shor ter</w>
prospec ts</w>
li vestock</w>
li eutenant</w>
clean er</w>
IL L</w>
dis asters</w>
d ot
associ ate</w>
y an</w>
so cks</w>
recei ves</w>
d ining</w>
H az
the ore
r ational</w>
nation ality</w>
Su b</w>
A tom
just --</w>
H .
sus pend</w>
purch asing</w>
exam ining</w>
Fin ance</w>
jum ping</w>
tal kin</w>
surve ys</w>
Under stood</w>
L ic
Be hold</w>
ergi es</w>
under stands</w>
e k
compl ain</w>
2 16
tum our</w>
su ite</w>
hall uc
ch ester</w>
P ick
MR Ls</w>
simpli fy</w>
un ited</w>
ati vity</w>
gri ef</w>
fa iry</w>
STR UC
E van</w>
re comb
er ia</w>
cred its</w>
co sme
Hear t</w>
3 54</w>
dist ress</w>
Ag ainst</w>
4 8
ric a</w>
Qu ality</w>
M i</w>
CONTEN TS</w>
f atigue</w>
Di ego</w>
bl essing</w>
S ide</w>
targe ting</w>
broad cast</w>
A B</w>
bre ed</w>
R ory</w>
pro lifer
diagno stic</w>
W olf</w>
pp le</w>
UB LIC</w>
In fra
mac ro</w>
ep is
ch i</w>
Inv esti
pre d
con form</w>
at tered</w>
M ak
F resh</w>
Hou ses</w>
Su gar</w>
bo ts</w>
C MO</w>
so da</w>
Instr ument</w>
sha king</w>
dis continuation</w>
bo thering</w>
Sil ver</w>
4. 7</w>
mon sters</w>
ud es</w>
la m</w>
assu red</w>
Tr uth</w>
To k
M ason</w>
OU TER</w>
un desirable</w>
pro files</w>
wh ich
rec re
poss ess</w>
Pe ter
light ning</w>
explic itly</w>
pill ar</w>
Hea ds</w>
4 -</w>
F ord</w>
cont acted</w>
Sto ck
mist er</w>
c en
must n</w>
le ague</w>
deri vative</w>
Juli an</w>
re ject</w>
ni pples</w>
B ack
occas ions</w>
Meth od</w>
C atch</w>
respon ded</w>
To ok</w>
St ep
ti re</w>
Wh ere
Indon esia</w>
Phot os</w>
9 ,
sh h</w>
Col lec
Ben jam
pres enting</w>
ak a</w>
hun ger</w>
dev oted</w>
Monten egro</w>
p ters</w>
e rec
al ising</w>
Con gress</w>
foot note</w>
quali fication</w>
loy ed</w>
in her
en ni
spea ker</w>
reconstitu ted</w>
random ised</w>
A venue</w>
00 ,000</w>
qu et</w>
che ated</w>
TH ING</w>
ver sions</w>
re tired</w>
organis ational</w>
remark able</w>
lik elihood</w>
excep tions</w>
Col om
ure a</w>
lif ted</w>
el o
m ud</w>
liber ty</w>
AN D
tra ded</w>
opa thy</w>
exemp ted</w>
un changed</w>
thresh olds</w>
recomb inant</w>
por ary</w>
et a</w>
ab sten
Kar l</w>
Institu tions</w>
hyper sensitivity</w>
safegu ards</w>
hamm er</w>
ad visory</w>
po int
acc ent</w>
Wo od
RE N</w>
perio dic</w>
Sum mary</w>
war nings</w>
reduc es</w>
ir regular</w>
busin ess
f estival</w>
aw a</w>
r ors</w>
n aph
ch o</w>
H il
metabol ites</w>
le vi
ROU TE</w>
Phili pp
Le ague</w>
IN E</w>
1 19</w>
tw ins</w>
ch icks</w>
Nor man</w>
ha r</w>
Pi per</w>
Stan ley</w>
lab els</w>
ch illed</w>
Sec ur
F ace
k ar
ear ning</w>
pro stitute</w>
w icked</w>
choo sing</w>
ab andon</w>
oph il
architec ture</w>
Bul lshit</w>
optim al</w>
gras tim</w>
ap p</w>
Har old</w>
ter ribly</w>
ren dered</w>
dar ies</w>
b inary</w>
AB OUT</w>
in er
bo arding</w>
Al tern
me te
ay e</w>
ec .europa.eu</w>
disp utes</w>
broad er</w>
K on
heav ily</w>
chec k
F ant
ot ype</w>
ho c</w>
c ope</w>
Mo on</w>
15 7</w>
ic ing</w>
com promised</w>
TR AN
deteri oration</w>
deser ved</w>
complex ity</w>
poll ut
eb ony</w>
chick ens</w>
on set</w>
Smar t</w>
cap ability</w>
Pi er
Horiz on</w>
Jer sey</w>
reas oned</w>
Mur phy</w>
for um</w>
Moroc co</w>
hun ter</w>
cr ushed</w>
Free dom</w>
7 50</w>
so le
al and</w>
A dam
on ary</w>
Sovi et</w>
C C</w>
A hh</w>
syring es</w>
V it
Squ are</w>
m ati
confir ms</w>
re aches</w>
lap top</w>
ion ally</w>
Christ opher</w>
Ph illi
C ry
bas ketball</w>
lo vers</w>
gra ding</w>
con fron
antibio tics</w>
Ch ec
Bul g
AL LY</w>
sor ts</w>
Zo g</w>
Per son
M F
ut sch
In side</w>
f are
est ers</w>
un happy</w>
K en</w>
un common</w>
cap abilities</w>
be dro
V .
Na vigation</w>
N ACE</w>
visi bility</w>
suc ker</w>
ody namic</w>
inten tions</w>
enter tainment</w>
absor bed</w>
198 8</w>
bas ket</w>
Clim ate</w>
depend ence</w>
1 22</w>
connec ting</w>
Pre sid
R ain
Par tic
Nat alie</w>
M ister</w>
AS T</w>
restric t</w>
G A
E A</w>
stret ch</w>
obe y</w>
nick el</w>
Fo x</w>
is ia</w>
ach ment</w>
gener ating</w>
Sustain able</w>
ser geant</w>
pe p
forth with</w>
acti vate</w>
po ol
hydrox ide</w>
dipl omatic</w>
in adequate</w>
fri ed</w>
disturb ance</w>
Phili p</w>
u be</w>
T RO
shar k</w>
lu ggage</w>
a str
PROC ED
room mate</w>
minim ise</w>
G az
duc t</w>
T Y</w>
mus h
vitam in</w>
objec tion</w>
inst ant</w>
pen ny</w>
L S</w>
2. 6</w>
sc and
lac tic</w>
epis odes</w>
an om
T own</w>
SUB ST
HD Zog</w>
lim iting</w>
decisi ve</w>
Atom ic</w>
un conscious</w>
fore sts</w>
Ro s
it ory</w>
an ie</w>
s enti
eth yl
effici ently</w>
Sof tware</w>
Im port</w>
ta to</w>
produc es</w>
ay a</w>
sup portive</w>
ph ine</w>
W all</w>
de ton
audi ovisual</w>
in tr
fi ghts</w>
Mar co</w>
Rev e
eradic ation</w>
ar se</w>
D eep</w>
half way</w>
1 13</w>
hypo tension</w>
j un
anticip ated</w>
F ab
E AR
LIS T</w>
contro ller</w>
so ap</w>
Do g</w>
fr action</w>
predic table</w>
G as</w>
Dar k</w>
b uck
cali br
Sy ria</w>
terri fic</w>
subsi dis
prog ression</w>
om er</w>
kil ogra
fi gh
edi tion</w>
o ked</w>
gra ph
fin anci
F lowers</w>
mal ign
ari um</w>
V ic</w>
Ta x</w>
c .</w>
aggreg ate</w>
B anks</w>
Lab our</w>
pat rol</w>
h eck</w>
do s</w>
Compe tition</w>
AD D
lac tose</w>
ba it</w>
Man ager</w>
1. 8</w>
1 16</w>
W oo</w>
sti m
ali zation</w>
a z</w>
j unk</w>
up side</w>
sco res</w>
je wel
inf ants</w>
emp tion</w>
con fin
clou ds</w>
la in</w>
W ade</w>
evalu ations</w>
H ence</w>
S ac
sur plus</w>
author ization</w>
Euro s</w>
seiz ures</w>
lab or</w>
D I</w>
Alban ia</w>
wor ship</w>
tal ented</w>
on i
V ide
Ch ick
fir mly</w>
ti tles</w>
g aining</w>
S yl
Elli ot</w>
ARTIC LE</w>
tion ality</w>
persi stent</w>
17 0</w>
stain less</w>
mag ical</w>
Yugosla v</w>
R ea
B ell</w>
we ir
stic king</w>
poly mer</w>
ME DI
pun ish</w>
eth nic</w>
chi ves</w>
N GO
fin ishing</w>
Hol mes</w>
tur key</w>
lin ear</w>
coun sel</w>
S kin</w>
respec ting</w>
Mo der
b out</w>
inspec tor</w>
explo sive</w>
cellu lose</w>
H U</w>
sc rap</w>
j unior</w>
R id
Benjam in</w>
immigr ants</w>
fil thy</w>
Fac ility</w>
te tra
reli ability</w>
di pine</w>
constra ints</w>
S cheme</w>
S Y
exc ise</w>
re productive</w>
ha un
we re
w ages</w>
un related</w>
Pub lic
Fir stly</w>
1, 3</w>
thin ess</w>
ov ascular</w>
Compe tent</w>
angi otensin</w>
Hea ther</w>
p ar</w>
del ays</w>
li p</w>
ol dest</w>
Comm ents</w>
preven tive</w>
wo ven</w>
po tato</w>
Lot to</w>
pri ests</w>
Est abl
mir al</w>
excre ted</w>
s atur
plan tation</w>
br ac
ei ve</w>
dru m</w>
cha os</w>
Y EA
J ules</w>
j ungle</w>
ie tin</w>
gra pe</w>
fish er
che er</w>
ben ch</w>
C oc
Z i
S cre
n m</w>
en to</w>
b ate</w>
al ongside</w>
Nur se</w>
ver ies</w>
ac company</w>
Phy s
Mitch ell</w>
Ch ase</w>
hydro chlorothiazide</w>
G H</w>
sp it</w>
ag a</w>
Mul der</w>
tum or</w>
kn esses</w>
Ad v
radi us</w>
Wor ks</w>
usti n</w>
cr acked</w>
Ret urn</w>
6. 5</w>
is tic
arri ving</w>
a. m.</w>
f ound
S l
3. 6</w>
pen ia</w>
de er</w>
ap le</w>
Di ane</w>
interrup ted</w>
circu its</w>
Wonder ful</w>
2 ,000</w>
res s
bi o</w>
un employed</w>
e tern
Abra ham</w>
suc rose</w>
pe red</w>
net t</w>
min isters</w>
make up</w>
attemp ted</w>
Progra mm
v ast
thorough ly</w>
le af</w>
tr agic</w>
m r</w>
He h</w>
ep herd</w>
r up</w>
am matory</w>
peop les</w>
sear ched</w>
g ent</w>
cor ro
Nic hol
mono therapy</w>
NGO s</w>
od ka</w>
mp tions</w>
lev y</w>
por tra
enth usi
as ser
ac knowledge</w>
Trib unal</w>
K A
Fo ot
t ag
prof itable</w>
YEA H</w>
comm un
M it
neutr al</w>
n ell</w>
fin est</w>
mot el</w>
g la
t ops</w>
reci pients</w>
ign or
h ack</w>
d s
Br un
citiz enship</w>
dev ast
Mo del</w>
wor m</w>
cou gar</w>
bas es</w>
Nic ole</w>
ne e</w>
liter ature</w>
ion ship</w>
sc al
dil ution</w>
at tle</w>
T ill</w>
po ckets</w>
ax le</w>
D a</w>
2 30</w>
ili ary</w>
g ently</w>
unde res
20 6</w>
endor sed</w>
D ancing</w>
o ath</w>
ni es</w>
Wil d</w>
hosp itals</w>
ev ing</w>
argu ing</w>
u ble</w>
necess ity</w>
We b</w>
Cur rent</w>
Alex ander</w>
AC TIVE</w>
syner gies</w>
cam pus</w>
bud gets</w>
rec alled</w>
Ther ap
S leep</w>
ent ers</w>
an onymous</w>
S ti
t ful</w>
War ren</w>
pro pri
boun daries</w>
emal es</w>
so ber</w>
frequ encies</w>
Wi fe</w>
Br an
terri fied</w>
sever ity</w>
res cu
ro limus</w>
l ens</w>
30. 4.2004</w>
B ou
Min utes</w>
fre ak
R av
bit ter</w>
ES A</w>
r ank</w>
high light</w>
F ul
un lawful</w>
att an</w>
announ ce</w>
Tow er</w>
Pro ble
IS BN</w>
o de</w>
st ation
be hold</w>
Star ting</w>
G E</w>
3, 5</w>
har ass
blow s</w>
ap shot</w>
Glor ia</w>
chem istry</w>
ar do</w>
h l</w>
faith ful</w>
c ough</w>
AI DS</w>
A O</w>
forgi veness</w>
S ound</w>
telecommunic ations</w>
import antly</w>
In struc
Face book</w>
hoo ker</w>
fit tings</w>
Se bas
experim ental</w>
back wards</w>
reflec tion</w>
B ayer</w>
p assi
ess ence</w>
e tax
attrac ted</w>
sove reign</w>
but ter
d .</w>
RE ACH</w>
de pri
M C</w>
Dam on</w>
sil k</w>
reconstitu tion</w>
p ale</w>
what soever</w>
hum or</w>
CO R
mar rying</w>
J eez</w>
Imp act</w>
wi reless</w>
complic ations</w>
clo wn</w>
T RI
prosec ution</w>
be ard</w>
ab norm
an hy
Gol den</w>
ri pped</w>
J HA</w>
ti sed</w>
ro sis</w>
li felong</w>
car to
wor thiness</w>
M T</w>
1 21</w>
S ky</w>
out lined</w>
it y
get tin</w>
Hosp ital</w>
Ar ound</w>
Me aning</w>
s nap</w>
ali an</w>
Per s
tap es</w>
dis agree</w>
s ack</w>
ass y</w>
abo vem
Sam my</w>
lox acin</w>
N I
ter ior</w>
g el</w>
C T</w>
bl in
b ent</w>
rel atives</w>
pe an
environ mentally</w>
Luc i
G w
16. 11.2007</w>
&apos; LL</w>
cl er
TIT LE</w>
M UST</w>
ro s</w>
ge o
dist ant</w>
Ir besartan</w>
5 000</w>
n av
gar s</w>
con signments</w>
Scot land</w>
K ent</w>
abovem entioned</w>
Val ley</w>
superv ised</w>
dis closed</w>
a a
P as
macro economic</w>
expi red</w>
ea u</w>
ar row</w>
S OL
5 9
19 80</w>
M itch</w>
50 ,000</w>
co ke</w>
be ar
ra de</w>
conspir acy</w>
P ear
om on</w>
belon ged</w>
delic ate</w>
Usu ally</w>
Tari ff</w>
Mus li
Cer tain</w>
assem bled</w>
Cana dian</w>
Bulg arian</w>
SEC TION</w>
2 .</w>
u h
collap se</w>
pl ing</w>
May a</w>
sub heading</w>
Pos sible</w>
10. 2003</w>
on ica</w>
U E</w>
gradu ate</w>
cuck old</w>
ter ror</w>
Open ing</w>
ab bing</w>
D ana</w>
nor thern</w>
mar ch</w>
j u</w>
b end</w>
ssi l</w>
eth ical</w>
assu mptions</w>
m ill</w>
Quick ly</w>
6. 4</w>
ta stes</w>
Dev il</w>
mi xing</w>
squee ze</w>
Van essa</w>
S et
glo balisation</w>
dead lines</w>
N ev
tic a</w>
sh al</w>
ro cket</w>
ris ky</w>
h el</w>
corpor ations</w>
D um
believ ing</w>
Consu mer</w>
volunte er</w>
o le
mis sile</w>
canc elled</w>
Lo wer</w>
thir sty</w>
der ness</w>
Eff ects</w>
Br on
RE F
T UR
ver te
R ig
ff le</w>
cred itors</w>
ul ty</w>
organiz ations</w>
Con ver
di ve</w>
ac o</w>
un due</w>
Col um
t te</w>
ste pping</w>
cru de</w>
col um
Tar get</w>
F requ
C F</w>
deleg ations</w>
W ine</w>
Mi k
n ative</w>
in ches</w>
N T
Su z
l us
sim pl
p im
campa igns</w>
0, 1</w>
consist ently</w>
EE N</w>
1 a</w>
in he
thes ia</w>
Certi fic
entrepreneur ship</w>
mortg age</w>
cou ples</w>
De utsch
soci o</w>
arm a</w>
S mi
y ell</w>
j am</w>
incid ents</w>
bedro oms</w>
Co s</w>
num er
inqu iry</w>
class ical</w>
A po
tra ders</w>
neighbour hood</w>
infl ammatory</w>
etax el</w>
st resses</w>
public ations</w>
com in</w>
attribu ted</w>
No vo
Agre ements</w>
th ank
spon t
princi p
lac t
elev ated</w>
f est</w>
6 8
b acking</w>
di ox
N ee
succ ee
speci fying</w>
f ears</w>
Tr acy</w>
s ly</w>
inte l</w>
A ge</w>
under stand
compe ting</w>
cir cles</w>
ra in
N AT
4 68</w>
ic in</w>
P re</w>
Tran si
ic it</w>
admi re</w>
L ock</w>
reser vations</w>
lo bby</w>
fasc inating</w>
zz ie</w>
inter ro
fra me
c ited</w>
ell ence</w>
character ised</w>
am bition</w>
H od
war ding</w>
inter ior</w>
dys function</w>
accompl ished</w>
disco very</w>
F ax</w>
dra in</w>
be es</w>
yl ate</w>
diagno sed</w>
18 5</w>
w ishing</w>
5 4
enc lo
kidn apping</w>
ad der</w>
D inner</w>
se ating</w>
My Lust</w>
re payment</w>
mag nesium</w>
l ity</w>
altern atives</w>
mer cury</w>
sp ati
Val ue</w>
R od
Les lie</w>
moist ure</w>
interpre ted</w>
hygi ene</w>
car ded</w>
ammon ium</w>
h l
independ ently</w>
SUP PLY</w>
acad emic</w>
S K</w>
frank ly</w>
trans national</w>
appropri ately</w>
y p
sulph on
liqu or</w>
UC ITS</w>
re sh
tw in</w>
po tent</w>
al thy</w>
Writ ten</w>
reck on</w>
o .
design ations</w>
T AL</w>
m itting</w>
isol ation</w>
im er</w>
the ft</w>
administr ator</w>
2 a</w>
12 8</w>
concep ts</w>
Bar ney</w>
&apos; m
Ron nie</w>
L ang
hoo ked</w>
constitu ents</w>
P en</w>
&apos; Ar
up dates</w>
n g</w>
col on
- Don</w>
avi er</w>
F ICATION</w>
App le</w>
par ked</w>
bar n</w>
Ama zing</w>
w l</w>
re production</w>
initi ating</w>
high way</w>
figh ters</w>
F eed</w>
12. 2013</w>
be tray</w>
ann on</w>
adv ances</w>
LI A
Al low</w>
ind ers</w>
ig no
ec ological</w>
wood en</w>
T ara</w>
sel ler</w>
reli eved</w>
hy dra
h on</w>
Ray mond</w>
L AU
to es</w>
s essions</w>
paper board</w>
S ter
w agon</w>
lec ture</w>
Fin n</w>
rab bits</w>
e ats</w>
sen sor</w>
Da isy</w>
g aps</w>
celebr ating</w>
st ating</w>
com ings</w>
Lo st</w>
ad ine</w>
Spec ies</w>
H ector</w>
Democr atic</w>
dis missed</w>
3 47</w>
ur inary</w>
corp se</w>
yö u</w>
wa x</w>
smar ter</w>
ni gg
C U
sa il</w>
but yl</w>
s ore</w>
ti um</w>
F at</w>
Bud get</w>
stimul ating</w>
st an</w>
con azole</w>
ch ur
SI BLE</w>
P act</w>
O t
t less</w>
dess ert</w>
Gre y</w>
0. 1</w>
TH IN
1 31</w>
itch ed</w>
B ang
loo kin</w>
TE S</w>
tor n</w>
shoc ked</w>
distor tion</w>
Emer gency</w>
honey moon</w>
Sex u</w>
Mee ting</w>
switch ing</w>
fl ed</w>
B ig
long it
aut opsy</w>
SE E</w>
L. A.</w>
gl or
ten ance</w>
sy rup</w>
o sa
gro ws</w>
fru str
bur dens</w>
g ru
Col in</w>
V el
K ang</w>
- Good</w>
suffici ency</w>
preser vation</w>
m ice</w>
d ess</w>
po s</w>
gl ut
S id</w>
bu gs</w>
Mc Gee</w>
Cra ig</w>
wor sen
st um
T y</w>
B om
an ity</w>
C ob
any l</w>
Lo vely</w>
Di ana</w>
pursu ing</w>
conveni ence</w>
Sat an</w>
car pet</w>
analy se</w>
inform al</w>
cor relation</w>
Bas ic</w>
- So</w>
mist ress</w>
id one</w>
E arly</w>
to oth
je w
coord inating</w>
E RE
tis m</w>
be ats</w>
dream ed</w>
def ending</w>
pi re</w>
dem ographic</w>
Ph ase</w>
COM E</w>
c tic</w>
psych ic</w>
meaning ful</w>
dest ined</w>
bo o</w>
blank et</w>
C ases</w>
psycho logical</w>
form ulation</w>
al y</w>
13 5</w>
sub ord
chole sterol</w>
b list
Cr ane</w>
Gar den</w>
sove re
over view</w>
en g</w>
al o</w>
a j
imp lies</w>
C linical</w>
w ears</w>
pl ed</w>
gen ous</w>
an xious</w>
Nor a</w>
Am ount</w>
Contin ue</w>
- Who</w>
thi um</w>
Cha ir</w>
5 6
phosp hor
ati s</w>
ac r
defici encies</w>
N ation
17 1</w>
prosper ity</w>
add le</w>
str ings</w>
Th ai</w>
G A</w>
á s</w>
gre y</w>
co ating</w>
a ids</w>
San dy</w>
continu ity</w>
Sec ret</w>
Em peror</w>
dum my</w>
domin ant</w>
div isions</w>
brea sts</w>
P el
Mad rid</w>
tow el</w>
bo ld</w>
arm ing</w>
ax y</w>
N ag
DV D</w>
temper atures</w>
pois oned</w>
mon keys</w>
fla me</w>
coun try
b are</w>
au x
Tun isia</w>
men ded</w>
ab sur
&apos; s--</w>
vir tual</w>
exerc ises</w>
Pers onal</w>
Brea the</w>
su ms</w>
Un believable</w>
in solvency</w>
Pharmac o
commer ci
bre l</w>
T RE
div ide</w>
K id
oph istic
complain ing</w>
J ew</w>
ful filling</w>
dra ws</w>
Simil arly</w>
provisi onally</w>
dep uty</w>
14 7</w>
modi fy</w>
di er</w>
ba thro
Jo han
B ear</w>
ly mph
et ti</w>
W an
l uc
em en</w>
bb les</w>
l end</w>
fre aked</w>
E ye</w>
E ri
v ou
fulfil ment</w>
f t
En brel</w>
paint ings</w>
F lu
El lie</w>
jo ints</w>
enc ry
Stef an</w>
R uth</w>
Lib ya</w>
EP A</w>
im a</w>
form ally</w>
bid den</w>
p anc
dam ages</w>
va ult</w>
ro b</w>
fo il</w>
P V</w>
J ung</w>
sl ut</w>
judg ments</w>
hop efully</w>
gen s</w>
e w
red und
M in</w>
B eg
recru itment</w>
anc est
Bra d
15 6</w>
haem orrha
PAR LIA
En ti
me tric</w>
d rous</w>
UN C</w>
J an</w>
z inc</w>
voy eur</w>
politic ians</w>
integ rate</w>
docum entary</w>
Dan ube</w>
under ing</w>
trac tors</w>
X III</w>
12 7</w>
remin ded</w>
int oler
GO T</w>
consec utive</w>
St eel</w>
termin ate</w>
absten tions</w>
vigil ance</w>
sol uble</w>
A verage</w>
out break</w>
licen sing</w>
I ce</w>
de duction</w>
R h
ma them
instruc ted</w>
fo ssil</w>
cur ve</w>
col ours</w>
fron tier</w>
di min
Reve rend</w>
EN TS</w>
Def ence</w>
C over</w>
u ter
slaugh tered</w>
mov able</w>
in complete</w>
f emales</w>
expl aining</w>
bu d</w>
ag en</w>
Wh is
pat ri
ner ves</w>
repe at
Reg ist
Me g</w>
re sted</w>
e poetin</w>
aut umn</w>
D ance</w>
vie w
co ws</w>
all as</w>
L ana</w>
f etch</w>
trac es</w>
tou rists</w>
gr ay</w>
Sha me</w>
P ig
Co ast</w>
suspic ion</w>
pro tocols</w>
Cam eron</w>
vari ables</w>
n in
cri p
deli ghted</w>
rum ors</w>
N EC
G F</w>
parano id</w>
in qui
approv ing</w>
r h
liber alisation</w>
Ze aland</w>
E F</w>
Ama z
work shop</w>
spati al</w>
counter parties</w>
Isa ac</w>
under going</w>
theat re</w>
un stable</w>
sen ses</w>
sw inger</w>
sugg estion</w>
ni k</w>
Is lam
t abled</w>
rob ust</w>
ten dering</w>
m aps</w>
g gs</w>
T ON</w>
mor on</w>
co operative</w>
Bro ok
vari ation</w>
top ics</w>
question ed</w>
ed es</w>
Bri d
v on</w>
d resses</w>
Sol omon</w>
K la
K O
peri meter</w>
M el</w>
L T</w>
Jud gment</w>
dis abilities</w>
Y ours</w>
nific ent</w>
dec eased</w>
broad ca
V ip
h attan</w>
F ishing</w>
ur ges</w>
i ary</w>
ac tress</w>
P am</w>
H ER</w>
Ro b</w>
Repe at</w>
Ral ph</w>
ic idal</w>
col oured</w>
Hop efully</w>
prop ylene</w>
fo vir</w>
S par
R ita</w>
O d
100 ,000</w>
hosp it
de struc
or n</w>
fl uc
hard ware</w>
Le x</w>
pil low</w>
gi g</w>
experim ents</w>
Sa fe</w>
Gu il
it ement</w>
dep loyed</w>
bab y
Sha w</w>
F ace</w>
exerc ising</w>
eth eless</w>
air line</w>
prop yl</w>
go s</w>
en n</w>
Trans fer</w>
St abil
ill um
at i</w>
Col lins</w>
B V</w>
re main
om eters</w>
earth qu
Thir ty</w>
ign ment</w>
dem anding</w>
ci v
attemp ts</w>
Sebas tian</w>
wea knesses</w>
rac es</w>
interven tions</w>
198 5</w>
gri p</w>
anc ement</w>
Tro y</w>
Le ban
6 4
18 31</w>
wid es
tel ep
don ors</w>
Th i
qu alit
lux ury</w>
ad orable</w>
ST OR
P VC</w>
wi dow</w>
augh ty</w>
S HA
C ere
AS A</w>
inter nationally</w>
St ud
Ad verse</w>
tu ber
WA Y</w>
198 6</w>
man kind</w>
dipl om
cho p</w>
ab duc
hon ored</w>
compens ate</w>
D ale</w>
C ON</w>
ust y</w>
bar rel</w>
Swee theart</w>
f u</w>
ed itor</w>
d ence</w>
B G</w>
á n
vis itor</w>
dea dly</w>
Qu estion</w>
PARLIA MENT</w>
7 th</w>
sla p</w>
ili ans</w>
Ver onica</w>
Am ber</w>
1 -</w>
s now
pa st
h r</w>
ep il
ur ious</w>
GH S</w>
3 3
- Come</w>
o sis</w>
Swee tie</w>
Fi eld</w>
biom ass</w>
trac ked</w>
le e</w>
d ents</w>
I ES</w>
shr ink</w>
or and
knoc king</w>
fil ing</w>
commer ce</w>
Nel son</w>
1, 4</w>
m amm
Spe ed</w>
K rist
e ability</w>
Ky oto</w>
19 75</w>
14 5</w>
buc ket</w>
shel f</w>
prof loxacin</w>
Foc us</w>
Ar m
tw ist</w>
li ghter</w>
cust om</w>
S now</w>
For m</w>
in duction</w>
de tri
so c
re placing</w>
cl it</w>
Li ving</w>
mis understanding</w>
Jan et</w>
1 24</w>
s ophistic
ru e</w>
cr ashed</w>
Wr ite</w>
Sam uel</w>
fuc kers</w>
conver t</w>
ar tery</w>
Amend ments</w>
z oo</w>
ban ana</w>
Se attle</w>
ssi p</w>
oun ced</w>
int ent</w>
frag ile</w>
eth anol</w>
bure auc
K am
CH IL
wi ped</w>
Hy po
A re
00 2</w>
them atic</w>
jewel ry</w>
gro cer
feed back</w>
den afil</w>
atten ded</w>
Frank lin</w>
and ra</w>
wrec k</w>
se p
po o
mal es</w>
C V
rom ance</w>
phot o
hol m</w>
he im</w>
S F</w>
Hun ter</w>
ster ile</w>
requ isite</w>
cap tive</w>
ech es</w>
dra wer</w>
STATE MENT</w>
K han</w>
uni ons</w>
20 7</w>
Z ero</w>
Cur tis</w>
accommod ations</w>
Ti er</w>
Doc ument</w>
t ancy</w>
ish a</w>
0 3
securi tisation</w>
insi sted</w>
cyl inder</w>
I -</w>
x x
twist ed</w>
pharmac o
B itch</w>
gra dual</w>
en ix</w>
sp ra
dec iding</w>
en tail</w>
I van</w>
Comm un
ins ult</w>
li est</w>
k ling</w>
dic t</w>
compli ant</w>
T ol
Jo y</w>
J EC
f oun
di verse</w>
ÿ ÿ
v able</w>
to s
Dom ain</w>
philosoph y</w>
for getting</w>
dis close</w>
short comings</w>
land scape</w>
cy top
contin ent</w>
Th ou</w>
B ase</w>
a is</w>
Pri or</w>
................................ ................................
vin yl</w>
sk im
retro viral</w>
commod ity</w>
Win ter</w>
T ig
shi pped</w>
V as
bacter ial</w>
y early</w>
scre wing</w>
no tion</w>
con ferences</w>
L ance</w>
CL AS
sal mon</w>
der mal</w>
ann ul
5 10</w>
0. 3</w>
ex pose</w>
viol ations</w>
TA KE</w>
F elix</w>
wides pread</w>
tri ple</w>
transl ated</w>
tr as
swe ating</w>
free zer</w>
Cub a</w>
direc tors</w>
ch en</w>
P un
Balk ans</w>
ATI ONAL</w>
inhi bition</w>
l ene</w>
accep ting</w>
em ma</w>
contrac tor</w>
sil icon</w>
C lev
B A
sle y</w>
ra ft</w>
jud ged</w>
gu ided</w>
encoun tered</w>
destro ying</w>
ad ays</w>
Z ach</w>
cardi ovascular</w>
B ailey</w>
flo ors</w>
Qu e
F C</w>
14 2</w>
smo ked</w>
pol ite</w>
pe trol</w>
cr an
Sor t</w>
neighb ours</w>
Le on</w>
vail able</w>
re tail
W inst
Char acter
read ily</w>
Wat son</w>
wi e</w>
di ary</w>
boo ze</w>
F on
sugg estions</w>
illi an</w>
Christ ine</w>
subm itting</w>
je ans</w>
Di e</w>
pan els</w>
orand um</w>
ne gl
pois oning</w>
skel etal</w>
mono hydrate</w>
Y o
Initi ative</w>
ro les</w>
ju ven
ha ble</w>
N y
hyper tensive</w>
as b
Dre w</w>
statis tically</w>
surviv ors</w>
K ira</w>
min g
em i
dist ort</w>
Strateg ic</w>
bar bec
X T</w>
hea vens</w>
g gered</w>
epil ep
Consi der</w>
tow ns</w>
sol ving</w>
premi ums</w>
neutro penia</w>
kid neys</w>
dres ser</w>
ap it
war p</w>
stub born</w>
er straße</w>
I E</w>
B et</w>
Al liance</w>
vol can
fluc tu
cre di
T ucker</w>
Er as
suscep tible</w>
p ent
g astrointestinal</w>
K .</w>
Ple as
J ill</w>
. hu</w>
- She</w>
ti g
In c
- Are</w>
trou bles</w>
iv udine</w>
hi ps</w>
ab sent</w>
up dating</w>
tra ilers</w>
public ity</w>
Jo sh
kin i</w>
cri pt</w>
Oc ean</w>
quali fying</w>
T rou
C it
v ascular</w>
m our
8 7
sp inning</w>
kil omet
F it
circ us</w>
pe er</w>
ch im
bud dies</w>
bra kes</w>
motor cycle</w>
min orities</w>
li tis</w>
del ete</w>
T us
li gible</w>
glyca emic</w>
ey e
Author ities</w>
Ar ri
z apine</w>
R and
z ard</w>
sub stitute</w>
n t
N um
K an
int act</w>
lia ison</w>
C ari
3 96</w>
D aw
ev ident</w>
IC AO</w>
G .</w>
g i</w>
B ay
si es</w>
ro ds</w>
B AT</w>
pur i
erythropo ietin</w>
P I</w>
Inclu ding</w>
in correct</w>
S tick</w>
L AB
All en</w>
Al um
under mine</w>
B ad
Sn apshot</w>
Langu age</w>
Ca esar</w>
work place</w>
pra ying</w>
om y
disturb ances</w>
bever ages</w>
B uck
5 75</w>
o ks</w>
att acking</w>
u ous</w>
Kir k</w>
en do
si c</w>
Sud an</w>
MA TERI
scenari os</w>
pra yers</w>
guar ant
over seas</w>
l ousy</w>
in os</w>
feeding stuffs</w>
Secur ities</w>
LI FE</w>
F M</w>
st eak</w>
si onal</w>
re jection</w>
im me</w>
el abor
D N</w>
lan es</w>
conven tions</w>
Star ted</w>
sa ith</w>
ra h</w>
- Thank</w>
tradi tions</w>
dispen s
ep ing</w>
ac ious</w>
rever sible</w>
privileg e</w>
distill ation</w>
t led</w>
spot ted</w>
poly ethylene</w>
d ale</w>
Man hattan</w>
pa ths</w>
u k</w>
I di
4 th</w>
pu pp
bio fuels</w>
rib s</w>
distur b</w>
N ed</w>
min imal</w>
leg acy</w>
fi ers</w>
Pier re</w>
o va</w>
h ills</w>
gau ge</w>
ag ger</w>
Clev eland</w>
ex ac
I t
PACK AGE</w>
refin ed</w>
off set</w>
fashi oned</w>
T rev
Egy p
shri mp</w>
distur bed</w>
an th
sulph ur</w>
Har per</w>
OP ER
sal vation</w>
res ume</w>
occup ation</w>
ch at
P ain
mis si
clo th</w>
Am bassador</w>
oppon ent</w>
exha us
cu ffs</w>
ack ers</w>
9 99</w>
purch ases</w>
d ancer</w>
ans on</w>
Te acher</w>
uni tion</w>
propor tional</w>
bas s</w>
Ne al</w>
J en</w>
Ac ting</w>
hand ic
ti ger</w>
f ond</w>
credi bility</w>
ox id
bac hel
CE O</w>
p d
i tions</w>
V O
Ric h
Infra structure</w>
Sum mit</w>
Com b</w>
p. m.</w>
wi g</w>
pan cre
happ ier</w>
Bo om</w>
stu ffed</w>
privileg es</w>
coll ar</w>
air space</w>
sla ves</w>
Str ange</w>
pro test</w>
gra phy</w>
E CO
A 2</w>
sk ins</w>
an tha</w>
SUBST ANCE</w>
tack ling</w>
recogn ises</w>
metabol ite</w>
Equi pment</w>
3 60</w>
ett lement</w>
T ags</w>
un limited</w>
euro s</w>
conc ession</w>
anc illary</w>
ad missible</w>
In divid
C AT</w>
og litazone</w>
ob server</w>
achiev ements</w>
Stra ight</w>
K ay</w>
Gu ide</w>
B L
ev en
ac tu
fo ols</w>
colum ns</w>
Deb bie</w>
vari ations</w>
ex changed</w>
EG F</w>
ign ty</w>
Anim als</w>
w ay
syn c</w>
prec ision</w>
kind ness</w>
rif le</w>
occas ionally</w>
m uc
demonstr ating</w>
clari fied</w>
Olymp ic</w>
R um
Pet ro
Al ison</w>
deteri or
1. 0</w>
evac u
K im
2 18</w>
vampi res</w>
ti li
or g</w>
frame works</w>
a sted</w>
Me dia</w>
oc ation</w>
Pro gress</w>
D aph
sle tter</w>
fo g</w>
di d
compar ative</w>
J ump</w>
Diffe rent</w>
un ts</w>
In su
qu id</w>
pierc ing</w>
ee ing</w>
conc essions</w>
ME AS
0 8
bac on</w>
4. 9</w>
sp ect</w>
no te
cryst all
forth coming</w>
14 3</w>
sta b</w>
o es</w>
ful ness</w>
Sur prise</w>
la va</w>
co okie</w>
ch ant</w>
Do or</w>
pur ple</w>
embr ace</w>
challeng ing</w>
ED F</w>
Por t
M ountain</w>
Eng ine
high lights</w>
3. 2.
Correc t</w>
Br andon</w>
quar terly</w>
ni ece</w>
gener ator</w>
J i
Cy rus</w>
tow els</w>
fra mes</w>
but tons</w>
newspap ers</w>
modern isation</w>
frac ture</w>
Sec tor</w>
v isions</w>
la wn</w>
chem ically</w>
Stu art</w>
sev erely</w>
pul p</w>
oper a</w>
exec ute</w>
evalu ating</w>
Sha ft</w>
A y
dis pose</w>
ari ans</w>
Ru by</w>
Gra ham</w>
EF F
D ea
happ ily</w>
curren cies</w>
H us
Por t</w>
2 16</w>
val idated</w>
mid st</w>
cu ps</w>
c ence</w>
associ ating</w>
Ly dia</w>
G S</w>
suc ked</w>
it abine</w>
celebr ation</w>
sub system</w>
mat ched</w>
b ore</w>
Ad miral</w>
tri ps</w>
transi ent</w>
objec tions</w>
dic t
Assi stance</w>
princip ally</w>
a --</w>
e ks</w>
colo red</w>
Kur t</w>
G B</w>
Con tro
Corpor ation</w>
UN D</w>
Ra di
L L
Fr ont</w>
ar rog
Y ellow</w>
Rep ub
supervis or</w>
plan ting</w>
Gul f</w>
distr acted</w>
claim ing</w>
v ard</w>
guar dian</w>
character istic</w>
b ies</w>
r as
dot ted</w>
autonom ous</w>
Lou ise</w>
L as</w>
Is ab
inst inc
S M
Re duc
ph ases</w>
o x</w>
er son</w>
in herit
im press</w>
Malay sia</w>
at on</w>
Argent ina</w>
3 000</w>
p ad</w>
form alities</w>
flo od</w>
av entis</w>
th umb</w>
re tar
3 43</w>
tou gh
sur prises</w>
comm and
sub stitution</w>
gl omer
bel ts</w>
Ar ts</w>
quar antine</w>
C had</w>
- They</w>
u ality</w>
ple a</w>
p it
deduc ted</w>
Eras mus</w>
18 7</w>
gradu ated</w>
v ain</w>
rang es</w>
pe g
j an
R ing</w>
In stitution</w>
supple menting</w>
soc cer</w>
convinc ing</w>
conf using</w>
L illy</w>
ES F</w>
rel s</w>
be ts</w>
Mar kets</w>
min i
inv iting</w>
Mag ic</w>
me ds</w>
es cal
wol ves</w>
sovere ignty</w>
san ofi</w>
fl our</w>
P it
Mel issa</w>
AI L
remain der</w>
ed ic
ESC B</w>
le gen
explo it</w>
cas u
an n</w>
D ays</w>
Brow se</w>
Ado be</w>
- But</w>
pu zzle</w>
m ill
G host</w>
reci pes</w>
re pay</w>
Hear d</w>
po un
po lit
Comm it
p ation</w>
gener ic</w>
edi ble</w>
tro phy</w>
t ories</w>
war s</w>
str uggling</w>
sp ine</w>
pe pper</w>
life style</w>
d ex
bor rowed</w>
6 6
sulph ate</w>
l ads</w>
19 70</w>
asb ourg</w>
MAN UF
s have</w>
reg rets</w>
M anny</w>
19 0</w>
ten d
dis rup
Str asbourg</w>
Stabil isation</w>
1, 2</w>
found ations</w>
cl ay</w>
w rist</w>
lay ers</w>
etern ity</w>
MANUF AC
G ina</w>
row ave</w>
absur d</w>
W i</w>
E P</w>
lit res</w>
comb ine</w>
anti body</w>
squ ir
j ay</w>
ti tu
inter views</w>
Josh ua</w>
J i</w>
CI AL</w>
ic ed</w>
ev al</w>
der man</w>
W ILL</w>
M ia</w>
un tie</w>
per missible</w>
Ren al</w>
A A</w>
14 9</w>
ow s</w>
constitu ted</w>
Re ferences</w>
b ound
ST E</w>
4 5
stre am
ill icit</w>
PROCED URE</w>
Bu d</w>
expi re</w>
wi ght</w>
re stored</w>
par ole</w>
cin ema</w>
X I</w>
ING S</w>
G as
vacc inated</w>
T at
F ar</w>
C up</w>
tan gible</w>
affor dable</w>
Fant astic</w>
wei ghts</w>
regi sters</w>
0 7
d well</w>
contam inated</w>
10 th</w>
psych o</w>
pl ess</w>
modi ties</w>
do pe</w>
adap ting</w>
sh i</w>
inf ant</w>
val ent</w>
sur prising</w>
s lic
reg ation</w>
poe try</w>
im balances</w>
en tion</w>
Pal mer</w>
O i</w>
v á
journ alist</w>
An derson</w>
di ure
T ess</w>
17 84</w>
p ut
cor tico
any a</w>
cl am
AD E</w>
Re y
vi vo</w>
r he
B ones</w>
X II</w>
H all
FIR ST</w>
C am</w>
b ap
pun c
pro jected</w>
S HO
sp ill</w>
circ ular</w>
Tur ner</w>
Rel ease</w>
Pow er
HC V</w>
G ET
13 08</w>
Out side</w>
Ob jection</w>
L ex
in cl
l as</w>
hall way</w>
S UCH</w>
E un</w>
trans late</w>
Y ang</w>
S pl
N ick
W es
17 5</w>
u ph
cum ulative</w>
E in
ha bits</w>
an aphy
tra um
promp tly</w>
2 40</w>
wei gh</w>
rit ual</w>
reg on</w>
ex pedi
ere d
com prises</w>
P REC
Da wn</w>
2 1st</w>
end ous</w>
2 80</w>
obst acle</w>
l on</w>
don ation</w>
comb inations</w>
W ish</w>
n els</w>
f et
coupl ing</w>
v id</w>
cle ans
ou ter
less ly</w>
l is
Tok yo</w>
Ex peri
pis sing</w>
p p</w>
Smi th
N uclear</w>
assu mption</w>
Con go</w>
haem ato
S anc
R C</w>
i tis</w>
fl ash
disturb ing</w>
defe ated</w>
aud itors</w>
host ages</w>
S cul
M ummy</w>
fab ulous</w>
con sig
Vide o</w>
Mir anda</w>
le dge</w>
ad hes
Four th</w>
16 8</w>
plat elet</w>
Mar t
inspir ation</w>
bu bble</w>
Y ay</w>
Ukra inian</w>
explo de</w>
Some where</w>
Daph ne</w>
ha ul</w>
pd f</w>
qu alities</w>
pu ppy</w>
can e</w>
Sc ope</w>
S ign</w>
M ount</w>
Intel ligence</w>
pal m</w>
b ump</w>
N es
Ad voc
Ar men
inve sting</w>
cy to
Super visory</w>
5. 4</w>
particul ate</w>
lo go</w>
bed ded</w>
Cam p
lo ses</w>
bal ancing</w>
ad ds</w>
rec y</w>
p son</w>
il ings</w>
anti retroviral</w>
Vip Tube</w>
H anna</w>
Insu man</w>
Gra de</w>
Appro pri
mel t</w>
colour less</w>
Y ES</w>
Na omi</w>
wheel chair</w>
u lic</w>
har sh</w>
asth ma</w>
R IS
process or</w>
m ia</w>
Me dium</w>
mad ness</w>
TI ME</w>
s ad
k een</w>
inherit ance</w>
Neg ative</w>
laun ching</w>
D ress</w>
v odka</w>
tri ggered</w>
n.e. c</w>
cru ise</w>
P ent
J ae</w>
. I</w>
be st
autom ated</w>
psychi at
bet ting</w>
intermedi aries</w>
aw ards</w>
R Y</w>
Cou ple</w>
ch in</w>
or dering</w>
fur t</w>
dis advant
Ac tive</w>
14 8</w>
righte ous</w>
bo x
Z ack</w>
IS A</w>
13 2</w>
ten se</w>
ro e</w>
op hen
ma inst
encour ages</w>
J um
n ucle
L B</w>
exp anded</w>
bo thered</w>
Qu it</w>
Po st
K h
E X</w>
Bro oke</w>
seas onal</w>
schol ar
g g</w>
v ar</w>
swal lowed</w>
ri ght
Vehic le</w>
Rap id</w>
ro y</w>
blo g</w>
Res ults</w>
prefer ably</w>
pl ague</w>
et on</w>
Cari b
seiz ure</w>
pol ar</w>
t v</w>
sh out</w>
lab elled</w>
he imer</w>
apo log
anc a</w>
C AS
ta m</w>
Wall ace</w>
R ich</w>
vast atin</w>
Sal v
sophistic ated</w>
dr un
fulfil s</w>
en .
Star k</w>
Pat ty</w>
succee ded</w>
T W
Norm al</w>
phys ics</w>
inv asion</w>
hat red</w>
cand les</w>
ang les</w>
Con taining</w>
CHIL D
shou ting</w>
m ount</w>
Galil eo</w>
5 40</w>
fit ness</w>
PO SI
v apo
sh itty</w>
ro so</w>
decreas es</w>
stat ue</w>
prob ability</w>
Pr ague</w>
Di am
exam inations</w>
compli ment</w>
S it
- This</w>
foot wear</w>
compar ing</w>
MATERI ALS</w>
sec uring</w>
F uture</w>
cop yright</w>
civ ilians</w>
zom bie</w>
mainst re
Gra y
E rica</w>
under water</w>
ri l</w>
ome th
swee p</w>
In to</w>
projec tions</w>
dis k</w>
D er
e po
THIN K</w>
rhy thm</w>
di ap
mo b</w>
cow boy</w>
ome o</w>
hel met</w>
corrid or</w>
U P
z ers</w>
T T</w>
C ris
utili zes</w>
pol is</w>
convic ted</w>
accid ental</w>
up take</w>
brut al</w>
pre h
my cin</w>
M Hz</w>
p ud
f usion</w>
Do yle</w>
time table</w>
fail ures</w>
tion er</w>
es hip</w>
blist ers</w>
Me an</w>
Con struction</w>
res ili
nic ely</w>
Mor ris</w>
20 30</w>
ro ller</w>
parliam ents</w>
Intr on
D wight</w>
Cau tion</w>
multip lied</w>
in puts</w>
e uropa
ti tan
t ance</w>
licen sed</w>
emo tion</w>
Pl ant</w>
sab ot
B all
A 1</w>
wor ms</w>
Wa ste</w>
a di
Chan nel</w>
ü n
poss essed</w>
inev itable</w>
en o
IC H</w>
Be at
in sufficiency</w>
for ty</w>
Winst on</w>
whis key</w>
ur rec
prolifer ation</w>
desig ns</w>
Rec om
17 6</w>
prov ince</w>
an ed</w>
theore tical</w>
Concer ning</w>
ell i</w>
col onel</w>
ham mad</w>
dil uted</w>
deal ers</w>
cab inet</w>
Con tri
tor tured</w>
bb w</w>
Intron A</w>
Anton io</w>
nur ses</w>
Fi gu
Carib bean</w>
pol ish</w>
mp s</w>
ma sters</w>
dil ig
allo ys</w>
N 1</w>
Inte rest</w>
Dal mati
tu ary</w>
stra p</w>
correc tions</w>
b ag
ab outs</w>
Bat man</w>
rup t
p ly</w>
in son</w>
Sh ir
which ever</w>
draw ings</w>
Jo in</w>
Im port
WA STE</w>
f um
defin es</w>
bum in</w>
B ed</w>
thin e</w>
sur faces</w>
r ounded</w>
exc ellence</w>
entit lement</w>
buff er</w>
si ghts</w>
ol o</w>
e -</w>
cur i
J av
- Do</w>
witn essed</w>
shut tle</w>
share holder</w>
as k
s -</w>
la zy</w>
discipl inary</w>
Cur rently</w>
sh ot
culti vation</w>
comm anded</w>
Be hind</w>
v ania</w>
mo le</w>
Trev or</w>
Dr agon</w>
satis fying</w>
id ate</w>
Wat er
al pha
Sam antha</w>
ur t</w>
rot ten</w>
im pregn
con ve
L av
Brook lyn</w>
A very</w>
p raise</w>
igno red</w>
cor ners</w>
P ath</w>
ven ant</w>
sec recy</w>
lam b</w>
hi a</w>
cu red</w>
L ad
A part</w>
plan ets</w>
Ro sie</w>
degra dation</w>
At tor
Oper ations</w>
man ners</w>
Sub cutaneous</w>
he ated</w>
ank le</w>
trou bled</w>
ren ted</w>
ho sts</w>
P O</w>
6 7
ro ses</w>
jeop ardis
Uni versal</w>
16 9</w>
r ina</w>
n ap
il ian</w>
datab ases</w>
ro tation</w>
el i</w>
el ets</w>
d al</w>
Chang es</w>
contrac ted</w>
Fil es</w>
A er
sp an
f oul</w>
cre dible</w>
amm unition</w>
Qu anti
Go th
supp er</w>
periodic ally</w>
apo logies</w>
Re id</w>
quick er</w>
demonstr ates</w>
5 th</w>
stra w</w>
REP UBLIC</w>
Me ans</w>
F ly
F light</w>
Al ger
p est</w>
atis ation</w>
Reg ister</w>
Consi dering</w>
down stream</w>
try meat</w>
repeat edly</w>
ot ers</w>
Christi ans</w>
au to</w>
M am
F U
con serv
Ly n
ster one</w>
mod est</w>
Wy att</w>
14 1</w>
outer most</w>
oun ge</w>
er ase</w>
dis pos
ce ilings</w>
F ast</w>
Bu ffy</w>
me ta
m esh</w>
20 ,000</w>
sc rap
gr in
Shemale Z</w>
Mo ving</w>
CHILD REN</w>
Bor n</w>
pri ori
in ers</w>
arti stic</w>
C reat
lo dging</w>
influ enced</w>
So o</w>
Coun tries</w>
Comm er
W ANT</w>
Un like</w>
en er</w>
az ines</w>
T ub
sen ator</w>
Indi ans</w>
0. 2</w>
j ournal</w>
in di
guarant eeing</w>
for bidden</w>
cur sed</w>
ADD RESS</w>
16 5</w>
rubb ing</w>
rati fication</w>
par as
im pris
focus es</w>
exc itement</w>
contrac tors</w>
al de
Pen sion</w>
Gu n</w>
Fing ering</w>
spec tac
eme tery</w>
E TS</w>
su ited</w>
spea kers</w>
ko v</w>
cut aneously</w>
chea per</w>
T op
Mi gu
there for</w>
hor ror</w>
dis on</w>
bl ind
a ine</w>
on wards</w>
din er</w>
car tel</w>
canc ellation</w>
gh test</w>
corpor ation</w>
Re ed</w>
Har vard</w>
7. 1</w>
min ist
Ri o</w>
Mad ison</w>
tra der</w>
ow ing</w>
as one</w>
inhe rent</w>
descri bes</w>
ag ger
thr illed</w>
phy si
p ins</w>
mo tional</w>
in tu
ank a</w>
win ding</w>
sub cutaneously</w>
infec tious</w>
c ables</w>
Kla us</w>
Har mon
C al</w>
Ben ny</w>
psychi atric</w>
lo b
aw fully</w>
H EA
kin son</w>
Dru gs</w>
Cap e</w>
20 2</w>
yog a</w>
barbec ue</w>
Del ta</w>
fl ush</w>
feasi ble</w>
Li br
po d</w>
loc ally</w>
car d
She Shaft</w>
mar tial</w>
5. 5</w>
tim ber</w>
lac tation</w>
fe ast</w>
cha mbers</w>
J acqu
Bar roso</w>
af o
Fru it</w>
E pis
- Let</w>
s wore</w>
h ast</w>
Mechan ism</w>
or ds</w>
n us</w>
deb tor</w>
Neigh bour
Gol d
Gar cia</w>
tor que</w>
op ing</w>
nit ude</w>
hormon es</w>
U RES</w>
Sel ect</w>
PREC AU
lad der</w>
Bau er</w>
prev ents</w>
lo dge</w>
A 00
la undering</w>
ar di
transf erring</w>
mag nificent</w>
fl ag
c ans</w>
Bla ir</w>
intermedi ary</w>
L ast
g ren
c i</w>
b red</w>
L loyd</w>
lo dipine</w>
laugh ed</w>
emb ar
O s
M ered
Ban king</w>
AP PL
recur rence</w>
o y
grand son</w>
civil ization</w>
Gu inea</w>
2 11</w>
NEC ESS
swe ater</w>
si an</w>
equ als</w>
construc tive</w>
sof a</w>
L ET</w>
stri kes</w>
n an
acc us
Z Mo
Oper ational</w>
M ass</w>
Cap acity</w>
so far</w>
ZMo vs</w>
low ly</w>
ho c
Mered ith</w>
I I.
1. 9</w>
agg age</w>
Den ise</w>
re marks</w>
embry os</w>
ati o</w>
err al</w>
en lar
cris es</w>
Pay ment</w>
Neighbour hood</w>
&apos; you</w>
watch es</w>
or bit</w>
ent anyl</w>
din osa
Pr o</w>
AN C
car ing</w>
T reas
Mo ther
sc ap
ket t</w>
conf essed</w>
V eget
P G</w>
NECESS ARY</w>
ma res</w>
gi c</w>
associ ates</w>
work force</w>
vis as</w>
pe t
Sen ior</w>
st ence</w>
insu red</w>
- All</w>
Rail way</w>
P R</w>
sil es</w>
per for
mom ent
acc ru
S ing</w>
abnorm alities</w>
Z im
Shel don</w>
D ir
mark er</w>
al ignment</w>
suc king</w>
ox ides</w>
Rol l</w>
For t</w>
al liance</w>
STOR AGE</w>
Prov isions</w>
wa king</w>
re stor
contrac ep
R omeo</w>
Classi fication</w>
th west</w>
s ick
regim es</w>
re medi
conf isc
Pres entation</w>
Ka therine</w>
H ans</w>
G r</w>
19 5</w>
é r
cli ff</w>
pres sures</w>
po em</w>
G lax
sup plying</w>
k al
Attor ney</w>
mid t</w>
ero tic</w>
C row
B ed
worsen ing</w>
ra ises</w>
neg ligible</w>
explan ations</w>
b uck</w>
swe at
reme dies</w>
PRECAU TIONS</w>
Detail s</w>
, 5</w>
gly co
to ss</w>
sit ter</w>
lu de</w>
gl ing</w>
dis o
age ous</w>
M au
15 2</w>
N E</w>
F aster</w>
net working</w>
mut ually</w>
Lab oratory</w>
sp a</w>
ir relevant</w>
atten ing</w>
atten ding</w>
le ans</w>
fic ally</w>
dic tionary</w>
ab en</w>
N apo
- Hi</w>
v i</w>
ap ples</w>
O S
G on
2 25</w>
re treat</w>
me l</w>
benef iting</w>
Adam s</w>
gal axy</w>
entreprene urs</w>
C and
B T</w>
whist le</w>
war t</w>
uck ily</w>
ro y
Dun can</w>
ma ils</w>
PO L</w>
CC P</w>
thi eves</w>
fin alised</w>
Stock holm</w>
G one</w>
d r</w>
W ing</w>
Mon k</w>
7. 2</w>
accoun tability</w>
Democr ats</w>
DIS POS
Croati an</w>
2. 7</w>
temp er</w>
ell es</w>
M ass
Elec tric</w>
z umab</w>
ster dam</w>
st ack</w>
pestic ides</w>
em pire</w>
Ter rit
I gn
spon sor</w>
B aker</w>
specim en</w>
prud ential</w>
e ded</w>
disadvant aged</w>
br ick</w>
cruc i
Gen eva</w>
Citiz ens</w>
dor m</w>
- A</w>
thyro id</w>
slaugh ter
ME MBER</w>
2 34</w>
un sub</w>
trac tion</w>
mon t</w>
forec asts</w>
dr yer</w>
dis proportionate</w>
Un sure</w>
wrest ling</w>
k y
exc uses</w>
E valuation</w>
st ants</w>
sn ack</w>
sc ot
por k</w>
bar gain</w>
DA Y</w>
bre e
Lot teries</w>
el der</w>
Pho enix</w>
titan ium</w>
denom inated</w>
V ul
GO OD</w>
radic al</w>
cloth ed</w>
26 58</w>
se ated</w>
bicy cle</w>
r in</w>
Ch and
under go</w>
e v</w>
des ires</w>
arch y</w>
Migu el</w>
nee ding</w>
are r</w>
Repub lic
standardis ed</w>
an or</w>
Stri ke</w>
Sil ence</w>
S ea
Lem on</w>
effec ted</w>
Proc ess</w>
C B</w>
o ste
Pi erce</w>
DISPOS AL</w>
Chick en</w>
he a</w>
suit case</w>
re actor</w>
ag u
Statis tical</w>
under gone</w>
s worn</w>
photogra pher</w>
num bered</w>
n aughty</w>
d oms</w>
O mar</w>
K är
ph thal
explic it</w>
S EC</w>
N igh
le ak
arri ves</w>
du g</w>
Y ING</w>
M ick</w>
Bab ylon</w>
aff ili
a g</w>
Dec ree</w>
ov ine</w>
D EN
cand le</w>
spo il</w>
bi kini</w>
C ell</w>
See ing</w>
equival ence</w>
go ats</w>
ge ographic</w>
system atically</w>
pl ain
Intr on</w>
hum ble</w>
WH ERE</w>
T V
Lar ge</w>
Gri ffin</w>
ar tis</w>
wi red</w>
ho sting</w>
ei gh</w>
s son</w>
n esses</w>
fores ee
im porting</w>
er nal</w>
bal d</w>
at inib</w>
Gl ass</w>
B art</w>
squ irt</w>
mol lus
end less</w>
ee m</w>
Nichol as</w>
Coord ination</w>
plun ger</w>
j aw</w>
g ur
convic tion</w>
com modities</w>
issu ance</w>
oper atives</w>
Soli darity</w>
Ra j</w>
Law rence</w>
Frank furt</w>
ff les</w>
clari fication</w>
Pro sec
15 80</w>
0. 9</w>
sel ls</w>
regul ate</w>
in filtr
B ac
t ness</w>
a ver
Nov artis</w>
3. 7</w>
clim bing</w>
appro ached</w>
IN TE
Cl y
Bur ke</w>
par adise</w>
ol an</w>
OP IN
C Y
fu me</w>
ent e</w>
cr um
SO s</w>
Fred die</w>
st ink</w>
in ates</w>
car c
bro m
W ill
Leg isl
D Y</w>
&apos;t --</w>
urg ently</w>
resid ential</w>
pre y</w>
12 9</w>
py ra
cosme tic</w>
j azz</w>
d read
st em
sa kes</w>
L ead</w>
Intro duction</w>
ste re
rec ti
cock tail</w>
supp ression</w>
V EN
F uel</w>
Des ign</w>
Cho ose</w>
18 4</w>
ri ghtly</w>
mir rors</w>
deb ates</w>
k el</w>
ail ing</w>
L um
D allas</w>
k en
fer on
em ea
c ad
arr ay</w>
an ic</w>
Wo od</w>
M W</w>
Go sh</w>
ut most</w>
pe ar
expres sly</w>
er to</w>
Scul ly</w>
Gar d
sha dows</w>
partic le</w>
O M</w>
wi res</w>
dra fting</w>
bid ding</w>
Super vis
M G</w>
Fin ish</w>
2, 4</w>
15 00</w>
ã o</w>
rough ly</w>
lab s</w>
y ear
rum or</w>
C ul
sub way</w>
scand al</w>
flow ing</w>
R af
p ac
main tains</w>
R ather</w>
fu gi
che es
au tical</w>
ancest ors</w>
Lind say</w>
ER DF</w>
sex ually</w>
r .
anhy drous</w>
Da ily</w>
reg ret
Last ly</w>
like wise</w>
Vira feron
N am
vir tually</w>
fo stering</w>
canc eled</w>
a sting</w>
fer ry</w>
ban ned</w>
Ju dy</w>
exac er
P OR
kni ves</w>
Kär nt
I vy</w>
CLAS SI
p kin</w>
en ue</w>
20. 12.2013</w>
sha ft</w>
L i</w>
H EL
13 3</w>
na ive</w>
investig ator</w>
g res
Car di
Bec ky</w>
198 2</w>
let t</w>
abdom en</w>
Al one</w>
16 2</w>
tw o
se duction</w>
la sted</w>
s ers</w>
ref resh
Ser ies</w>
ick et</w>
el ite</w>
co di
14 4</w>
p tease</w>
d ice</w>
c unt</w>
c H
bank rupt
Sud denly</w>
IM UM</w>
Experi ence</w>
And re</w>
ush es</w>
sa vi
hon esty</w>
cred itor</w>
Stand ards</w>
Merc edes</w>
M eat</w>
Car ol
practic ing</w>
li me</w>
de ple
b ic
jud ging</w>
ch ess</w>
a is
Re qu
Per sons</w>
Leban on</w>
Fo ster</w>
sor i
IN STRUC
taxpay ers</w>
publ ishing</w>
pre pa
par ade</w>
H ail</w>
Am sterdam</w>
induc e</w>
b ells</w>
abl o</w>
Viraferon Peg</w>
per sec
glor ious</w>
g room</w>
co coa</w>
ban anas</w>
Shar p</w>
AN K</w>
mis ery</w>
entit lements</w>
t le
bound ary</w>
S onic</w>
3 20</w>
pill ars</w>
pi p
emphas ise</w>
assi sting</w>
P ROP
Jo on</w>
Good night</w>
Sim ple</w>
3 02</w>
om ers</w>
bul l
OU R</w>
strong est</w>
in stantly</w>
M D</w>
less er</w>
AT C</w>
AP PROV
aci do
Main tenance</w>
educ ated</w>
UN USED</w>
Sal es</w>
Dru g</w>
end ang
p ted</w>
Vo y
K ing
Clar a</w>
in timate</w>
hoc key</w>
culo sis</w>
tari ffs</w>
Pro te
B le
Applic ations</w>
AT M</w>
pl u
go o
fo x</w>
Some how</w>
Defin itions</w>
Car la</w>
C P</w>
An dro
qualit ative</w>
leth al</w>
ballo on</w>
Peg Intron</w>
hydr o</w>
han dy</w>
supple mented</w>
ran ch</w>
identi fier</w>
particip ated</w>
off shore</w>
Tour ist</w>
en ne</w>
el eph
Mess age</w>
Ca uc
equ ation</w>
eleph ant</w>
com posite</w>
bureauc r
Zo om</w>
wr ong
crystall ine</w>
Mar io</w>
ri g</w>
bl er</w>
s ics</w>
pre ferences</w>
mag azines</w>
hydro xy</w>
ex agger
G RO
Compe ti
perc eived</w>
op ath
electro magnetic</w>
e us</w>
disci ples</w>
N EE
Integr ated</w>
i ah</w>
bis cu
T I</w>
Alum inium</w>
psycho tic</w>
ba thing</w>
b aggage</w>
cam ping</w>
bur gl
ud ge</w>
de preci
and is</w>
ROP RI
E ven
A ward</w>
log istics</w>
f s</w>
defin ite</w>
Programm es</w>
carbon ate</w>
ash i</w>
acceler ate</w>
He e</w>
cat astro
we e</w>
mic rowave</w>
cell ar</w>
Re ports</w>
32 23</w>
ext ingu
eu tic
enti a</w>
Commer cial</w>
C anc
3 D</w>
up grade</w>
sto s</w>
our se</w>
metabol ised</w>
let te</w>
be ers</w>
APP ROPRI
k it
av in</w>
P ast
Kärnt ner</w>
sc ent</w>
mis siles</w>
h ed</w>
I tem</w>
High er</w>
Go ods</w>
F un</w>
zz o</w>
x in</w>
recep tors</w>
foresee able</w>
enter mine</w>
col ony</w>
ren ts</w>
in ely</w>
bure au</w>
P on
ER A</w>
pul sion</w>
L az
al together</w>
I M</w>
B ever
wor thless</w>
reconc iliation</w>
enni um</w>
O h
Car men</w>
20 3</w>
s its</w>
fin es</w>
au x</w>
S event
M ist
li d</w>
exp anding</w>
bo oth</w>
Vol ume</w>
19 72</w>
ra ining</w>
F err
Af ter
tri um
V il
V al</w>
D K</w>
thro mycin</w>
st are</w>
lin king</w>
Sevent h</w>
Pa ul
be et</w>
&apos; VE</w>
d d
I g
fisher men</w>
dist rib
dis solved</w>
co ats</w>
Jo el</w>
pro xim
ma ster
l ump</w>
Re form</w>
to --</w>
the ast</w>
po o</w>
gly col</w>
Manufactu rer</w>
Loc k
C e
Al fred</w>
lo gs</w>
War ning</w>
Vi olet</w>
Hy un</w>
f ing</w>
RE L
5 8
ma il
8. 1</w>
win ners</w>
ti gh
sp inal</w>
ot ro
on aire</w>
gest ure</w>
Def ense</w>
tuber culosis</w>
or derly</w>
e ager</w>
Spo ck</w>
incorpor ate</w>
dro wn</w>
Spi ke</w>
under lined</w>
en rich
cell ular</w>
Mob ile</w>
H ud
min ded</w>
ent on</w>
do p
distingu ished</w>
clo ses</w>
K line</w>
ten derer</w>
bor rowing</w>
aff i
K ab
Jo b</w>
C lear
transl ator</w>
reti re</w>
Wil lie</w>
Cor ps</w>
i k</w>
el t</w>
abo li
F isher</w>
ru m</w>
H unt</w>
off ensive</w>
he ir</w>
In dex</w>
tro pical</w>
reha b</w>
nur sing</w>
mani fest</w>
dis par
assh oles</w>
SI GHT</w>
z ens</w>
st air
photograph y</w>
fi br
Fo rest</w>
n anny</w>
Euro just</w>
o fovir</w>
autom otive</w>
G .
D il
se ized</w>
dec entr
a. m</w>
IM I</w>
F T</w>
par ks</w>
i ti
appreci ated</w>
stan tive</w>
cer amic</w>
c od</w>
P ed
An ci
sun light</w>
accompl ish</w>
0. 4</w>
val ves</w>
ich es</w>
P at</w>
Har rison</w>
An dr
H IC
v ating</w>
comp ass</w>
ad ren
D RA
prescri be</w>
molec ular</w>
introduc tory</w>
distribut ors</w>
deliber ately</w>
Y ears</w>
vag ina</w>
perc eption</w>
appreci ation</w>
ad el
P P</w>
re vi
n ylon</w>
horiz on</w>
Cassi e</w>
ri dge</w>
im s</w>
Con centr
30. 6.
tra ine
sn ea
k itty</w>
con dom</w>
sc ul
hosti le</w>
OPIN ION</w>
poul trymeat</w>
EA FR
20 4</w>
gun shot</w>
er ly</w>
cla uses</w>
Den ny</w>
P an</w>
Boy d</w>
ul tras
t man</w>
no ld</w>
ans as</w>
SC R</w>
work shops</w>
unanim ously</w>
ro v
i to</w>
heart beat</w>
Sh or
H ide</w>
B ER
on ium</w>
gr atitude</w>
bus es</w>
bu bbles</w>
Organ ization</w>
de z</w>
admin ister</w>
Dri ving</w>
An a</w>
A O
2. 0</w>
0. 6</w>
trans mit
t ling</w>
s lot</w>
poly mers</w>
distingu ish</w>
W ells</w>
Mach ine</w>
INSTRUC TIONS</w>
En ter</w>
seri ousness</w>
se wing</w>
hi bition</w>
ha w
for k</w>
d ness</w>
pre ference</w>
off s</w>
hard est</w>
gg les</w>
ent ations</w>
So fia</w>
N icky</w>
3 ,000</w>
wh ip</w>
p ren
lad y
thir ds</w>
Bren nan</w>
vir uses</w>
sl ice</w>
Y our
EN TR
pollut ants</w>
S ut
La ur
Br as
trans form</w>
haz ards</w>
Tal king</w>
F is
soci etal</w>
Ac tions</w>
t res
or o
kilogra ms</w>
gg ers</w>
f eared</w>
desig ner</w>
Z Z</w>
X VI</w>
Pri ze</w>
EFF EC
v ine
int ers</w>
h as
EAFR D</w>
ub ric
rac ist</w>
ace tic</w>
E x</w>
y y
us ive</w>
tun nels</w>
dr al</w>
ag gra
S olution</w>
pro found</w>
compres sion</w>
T LE</w>
S R
Hou ston</w>
shi fts</w>
l est</w>
ed ges</w>
Kenne dy</w>
Green land</w>
ve ins</w>
on ey</w>
ke to
inter ruption</w>
F RE
B E
polic eman</w>
em bo
br al</w>
T ABLE</w>
M all
inst inct</w>
D od
the irs</w>
at ar</w>
p assive</w>
four some</w>
flu ids</w>
B ru
B all</w>
de hydr
d --</w>
B order</w>
Ar i</w>
str ingent</w>
serv ers</w>
ee red</w>
Colom bia</w>
Where ver</w>
T s</w>
B ond</w>
13 7</w>
μ m</w>
ti tr
Statis tics</w>
Fi ona</w>
ro s
or ally</w>
incorpor ation</w>
dr ying</w>
cle arer</w>
brac elet</w>
Mon a</w>
H ob
Cly de</w>
ge ance</w>
Mic ha
Ju an</w>
C Y</w>
exec uting</w>
Pan el</w>
val ence</w>
orph an</w>
nutri tional</w>
Gw en</w>
13 4</w>
bio availability</w>
or nam
lit ter</w>
Ar ctic</w>
sho ots</w>
hy de</w>
fon t</w>
en force</w>
YP D</w>
Im ports</w>
ach y
Mi key</w>
3 a</w>
valu ed</w>
ple dge</w>
pa ste</w>
lin en</w>
H ad
E yes</w>
B lan
sh ining</w>
fol lic
dis appoint</w>
com pos
cartri dges</w>
Shar on</w>
R unning</w>
stra w
proph et</w>
m at</w>
hair cut</w>
Adjust ment</w>
preser ving</w>
f attening</w>
approv als</w>
ut able</w>
resol utions</w>
ak h
X i
vitam ins</w>
st ear
drow ned</w>
P RI
I G
0 1.
see kers</w>
id an</w>
W in</w>
AL T</w>
jac ent</w>
feasi bility</w>
aerop lane</w>
pu b</w>
mut atis</w>
l n</w>
form ity</w>
eg e</w>
day light</w>
Ham mond</w>
Br and
ub en</w>
Bir thday</w>
r ants</w>
o z
mut andis</w>
att ach</w>
SP ON
Per form
N a</w>
H .</w>
Emp loy
pro be</w>
lax is</w>
h edge</w>
predic ted</w>
Pub l
Per man
H ell
th ia</w>
symptom atic</w>
stop per</w>
forc ing</w>
court esy</w>
aggreg ated</w>
rel ap
Stri ptease</w>
wa ii</w>
med al</w>
d ull</w>
bl ur
G ur
stim ulation</w>
prosec utor</w>
ow es</w>
T N
H ab
ing ness</w>
aux iliary</w>
CL U
t ants</w>
soci ally</w>
d is</w>
arbitr ation</w>
E vil</w>
17 7</w>
rhe um
ide on</w>
P U
E vent
spo on</w>
ot y
fr actions</w>
fil ters</w>
sen sation</w>
lam ivudine</w>
DI D</w>
Ar cher</w>
e i</w>
Te resa</w>
For tun
v aries</w>
Star fleet</w>
Sch midt</w>
09. 4
x ic
ro pes</w>
Pow der</w>
mag nitude</w>
lox etine</w>
Wh at
Bro thers</w>
Ale c</w>
- lt</w>
á r
ad al
Res ources</w>
reha bil
mor gue</w>
abor tion</w>
Tem ple</w>
Mon roe</w>
identi fies</w>
c ine</w>
N ATIONAL</w>
sho ve</w>
ris es</w>
mm m</w>
m oul
eutic als</w>
Sy rian</w>
Rel ations</w>
NAT O</w>
on azole</w>
fluor o
apolog ise</w>
Pre vention</w>
EN D</w>
up skirt</w>
sun shine</w>
miti gate</w>
l ar</w>
correspon dence</w>
acido sis</w>
D EF
denti st</w>
Man aging</w>
programm ed</w>
fol ded</w>
Ini tial</w>
16 4</w>
i v</w>
em bedded</w>
S asha</w>
Cam el
12 60</w>
di methyl
ank o
D ob
19 77</w>
0. 00
h int</w>
dow ns</w>
CYP2 C
Amaz on</w>
prom otes</w>
id able</w>
en i</w>
Hom er</w>
Con nie</w>
19 79</w>
instinc ts</w>
emphas ised</w>
T wel
n in</w>
min erals</w>
interven e</w>
ea h
be gged</w>
N YPD</w>
Multi ple</w>
IM F</w>
I ran
G ate</w>
Cauc as
trem endous</w>
notic es</w>
M um
tr ous
in sofar</w>
com ic</w>
al gia</w>
Micro soft</w>
Gr ay</w>
liqu ids</w>
Gu idance</w>
vari an</w>
reli eve</w>
flo at</w>
challeng ed</w>
Ric hie</w>
st aple</w>
SER V
Reg ina</w>
diversi fication</w>
ch ased</w>
sem ester</w>
il legally</w>
G run
Communic ations</w>
C ultural</w>
Stev ens</w>
DER IV
or che
off al</w>
ne uropa
n age</w>
c ils</w>
She ila</w>
Bo o</w>
az ep
Fr on
ran som</w>
li thium</w>
ad mir
E vent</w>
res urrec
addic t</w>
ach t</w>
Min ist
Exp lo
ffe ine</w>
ev id
bankrupt cy</w>
E IT</w>
y -</w>
min t</w>
harm less</w>
go ose</w>
[...]
