#version: 0.2
t h
i n
p o
a n
th e</w>
po s
e r
& a
&a pos
t i
&apos ;
r e
o n</w>
o u
in g</w>
o n
e n
t o</w>
a r
o u</w>
e d</w>
o f</w>
e r</w>
a t</w>
a l
o r
i s</w>
y ou</w>
an d</w>
i n</w>
i t
e s</w>
r o
s t
a t
o r</w>
o m
e l
a n</w>
v e</w>
a c
&apos; s</w>
i c
n o
T h
i t</w>
ti on</w>
i s
e c
h a
a s
a l</w>
e n</w>
i l
w h
e s
u s
th at</w>
l e</w>
m e</w>
u r
er e</w>
a s</w>
l i
r i
f or</w>
l o
l e
s h
a y</w>
l y</w>
&apos; t</w>
q u
a tion</w>
b e</w>
s i
a b
p ro
d i
g h
en t</w>
o t
u n
t s</w>
e t</w>
. .
al l</w>
it h</w>
ou r</w>
e m
e a
a g
@ -
@- @</w>
W h
l d</w>
w ith</w>
Y ou</w>
k e</w>
u l
.. .</w>
ou t</w>
ar e</w>
u c
e v
c on
gh t</w>
r a
th is</w>
c om
e y</w>
g o
no t</w>
r e</w>
d o
b e
no w</w>
c h
a m
ha ve</w>
c e</w>
e x
Th e</w>
u t</w>
on e</w>
w as</w>
ti on
qu ot
a d
ou n
us t</w>
quot ;</w>
& quot;</w>
o l
o p
t a
w e</w>
ou ld</w>
i r
t r
f or
y our</w>
th er</w>
p l
n e
i d
a p
h e</w>
s e</w>
s u
&apos; m</w>
A n
l l</w>
m e
s e
m y</w>
el l</w>
&apos; re</w>
I t</w>
at e</w>
ti c
2 0
t o
t er
b y</w>
re s
k now</w>
c an</w>
h i
d o</w>
o d</w>
an t</w>
it y</w>
o w</w>
N o</w>
i m
p e
Wh at</w>
th ing</w>
C om
a y
t er</w>
ro m</w>
v er
th e
k ing</w>
f rom</w>
ur e</w>
w or
d e
f f
wh at</w>
p ar
d s</w>
il l</w>
t ed</w>
po r
d on</w>
er s</w>
c o
s o</w>
m a
i d</w>
m o
tion s</w>
W e</w>
p er
s om
al ly</w>
u p</w>
j ust</w>
c i
An d</w>
s a
li ke</w>
g et</w>
e g
b er</w>
b o
s t</w>
u m
h ere</w>
ab out</w>
d ing</w>
u s</w>
f i
a r</w>
in g
u t
w n</w>
s p
ri ght</w>
t ing</w>
20 0
in e</w>
A r
e e
us e</w>
&apos; ll</w>
es s</w>
ou r
m ent</w>
w ill</w>
l a
Com m
th ey</w>
th ere</w>
g u
hi m</w>
re c
an ce</w>
b ut</w>
d uc
g i
sh all</w>
i r</w>
en ts</w>
d er</w>
S t
H e</w>
n i
k s</w>
ac k</w>
h er</w>
n o</w>
si on</w>
& #
&# 9
g o</w>
e ar
&apos ;</w>
Ar tic
in k</w>
ea h</w>
an y</w>
d e</w>
Th at</w>
ti ve</w>
ab le</w>
or e</w>
ic e</w>
ic h</w>
i f</w>
r y</w>
f in
at ed</w>
re d</w>
e st
Artic le</w>
ev er</w>
w ay</w>
o ther</w>
o k</w>
as e</w>
es t</w>
c l
em ber</w>
O h</w>
e t
go t</w>
Th is</w>
ac c
p p
d er
ti me</w>
w ant</w>
v er</w>
g h</w>
wh ich</w>
n a</w>
ar d</w>
v i
t w
be en</w>
m in
Y eah</w>
ul ation</w>
&apos; ve</w>
ha s</w>
c h</w>
t h</w>
th ink</w>
R eg
m on
ar y</w>
g e</w>
st r
h is</w>
en t
ag e</w>
m ore</w>
som e
ea r</w>
w ere</w>
as t</w>
pro v
sh ould</w>
B ut</w>
es s
d ay</w>
u ro
d y</w>
the m</w>
k ay</w>
d n</w>
ti es</w>
p a
p re
se e</w>
n a
Reg ulation</w>
sh e</w>
w ould</w>
it s</w>
S o</w>
E uro
a d</w>
c a
p r
is sion</w>
e l</w>
uc h</w>
on g</w>
w i
b i
e p
for m
W ell</w>
v ing</w>
h o
d ed</w>
es e</w>
m ar
wh o</w>
pro duc
lo w
go ing</w>
ac e</w>
d is
en ce</w>
b ack</w>
i on</w>
oun d</w>
t y</w>
i ght</w>
ec t</w>
s el
on na</w>
p le
at es</w>
ing s</w>
con t
ay s</w>
r ou
a u
m an</w>
re s</w>
ev er
en d</w>
f f</w>
ha d</w>
wh en</w>
g onna</w>
t u
b le</w>
s ec
di d</w>
ne ed</w>
s o
c re
o se</w>
in ter
a m</w>
it t
E C</w>
o t</w>
I n</w>
the ir</w>
i c</w>
do wn</w>
com e</w>
c er
wh ere</w>
a tions</w>
s er
go od</w>
ou s</w>
on s</w>
por t</w>
r an
f e</w>
Euro pe
ta ke</w>
Comm ission</w>
20 1
in to</w>
s ti
Europe an</w>
som e</w>
t al
u b
f a
an y
th an</w>
al l
Th ey</w>
el l
tion al</w>
0 0</w>
el y</w>
C h
c ould</w>
h ow</w>
I f</w>
k ed</w>
re n
u m</w>
re e</w>
for e</w>
p h
il l
u e</w>
a f
a use</w>
on ly</w>
p res
su b
I n
com m
e d
g re
en ti
i g
S he</w>
o b
re f
b u
ag o</w>
f ir
th er
3 ;</w>
&#9 3;</w>
1 ;</w>
&#9 1;</w>
r u
em ent</w>
o ver</w>
ver y</w>
H ow</w>
n ing</w>
i st
b ec
o c
ec i
op le</w>
s ay</w>
v es</w>
is h
m ay</w>
ma ke</w>
Y es</w>
wor k</w>
om e</w>
t ra
M ember</w>
at ing</w>
H ey</w>
re g
h el
&apos; d</w>
qu i
p ri
an d
s ure</w>
ne w</w>
ea d</w>
wi th
B A
t ur
il e</w>
com p
th en</w>
or y</w>
Th ere</w>
f e
a in</w>
an k</w>
it e</w>
ac h</w>
el i
j o
ha pp
s y
t en
f u
di dn</w>
O kay</w>
y ing</w>
d ec
an s
ear s</w>
c oun
re ally</w>
an s</w>
i es</w>
as s
cl u
le t</w>
pe ople</w>
f ac
g ra
f o
t ri
to o</w>
some thing</w>
o m</w>
or d
ad e</w>
ic ation</w>
tw o</w>
A ll</w>
f ol
e e</w>
BA R</w>
ic al</w>
th ou
th ese</w>
m at
t ell</w>
is ion</w>
Wh y</w>
n ed</w>
1 9
w a
as s</w>
th ose</w>
w an
y ears</w>
an g
bo dy</w>
sa id</w>
th or
u st
an c
in v
is e</w>
fir st</w>
o ff</w>
v ed</w>
e m</w>
m il
itt le</w>
me an</w>
o ff
T H
L o
is h</w>
sp eci
ev en</w>
m ust</w>
al so</w>
b r
bi g</w>
Com e</w>
a ve</w>
or ry</w>
s on</w>
en c
sel f</w>
c ar
in t</w>
g e
y s</w>
m an
prov id
i l</w>
us ed</w>
pro c
or s</w>
al s</w>
D i
l ittle</w>
St ates</w>
P ar
form ation</w>
f ri
n ever</w>
in d</w>
L et</w>
b l
t ly</w>
un der
w ell</w>
t ec
op er
m ents</w>
i a</w>
ti c</w>
tr y</w>
C oun
e en</w>
o w
f t</w>
ap pl
d es
U ni
ever y
ic i
be fore</w>
lo ok</w>
u res</w>
re ad
D o</w>
af ter</w>
a v
G o
D on</w>
o l</w>
m ade</w>
1 0</w>
b as
un der</w>
l es</w>
st u
a re
en er
do ing</w>
ci l</w>
au thor
fol low
p e</w>
bec ause</w>
st er</w>
le v
s uch</w>
is t</w>
po n
in formation</w>
lo w</w>
w e
s ur
p en
i ties</w>
A l
m uch</w>
t or</w>
v en</w>
lo c
M y</w>
tr ans
Coun cil</w>
lo o
st ar
m p
un ity</w>
at er</w>
ic k</w>
G od</w>
D ec
in d
Uni on</w>
mar k
w r
Wh ere</w>
w s</w>
p s</w>
me as
gi ve</w>
ap p
ta in</w>
fu l</w>
E U</w>
wh y</w>
ci al</w>
N ow</w>
par tic
ti m
s c
si de</w>
ou l
fin d</w>
lo ve</w>
ch o
li fe</w>
in clu
F or</w>
o ld</w>
hel p</w>
a in
e i
w ee
sti ll</w>
li c</w>
per i
th rou
T I
c or
v al
n ec
il y</w>
su p
ta in
k no
ul ar</w>
il ity</w>
pl ace</w>
s et</w>
c ol
l ast</w>
t e</w>
C on
th s</w>
o kay</w>
c lo
ay be</w>
ser v
i z
sy st
re at
p ub
si g
mo st</w>
M ar
ref er
d ev
po l
di ff
J ust</w>
sh i
read y</w>
y ear</w>
uc k</w>
t ter</w>
por t
- -</w>
e ff
u r</w>
ac h
pro b
S h
I s</w>
b eli
ac t</w>
h ear
e w</w>
v en
Di rec
o wn</w>
g ir
ic es</w>
s orry</w>
e ve</w>
w ays</w>
g r
P ro
u h</w>
p ur
ex t</w>
throu gh</w>
re qui
f un
m s</w>
f l
c our
do es</w>
ex c
r .</w>
ee p</w>
el s</w>
p ut</w>
oul dn</w>
L i
m is
ab l
id e</w>
s ol
be tw
ni ght</w>
1 0
con cer
betw een</w>
p le</w>
U n
n um
m en
ag ain</w>
s ed</w>
ay ing</w>
A re</w>
ne x</w>
acc ord
ther e
b ro
l ong</w>
l ess</w>
na tional</w>
Comm unity</w>
any thing</w>
r is
st o
c ri
N ot</w>
h ou
follow ing</w>
si d
An nex</w>
mon ths</w>
happ en
fi ed</w>
re a
si ble</w>
Lo ok</w>
O N</w>
sa me</w>
ee l</w>
E x
e ach</w>
c le
u al</w>
ta k
R e
h e
c ase</w>
O n
be ing</w>
j ec
Th ank</w>
produc ts</w>
c ap
thou ght</w>
na me</w>
ra p
c all</w>
a way</w>
is i
tal k</w>
or der</w>
ut e</w>
Wh o</w>
re l
u d
er e
s k
g l
it ed</w>
h ome</w>
an t
p i
ap pro
ar i
J o
be tter</w>
c all
Y our</w>
b ot
an ge</w>
s ing</w>
jo b</w>
I N
t ure</w>
N o
s m
accord ance</w>
Wh en</w>
est abl
g y</w>
ar ound</w>
in t
g er</w>
a me</w>
th ings</w>
id e
le g
f ul
oun t</w>
St ate</w>
m any</w>
po int</w>
ou t
ac k
w er</w>
v e
con si
a ke</w>
str uc
w ar
Direc tive</w>
n er</w>
st and</w>
ro om</w>
to ld</w>
on d</w>
d re
do c
s s</w>
A N
in ce</w>
d r
ou gh</w>
2 0</w>
meas ures</w>
an ks</w>
ch ar
mark et</w>
er i
par ag
diff er
or g
TH E</w>
C O
th ree</w>
c ur
gre at</w>
f am
es n</w>
par t</w>
with out</w>
d ays</w>
re m
al ways</w>
o le</w>
ac ti
Go od</w>
l ine</w>
is ed</w>
e p</w>
res pon
wor ld</w>
w om
f ic
beli eve</w>
gu y</w>
h ead</w>
G et</w>
fri end</w>
for m</w>
b us
w on</w>
ir d</w>
ro w</w>
t y
di rec
C an</w>
f ound</w>
el op
le ase</w>
with in</w>
y our
a il
O J</w>
B o
cont ro
em p
syst em</w>
re gi
ter s</w>
lo t</w>
k ind</w>
E n
establ ish
at a</w>
con di
ple ase</w>
d one</w>
n y</w>
A c
R E
m ight</w>
j ect</w>
pa ti
gu ys</w>
P re
re as
do esn</w>
k eep</w>
num ber</w>
en d
ch il
mon ey</w>
ul t</w>
st a
in es</w>
i ve</w>
reg ard</w>
19 9
ever y</w>
hou se</w>
ur ing</w>
an other</w>
rap h</w>
1 2</w>
enc y</w>
refer red</w>
a ving</w>
res s</w>
cour se</w>
b a
Dec ision</w>
com pe
u p
st s</w>
k es</w>
e f
T E
M r.</w>
no thing</w>
f eel</w>
me ans</w>
h an
f r
s es</w>
every thing</w>
qu es
3 0</w>
ch ange</w>
c ha
at t
li m
on al</w>
partic ular</w>
c r
h ea
E U
parag raph</w>
provid ed</w>
s en
D id</w>
m en</w>
1 .
ul es</w>
k ill
Th en</w>
y e</w>
an cial</w>
A s</w>
T o</w>
appl ic
l ar
al ity</w>
M o
d ro
d ra
n al</w>
I I</w>
in ess</w>
M a
d ic
prob le
n at
t a</w>
at h</w>
shi p</w>
t e
g g
b est</w>
d ri
com ing</w>
m er
m ent
as k</w>
g et
le ft</w>
in s</w>
I S
w as
wan ted</w>
ex p
f uc
ti s
en g
tim es</w>
am es</w>
h y
s it
ou s
ge ther</w>
y es</w>
p er</w>
2 .
at ch</w>
al e</w>
pl an
bot h</w>
in cre
res p
1 5</w>
G o</w>
pl ac
gh ts</w>
h um
R O
pos i
di es</w>
k er</w>
ac tu
em s</w>
b rea
s ha
P lease</w>
por ts</w>
al ready</w>
d ate</w>
op e</w>
d ata</w>
1 1</w>
to gether</w>
peri od</w>
re qu
e as
v is
om e
im port
isi ons</w>
wr ong</w>
li st
nec ess
c as
ne e
h ar
er y</w>
dev elop
w al
inclu ding</w>
ti l</w>
a id</w>
ca me</w>
ta king</w>
m or
it ing</w>
200 6</w>
ep t</w>
sto p</w>
le ave</w>
c ar</w>
1 8</w>
happen ed</w>
M aybe</w>
c are</w>
com ple
am ent</w>
on om
5 0</w>
tec h
ri ed</w>
si r</w>
em b
pos ed</w>
gir l</w>
A R
re al</w>
as si
c an
g ener
fi c</w>
l an
tic al</w>
n ess</w>
to p</w>
pub lic</w>
ain st</w>
et y</w>
vi ew</w>
b ad</w>
pro gra
f er
some one</w>
0 00</w>
pos sible</w>
f ree</w>
proc ed
b ab
ic k
tur n</w>
c ra
ch ec
C o
B ec
f ine</w>
o ds</w>
en ough</w>
en ded</w>
l and</w>
is su
f ication</w>
loo king</w>
ag ainst</w>
fin ancial</w>
o d
tal king</w>
h ear</w>
it al</w>
tri es</w>
wh ile</w>
f ile</w>
t on
per s
p ing</w>
under stand</w>
fam ily</w>
necess ary</w>
org an
U h</w>
el ec
d am
H ere</w>
el se</w>
ab ility</w>
li ght</w>
ell o</w>
a z
tr ac
b ur
fa ther</w>
or d</w>
S p
v ir
le ast</w>
get ting</w>
n ext</w>
tak en</w>
im ple
O F</w>
sec ond</w>
g ran
wh ole</w>
d ead</w>
are a</w>
h al
g rou
k ill</w>
k id
tr ying</w>
l ed</w>
f ace</w>
to day</w>
di v
en ds</w>
is ation</w>
ha ving</w>
call ed</w>
sh ow</w>
om s</w>
200 5</w>
l ing</w>
c al
appro pri
so ci
n s</w>
b ed</w>
ec onom
cer tain</w>
d uring</w>
av ail
On e</w>
Par li
a do
ti ts</w>
coun tries</w>
bu il
m m
differ ent</w>
in ation</w>
y s
er ed</w>
h ell</w>
un til</w>
d em
per son</w>
200 4</w>
c en
wi fe</w>
w ent</w>
w ater</w>
ou ble</w>
Parli ament</w>
produc t</w>
itt ee</w>
our s</w>
coun try</w>
em ents</w>
at or</w>
sti tu
R ight</w>
h ol
Bec ause</w>
is n</w>
g ot
contro l</w>
pro tec
sid ent</w>
eff ec
sh o
lev el</w>
m m</w>
min d</w>
appl ication</w>
z e</w>
in a</w>
hi gh</w>
b en
G re
ar ds</w>
r ules</w>
st ance</w>
H aving</w>
E C
b ea
y eah</w>
condi tions</w>
t en</w>
se en</w>
ut es</w>
st ay</w>
u ation</w>
b el
ur ity</w>
or t</w>
de fin
wor king</w>
co ver
li ve</w>
c k</w>
bus iness</w>
requi re
b lo
st an
o ver
ec ted</w>
b it</w>
an im
f il
h ard</w>
was n</w>
pre t
sa w</w>
W a
for ce</w>
m y
at ely</w>
anc es</w>
man ag
R o
B r
ch e
re port</w>
P o
ag re
g s</w>
in i
ad di
at eg
i m</w>
s ince</w>
ec tion</w>
O f</w>
g ame</w>
ur al</w>
h on
star t</w>
to ok</w>
res t</w>
consi der
in c
author ities</w>
import ant</w>
me di
us ing</w>
wa it</w>
pl ay</w>
th in
s cho
t ot
op en</w>
rec ei
4 .
- -
l s</w>
mo ther</w>
in ten
th ird</w>
your self</w>
S ome
e ts</w>
ag es</w>
ado p
O n</w>
wh e
1 4</w>
en s</w>
d u
par t
1 3</w>
ad v
ch ang
oper ation</w>
g ation</w>
e ur</w>
me th
e qu
mo ve</w>
T o
li on</w>
rem ember</w>
200 7</w>
f ur
actu ally</w>
cont in
M E
H ello</w>
In ter
ti ves</w>
u tion</w>
w ard</w>
2 5</w>
E EC</w>
A d
ide a</w>
ex am
avail able</w>
sm all</w>
T reat
y et</w>
des ig
fe w</w>
ous ly</w>
do or</w>
serv ices</w>
sh it</w>
p ic
or ig
H am
n ice</w>
H A
mat ter</w>
e b
su pp
t ent</w>
an n
a ir
me et</w>
c ou
ab ly</w>
m aybe</w>
s le
ici al</w>
n or
a tive</w>
ti v
it ted</w>
d en</w>
pos e</w>
di e</w>
sh ot</w>
in ts</w>
in ing</w>
Th anks</w>
no ti
ac tion</w>
m i
pol ic
G u
D o
wom an</w>
ro w
re ad</w>
y l
hear d</w>
Comm ittee</w>
concer ned</w>
t able</w>
1 6</w>
pub l
est ed</w>
con tain
h and</w>
lo y
im um</w>
fuc king</w>
proble m</w>
ou th</w>
s w
po wer</w>
t on</w>
on ce</w>
ver n
f ra
H i</w>
st and
e qui
ty pe</w>
C ar
comm on</w>
h ur
k new</w>
Wa it</w>
Treat y</w>
bo y</w>
i e</w>
appropri ate</w>
n on</w>
la w</w>
c ul
sup port</w>
f y</w>
bab y</w>
p ul
u ti
ris k</w>
st ory</w>
ab o
h and
require ments</w>
dre n</w>
gi ven</w>
en ing</w>
A u
J u
h er
re la
t re
P e
ar ly</w>
A gre
re lev
in al</w>
en sure</w>
s aying</w>
hal f</w>
s ul
ic a</w>
scho ol</w>
id enti
. .</w>
un i
S ee</w>
in ed</w>
de ter
produc tion</w>
in st
i ous</w>
thou gh</w>
ren t</w>
he al
w ouldn</w>
wee k</w>
prov isions</w>
a ir</w>
est s</w>
ro ss</w>
A TI
s al
ish ed</w>
v o
i al</w>
st ri
acc ount</w>
es ti
par ty</w>
ques tion</w>
there fore</w>
blo od</w>
bas is</w>
e ting</w>
at s</w>
Pre sident</w>
an ti
t est</w>
200 8</w>
o s</w>
E A
M r</w>
ad min
comp any</w>
E ver
b ility</w>
tic s</w>
fo od</w>
a w
sh ow
200 9</w>
O R
ind ic
O K</w>
ma king</w>
S orry</w>
li e</w>
G er
Agre ement</w>
app ly</w>
col l
kill ed</w>
mo m</w>
1 2
un e</w>
se ar
re duc
b or
f ar</w>
ap prov
ut y</w>
U N
posi tion</w>
p ay
Th ese</w>
ot el</w>
hum an</w>
resp ect</w>
ful l</w>
E R
v ol
mor ning</w>
bas ed</w>
b er
on es</w>
I S</w>
t reat
an ts</w>
J an
pati ents</w>
Ever y
fri ends</w>
ell ing</w>
ru n</w>
pret ty</w>
wan na</w>
200 3</w>
ei ther</w>
ac tly</w>
p ed</w>
D e
pro f
a ff
C ha
dec ision</w>
r ic
chil dren</w>
c es</w>
h ic
H ave</w>
st or
t om
speci fic</w>
1 7</w>
t ors</w>
1 8
br ing</w>
applic able</w>
pr ice</w>
hi gh
O ff
bu d
th ers</w>
al i
is s</w>
al one</w>
min utes</w>
inter est</w>
W ith</w>
Ham ster</w>
ent ly</w>
whe ther</w>
serv ice</w>
wor d</w>
Q u
ea k</w>
Ex c
x Hamster</w>
m a</w>
re pres
gu ess</w>
y oun
0 0
sa f
k ey</w>
got ta</w>
l ic
A t</w>
2 4</w>
val ue</w>
g one</w>
3 .
ph one</w>
doc um
c ust
li ed</w>
k y</w>
g en
R ep
ad d
am ount</w>
st ra
grou p</w>
sub m
i gh
h ours</w>
res ul
ca use</w>
do m</w>
ho ld</w>
z y</w>
l on
pr in
clo se</w>
sec urity</w>
a h</w>
d el
enc es</w>
mat eri
h or
3 1</w>
h un
si ons</w>
i p
el d</w>
fi ve</w>
Dec ember</w>
m ine</w>
pen d
b it
ind ust
div id
pl an</w>
ma in</w>
fac t</w>
provid e</w>
gh ter</w>
p ass
it er
l ater</w>
there of</w>
c ent
ere as</w>
po n</w>
wee ks</w>
h ope</w>
ec h</w>
n et</w>
am ended</w>
m us
s uc
A mer
re co
T ake</w>
ve hic
enti al</w>
b and</w>
as ed</w>
O r</w>
relev ant</w>
por ted</w>
s ing
m ed</w>
pro m
al low
j ud
id ence</w>
develop ment</w>
2 1</w>
my self</w>
CO M
wan ts</w>
fo re
M on
d ge</w>
ar t</w>
f our</w>
Li ke</w>
A b
econom ic</w>
can not</w>
leg al</w>
si ve</w>
w in
ta il
ben ef
ha ven</w>
nee ds</w>
hear t</w>
an al
.. ..
se e
A L</w>
g ed</w>
u es</w>
S o
nat ural</w>
H ow
tr ue</w>
P l
b ut
g n
so on</w>
6 .
lo st</w>
at ch
c um
any one</w>
c ir
d es</w>
or row</w>
off ice</w>
I s
at ever</w>
P er
ub lic</w>
st oc
E E
er ing</w>
i an</w>
proced ure</w>
st at
S I
v ari
m om
A f
vir on
inv est
1 00</w>
e f</w>
s ays</w>
treat ment</w>
m ul
happ y</w>
r un
s po
c am
sub ject</w>
lo g
1 7
vi ties</w>
F in
be g
1 9</w>
p ay</w>
se t
de al</w>
c la
r ac
in stitu
plac ed</w>
a k
tur al</w>
1 5
ea m</w>
Euro pe</w>
l ist</w>
abo ve</w>
I m
201 3</w>
am at
thin king</w>
lo gy</w>
cle ar</w>
mil lion</w>
on t</w>
fa v
s ent</w>
a st
su ff
I C
ge ts</w>
kno wn</w>
g ames</w>
pp ed</w>
EU R</w>
H is</w>
ton ight</w>
A g
ATI ON</w>
cover ed</w>
4 0</w>
f uck</w>
youn g</w>
amat eur</w>
l ate</w>
B e
w o
2 2</w>
le ar
fun c
S u
inv ol
ma kes</w>
S top</w>
w on
E S</w>
A D
bro ther</w>
g ave</w>
b ra
la id</w>
ur b
T ell</w>
stu ff</w>
ener gy</w>
ot e</w>
pr is
r ate</w>
An y
t ro
fur ther</w>
li es</w>
acti vities</w>
M an
protec tion</w>
u fac
is m</w>
S e
con nec
reas on</w>
J ap
d ad</w>
go vern
M ay</w>
author ity</w>
th ank</w>
oun ds</w>
N e
F ran
sear ch</w>
S ec
speci al</w>
c ouldn</w>
tot al</w>
inv esti
chec k</w>
d ar
po w
1 3
m ach
emp loy
ob jec
ass ess
b al
mon th</w>
doc tor</w>
l at
prob ably</w>
polic y</w>
ter r
ini ti
rel ated</w>
201 1</w>
O ur</w>
d en
de ath</w>
b ar
com es</w>
ex actly</w>
nor m
de st
n ical</w>
w ea
pri v
cont ri
m ess
pl es</w>
N ew</w>
happ en</w>
consider ed</w>
c le</w>
st ing</w>
uti ful</w>
h uh</w>
P r
W i
How ever</w>
co ver</w>
m ur
in side</w>
IN G</w>
it ch
m et</w>
st e</w>
ac tions</w>
x ed</w>
d it</w>
por ting</w>
cl us
kno ws</w>
Re ally</w>
t em
con su
pur su
ut h</w>
sit uation</w>
H ar
est ing</w>
to wn</w>
str ation</w>
d ings</w>
every one</w>
s ci
n er
A s
compe tent</w>
2 3</w>
concer ning</w>
O N
T u
kid s</w>
bo ok</w>
N or
cou ple</w>
as h
co sts</w>
A C
w ish</w>
s us
en viron
si mp
st ate</w>
comm un
pl ay
con f
reg ul
en ding</w>
d eli
acc ess</w>
men ting</w>
tra de</w>
P ol
in ion</w>
t or
establish ed</w>
as ked</w>
us ti
X X
min ute</w>
ment ation</w>
or ding</w>
Rep ublic</w>
o f
Wh ereas</w>
m g</w>
manag ement</w>
p ap
at ory</w>
wom en</w>
l ab
f ast</w>
ut ure</w>
y l</w>
F or
k id</w>
s cre
201 0</w>
an g</w>
ex pl
d ouble</w>
comp an
L ist
Jo h
ver s
Un ited</w>
AN D</w>
Ch ar
f re
com b
en ter</w>
in f
d um
c u
compe ti
m me</w>
E l
proc ess
J une</w>
heal th</w>
tom orrow</w>
C z
c op
COM M
m ission</w>
T w
o x
wor ry</w>
R us
h ind</w>
C l
b il
b ri
sup posed</w>
ch ance</w>
wor ks</w>
h us
requi red</w>
b ir
e at</w>
g ar
gener al</w>
bec ome</w>
r ing</w>
sel ves</w>
B ar
D ad</w>
per form
cen tr
elec tr
f uture</w>
qu ality</w>
direc tly</w>
as soci
establish ing</w>
deter min
sing le</w>
t ou
st re
fi eld</w>
cer ti
ex ist
Af ter</w>
des cri
prin ci
bea utiful</w>
f ish
mp ;</w>
&a mp;</w>
out side</w>
emb ers</w>
loo ks</w>
han ds</w>
200 2</w>
rou ght</w>
an ese</w>
p es</w>
fi ght</w>
as h</w>
H o
p ment</w>
saf ety</w>
eas y</w>
L ord</w>
d om
5 .
G ener
List en</w>
di ed</w>
O c
fi re</w>
a tional</w>
in divid
t ar
star ted</w>
s ite</w>
kno w
le ad
th y</w>
o h</w>
G ive</w>
No thing</w>
en ter
at ure</w>
c ut</w>
au ghter</w>
in de
0 1</w>
man ufac
b low
e yes</w>
cas es</w>
mom ent</w>
le y</w>
ar m
loc k</w>
C ol
ri ghts</w>
201 4</w>
a ti
mil f</w>
ex peri
se qu
be hind</w>
fe el
cra zy</w>
list en</w>
v ic
Cz ech</w>
b ul
str ic
la h</w>
sec re
fr ont</w>
al iz
201 2</w>
st ances</w>
h it</w>
1 6
W or
fu n</w>
ni fic
F un
st e
our ces</w>
m ag
at ors</w>
inter national</w>
bl ack</w>
t eam</w>
s am
go ods</w>
s .</w>
C ap
un ch</w>
per f
hur t</w>
Jap anese</w>
ful ly</w>
p tion</w>
M in
n e</w>
A h</w>
S er
li g
gu ar
bo o
u ally</w>
d ers</w>
chil d</w>
imple mentation</w>
t le</w>
en e</w>
co ck</w>
th re
sa fe</w>
B y</w>
s pe
proc ess</w>
op inion</w>
C our
E R</w>
st urb
resul ts</w>
O P
lo se</w>
ic an</w>
pol ice</w>
1 4
ys is</w>
d ue</w>
acti v
sp ec
s ch
c ity</w>
tu res</w>
ec e</w>
b rought</w>
0 .
tr uth</w>
2 8</w>
me dic
po t
pres ent</w>
de tail
si x</w>
im p
ig n</w>
0 ,
th em
k e
d in
f el
it or
ser ious</w>
ou ght</w>
hus band</w>
gr ound</w>
D r.</w>
stan ding</w>
u ary</w>
ti ll</w>
el come</w>
S T
2 9</w>
pro pos
do se</w>
i re</w>
de f
s qu
tech nical</w>
syst ems</w>
ex ten
pa ren
V i
we ight</w>
Jan uary</w>
n am
con tr
E N
ep t
co de</w>
Gener al</w>
trans port</w>
wor ds</w>
ac hi
J es
pr ices</w>
acc ording</w>
com pl
re comm
x imum</w>
ven tion</w>
mo d
p an
brea k</w>
M r
ter m</w>
cor rec
o gra
T O</w>
f lo
200 1</w>
requ est</w>
pa in</w>
d aughter</w>
ne t
ma j
th ro
go es</w>
wal k</w>
ma in
F o
0 8</w>
ur y</w>
al most</w>
dr ink</w>
2 6</w>
RO P
O ther</w>
ic ally</w>
indust ry</w>
sig nific
k ers</w>
si an</w>
U L
Ju ly</w>
p u
ho sp
B ri
f er</w>
bo ard</w>
repres en
refer ence</w>
ra id</w>
me eting</w>
g ar</w>
so cial</w>
suc c
str um
0 5</w>
partic ip
dam n</w>
M om</w>
pro per
an al</w>
2 7</w>
R es
ell s</w>
s il
h om
est er
Exc use</w>
eff ect</w>
po li
U S
im port</w>
gu n</w>
200 0</w>
id ed</w>
de b
w atch</w>
qu ite</w>
6 0</w>
fi g
lon ger</w>
A L
fl u
pa id</w>
C a
qu anti
M i
war ds</w>
la u
si bility</w>
ev idence</w>
ment al</w>
B l
on y</w>
ac tive</w>
A n</w>
T r
S ome</w>
tr ust</w>
pos es</w>
po ints</w>
equi pment</w>
we b
O r
pa red</w>
k et</w>
cont act</w>
mat ure</w>
af raid</w>
D an
j ust
li ving</w>
oun ts</w>
e ase</w>
W ill</w>
sen se</w>
er c
tri ed</w>
anc ing</w>
to ber</w>
incre ase</w>
ho t</w>
h ate</w>
7 .
g lo
adop ted</w>
re placed</w>
bu tion</w>
es sion</w>
Oc tober</w>
inclu de</w>
wa iting</w>
u pon</w>
g row
0 6</w>
are n</w>
si mil
No v
TE D</w>
L e
B ra
A T
ar s</w>
me t
H el
gu e</w>
car ried</w>
Al lah</w>
admin ist
buil ding</w>
l ad
c y
sle ep</w>
an e</w>
l ation</w>
ro ad</w>
1 ,
anim als</w>
p t</w>
S ure</w>
cap ac
norm al</w>
sti t
se x</w>
ri st
ap pe
U m</w>
any more</w>
gran ted</w>
tra v
u ght</w>
sp eak</w>
M e
c ro
im ports</w>
effec ts</w>
are as</w>
I II</w>
0 7</w>
tion ing</w>
L a
p ast</w>
O R</w>
progra mme</w>
pursu ant</w>
n ey</w>
anim al</w>
qu e</w>
l in
k en</w>
EE A</w>
I T
guar ant
blow job</w>
il i
l or
N E
ici ent</w>
gir ls</w>
nee ded</w>
g es</w>
co operation</w>
d ru
us h</w>
t elling</w>
I tal
cre dit</w>
e ed</w>
h our</w>
int ro
B i
tr an
ne ws</w>
char ac
F r
me d
F ir
in strum
pur pose</w>
M ic
w ar</w>
m id
ma sturb
exam ple</w>
T ur
s mo
us es</w>
intro duc
par ties</w>
addi tional</w>
ans wer</w>
ma ximum</w>
s end</w>
tur ned</w>
Y O
t ;</w>
ra di
wh atever</w>
b an
sec tor</w>
tion ed</w>
id es</w>
b all</w>
agre ement</w>
ir s</w>
se ts</w>
tech no
an ing</w>
EA N</w>
ar m</w>
w it
v a</w>
our nal</w>
ar ran
or ies</w>
Cour t</w>
log ical</w>
EU ROP
su per
fa il
off er</w>
ord ers</w>
priv ate</w>
c el
Gre at</w>
ha ir</w>
in ary</w>
res ult</w>
pur poses</w>
cr iter
sa ve</w>
al ong</w>
Mar ch</w>
nat ure</w>
loc al</w>
w ise</w>
char ge</w>
eg r
me work</w>
ar t
et te</w>
TH IS</w>
Tw o</w>
leg is
at ten
M e</w>
sec tion</w>
h otel</w>
bu y</w>
simil ar</w>
a ther</w>
m ist
sh ort</w>
d ang
l es
all s</w>
respon sible</w>
compan ies</w>
bel ow</w>
c us
EUROP EAN</w>
ex port</w>
tiv ely</w>
ren ch</w>
ab les</w>
mar ried</w>
on ic</w>
b re
Jes us</w>
ter ms</w>
f ish</w>
run ning</w>
masturb ation</w>
A S</w>
m er</w>
p rec
9 0</w>
sh are</w>
dri ve</w>
Artic les</w>
F rom</w>
t un
assess ment</w>
o a</w>
T ra
re turn</w>
Wh ich</w>
ill ed</w>
stand ard</w>
m embers</w>
ec tive</w>
diff ic
cur rent</w>
co st</w>
li ves</w>
c ateg
m ing</w>
8 0</w>
prom ise</w>
pri l</w>
re li
vehic le</w>
t es</w>
S y
o thers</w>
P h
c li
s ound</w>
An y</w>
b ers</w>
lo v
199 9</w>
en ed</w>
A pril</w>
proced ures</w>
pro ject</w>
s it</w>
investi gation</w>
201 5</w>
c y</w>
st ed</w>
ti n</w>
stu d
beli ev
speci fied</w>
le ad</w>
wh ite</w>
ph ot
ric ul
ch i
A p
g as</w>
t ect</w>
struc tion</w>
J ournal</w>
Off icial</w>
w ing</w>
d uty</w>
ee ding</w>
hi m
jec ts</w>
im medi
y a</w>
sig n</w>
S ept
c o</w>
ex per
re ly</w>
pay ment</w>
G e
Sept ember</w>
se par
h ey</w>
al ive</w>
ic s</w>
bas ic</w>
k in</w>
g ing</w>
won der
individ ual</w>
your s</w>
En gl
recei ved</w>
defin ed</w>
S ir</w>
capac ity</w>
pro ve</w>
tak es</w>
s ever
n ers</w>
en tr
jo y</w>
1 2.
d a
w ed
tain ed</w>
ing ly</w>
k a</w>
m outh</w>
p ack
ti z
se ems</w>
proble ms</w>
Joh n</w>
pers onal</w>
some body</w>
HA S</w>
tra ining</w>
pers ons</w>
ill s</w>
lar ge</w>
E D</w>
si ster</w>
inten ded</w>
en try</w>
gi ving</w>
ot s</w>
ques tions</w>
subm itted</w>
y er</w>
lo gi
g ent
201 6</w>
ex pres
p ter</w>
govern ment</w>
fi xed</w>
lan gu
On ly</w>
k ee
re search</w>
sp ace</w>
mar k</w>
paren ts</w>
bl on
cur ren
d le</w>
A T</w>
reg ar
l er</w>
R em
w in</w>
stu p
ear ly</w>
d ou
Th ose</w>
ther ap
ag ricul
add ress</w>
Fir st</w>
it ation</w>
cont ent</w>
pre ci
tr ouble</w>
list ed</w>
J e
issu e</w>
ag ed</w>
B u
do w
V ery</w>
Nov ember</w>
ol s</w>
lev els</w>
approv al</w>
co ol</w>
is ing</w>
for get</w>
a il</w>
ren g
fin al</w>
E ven</w>
op port
f ru
i stration</w>
W ould</w>
blon de</w>
low er</w>
en ted</w>
do g</w>
re pe
W ow</w>
it ure</w>
ta x</w>
l am
es si
feel ing</w>
ac y</w>
T i
a head</w>
str ateg
h ere
mul ti
s we
sp ir
es p
vi e
materi al</w>
him self</w>
fig ure</w>
criter ia</w>
er al</w>
0 4</w>
s er</w>
v ide
every body</w>
u n</w>
3 4</w>
mis s</w>
no v
invest ment</w>
val ues</w>
chang es</w>
9 .
ha ps</w>
D am
fol low</w>
M iss</w>
progra mm
par ts</w>
3 5</w>
a ut
fun ny</w>
chang ed</w>
Tu be</w>
do w</w>
8 .
f all</w>
experi ence</w>
tr a</w>
O p
vi ously</w>
E S
gg ing</w>
struc ture</w>
de l</w>
ec ts</w>
bo ys</w>
li k
H e
th anks</w>
str ong</w>
wor ked</w>
cho ice</w>
stup id</w>
id ent</w>
rel ating</w>
ec h
invol ved</w>
ev al
o k
ch em
st op
contin ue</w>
o il</w>
7 0</w>
perf ect</w>
ad ded</w>
hy dro
al low</w>
cal cul
cl ass</w>
vi ous</w>
sec on
comp u
l y
ot h</w>
la d</w>
pr ise</w>
ran ge</w>
ver se</w>
ra ther</w>
il ities</w>
K eep</w>
ta il</w>
cap ital</w>
app lied</w>
C I
for ward</w>
con fir
li ance</w>
on line</w>
Ch r
ver age</w>
in e
con trac
B el
co ff
vi a</w>
j usti
L u
3 2</w>
P RO
ar ri
p ick</w>
b ack
mo v
bo dies</w>
cl assi
reg ards</w>
M m</w>
A pp
es ome</w>
contain ing</w>
sur ance</w>
ad just
C or
mess age</w>
tic ally</w>
pl aying</w>
A S
ach ed</w>
Ch rist
h u
ne w
comp il
pres sure</w>
m it</w>
exc ept</w>
institu tions</w>
bo x</w>
loc ated</w>
st ep</w>
c ent</w>
L ea
anal ysis</w>
4 5</w>
F uck</w>
meas ure</w>
AD OP
am ong</w>
le aving</w>
pro tect</w>
YO U</w>
ri es</w>
st reng
ADOP TED</w>
N ice</w>
ou d</w>
w atch
know le
Amer ica</w>
er t</w>
at ter
G r
ut ting</w>
so f
Au thor
s ca
res er
3 3</w>
t el
din ner</w>
inter ested</w>
I N</w>
for c
produc ers</w>
b le
dec ided</w>
dis cus
col le
B ro
H on
Pe ople</w>
gir l
incre ased</w>
direc t</w>
or ity</w>
le t
ch es</w>
po p
hel d</w>
st er
W il
tis h</w>
fa ult</w>
e th
T V</w>
s li
addi tion</w>
effec tive</w>
I T</w>
comple te</w>
sig ned</w>
it ary</w>
pap er</w>
ann ual</w>
v ent</w>
as king</w>
res ources</w>
u l</w>
un k</w>
int egr
inclu ded</w>
. e
wa ste</w>
re r</w>
bit ch</w>
Br us
la w
sel s</w>
y ed</w>
ap po
represen ta
H old</w>
al ing</w>
certi fic
follow s</w>
mo vi
T S</w>
fre e
e duc
bi an</w>
hea ding</w>
se em</w>
contin u
l ing
Sp eci
ist er</w>
cri min
happen s</w>
T ran
approv ed</w>
s ou
fa ir</w>
pre gn
3 6</w>
fra mework</w>
stu dy</w>
7 5</w>
en s
ot ing</w>
pre par
mo ving</w>
-- --
tw are</w>
si ze</w>
U C
h id
b al</w>
in jec
av o
l a</w>
high er</w>
sever al</w>
a tic</w>
su gar</w>
ester day</w>
Brus sels</w>
b ye</w>
on er</w>
G ot</w>
enti re</w>
T a
Do es</w>
R I
itor ing</w>
re sid
ent al</w>
im ag
un d</w>
ra tive</w>
an a</w>
bud get</w>
compil ation</w>
poli tical</w>
SI ON</w>
im prov
mo ved</w>
s ick</w>
cust om
re d
ec han
M ad
signific ant</w>
ho w
ph ys
pr ac
s ort</w>
pi ece</w>
ex clu
er ous</w>
as su
pl ant</w>
e ful</w>
b b
k g</w>
fe et</w>
l ying</w>
form s</w>
In di
Ger many</w>
fish ing</w>
dest ro
sol ution</w>
hi story</w>
res sed</w>
f oc
activ ity</w>
le ts</w>
gh ting</w>
propos al</w>
ass es</w>
ar tic
un g</w>
em ale</w>
M or
R om
F rench</w>
Im ple
Cap tain</w>
co ld</w>
oper ating</w>
re ma
g ni
min imum</w>
r an</w>
y le</w>
ri ble</w>
c anc
k ings</w>
tou ch</w>
l ines</w>
il s</w>
S ha
Every thing</w>
girl friend</w>
Fr ance</w>
equ al</w>
e x</w>
bor n</w>
um p</w>
ad dy</w>
s tic
stand ards</w>
dis ease</w>
ev ent</w>
re aliz
0 2</w>
uc ky</w>
ic ity</w>
ver i
o s
cla im
inter nal</w>
B e</w>
J ack</w>
our ce</w>
b ank</w>
ca ref
agricul tural</w>
loc ation</w>
materi als</w>
b ar</w>
s or
e es</w>
us h
provid es</w>
D is
m em
ill ing</w>
A m
gh t
et h</w>
lear n</w>
Ger man</w>
ur o</w>
ci tiz
rela tion
F eb
e ye</w>
.... ....
competi tion</w>
D one</w>
in j
v ision</w>
dow n
ti s</w>
cum shot</w>
hol ding</w>
b in
D av
con c
mur der</w>
me at</w>
V E</w>
Feb ru
sta ff</w>
ha s
g en</w>
wor th</w>
Febru ary</w>
f la
supp ly</w>
ou se</w>
cle an</w>
it ory</w>
4 8</w>
h op
ag ree</w>
partic ul
re view</w>
publ ication</w>
br un
lik ely</w>
W in
k ept</w>
di st
any way</w>
mus ic</w>
wr ite</w>
Mr s.</w>
su gg
su mm
sus p
cer tain
u re
con clu
c ard</w>
S ince</w>
ac ross</w>
acc ep
4 3</w>
id s</w>
P ut</w>
M E</w>
t ely</w>
, 000</w>
che me</w>
H otel</w>
com pon
ch ed</w>
anc y</w>
in surance</w>
R i
lad y</w>
ag ue</w>
ne l</w>
ic er</w>
do l
x im
c ot
arran g
IS SION</w>
brun ette</w>
Par t</w>
con duc
XX X</w>
pro g
le men</w>
c ris
s em
re ported</w>
2 5
Cha pter</w>
B er
perform ance</w>
ti e</w>
ing dom</w>
dou b
co l</w>
rec or
it ting</w>
f le
cor por
coff ee</w>
issu ed</w>
t ext</w>
fer ence</w>
anc ed</w>
F ine</w>
mil k</w>
wh ose</w>
sh ouldn</w>
uc k
i ons</w>
M an</w>
RE G
W al
er a</w>
in ted</w>
st ain
vi ol
it or</w>
em er
j e
contr act</w>
desig ned</w>
cre ated</w>
T XXX</w>
COMM ISSION</w>
vis it</w>
mp tion</w>
U R
u red</w>
vol u
imp act</w>
d ly</w>
orig in</w>
a po
ir y</w>
un less</w>
car ry</w>
maj or</w>
of ten</w>
fel t</w>
m ember</w>
p h</w>
is on</w>
z a</w>
B ye</w>
allow ed</w>
0 3</w>
in ating</w>
O L
ci es</w>
P ri
c ross</w>
9 6</w>
Hel p</w>
A fr
t ory</w>
w ear</w>
fin ally</w>
Lo o
ro oms</w>
call ing</w>
R ec
re stric
tur ing</w>
E L
con sul
m echan
ca ught</w>
st age</w>
b on</w>
M il
pend iture</w>
der ed</w>
si a</w>
coun t</w>
sa tis
ap art
9 5</w>
spe ed</w>
UN I
sur vi
ir t</w>
oper ations</w>
a verage</w>
S a
b on
lim ited</w>
pot ential</w>
w elcome</w>
ni e</w>
w er
C al
G i
hosp ital</w>
clus ion</w>
immedi ately</w>
les bian</w>
docum ents</w>
organ is
bi o
D oc
num bers</w>
H ol
ta x
legis lation</w>
ent ation</w>
set t
li er</w>
D ev
c atch</w>
s y</w>
pr acti
admin istration</w>
part ment</w>
al ter
ver sion</w>
call s</w>
pati ent</w>
comple tely</w>
func tion</w>
pp ing</w>
Some thing</w>
res ol
flo or</w>
com for
them selves</w>
n or</w>
re t
E ar
ut ely</w>
organ isation</w>
U S</w>
Imple menting</w>
m l</w>
ac ts</w>
lo ad</w>
le tter</w>
ver s</w>
in ning</w>
ul ations</w>
ther wise</w>
M ore</w>
environ ment</w>
9 8</w>
stu dies</w>
esp eci
associ ated</w>
go ti
vehic les</w>
ar ing</w>
d a</w>
achi ev
r a</w>
therap y</w>
u g
l uck</w>
how ever</w>
am az
I V</w>
di stri
regi st
ex change</w>
so li
m ic
b et</w>
Ch in
s l
dec ide</w>
3 7</w>
see ing</w>
p ass</w>
ri c</w>
P or
off icial</w>
cir cum
sca red</w>
exp ected</w>
especi ally</w>
Ge or
sal es</w>
z z
qu ar
tre ated</w>
wr iting</w>
ba be</w>
g y
mon itoring</w>
stra ight</w>
ne g
determin ed</w>
A N</w>
cl in
sol utely</w>
C ould</w>
ere fore</w>
d ance</w>
W as</w>
Engl ish</w>
atten tion</w>
ter nal</w>
exist ing</w>
am ending</w>
K o
an ds</w>
secre t</w>
itt en</w>
compu ter</w>
AN NE
pic ture</w>
tu ally</w>
connec tion</w>
id el
ant i</w>
g lad</w>
reas ons</w>
ac ked</w>
o p</w>
men tioned</w>
to col</w>
s wee
lim it</w>
defin i
grou ps</w>
ec ting</w>
wo od</w>
loo ked</w>
speci es</w>
n ear</w>
th i
do ws</w>
gr at
s cheme</w>
sho ot</w>
any body</w>
f ying</w>
F i
mach ine</w>
v al</w>
mark ets</w>
b ly</w>
meth od</w>
mis sing</w>
r ates</w>
ex t
3 9</w>
ty pes</w>
med ical</w>
happen ing</w>
se a</w>
as tic</w>
ple as
sub paragraph</w>
publ ished</w>
S ar
ne goti
Inter net</w>
H un
19 8
sci enti
de tec
ro l
i ed</w>
prof essi
i v
ANNE X</w>
st ation</w>
ma d</w>
fun ds</w>
s ell</w>
ogra ph
An al
some times</w>
gran d
eg et
res h</w>
Sh ut</w>
programm es</w>
sub stances</w>
cor respon
it ch</w>
detail ed</w>
C ause</w>
it self</w>
le a
expl ain</w>
in ated</w>
ho to</w>
lo ss</w>
knowle dge</w>
ec k</w>
m as</w>
TE R</w>
S P
t ab
rec ord</w>
un it</w>
sk in</w>
N ever</w>
process ing</w>
ch all
T er
gl ass</w>
20 0</w>
Ch ina</w>
all ing</w>
ME N
Amer ican</w>
cust oms</w>
assi stance</w>
sof tware</w>
as sets</w>
pro jects</w>
Th erefore</w>
it ely</w>
reco gni
orig inal</w>
langu age</w>
f at</w>
commun ic
re ach</w>
co ord
comp liance</w>
grow th</w>
hon ey</w>
- I</w>
sh ut</w>
differ ence</w>
we ird</w>
docum ent</w>
o g
regi onal</w>
M ed
S tr
w at
dro p</w>
terr itory</w>
ex penditure</w>
c ell</w>
g ro
Ag ency</w>
simp le</w>
S i
ex pos
re ports</w>
9 1</w>
d ress</w>
d ear</w>
E very</w>
ser ved</w>
pers on
A le
st ore</w>
cen ter</w>
S im
d ated</w>
exp lo
ear th</w>
eri e</w>
net work</w>
gre ater</w>
ear ing</w>
re p
fo ot
l aying</w>
R ob
E con
itch en</w>
s ex
ba g</w>
fic ations</w>
trans fer</w>
bin ding</w>
comm er
D u
pro mis
vers ity</w>
iz ed</w>
p un
S ection</w>
un ities</w>
fru it</w>
9 2</w>
sub stance</w>
fi gu
con centr
el ess</w>
stit ute</w>
incre as
To day</w>
4 9</w>
en se</w>
cas h</w>
Econ om
cour t</w>
S ub
am end
as on</w>
administ rative</w>
Chin ese</w>
N O
Author ity</w>
Dam n</w>
H er</w>
diffic ult</w>
produc ed</w>
ro le</w>
w ine</w>
mo di
author isation</w>
contro l
10 .
r ound</w>
s mar
vari ous</w>
C an
2 ,
ac ting</w>
em y</w>
to wards</w>
4 2</w>
es tim
wor se</w>
ch ing</w>
Wi th
Th e
sol o</w>
star ting</w>
adv ant
form ed</w>
issu es</w>
St ay</w>
A re
ob s</w>
ef for
s even</w>
wer en</w>
ba th
author ised</w>
g ger</w>
le ar</w>
M c
f requ
ob lig
ro r</w>
instrum ents</w>
relation ship</w>
brea k
noti ce</w>
pres s</w>
ar r
thou s
Inter national</w>
sp ea
benef it</w>
cris is</w>
S ta
some where</w>
M al
lo ad
condi tion</w>
am a</w>
e ight</w>
B a
in sul
imple menting</w>
me ant</w>
manufac tu
A U
M ake</w>
stoc k</w>
lan ds</w>
L E</w>
vide o</w>
5 5</w>
A P
op s</w>
i ther</w>
S ay</w>
lo ved</w>
inde pend
A t
on g
ne igh
em o
ri de</w>
B ank</w>
desig n</w>
consi der</w>
ho od</w>
M at
F e
c ute</w>
ha el</w>
li qu
applic ations</w>
G rou
C am
gi ble</w>
practi ce</w>
ari an</w>
mo der
employ ment</w>
N a
w ide</w>
ul l</w>
mo del</w>
dem on
it able</w>
charac ter
UL ATION</w>
stoc kings</w>
regi on</w>
fe ed</w>
m ir
tra in</w>
du ties</w>
u d</w>
v eget
dr in
9 3</w>
c lim
C H
m ot
swe et</w>
vi l</w>
em ed</w>
as m</w>
4 7</w>
le ment</w>
bea uty</w>
consu mption</w>
f illed</w>
att ack</w>
pur cha
tem per
t in
0 9</w>
t ation</w>
st ant</w>
m oun
stre et</w>
3 8</w>
it ors</w>
environ mental</w>
techno logy</w>
or k</w>
Sh it</w>
Wh oa</w>
G ar
f ing
sub si
S ch
1 1.
ex erc
be at</w>
actu al</w>
REG ULATION</w>
ti l
amaz ing</w>
cle arly</w>
dang erous</w>
b s</w>
H i
T om
kid ding</w>
respon se</w>
5 9</w>
Th ree</w>
ac id</w>
dra w</w>
me aning</w>
al ed</w>
regar ding</w>
Rus sian</w>
EC B</w>
D I
J er
play ed</w>
h a</w>
v y</w>
des er
fil m</w>
t al</w>
e tr
K ingdom</w>
educ ation</w>
f ear</w>
C entr
Ac tually</w>
s ounds</w>
appro ach</w>
d ry</w>
exc ep
ac her</w>
dre am</w>
A I
E F
R a
k in
sta irs</w>
b us</w>
ac ks</w>
com mod
progra m</w>
g ency</w>
prov ision</w>
posi tive</w>
win dow</w>
ag ing</w>
p sy
po or</w>
4 4</w>
inst ead</w>
L I
r ying</w>
wed ding</w>
sta tis
dec isions</w>
t ests</w>
vo ice</w>
ap preci
da ily</w>
indic ated</w>
pos t</w>
D es
agre ed</w>
objec tives</w>
bal ance</w>
H er
suff icient</w>
m ass
clo th
e ding</w>
i er</w>
tot ally</w>
se at</w>
correc t</w>
dum ping</w>
S outh</w>
colle ge</w>
particul arly</w>
exc eeding</w>
B et
e uro</w>
us ually</w>
oun ded</w>
un ds</w>
bo ss</w>
im m
6 5</w>
opport unity</w>
z ed</w>
shi ps</w>
Wh atever</w>
mark eting</w>
d ea
movi e</w>
F OR</w>
Au g
cre ate</w>
injec tion</w>
exp ect</w>
b ase</w>
trav el</w>
E d
e ous</w>
sig n
pre pared</w>
ON S</w>
qu ali
i um</w>
ick ly</w>
Christ mas</w>
re main</w>
ur ch</w>
t ex
citiz ens</w>
S am</w>
stat us</w>
r o</w>
t een</w>
ri d</w>
l ucky</w>
G ra
categ ory</w>
pe ace</w>
iz e</w>
p age</w>
aut om
fin ancing</w>
S am
u le</w>
ti al</w>
Econom ic</w>
V al
proper ty</w>
F ather</w>
no te</w>
secon ds</w>
ling erie</w>
hand le</w>
wa ke</w>
gent lemen</w>
ent y</w>
anal y
e .
k itchen</w>
g .</w>
mid dle</w>
l u
beg inning</w>
O b
guarant ee</w>
wr itten</w>
Dav id</w>
An n
ven ess</w>
L O
contri bution</w>
5 4</w>
st ep
pp er</w>
rel ation</w>
e br
Jo int</w>
9 9</w>
s h</w>
Some one</w>
ob tained</w>
ca m</w>
5 1</w>
com par
ach ing</w>
bath room</w>
it es</w>
co m</w>
in o</w>
g t;</w>
& gt;</w>
cri me</w>
tar get</w>
sp end</w>
Pro duc
fil es</w>
sit ting</w>
5 8</w>
Centr al</w>
pri or</w>
an tly</w>
ti red</w>
F ri
n u
li ghts</w>
be half</w>
volu me</w>
arrang ements</w>
Mic hael</w>
ar ms</w>
ar ies</w>
am e
pul l</w>
equi val
v ote</w>
ist s</w>
adop t</w>
Grou p</w>
D el
on ed</w>
g a
Y ork</w>
f resh</w>
g ate</w>
H en
ph s</w>
to ys</w>
inst all
ev ents</w>
w all</w>
Ab out</w>
pl ans</w>
princi ple</w>
b om
am s</w>
su stain
b order</w>
T ot
is tics</w>
an ish</w>
mis sed</w>
mist ake</w>
in s
meth ods</w>
ess es</w>
s ale</w>
part ner</w>
at ures</w>
descri bed</w>
z er
6 8</w>
wor ried</w>
a x
re ven
comm it
dri ving</w>
watch ing</w>
E N</w>
apart ment</w>
T R
respon sibility</w>
centr al</w>
N ext</w>
TI ES</w>
Aug ust</w>
f it</w>
F ur
ar ti
bra in</w>
No body</w>
dec lar
sh own</w>
inter esting</w>
idel ines</w>
af ter
th us</w>
2 8
ref l
s ource</w>
no body</w>
ex ec
clo sed</w>
ch lor
desig n
oblig ations</w>
thin ks</w>
Ac cor
con struction</w>
B en
fac ial</w>
D en
ma il</w>
gi ves</w>
di tional</w>
in sp
go d</w>
dar k</w>
stor age</w>
ob li
Chr ist</w>
t i</w>
4 6</w>
att le</w>
acc ounts</w>
C ro
cho ose</w>
d y
pol y
Tran s
org asm</w>
di um</w>
v il
fin ished</w>
E ach</w>
in form</w>
CO N
commer cial</w>
h mm</w>
A G
e k</w>
oc k</w>
th row</w>
an ia</w>
f low
c ulation</w>
plan e</w>
V er
in flu
M us
comp ly</w>
ri age</w>
i di
for d</w>
sp a
se l</w>
ev ening</w>
commun ication</w>
requi re</w>
Accor ding</w>
bir th
pen etr
sp ent</w>
certain ly</w>
p ra
mil itary</w>
H mm</w>
professi onal</w>
tal ked</w>
mat ters</w>
M er
noti fied</w>
ex pen
reduc tion</w>
w il
Pro tocol</w>
An g
en a</w>
o therwise</w>
l in</w>
acc ident</w>
5 00</w>
ing ing</w>
Char lie</w>
detail s</w>
ess els</w>
econom y</w>
ti m</w>
an der</w>
ag s</w>
Go vern
certific ate</w>
eng ine</w>
un its</w>
ag ement</w>
bro ke</w>
es cap
sho p</w>
ri g
sle ep
w ed</w>
simp ly</w>
I r
pregn ant</w>
pl us</w>
al o
tra ff
s is</w>
bec ame</w>
ep h
sy n
P i
d on
bo at</w>
pre vent</w>
do gging</w>
s en</w>
defin itely</w>
E X
de ep
neg ative</w>
sc ope</w>
bro ken</w>
Pe ter</w>
han g</w>
app ear</w>
buil t</w>
circum stances</w>
as ks</w>
read ing</w>
h ot
es tic</w>
Rem ember</w>
strateg y</w>
p ha
any where</w>
Every one</w>
F ol
en joy</w>
succ ess
de p
fin ish</w>
aw are</w>
fi x</w>
ess ential</w>
wh om</w>
as p
v an</w>
comb ination</w>
d in</w>
pre vious</w>
v essels</w>
M ag
iz ation</w>
Sp anish</w>
B ul
ru le</w>
S uch</w>
j u
avo id</w>
au l</w>
com pati
Be fore</w>
H uh</w>
ici ency</w>
n ames</w>
On ce</w>
prog ress</w>
ur ation</w>
acc oun
st ers</w>
D r
th reat
po ol</w>
4 1</w>
ter min
B ur
plac es</w>
201 7</w>
la dies</w>
c k
op ened</w>
bo y
am ounts</w>
acc ept</w>
8 7</w>
sur prise</w>
C hi
au di
ev il</w>
9 4</w>
ph arm
5 2</w>
al th</w>
show s</w>
bl ue</w>
dev ice</w>
de ep</w>
pro posed</w>
ri al</w>
contain s</w>
lau gh
un to</w>
set ting</w>
men ted</w>
quanti ties</w>
recomm ended</w>
dru g</w>
s ev
Doc tor</w>
sta ur
pro por
agre ements</w>
sto od</w>
T om</w>
re staur
R ic
Wor ld</w>
Loo ks</w>
H y
Is n</w>
d il
S ho
t an
G H
ill a</w>
got ten</w>
clu b</w>
H ouse</w>
institu tion</w>
5 6</w>
web cam</w>
con sequ
glo bal</w>
C all</w>
&apos; am</w>
S at
Po ints</w>
y ond</w>
il ing</w>
er ies</w>
follow ed</w>
jo in</w>
objec tive</w>
S al
tak ings</w>
at est</w>
princi ples</w>
Ital y</w>
establ ish</w>
mass age</w>
tr u
so ld</w>
caref ul</w>
hea d
reco gn
cra ft</w>
tr ack</w>
v ot
over all</w>
out door</w>
stop ped</w>
r ich</w>
is si
2 7
re ality</w>
t at
hou se
be ach</w>
D ar
sy m
appro xim
Ch eck</w>
pris on</w>
I R
Mi ke</w>
op ening</w>
bec om
Ear th</w>
ra phs</w>
ish ing</w>
N G</w>
fore ign</w>
L is
L uc
5 7</w>
bus y</w>
ell a</w>
requ ested</w>
provid ing</w>
gre en</w>
g ment</w>
W elcome</w>
un t</w>
l ess
stat ement</w>
ans w
soci ety</w>
si ght</w>
qu ickly</w>
iz z
reg ular</w>
exclu ding</w>
tem por
B un
reduc ed</w>
f light</w>
A B
Mo ve</w>
representa tive</w>
5 3</w>
g un
m es</w>
uni form</w>
Ser v
polic ies</w>
ri ding</w>
N ational</w>
9 7</w>
ni a</w>
C y
under taking</w>
x ing</w>
won der</w>
sur face</w>
R ead</w>
Op en</w>
pen sion</w>
applic ant</w>
n one</w>
ter rible</w>
wee k
air port</w>
sh or
A sian</w>
mach ines</w>
p re</w>
Comm on</w>
m al
demon str
b ought</w>
stic k</w>
kill er</w>
te acher</w>
lim its</w>
el ements</w>
ten der</w>
produc er</w>
under takings</w>
K ing</w>
sen si
um ber</w>
hu ge</w>
er o
cont ext</w>
smar t</w>
ell ent</w>
electr onic</w>
&apos; Cause</w>
vie ws</w>
T able</w>
birth day</w>
w id
cel ebr
s n
for tun
Geor ge</w>
n ur
pay ments</w>
recei ve</w>
pic tures</w>
p il
clin ical</w>
P L
tri p</w>
sa ved</w>
oc c
cloth es</w>
D an</w>
R el
fore ver</w>
Fran k</w>
m ary</w>
enter ed</w>
di g
s wal
tiv ity</w>
dra wn</w>
st eel</w>
m itted</w>
conclu ded</w>
qu ick</w>
equival ent</w>
I M
pl at
T it
con v
inter ests</w>
m ut
ser ve</w>
ma p</w>
Ti me</w>
10 10</w>
fi ghting</w>
S m
ex ternal</w>
fo ot</w>
identi fied</w>
ex tra</w>
kill ing</w>
fer red</w>
eval uation</w>
m ate</w>
Lea ve</w>
reas on
to m</w>
ess ed</w>
regist ered</w>
compon ents</w>
ch ea
ad equ
ca used</w>
re lease</w>
coun ter
ell ed</w>
buil d</w>
em ia</w>
B al
Wi en</w>
par k</w>
pl ic
pharm ac
2 6
w earing</w>
tri c</w>
exten sion</w>
re ty</w>
re al
O U
oun d
Every body</w>
fu el</w>
ho le</w>
pon s</w>
a tives</w>
ser ies</w>
y esterday</w>
H ea
mic ro
P a
bud dy</w>
ach es</w>
ex emp
comp ens
qui et</w>
ris ks</w>
show ed</w>
pa ir</w>
en cies</w>
be yond</w>
doub t</w>
C ity</w>
stud ent</w>
oun c
k is
st ar</w>
enti rety</w>
hid den</w>
dom estic</w>
off ers</w>
parag raphs</w>
di r
L ast</w>
dam age</w>
h i</w>
he at</w>
subm it</w>
contrac ts</w>
to x
ad ap
commod ation</w>
e u
f ell</w>
I P</w>
spo t</w>
separ ate</w>
Sec urity</w>
expos ure</w>
wonder ful</w>
temper ature</w>
organis ations</w>
Speci al</w>
L on
in fra
penetr ation</w>
us ers</w>
sou l</w>
ac qu
p hi
calcul ated</w>
Ac c
wor st</w>
la ws</w>
id ity</w>
sur g
deb t</w>
b ear</w>
kee ping</w>
sw ear</w>
beg in</w>
re porting</w>
b la
Ma j
Dev elop
su d
adv ice</w>
l t;</w>
& lt;</w>
no on</w>
3 00</w>
sch ed
o v
consi st
Jo e</w>
imag ine</w>
mo tion</w>
7 2</w>
Th ink</w>
deli ver
Per haps</w>
tur ns</w>
develop ed</w>
al co
phys ical</w>
orig inating</w>
z one</w>
pos si
sc ene</w>
wor kers</w>
manufactu rer</w>
s la
f rea
sy mp
has n</w>
f ly</w>
com pared</w>
ph en
p al</w>
S ur
pow ers</w>
P R
D addy</w>
.e .</w>
Fun c
Sh ould</w>
ri a</w>
cla im</w>
us ion</w>
e. g.</w>
am ing</w>
J ud
z en</w>
pr oud</w>
establish ment</w>
A M
i or</w>
boo ks</w>
sam ple</w>
plan ts</w>
t ari
em ade</w>
dru gs</w>
n es</w>
ha m
k i</w>
Fin ancial</w>
In de
m ass</w>
is sions</w>
l eng
off icer</w>
regi ons</w>
g in</w>
ac king</w>
pro of</w>
show er</w>
medic inal</w>
en ger</w>
Mo st</w>
i .e.</w>
E r
j our
ff s</w>
accord ingly</w>
dem oc
cre w</w>
&apos; S</w>
A m</w>
f ro
b ing</w>
8 5</w>
D id
pack age</w>
Tot al</w>
e an</w>
Par ty</w>
h en
7 1</w>
a i</w>
J usti
am pi
emer gency</w>
go ld</w>
a k</w>
T y
pos sibility</w>
inde ed</w>
Con vention</w>
boy friend</w>
es ides</w>
R y
al ia</w>
im prove</w>
in nov
Ital ian</w>
n uc
s ong</w>
P AR
jo int</w>
oper ate</w>
us ual</w>
hom emade</w>
oper ator</w>
phot os</w>
ne ither</w>
C E</w>
insul in</w>
O oh</w>
enti ty</w>
ag ent</w>
G ran
Par ties</w>
tw ice</w>
v ac
g as
s pl
ve ill
lo t
z ing</w>
M ex
w el
b ute</w>
thro at</w>
vic tim</w>
veill ance</w>
loc ked</w>
ea red</w>
Bi g</w>
Bel gi
mov ement</w>
curren tly</w>
ner ship</w>
d i</w>
T ech
f arm
wal king</w>
pre jud
W atch</w>
reduc e</w>
in struc
prov isi
x i
ea dy</w>
con tain</w>
advant age</w>
et c</w>
p hoto</w>
Direc tor</w>
B ud
foc us</w>
realiz e</w>
appreci ate</w>
IS I
tre at</w>
met al</w>
bir th</w>
ra ti
O per
ti ght</w>
form er</w>
ser i
H um
a im
Sy st
hand job</w>
c at
enc our
W o
rac ial</w>
dri ver</w>
t esting</w>
connec ted</w>
eli gible</w>
r ace</w>
benef its</w>
pa in
ain ed</w>
deter mine</w>
G O
as y</w>
il li
- You</w>
fail ure</w>
chec ks</w>
plan ning</w>
sit u
D et
P al
lar g
promis ed</w>
m ers</w>
pres cri
pop ulation</w>
bel on
Co de</w>
or i
H ur
B ack</w>
6 6</w>
d red</w>
achi eve</w>
con ver
in corpor
Ma x</w>
mil es</w>
hy po
gh out</w>
su n</w>
Fun d</w>
scienti fic</w>
M ary</w>
proc ee
l unch</w>
cur red</w>
cro s
inclu des</w>
In formation</w>
re v
t oms</w>
dem and</w>
re ci
car s</w>
pass ed</w>
ear lier</w>
S cot
N A</w>
ma inten
in ate</w>
pres ented</w>
recomm end
enti t
web site</w>
st ly</w>
s un
b anks</w>
p utting</w>
mainten ance</w>
free dom</w>
be ha
an k
Afr ica</w>
na tion
ex porting</w>
lat est</w>
E T</w>
noti fication</w>
gr ant</w>
J ames</w>
character istics</w>
v es
custom ers</w>
fav or
gl y
de pen
trans mission</w>
im pres
sig ns</w>
sup pose</w>
Is ra
gu il
7 7</w>
ad a</w>
descri ption</w>
F re
b loo
Some times</w>
P aul</w>
Any thing</w>
a x</w>
D ay</w>
Develop ment</w>
quanti ty</w>
B en</w>
comfor table</w>
Any way</w>
Bo ard</w>
S how</w>
UNI TIES</w>
ro ll</w>
sh emale</w>
um n</w>
per haps</w>
hon est</w>
Off ice</w>
ha m</w>
O k</w>
.. ..</w>
radi o</w>
rec ent</w>
oper ational</w>
is es</w>
bil lion</w>
artic les</w>
Did n</w>
au th
char ges</w>
t ree</w>
f alling</w>
thre esome</w>
rel and</w>
St ar
oper ators</w>
3 ,
co p</w>
pro hi
o logical</w>
nam ed</w>
ro te</w>
pris es</w>
C N</w>
Hi gh</w>
Rus sia</w>
COMM UNITIES</w>
Bri tish</w>
S un
prac tic
alco ho
con ven
b low</w>
di stance</w>
eff icient</w>
distri bution</w>
ig n
I .
ci vil</w>
ta tions</w>
l ay</w>
B ab
Hun g
ti veness</w>
O ver</w>
recor ds</w>
co o
con stitu
TI C
cent re</w>
With out</w>
fe els</w>
- What</w>
exc eed</w>
ab ilities</w>
D EC
ex tent</w>
ma ster</w>
cli ent</w>
summ er</w>
step s</w>
h ide</w>
N umber</w>
t our
r ise</w>
adop tion</w>
Jo se
I reland</w>
na tive</w>
independ ent</w>
be d
Par is</w>
dr unk</w>
li ver</w>
x es</w>
R ev
comm ents</w>
D UC
sk y</w>
ti an</w>
sci ence</w>
v ous</w>
men tion</w>
en ge</w>
r ub
h es
hel ping</w>
neigh b
e y
con form
fri end
ve ter
ra ise</w>
vis ory</w>
traff ic</w>
gi e</w>
ure ment</w>
w rote</w>
streng th</w>
direc tion</w>
re ached</w>
ess or</w>
chem ical</w>
S U
i red</w>
go d
ke ys</w>
as c
P O
terr or
inter racial</w>
prejud ice</w>
T el</w>
k iss</w>
por ter</w>
p al
Hen ry</w>
Pr ague</w>
pow er
for got</w>
du de</w>
S till</w>
n es
c ells</w>
control led</w>
sa d</w>
T al
en h
ra tions</w>
em issions</w>
8 4</w>
sm ell</w>
n it
ab solutely</w>
gi ft</w>
de pos
con struc
appo inted</w>
P en
fac ilities</w>
hun dred</w>
S pain</w>
i p</w>
enc ed</w>
8 8</w>
sol di
z es</w>
an ding</w>
s a</w>
t op
str ange</w>
il it
T ri
M y
f low</w>
U se</w>
I L
im possible</w>
tr uck</w>
v ill
T ry</w>
tran si
p at
Ju li
throu ghout</w>
wea pons</w>
u tions</w>
ul ture</w>
investi g
b ran
R ed</w>
li ved</w>
high ly</w>
m ess</w>
wh o
ch urch</w>
cam era</w>
6 7</w>
Wh ile</w>
C F
lo s
st y</w>
Func tioning</w>
il ly</w>
hear ing</w>
plan et</w>
re si
F ree</w>
exc use</w>
coll ection</w>
A no
A .
s ent
sh e
here by</w>
ar ch
MEN T</w>
har mon
pres ence</w>
law yer</w>
sleep ing</w>
ind a</w>
H ome</w>
t ary</w>
is tic</w>
AT E</w>
W H
cop y</w>
n ine</w>
ear ch</w>
g um
e ating</w>
inj ury</w>
su it</w>
Mr s</w>
tion ary</w>
benef ici
tran spa
ref und</w>
Lon don</w>
por ters</w>
st one</w>
our selves</w>
Man agement</w>
g ri
exerc ise</w>
Anal din</w>
amend ments</w>
off ici
ad d</w>
N C
n om
correspon ding</w>
ro ck</w>
mat ch</w>
F l
symp toms</w>
ar ance</w>
ob served</w>
d ates</w>
sa ke</w>
od bye</w>
8 2</w>
r y
Un der
ang er</w>
us er</w>
Win dows</w>
dis p
aff ect</w>
m ac
Joh n
Fin ally</w>
S lov
N A
in formed</w>
regul ations</w>
S k
accep ted</w>
t ol
Nor th</w>
2 4
ul ous</w>
f ab
p ack</w>
ca re
C HA
enti ties</w>
tain ing</w>
s ac
J en
at trac
veget ables</w>
k m</w>
comple ted</w>
S ol
ra w</w>
cop s</w>
C er
beha vi
e ut
B as
ar re
cal m</w>
K ar
d ying</w>
6 1</w>
lead ing</w>
7 8</w>
Min ister</w>
. com</w>
im my</w>
tat too</w>
hor se</w>
el op</w>
expres sed</w>
i i</w>
sub stan
air s</w>
it ems</w>
nuc lear</w>
ac commodation</w>
medic ine</w>
w ind</w>
ec es</w>
ta ste</w>
Por tu
resol ution</w>
chea p</w>
lo ves</w>
declar ation</w>
Pro gra
cl es</w>
pl as
li kes</w>
fir m</w>
al ty</w>
ang le</w>
off ered</w>
pro per</w>
fl ic
A .</w>
eval u
z o
a c</w>
Ano ther</w>
indust rial</w>
j obs</w>
seri ously</w>
restaur ant</w>
in ser
import ance</w>
e a</w>
logi es</w>
medi a</w>
sc ri
Comm issi
leng th</w>
C re
uc ks</w>
6 9</w>
ust ed</w>
3 0
ti le</w>
g row</w>
H a
re le
break fast</w>
canc er</w>
T A</w>
D ate</w>
Bun ker</w>
fac tors</w>
dra ft</w>
figu red</w>
t ough</w>
confir med</w>
p are</w>
lear ned</w>
swal low</w>
hol der</w>
li ked</w>
s ession</w>
p a</w>
fun ding</w>
resul ting</w>
M other</w>
concer n</w>
---- ----
do gs</w>
Ag ent</w>
bi tion</w>
infra structure</w>
tur ning</w>
initi al</w>
tain s</w>
wea pon</w>
wor k
spir it</w>
reg ulation</w>
chec ked</w>
ag ency</w>
approxim ately</w>
requi res</w>
car rying</w>
c ru
add ressed</w>
dev elop</w>
mar ry</w>
A ir
6 4</w>
el ds</w>
h ang
le ep</w>
pleas ure</w>
ic ked</w>
S up
te a</w>
pl ate</w>
Pro f
J izz
in come</w>
cap able</w>
Jizz Bunker</w>
CO UN
fav our</w>
aff ected</w>
S P</w>
s low</w>
obli gation</w>
PRO DUC
lic ence</w>
F F
g an
ch ick
A ust
re struc
ang ry</w>
instrum ent</w>
ag ents</w>
thous and</w>
s at
M AR
hot els</w>
m and
fac ilit
dis orders</w>
ex ist</w>
mar riage</w>
dev ices</w>
bro ad
ici ous</w>
in y</w>
prof it</w>
int el
su itable</w>
on a</w>
H or
th o
allow s</w>
wonder ing</w>
J ack
ord inary</w>
clim ate</w>
fam ous</w>
plan ned</w>
reco very</w>
be er</w>
procee dings</w>
w w
st uck</w>
mem ory</w>
is land</w>
tri al</w>
per cent
achiev ed</w>
6 2</w>
ist ry</w>
a ster</w>
sub sequ
ti tu
St re
Pro c
pr ised</w>
protec ted</w>
f our
sel ling</w>
s ources</w>
der ing</w>
loc ks</w>
comm unity</w>
hea ds</w>
As soci
main tain</w>
on ing</w>
7 3</w>
el im
di men
contri bu
medi um</w>
A ir</w>
S A</w>
att emp
di ble</w>
Wh ite</w>
w illing</w>
destro y</w>
hy per
est er</w>
contain ed</w>
eut en
at o
8 9</w>
in no
hel ped</w>
jec ted</w>
cra p</w>
no tes</w>
I D
k ra
bi e</w>
ab or
we igh
In v
favor ite</w>
re ve
fav or</w>
Al though</w>
col or</w>
S .</w>
Ac t</w>
fa ith</w>
g al</w>
K en
et ings</w>
forc ed</w>
an o</w>
f ill</w>
air craft</w>
and a</w>
up set</w>
deb ate</w>
lov ely</w>
wat ers</w>
S it</w>
continu ed</w>
sec ur
Fo od</w>
provisi onal</w>
pres er
C as
st ates</w>
categ ories</w>
H im</w>
v acc
re new
trans actions</w>
7 9</w>
con clusion</w>
after noon</w>
a vi
di o</w>
b ile</w>
crimin al</w>
hun g
k o</w>
C ur
us eful</w>
perform ed</w>
fac ts</w>
d at
regi stration</w>
m el
ob viously</w>
part ners</w>
tempor ary</w>
intel lig
del eg
de g
P at
tab lets</w>
car ds</w>
p is
eff iciency</w>
199 8</w>
imple mented</w>
produc e</w>
a im</w>
TH AT</w>
di ag
tr act</w>
sc ale</w>
l and
sh ar
ar my</w>
U p</w>
di tion</w>
Ho ly</w>
t each</w>
regul atory</w>
no tic
Wh o
it em</w>
euten ant</w>
TI ON</w>
Govern ment</w>
sev ere</w>
ic ks</w>
P et
TI NG</w>
7 4</w>
on to</w>
ist an</w>
ves sel</w>
deli very</w>
grow ing</w>
stric t</w>
develop ing</w>
recei ving</w>
l ack</w>
C la
stud ents</w>
success ful</w>
So cial</w>
fin ding</w>
sec ure</w>
restruc turing</w>
im age</w>
tari ff</w>
particip ation</w>
ab s
app lies</w>
claim s</w>
grat ulations</w>
bot tom</w>
go ver
o we</w>
hung ry</w>
pr int</w>
F ive</w>
b es</w>
an ci
lo sing</w>
idi ot</w>
conform ity</w>
bot tle</w>
concer ns</w>
Hon ey</w>
appe ars</w>
sid ers</w>
J i
pri mary</w>
fl ying</w>
fi b
dis h</w>
exam ination</w>
ar rest</w>
Ale x</w>
N ame</w>
Some body</w>
car bon</w>
resp ec
di a</w>
spea king</w>
rec ently</w>
app eared</w>
on el</w>
To o</w>
justi ce</w>
sustain able</w>
Y ep</w>
Indi a</w>
rema ins</w>
ig r
reli gi
cre am</w>
adequ ate</w>
Lo ve</w>
wit ness</w>
k ni
7 6</w>
ra ised</w>
ter y</w>
S O
inv ited</w>
8 1</w>
p ush</w>
v ation</w>
appl ying</w>
T our
a .
C ent
L ou
ther more</w>
lar s</w>
sit es</w>
nec k</w>
op h
p ath</w>
H an
F ind</w>
ad s</w>
S il
sur ing</w>
man ner</w>
scre en</w>
or al</w>
contro ls</w>
N i
dra w
jud ge</w>
pre sident</w>
per man
bri dge</w>
Isra el</w>
Ch e
ther n</w>
fortun ately</w>
Z o
lea ves</w>
l ink</w>
st aying</w>
fe tish</w>
sho es</w>
Pol and</w>
Dan i
sam pl
El ec
app y</w>
inter vention</w>
st yle</w>
bi gger</w>
hol ders</w>
drin king</w>
et ary</w>
Hur ry</w>
u tive</w>
j ail</w>
frequ ency</w>
A ud
mag ic</w>
g ay</w>
ap art</w>
ra in</w>
sur veillance</w>
sig nal</w>
eas ily</w>
ar gum
cha ir</w>
v o</w>
O ut</w>
M A
identi fication</w>
e ted</w>
Justi ce</w>
sec tors</w>
CHA P
ic ide</w>
hi stor
op tion</w>
wh oa</w>
jo ke</w>
list ening</w>
fail ed</w>
ri er</w>
sha ving</w>
bil ities</w>
F OR
li f
c a</w>
le g</w>
clo ser</w>
Ex actly</w>
p aying</w>
CHAP TER</w>
low ing</w>
p y
F ac
d ating</w>
moder n</w>
lo an</w>
E li
lead er</w>
b unch</w>
al ised</w>
th in</w>
gl asses</w>
reason able</w>
P S</w>
ne ed
Inde ed</w>
rac y</w>
ri ver</w>
H O
c ast</w>
speci ally</w>
0 000</w>
pi eces</w>
j er
re over</w>
A gr
mo bile</w>
en emy</w>
n on
power ful</w>
lo ts</w>
maj ority</w>
em al
sc en
b un
S eri
H al
uc e</w>
ex clus
gra de</w>
electr icity</w>
phi c</w>
S en
E D
sel y</w>
c ab
c m</w>
men d
e tic</w>
ap s</w>
R u
j un
gh tly</w>
comm and</w>
it a</w>
compati ble</w>
ic h
de tail</w>
escap e</w>
cer e
diffic ul
Jan e</w>
har d
comple x</w>
pic ked</w>
for give</w>
Ch ris
h h</w>
th ou</w>
Syst em</w>
L ar
ru p
to ols</w>
en able</w>
hea vy</w>
la va</w>
L au
P har
indic ate</w>
require ment</w>
L eg
D uring</w>
feel ings</w>
N at
b lock</w>
de al
comm ittee</w>
G ames</w>
bur n</w>
t asks</w>
Gu ys</w>
gu idelines</w>
eas ier</w>
lic ences</w>
manag ed</w>
percent age</w>
p atter
ur a</w>
acc ur
surg ery</w>
c at</w>
fi red</w>
St and
under standing</w>
6 3</w>
B E</w>
fl at</w>
Com p
sel ected</w>
i on
p ig
ash ing</w>
st able</w>
war m</w>
il et</w>
Ch il
prom ote</w>
ay ed</w>
V ic
F er
sk in
insp ection</w>
Ap pro
deliver ed</w>
al though</w>
chall enge</w>
emp ty</w>
en jo
compl ic
........ ........
negoti ations</w>
M ac
Jose ph</w>
bla me</w>
J immy</w>
G ir
S af
s on
fac tor</w>
ba st
as sh
er ation</w>
br inging</w>
He alth</w>
purcha se</w>
Bl ack</w>
cent ury</w>
ac ted</w>
ton nes</w>
2 3
M B
c ore</w>
concentr ation</w>
se ason</w>
201 8</w>
ing ton</w>
K a
ic o</w>
Det ective</w>
quot a</w>
Har ry</w>
ext rem
as hi
m ol
B oth</w>
adv ance</w>
deg ree</w>
oc cas
dam ental</w>
mar ks</w>
S C</w>
d ged</w>
su b</w>
L oc
en suring</w>
hon or</w>
hop ing</w>
C ra
e um</w>
cy cle</w>
B rea
M ul
B I</w>
effor ts</w>
tim ate</w>
1 50</w>
ha iry</w>
consu mer</w>
S we
c ut
G l
Dan ny</w>
con siders</w>
cl ick</w>
stri p</w>
pri ority</w>
ay er</w>
adjust ment</w>
hur ry</w>
E m
inv itation</w>
the tic</w>
pop ular</w>
her self</w>
abs ence</w>
eng ers</w>
nu ts</w>
lab or
bl ing</w>
bast ard</w>
vol un
defini tion</w>
fur n
sp read</w>
em ic</w>
pro p
j ack
succ ess</w>
leg s</w>
ess ing</w>
Ko re
week end</w>
b ad
sur prised</w>
fo ol</w>
co des</w>
C lar
dol lars</w>
exc ellent</w>
ISI ON</w>
F ile</w>
dang er</w>
jud gment</w>
lin ked</w>
dir ty</w>
rou gh</w>
go l
ner vous</w>
dest ination</w>
prepar ation</w>
po v</w>
tu al</w>
pow der</w>
b one</w>
D on
ex ha
lat ina</w>
S E</w>
Chi ef</w>
N ick</w>
contri bute</w>
ag g
er gy</w>
ide as</w>
The ir</w>
im al</w>
k ets</w>
heal thy</w>
Ma ster</w>
know ing</w>
them a
E T
Du de</w>
b ac
ul a</w>
8 6</w>
Bra z
tech ni
W est</w>
mi x
f ant
c lock</w>
Stre et</w>
wil d</w>
her o</w>
C i
pha se</w>
func tions</w>
Agr ic
ox y
pa rent</w>
possi bly</w>
classi fied</w>
pro te
Y esterday</w>
ad mit</w>
Sat ur
dis pos
2 9
ol der</w>
ar ity</w>
ho li
deser ve</w>
squ are</w>
b in</w>
C op
Comm un
U kra
l iter
bom b</w>
ro c
Commissi oner</w>
par king</w>
ag on</w>
peri ods</w>
beg an</w>
process ed</w>
- No</w>
me etings</w>
she et</w>
sha res</w>
gre atest</w>
resp ective</w>
L ittle</w>
gu est</w>
man i
il ies</w>
gu ard</w>
w et</w>
G al
mil li
con flic
vic tim
chall eng
l shit</w>
um s</w>
th r
install ation</w>
C le
believ ed</w>
tu red</w>
do ors</w>
f emale</w>
ul ts</w>
E mp
Reg ulations</w>
vo y
determin ing</w>
C R
den ly</w>
m on</w>
li ps</w>
sex ual</w>
cover ing</w>
Or gan
ul ly</w>
entit led</w>
val id</w>
S us
H appy</w>
war ded</w>
elec tric</w>
st ated</w>
3 0.
W ant</w>
comm itted</w>
b ound</w>
ho st</w>
D O
P ur
gr ounds</w>
fac es</w>
invest ments</w>
Un less</w>
re actions</w>
cal culation</w>
T O
the ory</w>
r ing
Al so</w>
I I
id ance</w>
compens ation</w>
H ell</w>
H as</w>
susp ect</w>
charac ter</w>
ep tion</w>
M a</w>
l ac
Br ing</w>
E ast</w>
j um
p ush
I F
Fran k
lo ans</w>
D S</w>
au d
Sec ret
care er</w>
reven ue</w>
f al
in ations</w>
k ick</w>
play er</w>
every where</w>
la un
vers ation</w>
sto le</w>
ir on</w>
m al</w>
d ust
S ci
v is</w>
nur se</w>
vill age</w>
n ar
b alls</w>
po unds</w>
on ia</w>
M ur
M O
fe atures</w>
d uration</w>
Fur thermore</w>
titu de</w>
recor ded</w>
ob ject</w>
ad es</w>
administ ered</w>
8 3</w>
ar ily</w>
j ump</w>
rec ital</w>
AU TH
TI ONS</w>
show ing</w>
a qu
R ed
inno cent</w>
but ton</w>
dar ling</w>
fac tory</w>
P ap
L ad
CI L</w>
P ow
Tur n</w>
col umn</w>
St u
stan ds</w>
destro yed</w>
ab ol
ge ograph
mot or</w>
su e</w>
Sar ah</w>
appo int
S w
bl ed</w>
ri f
D E</w>
propos als</w>
M mm</w>
ub by</w>
P C</w>
sm all
thre at</w>
H u
ca ke</w>
alcoho l</w>
sk i</w>
wh ereas</w>
a e</w>
supp le
introduc ed</w>
Mad am</w>
s in
es h</w>
increas ing</w>
AUTH OR
ra tic</w>
der o
alter native</w>
st on</w>
discus s</w>
form at</w>
uni que</w>
ed ly</w>
F ra
exist ence</w>
dis crimin
c utting</w>
p .
4 ,
equi pped</w>
sid es</w>
ex es</w>
eg gs</w>
F il
Indi an</w>
con versation</w>
Comm unities</w>
J im</w>
S A
Bo b</w>
rou te</w>
victim s</w>
C ust
Mar k</w>
COUN CIL</w>
cul tural</w>
S to
bl es</w>
m un
j a</w>
smo ke</w>
con s
Un til</w>
ak ia</w>
for ces</w>
ta tive</w>
ex hi
dero gation</w>
gra b</w>
el a</w>
apo logi
D NA</w>
se ed</w>
ic y</w>
pan ties</w>
B est</w>
to w
se emed</w>
d res
cor ner</w>
recogn ised</w>
dec la
P H
O ut
tru ly</w>
tion ally</w>
sugg est</w>
inter net</w>
Ric hard</w>
S hi
E ur
at eral</w>
Do esn</w>
pul led</w>
Uni versity</w>
Fe der
wh ore</w>
al ities</w>
bi gg
dec reas
bloo dy</w>
hid ing</w>
ta ught</w>
k il
star ts</w>
sch em
sk ills</w>
M s.</w>
S .
qu it</w>
al ist</w>
c e
bl ind</w>
ol ly</w>
V I</w>
E M
commit ment</w>
K no
w are</w>
identi fy</w>
s si
consu mers</w>
artic le</w>
st ab
ho o
main ly</w>
exten ded</w>
co ated</w>
N one</w>
4 00</w>
sho oting</w>
de partment</w>
ma tic</w>
b attle</w>
Ac tion</w>
Exc ept</w>
c ell
el low</w>
ca sting</w>
at om</w>
Mo reover</w>
occ ur</w>
chang ing</w>
spo ke</w>
custom er</w>
tra ditional</w>
no se</w>
b an</w>
p ants</w>
vari ety</w>
instruc tions</w>
ee th</w>
L y
cam p</w>
fi f
bigg est</w>
ow ner</w>
norm ally</w>
v it
M ay
char ged</w>
vir us</w>
opport unities</w>
cre ation</w>
ish ment</w>
u als</w>
ob serv
c ry</w>
practic es</w>
see k</w>
ri dic
so ft</w>
gun s</w>
aw esome</w>
Ad am</w>
accoun ting</w>
lic king</w>
Are a</w>
posi tions</w>
meas ured</w>
m ale</w>
r are</w>
In st
G en
F our</w>
tra ding</w>
re turned</w>
S ing
the e</w>
h ello</w>
t ty</w>
ed ge</w>
deli ver</w>
Q U
ir ing</w>
W e
Un der</w>
A l</w>
sh irt</w>
play ers</w>
r ice</w>
ant a</w>
del ay</w>
see king</w>
S on</w>
ste al</w>
coun ter</w>
im posed</w>
B esides</w>
har m</w>
imple ment</w>
en forc
h t
r ul
r ay</w>
kis sing</w>
y ers</w>
employ ees</w>
ha dn</w>
ad ver
D ep
Con tro
t ells</w>
design ated</w>
el ev
R en
guil ty</w>
c ue</w>
B ea
an o
sp ring</w>
war ning</w>
gl uc
IN AL</w>
ac i
consider ation</w>
Par k</w>
D a
par ame
M el
it er</w>
Li eutenant</w>
mo on</w>
fam ilies</w>
ta pe</w>
exper im
W ere</w>
relev ance</w>
cha mp
t age</w>
ag encies</w>
S ounds</w>
id ing</w>
fic ally</w>
U N</w>
Pro v
k n
Pro bab
ish es</w>
in after</w>
est y</w>
integr ated</w>
D IC
Al right</w>
chi ef</w>
s port</w>
effor t</w>
curren cy</w>
at us</w>
str on
Gre ece</w>
S lo
T ony</w>
up date</w>
s ity</w>
proper ties</w>
kee ps</w>
rela x</w>
sha pe</w>
Fo re
ick y</w>
sup ported</w>
sel ection</w>
li ber
o dy</w>
de aling</w>
XX X
sensi tive</w>
t ac
cap tain</w>
veri fication</w>
b es
T ar
W om
D ata</w>
C A
ch e</w>
di c</w>
avail ability</w>
compan ied</w>
in fl
c up</w>
enti ally</w>
bir ds</w>
ten sion</w>
F BI</w>
t ren
rele ased</w>
Th om
rela tions</w>
gra du
b ath</w>
Probab ly</w>
Satur day</w>
IS ATION</w>
re action</w>
smo king</w>
veter inary</w>
er ror</w>
m .</w>
Cent re</w>
ac companied</w>
E P
pl astic</w>
re y</w>
arri ved</w>
dre ams</w>
div or
TE R
gh ty</w>
R un</w>
A ff
sup porting</w>
introduc e</w>
R ay</w>
su m</w>
manag er</w>
ch r
plac ing</w>
For get</w>
alo gue</w>
re gre
f arm</w>
L t
Lu x
T or
0, 000</w>
s ons</w>
d are</w>
dic tion</w>
m ad
pre pare</w>
comb ined</w>
asp ects</w>
cre d
in ery</w>
k et
St eve</w>
z i
fla g</w>
fi xing</w>
statis tics</w>
Tour ist</w>
in hi
regi ster</w>
Un cle</w>
ar med</w>
l ays</w>
skin ny</w>
Ne ther
der iv
v ail
F uc
z y
k ness</w>
est ly</w>
signific antly</w>
sam ples</w>
excep tion</w>
Progra mme</w>
here inafter</w>
f ts</w>
hea ven</w>
Y o</w>
Tit le</w>
was h
el ine</w>
Cro ati
e h</w>
Serv ice</w>
contribu tions</w>
clo sure</w>
T e
consist ent</w>
ad verse</w>
modi fied</w>
wea ther</w>
il legal</w>
DEC ISION</w>
Seri ously</w>
dat ab
c row
st om
cul ture</w>
en ever</w>
k o
flow ers</w>
am m
ic king</w>
high est</w>
199 6</w>
C C
estim ated</w>
s co
pre mi
I D</w>
extrem ely</w>
3 1.
t ask</w>
let ters</w>
R eady</w>
me an
v ey</w>
y al</w>
H a</w>
y ou
Re port</w>
ox ide</w>
eas es</w>
di x</w>
manufac ture</w>
I C</w>
can di
ra il
S an</w>
initi ative</w>
re move</w>
&apos; T</w>
199 7</w>
influ ence</w>
assu me</w>
B ill</w>
re moved</w>
a red</w>
gu ests</w>
cha in</w>
Pol ice</w>
chick en</w>
fuc ked</w>
Bet ter</w>
Nether lands</w>
fun d</w>
Ab solutely</w>
lab our</w>
sur r
secur ities</w>
XXX Dan</w>
m u
associ ation</w>
mon itor</w>
CF SP</w>
noti fy</w>
199 4</w>
ne arly</w>
Su per
bel ong</w>
decla red</w>
coord ination</w>
bi a</w>
g ain</w>
p en</w>
v el
D em
sen ding</w>
out put</w>
multi ple</w>
Saf ety</w>
M embers</w>
Associ ation</w>
compl ain
h at</w>
E st
th ir
pos t
conduc t</w>
emb arr
man age</w>
exper ts</w>
soli d</w>
ch er</w>
per form</w>
ER E</w>
Gran d
fac ility</w>
st ability</w>
mon ster</w>
mur dered</w>
cam pa
la b</w>
respec tively</w>
z e
ch ubby</w>
ni ght
organ ic</w>
i us</w>
el ly</w>
eb ony</w>
op ping</w>
ester n</w>
de emed</w>
F ire</w>
sent ence</w>
geograph ical</w>
AUTHOR ISATION</w>
fuc kin</w>
hum ans</w>
M S</w>
sup er</w>
re n</w>
pol l
w eak</w>
reat h</w>
D .</w>
medic ines</w>
op tions</w>
c atch
cle an
Wil li
6 00</w>
enter prises</w>
ren al</w>
gh o
Con gratulations</w>
go al</w>
dro pped</w>
che ating</w>
t eeth</w>
de pres
bo ther</w>
wal ked</w>
stoc ks</w>
th es
cr y
Ry an</w>
g are
inf ection</w>
gener ation</w>
po t</w>
gar den</w>
K e
ch an
Belgi um</w>
el le</w>
L in
sol utions</w>
ex ports</w>
hy dr
re di
c in
J ake</w>
pap ers</w>
the art</w>
Dani el</w>
Fri day</w>
sp ac
no ise</w>
becom es</w>
C L
sh oul
no ted</w>
des k</w>
En ergy</w>
il ed</w>
brea king</w>
b ird</w>
SP EC
wh ere
im pa
L ong</w>
ut ch</w>
Ji h
end ar</w>
ri ers</w>
cho sen</w>
fle xi
C r
b are
Se x</w>
row ing</w>
up stairs</w>
ref unds</w>
l it
proper ly</w>
y ard</w>
perman ent</w>
T A
D P</w>
fi es</w>
pre hen
se es</w>
form al</w>
star s</w>
cli ents</w>
ridic ulous</w>
Tr ust</w>
Lis bon</w>
is s
buil dings</w>
L Y</w>
GH T</w>
ge ant</w>
Afr ican</w>
appoint ment</w>
exc ited</w>
recogni tion</w>
terr itor
pu ts</w>
in ter</w>
pro file</w>
fun damental</w>
Jih lava</w>
M om
ren cy</w>
la tive</w>
Aust ria</w>
ann ounc
four th</w>
Al ways</w>
c us</w>
V ir
representa tives</w>
H ang</w>
Braz il</w>
Eur atom</w>
notic ed</w>
ol f</w>
In dust
integr ation</w>
Tra de</w>
sc r
ha z
S an
quot as</w>
con sci
ing redi
Char les</w>
199 5</w>
viol ence</w>
ent ary</w>
bro thers</w>
fa ster</w>
Col onel</w>
Se a</w>
s an
k ne
fav our
plac ement</w>
r it
con ference</w>
im ported</w>
differ ences</w>
but ter</w>
survi ve</w>
gr and</w>
n ut
o red</w>
schem es</w>
s ports</w>
ca st
vot ed</w>
su s</w>
hou ses</w>
10 00</w>
cr ying</w>
isi ble</w>
ar gu
M any</w>
mi xed</w>
o do
ec tly</w>
me al</w>
W ar
Bab y</w>
od d</w>
our g</w>
stu ffs</w>
eng ine
gener ally</w>
con stitute</w>
bus in
v ely</w>
assh ole</w>
w est</w>
fi elds</w>
B on
con clus
stor ies</w>
gro wn</w>
nor th</w>
kni fe</w>
C ho
R am
sud denly</w>
gran ting</w>
fel low</w>
s i</w>
al located</w>
fi re
ex plan
identi ty</w>
consequ ences</w>
process es</w>
mechan ism</w>
re min
spl it</w>
god damn</w>
introduc tion</w>
s outh</w>
conduc ted</w>
ab sor
ain s</w>
hang ing</w>
att ached</w>
statis tical</w>
Rom ania</w>
d addy</w>
zer o</w>
S um
or ities</w>
spe ech</w>
Are n</w>
g er
duc tion</w>
trans ferred</w>
to ilet</w>
H E</w>
E gy
sa v
ti tle</w>
B O
ol ution</w>
eph one</w>
P ay
val u
in spec
v ine</w>
func tioning</w>
ma thema
dea d
p ical</w>
des p
Mar tin</w>
org an</w>
tel ev
ter ri
ac le</w>
g ang
mar ked</w>
Pre sid
S wed
ob tain</w>
conv inc
compon ent</w>
langu ages</w>
fish eries</w>
b reath</w>
M IN
tic ket</w>
hea ded</w>
exper t</w>
lau gh</w>
La dies</w>
K E
Ann exes</w>
st ress</w>
mo ther
p hosp
a th
sen s
m 2</w>
certific ates</w>
to ol</w>
M id
diag no
l ord</w>
0 s</w>
apologi ze</w>
S C
i onal</w>
der i
pass enger</w>
as signed</w>
U .
E asy</w>
n ation</w>
incorpor ated</w>
En joy</w>
gran ny</w>
dum ped</w>
ME DIC
me ters</w>
sto red</w>
h o</w>
br ings</w>
recommend ations</w>
su rely</w>
b its</w>
20 20</w>
belon gs</w>
O ld</w>
facilit ate</w>
eri ff</w>
E I
a wa
wh eel</w>
ass ess</w>
r ant</w>
TH ER</w>
sel ect</w>
B or
fam ili
gg ed</w>
voy eur</w>
innov ation</w>
wor l
h all</w>
realiz ed</w>
T ext</w>
W ar</w>
dra wing</w>
Ne ws</w>
L at
st el</w>
O ver
let ting</w>
sa ving</w>
Portu gal</w>
x y
lear ning</w>
b ol
figu res</w>
prepar ations</w>
am bi
B us
so dium</w>
Fran c
fe der
fi l</w>
pl enty</w>
op tim
l t</w>
Lt d</w>
hum an
it als</w>
Slov akia</w>
aw ful</w>
ro of</w>
ampi e</w>
los ses</w>
t ea
di an</w>
dec re
La w</w>
D E
Tom my</w>
he els</w>
cre ampie</w>
stan tly</w>
s na
B ob
le gi
dil do</w>
Med ic
f ashi
N U
a tically</w>
g am
v ul
ass et</w>
a h
ent ually</w>
sched ule</w>
al isation</w>
sp y</w>
che ese</w>
Chr is</w>
igr ation</w>
L OR
b ang</w>
stit utes</w>
R A
communic ate</w>
c ous
rap port
pre ven
dispos al</w>
U K</w>
hand ling</w>
C AS</w>
rema ining</w>
Li fe</w>
b a</w>
c um</w>
em ail</w>
coll ected</w>
up dated</w>
commit ments</w>
sti c</w>
V ol
claim ed</w>
am ine</w>
t um
end a</w>
er ship</w>
or dered</w>
emb ly</w>
as leep</w>
R est
Ca fe</w>
ac he</w>
competi tive</w>
super vision</w>
friend ly</w>
bu ying</w>
psy cho
chec king</w>
Stand ard</w>
G ame</w>
we b</w>
fa ke</w>
repres ent</w>
ee ts</w>
An dre
subsi di
ac qui
pre fer</w>
fro zen</w>
cle aning</w>
b i</w>
P an
V e
S cho
out come</w>
ent ure</w>
under stood</w>
classi fication</w>
S qu
ex act</w>
App en
20 .
ee ds</w>
MEDIC INAL</w>
N on</w>
fin ance</w>
en cl
for th</w>
perf ectly</w>
immedi ate</w>
t ested</w>
is c
meth yl</w>
caref ully</w>
Swed en</w>
Ukra ine</w>
rati o</w>
gh s</w>
ell ite</w>
thous ands</w>
mar gin</w>
W r
r ating</w>
net works</w>
legis lative</w>
al leg
As k</w>
i o</w>
t our</w>
au dit</w>
ven s</w>
stitu tion</w>
S el
employ ed</w>
ra p</w>
ph y</w>
wi re</w>
conf identi
John ny</w>
inc ess</w>
assess ed</w>
get ary</w>
Appen dix</w>
trans action</w>
s per
T on
Den mark</w>
e ds</w>
Sh all</w>
pr ints</w>
Slo ven
D om
fin dings</w>
al right</w>
back ground</w>
Vi v
Appro pri
qu es</w>
intellig ence</w>
complic ated</w>
po ul
Gu ess</w>
my st
K E</w>
encl ature</w>
Ad ditional</w>
S T</w>
f a</w>
Pro tec
g an</w>
ob vious</w>
ni ghts</w>
d ressed</w>
s in</w>
b atter
S E
bed room</w>
a ward</w>
speci fically</w>
Lad y</w>
per mit</w>
amend ment</w>
UNI ON</w>
M u
A my</w>
H igh
off ering</w>
la ke</w>
sett lement</w>
ing er</w>
person nel</w>
pos ite</w>
fr on
Su pp
B illy</w>
m ber</w>
wa ve</w>
is ol
guarant ees</w>
el ing</w>
S wit
f li
H ead</w>
ble eding</w>
M ob
justi fied</w>
gh ten
ren tly</w>
Comm ander</w>
enforc ement</w>
ec tor</w>
moun tain</w>
bul lshit</w>
N ote</w>
ten tion</w>
cover s</w>
Engl and</w>
p ples</w>
an eous</w>
V o
o logy</w>
j ur
n is</w>
W HA
un cle</w>
C lose</w>
Sim il
s and
u el</w>
telev ision</w>
tre es</w>
as es</w>
Mor ning</w>
af ford</w>
PR C</w>
no t
10 7</w>
recogni ze</w>
St e
inter view</w>
Fol lowing</w>
P ati
fo rest</w>
r ings</w>
th a</w>
li ft</w>
deep throat</w>
ci vil
pass engers</w>
t une</w>
sp here</w>
app ed</w>
mach inery</w>
C o</w>
accep table</w>
dis covered</w>
Bo ok</w>
mo de</w>
in fr
1 6.
D .
conf idence</w>
y o</w>
m in</w>
sus pension</w>
d ick</w>
answ ers</w>
emal e
D ou
load ing</w>
f an</w>
Tal k</w>
O w
plas ma</w>
Th us</w>
Sh emale
- Yeah</w>
ex ported</w>
W A
S ex
p us
certi fication</w>
es sive</w>
th u
al location</w>
OU T</w>
5 ,
d or
techno logies</w>
gi c</w>
D ri
regi me</w>
yl ene</w>
abl ed</w>
who ever</w>
dis eases</w>
embarr ass
D ow
b ucks</w>
LOR D</w>
po und</w>
Rob ert</w>
prac tical</w>
fuc ker</w>
ad ult</w>
ick ness</w>
G or
duc ed</w>
cal endar</w>
E mil
eng aged</w>
ol en</w>
fin ds</w>
v el</w>
g al
ex trac
Aff airs</w>
ur g
sol ve</w>
do ses</w>
n ap
liqu id</w>
expl ained</w>
rub ber</w>
&apos; all</w>
N ic
cere als</w>
Sun day</w>
Con trac
em br
famili ar</w>
com prehen
drin ks</w>
sw itch</w>
Ad min
he ight</w>
Ne w
D ro
pro motion</w>
g ear</w>
hel ps</w>
assi ve</w>
some how</w>
L a</w>
min us</w>
s wi
H om
oun ding</w>
bo w
tri als</w>
Hum an</w>
lead s</w>
Off icer</w>
vide os</w>
ti ed</w>
dec or
m p</w>
quali fied</w>
hor rible</w>
jour ney</w>
W E</w>
K ate</w>
need le</w>
pil ot</w>
Gre en</w>
co ok</w>
Co ol</w>
dom in
larg est</w>
C ase</w>
s pon
Fran z</w>
de pend
sk ip</w>
run s</w>
per mission</w>
Go odbye</w>
p ers</w>
Qu een</w>
Bri an</w>
Prof essor</w>
N ot
g t</w>
situ ations</w>
inv o
ev in</w>
ach el</w>
Jap an</w>
el ement</w>
ste in</w>
illi ant</w>
e ast</w>
hol ds</w>
1 4.
eg u
Al l
Tur key</w>
subsequ ent</w>
consul tation</w>
acc ession</w>
no w
arre sted</w>
electr ical</w>
t les</w>
t esti
Comp any</w>
I ts</w>
am p</w>
B ee
fe e</w>
b ags</w>
US E</w>
E v
quar ters</w>
WHA T</w>
uni verse</w>
le af
tic ip
Sec ond</w>
X Cafe</w>
pp y</w>
gu idance</w>
Gre ek</w>
s man</w>
ur s</w>
J am
E ric</w>
ne u
ser ver</w>
tre me</w>
r ab
Contro l</w>
at en</w>
ag e
inc idence</w>
s ey</w>
hes ion</w>
ash ed</w>
ch est</w>
M et
tr ick</w>
hear ts</w>
movi es</w>
gu ide</w>
foot ball</w>
al ous</w>
oper ated</w>
cri tical</w>
y n</w>
r um
sign ment</w>
Res earch</w>
ap par
pre dic
supp lied</w>
becom ing</w>
ren ce</w>
6 ,
mut ual</w>
Si x</w>
w alls</w>
Bo y</w>
dis ci
re in
ec tions</w>
el ed</w>
exemp tion</w>
struc tures</w>
r i</w>
lab el</w>
res ses</w>
in ting</w>
tex tile</w>
As s
publ ic
decre ase</w>
benefici ary</w>
ber t</w>
i ans</w>
bur g</w>
T S
quar ter</w>
B ut
t ons</w>
ru pt</w>
lat ter</w>
determin ation</w>
ag er</w>
small er</w>
pr ay</w>
g ross</w>
f at
b ited</w>
z er</w>
he ating</w>
p ure</w>
om a</w>
pl ays</w>
re l</w>
H D</w>
H C
supp lies</w>
Af gh
bur den</w>
ow ned</w>
fol ks</w>
exam ined</w>
dist inc
lam p</w>
St anding</w>
r on</w>
conclus ions</w>
L ED</w>
D or
car b
M ess
gar ia</w>
Pre tty</w>
Rep res
depen ds</w>
datab ase</w>
particip ating</w>
Bra vo
sw itch
sm ile</w>
y ellow</w>
ple ased</w>
IS O</w>
P ublic</w>
classi c</w>
W ater</w>
Croati a</w>
con soli
s low
MB ER</w>
Bravo Tube</w>
at er
wit n
sus pen
expen ses</w>
fa il</w>
est ate</w>
B eli
streng th
ing u
S anta</w>
W ed
acc id
ee d
Bul garia</w>
fo li
all er
st ro
bul let</w>
D ra
ti ally</w>
particip ate</w>
labor atory</w>
anci ent</w>
D ef
individ uals</w>
clo sely</w>
res cue</w>
sp ending</w>
cl ass
O D</w>
15 .
secre tary</w>
N ope</w>
Mex ico</w>
form ats</w>
B lo
propor tion
En ough</w>
v an
har dly</w>
Maj or</w>
M ama</w>
199 3</w>
direc tive</w>
Des cri
Ro ger</w>
ni pples</w>
ind ication</w>
I U</w>
bre ast</w>
Lux emb
st olen</w>
per cent</w>
ex tra
th ly</w>
meas urement</w>
r is</w>
Go d
sub jects</w>
tol er
ini um</w>
S S</w>
am i</w>
P u
em ies</w>
ly mp
sh el
uck les</w>
al lo
sw im
vis ual</w>
chlor ide</w>
cre ating</w>
bi ke</w>
pre fer
Mon t
G ab
secon d
tis sue</w>
se ats</w>
parame ters</w>
en su
r ick</w>
lo ose</w>
tic kets</w>
n ings</w>
transpa rency</w>
inser ted</w>
go od
P hoto</w>
resid ence</w>
fing er</w>
c ket</w>
her o
speci fications</w>
I AL</w>
pi g</w>
o re
Ro om</w>
b ell</w>
fra me</w>
der er</w>
R ules</w>
L ee</w>
mod els</w>
in curred</w>
kno ck</w>
l un
develop ments</w>
soldi ers</w>
l ar</w>
bare ly</w>
199 2</w>
sha me</w>
ic ers</w>
pret end</w>
le ather</w>
expen sive</w>
Ty pe</w>
T el
ur s
A w</w>
thre sh
simp li
p ages</w>
b o</w>
subm ission</w>
Thom as</w>
s anc
Scot t</w>
enti rely</w>
Gr ace</w>
b id
improv ement</w>
fib res</w>
P ic
u pper</w>
g or
f eeding</w>
P A</w>
r ats</w>
par tial</w>
R achel</w>
load ed</w>
cl .</w>
M R
F am
gi a</w>
install ed</w>
requ ests</w>
P .
St and</w>
Bo x</w>
T em
sy ring
re form</w>
thou ghts</w>
ins ane</w>
X o
stat ements</w>
UR E</w>
St .</w>
farm ers</w>
M ust</w>
docum entation</w>
ric s</w>
protec ting</w>
arri val</w>
S end</w>
consi sts</w>
ol a</w>
appar atus</w>
divid ed</w>
Pol icy</w>
f are</w>
argum ent</w>
PRODUC T</w>
An na</w>
cast le</w>
re jected</w>
restric tions</w>
Bu il
p et</w>
D r</w>
dis play</w>
eng ines</w>
str u
Ad v
inv ite</w>
ol ine</w>
stre ets</w>
ous ness</w>
strateg ic</w>
ci ties</w>
democ racy</w>
c able</w>
pres entation</w>
L ev
Y P
gly ca
US A</w>
ther ed</w>
em ission</w>
per mitted</w>
bb w</w>
Tom orrow</w>
l or</w>
appe al</w>
dum b</w>
Pl us</w>
um es</w>
L im
e .</w>
s word</w>
reser ve</w>
Z illa</w>
B U
Min istry</w>
invol ving</w>
win ter</w>
Gu idelines</w>
sul ph
su icide</w>
cl ari
arch it
mon o
sp are</w>
adjust ed</w>
f alls</w>
govern ments</w>
in k
oc curred</w>
Xo Zilla</w>
dra g</w>
Viv ud</w>
swee theart</w>
dig ital</w>
Fuc king</w>
effec tiveness</w>
St at
ran k</w>
ment ary</w>
2 50</w>
effec tively</w>
v in</w>
kin ds</w>
sle pt</w>
n ic
holi day</w>
thre w</w>
infr ing
cous in</w>
compar ison</w>
B Y</w>
ter ed</w>
De fin
sha red</w>
Man ufac
pain ting</w>
increas es</w>
re mind</w>
dis gu
patter n</w>
AL L</w>
Th ings</w>
ta r</w>
ici an</w>
sampl ing</w>
Anal ysis</w>
r at</w>
dy nam
ma id</w>
Produc ts</w>
Cust oms</w>
li ers</w>
an na</w>
al d</w>
challeng es</w>
nut ri
sh aring</w>
bud getary</w>
wh is
ug ly</w>
stron ger</w>
tr y
del eted</w>
col our</w>
Y et</w>
is o
experi enced</w>
suff ering</w>
co ol
C H</w>
Hung ary</w>
d ust</w>
st ayed</w>
Appropri ations</w>
re place</w>
no where</w>
was h</w>
in ner</w>
Un fortunately</w>
cl it</w>
mess ages</w>
as ide</w>
ti sing</w>
T ow
az ine</w>
vi al</w>
so il</w>
M eas
K evin</w>
oun ce</w>
rapport eur</w>
B ran
I F</w>
1 20</w>
av ir</w>
desp ite</w>
G a
N ations</w>
RE C
ra il</w>
as sa
tar gets</w>
mer cy</w>
K ill</w>
ici ently</w>
si mul
al ties</w>
tin y</w>
there in</w>
stom ach</w>
Chris tian</w>
b read</w>
suff er</w>
D un
part ments</w>
in stance</w>
Au str
M eg
leaf let</w>
par al
eg g</w>
conc ept</w>
rol ling</w>
C ast
stri ke</w>
f ever</w>
en emies</w>
Li ve</w>
pass ing</w>
ref er</w>
al um
8 00</w>
for gotten</w>
wid th</w>
So ci
R ome</w>
stor m</w>
T im
Pl ace</w>
brea thing</w>
V AT</w>
Bob by</w>
ec ture</w>
Bo o
acc es
port ation</w>
campa ign</w>
bro w
ir a</w>
L an
C ri
brea the</w>
pun ishment</w>
autom atic</w>
St ri
B an
cle arance</w>
- Yes</w>
deri ved</w>
confir m</w>
ol ate</w>
e uro
Fra mework</w>
coun ts</w>
y ar
S ame</w>
ri d
f ter</w>
at mo
n ect</w>
br and</w>
N et
vi gation</w>
S c
Nor way</w>
st al</w>
em a</w>
s --</w>
adv anced</w>
def ense</w>
shi ft</w>
encour age</w>
your selves</w>
ap e</w>
l ately</w>
S mo
I cel
mo stly</w>
lic en
jur is
Can ada</w>
Sh h</w>
indic ations</w>
a int</w>
Trans port</w>
scre w</w>
conflic t</w>
Y oun
L am
J on
sh opping</w>
Mom my</w>
satis fied</w>
pre vention</w>
Wh e
An imal</w>
oc cur
b um
des ire</w>
ot ed</w>
Wal ter</w>
swee tie</w>
un ion</w>
gover ning</w>
pos s
g ers</w>
pre viously</w>
b y
er as</w>
super visory</w>
F i</w>
ph ones</w>
indic ators</w>
cir cu
gre w</w>
prescri bed</w>
W IT
scho ols</w>
elec tion</w>
prec au
4. 4</w>
wat er
jec tion</w>
Y ear</w>
Ed die</w>
di alogue</w>
H ot
lar ger</w>
yl on</w>
re tail</w>
Bl ue</w>
w ound</w>
st ages</w>
r ural</w>
Ph one</w>
D C</w>
b right</w>
I .</w>
zer land</w>
secre ts</w>
f ate</w>
b ite</w>
p. m.</w>
kid n
Inv est
TI VE</w>
MAR KE
Gi ven</w>
H av
na ked</w>
dev il</w>
prote in</w>
coll ect</w>
S hel
Th ird</w>
meth odo
ha emo
exp ecting</w>
ch ose</w>
D O</w>
neigh bor
aim ed</w>
l as
respon d</w>
ti ous</w>
ht t
Sh ar
sol ute</w>
E mm
Swit zerland</w>
pa int</w>
p in
dis charge</w>
mus cle</w>
b ow</w>
h es</w>
fo od
eb o</w>
2 4.
es tion</w>
li sts</w>
boo king</w>
Mex ican</w>
b ill</w>
te aching</w>
ca uses</w>
equ ity</w>
li ability</w>
Red Tube</w>
IT Y</w>
sh ots</w>
4 0
ful filled</w>
po p</w>
ro man
co at</w>
ell er</w>
f ers</w>
reduc ing</w>
incre dible</w>
Dow n
sat ellite</w>
bur ning</w>
recei pt</w>
7 ,
HA VE</w>
De partment</w>
sym bo
Scho ol</w>
Any one</w>
Proc ed
spec tive</w>
bar s</w>
appropri ations</w>
m ay
O w</w>
repe aling</w>
improv ed</w>
resi stance</w>
preci ous</w>
comfor t</w>
a kes</w>
manufac turing</w>
exp iry</w>
is ms</w>
ca res</w>
Par t
br ary</w>
ato es</w>
Contrac ting</w>
improv ing</w>
C .</w>
met abol
lo dged</w>
an i</w>
mar ily</w>
ur ies</w>
K yle</w>
reli able</w>
ingredi ents</w>
ro se</w>
vie wed</w>
speci fy</w>
di ab
pi erc
ul ed</w>
il a</w>
P P
rail way</w>
Mon day</w>
produc ing</w>
re ward</w>
mo ves</w>
believ ers</w>
An dy</w>
dis appeared</w>
mis sions</w>
corpor ate</w>
2 1.
ut ing</w>
V is
M en</w>
Ex ec
nam ely</w>
repe aled</w>
regul arly</w>
NA ME</w>
grat eful</w>
ev entually</w>
sil ly</w>
S ou
E V
app ing</w>
Ser geant</w>
there to</w>
c tion</w>
pr o</w>
y m
stre am</w>
D re
con cent
Tech nical</w>
MARKE TING</w>
att acked</w>
autom atically</w>
ref use</w>
ic y
ho p</w>
gh ters</w>
dis cre
b is
Ro ad</w>
kno c
vi br
contr ary</w>
L IS
me ter</w>
hur ts</w>
Secret ary</w>
Luxemb ourg</w>
li abilities</w>
saf egu
M AN</w>
qu een</w>
suff ered</w>
ar d
de gre
t ank</w>
be aring</w>
u b</w>
ar a</w>
Emil y</w>
acc ess
p um
communic ations</w>
Maj esty</w>
flu or
main tained</w>
Str ateg
sud den</w>
in put</w>
be g</w>
la tions</w>
J ac
T en</w>
ex posed</w>
en th</w>
har der</w>
D ER</w>
min im
12 34</w>
al arm</w>
cir cle</w>
fe es</w>
expres sion</w>
Mob ile</w>
R ol
tab let</w>
ir man</w>
il er</w>
id a</w>
Per f
me tal
r ine</w>
regar ded</w>
tax es</w>
Po int</w>
V II</w>
Lu ke</w>
V en
k inda</w>
Repres en
ic ans</w>
meth yl
Rel ax</w>
transi tional</w>
ro b
m id</w>
Pet e</w>
A id</w>
pri marily</w>
issu ing</w>
Elec tr
tel ephone</w>
des per
cr uc
Cl ick</w>
Can a
SPEC IAL</w>
om atic</w>
an ded</w>
b ones</w>
regre t</w>
t emp
C ali
situ ated</w>
bur ied</w>
di stor
st a</w>
pri orities</w>
offici als</w>
A R</w>
2 8.
Descri ption</w>
v ement</w>
Pri v
ear n</w>
wh enever</w>
ver si
es sions</w>
App a
ch oc
laugh ing</w>
u ted</w>
k i
ul ate</w>
phot ograph
conven i
et ting</w>
pos ing</w>
consider ing</w>
consi sting</w>
ham ster</w>
direc tor</w>
comprehen sive</w>
E L</w>
mon d</w>
hi red</w>
off icers</w>
er ever</w>
EF TA</w>
m emb
En viron
hor iz
with draw
decreas ed</w>
s ea
N O</w>
Sing le</w>
Lis a</w>
repres ents</w>
al ert</w>
NO W</w>
sil ver</w>
glo bin</w>
su m
sac rif
S ig
mus eum</w>
struc tural</w>
sal t</w>
ra m</w>
guarant eed</w>
I ran</w>
ti p</w>
B ir
l o</w>
hor ses</w>
concent rations</w>
P C
ful fil</w>
degre es</w>
sli ghtly</w>
po cket</w>
pl ates</w>
d ancing</w>
di am
br o</w>
L L</w>
respon si
e fully</w>
na tions</w>
le man</w>
pack aging</w>
demonstr ated</w>
Sh e
li ghting</w>
Li thu
cha pter</w>
all en</w>
Fol low</w>
spo ken</w>
ru ption</w>
fin anced</w>
sh eets</w>
pregn ancy</w>
A ut
coo king</w>
clo sing</w>
E Y</w>
bl ack
ame ter</w>
dre ds</w>
prom oting</w>
less on</w>
ou red</w>
Ag ain</w>
lam ps</w>
difficul ties</w>
1 1
C ut</w>
Agric ulture</w>
fing ers</w>
excep tional</w>
s uck</w>
mag ne
j am
bas ically</w>
I A</w>
Appa rently</w>
res sive</w>
sh ock</w>
b um</w>
all ery</w>
a warded</w>
je alous</w>
sc ore</w>
G ol
J ason</w>
sti mul
ever th
m b
d enti
s age</w>
li p
vac ation</w>
sp ap
Fin land</w>
gluc ose</w>
lin ks</w>
F ig
stu died</w>
iz za</w>
exist s</w>
Commun ication</w>
W ash
ic als</w>
Ap pl
lat eral</w>
i time</w>
Rec om
C ateg
ton gue</w>
ar ding</w>
everth eless</w>
or ing</w>
gg le</w>
l oud</w>
T ro
milli ons</w>
bel t</w>
pret ation</w>
ex it</w>
allow ing</w>
di tions</w>
exclu ded</w>
fal se</w>
attemp t</w>
tu be</w>
convinc ed</w>
er o</w>
lead ers</w>
Serv ices</w>
veri fy</w>
ber g</w>
tur ers</w>
person ally</w>
ju ice</w>
win ning</w>
L ot
ra d
hi re</w>
A sh
exc iting</w>
depen ding</w>
WIT H</w>
am ed</w>
c ed</w>
mon etary</w>
op ens</w>
fl ashing</w>
ha bit
proc eed</w>
set tle</w>
Kore a</w>
fir ms</w>
div ision</w>
house wife</w>
Presid ency</w>
Ang el
impa ir
Je ff</w>
id al</w>
b locks</w>
dis cover</w>
Bus iness</w>
out ta</w>
h d</w>
propor tion</w>
busin esses</w>
L atest</w>
l ined</w>
con serv
refl ect</w>
fr ag
co operate</w>
US T</w>
inter medi
ac compl
deriv atives</w>
expres s</w>
Wom en</w>
Cl ass</w>
rec ording</w>
it ability</w>
ac et
I ra
doc tors</w>
offici ally</w>
Col l
Cal m</w>
si zed</w>
form ing</w>
sec tions</w>
particip ants</w>
cl asses</w>
exam ine</w>
rela tive</w>
T E</w>
sex y</w>
Youn g</w>
at tri
an istan</w>
19 .
de fe
art an</w>
substan tial</w>
s car
ad ults</w>
democ ratic</w>
Sim on</w>
soldi er</w>
protec tive</w>
il le</w>
zz le</w>
but t</w>
scre wed</w>
lic ense</w>
ill er</w>
Ale x
S ME
cam eras</w>
G DP</w>
squ irt</w>
ti er</w>
Mat t</w>
organ ization</w>
di sturb
fle et</w>
depos it</w>
P res
AR S</w>
al ism</w>
htt p</w>
bo xes</w>
coun ting</w>
contin ues</w>
trans it</w>
it ter</w>
in her
ar ising</w>
elec tro
Al ice</w>
vis itors</w>
Afgh anistan</w>
condi tioning</w>
3 5
un d
psy ch
ph il
inf ected</w>
Ph ot
wo ods</w>
br illiant</w>
Chil dren</w>
ass ist</w>
ap paren
S O</w>
ON E</w>
di str
de par
Emm a</w>
fla v
B ad</w>
A C</w>
cot ton</w>
im porters</w>
fac ing</w>
si m
bo vine</w>
re views</w>
cr ash</w>
in tra
un a</w>
el and</w>
roman tic</w>
ang el</w>
a .</w>
apparen tly</w>
uti l
re mov
s now</w>
Wash ington</w>
u k
discus sion</w>
pleas ant</w>
fo ol
in si
impair ment</w>
mand ate</w>
Ch ic
discrimin ation</w>
acc el
Egy pt</w>
it ty</w>
M ot
reser vation</w>
gy m</w>
k ins</w>
second ary</w>
poul try</w>
sti pul
De an</w>
rem un
g in
Car ter</w>
f rench</w>
Pati ents</w>
enter ing</w>
Wed nes
ot er</w>
gho st</w>
St art</w>
res sion</w>
mot or
appropri ation</w>
Willi am</w>
w is
E ff
part nership</w>
ound ation</w>
f ought</w>
lo g</w>
D own</w>
pro ph
id er</w>
bor ing</w>
Clar k</w>
2 2
ext end</w>
cre te</w>
G lo
E G
b id</w>
Z e
in clusion</w>
fa st
scen ari
F RO
199 0</w>
g ang</w>
U gh</w>
de fic
j i</w>
En ter
win dows</w>
compl aint</w>
T C</w>
the me</w>
ex pi
ab eth</w>
J ord
T an
u g</w>
To ol</w>
z o</w>
ques tion
Wor k</w>
H ad</w>
W estern</w>
i res</w>
fun eral</w>
Dro p</w>
IN G
str ong
jo ined</w>
ex treme</w>
represen ted</w>
li ar</w>
Th urs
K at
R an
fant astic</w>
ww w
defini tive</w>
mo od</w>
L .
bab ies</w>
rec ru
o ils</w>
C D</w>
CO 2</w>
on ers</w>
pan el</w>
lau ghter</w>
sha re
Do c</w>
mem ories</w>
Reg ional</w>
M is
pus sy</w>
hou sing</w>
D A</w>
00 000</w>
ag enda</w>
E ver</w>
ran ean</w>
in n</w>
t reas
L en
pris ing</w>
reve aled</w>
rec k
pierc ing</w>
li fe
co ach</w>
aliz ed</w>
pe ac
ph a</w>
es tiv
conf used</w>
m ust
sig nature</w>
o gen
li min
lan ding</w>
Simil ar</w>
s at</w>
so oner</w>
im ages</w>
NO T</w>
R ose</w>
loy ment</w>
A ye</w>
bo t</w>
AN CE</w>
re placement</w>
a emia</w>
divor ce</w>
ma r</w>
bur ned</w>
vul ner
Con t
ogra phic</w>
em or
N either</w>
restric ted</w>
cir culation</w>
ab solute</w>
C lear</w>
f ran
S ave</w>
Pl ay</w>
gare t
v a
chan nel</w>
ab and
C .
histor ical</w>
explan ation</w>
re ti
S R</w>
mis es</w>
pl ain</w>
recomm end</w>
P lan
emp has
auth or</w>
Any Sex</w>
es tic
Fore ign</w>
so le</w>
ther ing</w>
With in</w>
min or</w>
ca p</w>
exp ec
na h</w>
ci garet
p in</w>
juris diction</w>
op posite</w>
i th
frea k</w>
S et</w>
Hung arian</w>
EX P
tr ou
tar ge
detec tive</w>
SME s</w>
assi stant</w>
Cla ire</w>
gen ius</w>
ref rig
la unch</w>
po ver
T ex
2 7.
P ress</w>
s ung</w>
Po si
D ear</w>
t ence</w>
f ar
K i
dro me</w>
g a</w>
appe arance</w>
K im</w>
Gir l</w>
ro ot</w>
volun te
R S</w>
ast ro
techni ques</w>
te ase</w>
st al
Th er
G ot
uni or</w>
inhi bit
G ent
V III</w>
sett ings</w>
jack et</w>
ind ent</w>
as sion</w>
B ased</w>
Car l</w>
2 9.
s .
th ur</w>
dol lar</w>
ea fter</w>
sk irt</w>
Med iter
is ations</w>
N ah</w>
sett led</w>
c ep
cu ts</w>
- It</w>
gra ve</w>
h ath</w>
T ed</w>
gra d
F a
food stuffs</w>
ad o</w>
der ly</w>
con stant</w>
repe at</w>
Wednes day</w>
behavi our</w>
plac ebo</w>
Bl ack
plat form</w>
enc ing</w>
ug gl
Ton ight</w>
8 5
inter pre
mar ine</w>
iv ely</w>
B .</w>
G G
bl u
x y</w>
mechan isms</w>
pap er
P ull</w>
attrac tive</w>
co ok
di ameter</w>
certain ty</w>
ho ly</w>
x hamster</w>
a p</w>
mechan ical</w>
objec ts</w>
princi pal</w>
w ishes</w>
inst al
E specially</w>
rem ote</w>
M ach
con nect</w>
demonstr ate</w>
pe tro
estim ate</w>
gr ace</w>
O l
meas uring</w>
gi ant</w>
po e
AR E</w>
pic king</w>
Shemale Tube</w>
A ShemaleTube</w>
ati n</w>
F lor
rem emb
invest ors</w>
detec ted</w>
har v
be ef</w>
S wee
Exec utive</w>
S H
En g
Fre e
Re al</w>
rol led</w>
B s</w>
A ah</w>
re stra
D ave</w>
ini ons</w>
com position</w>
Mediter ranean</w>
leg ally</w>
1, 000</w>
believ es</w>
summ ary</w>
prohi bited</w>
f itted</w>
K now</w>
recommend ation</w>
Cy pr
port foli
Pre viously</w>
M P</w>
int age</w>
ac tor</w>
Leg al</w>
watch ed</w>
sha ke</w>
P ak
re pair</w>
T F
pe ti
tr ace</w>
ten ders</w>
re covered</w>
bra ve</w>
war rant</w>
di g</w>
hol dings</w>
er r
compar able</w>
At lan
3 2
foc used</w>
pow ered</w>
is her</w>
tea ms</w>
ag gre
ut ation</w>
neighbor hood</w>
No ti
Co operation</w>
om et
gh ted</w>
v ampi
ru in</w>
Com ple
id ation</w>
tou ched</w>
Lou is</w>
par li
go ds</w>
all ed</w>
A ra
pi e</w>
ma x</w>
withdraw al</w>
def ence</w>
l ers</w>
chil d
Chic ago</w>
inter pretation</w>
ul tural</w>
tr o</w>
pro sec
ro t
or a</w>
arrang ement</w>
Cypr us</w>
disci pl
con version</w>
red head</w>
tra ined</w>
mi x</w>
St ra
-------- --------
syring e</w>
oxy gen</w>
F lo
ER S</w>
liter ally</w>
FOR M
j ury</w>
in i</w>
comb at</w>
S pr
ser ving</w>
pre mises</w>
An nie</w>
vil le</w>
1 3.
mi ghty</w>
provid er</w>
po pul
Protec tion</w>
certi fied</w>
3 8
hun ting</w>
D utch</w>
18 .
P hi
ass embly</w>
institu tional</w>
exec ution</w>
f ancy</w>
V inc
Pol ish</w>
it ations</w>
U p
prin ted</w>
urb an</w>
S earch</w>
1 st</w>
dis played</w>
com ment</w>
F ar
Sta r</w>
Com pu
pis sed</w>
compe tence</w>
re vol
at ric</w>
E .
s ement</w>
orig in
choc olate</w>
Al most</w>
slow ly</w>
Se an</w>
Produc t</w>
haemo globin</w>
Thurs day</w>
si x
Cali for
z ones</w>
Jo sh</w>
rea u</w>
er n</w>
9 ,
Phar mac
M A</w>
terror ist</w>
H ou
Con tin
Ar thur</w>
new spap
comple tion</w>
bu ted</w>
ho se</w>
premi um</w>
transpa rent</w>
tra p</w>
Jack son</w>
4 14</w>
I X</w>
hi e</w>
U. S.</w>
c ure</w>
stab il
lot tery</w>
h an</w>
un known</w>
t all</w>
limin ary</w>
ok ine
ou ter</w>
vers al</w>
h ill</w>
youn ger</w>
to ward</w>
ther ine</w>
har m
che f</w>
ren der</w>
p ills</w>
Ho stel</w>
F ish
AC E</w>
s lo
tox icity</w>
jud icial</w>
M um</w>
O THER</w>
Me th
moun tains</w>
Tu es
h ome
fra ud</w>
Perf ect</w>
di pl
adjust ments</w>
si e</w>
under lying</w>
hun dreds</w>
responsi bilities</w>
Jer ry</w>
og le</w>
con crete</w>
pro pose</w>
Cl ub</w>
fl esh</w>
PRO V
tex ts</w>
e ties</w>
our ing</w>
sequ ently</w>
Com ing</w>
sol ely</w>
bran ch</w>
am end</w>
oc cu
ad or</w>
ag ged</w>
streng then</w>
celebr ate</w>
Air port</w>
co operating</w>
Jord an</w>
be l</w>
enti c</w>
acc um
ide al</w>
n ically</w>
10 8</w>
de dic
ex cl.</w>
Mar ket</w>
met res</w>
v in
lon g
fab rics</w>
S op
ar dis
ach ers</w>
ri an</w>
L ab
swim ming</w>
un able</w>
dis aster</w>
rela tively</w>
an ni
ru ined</w>
d ges</w>
Pl an</w>
dro ve</w>
Hon or</w>
G ri
de struction</w>
cont ents</w>
satis fy</w>
ban king</w>
so c
whe at</w>
Bro ther</w>
hea vens</w>
cut aneous</w>
cl ing</w>
p ir
E ast
be ds</w>
Tech no
pover ty</w>
ti se</w>
199 1</w>
e ously</w>
k er
Pri me</w>
Che ers</w>
inten tion</w>
ee ded</w>
glyca emia</w>
p ump</w>
M Y</w>
v intage</w>
P op
acqu isi
Loo king</w>
St ep</w>
furn iture</w>
P il
Br it
rema ined</w>
co al</w>
T ay
fo ld</w>
R et
Inst ead</w>
stre t
bri ef
arti st</w>
organ ised</w>
sched uled</w>
g ins</w>
bu ff
R E</w>
fo rec
ha ir
def end</w>
sing ing</w>
i str
b orders</w>
No .</w>
supp liers</w>
cont am
du ly</w>
K y
Del eg
i est</w>
e di
bea m</w>
dar ity</w>
dri ed</w>
dis appear</w>
Ch uck</w>
st ones</w>
st ations</w>
Phi l</w>
go odbye</w>
g le</w>
supp lier</w>
H ear
ou ts</w>
Ri ghts</w>
ea king</w>
car rier</w>
Po or</w>
Ber lin</w>
iz ing</w>
Califor nia</w>
B .
mist akes</w>
de fine</w>
addi tives</w>
re ar</w>
ro ws</w>
benefici aries</w>
ho ok</w>
N av
H G</w>
bur y</w>
win ner</w>
sc ar</w>
atmo sphere</w>
sp ell</w>
di es
behavi or</w>
E l</w>
lab elling</w>
serv ants</w>
p el
O therwise</w>
con sent</w>
Le o</w>
pi ents</w>
ad vis
acc ept
a uc
ri gh
L ist</w>
d est</w>
den y</w>
exc essive</w>
vot es</w>
um a</w>
M ain</w>
id en
manufactu red</w>
di versity</w>
isc al</w>
op inions</w>
descri be</w>
sensi tivity</w>
occas ion</w>
L A
M P
n t</w>
O rig
E ither</w>
neu tr
att acks</w>
Fam ily</w>
c ents</w>
proc urement</w>
to wer</w>
end or
V eg
exclus ively</w>
del icious</w>
at re</w>
G EN
k ar
vic tory</w>
religi ous</w>
dead line</w>
Ann ual</w>
mer ely</w>
cust ody</w>
speci fication</w>
vi g
remun eration</w>
do ll</w>
il eg
trans lation</w>
So f
In stitute</w>
m ask</w>
correc ted</w>
sol ved</w>
l ayer</w>
ee k</w>
d ens</w>
Com b
f illing</w>
is ely</w>
flexi ble</w>
initi atives</w>
K elly</w>
str ang
dri ven</w>
Ir ish</w>
f eed
Beli eve</w>
access ories</w>
religi on</w>
ali en</w>
jour n
D A
al fa</w>
Y u
Gar den</w>
accur ate</w>
U R</w>
N om
Direc tives</w>
v oting</w>
ci a</w>
off ices</w>
answ ered</w>
ri e</w>
prin ting</w>
F F</w>
ac les</w>
Pow er</w>
do in</w>
Ph ili
fif th</w>
ch ro
co ast</w>
Ch em
fi er</w>
acces sible</w>
w eg
M ol
ur ally</w>
k icked</w>
Mo ses</w>
val uation</w>
Austr alia</w>
cr ack</w>
att or
AP P
men u</w>
refer ences</w>
m o</w>
int end</w>
aff air</w>
b age</w>
st at</w>
H ope</w>
refrig er
l ap
du le</w>
vari able</w>
fashi on</w>
b by</w>
sh eep</w>
it ored</w>
continu ous</w>
war n</w>
Bi ble</w>
auth entic</w>
et es</w>
val idity</w>
suspen ded</w>
p y</w>
ti ble</w>
manufac turers</w>
S even</w>
oc ean</w>
urg ent</w>
ob st
o ke</w>
H OL
comm it</w>
t ine</w>
f lower</w>
y outh</w>
9 0
competi tiveness</w>
provid ers</w>
NU MBER</w>
there by</w>
dimen sions</w>
co ck
initi ated</w>
T eam</w>
ST R
nit ro
fing er
N ight</w>
m assive</w>
mon itored</w>
des ir
v ar
pig s</w>
Pur su
bor ne</w>
pr ic
tri gger</w>
W ake</w>
sen ior</w>
TI T
invol ve</w>
shoul der</w>
anal o
u de</w>
dis closure</w>
1. 1</w>
rap id</w>
con vic
ag ues</w>
bro ad</w>
prov ed</w>
pharmac ist</w>
2 2.
techno logical</w>
P ot
re ment</w>
symbo l</w>
Qu i
regul ated</w>
C S
house hold</w>
go als</w>
al ists</w>
bio logical</w>
Proced ure</w>
Exc ellent</w>
CI A</w>
fa ir
Tues day</w>
17 .
down stairs</w>
v ity</w>
per or</w>
R ule</w>
Al an</w>
mir ror</w>
be tra
tal ks</w>
sear ching</w>
Mar k
Euro system</w>
na m</w>
Sta ff</w>
Dem oc
Re qui
I V
sh ops</w>
hea dings</w>
estiv al</w>
Go ogle</w>
un usual</w>
exclus ive</w>
initi ation</w>
s ni
go in</w>
sav ings</w>
sh ine</w>
flow s</w>
radi ation</w>
b esides</w>
sc ary</w>
believ able</w>
ero tic</w>
contain er</w>
re ver
lon ely</w>
o tic</w>
Pursu ant</w>
hun t</w>
Feder al</w>
pul ling</w>
TE N
reli ef</w>
pa th
C ir
for tune</w>
l en</w>
addi tive</w>
prepar ing</w>
f ed</w>
arri ve</w>
Fig ure</w>
C at
Gu ar
y i
scre aming</w>
smo oth</w>
li brary</w>
eg o</w>
Sm ith</w>
l ay
hand some</w>
Cha mp
s and</w>
ref ers</w>
car di
m ates</w>
valu able</w>
t ables</w>
r at
mul ti</w>
a er
G R
remov al</w>
ref used</w>
Be ing</w>
under taken</w>
tax i</w>
priv ileg
con stitutes</w>
wor thy</w>
Sw iss</w>
h all
Organ isation</w>
brea ks</w>
4. 2</w>
sand w
po is
Or der</w>
vis a</w>
Go ing</w>
renew able</w>
E d</w>
cor n</w>
ag ging</w>
Strateg y</w>
r ated</w>
Or al</w>
th rowing</w>
aller gic</w>
5 0
n ick
inc ident</w>
Eli z
conv ince</w>
ran ts</w>
expos ures</w>
a w</w>
C E
13 6</w>
o b</w>
we alth</w>
coll ap
uni versity</w>
suc ks</w>
eng en</w>
Con ference</w>
H ist
Luc y</w>
Gent lemen</w>
gra ms</w>
represen ting</w>
me ets</w>
form ula</w>
p izza</w>
ch at</w>
Amer icans</w>
sc are</w>
W ay</w>
pi pe</w>
Sch engen</w>
ic acy</w>
er ry</w>
de fault</w>
audi tion</w>
e able</w>
AG E</w>
t ant</w>
suff iciently</w>
down load</w>
pul se</w>
18 0</w>
U s</w>
gar age</w>
elec ted</w>
construc tion
Swe et</w>
func tional</w>
agricul ture</w>
im bur
gran ts</w>
B R
10 0
r ush</w>
lo e</w>
di strict</w>
inde x</w>
An ti
discus sed</w>
A mend
vol tage</w>
inter fer
invest or</w>
Compu ter</w>
mb H</w>
f allen</w>
apart ments</w>
Ar my</w>
tor al</w>
op er</w>
rep ly</w>
n ity</w>
fu els</w>
ad mi
Pr ince</w>
pp ers</w>
arti f
ca using</w>
Th ought</w>
bo ats</w>
ni c</w>
necess arily</w>
consci ous</w>
B ren
2 3.
T AR
on ate</w>
K ir
Ch urch</w>
C lo
ub s</w>
a tion
rec eption</w>
ha med</w>
construction .com</w>
veget able</w>
occ up
wh at
P AC
I ni
bad ly</w>
Nor weg
A w
az ole</w>
bb c</w>
D ATE</w>
dec ent</w>
exten sions</w>
O m
G ro
W S</w>
ca tions</w>
J O
ce iling</w>
a to</w>
Qu ick</w>
ren ess</w>
FRO M</w>
R ural</w>
F R
candi date</w>
cour age</w>
pa tic</w>
bac ter
ush ed</w>
tail s</w>
Sus an</w>
gang bang</w>
R ap
ab s</w>
desir able</w>
wa re
o th
bri de</w>
pri est</w>
acc o</w>
gen u
be t
Pl aying</w>
10 ,000</w>
ric h
separ ately</w>
uti li
see ds</w>
ch ances</w>
W O
A h
ti les</w>
govern ance</w>
con y</w>
eu tic</w>
Tay lor</w>
m ation</w>
RE D</w>
b ass
per spective</w>
aim s</w>
Sho ot</w>
lo s</w>
ash es</w>
2 6.
ca b</w>
Eliz abeth</w>
assu med</w>
O .
f em
el se
Vi et
Con sequently</w>
Lithu ania</w>
wor ker</w>
gu ards</w>
mix ture</w>
pen is</w>
R oc
G ary</w>
adver tising</w>
A sia</w>
publ ish</w>
tis ation</w>
b ub
Who o</w>
ee z</w>
cent res</w>
ann els</w>
sacrif ice</w>
ac tors</w>
righ te
ac t
exc ess</w>
evalu ated</w>
Con si
indic ates</w>
cur ious</w>
bre ach</w>
assi um</w>
ul ated</w>
survi val</w>
ph y
M organ</w>
Gu y</w>
audi ence</w>
2. 1</w>
entr ance</w>
C enter</w>
A ma
a unt</w>
rel ate</w>
en za</w>
magne tic</w>
cou gar</w>
De ath</w>
resid ue</w>
cal i
Sam sung</w>
v ital</w>
re st
gener ated</w>
c on</w>
ser um</w>
Norweg ian</w>
dar kness</w>
methodo logy</w>
car riers</w>
Bee g</w>
pre ten
a wake</w>
cour ses</w>
G mbH</w>
b loc
gent leman</w>
8 ,
ann e</w>
M ission</w>
ex am</w>
hom es</w>
V ice</w>
B la
le l</w>
v ations</w>
ei gh
load s</w>
Ira q</w>
reven ge</w>
jun ction</w>
at titude</w>
Who ever</w>
H ot</w>
vulner able</w>
bra ke</w>
W est
pro tocol</w>
bor row</w>
O lymp
Any body</w>
portfoli o</w>
n d</w>
d less</w>
crow d</w>
ro g
thresh old</w>
w ra
br a</w>
c s</w>
Sh eriff</w>
myst ery</w>
W on
oper ative</w>
m ama</w>
wh erever</w>
back up</w>
a str
weigh ted</w>
in der</w>
wr iter</w>
Ar t</w>
in ates</w>
gre en
tw enty</w>
ow ners</w>
L and</w>
A dri
Hav en</w>
Ta king</w>
ess a</w>
Ma ximum</w>
ran dom</w>
fac ed</w>
con fig
bro wn</w>
M erc
k ind
so ever</w>
wa ited</w>
N ING</w>
Gr and</w>
Ab by</w>
sh y</w>
allow ances</w>
dis til
de als</w>
sem i</w>
li ances</w>
ev es</w>
nation als</w>
ne uro
cop ies</w>
tor ate</w>
f iscal</w>
beg ins</w>
wit ch</w>
dec k</w>
M .
ff y</w>
Fur ther</w>
dist ingu
po ker</w>
G U
design ation</w>
activ ated</w>
T ab
to e</w>
b oun
er y
hel p
ain ing</w>
E s
g ress</w>
chr onic</w>
Rom an</w>
on e
mo bility</w>
hon estly</w>
tain ment</w>
Aud itors</w>
D ub
O ff</w>
ir in</w>
Ma c</w>
carb ons</w>
mov ements</w>
shor t
t end</w>
prescri ption</w>
T un
Mar ia</w>
z ap
V an
Priv ate</w>
ser ial</w>
innov ative</w>
in er</w>
accept ance</w>
fil ter</w>
Sp ir
te en
ra ising</w>
H IV</w>
K ING</w>
re imbur
vol umes</w>
organis ms</w>
ad emy</w>
ble w</w>
anc er</w>
regist ry</w>
where by</w>
co s</w>
stu dio</w>
confidenti al</w>
shar p</w>
alum inium</w>
D al
acqui red</w>
celebr ity</w>
h ates</w>
dies el</w>
In spec
h ated</w>
pri ze</w>
on going</w>
Wh it
announc ed</w>
N u
in tra</w>
V I
D eb
H it</w>
in o
Col le
wo ke</w>
an no
n ut</w>
R on
tr usted</w>
d u</w>
st es</w>
ar gue</w>
1 10</w>
P ra
A vail
em an</w>
compati bility</w>
contrac ting</w>
ar i</w>
cruc ial</w>
Is land</w>
desper ate</w>
re volu
viol ent</w>
en zy
else where</w>
di et</w>
fer til
employ ee</w>
yar n</w>
clo thing</w>
th al
manag ing</w>
emo tional</w>
Invest ment</w>
dedic ated</w>
cri mes</w>
inter ven
sk i
co hesion</w>
liqu idity</w>
na sty</w>
se duced</w>
t ack
on tal</w>
v isible</w>
er ce</w>
mother fucker</w>
d ay
Lat via</w>
J .</w>
difficul ty</w>
in ci
d am</w>
whe els</w>
ou gh
m um</w>
precau tions</w>
po inted</w>
eth yl</w>
ear ned</w>
witn esses</w>
3 9
Ob viously</w>
stop s</w>
R ay
Man ual</w>
defic it</w>
St ation</w>
s ought</w>
pre liminary</w>
PAR TIC
R T
trans l
aff ecting</w>
mur derer</w>
mar king</w>
wor e</w>
l en
cre ep
&apos; t
batter y</w>
hi p</w>
terror ism</w>
c and
Sloven ia</w>
prec ise</w>
poli tics</w>
Sub ject</w>
territor ies</w>
N az
Cast le</w>
mix tures</w>
li v
fo ods</w>
B ay</w>
legi timate</w>
In t
coll ective</w>
sol vent</w>
de duc
8 4
ini an</w>
multi p
aband oned</w>
vers ary</w>
separ ated</w>
Ch ange</w>
sta ke
Sci enti
ci um</w>
observ ations</w>
Reg ions</w>
produc tive</w>
ST A
le um</w>
attor ney</w>
sh ell</w>
id ly</w>
n ea
M s</w>
mani f
am bul
Un it</w>
PARTIC UL
tra pped</w>
man ual</w>
com pounds</w>
Lar ry</w>
Cor por
C off
question na
mun ici
S EC
happ iness</w>
dam aged</w>
Ca ref
cons ult</w>
ren tal</w>
depend ent</w>
Su rely</w>
awa reness</w>
cont ra
East ern</w>
sal ts</w>
ev ol
st ake</w>
bo ots</w>
U l
hydro gen</w>
V ER
kid ney</w>
consul ting</w>
ro bb
rep utation</w>
rec itals</w>
se c</w>
sil ent</w>
ess entially</w>
sc ape</w>
do sage</w>
0. 5</w>
pain ful</w>
less ons</w>
han ded</w>
sup ports</w>
Vinc ent</w>
PH AR
sh oc
deleg ated</w>
bo obs</w>
O il</w>
Par ag
bon ds</w>
ay ne</w>
sig ning</w>
Jen ny</w>
push ed</w>
T am
Sof tware</w>
mo l</w>
vir tu
dimen sion</w>
or able</w>
MEN TS</w>
ro l</w>
2 5.
harmon ised</w>
Tu ber</w>
Hot els</w>
H all</w>
- That</w>
ab road</w>
St an</w>
Wor king</w>
mir acle</w>
as sure</w>
s laugh
CR R</w>
Dr Tuber</w>
threat ened</w>
o live</w>
vacc ine</w>
w an</w>
ty pical</w>
sol ar</w>
strength ening</w>
et e</w>
ot a</w>
v ag
ist ers</w>
b and
out standing</w>
ail and</w>
ac es</w>
E h</w>
dec l
Mic ro
it arian</w>
subsequ ently</w>
mis sible</w>
D ist
preser ved</w>
ag ne</w>
ti t
stop ping</w>
coo ked</w>
inspec tions</w>
Ro yal</w>
worl d
prec eding</w>
contin uation</w>
mom ents</w>
vis ited</w>
or ation</w>
st ry</w>
argu ed</w>
jer k</w>
ste aling</w>
trans mitted</w>
A in</w>
EA R</w>
invol vement</w>
Re ference</w>
Na than</w>
ent ally</w>
po ison</w>
multi lateral</w>
in direct</w>
gen der</w>
e z</w>
Bo s
ad ding</w>
P U
S pe
iden tical</w>
ex ed</w>
Mid dle</w>
M ight</w>
prof its</w>
re sident</w>
mor t
transi tion</w>
log ist</w>
Dep uty</w>
M ir
L ight</w>
zap ine</w>
phot ogra
wor th
trans fers</w>
por n</w>
3 6
prof essor</w>
m are</w>
- We</w>
lo ving</w>
T im</w>
th ickness</w>
favour able</w>
a ur
M oun
te achers</w>
ex tract</w>
E duc
be an</w>
- l</w>
ra pe</w>
comp li
Gor don</w>
For give</w>
veri fied</w>
Categ ory</w>
sper m</w>
Swe dish</w>
threat ening</w>
10 4</w>
k l
rec y
ven ous</w>
extra ordinary</w>
elec tions</w>
cont acts</w>
cho ices</w>
Th ailand</w>
detec tion</w>
be ta</w>
res sing</w>
Pat rick</w>
St an
H op
www .
gen etic</w>
appro ve</w>
al k
W ea
wo od
th at
am ide</w>
P ho
En try</w>
pra yer</w>
per c
ti mat
Bo ss</w>
paral lel</w>
ge on</w>
P ick</w>
rec all</w>
v als</w>
inf usion</w>
T est</w>
AC P</w>
Bro wn</w>
Net work</w>
D ead</w>
kin i</w>
coll abor
n an
F le
TF EU</w>
F ound</w>
pe l</w>
Atlan tic</w>
So on</w>
tim ing</w>
Sa int</w>
u um</w>
dri vers</w>
S ev
P ass
B re
ack er</w>
acquisi tion</w>
Represen tative</w>
f asc
Mag gie</w>
mag azine</w>
B is
inf o</w>
ven ue</w>
priv acy</w>
mo bil
c uck
St eph
Juli a</w>
sta tic</w>
reser ves</w>
p iss</w>
mol ec
c ats</w>
1. 2</w>
gas se</w>
comp ul
Se ems</w>
M un
thou se</w>
tren d</w>
HC lips</w>
Ch loe</w>
W on</w>
- Oh</w>
us al</w>
pen alty</w>
is er</w>
RE S</w>
kne es</w>
consequ ence</w>
U r
cer em
D RE
k .
su its</w>
dis count</w>
feder al</w>
re fin
po l</w>
An dro
ing o</w>
L atin</w>
war ri
lu x
Reg ion</w>
M AN
W i</w>
tal ent</w>
com pres
W OR
m ouse</w>
T ru
author isations</w>
contain ers</w>
ass ur
w ow</w>
occur s</w>
m ile</w>
p unch</w>
w olf</w>
conclu de</w>
YO UR</w>
independ ence</w>
f et
L ily</w>
cros s
att end</w>
um my</w>
inten sity</w>
IN FORM
cou ch</w>
Le on
16 0</w>
chem icals</w>
ax is</w>
PARTICUL ARS</w>
Part nership</w>
plic ations</w>
com mon
Jack ie</w>
exha usted</w>
car go</w>
si sters</w>
tra dition</w>
professi on
life time</w>
F ull</w>
re turns</w>
ic on</w>
colle agues</w>
IS TR
good ness</w>
C Z
Ara b</w>
A M</w>
ro ads</w>
it z</w>
ac knowle
sol v
p atch</w>
be ings</w>
so m</w>
b ond</w>
sh ut
igh s</w>
us age</w>
st ays</w>
k ingdom</w>
author ized</w>
as ing</w>
tr ust
g rid</w>
h ex
Blo od</w>
1 25</w>
na vigation</w>
Gab ri
J ones</w>
rev ised</w>
com promise</w>
to b
reser vations</w>
Fish eries</w>
logi c</w>
g ence</w>
min ds</w>
f ted</w>
f ans</w>
doub ts</w>
peri o
tri be</w>
subsi dy</w>
H ank</w>
vir al</w>
Mal ta</w>
ass em
lo ver</w>
INFORM ATION</w>
ris on</w>
low s</w>
escap ed</w>
a u</w>
p acked</w>
D est
Bu y</w>
D V
der og
R ound</w>
grand father</w>
I t
son gs</w>
G il
ph r
pa thetic</w>
or m
S on
no ver</w>
W ouldn</w>
fe ature</w>
sou p</w>
ic ate</w>
Ar ch
hol es</w>
communic ated</w>
ge ous</w>
cle ver</w>
parli am
gol f</w>
perform ing</w>
F ro
des ert</w>
c yl
How ard</w>
bre eding</w>
programm ing</w>
t ear</w>
bas ement</w>
u x</w>
re tro
S and
10 1</w>
Je an</w>
CO M</w>
10 3</w>
simul tan
Jo ey</w>
pass word</w>
dem ands</w>
int ell
ush ing</w>
kill s</w>
read s</w>
eri al</w>
termin ation</w>
S ud
impres sive</w>
cab in</w>
sli p</w>
disgu sting</w>
To p</w>
trac ks</w>
R is
pl ing</w>
resid ues</w>
equ ality</w>
ab use</w>
V an</w>
sha dow</w>
ver e
at ter</w>
dem on</w>
correc tly</w>
ref u
re aching</w>
ru de</w>
achiev ing</w>
tro ops</w>
accel er
pres ents</w>
an ian</w>
tr ay</w>
s ory</w>
2. 2</w>
1. 5</w>
inf ections</w>
f on
with draw</w>
syst em
reg im
Rob in</w>
v om
K r
pos session</w>
eb all</w>
................ ................
en counter</w>
ha mm
Gre g</w>
D y
gi es</w>
s oul
fl ash</w>
ban kno
W eb
U P</w>
A ar
w ins</w>
Sup port</w>
Ph il
K aren</w>
strateg ies</w>
indic ator</w>
p ine</w>
inc t</w>
i e
push ing</w>
for ma
com pound</w>
Bea utiful</w>
enh ance</w>
diab etes</w>
um b
defini tions</w>
cre ature</w>
P age</w>
C M
tu b</w>
ghten ed</w>
continu ing</w>
Andre w</w>
ti a</w>
Caref ul</w>
do zen</w>
un ning</w>
ic op
prof itability</w>
k W</w>
bi kini</w>
Mul ti
c ular</w>
serv ant</w>
S aid</w>
flu id</w>
depos its</w>
Ni k
recogn ise</w>
ell as</w>
tu bes</w>
he patic</w>
grand mother</w>
e o</w>
mi ti
tr ag
3 7
connec tions</w>
cha se</w>
help ful</w>
Di ff
ne ar
eff icacy</w>
&apos; II</w>
R .</w>
re verse</w>
int est
se as
sampl ed</w>
ser ves</w>
I M</w>
&apos; M</w>
gl ory</w>
ES S
proportion ate</w>
p acking</w>
M AC
Ch ea
j i
el ve</w>
cl ou
wan ting</w>
gen e
ang els</w>
thro po
Je wish</w>
us i
pe e</w>
gr ass</w>
D ouble</w>
C in
pre domin
eth ylene</w>
Portu gu
rememb ered</w>
ca kes</w>
Supp lement</w>
ro pe</w>
engine ering</w>
eas ed</w>
to ast</w>
n ate</w>
trac king</w>
sub scri
W AS</w>
w ell
glo ves</w>
possi bilities</w>
20 th</w>
m it
Op inion</w>
ic ations</w>
Brit ain</w>
cl ue</w>
31. 12.
v ary</w>
La ura</w>
G ET</w>
brow ser</w>
avi an</w>
catch es</w>
S ab
pass port</w>
concentr ate</w>
App s</w>
PAC K
restric tive</w>
bri ef</w>
roc ks</w>
bil ateral</w>
L and
hear t
as hamed</w>
scenari o</w>
al es</w>
shi pment</w>
rou tine</w>
Pro m
mathema tics</w>
Bar cel
pri me</w>
W y
T H</w>
Pro ject</w>
pan ic</w>
il st</w>
W as
calcul ating</w>
c ow</w>
3 4
l l
cle ared</w>
mo dule</w>
dum p</w>
swi m</w>
p ick
n ylon</w>
rou tes</w>
prec isely</w>
se as</w>
Geor gia</w>
impres sion</w>
Le ft</w>
free ze</w>
ro t</w>
arran ged</w>
g ather</w>
str anger</w>
di al</w>
hon our</w>
si zes</w>
5. 1</w>
disp ute</w>
repe ated</w>
bra ins</w>
contr actual</w>
ash a</w>
jud g
ex porter</w>
D onna</w>
i tion</w>
cha mber</w>
Sy n
Hal f</w>
reco ver</w>
r d</w>
Sar a</w>
K ur
M olly</w>
I denti
H D
Lo s</w>
tr ash</w>
tour ist</w>
cur se</w>
rac ing</w>
MIN ISTR
Je ws</w>
Cop y</w>
hum ili
Treat ment</w>
op en
Go ver
so vere
re less</w>
poll ution</w>
Portugu ese</w>
pris oner</w>
advant ages</w>
Coff ee</w>
pharmac okine
cre atures</w>
s par
n ament</w>
Pr ice</w>
sw ine</w>
ass ass
K ind</w>
se al</w>
pr incess</w>
Th ough</w>
L or
instal lations</w>
air y</w>
W AR
E uro</w>
D esp
Sm all</w>
li able</w>
direc ted</w>
sm ells</w>
coll ateral</w>
&apos; RE</w>
er able</w>
thro wn</w>
deser ves</w>
scen es</w>
mon key</w>
Inspec tor</w>
tre ating</w>
st eady</w>
2. 5</w>
enjo yed</w>
ign ore</w>
con junction</w>
arran ge</w>
abl ing</w>
i do
integr ity</w>
ambul ance</w>
pl ying</w>
allow ance</w>
E ve</w>
ent re
pot assium</w>
her d</w>
exper tise</w>
resp ected</w>
la p</w>
ham mad</w>
fa thers</w>
Jac ob</w>
inter rup
st am
E at</w>
timat ely</w>
susp ected</w>
dis appointed</w>
avi ation</w>
AD MINISTR
wor n</w>
hydro carbons</w>
Jud ge</w>
bal anced</w>
u no
yl er</w>
Vic tor</w>
termin al</w>
A men</w>
Pay ments</w>
relation ships</w>
ap point</w>
A unt</w>
t am
mand atory</w>
can dy</w>
bit r
tob acco</w>
at t</w>
Go od
C el
lot te</w>
On line</w>
ter ing</w>
for th
ad ise</w>
Speci fic</w>
F O
loc ate</w>
un employment</w>
Veg as</w>
argum ents</w>
li via</w>
Mus ic</w>
u ps</w>
j ack</w>
C A</w>
moder ate</w>
Ir on</w>
Oper ator</w>
artif icial</w>
Sup er</w>
ber ry</w>
restaur ants</w>
poli tic
s ins</w>
Ro ss</w>
organ iz
e --</w>
ol es
mo tiv
depar ture</w>
C YP
mor al</w>
exhi bition</w>
P la
Deleg ated</w>
pa irs</w>
H z</w>
6 0
ag on
contri but
ch annels</w>
en ting</w>
may or</w>
f ounded</w>
G etting</w>
d l</w>
soli darity</w>
dro w
PRODUC TS</w>
thi ef</w>
laun ched</w>
D IS
compu ters</w>
tour ism</w>
en vis
ow nership</w>
Whe ther</w>
O hh</w>
e aten</w>
ap h
phen om
mon thly</w>
Li ber
war ned</w>
pack ages</w>
here to</w>
ban ds</w>
it ness</w>
canc el</w>
ur i</w>
p ink</w>
refer ring</w>
pri de</w>
K al
ME TH
satis fac
S po
m ans</w>
z zy</w>
Fi f
Soci ety</w>
obli ged</w>
fish ery</w>
ON AL</w>
main taining</w>
wash ing</w>
cuck old</w>
cour ts</w>
&apos; s
investig ations</w>
b ru
accur acy</w>
Slov ak</w>
Qui et</w>
near by</w>
inter face</w>
im pose</w>
For ce</w>
influ enza</w>
Bar ry</w>
world wide</w>
Pak istan</w>
B row
op position</w>
F OL
Sh er
s or</w>
re forms</w>
jo ining</w>
phil os
Par ts</w>
J ay</w>
w ings</w>
with drawn</w>
T ali
eli gi
Cont act</w>
ri x</w>
Am anda</w>
in stantly</w>
Th rough</w>
su peri
spir it
j e</w>
O liver</w>
dep th</w>
clean ed</w>
Sec on
Est onia</w>
o o</w>
eli a</w>
conven tional</w>
D ON</w>
tic k</w>
consider able</w>
comp any
free zing</w>
Tur k
mar itime</w>
ber ries</w>
conserv ation</w>
ben z
r us</w>
ch ers</w>
Coun try</w>
E r</w>
An ne</w>
pre ne
p it</w>
star ing</w>
elim ination</w>
aff ects</w>
Nom enclature</w>
stud ying</w>
pay able</w>
h il
as i
wor ship</w>
cros sed</w>
In cre
re viewed</w>
ver tical</w>
friend ship</w>
aff airs</w>
Recom mend
G N
Ri ver</w>
es ia</w>
v s</w>
app liances</w>
P E
par tly</w>
cra w
En d</w>
sh ed</w>
tra il</w>
am ic</w>
Comm it
&apos; clock</w>
un fortunately</w>
re t</w>
Feder ation</w>
chlor o
regar dless</w>
o be
den om
cop per</w>
bu g</w>
mid night</w>
h its</w>
acc red
1 12</w>
H R</w>
C T
thi az
we i
p ist
Desp ite</w>
C ar</w>
deal t</w>
ar ia</w>
Mic hel
deep ly</w>
P A
concer t</w>
dis sem
circu it</w>
am ong
e ing</w>
ris ing</w>
up skirt</w>
SU B
Un common</w>
P s</w>
y pe</w>
bes artan</w>
L ater</w>
in king</w>
ch a</w>
P RE
00 1</w>
tox ic</w>
mic ro</w>
in cen
ke y
ure ments</w>
inv ent
con stantly</w>
R ick</w>
tech nically</w>
to oth</w>
Techno logy</w>
pen ding</w>
TIC AL</w>
S ul
p eak</w>
ton ne</w>
citiz en</w>
yl an</w>
t est
t ears</w>
Acc ession</w>
a b</w>
cover age</w>
D e</w>
reve al</w>
Inter nal</w>
stru ggle</w>
Ci vil</w>
Gover ning</w>
pa .e
Su n</w>
EE SC</w>
num erous</w>
clo set</w>
pris oners</w>
Ta i
h ei
nom enclature</w>
ir ts</w>
ec o
tur nover</w>
Barcel ona</w>
ver t</w>
Hel en</w>
Doc um
or gy</w>
f ting</w>
or ange</w>
sh ore</w>
en der</w>
Hon estly</w>
survi ved</w>
m bo
horiz ontal</w>
i x</w>
in ch</w>
C ou
sa uce</w>
pro jec
an ticip
or ph
on ym
Mon ey</w>
anni versary</w>
John son</w>
wi ves</w>
v ice</w>
prov en</w>
ff ed</w>
eng age</w>
Tali ban</w>
h itting</w>
applic ants</w>
hun g</w>
ck ets</w>
Nor thern</w>
imm unity</w>
ati e</w>
Sex u</w>
5 000</w>
tail ed</w>
dynam ic</w>
asc ular</w>
Icel and</w>
top ic</w>
frequ ently</w>
sec ured</w>
P eg
Ne ed</w>
Kore an</w>
atch ing</w>
S ister</w>
mon y</w>
R N</w>
Posi tion</w>
peac eful</w>
d ur
10 6</w>
E qui
territor ial</w>
inter im</w>
among st</w>
R ea
Agric ultural</w>
P ER
L E
U M</w>
Br no</w>
10 5</w>
b all
al bum</w>
R O</w>
is co</w>
as se</w>
prac tically</w>
EL L</w>
strong ly</w>
im porter</w>
Ch an
mor tal
2 -</w>
h em
ful fil
Tex as</w>
us eless</w>
alleg ed</w>
Gre en
wel fare</w>
pen alties</w>
inter action</w>
mess ed</w>
H ong</w>
volun tary</w>
deter i
car riage</w>
la sting</w>
fortun ate</w>
S IS</w>
f its</w>
ti me
sugg ested</w>
HO W</w>
Pap a</w>
beli ef</w>
be ating</w>
d ot
P y
Scienti fic</w>
HOL DER</w>
de eds</w>
P aci
li ons</w>
gor geous</w>
tun a</w>
ster n</w>
at ers</w>
b icy
Tr ue</w>
Bu reau</w>
techni que</w>
company ing</w>
w ill
exp an
ed dy</w>
Pr incess</w>
Mat the
be ast</w>
in ity</w>
surr ounded</w>
be ans</w>
man n</w>
fri dge</w>
il ers</w>
targe ted</w>
T .
AR Y</w>
Brea k
p est</w>
ro om
night mare</w>
M .</w>
new ly</w>
g ained</w>
s mil
co ins</w>
assess ing</w>
Mar cus</w>
IT S</w>
go sh</w>
P hy
w age</w>
exam ples</w>
aut onom
Par king</w>
p up
infring ement</w>
cy cles</w>
P ub
Han nah</w>
G O</w>
tax ation</w>
syn thetic</w>
impres sed</w>
am ino</w>
radi o
W all</w>
Bo ok
sur vey</w>
gra phic</w>
Colle ge</w>
ann exed</w>
rec ep
NC Bs</w>
survi v
p ant
stipul ated</w>
a. k.
Bo ston</w>
fa ith
mat h</w>
infl ation</w>
as yl
Jes se</w>
AN T</w>
concentr ated</w>
chi p</w>
indic ating</w>
di oxide</w>
lan e</w>
estim ates</w>
ac ute</w>
pursu e</w>
F R</w>
as ion</w>
Mus eum</w>
B ot
establish ments</w>
Con ditions</w>
S S
le te</w>
jo king</w>
Li b
indust ries</w>
comm ander</w>
ben ch
198 9</w>
H ay
cro ps</w>
inten se</w>
Ba be</w>
An s
shi pping</w>
ac ids</w>
s ules</w>
atter ed</w>
sil ence</w>
U sing</w>
com it
deli ber
se aled</w>
ra z
Qu ite</w>
patter ns</w>
com posed</w>
198 7</w>
criter ion</w>
Ter ry</w>
st ea
al y
at e
t anks</w>
Ex p
Educ ation</w>
P L</w>
So vi
B eth</w>
therap eutic</w>
bo ards</w>
trans fer
ad mitted</w>
OR E</w>
col ors</w>
t one</w>
J ess
C ross</w>
7 00</w>
public ly</w>
K NOW</w>
progra ms</w>
ec tual</w>
explo sion</w>
en na</w>
P OR
F red</w>
declar ations</w>
nat urally</w>
co her
Gi bb
star ds</w>
pre sid
T re
E qu
ter ly</w>
coun cil</w>
do ssi
dre w</w>
im position</w>
wis dom</w>
12. 2006</w>
success fully</w>
hel icop
FOL LO
ru b</w>
DI REC
ster o
en v
bal cony</w>
Th ir
P ack
revolu tionary</w>
tun nel</w>
com bus
dir t</w>
F IN
rap idly</w>
Aar on</w>
od es</w>
A ri
L et
increas ingly</w>
Char lotte</w>
ei ved</w>
co incidence</w>
RE N
break down</w>
an te</w>
rul ing</w>
exc eeds</w>
P le
un likely</w>
fib re</w>
charac ters</w>
adap t</w>
Dri ve</w>
under ground</w>
m as
om mun
p assion</w>
A x
con signment</w>
- He</w>
soul s</w>
scienti sts</w>
Cer ti
ri b
deal er</w>
n i</w>
enter prise</w>
alcoho lic</w>
green house</w>
bl ast</w>
C AN</w>
na il</w>
kis sed</w>
asyl um</w>
justi fy</w>
equ ally</w>
Br uce</w>
Cl assi
D R
ell ation</w>
4 4
Jer emy</w>
IN T</w>
E le
n n</w>
T ak
memb ership</w>
construc ted</w>
ren e</w>
u a</w>
pot entially</w>
expl ic
cho o
deleg ation</w>
dis hes</w>
dev i
co c
sign als</w>
sh r
PO S
N ear
noti fications</w>
re me
itt ees</w>
ari at</w>
EC R</w>
ca red</w>
F A
cre ative</w>
h n</w>
B S</w>
pos ted</w>
Om bud
Ch uckles</w>
laugh s</w>
Ang el</w>
dep end</w>
expl ains</w>
bas eline</w>
p ity</w>
ob s
Grand ma</w>
H it
pro mp
c ran
Mar ie</w>
gas es</w>
e book</w>
L ucky</w>
4. 5</w>
uggl ing</w>
g ates</w>
dis order</w>
rou s</w>
adv enture</w>
abo ard</w>
Cer tain
tor ture</w>
op a
D G
m mol</w>
experim ent</w>
cons ist</w>
Ch ef</w>
non sense</w>
5. 2</w>
elop e</w>
threat s</w>
econom ies</w>
Cha in</w>
L ake</w>
ther mal</w>
o v</w>
fast est</w>
th ri
in qu
f oun
Str uc
stro ke</w>
sem en</w>
cri tic
knoc ked</w>
hy bri
u ts</w>
sho e</w>
EU SR</w>
stake holders</w>
el e</w>
gi fts</w>
f lights</w>
Rest aur
na p</w>
c it
confir mation</w>
vibr ator</w>
coun ted</w>
H ands</w>
Cha mber</w>
achiev ement</w>
NC B</w>
vis iting</w>
is sa</w>
K ong</w>
op her</w>
Ang ela</w>
B at
thes is</w>
4. 3</w>
tion ality</w>
e dy</w>
ap parent</w>
Gra b</w>
str uck</w>
b ills</w>
F ing
vis its</w>
Ex am
spir its</w>
s k</w>
er ad
B een</w>
4. 1</w>
inhibit ors</w>
Ans wer</w>
subsi dies</w>
Cana di
mat urity</w>
L ind
K S</w>
vampi re</w>
Al i</w>
dist ur
gre at
F air</w>
associ ations</w>
l um
harm ful</w>
pot atoes</w>
modi fication</w>
Certain ly</w>
ATI ONS</w>
ar k</w>
questionna ire</w>
some time</w>
invol ves</w>
IC ES</w>
f en
ac companying</w>
ill ness</w>
b acks</w>
D F</w>
nation ally</w>
Dan ish</w>
hur ting</w>
wa i
law ful</w>
M ind</w>
gu it
D s</w>
B P</w>
C I</w>
ax y</w>
ar bitr
R icky</w>
Fun ds</w>
org ans</w>
evalu ate</w>
Smo king</w>
N evertheless</w>
a o</w>
A partment</w>
in struction</w>
consist ency</w>
assa ult</w>
L ust</w>
Ra dio</w>
elim inate</w>
di bly</w>
T yler</w>
A k
hypo glycaemia</w>
bec ca</w>
T own</w>
Near by</w>
CON DI
pro stitute</w>
Po st</w>
elec ommun
che er
K ids</w>
N ate</w>
th y
re nov
ro ots</w>
auc tion</w>
D ue</w>
5 43</w>
D ancing</w>
G E
C ub
w een</w>
car bo
ER AL</w>
en orm
j o</w>
S et
embarrass ing</w>
enjo ying</w>
cont est</w>
b our
reser ved</w>
fer ences</w>
inc id
b att
aliz e</w>
Vic tor
S ever
air ports</w>
Bud d
vi an</w>
Res pon
Co ach</w>
GG J</w>
frea king</w>
1 15
mil d</w>
exten sive</w>
M ine</w>
char ging</w>
L ot</w>
Gir ls</w>
wa sting</w>
lo ser</w>
S TE
app le</w>
an i
od ds</w>
ef s</w>
car tri
th ing
Cor rec
import ation</w>
gen e</w>
G ee</w>
3. 1</w>
k it</w>
ut or</w>
vac uum</w>
mean time</w>
s al</w>
assi sted</w>
AB LE</w>
ou l</w>
Pre par
B C</w>
pi ent</w>
par don</w>
nar row</w>
gu essing</w>
ur ine</w>
disp atch</w>
D ru
inter ior</w>
cha sing</w>
ar ities</w>
4 5
Viet nam</w>
belon ging</w>
renew al</w>
bo red</w>
week ly</w>
r ash</w>
In stant</w>
C ouldn</w>
ev a</w>
ST O
Pr inci
sandw ich</w>
pati tis</w>
vis or</w>
s wa
H aw
Acc ess</w>
intellig ent</w>
int eg
educ ational</w>
correc tion</w>
en ess</w>
R ail
Luc as</w>
CZ K</w>
treas ure</w>
min eral</w>
J UST</w>
cor p
calcul ate</w>
to y</w>
Boo king</w>
vi c</w>
saf ely</w>
ri sts</w>
p ays</w>
depres sion</w>
tem ple</w>
ev ed</w>
Sto ck</w>
Ar ab
chi ps</w>
expec tations</w>
re sear
neighb or</w>
pis sing</w>
for gi
adop ting</w>
C ER
Bet ween</w>
pur se</w>
cla use</w>
Im ag
av irin</w>
low est</w>
robb ery</w>
mur ders</w>
fre sh
cap ture</w>
Ju lie</w>
Frank ie</w>
Mus li
promis es</w>
os is</w>
k ie</w>
asp ect</w>
pre su
ow ed</w>
ma ker</w>
Ca therine</w>
z om
wal let</w>
dec ides</w>
I an</w>
ma ize</w>
str ing</w>
ad dic
jum ped</w>
ere k</w>
ado les
nov el</w>
me als</w>
under take</w>
satis factory</w>
m aps</w>
consoli dated</w>
pro lon
imm une</w>
y hose</w>
ut ter</w>
fru its</w>
dro pping</w>
Noti ce</w>
Is lands</w>
H and
adv ised</w>
In don
au to
al i</w>
preven ting</w>
al t</w>
Mar ty</w>
law yers</w>
R .
vit am
ob ey</w>
real ise</w>
human ity</w>
In clu
es cor
S imp
Ac ademy</w>
A G</w>
char ity</w>
purcha sed</w>
clim b</w>
N B</w>
ti ps</w>
el et</w>
cor ruption</w>
th ick</w>
ex porters</w>
Ombud sman</w>
the ore
CONDI TIONS</w>
L A</w>
tren ds</w>
ig nor
S ally</w>
IC ATION</w>
W all
cros sing</w>
ben e
it ate</w>
fil ed</w>
cal cium</w>
assur ance</w>
Environ ment</w>
re turning</w>
pro spec
foot age</w>
us al
go v
Mar i
Andro id</w>
the atre</w>
C lau
Ab ra
bl ess</w>
Sp eaking</w>
lead ership</w>
gu es</w>
y ards</w>
RO U
Glo bal</w>
genu ine</w>
b at</w>
Y ah
t ags</w>
sk a</w>
nom inal</w>
K atie</w>
Buil ding</w>
8 0
b ust</w>
BA T
sh eriff</w>
sc ans</w>
defe at</w>
supple mentary</w>
scri pt</w>
ban k
Bos nia</w>
co efficient</w>
Ass ess
P M</w>
predomin antly</w>
Tra vel</w>
Car ol</w>
L es
ra d</w>
h m</w>
ca ve</w>
vacc ination</w>
W h</w>
Secret ariat</w>
resul ted</w>
lan ded</w>
sw ing</w>
blo wn</w>
Ad dress</w>
recogni zed</w>
o ve</w>
G un
p ho
dec ades</w>
Pal est
UL D</w>
adap ted</w>
larg ement</w>
s laughter</w>
Got ta</w>
in ks</w>
ent ries</w>
C O</w>
cam p
Wh ose</w>
organ ized</w>
us s</w>
wal ks</w>
it age</w>
calcul ations</w>
Manufac ture</w>
R ock</w>
l an</w>
coord inated</w>
cl oud</w>
acc used</w>
Admin ist
re insurance</w>
consul tations</w>
lo cations</w>
God damn</w>
competi tors</w>
requ esting</w>
pant yhose</w>
hu g</w>
we h</w>
w ounds</w>
mark eted</w>
ab dom
br ush</w>
ch ick</w>
man kind</w>
atch ed</w>
laun dry</w>
ar us</w>
D erek</w>
spea ks</w>
mod ules</w>
si ans</w>
ok ie</w>
ep id
2 10</w>
S ighs</w>
th um
m its</w>
l ending</w>
ret t</w>
inv est</w>
coll ecting</w>
ly wood</w>
L .</w>
M ee
M I
ga thered</w>
der son</w>
An d
Re becca</w>
wea kness</w>
enh anced</w>
qu est</w>
Gr ant</w>
E ight</w>
mem or
Re pe
dest iny</w>
Jam ie</w>
re act</w>
conf ident</w>
Acc ord
m igration</w>
L EA
gen ic</w>
consider ations</w>
meas urements</w>
l ec
ar ise</w>
an ch
pr on
ner ve</w>
inter oper
usal em</w>
p ec
IC AL</w>
histor ic</w>
Dou g</w>
ul timate</w>
en sive</w>
Coun ty</w>
wa ves</w>
candi dates</w>
inj ured</w>
ver sus</w>
gar bage</w>
f ea
Dr ink</w>
uni versal</w>
k ward</w>
B each</w>
Yah weh</w>
Squ are</w>
7 0
gr ab
O pen
H ill</w>
S li
PHAR MAC
syn drome</w>
ici ans</w>
pl ug</w>
TS I</w>
Ed ward</w>
Euro stat</w>
Pro per
H and</w>
H A</w>
F I
h at
ga p</w>
Tra ining</w>
z z</w>
J o</w>
des ired</w>
Go ld</w>
In sul
F li
trans portation</w>
sem in
b utes</w>
b ay</w>
gu ided</w>
0 9.
spo t
sla ve</w>
elev ator</w>
person ality</w>
C AS
.e uro
isol ated</w>
w rec
jer king</w>
rat ings</w>
Prom ise</w>
mat ches</w>
et al</w>
st eam</w>
entre prene
dr yer</w>
pr ince</w>
common ly</w>
ta p</w>
gol den</w>
Li ghts</w>
t ang
sub cutaneous</w>
cerem ony</w>
PHARMAC EU
ac ad
ware house</w>
re store</w>
do or
child hood</w>
cri p
K ra
on ds</w>
d ging</w>
Accord ingly</w>
3 D</w>
refriger ator</w>
b inary</w>
ac ulture</w>
Angel es</w>
bot tles</w>
Dec isions</w>
Steph en</w>
ev olution</w>
Jer usalem</w>
lo x
compul sory</w>
bran ches</w>
cust om</w>
tec h</w>
prohi bition</w>
den ied</w>
M en
GEN ERAL</w>
ad just</w>
pi pes</w>
ght ful</w>
St ore</w>
Har vey</w>
Pre v</w>
enc er</w>
Res olution</w>
Wil son</w>
re stri
AR D</w>
9 11</w>
pa.e u</w>
j et</w>
i Phone</w>
cro p</w>
Turk ish</w>
ox y</w>
F red
fi ghter</w>
Comb ined</w>
Pol y
Ex change</w>
nea rest</w>
n ish</w>
J ess</w>
C B</w>
p ile</w>
farm ing</w>
in sufficient</w>
ca ine</w>
ATI VE</w>
loc k
A v
Sen ator</w>
E .</w>
L aw
dres sing</w>
por tion</w>
initi ate</w>
Gibb s</w>
Par ticip
r hy
over come</w>
em e
uc h
ten stein</w>
chr on
Paci fic</w>
ra rely</w>
is y</w>
dec line</w>
re mark
incre dibly</w>
gener ous</w>
d au
lo y</w>
F el
L ES</w>
ser vers</w>
experi ences</w>
Pe ace</w>
med ication</w>
con ferred</w>
par tially</w>
PRO C
K u
ar ks</w>
not ably</w>
Diff er
fun ded</w>
s me
ig rants</w>
hydr ate</w>
hand led</w>
F eel</w>
Canadi ens</w>
sequ ence</w>
sanc tions</w>
D ig
susp icious</w>
Par ker</w>
we ed</w>
D ER
op tional</w>
E mer
co w
author ise</w>
aliz ation</w>
T P</w>
es a</w>
shi eld</w>
PHARMACEU TICAL</w>
2 nd</w>
ic ia</w>
em i
Assess ment</w>
Di vision</w>
supp lement</w>
ous y</w>
Lim ited</w>
exec uted</w>
13 8</w>
sign ments</w>
pr ud
ow ns</w>
J .
C ole</w>
se iz
kee per</w>
V ER</w>
L s</w>
m ou
Co oper</w>
plan ted</w>
TE E</w>
10 2</w>
decl are</w>
Tw enty</w>
0, 5</w>
per si
quanti tative</w>
Mon itoring</w>
sk ull</w>
constitu ted</w>
ID ED</w>
ta g</w>
min ing</w>
je ans</w>
up id</w>
Spir it</w>
4. 2004</w>
poe tin</w>
o ved</w>
L inda</w>
gover ned</w>
at ories</w>
safegu ard</w>
rol ls</w>
inter rupt</w>
el derly</w>
ari ous</w>
pa int
In tr
off ense</w>
Ko so
s ar
fair ly</w>
Res er
combus tion</w>
d ys
publ isher</w>
partic les</w>
gener ate</w>
tou ching</w>
Po ker</w>
expan sion</w>
config uration</w>
squ ee
Me et</w>
six th</w>
metal s</w>
S av
Produc tion</w>
gener ations</w>
D ic
COMM IT
succ eed</w>
con grat
tr um</w>
sal ad</w>
Ex tension</w>
in spir
w ind
sugg ests</w>
M as
pl ed</w>
F E</w>
s ab
dis abled</w>
mort g
requ iring</w>
Is ab
i g</w>
fir ing</w>
es is</w>
W ol
Was n</w>
a ero
W ord</w>
Emp loyment</w>
cr ush</w>
N on
idel ine</w>
accid ents</w>
gra ph</w>
J eff
p itch</w>
Sop hie</w>
IC E</w>
solv ency</w>
eng agement</w>
sur render</w>
T en
F L
Cap ital</w>
investi gate</w>
def end
char ming</w>
virtu e</w>
exec utive</w>
d ining</w>
Govern or</w>
wh ilst</w>
spac es</w>
Con nec
en ia</w>
Appl ication</w>
Rus sell</w>
Cha irman</w>
weigh ing</w>
U ru
surr ounding</w>
p ill
as signment</w>
Po li
rel ates</w>
rec ur
fi able</w>
D ylan</w>
dea ths</w>
civil ian</w>
resid ents</w>
archit ecture</w>
ograph y</w>
bi es</w>
atch es</w>
M uch</w>
10 9</w>
betra yed</w>
petro leum</w>
g la
H ard</w>
reti rement</w>
n y
to se</w>
co in</w>
Pap er</w>
cont ested</w>
answ ering</w>
st en</w>
admin istr
B y
sc ow</w>
A vi
sk ill</w>
newspap er</w>
satisfac tion</w>
en abling</w>
Po p</w>
B I
3 50</w>
human itarian</w>
é e</w>
stic ks</w>
add resses</w>
E than</w>
con g
T ari
D ol
dom ination</w>
Commit ments</w>
Y ou
ba stards</w>
BAT CH</w>
vie wing</w>
cry stal</w>
Char ter</w>
min ister</w>
guil t</w>
cook ies</w>
low ed</w>
intell ectual</w>
M ain
con dem
tra iler</w>
ne ath</w>
Guar ant
Admin istration</w>
6. 1</w>
1 .</w>
pass es</w>
nutri tion</w>
fil ms</w>
activ ely</w>
Min imum</w>
Indust ry</w>
t ings</w>
pa thy</w>
trav elling</w>
as ive</w>
k ly</w>
stric tly</w>
terr ace</w>
pe d
ght ning</w>
g au
exha ust</w>
Sci ence</w>
em en
Is lam
sto res</w>
observ ation</w>
envis aged</w>
Sta tis
pi ano</w>
investig ating</w>
Ro y</w>
L e</w>
squ ad</w>
down town</w>
Ex port</w>
grand pa</w>
distri buted</w>
ne ys</w>
P T</w>
champ agne</w>
S D</w>
neighb ors</w>
gr as
sen ds</w>
champ ion</w>
imm igration</w>
In surance</w>
.e .
ho st
loy alty</w>
Val ent
T ou
in c</w>
differ ently</w>
Recommend ation</w>
Imag ine</w>
be ar
y og
pre me</w>
J unior</w>
fi xes</w>
re tri
origin ally</w>
sur ve
contr ast</w>
w ines</w>
phosp hate</w>
h ec
fo ster</w>
Sh ouldn</w>
Ber n
Belgi an</w>
rea ties</w>
ly n</w>
in ous</w>
Sur veillance</w>
r on
ci pients</w>
Ser bia</w>
Ken ny</w>
le vi
ant ine</w>
tr unk</w>
si ghs</w>
No ah</w>
1 30</w>
val ve</w>
res ource</w>
j ac
injec tions</w>
- How</w>
x on</w>
psy chi
ex ual</w>
bes ide</w>
Sovi et</w>
Mil k</w>
Bo ys</w>
2 99</w>
9 9
ma ke
m ere</w>
s can</w>
op sy</w>
st y
distri but
wash ed</w>
gra in</w>
tempor arily</w>
fi anc
star ch</w>
proc eeding</w>
Medic inal</w>
eu tical</w>
di gn
Mark eting</w>
control ling</w>
Jess ica</w>
AI L</w>
li a</w>
ir regul
Enter prise</w>
ment ally</w>
Ad d</w>
appro aches</w>
Koso vo</w>
separ ation</w>
M iller</w>
exist ed</w>
bul lets</w>
Nat ural</w>
substan tially</w>
I AS</w>
tour nament</w>
tal e</w>
sli de</w>
compe te</w>
cap sules</w>
Qu inn</w>
ca ution</w>
TH EY</w>
St one</w>
W anna</w>
Bud ap
bas eball</w>
1 40</w>
ri p</w>
head ache</w>
es y</w>
A D</w>
O H</w>
fre ight</w>
4. 8</w>
Med ical</w>
Li ech
el eg
AR TIC
the ater</w>
den sity</w>
AL S</w>
.euro pa.eu</w>
rib avirin</w>
clo s
R ever
Mo scow</w>
Direc torate</w>
ten nis</w>
individ ually</w>
igh t
cl er
V ince</w>
m 3</w>
Reg istration</w>
th read</w>
P D</w>
C li
improv ements</w>
B B</w>
employ er</w>
author ising</w>
O livia</w>
kn itted</w>
i ii</w>
Do g</w>
spec im
om er
intra venous</w>
3. 2</w>
c attle</w>
b ang
fa x</w>
1, 5</w>
scre am</w>
f ellas</w>
gra vity</w>
lab or</w>
acqu is</w>
5 5
Liech tenstein</w>
re hear
cul tiv
sp in</w>
mus ical</w>
An ton
ins ist</w>
colle ague</w>
an gi
pre v
Hol lywood</w>
t el</w>
ensu res</w>
bar riers</w>
Defin itely</w>
subsidi ary</w>
sh ri
tra uma</w>
bow l</w>
refl ected</w>
Tr uth</w>
Fun ny</w>
EI B</w>
flexi bility</w>
ex tr
At t
sur geon</w>
re ments</w>
peti tion</w>
am mon
re ha
enti eth</w>
bankno tes</w>
be gun</w>
Orig inal</w>
o on</w>
Bo y
di gging</w>
ne ph
Du ke</w>
dam ned</w>
conveni ent</w>
boo k
trans ported</w>
z i</w>
U F
Parag raph</w>
re tain</w>
ti ans</w>
pi ed</w>
assu ming</w>
Fil m</w>
Ex ternal</w>
n .e.
enorm ous</w>
Mont real</w>
LI KE</w>
In strum
W N</w>
er ts</w>
at om
Sp ace</w>
Franc is</w>
analy tical</w>
Mor oc
reduc tions</w>
c age</w>
TE S</w>
F u
sens ors</w>
revol ution</w>
home work</w>
bun al</w>
ti de</w>
pe ts</w>
hydro xy
wa sted</w>
su ite</w>
is lands</w>
Author isation</w>
gradu ally</w>
kidn apped</w>
wo ol</w>
m i</w>
b uc
L em
A 4</w>
bas ket</w>
plan es</w>
che ted</w>
L ING</w>
sp p</w>
ic ker</w>
e u</w>
S ource</w>
Con su
plas tics</w>
inv ented</w>
l i</w>
V A</w>
Car oline</w>
Budap est</w>
farm er</w>
deep er</w>
N ar
ra tional</w>
di al
car bon
reci pient</w>
g li
cont acted</w>
bo dy
in compatible</w>
absor ption</w>
cap it
ambi tious</w>
In f
differ enti
FOLLO WS</w>
L ac
E ME
p her</w>
aw kward</w>
Sat an</w>
L ine</w>
haz ard</w>
S t</w>
V .</w>
Grand pa</w>
resol ve</w>
appo inting</w>
B ol
audi o</w>
moun ted</w>
As si
p m</w>
dri ves</w>
sel fish</w>
ro bot</w>
mani pul
F uel</w>
extrac tion</w>
discus sions</w>
bo om</w>
c er</w>
El ena</w>
repres entation</w>
Dec lar
w a</w>
restric tion</w>
cloth ed</w>
hop ed</w>
Uru gu
righte ous</w>
ch op
τ η
constitu tional</w>
gg age</w>
J an</w>
in ev
b ols</w>
o therapy</w>
embarrass ed</w>
ol ds</w>
P rec
dis pen
I sa
Ve hic
ho o</w>
confidenti ality</w>
ev ac
produc tivity</w>
in duc
S ue</w>
tw entieth</w>
it i</w>
App le</w>
resi stant</w>
comp lied</w>
dec isi
Ow ner</w>
Mu hammad</w>
sym bols</w>
Administ rative</w>
organ ism</w>
cl arity</w>
V E
err ors</w>
c up
tra ins</w>
Vi enna</w>
Al bert</w>
rou gh
Zo om</w>
re vision</w>
G onna</w>
G en</w>
hop es</w>
fi a</w>
bi c</w>
in er
et ra
m es
loy al</w>
bar a</w>
ion ship</w>
Mil es</w>
il ey</w>
S mar
l ining</w>
Ve ter
un fair</w>
O scar</w>
cigaret te</w>
St or
share holders</w>
y --</w>
m ly</w>
establish es</w>
N ina</w>
Mi ami</w>
cro cheted</w>
v ast</w>
temper atures</w>
P .</w>
op tical</w>
myst eri
en tic
T odd</w>
Lau ghs</w>
hi d</w>
blow ing</w>
Y up</w>
ard ous</w>
direc tions</w>
al a</w>
DIREC TIVE</w>
ti te</w>
B ack
H S</w>
so red</w>
per su
itch es</w>
C ot
por tra
ee ing</w>
W at
gov ina</w>
explo itation</w>
ad ed</w>
oc curren
avo iding</w>
preten ding</w>
shi p
las er</w>
philos oph
comp are</w>
20 1</w>
Requi rements</w>
ick ey</w>
super v
ol an
Hit ler</w>
Victor ia</w>
Ho li
im posing</w>
assess ments</w>
un comfortable</w>
re b
alo g</w>
sp r
Her ze
et t</w>
bass ador</w>
Li z</w>
2. 3</w>
s no
Bri dge</w>
ADMINISTR ATION</w>
sna ke</w>
pu pp
vir gin</w>
th m</w>
p o</w>
mor tal</w>
cru el</w>
cap tured</w>
ur rec
tr age
f lies</w>
pos ts</w>
br ut
N or</w>
C AR
mis erable</w>
ab il
wh oles
cour t
ba il</w>
pa tho
bl ade</w>
swe at</w>
Vi ew</w>
Herze govina</w>
wh el
no ble</w>
Urugu ay</w>
EF SA</w>
gra des</w>
en th
Hy dro
Mar shall</w>
op pon
9 00</w>
forgi veness</w>
dau ghters</w>
in tly</w>
Cas ey</w>
simultan eously</w>
a i
s ile</w>
inst all</w>
At tention</w>
ó n</w>
sens or</w>
W TO</w>
insp ired</w>
stand ardis
prec ed
My Lust</w>
2, 5</w>
Hist ory</w>
D ick</w>
tr icks</w>
L aughter</w>
K id</w>
C S</w>
sch ol
cent uries</w>
introduc ing</w>
T U
4 8
ou ting</w>
Cour se</w>
quali fications</w>
he patitis</w>
holi days</w>
lim itations</w>
N ature</w>
pa inted</w>
alter ed</w>
traff icking</w>
bon us</w>
equ ation</w>
pl en
harmon isation</w>
Ma kes</w>
e in</w>
some day</w>
obst acles</w>
adv ise</w>
wi pe</w>
b ever
sha ped</w>
S ays</w>
f oundation</w>
ensu red</w>
wood en</w>
gra ph
whe el
en ables</w>
mortal ity</w>
i ew</w>
Indust rial</w>
exc eeded</w>
a sts</w>
gh ten</w>
al and</w>
Zo e</w>
K or
Ear l</w>
COMMIT TEE</w>
z u
identi fying</w>
sp ray</w>
nitro gen</w>
su res</w>
cool ing</w>
Stat ute</w>
Lev el</w>
H ear</w>
re su
WAR NING</w>
Th ank
complain ts</w>
cl ubs</w>
associ ate</w>
shel ter</w>
itch ing</w>
adap tation</w>
v or
r al</w>
f estival</w>
N ig
Ar gent
Ad visory</w>
cas ino</w>
commun ities</w>
cle aring</w>
list ened</w>
qu in
St ev
cali br
c i</w>
h en</w>
am p
after wards</w>
B au
Bet ty</w>
Flor ida</w>
re ject</w>
na ils</w>
guit ar</w>
soc ks</w>
ha i</w>
ad ing</w>
N ine</w>
tw elve</w>
ar ts</w>
To by</w>
P ul
ro m
sal ary</w>
Matthe w</w>
- The</w>
Dav is</w>
web sites</w>
v et</w>
phys ics</w>
A mon
con sen
Cre dit</w>
rul ed</w>
Justi n</w>
D ur
Sp eak</w>
land scape</w>
Wom an</w>
St even</w>
Bo dy</w>
f ella</w>
hal f
a than</w>
L ow</w>
consul ted</w>
ch ill</w>
sev enth</w>
cre ates</w>
M ON
tri gg
S pi
N ancy</w>
sustain ability</w>
o o
me ta
gene tically</w>
g allery</w>
dis posed</w>
S I</w>
H m</w>
May or</w>
sugg esting</w>
shor tly</w>
conf ession</w>
TH ERE</w>
interoper ability</w>
f ence</w>
switch ed</w>
R on</w>
DEC IDED</w>
C ru
d an</w>
3 00
coun sel
Break fast</w>
tim ely</w>
s ink</w>
ISI ONS</w>
ea stern</w>
d ent</w>
F la
ph oning</w>
Amend ment</w>
eli hood</w>
Th ai</w>
treat ments</w>
scho ol
enter tainment</w>
conf ess</w>
1. 3</w>
mean ing
coun ty</w>
D U
in directly</w>
BU T</w>
scr atch</w>
kne e</w>
dra matic</w>
d ation</w>
a.k. a.</w>
ME T</w>
G us</w>
ur n</w>
mist ak
veter in
In stance</w>
id ae</w>
er on</w>
T eddy</w>
clin ic</w>
Ran dy</w>
ro yal</w>
T AL</w>
gl or
ili ation</w>
fail s</w>
w rap</w>
fi x
in um</w>
Medic ines</w>
yi eld</w>
li d</w>
bal lo
ff ing</w>
correspon d</w>
Car los</w>
th care</w>
ter ior</w>
con comit
da wn</w>
d un
Ken ne
k es
intest inal</w>
inten ds</w>
imag ination</w>
out fit</w>
boo ked</w>
some what</w>
lux ury</w>
alter nate</w>
ex clusion</w>
spirit ual</w>
electr on
e ternal</w>
R ad
A partments</w>
n est</w>
in fin
contribut ing</w>
F ish</w>
in et</w>
w estern</w>
under neath</w>
Ger mans</w>
lat ex</w>
Tr ying</w>
D ING</w>
inter vals</w>
im pe
am oun
ο υ</w>
apo logy</w>
gam bling</w>
O B
S W
Me an
H ERE</w>
co ast
M F
vari eties</w>
prefer ential</w>
olan zapine</w>
eligi bility</w>
sp i
ul timately</w>
remin ds</w>
y ce</w>
resol ved</w>
particul ars</w>
onym ous</w>
Mer ry</w>
pati ence</w>
ome ters</w>
Yu go
vi e</w>
bra king</w>
st amp</w>
mar gins</w>
fre ely</w>
P reg
pro m</w>
do s</w>
analo gue</w>
phen yl</w>
I l
b is</w>
leg end</w>
Den nis</w>
mo tive</w>
quot e</w>
f loo
Abra ham</w>
Sum mer</w>
stu me</w>
essi onal</w>
wh olly</w>
tu m</w>
s ag
quali fy</w>
negoti ate</w>
sub heading</w>
is a</w>
fant asy</w>
d ess
an nex</w>
Ob jec
Ne il</w>
Ch ang
en to</w>
consci ousness</w>
th an
om i</w>
l ou
Bas ic</w>
stain less</w>
C K</w>
pu zzle</w>
T .</w>
M I</w>
encour aged</w>
PAR T</w>
avo ided</w>
Sa fe</w>
O thers</w>
Bra d</w>
dest inations</w>
QU I
Pro ph
coord inates</w>
bus h</w>
comm ission</w>
aqu aculture</w>
ad ly</w>
st ain</w>
pal ace</w>
fab ric</w>
st en
dr agon</w>
Mot or
interfer on</w>
grand ma</w>
tax able</w>
na us
B ow
vit ro</w>
id ated</w>
al ie</w>
S low</w>
eas iest</w>
com a</w>
M L</w>
L abor
FOR M</w>
invo ice</w>
inv al
log ically</w>
inj uries</w>
doc k</w>
St upid</w>
Juli an</w>
ul ty</w>
ver sions</w>
ma kers</w>
je op
Pl ay
num er
es tions</w>
an aemia</w>
ill ary</w>
rap ed</w>
c ease</w>
F inal</w>
s ounded</w>
discipl ine</w>
bl essed</w>
Comm ents</w>
profession als</w>
com prising</w>
qu e
itt ings</w>
do sing</w>
El li
Po s
Gol den</w>
susp ects</w>
photograph s</w>
thro mbo
comp lies</w>
incen tive</w>
ob serve</w>
S G</w>
Prov ince</w>
c z</w>
W el
Ta x
Ma ur
sc an
diagno sis</w>
To gether</w>
om ing</w>
bid den</w>
lea k</w>
A li
Oper ation</w>
Inter esting</w>
p lot</w>
Wal k</w>
Rev iew</w>
al pha</w>
sub jected</w>
phr ase</w>
si eur</w>
op posed</w>
inter ference</w>
bene ath</w>
is ers</w>
Y S</w>
Mar gare
sc op
every day</w>
si de
mo thers</w>
v oc
Di strict</w>
B ei
0 4
p estic
govern mental</w>
creep y</w>
Under taking</w>
St ep
d s
paint ings</w>
N ur
conclu des</w>
squ ared</w>
W ayne</w>
s an</w>
p an</w>
cha irman</w>
1 11</w>
tr ucks</w>
sel ective</w>
17 84</w>
ste ering</w>
b or</w>
st ressed</w>
oper ates</w>
conduc ting</w>
analy sed</w>
scr ut
US ED</w>
i ge</w>
ha em
thr one</w>
r .
Dar ling</w>
C PA</w>
G PS</w>
tem plate</w>
superi or</w>
ni fer</w>
Nav y</w>
b atch</w>
al tar</w>
M ade</w>
Fing ering</w>
F our
R iley</w>
F ord</w>
si vely</w>
en largement</w>
clou ds</w>
En ter</w>
EN T</w>
w ounded</w>
agg ressive</w>
oc ar
dec om
ang les</w>
Yugo sla
Aust rian</w>
real ised</w>
jo intly</w>
pur ity</w>
warri or</w>
cont em
pl a
some place</w>
tho lic</w>
S ER
vail ing</w>
F oundation</w>
bloo d
Ma king</w>
on ally</w>
thiaz ide</w>
o ven</w>
believ ing</w>
Cra zy</w>
initi ally</w>
crimin als</w>
S nap
jo kes</w>
fr ac
fore seen</w>
class ical</w>
R ot
B ell</w>
hea v
co lo
Lo is</w>
sk el
surg ical</w>
adequ ately</w>
Ter r
sa tions</w>
conc e
For mer</w>
De tailed</w>
divor ced</w>
na u
car to
you --</w>
ed a</w>
comb ating</w>
frequ ent</w>
fu r</w>
real istic</w>
Lea der</w>
L ess</w>
Di al
t ress</w>
Michel le</w>
B loo
plat z</w>
hy gi
se gment</w>
uc ker</w>
per ing</w>
co stume</w>
hoo ker</w>
Em peror</w>
haz ardous</w>
la x
g ut</w>
coord inate</w>
trav eling</w>
hero es</w>
ea u</w>
ari um</w>
inc enti
v isi
be e</w>
Ini ti
phenom en
cri ed</w>
a ire</w>
F al
El i</w>
saf er</w>
f t
ac on</w>
bel ly</w>
sac red</w>
E x</w>
7 5
201 9</w>
ir o</w>
C up</w>
fac es
Mar tha</w>
con spir
K in
bel oved</w>
ac ity</w>
Chil d</w>
la m</w>
diam ond</w>
ap p</w>
le ague</w>
et ly</w>
Tai wan</w>
loo p</w>
exten ding</w>
C ab
ta to</w>
o oh</w>
4 50</w>
Rem arks</w>
favour ite</w>
dro ps</w>
bo iling</w>
Ke ith</w>
Franc isco</w>
min i</w>
gu ts</w>
pic ally</w>
Sha wn</w>
le ments</w>
Secon dly</w>
Phot os</w>
3 rd</w>
Loc al</w>
g est
Con stitution</w>
e ter
integr al</w>
distinc t</w>
Tur ns</w>
su es</w>
res ist</w>
Le w
ra m
pun ished</w>
demon stration</w>
Mess enger</w>
Margare t</w>
Con feder
- And</w>
col s</w>
bu sted</w>
Bel arus</w>
é s</w>
sho oter</w>
cere al</w>
pum ps</w>
ill u
cro wn</w>
bo ot</w>
Declar ation</w>
Coun t</w>
faces itting</w>
vom iting</w>
Proper ty</w>
ket ball</w>
k a
Mil itary</w>
y elling</w>
batter ies</w>
Tim es</w>
occu pied</w>
Fac ebook</w>
photogra ph</w>
ig ni
f itting</w>
exemp t</w>
Bar bara</w>
B A</w>
18 2</w>
Wal ker</w>
gra ding</w>
RI GHT</w>
lun gs</w>
po ur</w>
Sy ria</w>
ur ious</w>
at r
AU C</w>
ear th
IF RS</w>
ed ema</w>
5. 3</w>
ci ful</w>
scienti st</w>
rab bit</w>
Li am</w>
mom my</w>
Aw esome</w>
consequ ently</w>
Bo oth</w>
Par don</w>
vo ices</w>
p ality</w>
abo v
In nov
fli p</w>
emer ging</w>
PU B
rad ar</w>
loc ker</w>
g all
mac ro
c ope</w>
A F
mo ist
G reg
intermedi ate</w>
diff er</w>
t z</w>
go at</w>
col ours</w>
chec k
Jen nifer</w>
ste pped</w>
for warded</w>
to s</w>
docum ented</w>
mat ching</w>
conflic ts</w>
P sy
T old</w>
Insul in</w>
war ming</w>
t elecommun
remark able</w>
re conc
on avir</w>
indic ative</w>
in habit
fol k</w>
Th row</w>
G H</w>
si ves</w>
i ti
ch uckles</w>
b li
reven ues</w>
li fer
ho c
be ars</w>
val ley</w>
ut ory</w>
restra int</w>
he al</w>
S le
toler ance</w>
g us</w>
duc k</w>
Brea k</w>
T Y</w>
discre tion</w>
ca tional</w>
be gging</w>
wor rying</w>
over whel
ag ons</w>
H o</w>
restri al</w>
Brow se</w>
ad mission</w>
Ap prov
Bra vo</w>
what soever</w>
Restaur ant</w>
sy l
cha irs</w>
reason ably</w>
Avail able</w>
ut sch
Scot land</w>
Sp encer</w>
M and
H allow
deb ts</w>
al ise</w>
l it</w>
complain ant</w>
N er
veterin arian</w>
RI P</w>
Fri ends</w>
y ach
th is
igni tion</w>
gra pes</w>
ail s</w>
D er
κ α
tw ins</w>
f u</w>
syst emic</w>
mysteri ous</w>
K el
V C</w>
G lad</w>
egr o</w>
res ort</w>
hard ware</w>
We b</w>
Gu ideline</w>
s ickness</w>
fil tr
O S</w>
C R</w>
dot ted</w>
D um
til l
clos est</w>
Elec tric</w>
tr ans</w>
cry st
G ul
Bi o
ff in</w>
Not es</w>
Gu ide</w>
tri ps</w>
preser ve</w>
o let</w>
DV D</w>
larg ely</w>
de tect</w>
Mar s</w>
pursu it</w>
L ic
reci pe</w>
mess ing</w>
R al
testi fy</w>
comm ittees</w>
com partment</w>
An n</w>
paper work</w>
est ock</w>
Rec o
L ane</w>
ho stage</w>
div ide</w>
Ch er
in tim
be dro
1 107</w>
sim pl
H il
ex cipients</w>
Mad ame</w>
to cols</w>
es ar</w>
con science</w>
Wh enever</w>
head quarters</w>
b lah</w>
an dic</w>
C old</w>
mus h
i o
con gratulations</w>
ch y</w>
Kno ck</w>
ig ned</w>
pres sed</w>
ha bit</w>
Tra vis</w>
ref usal</w>
n m</w>
m itting</w>
with standing</w>
mus cles</w>
spec trum</w>
sa il
gra m</w>
correspon ds</w>
Ze aland</w>
EME A</w>
constitu tion</w>
b ou
2 70</w>
tri angle</w>
s giving</w>
row ed</w>
T AIL</w>
Bis hop</w>
g ated</w>
bu yer</w>
C e
3 000</w>
t an</w>
star ving</w>
Lo gan</w>
viol ation</w>
est ers</w>
aer op
Icel andic</w>
threat en</w>
G E</w>
G A
4. 2.
un like</w>
ge es</w>
con sec
bur ger</w>
edi atric</w>
bul l</w>
3 -</w>
id en</w>
em powered</w>
boo st</w>
S cre
encour aging</w>
an ol</w>
p tions</w>
faith ful</w>
dossi er</w>
rep lies</w>
Al pha</w>
eli x</w>
col m</w>
Si x
trage dy</w>
manag ers</w>
Sil ver</w>
6. 2</w>
t rem
b acked</w>
ick en</w>
Z one</w>
Rus sians</w>
un necessary</w>
lig ence</w>
WH O</w>
AI D</w>
r age</w>
Im port</w>
fat al</w>
Amon g</w>
A th
bar rier</w>
Ar c
jum ping</w>
f i</w>
prob ability</w>
Su gar</w>
tic a</w>
Hallow een</w>
Hy per
Ow en</w>
Car rie</w>
conver ted</w>
ee ks</w>
Per form
EX P</w>
sp her
s u</w>
analy ses</w>
bom bs</w>
anno ying</w>
ali ke</w>
7. 5</w>
dea f</w>
exerc ised</w>
be have</w>
acet ate</w>
O .</w>
Jen na</w>
al ine</w>
phys ically</w>
trans mit</w>
tis m</w>
hydro x
t .</w>
stra in</w>
Gu ard</w>
dra ma</w>
abov emen
Won der
De al</w>
ty res</w>
summ it</w>
inv isible</w>
W en
R ab
P ass</w>
C assi
A B</w>
treat y</w>
an don</w>
abovemen tioned</w>
PROV ISIONS</w>
G allery</w>
resp ects</w>
Dial code</w>
catch ing</w>
Rail way</w>
P I
Meas ures</w>
Chem ical</w>
par ano
ma xim
co very</w>
ar row</w>
TIT LE</w>
n in
Con f
Bar bie</w>
y p
dign ity</w>
Vi ra
S om
ther eafter</w>
resp ir
cy clo
ic on
wor ries</w>
emo tions</w>
sw elling</w>
ran e</w>
in ine</w>
Lan gu
P a</w>
gin ia</w>
for t</w>
M itch
promis ing</w>
dr ill</w>
car ries</w>
contribu ted</w>
under wear</w>
gent le</w>
vi ability</w>
wh ist
sustain ed</w>
s s
bit ches</w>
allo y</w>
bal ances</w>
vig il
C at</w>
harv est</w>
g gy</w>
an as</w>
F ax</w>
fri ghtened</w>
flo ating</w>
feed ing
Olymp ic</w>
flo ors</w>
Tow er</w>
Preg n
R ou
as is</w>
rac es</w>
fail ing</w>
P eri
s light</w>
connec ting</w>
str ate</w>
bad ge</w>
r ha
E M</w>
proced ural</w>
util isation</w>
ter ies</w>
deriv ative</w>
F ight</w>
B ar</w>
Indon esia</w>
ren z</w>
appro aching</w>
G az
testi mony</w>
n an</w>
ra ys</w>
on i</w>
i f
claim er</w>
- Hey</w>
D ress</w>
thir ty</w>
IR Y</w>
Ex per
Ac commodation</w>
bre ed</w>
chem otherapy</w>
govern or</w>
kill ers</w>
ol es</w>
associ ating</w>
17 8</w>
expi red</w>
list ing</w>
Con cer
B LE</w>
termin ated</w>
L ink</w>
ery thropo
p ill</w>
expen se</w>
adoles cents</w>
ine a</w>
lin ear</w>
w icked</w>
smil ing</w>
helicop ter</w>
Hea d
bon d
r h
pres sing</w>
Out turn</w>
-- I</w>
expl ore</w>
cur ve</w>
bl an
D eli
wid er</w>
P ope</w>
her itage</w>
ni es</w>
j ing</w>
ing ent</w>
af for
dre aming</w>
des c
m bers</w>
ed it</w>
e b</w>
d ine</w>
- Why</w>
v on</w>
Li ving</w>
is tic
Be hold</w>
om ed</w>
I mm
Har ris</w>
AL LY</w>
3 18</w>
car t</w>
C ash</w>
derog ations</w>
adjust ing</w>
terror ists</w>
pp le</w>
blo g</w>
Comm and</w>
un acceptable</w>
ac in</w>
k icking</w>
Wo od
wh i
Re porting</w>
ol dest</w>
chem istry</w>
canc elled</w>
e be</w>
T é
fin ishing</w>
de t
Syst ems</w>
cir cles</w>
P ush</w>
inser t</w>
arti sts</w>
pl ication</w>
Ho sp
step mom</w>
appe aring</w>
V ide
An im
dres ser</w>
F resh</w>
ag ers</w>
Cur rent</w>
s now
oc ate</w>
ob taining</w>
Cl in
wi reless</w>
mad am</w>
enth usi
congrat ulate</w>
O x
oc idal</w>
T RI
Dic tionary</w>
pun ish</w>
anti bio
F ant
diam onds</w>
T ina</w>
An th
forec ast</w>
a Tube</w>
ran dom
entr usted</w>
ro y
ep iso
dis per
Tot ally</w>
N eg
wonder ed</w>
H .
por ary</w>
cigaret tes</w>
K az
F IR
B o</w>
ke wise</w>
lif ting</w>
in son</w>
fa iry</w>
Vira fer
radi us</w>
invent ory</w>
do c</w>
S l
re stor
Spr ing</w>
N .
bo arding</w>
sp reading</w>
R ac
tw ist
pe op
in land</w>
bl essing</w>
no l
k u</w>
don or</w>
Wr ong</w>
Sever al</w>
L L
b iting</w>
Ris k</w>
K ee
ti re</w>
ome ter</w>
et ti</w>
ES S</w>
renew ed</w>
cur y</w>
A P</w>
collap se</w>
Vir ginia</w>
Perform ance</w>
mathema tical</w>
labor atories</w>
roc ket</w>
IL L</w>
A qu
discus sing</w>
w ol
mon um
lim itation</w>
UC H</w>
Bl u
worl ds</w>
spo ts</w>
il ian</w>
ex changes</w>
W ELL</w>
Li ghting</w>
con qu
design ate</w>
ex cre
Sou thern</w>
P ear
prop ag
nam ic</w>
m ill</w>
conf usion</w>
Veter inary</w>
fi res</w>
pa tional</w>
11. 2007</w>
G I
12 3</w>
Mal colm</w>
sn eak</w>
jud ges</w>
Snap shot</w>
PL Y</w>
in ator</w>
dis claimer</w>
Emp ire</w>
sus cep
conc ep
kl ace</w>
col um
no thin</w>
correc tive</w>
prohi bit</w>
col on
ρ ο
fil ament</w>
x ious</w>
Not withstanding</w>
signific ance</w>
f red</w>
ed onia</w>
subsidi aries</w>
Pal ace</w>
p tease</w>
l f</w>
heal thcare</w>
el i</w>
al ley</w>
Lew is</w>
discrimin atory</w>
S H</w>
el son</w>
W ell
wra pped</w>
e on</w>
S ports</w>
un expected</w>
con stra
ch est
dec ade</w>
Sh ane</w>
An ti</w>
phys ician</w>
de partments</w>
clus ive</w>
Qu ality</w>
le th
Ro b</w>
modi fications</w>
EXP IRY</w>
Ar ti
3, 5</w>
sh h</w>
J ules</w>
2 20</w>
co sme
y ö
spec tac
dem anding</w>
spea ker</w>
C are</w>
y an</w>
utili zes</w>
Mean while</w>
episo de</w>
elim inated</w>
clari fy</w>
be aten</w>
G am
C P
od y
mon sters</w>
j ah</w>
W olf</w>
S uc
APP EAR</w>
resol utions</w>
S HE</w>
st ent</w>
S crew</w>
Pre pare</w>
Environ mental</w>
Al ready</w>
4 6
an xi
Con tent</w>
re porter</w>
of i</w>
g on
co a</w>
J U
shi re</w>
m ud</w>
e urs</w>
compe ten
ch er
M ickey</w>
Con nor</w>
over sight</w>
Mal ay
le an</w>
escor t</w>
analy zes</w>
Prof essional</w>
F ru
19 80</w>
pass age</w>
O t
loy d</w>
j a
un believable</w>
an es
Al ban
P ay</w>
ap le</w>
bi tions</w>
Tu be
Har old</w>
F ab
hoc key</w>
bur nt</w>
Struc tural</w>
MR Ls</w>
Lea gue</w>
d ney</w>
Ph illi
C lim
ro d</w>
cor d</w>
Val ley</w>
Leon ard</w>
1 15</w>
wo ven</w>
ali ens</w>
prof ession</w>
hon ey
ho sti
incenti ves</w>
Guarant ee</w>
Con gress</w>
C N
en ic</w>
AC H</w>
stret ch</w>
investig ated</w>
h ers</w>
SEC TION</w>
te x</w>
su le</w>
any time</w>
R ory</w>
tw in</w>
trac tor</w>
der ers</w>
pre ad</w>
po le</w>
U su
heal ing</w>
Over all</w>
obs essed</w>
char m</w>
I --</w>
E lev
stra pon</w>
Jud gment</w>
in ding</w>
un anim
produc es</w>
fle w</w>
auth entic
METH OD</w>
Jon athan</w>
nap h
bur st</w>
aqu atic</w>
approxim ation</w>
Don ald</w>
Mon ica</w>
S yl
cat aly
ch illed</w>
Kar l</w>
L ots</w>
forth with</w>
E va</w>
U pon</w>
ty re</w>
f ere</w>
el er</w>
F lu
hor n</w>
liv estock</w>
IM O</w>
JO INT</w>
swa p</w>
cor rid
Sha ft</w>
S OL
trans formation</w>
Pen ny</w>
Ca tholic</w>
dr agged</w>
bedro oms</w>
port al</w>
ho stel</w>
end um</w>
P G</w>
B ush</w>
sou thern</w>
ne ts</w>
vol ati
n r</w>
dis continued</w>
4 -</w>
po tato</w>
P in
IN E</w>
ei ve</w>
Stan ley</w>
PH P</w>
CON TEN
G RO
omet ric</w>
announc ement</w>
Holi day</w>
Ash ley</w>
y n
it ly</w>
fe asi
min al</w>
ay e</w>
appe tite</w>
S em
os ity</w>
o to</w>
B ou
rit onavir</w>
am i
moder n
e dition</w>
su it
strang ers</w>
rein forc
or n</w>
env elope</w>
R ub
po ly</w>
po ckets</w>
B il
sh irts</w>
la me</w>
1 14</w>
ed es</w>
s ay
G lor
er als</w>
Lau ren</w>
Alex ander</w>
re tired</w>
loc king</w>
ab normal</w>
re vo
Dar k</w>
A venue</w>
tum or</w>
Ass embly</w>
S car
lo vers</w>
san itary</w>
sec toral</w>
s ers</w>
atten ded</w>
EC D</w>
198 8</w>
h l</w>
IN I
depres sed</w>
V id</w>
dial ysis</w>
D S
A V
co caine</w>
Fo x</w>
sli pped</w>
rol ler</w>
over night</w>
pro sper
politic ians</w>
po inting</w>
gu m</w>
Cle an</w>
resid ual</w>
min ent</w>
imag ined</w>
- Well</w>
4 68</w>
inter fere</w>
l ung</w>
m one</w>
Hol der</w>
t us</w>
gradu ate</w>
ch ester</w>
P OL
Meg an</w>
lu ggage</w>
T RE
n evertheless</w>
L ou</w>
great ly</w>
de grad
an ie</w>
K en</w>
pursu ed</w>
be hold</w>
13 9</w>
Gabri el</w>
poss ess</w>
St ef
L AU
om er</w>
agre es</w>
5 9
Wil d</w>
Sel f</w>
Ma p</w>
recei ves</w>
R h
bur ns</w>
alter na
mon s</w>
M M</w>
fem dom</w>
SU P
Pho ebe</w>
Moroc co</w>
stat utory</w>
Jer sey</w>
Z Mo
anc est
ZMo vs</w>
for bidden</w>
br ac
ali as</w>
un ited</w>
foot note</w>
str ated</w>
l ecture</w>
g ains</w>
In dic
Direc t</w>
Bal tic</w>
per mits</w>
Mar ine</w>
shoul ders</w>
fore stry</w>
Th ou</w>
finger prints</w>
12 2</w>
2 .</w>
occurren ce</w>
assi onate</w>
PROC ED
wea k
L eb
K ey
r ounds</w>
embr y
Electr onic</w>
32 23</w>
nick el</w>
Int egr
d rank</w>
Do ing</w>
popul ations</w>
lo sis</w>
f ittings</w>
c .</w>
Europe ans</w>
Cho ose</w>
Ap pe
incorpor ating</w>
lab els</w>
gr ac
che at</w>
bl ank</w>
Ro s
reci proc
vi able</w>
multi annual</w>
idi ots</w>
Nu Vid</w>
Willi ams</w>
un ts</w>
collabor ation</w>
pi re</w>
ig ns</w>
- Okay</w>
lap top</w>
LI C</w>
some thin</w>
p H</w>
aud its</w>
co ward</w>
cha os</w>
Rom a</w>
Avi ation</w>
3. 5</w>
diagno stic</w>
Euro pol</w>
Aud rey</w>
versi ties</w>
impa ired</w>
deser ved</w>
hop efully</w>
bas ketball</w>
oun ge</w>
organiz ations</w>
ff m</w>
s our
p unk</w>
0, 1</w>
Confeder ation</w>
Appl ause</w>
1 17</w>
dem ons</w>
Un sure</w>
ali bi</w>
Valent ine</w>
Mo del</w>
it us</w>
gho sts</w>
Ma x
d airy</w>
wid ely</w>
sor ts</w>
ounc ed</w>
exp and</w>
abo lic</w>
Cle arly</w>
hero in</w>
nec klace</w>
V ar
Phili pp
ARTIC LE</w>
recy cling</w>
cor ro
fri ed</w>
Per s
ounc er</w>
4 7
inter val</w>
In stitu
ti tles</w>
r inging</w>
acc ent</w>
plic ate</w>
Bal k
pr ick</w>
A tom
mag ical</w>
inhabit ants</w>
Egy p
II I
1, 3</w>
1 18</w>
High ness</w>
Bud dy</w>
B eg
reimbur sement</w>
AG ING</w>
Reg ul
Pi er
Ber ry</w>
sum mar
hom eless</w>
liter ature</w>
cor po
re aches</w>
broad cast</w>
Ac count</w>
El len</w>
j unior</w>
inst ant</w>
exemp tions</w>
Pil ot</w>
fli r
ph ine</w>
Con struction</w>
Su b</w>
Mitch ell</w>
speci alist</w>
prolon ged</w>
pa ths</w>
Hea ven</w>
G B</w>
prov es</w>
kil ogra
inter n
ail ey</w>
De pos
A z
5 ,000</w>
wa it
net t</w>
ed oms</w>
Wr ite</w>
th ank
b uck
L B</w>
licen sed</w>
P ath</w>
per pe
speci alised</w>
shar k</w>
ar se</w>
metabol ism</w>
A F</w>
tack le</w>
ren dered</w>
n as
p ace</w>
n ab
dipl omatic</w>
canc ellation</w>
TH ING</w>
S ide</w>
reli ability</w>
port able</w>
m all</w>
exclu de</w>
inf ec
Sh ep
N et</w>
O ECD</w>
B M</w>
ten sive</w>
Al icia</w>
C u
ch icks</w>
Ro oms</w>
E u
rev el
Ch ec
d ental</w>
ro id</w>
grab bed</w>
R av
en ni
I ce</w>
sil k</w>
Lin col
&apos; mon</w>
Bul lshit</w>
fa vi
amm ation</w>
ge o
ul ative</w>
gri ef</w>
fr action</w>
A hh</w>
sa iling</w>
choo sing</w>
oph istic
end ers</w>
con form</w>
In tel
tra itor</w>
sp a</w>
ast ed</w>
V O
inv ested</w>
hamm er</w>
f arms</w>
M ass
un related</w>
stab bed</w>
b locked</w>
ben ch</w>
pan els</w>
v enti
e v</w>
del icate</w>
J ar
Identi fication</w>
b at
5 6
fl u</w>
an n</w>
prof itable</w>
inter s</w>
favi renz</w>
chloro thiazide</w>
P E</w>
G row
Christ opher</w>
neph ew</w>
hor mon
benef icial</w>
L G</w>
F .
Bloo dy</w>
2 30</w>
in tr
al ter</w>
sag gy</w>
hy dra
condi tional</w>
Stri ptease</w>
Pre vious</w>
pos tal</w>
S ter
S au
wh ich
shor ter</w>
r ors</w>
pur i
control ler</w>
busin ess
p ters</w>
enzy me</w>
car cin
al liance</w>
1. 4</w>
mistak en</w>
vo id</w>
under cover</w>
jun gle</w>
S ony</w>
Pa ige</w>
sa il</w>
s z
l as</w>
G ross</w>
parliam entary</w>
a f</w>
lad y
D a</w>
nes ium</w>
ques tioning</w>
o .</w>
d .
li ghtning</w>
M ut
K O
pro files</w>
ud es</w>
me te
half way</w>
ha gen</w>
char t</w>
Bon nie</w>
&apos; I</w>
j an</w>
To k
In divid
Col om
p ar</w>
con signments</w>
vari ables</w>
preven ted</w>
Sy dney</w>
In side</w>
Har v
fool ish</w>
f ears</w>
Def ense</w>
K .</w>
B ay
th or</w>
accoun ted</w>
M ason</w>
F oc
EC E</w>
refl ects</w>
proportion ality</w>
bo ld</w>
For um</w>
p acks</w>
r up</w>
mist er</w>
cir cul
ut ro
Moun tain</w>
ab andon</w>
fif ty</w>
bacter ia</w>
Pe ter
mis sile</w>
Cam el
AS S
dissem ination</w>
r uc
at or
clin ically</w>
in ant</w>
Ry an
in appropriate</w>
acad emic</w>
bec ue</w>
O k
particip ant</w>
dev ast
fin est</w>
fat ty</w>
3 54</w>
o li
lik elihood</w>
Atom ic</w>
ter ror</w>
un certainty</w>
ty pically</w>
prote ins</w>
pre ferred</w>
V ip
Se bas
min es</w>
U E</w>
F RE
STR UC
K om
K iss</w>
S co
CONTEN TS</w>
direc tives</w>
con fron
circu its</w>
Elli ot</w>
De utsch
Bud get</w>
sk im
r in
K on
PUB LIC</w>
CO R
counter party</w>
un fortunate</w>
ur ge</w>
m at</w>
inten sive</w>
sc rap</w>
Lot to</w>
so ap</w>
TR AN
Fo ot
Fi gu
negoti ated</w>
ba thro
cr ushed</w>
p ly</w>
just --</w>
n ar</w>
wor m</w>
therap ist</w>
k le</w>
cred its</w>
contam ination</w>
ag en</w>
acqui re</w>
Approv al</w>
A verage</w>
o ked</w>
dev oted</w>
- Where</w>
Man ager</w>
C ard</w>
y right</w>
ry p
ha r</w>
ga thering</w>
Win ter</w>
Contin ue</w>
B ed</w>
ac o</w>
H L</w>
re sh
assem bled</w>
su red</w>
C D
pra ise</w>
continu ously</w>
c el</w>
Certi fic
30. 4.2004</w>
comple x
wr ong
Under stand</w>
h ack</w>
end ea
defend ant</w>
simpli fied</w>
h ed
K A
Des ign</w>
Cl ay</w>
Bei jing</w>
t ancy</w>
of the</w>
S leep</w>
e k
subsi dis
so da</w>
di arr
bo s
W ade</w>
N ACE</w>
re tention</w>
dess ert</w>
ast ers</w>
ann ually</w>
an ium</w>
1, 4</w>
E A</w>
ta stes</w>
mortg age</w>
eth nic</w>
emp tion</w>
wholes ale</w>
ι κ
sing er</w>
Ben jam
respon ding</w>
m us</w>
m ic</w>
ko v</w>
ir respective</w>
erad ication</w>
anti bodies</w>
enti s</w>
Co s</w>
aggre gate</w>
Tari ff</w>
un happy</w>
tis sues</w>
con ve
compl ain</w>
administr ator</w>
Na vigation</w>
tic o
re moving</w>
TE RI
Ob ama</w>
V a
PACK AGING</w>
over dose</w>
Ryan air</w>
Sto ck
sc al
issu er</w>
aw a</w>
3 3
brea sts</w>
je wel
V .
dist ant</w>
I. D.</w>
12 6</w>
She Shaft</w>
c z
ur gency</w>
thro p</w>
Mol do
accid entally</w>
wor ding</w>
glo bal
g el
I P
war nings</w>
tou rists</w>
but tons</w>
prec ision</w>
ili ary</w>
Nat alie</w>
con vention</w>
emphas is</w>
Lincol n</w>
J as
paper board</w>
t ops</w>
ar rog
To ok</w>
Anth ony</w>
mir al</w>
K itchen</w>
justi fication</w>
H IM</w>
res s
thor ough</w>
phenomen on</w>
s enti
Mur phy</w>
fil thy</w>
explo sive</w>
Ta x</w>
Ad just
0 20
me tric</w>
h ence</w>
explo sives</w>
M ister</w>
inc es</w>
dep loyment</w>
Pers onal</w>
bul k</w>
an cies</w>
st ub
s ophistic
refu gees</w>
quali fication</w>
perman ently</w>
ble ed</w>
reg ener
To ilet</w>
Islam ic</w>
engine er</w>
endea v
In fra
8 7
6 6
sal mon</w>
D ex
fi ghts</w>
H az
1 31</w>
tra ded</w>
D im
un g
t ing
reme dy</w>
mis si
cyl inder</w>
P re</w>
susp end</w>
res cu
naus ea</w>
gro ws</w>
attrac ted</w>
Phili p</w>
Mad rid</w>
J a
Gl ass</w>
w ages</w>
K la
poly mer</w>
fasc inating</w>
dis covery</w>
N R
dom ain</w>
D eep</w>
ome try</w>
Min utes</w>
ud ine</w>
heav ily</w>
but ter
1 20
ec ho
al o</w>
Nor man</w>
Mac edonia</w>
5 00
foc using</w>
nific ent</w>
activ ation</w>
s ack</w>
Mo der
Dun can</w>
l us
assu red</w>
Mo on</w>
ic ing</w>
Free ze</w>
pl ant
pat rol</w>
Sel ect</w>
S id
G as</w>
stic king</w>
pu rely</w>
dis t</w>
arre n</w>
AB OUT</w>
syn c</w>
se g
Com pe
Br un
wi e</w>
terri bly</w>
er n
imm uno
add ressing</w>
Di ego</w>
accred itation</w>
x x
th ong</w>
S ti
tal ented</w>
fin anci
enc lo
a oh</w>
P av
Mee ting</w>
trag ic</w>
Fi eld</w>
sk et
in ject</w>
in ches</w>
Bro ad
st eak</w>
infl ammation</w>
Rom anian</w>
Tit an</w>
In stitution</w>
qu et</w>
om on</w>
S ac
Ro le
Hol ly</w>
15 7</w>
od ka</w>
Tri bunal</w>
Ama zing</w>
2 ,000</w>
j unk</w>
distinc tion</w>
V ill
Hosp ital</w>
Col um
COM E</w>
so ber</w>
Eng ine
n ell</w>
prov ing</w>
mer ger</w>
est yle</w>
rob bed</w>
en ters</w>
Fin ance</w>
E th
si onal</w>
sc and
chick ens</w>
LIS T</w>
min ority</w>
hor mone</w>
Cam eron</w>
ro ad
M ill
H U
tal kin</w>
L ock</w>
de ton
Wal t</w>
import antly</w>
ent e</w>
Thank sgiving</w>
vir tual</w>
room mate</w>
im plications</w>
shi pped</w>
US D</w>
Pi per</w>
v enture</w>
philosoph y</w>
cen sored</w>
n els</w>
equ als</w>
coun try
N I
w rest
under stands</w>
inspir ation</w>
G rac
A 00
bit ter</w>
Ap plic
EE N</w>
Down load</w>
hom icide</w>
Al ter
h r</w>
X T</w>
h el</w>
cr acked</w>
tur key</w>
resear chers</w>
Ar m
ic ed</w>
T UR
com prise</w>
b out</w>
peri ph
is ia</w>
cul tures</w>
ag a</w>
we ir
rela tives</w>
l end</w>
respon ses</w>
ig no
host els</w>
0 2
tu rer</w>
desig ns</w>
w agon</w>
up side</w>
l ens</w>
di ve</w>
So dium</w>
re tained</w>
ass ing</w>
sp an
S Y
Mon etary</w>
un lawful</w>
a a
sha king</w>
bub ble</w>
C au
rec alled</w>
en hagen</w>
Stu dy</w>
Mon ten
in hal
tak e
re construction</w>
St al
ris ky</w>
lev y</w>
cha ins</w>
Ver on
K ey</w>
Under stood</w>
ori ented</w>
compl ying</w>
NA TO</w>
ba it</w>
ghten ing</w>
dist ress</w>
capac ities</w>
Pregn ancy</w>
defin ing</w>
C ulture</w>
CA P</w>
1 19</w>
pen s</w>
must n</w>
G w
1 16</w>
gg s</w>
che er</w>
Vip Tube</w>
experim ental</w>
distil lation</w>
cru de</w>
al g
bo thering</w>
ROU TE</w>
Gre y</w>
v ou
CAS E</w>
t ful</w>
acqu ain
R id
consen sus</w>
fo ren
Van essa</w>
L S</w>
qui etly</w>
le verage</w>
suc ker</w>
confir ming</w>
Inv esti
Cop enhagen</w>
Benjam in</w>
pre d
lea f</w>
ch o</w>
M echan
10. 2003</w>
z inc</w>
ne e</w>
irregul arities</w>
sp it</w>
B anks</w>
&apos; LL</w>
o sa
o i</w>
Win throp</w>
prom oted</w>
id ine</w>
fe wer</w>
eth yl
b ent</w>
17 0</w>
di ox
1 13</w>
de tention</w>
stero ids</w>
exemp ted</w>
cardi ac</w>
arri ving</w>
18 5</w>
make up</w>
Equi pment</w>
urrec tion</w>
ed itor</w>
L ex
&apos; m
Meth od</w>
bench mark</w>
C it
author ization</w>
Con taining</w>
sig nat
al it
Z i
Hea ther</w>
o .
ben zo
ay a</w>
Val ue</w>
Christ ine</w>
ö r
e w
ass y</w>
12 1</w>
cartri dge</w>
argu ing</w>
ak i</w>
Spe ed</w>
pro pri
anxi ety</w>
oc y
str ings</w>
colum ns</w>
blow s</w>
Les lie</w>
ori entation</w>
hun ter</w>
ach ment</w>
tow els</w>
ot es</w>
S F</w>
ff le</w>
po s</w>
le e</w>
L as</w>
Dan a</w>
mar ch</w>
cou ples</w>
cell u
W arren</w>
yl ate</w>
dres ses</w>
Y EA
Phar ma</w>
GH S</w>
is ite</w>
del ayed</w>
K im
Argent ina</w>
co ws</w>
admi re</w>
S par
photograph y</w>
lo bby</w>
fi ghters</w>
C atch</w>
B ang
sl ut</w>
che ated</w>
hybri d</w>
gh ing</w>
Ven e
St eel</w>
num b
men ded</w>
au x
sy rup</w>
lac t
back wards</w>
Phy s
manif est</w>
in take</w>
T W
C anc
thir sty</w>
Dam on</w>
need les</w>
inten si
ici encies</w>
att an</w>
f ats</w>
emal es</w>
Lar ge</w>
bloc king</w>
Pic tures</w>
In n</w>
corpo rations</w>
bo o</w>
---------------- ----------------
objec tion</w>
o ath</w>
be ard</w>
b are</w>
surve ys</w>
consider ably</w>
provisi onally</w>
exhi bit</w>
ec tors</w>
Sh ang
N ev
ali an</w>
pe an
consu med</w>
ell ers</w>
Dev il</w>
sur plus</w>
yog a</w>
hygi ene</w>
19 75</w>
house holds</w>
comm issi
12 55</w>
Dom in
ir besartan</w>
fore sts</w>
ap it
Sam my</w>
G I</w>
Hea ds</w>
R are</w>
P ig
Fli x</w>
7 50</w>
YEA H</w>
Sh ort</w>
2. 4</w>
reck on</w>
D il
B ig
sha l</w>
ni k</w>
c ub
S ound</w>
in forma
Pro ble
emor rha
anc ement</w>
gr ound
Y outh</w>
AN D
slaugh tered</w>
pharmacokine tics</w>
lif ted</w>
cl am
scrut iny</w>
ill um
Tar get</w>
ri k</w>
pro lifer
con fin
c ited</w>
ED F</w>
pa st
itch ed</w>
an a
experim ents</w>
ev al</w>
dam s</w>
W er
phen yl
val idation</w>
dis agree</w>
war s</w>
l est</w>
cer amic</w>
S ort</w>
B lake</w>
pric ing</w>
fla me</w>
f itness</w>
vo cational</w>
b end</w>
B ed
ind ers</w>
gra pe</w>
TH IN
T ig
Di ane</w>
off ence</w>
CH MP</w>
sear ched</w>
excep tions</w>
u me</w>
thor ough
pal m</w>
198 6</w>
em peror</w>
acknowle dged</w>
Usu ally</w>
Rem ove</w>
gly cer
T reaties</w>
S or
Car d
p ts</w>
o thy</w>
el abor
ES MA</w>
terri fic</w>
Mi x
K ent</w>
D I</w>
mat er
pup ils</w>
occur ring</w>
T racy</w>
S in
Mar co</w>
Ar ound</w>
disturb ance</w>
fish er
li p</w>
fa ti
up dates</w>
ch i</w>
broad casting</w>
Wen dy</w>
Ret urn</w>
Bra d
uni versities</w>
ri pped</w>
o de</w>
moist ure</w>
ac e
ser geant</w>
li eutenant</w>
fi sting</w>
co ke</w>
O ri
z ation</w>
ou tw
M W</w>
Ba th
Am ber</w>
ra ft</w>
li a
dic t
usti n</w>
pen ny</w>
Oc ean</w>
Loc ation</w>
G as
Cana dian</w>
CM O</w>
F C</w>
3. 3</w>
clim bing</w>
Democ ratic</w>
co ating</w>
switch ing</w>
pen sions</w>
Ca esar</w>
gas oline</w>
bel ts</w>
c ables</w>
clo wn</w>
sna p</w>
re payment</w>
public ations</w>
camp us</w>
Y Y
WA Y</w>
R ig
nor thern</w>
ess ence</w>
pa d</w>
la in</w>
Poli tical</w>
mp tions</w>
be es</w>
je w
it an</w>
fre edoms</w>
cre at
Per son
dis closed</w>
di versi
Sen ate</w>
Lo wer</w>
vis itor</w>
swee ten
TI ME</w>
Mach ine</w>
Fl ash</w>
terri fied</w>
Tel ef
hall uc
conver t</w>
Stra ight</w>
Nic hol
cap ability</w>
Co hesion</w>
B ayer</w>
V ic</w>
d ence</w>
bi ocidal</w>
suc rose</w>
en abled</w>
R uth</w>
16. 11.2007</w>
l ub
counter fe
S now</w>
g el</w>
Vide o</w>
Har per</w>
D G</w>
an onymous</w>
6 8
purcha sing</w>
prin ter</w>
mat ory</w>
high way</w>
h r
f ing</w>
dipl om
J oc
St ud
top ics</w>
s lov
S ize</w>
S M
E ye</w>
ro ds</w>
gra phy</w>
d able</w>
Mar itime</w>
zz iness</w>
wa x</w>
miti gation</w>
cu ps</w>
buc ket</w>
B ear</w>
C U
over view</w>
fran kly</w>
SE E</w>
Fin nish</w>
dar ies</w>
C over</w>
12 60</w>
shoc ked</w>
gri p</w>
B L
j am</w>
em en</w>
renov ated</w>
confir ms</w>
R od
injec ted</w>
astro intestinal</w>
May a</w>
L ang
Di e</w>
P as
Lib ya</w>
re stored</w>
E RE
Def ence</w>
un used</w>
coun t
consec utive</w>
us ions</w>
bot s</w>
bas es</w>
pharmac eutical</w>
liber ty</w>
et on</w>
cred itors</w>
Ver ily</w>
P ort</w>
e ats</w>
Sebas tian</w>
19 70</w>
gre y</w>
add le</w>
L. A.</w>
v ah</w>
Free dom</w>
p d
in puts</w>
h on</w>
Wonder ful</w>
Monten egro</w>
- Who</w>
sil icon</w>
ak a</w>
Hear t</w>
w ished</w>
ver ily</w>
go s</w>
aut umn</w>
2 b</w>
he ated</w>
cap tive</w>
ac knowledge</w>
Smar t</w>
inten tions</w>
di tionally</w>
C C</w>
Pl at
constitu ents</w>
S ust
Am ount</w>
respir atory</w>
peri meter</w>
enh ancing</w>
Co ord
refl ecting</w>
b acking</w>
un censored</w>
u lic</w>
cru ise</w>
Cra ig</w>
v ir</w>
cl ay</w>
belon ged</w>
at tract</w>
al thy</w>
S ea
Lo vely</w>
en ship</w>
y ell</w>
pro tocols</w>
decor ated</w>
bicy cle</w>
al y</w>
Ann ouncer</w>
ra in
experi encing</w>
eleg ant</w>
conveni ence</w>
ar do</w>
ammon ium</w>
supple ments</w>
o le
Fir stly</w>
st ating</w>
Jo an</w>
sk ins</w>
as ser
ac ter
volunte ers</w>
tow el</w>
st em</w>
imp acts</w>
Associ ated</w>
coher ent</w>
OU R</w>
1 -</w>
st an</w>
pra yers</w>
low ers</w>
inqu iry</w>
attemp ted</w>
S eth</w>
br on
Cha se</w>
work shop</w>
hosp it
domin ant</w>
superv ised</w>
dre amed</w>
bur gh</w>
sla ves</w>
si c</w>
hosp itals</w>
com promised</w>
under water</w>
to oth
get tin</w>
dest ined</w>
Qu estion</w>
U sed</w>
Moldo va</w>
resid ential</w>
ion ally</w>
ra de</w>
gi g</w>
compe ting</w>
Wh is
Imple mentation</w>
reci pes</w>
ann ounce</w>
u ble</w>
commod ity</w>
18 31</w>
dr um</w>
4. 6</w>
In struc
15 6</w>
t etra
rough ly</w>
un conscious</w>
hard core</w>
12 8</w>
fron tier</w>
a z</w>
Hop efully</w>
v ain</w>
li ghter</w>
independ ently</w>
az z</w>
Defin i
squee ze</w>
sp ite</w>
Sec ret</w>
mark et
m otel</w>
Chan nel</w>
radio active</w>
fl our</w>
L o</w>
dic ally</w>
H us
ad visory</w>
Wi fe</w>
ver te
substan ti
ec ological</w>
d ess</w>
bu gs</w>
M emor
ven ant</w>
sur faces</w>
decreas ing</w>
H as
pu ppy</w>
mar rying</w>
on ian</w>
accompl ished</w>
ran ging</w>
int el</w>
the ft</w>
deliver ing</w>
Tro y</w>
F ly
isol ation</w>
gener ating</w>
Pack age</w>
F ace</w>
frequ encies</w>
Consi der</w>
k k
Stu dies</w>
shri mp</w>
be tray</w>
subm itting</w>
def iciency</w>
E van</w>
wi g</w>
system atic</w>
il ia</w>
hun ger</w>
activ ate</w>
R ain
M UST</w>
remin ded</w>
fl uc
or ous</w>
f usion</w>
ot ech
Th or
yö u</w>
respon ded</w>
telecommun ications</w>
Merc edes</w>
C oc
tor ies</w>
in tu
hoo ked</w>
ta pes</w>
ho ea</w>
ili ans</w>
tr as
motor cycle</w>
ab duc
Mon sieur</w>
kil omet
at i</w>
an on</w>
P ack</w>
soc cer</w>
ques tioned</w>
T reas
ci v
Lo st</w>
Kur t</w>
attemp ts</w>
SUB ST
Le x</w>
see ks</w>
be st
fra mes</w>
It em</w>
repe at
ner ships</w>
com in</w>
C ari
negoti ation</w>
12. 2013</w>
ni gg
O u
Star ting</w>
D N</w>
9 99</w>
ev en
col our
1, 2</w>
O d
K er
gr ay</w>
wr it
ten dering</w>
par ked</w>
fur t</w>
J ew</w>
m oul
h eck</w>
ME S</w>
OP ER
bu d</w>
pro test</w>
lay ers</w>
Sec ur
Gra ham</w>
conspir acy</w>
N um
st um
im per
bar rel</w>
IN TER
dra ws</w>
cir cus</w>
loy ed</w>
foot wear</w>
ac company</w>
gradu ated</w>
des ires</w>
Cha ir</w>
m r</w>
S ign</w>
J eez</w>
scre ening</w>
pic ion</w>
abdom inal</w>
R A</w>
Nic ole</w>
t edly</w>
newspap ers</w>
Un believable</w>
to es</w>
tor ment</w>
re production</w>
decisi ve</w>
Ama z
exam ining</w>
bever ages</w>
tion er</w>
adv ances</w>
tri ple</w>
d t</w>
J in</w>
ev ing</w>
Qu e
u ous</w>
pe pper</w>
ong side</w>
ech es</w>
3 47</w>
14 7</w>
def ending</w>
Sol omon</w>
Ser ies</w>
Pub l
5 4
ent ures</w>
az ines</w>
Su preme</w>
occas ions</w>
H od
perio dic</w>
occu pational</w>
negoti ating</w>
e ks</w>
h ills</w>
accep ting</w>
El lie</w>
sur prising</w>
ro b</w>
on ary</w>
Glor ia</w>
sophistic ated</w>
Hun ter</w>
For m</w>
ad ays</w>
H T
Gu il
d ual</w>
c in</w>
C ere
B om
at ro
ingredi ent</w>
Isa ac</w>
zo o</w>
war ding</w>
tom atoes</w>
it s
dea dly</w>
blan ket</w>
F elix</w>
198 5</w>
ti li
ear ning</w>
hol m</w>
G host</w>
un limited</w>
thri tis</w>
gar dens</w>
ad hes
p im
neighb our
a j
ch im
Qu ickly</w>
Nur se</w>
In tro
smo ked</w>
all as</w>
J un
ri vers</w>
lam b</w>
is ine</w>
ell i</w>
an ity</w>
Innov ation</w>
theore tical</w>
P ast
H ER</w>
trans plant</w>
prospec ts</w>
g ent</w>
ec o</w>
dor m</w>
bab y
F ishing</w>
cri pt</w>
ab sur
I mp
l is</w>
F eed</w>
coun sel</w>
celebr ating</w>
S id</w>
sc ul
mi xing</w>
Mul der</w>
ING S</w>
Al low</w>
i P
assu mptions</w>
it ment</w>
ag ger</w>
T ill</w>
Br on
prepar atory</w>
u h
l uc
es tive</w>
17 2</w>
w l</w>
poll ut
T RO
loo kin</w>
ha ble</w>
ad orable</w>
accum ulation</w>
UN D</w>
Tar a</w>
Malay sia</w>
qu id</w>
T ub
read ers</w>
peri al</w>
fab ulous</w>
- Don</w>
u ality</w>
tor n</w>
del ete</w>
bet ting</w>
ar c
T ags</w>
thi um</w>
destro ying</w>
T V
Phar aoh</w>
Open ing</w>
Fr ont</w>
z ard</w>
dis missed</w>
rep lied</w>
purcha ses</w>
por k</w>
Ron nie</w>
trac es</w>
pon e</w>
feeding stuffs</w>
, 5</w>
out break</w>
furn ished</w>
der man</w>
bar n</w>
F ICATION</w>
refl ection</w>
tw ist</w>
pa ste</w>
bi o</w>
ie tin</w>
car ton</w>
10 0,000</w>
micro grams</w>
it ude</w>
exerc ises</w>
econom ically</w>
sti m
be ts</w>
Rel ease</w>
H ence</w>
los ers</w>
TO TAL</w>
r ina</w>
nation ality</w>
AI DS</w>
bac on</w>
Bo om</w>
ã o</w>
squ ir
po o
min i
attri buted</w>
em pire</w>
S mi
w ere
concomit ant</w>
c ence</w>
smar ter</w>
sc ap
diab etic</w>
col oured</w>
b ass</w>
Proph et</w>
Corpor ation</w>
speci fying</w>
it z
12 4</w>
ri bs</w>
pd f</w>
occup ation</w>
employ ers</w>
AC TIVE</w>
14 5</w>
Objec tive</w>
All ison</w>
k en
boun daries</w>
J HA</w>
w ears</w>
no tion</w>
lo b
Bran don</w>
X III</w>
F ast</w>
reli eved</w>
d .</w>
Stef an</w>
San dy</w>
IM F</w>
va ult</w>
sha ft</w>
cheer leader</w>
air lines</w>
neutr al</w>
deteri oration</w>
Me aning</w>
lev eland</w>
j ournal</w>
allo ys</w>
par adise</w>
Grow th</w>
fir mly</w>
Fin n</w>
Bar ney</w>
stra p</w>
cho p</w>
Do gs</w>
- --</w>
hel m</w>
f emales</w>
T ol
dre am
deli ghted</w>
ap pre
to il
rif le</w>
gar s</w>
consoli dation</w>
Ukra inian</w>
Ne al</w>
sub ord
su ms</w>
Par tic
Car l
tor que</w>
sp ra
rein forced</w>
in duced</w>
desig nations</w>
complain ing</w>
Role play</w>
Mess age</w>
6. 3</w>
X I</w>
G all
prop yl</w>
di er</w>
F estival</w>
Col in</w>
ens in</w>
Meg aTube</w>
g az
Brea the</w>
12 7</w>
pro sp
bi om
G S</w>
pe t
Telef on</w>
COMM UN
tr ic
predic table</w>
h attan</w>
dra in</w>
aim ing</w>
He h</w>
s essions</w>
interrup ted</w>
g ru
g aining</w>
plat forms</w>
cr um
D Y</w>
Con sul
Cer tain</w>
de duction</w>
celebr ation</w>
RE ACH</w>
Da isy</w>
under stand
parano id</w>
cr ashed</w>
N elson</w>
F at</w>
uni tion</w>
kidn apping</w>
Chris tians</w>
13 5</w>
dep uty</w>
M itch</w>
L ana</w>
F I</w>
C T</w>
mist ress</w>
el o
coast al</w>
air line</w>
tra ders</w>
pl un
modi fy</w>
S kin</w>
C max</w>
Ag ainst</w>
hum or</w>
J ump</w>
A O</w>
mess enger</w>
fuc kers</w>
&apos; s--</w>
vin yl</w>
fin ances</w>
He ating</w>
Do or</w>
re x
ch en</w>
SUP PLY</w>
vir tually</w>
coll ar</w>
Veron ica</w>
H ector</w>
ann on</w>
a tively</w>
W ine</w>
T rac
Deb bie</w>
po int
Speci es</w>
D ance</w>
fashi oned</w>
f ound
Jo han
di ary</w>
Y ING</w>
vari ation</w>
ro so</w>
ick et</w>
for um</w>
Bro ok
Al ison</w>
psycho logical</w>
multip lied</w>
fo il</w>
str uggling</w>
shut tle</w>
par ti
lo go</w>
inspec tor</w>
sus picion</w>
sh alt</w>
hon ored</w>
cap abilities</w>
clo th</w>
ch ur
CL AS
B itch</w>
M ount</w>
LI A
EN TS</w>
un desirable</w>
Vi br
S tick</w>
thresh olds</w>
facilit ating</w>
div ine</w>
- Good</w>
Cam p
bi g
z h
t ability</w>
19 th</w>
µ g</w>
anticip ated</w>
Fl at</w>
A 1</w>
sp inning</w>
D inner</w>
tou gh
in os</w>
PROCED URE</w>
oc ity</w>
medi an</w>
ag u
Je ho
fl ed</w>
st yl
off ences</w>
interpre ted</w>
frea ked</w>
P un
t v</w>
do pe</w>
Micro soft</w>
tow ns</w>
ra h</w>
exam inations</w>
el t</w>
preci p
d ale</w>
Dr agon</w>
S K
pul p</w>
m ount</w>
N L</w>
sco res</w>
s ly</w>
termin ate</w>
Shemale Z</w>
T rou
in cl
fati gue</w>
Reg ister</w>
P on
Ex press</w>
jewel ry</w>
S HA
fo g</w>
10 000</w>
it ated</w>
qu ake</w>
or dering</w>
c H
Ti er</w>
L av
phot o
bra kes</w>
ban ana</w>
Tun isia</w>
Jo y</w>
over seas</w>
ac r
stu ffed</w>
X ena</w>
ol o</w>
in correct</w>
Z ach</w>
5 10</w>
shel f</w>
conver gence</w>
- Are</w>
pro pan
wr ites</w>
rea uc
micro wave</w>
electr on</w>
I van</w>
prosec ution</w>
fi ers</w>
contin ent</w>
appl es</w>
Wor l
C s</w>
AS T</w>
phosp hor
pat ent</w>
obe di
H TC</w>
or i</w>
Frank lin</w>
Co ast</w>
cor relation</w>
I E</w>
A po
pres enting</w>
comm anded</w>
Rever end</w>
I ES</w>
ex pe
N EC
B ailey</w>
B E
oper a</w>
STA TE
Com petition</w>
war ran
pil low</w>
fulfil ment</w>
Pier re</w>
C AT</w>
D ale</w>
div isions</w>
V in
fol der</w>
am in
four some</w>
disp utes</w>
Mar io</w>
objec tions</w>
fertil ity</w>
en z
Swee tie</w>
Motor ola</w>
en ue</w>
c il
Dec ree</w>
Comm er
spot ted</w>
ax le</w>
Dig ital</w>
C leveland</w>
o edema</w>
la wn</w>
b ourg</w>
Musli m</w>
sovere ign</w>
con dom</w>
ner ves</w>
ne gl
po un
off set</w>
guar dian</w>
4 th</w>
sugg estion</w>
organ ise</w>
lox acin</w>
Rep ub
ri ot</w>
inv asion</w>
cho le
aut opsy</w>
W eek</w>
im pregn
mon ary</w>
en counter
mon t</w>
ep ing</w>
di ver
un due</w>
tax pay
ST OR
Ch icken</w>
Fil es</w>
wrec k</w>
ad ds</w>
3 A4</w>
twist ed</w>
ail ed</w>
V illa</w>
hel met</w>
Ple as
- So</w>
optim al</w>
bl ind
Y ours</w>
Cub a</w>
gener ator</w>
g ement</w>
f s</w>
mo des</w>
Ex peri
in solvency</w>
bond age</w>
Me g</w>
distor tion</w>
K rist
gro cer
R ich</w>
Por t
wi ped</w>
S cheme</w>
Per u</w>
docum entary</w>
Jan et</w>
vie w
vag ina</w>
o va</w>
fil ing</w>
no te
Lou ise</w>
Kir k</w>
ro v
li est</w>
Fun damental</w>
worth iness</w>
princi p
en n</w>
S K</w>
B us</w>
17 82</w>
them es</w>
red ness</w>
corp se</w>
commer ci
S HO
k ing
a. m.</w>
ful filling</w>
N uc
comm and
pur ple</w>
as th
Shang hai</w>
FIR ST</w>
pol ite</w>
dra wer</w>
NE W</w>
struc tured</w>
kind ness</w>
Reg arding</w>
Harv ard</w>
sle y</w>
explic itly</w>
ins ult</w>
Repe at</w>
stat ue</w>
peop les</w>
Mc Gee</w>
try meat</w>
prog ressive</w>
med al</w>
comb inations</w>
TA KE</w>
Ray mond</w>
pa ediatric</w>
ME AS
- Come</w>
ho sting</w>
et a</w>
bio diversity</w>
Cari b
Par adise</w>
sol ving</w>
restric t</w>
premi ums</w>
necess ity</w>
liqu or</w>
r ounded</w>
Ral ph</w>
bor rowed</w>
Institu tions</w>
An derson</w>
ag o
Hea ding</w>
k el</w>
clean er</w>
approv ing</w>
al lies</w>
conf using</w>
ble ep</w>
C ry
Ther ap
R and
Bla ir</w>
trou bles</w>
s ore</w>
mar row</w>
li fel
it ement</w>
defe ated</w>
condi tioned</w>
Mag ic</w>
the irs</w>
dis asters</w>
Go ods</w>
C P</w>
S aul</w>
un changed</w>
em ma</w>
cap sule</w>
Tel ephone</w>
am ents</w>
vi v
refin ed</w>
reduc es</w>
youn g
sub stitute</w>
jud ged</w>
ow s</w>
ad missible</w>
d well</w>
Inde x</w>
5 8
chi ves</w>
Langu age</w>
wol ves</w>
happ ier</w>
sol uble</w>
p ent
PAR LIA
C ad
si es</w>
pri ests</w>
pois oned</w>
j an
Chea pest</w>
o tive</w>
ten ance</w>
ha un
S ME</w>
K ay</w>
v as
ri fic
character istic</w>
pra ying</w>
der ness</w>
G .</w>
g ently</w>
surviv ors</w>
expl aining</w>
Dri ving</w>
act ress</w>
M C</w>
2 a</w>
dist ort</w>
Hom er</w>
volunte er</w>
leg acy</w>
jo ints</w>
im me</w>
gh test</w>
Aud i</w>
Adri an</w>
Ad miral</w>
ster dam</w>
fet ch</w>
Gra y
u ter
carto on</w>
W I
suc ked</w>
can e</w>
V it
Individ ual</w>
parame ter</w>
ed ges</w>
R um
sur prises</w>
mad ness</w>
car pet</w>
an tha</w>
transl ated</w>
knoc king</w>
ar thritis</w>
ack ers</w>
a us
az one</w>
att acking</w>
mag nificent</w>
lan es</w>
ch in</w>
bu reauc
brut al</w>
Pl ant</w>
v est</w>
Sho wer</w>
C F</w>
Black Berry</w>
hydrox ide</w>
Y ay</w>
Bar roso</w>
frag ile</w>
cus sion</w>
cur sed</w>
chem ically</w>
vari ations</w>
high light</w>
Frank furt</w>
wh it
strength ened</w>
do ers</w>
GO T</w>
ro of
l ity</w>
inter ro
Wo od</w>
Boy d</w>
py ra
Z ero</w>
T ren
Kla us</w>
t s
k ov
G y
and ra</w>
satis fying</w>
rad ical</w>
o visual</w>
nu dist</w>
l ousy</w>
S pl
RE F
ssi p</w>
fe at
journ alist</w>
dis close</w>
O i</w>
se ized</w>
rup t
op hen
em a
Inclu ding</w>
19 0</w>
mark er</w>
boo ze</w>
Man hattan</w>
enzy mes</w>
- She</w>
o ks</w>
contrac tor</w>
privileg es</w>
mag azines</w>
M au
w ay
Carib bean</w>
soci eties</w>
scre wing</w>
rom ance</w>
reci pients</w>
sha pes</w>
mor on</w>
ep is
Flo rence</w>
s ad
trac ked</w>
bud dies</w>
attrac tions</w>
aff ili
W ANT</w>
im press</w>
e i</w>
A y
expi re</w>
d é
CH IL
Alban ia</w>
Anim als</w>
k ling</w>
dis k</w>
GO ING</w>
succ eeded</w>
ti ger</w>
ro s</w>
B art</w>
multip ly</w>
vitam in</w>
honey moon</w>
ex pose</w>
co operative</w>
re pa
psych ic</w>
Th i
convinc ing</w>
vol can
po d</w>
le uk
d ancer</w>
Wor ks</w>
thorough ly</w>
pol ar</w>
nic ely</w>
mal es</w>
lady boy</w>
W ater
Pr o</w>
wheel chair</w>
war p</w>
ign ty</w>
dead lines</w>
K id
D aw
moun ting</w>
in clusive</w>
free zer</w>
descri bes</w>
Tran si
Hol mes</w>
Di ana</w>
suc king</w>
shr ink</w>
mar tial</w>
e c</w>
but yl</w>
St ability</w>
w ishing</w>
Tax i</w>
Pow er
P ha
sof a</w>
cel eb
Sur prise</w>
Neg ative</w>
curren cies</w>
L earn</w>
Chea p</w>
ody namic</w>
de struc
be ats</w>
PARLIA MENT</w>
Cap e</w>
All en</w>
tox ic
counter parties</w>
bl in
n esses</w>
li ghted</w>
Indi ans</w>
hi a</w>
chea per</w>
be aches</w>
R IS
ho c</w>
en er</w>
cin ema</w>
Mil an</w>
2, 4</w>
un tie</w>
ster ol</w>
jac ent</w>
to s
scul p
B ase</w>
Ac ting</w>
pe p
modi ties</w>
- But</w>
di min
K itty</w>
exha us
ath le
IC T</w>
ref resh
nam ents</w>
mo le</w>
influ enced</w>
ful fill</w>
wi dow</w>
dic t</w>
Go th
om ers</w>
OU TER</w>
Ma thema
B et</w>
re main
qu ad
ot ensin</w>
de pri
S ky</w>
Aut omatic</w>
Anton io</w>
lin en</w>
cook ie</w>
lad s</w>
Fant astic</w>
propos ing</w>
re comb
mal ign
4 9
rel la</w>
disturb ing</w>
Mad ison</w>
Jo in</w>
Emer gency</w>
A ge</w>
infring ements</w>
compens ate</w>
cellu lose</w>
Min isters</w>
str o</w>
sil es</w>
la zy</w>
bal ancing</w>
O s
Tra ff
T our</w>
tr u</w>
sen ses</w>
ann ul
W an
b ump</w>
an xious</w>
L AN
14 9</w>
quali fying</w>
m ph
gar lic</w>
F ar</w>
draw ings</w>
de m</w>
B ub
tra ilers</w>
read er</w>
gal axy</w>
dis ability</w>
Pic ture</w>
n í</w>
ow ing</w>
H EA
sw inger</w>
suscep tible</w>
partic le</w>
complic ations</w>
F light</w>
Ex penditure</w>
targe ting</w>
pl ague</w>
W ILL</w>
Tok yo</w>
r u</w>
Gal il
evac u
ea ger</w>
int ent</w>
ee m</w>
con sig
SER V
S it
gra ded</w>
exec ute</w>
en ix</w>
Dre w</w>
watch es</w>
sla p</w>
prof loxacin</w>
G ina</w>
C ON</w>
Am sterdam</w>
es k
desig ner</w>
Palest inian</w>
Me dia</w>
D EN
rum ors</w>
prov ince</w>
pe ar
there for</w>
swe at
F arm
2 40</w>
reas oned</w>
cu ffs</w>
Sam uel</w>
R ita</w>
B uck
diagno sed</w>
Bro oke</w>
form ally</w>
deduc ted</w>
Mir anda</w>
vampi res</w>
organis ational</w>
anc a</w>
Se attle</w>
M el</w>
insi sted</w>
Fur n
BA T</w>
sel ler</w>
ru ins</w>
ran ges</w>
TE N</w>
D ea
L ance</w>
F un</w>
4 3
whis key</w>
DA Y</w>
stra w</w>
o y
cl ed</w>
antibio tics</w>
privileg e</w>
poe try</w>
Dub lin</w>
min imal</w>
gy no</w>
alg ori
Str as
. cz</w>
al ongside</w>
autonom ous</w>
sta b</w>
arr ay</w>
absor bed</w>
Fru it</w>
Eff ects</w>
B uc
civ ilians</w>
calibr ation</w>
cab inet</w>
In to</w>
5 7
Cal eb</w>
c ans</w>
Sha w</w>
K am
2 80</w>
c unt</w>
R ather</w>
P ain
v ector</w>
tre mend
end less</w>
C had</w>
inv en
di d
STATE MENT</w>
igno red</w>
Hor iz
G BP</w>
per missible</w>
m itt
distor tions</w>
un stable</w>
recomb inant</w>
Four th</w>
Compe tent</w>
res em
m our
dr a</w>
Thir ty</w>
Nor mal</w>
dec eased</w>
cou pling</w>
14 2</w>
visi bility</w>
ti um</w>
hydro chloride</w>
assu mption</w>
Fer r
Con ver
trac tion</w>
ho sts</w>
har sh</w>
fo ols</w>
fl ash
Ra di
up grade</w>
quar terly</w>
il ings</w>
n g</w>
P ed
6 7
5 75</w>
ey e
ch at
Pay ment</w>
Gul f</w>
C ob
z ar
ir rit
illi an</w>
B ad
hum ble</w>
e dible</w>
c ess
stub born</w>
or bit</w>
gen ous</w>
to --</w>
thum b</w>
por nia</w>
ant agon
mis understanding</w>
fluc tu
roy alty</w>
int ol
ic it</w>
happ ily</w>
re vi
part nerships</w>
Simil arly</w>
v apo
pupp ies</w>
Y ellow</w>
Est abl
26 58</w>
initi ating</w>
Fl ash
Str ange</w>
ple a</w>
sp ati
s have</w>
Man ny</w>
ust y</w>
for getting</w>
an om
G A</w>
AD DRE
sat ur
T ess</w>
epis odes</w>
M Hz</w>
molec ular</w>
Out side</w>
M ia</w>
sh an</w>
ro y</w>
rit ual</w>
b uck</w>
publ ishing</w>
gl ut
W es
Al liance</w>
spac ious</w>
Ri o</w>
M O</w>
2 18</w>
imp lies</w>
ff les</w>
V EN
Pro ve</w>
1 a</w>
z ers</w>
mon keys</w>
hi bition</w>
bar becue</w>
X II</w>
US B</w>
I -</w>
A A</w>
lif estyle</w>
AI L
autom ated</w>
X Babe</w>
M iss
sac rific
pharmacokine tic</w>
Pos sible</w>
P am</w>
Inter est</w>
publ icity</w>
opa thy</w>
A part</w>
20 6</w>
ot ype</w>
inser tion</w>
Po st
Mel issa</w>
cle ans
bis exual</w>
6. 6</w>
distur b</w>
pol is</w>
b ore</w>
K han</w>
13 08</w>
od le</w>
lo ses</w>
d ice</w>
MA TERI
B ones</w>
th ful</w>
sh outing</w>
ste pping</w>
k een</w>
explo de</w>
ab el</w>
Swee theart</w>
V el
En ti
im er</w>
dec iding</w>
av entis</w>
Rob inson</w>
Kno wing</w>
absur d</w>
Sud an</w>
- Thank</w>
m ill
challeng ing</w>
Commer cial</w>
l ounge</w>
16 8</w>
rel s</w>
less ly</w>
Bor n</w>
Naz i</w>
preven tive</w>
3 43</w>
0 1.
eter nity</w>
Re id</w>
psych o</w>
form in</w>
Yugosla v</w>
D ir
o es</w>
hand ic
embry os</w>
ME DI
3 96</w>
10 ,
0, 00</w>
v odka</w>
exp anded</w>
sub way</w>
Stri ke</w>
li me</w>
cas u
in complete</w>
D ong</w>
v isions</w>
consist ently</w>
W inst
Jud ah</w>
san ofi</w>
re tar
amm unition</w>
H all
stit uting</w>
mp s</w>
en g</w>
do p
d ling</w>
Han na</w>
C am</w>
B N</w>
14 8</w>
pen tru</w>
Wat son</w>
16 5</w>
au to</w>
flav or</w>
stra igh
mus cular</w>
imm igrants</w>
duc t</w>
el ite</w>
de preci
feed back</w>
cand les</w>
I ran
π ο
up dating</w>
mat rix</w>
din osa
Trans fer</w>
M ummy</w>
C row
2 34</w>
lip tin</w>
ox ides</w>
dig it</w>
Sim ple</w>
M ass</w>
Leb anon</w>
stri kes</w>
Z im
18 7</w>
kn esses</w>
che es
ab sent</w>
preser vation</w>
inv iting</w>
Luc i
ten se</w>
lim iting</w>
a ids</w>
Sp ec
sovere ignty</w>
mom ent
Da wn</w>
&apos; you</w>
super visor</w>
E arly</w>
Differ ent</w>
inhibit or</w>
air space</w>
ag liptin</w>
Euro just</w>
il es</w>
Defini tions</w>
sab ot
Me tro</w>
t led</w>
slaugh ter
ro tation</w>
corpor ation</w>
Infra structure</w>
spon tan
schol ar
hat red</w>
out comes</w>
ST E</w>
Bul g
5 40</w>
ω ν</w>
plan ets</w>
nit ude</w>
lad der</w>
St abil
N eigh
was her</w>
distr acted</w>
Pla za</w>
10 th</w>
trans late</w>
trac tors</w>
astr ay</w>
remin der</w>
witn essed</w>
evalu ations</w>
bed ded</w>
ad jacent</w>
Mic ha
obst acle</w>
inst inc
i tisation</w>
dig its</w>
broad ca
bo thered</w>
persi stent</w>
comb ine</w>
complex ity</w>
SI BLE</w>
re jection</w>
off ensive</w>
J ill</w>
rupt cy</w>
go ats</w>
euro s</w>
Sk i
Some where</w>
ma ils</w>
Coll ins</w>
Al um
3 60</w>
2 1st</w>
lit res</w>
gau ge</w>
f ond</w>
eme tery</w>
3. 2.
e -</w>
Stras bourg</w>
ur t</w>
nuc le
con ferences</w>
fil ters</w>
THIN K</w>
T AC
tro pical</w>
st ere
e poetin</w>
di zziness</w>
S n
Qu ar
Labor atory</w>
Correc t</w>
C V
Al one</w>
tro phy</w>
princip ally</w>
ne utro
ti fied</w>
sh itty</w>
as er</w>
ar di
CE O</w>
2 16</w>
inev itable</w>
com ed</w>
acc ru
H an</w>
5 0,000</w>
pursu ing</w>
p son</w>
embr ace</w>
competen ces</w>
abl o</w>
off s</w>
mag nesium</w>
int act</w>
in ers</w>
drow ned</w>
conc ession</w>
P rem
M T</w>
Cur tis</w>
process or</w>
hydr o</w>
Di am
Be hind</w>
share holder</w>
re pay</w>
concep ts</w>
Un like</w>
IC H</w>
sp ine</w>
minim ise</w>
m esh</w>
a --</w>
EP AR</w>
sh out</w>
j ar</w>
wr ist</w>
or g</w>
mis siles</w>
ed ith</w>
S anc
pro of
dis pose</w>
poss essed</w>
198 2</w>
0 8
ro e</w>
ome th
ha w
S cul
sp rings</w>
k el
- They</w>
flow ing</w>
Rec or
Croati an</w>
Con go</w>
cre di
P V</w>
pro be</w>
e ability</w>
dis on</w>
car ded</w>
Sam antha</w>
J EC
viol ations</w>
bo x
G ET
periph eral</w>
oc ation</w>
def iciencies</w>
ce ilings</w>
b ound
V eget
Le on</w>
ot ox
anc illary</w>
ssi l</w>
meaning ful</w>
ir relevant</w>
g on</w>
d w
par as
ex otic</w>
encounter ed</w>
Re y
Foc us</w>
vel ocity</w>
vacc ines</w>
s its</w>
ro pes</w>
conc essions</w>
Fred die</w>
W ish</w>
Sk y
Hun t</w>
Intel ligence</w>
Amend ments</w>
exc ise</w>
portra it</w>
oppon ent</w>
od a</w>
ar tery</w>
S la
subsidi arity</w>
p ut
F EC
Book shop</w>
small est</w>
e favirenz</w>
do t</w>
compli ment</w>
bo iler</w>
appreci ated</w>
wi res</w>
sc rap
cor ners</w>
Ap plications</w>
p ud
kilogra ms</w>
H ans</w>
C ell</w>
τ α
mid st</w>
fulfil s</w>
er to</w>
set up</w>
dum my</w>
sy ner
sulph ur</w>
rec y</w>
quar antine</w>
distur bed</w>
Tra in</w>
Co sta</w>
spea kers</w>
Y ES</w>
continu ity</w>
T rev
Sal v
re actor</w>
ful ness</w>
alterna tives</w>
War ning</w>
W in</w>
deteri or
S eas
4 00
tri um
eth eless</w>
E X</w>
per ed</w>
le mon</w>
sugg estions</w>
re treat</w>
pl ess</w>
pill ar</w>
mer cury</w>
R Y</w>
Ky oto</w>
civil ization</w>
&apos; VE</w>
ve al</w>
z en
le ans</w>
which ever</w>
Sum mary</w>
mat ched</w>
atten ing</w>
CI AL</w>
v eg
se ating</w>
c ement</w>
in timate</w>
elev ated</w>
sub system</w>
qu alities</w>
dimen sional</w>
T ucker</w>
Pi erce</w>
15 00</w>
uck ily</w>
bro m
J en</w>
Ex tra</w>
u k</w>
appropri ately</w>
bus es</w>
arti stic</w>
pu b</w>
el eph
ban anas</w>
Qu it</w>
th west</w>
li gible</w>
U P
LI FE</w>
Instrum ent</w>
ush es</w>
under ing</w>
sh ot
por tive</w>
ap pen
a res</w>
poly mers</w>
erythropo ietin</w>
ati i</w>
M em
Jo sh
su ited</w>
recei ver</w>
judg ments</w>
Secur ities</w>
Ru by</w>
ni ece</w>
es cal
cor rupt</w>
W ord
R ate</w>
J acqu
sa una</w>
exc uses</w>
Bri d
un employed</w>
tu ary</w>
spati al</w>
Stock holm</w>
Na omi</w>
Isra eli</w>
Cat al
in adequate</w>
correspon dence</w>
Eng ine</w>
resu me</w>
B ER
zom bie</w>
safegu ards</w>
U pornia</w>
L um
plan ting</w>
ev ident</w>
contri butes</w>
T ea</w>
Reg ist
fer ry</w>
S UCH</w>
Hear d</w>
1 200</w>
effec ted</w>
ad ine</w>
win ding</w>
the ast</w>
Wy att</w>
PO SI
I di
H .</w>
ballo on</w>
T T</w>
creat inine</w>
r ack</w>
prop ylene</w>
6. 5</w>
os a</w>
bl end</w>
Wall ace</w>
rot ten</w>
neighb ouring</w>
hor ny</w>
Buil t</w>
k on
dro be</w>
Ham il
D allas</w>
cat astro
Z Z</w>
M it
A plic
petro l</w>
buff er</w>
Brook lyn</w>
ri dge</w>
numb ered</w>
U RES</w>
Stu art</w>
Pe g</w>
Dist ri
trigg ered</w>
fr actions</w>
extrac ted</w>
T ob
AD E</w>
low ering</w>
Shar on</w>
Cou ple</w>
Vo y
FF FF
Exp lo
14 1</w>
swee p</w>
remain der</w>
eleph ant</w>
di ving</w>
- Do</w>
entit lement</w>
P ets</w>
H IS</w>
poul trymeat</w>
pois oning</w>
com prises</w>
B leep</w>
0 7
contam inated</w>
ι σ
simpli fy</w>
ju ven
b ble</w>
Z ack</w>
Ci tiz
nur ses</w>
sco red</w>
a stron
ell es</w>
citiz enship</w>
Vibr ator</w>
Democ rats</w>
Comple te</w>
constra ints</w>
Pri or</w>
Au to</w>
stimul ate</w>
red und
an hy
ad el
G one</w>
incid ents</w>
recru itment</w>
p ag
B ac
on set</w>
clo ses</w>
al pha
Per man
Lab our</w>
I g
Experi ence</w>
Cas es</w>
se wing</w>
ri ghtly</w>
propor tional</w>
p ins</w>
ancest ors</w>
PL A
B all</w>
val ent</w>
Sha me</w>
cosme tic</w>
glor ious</w>
br ick</w>
RE PUBLIC</w>
AS A</w>
25 1</w>
z ens</w>
par ade</w>
in sured</w>
and is</w>
For tun
in door</w>
din er</w>
dil ution</w>
sh i</w>
lo gs</w>
et ine</w>
can v
Sau di</w>
Pop ular</w>
Clar a</w>
strong est</w>
ro ses</w>
credi bility</w>
Kenne dy</w>
16 9</w>
val ves</w>
i ors</w>
Multi ple</w>
ten s</w>
sha dows</w>
par ole</w>
it ance</w>
emo tion</w>
ro d
rela x
ot ers</w>
dis h
wor ms</w>
shor ts</w>
ra tion
an th
an or</w>
V ari
Oper ational</w>
Ka therine</w>
C ul
lia ison</w>
d r</w>
slo pe</w>
re productive</w>
arri ves</w>
H I
n us</w>
dr al</w>
F ort</w>
Cl y
neighbour hood</w>
eth ical</w>
boun ty</w>
kni ves</w>
ve in</w>
logi sts</w>
GO OD</w>
sel ls</w>
re placing</w>
14 3</w>
ren ted</w>
recur rence</w>
f oul</w>
P el
sta ir
m ice</w>
l on</w>
Ju an</w>
wei gh</w>
hor ri
di ap
cell ar</w>
syn chron
mo tional</w>
ear nings</w>
defin es</w>
ari ans</w>
am y</w>
sub stitution</w>
tur b
scenari os</w>
plen ary</w>
ov ine</w>
at ar</w>
u to</w>
R ome
L loyd</w>
C and
exerc ising</w>
Be at
kil ometers</w>
environ mentally</w>
aud itors</w>
ish a</w>
com modities</w>
17 5</w>
poly ethylene</w>
K ira</w>
H E
F at
thi eves</w>
occas ionally</w>
han dy</w>
co coa</w>
bu zz
al ising</w>
Sex 3</w>
ex changed</w>
convic ted</w>
c ough</w>
Sal es</w>
Im age</w>
Ac ti
cir cular</w>
b ish</w>
JU DG
Br ick</w>
ob server</w>
tol l</w>
ne um
ic idal</w>
educ ated</w>
comple mentary</w>
cel ain</w>
Docum ent</w>
semin ar</w>
repeat edly</w>
ho stages</w>
de hy
b ap
St reng
CYP 3A4</w>
19 72</w>
tu ber
nau ghty</w>
mis ery</w>
i tis</w>
eth anol</w>
ag as
Mo ving</w>
Ad ver
s inc
eff iciently</w>
E aster</w>
war t</w>
hall way</w>
r s</w>
claim ing</w>
H EL
inter views</w>
Gal axy</w>
ES T</w>
ul ating</w>
i v</w>
de ed</w>
C al</w>
Ac tive</w>
ta tis</w>
swe ating</w>
p ale</w>
bor rowing</w>
CH AR
simpli fication</w>
sec recy</w>
supp er</w>
po tent</w>
b ate</w>
arch y</w>
Mi k
St ars</w>
I I.
o x</w>
identi fier</w>
Smi th
Mar t
Im ports</w>
I G
gl omer
corrid or</w>
avi er</w>
IC AO</w>
1. 6</w>
u ph
sub headings</w>
rab bits</w>
igh ty</w>
dep loyed</w>
min erals</w>
flo od</w>
apo logies</w>
B T</w>
tor tured</w>
supple menting</w>
demonstr ating</w>
analy se</w>
prosper ity</w>
e us</w>
contrac ted</w>
bar gain</w>
SUBST ANCE</w>
Bern ard</w>
Agre ements</w>
vi als</w>
ds m</w>
K le
ch ess</w>
fo ssil</w>
ES CB</w>
reg on</w>
Law rence</w>
- This</w>
deal ers</w>
F lowers</w>
po em</w>
15 2</w>
- A</w>
tim er</w>
st ence</w>
cow boy</w>
Pan el</w>
Bau er</w>
12 9</w>
bac hel
K are
Ba ker</w>
trou bled</w>
iss ance</w>
atten ding</w>
Qu anti
Lem on</w>
B ever
13 2</w>
im pris
b dsm</w>
Gol d
Am bassador</w>
specim en</w>
re sting</w>
mov able</w>
mod est</w>
correc tions</w>
Y ears</w>
ut able</w>
licen ses</w>
R eci
swe ater</w>
seiz ures</w>
plant ation</w>
Cam p</w>
BA N
pun c
dam ages</w>
Josh ua</w>
v able</w>
mi e</w>
hor ror</w>
fol ded</w>
wel comed</w>
Rol l</w>
let te</w>
compres sion</w>
bear ings</w>
prev ents</w>
l ene</w>
cu red</w>
CL U
exc itement</w>
differ ential</w>
CHIL DRE
A er
under mine</w>
surviv or</w>
F aster</w>
to ss</w>
stra w
pon d</w>
lo dging</w>
Fo rest</w>
Do yle</w>
Classi c</w>
s wore</w>
am bition</w>
ox id
lo dge</w>
H air</w>
k y
dr un
R C</w>
wi ght</w>
ten derer</w>
rob ust</w>
emb ar
appro x</w>
mo b</w>
ge ometry</w>
aw fully</w>
P O</w>
Mo ther
Man uel</w>
Joc uri</w>
F requ
bre e
S L
6 4
Har rison</w>
Aut om
win ds</w>
MATERI ALS</w>
direc tors</w>
ch ant</w>
Repub lic
Gen eva</w>
b ells</w>
Hamil ton</w>
un common</w>
ket t</w>
gr ill</w>
bank ruptcy</w>
ma sters</w>
form alities</w>
for ty</w>
distingu ished</w>
b ag
angi otensin</w>
Sud denly</w>
seg ments</w>
for bid</w>
apo log
an ny</w>
a wards</w>
F on
hormon es</w>
endor sed</w>
and um</w>
A very</w>
13 3</w>
gra v
ex agg
M am
z ine</w>
under cutting</w>
Mer edith</w>
L az
G .
pro xim
inter nationally</w>
ha st</w>
N ed</w>
Manufac turer</w>
F M</w>
per sec
L ead</w>
car ing</w>
c od</w>
Pal mer</w>
P REC
lab elled</w>
Organ ization</w>
Nuc lear</w>
Ir besartan</w>
Egyp tian</w>
vi er</w>
sa ith</w>
resp ecting</w>
is ure</w>
high lighted</w>
m amm
g i</w>
del ays</w>
cli ff</w>
agg age</w>
PO L</w>
Traff ic</w>
Res ults</w>
sp ill</w>
Represen ta
Lind say</w>
exec uting</w>
cu isine</w>
E vil</w>
a ver
C EN</w>
30. 6.
acc us
u ma
campa igns</w>
Fin ish</w>
F U
6 00
Ma ster
Aplic atii</w>
- Hi</w>
wei ghts</w>
re iter
r he
Sec tor</w>
6 9
val idated</w>
ho lo
D ick
C ris
mu tatis</w>
im porting</w>
So li
bol t</w>
mut andis</w>
colo red</w>
Gu inea</w>
ter most</w>
propos es</w>
bathro oms</w>
ha ul</w>
car tel</w>
arm or</w>
Bro thers</w>
s -</w>
cy cl
prolifer ation</w>
E yes</w>
sal vation</w>
du g</w>
s worn</w>
ec .europa.eu</w>
accel eration</w>
Gu idance</w>
Anti qu
pl u
de er</w>
O S
M ick</w>
ADDRE SS</w>
2, 3</w>
sup portive</w>
dr ying</w>
archit ect</w>
Zo g</w>
P ent
Hou ston</w>
F ear</w>
valu ed</w>
ri ght
man ners</w>
ma ster
sulph ate</w>
sk illed</w>
ri l</w>
m ing
bid ding</w>
ac com
Ric hie</w>
Re ed</w>
F uture</w>
17 6</w>
y early</w>
er ated</w>
dil ig
Star k</w>
P VC</w>
Hy po
0 3
min ded</w>
fr actu
conf isc
Del ta</w>
Bu ffy</w>
ten d
Tur ner</w>
Tem ple</w>
Engine ering</w>
16 2</w>
go o
b en</w>
tel e
st ink</w>
po o</w>
mac ro</w>
for k</w>
down stream</w>
st ack</w>
sl ice</w>
op ing</w>
cruc i
WA STE</w>
H erc
Classi fication</w>
under gone</w>
D EF
tun nels</w>
thr illed</w>
particip ated</w>
n.e. c</w>
ed ic
B G</w>
sn ack</w>
bub bles</w>
ar tis</w>
ail ing</w>
ud ge</w>
Fa ith</w>
ES A</w>
ust er</w>
phy si
hydro chlorothiazide</w>
cam ping</w>
ME MBER</w>
ple dge</w>
ab norm
Winst on</w>
Fi ona</w>
om y
lact ating</w>
co ats</w>
a v</w>
Oper ating</w>
tro l
UC K
Da ily</w>
C RI
me ds</w>
De tails</w>
Ar cher</w>
Sen ior</w>
P ROP
Fac ility</w>
Clim ate</w>
tom atic</w>
Cin dy</w>
- Let</w>
mol lus
gg les</w>
fu me</w>
bio logy</w>
suff iciency</w>
pi p
inter c
α ρ
in form
fo am</w>
cock tail</w>
long est</w>
fe ast</w>
d read
cross dresser</w>
0, 2</w>
inter actions</w>
id ate</w>
ast ing</w>
Representa tives</w>
HD Zog</w>
Ev entually</w>
G RE
M B</w>
ma res</w>
e po
disturb ances</w>
5 th</w>
s é</w>
in sec
gen es</w>
c ad
&apos;t --</w>
let t</w>
D wight</w>
hyper tension</w>
es --</w>
P en</w>
skim med</w>
di verse</w>
Ly dia</w>
Cam bridge</w>
Assi stance</w>
be ers</w>
N T
assh oles</w>
X VI</w>
Philli p</w>
Meas ure</w>
Clin ical</w>
15 80</w>
w all
i b</w>
ep hal
Vehic le</w>
S M</w>
Pa ul
Con serv
Wa ste</w>
Inde pend
EN TR
inf ant</w>
ich es</w>
col onel</w>
S ing</w>
character ised</w>
The atre</w>
CLAS SI
be et</w>
19 5</w>
ext ingu
cultiv ation</w>
al together</w>
H ob
pro jection</w>
pre y</w>
c f
inj urious</w>
it t</w>
en rich
Good night</w>
spo il</w>
pul monary</w>
P at</w>
dis rup
pil ots</w>
laugh ed</w>
eng th</w>
en ne</w>
NEC ESS
Bulg arian</w>
associ ates</w>
Vi olet</w>
CHILDRE N</w>
s burg</w>
en do
brac elet</w>
ank le</w>
So fia</w>
K an
st aple</w>
prefer ences</w>
pos ter</w>
mir rors</w>
eigh th</w>
ad mir
Nor a</w>
wi red</w>
19 77</w>
re bel
S eeing</w>
tr ous
re pos
ha bits</w>
ear book</w>
Web site</w>
EP A</w>
Bur ke</w>
pa sta</w>
hydro xy</w>
e ine</w>
bud gets</w>
Recom mended</w>
M ist
M L
Char acter
metabol ites</w>
la sted</w>
comple ment</w>
Ham mond</w>
H ell
Con clusion</w>
20 7</w>
car c
S port</w>
Rome o</w>
met formin</w>
en li
diarr hoea</w>
Car ol
time table</w>
U ser</w>
Sil ence</w>
N ol
rac ist</w>
pos al</w>
hosti le</w>
entreprene ur
Down loads</w>
le dge</w>
infra structures</w>
igr ant</w>
col or
Sho wing</w>
3 20</w>
mid t</w>
zz o</w>
mush rooms</w>
jud ging</w>
gu ides</w>
T ABLE</w>
wa king</w>
bal d</w>
val ence</w>
bul l
deb tor</w>
canc eled</w>
NECESS ARY</w>
Con stitu
vic inity</w>
eri an</w>
cand le</w>
Shel don</w>
Ar men
7 7
licen sing</w>
cur i
astr onom
o res
explan ations</w>
Al fred</w>
lab s</w>
bi ans</w>
W ing</w>
ro les</w>
gen cies</w>
As h</w>
cell ular</w>
Cly de</w>
Antiqu arian</w>
sc ha
fun dam
defin ite</w>
day light</w>
aux iliary</w>
Sy rian</w>
P R</w>
Ben ny</w>
Ale c</w>
in di
bo oth</w>
O M</w>
Hal ey</w>
Bath room</w>
under going</w>
transfer ring</w>
hei m</w>
dro wn</w>
cha mbers</w>
rea k</w>
n in</w>
Trev or</w>
D ose</w>
B lan
wh ip</w>
f in</w>
coord inating</w>
adhes ive</w>
f eared</w>
f attening</w>
Bec ky</w>
r um</w>
min orities</w>
2 11</w>
pen cil</w>
d al</w>
contrac tors</w>
Wil lie</w>
the ories</w>
Tab lete</w>
la sts</w>
es hip</w>
entit lements</w>
e ded</w>
Pri ze</w>
Gar cia</w>
D ee</w>
19 76</w>
instruc ted</w>
R ing</w>
s by</w>
bur gl
STOR AGE</w>
ra ining</w>
proph et</w>
ab outs</w>
Pet ro
v i</w>
ti t</w>
hard est</w>
V la
Ma h
judg ement</w>
compli ant</w>
20 ,000</w>
hes itate</w>
ca f
Sh or
R unning</w>
Me ans</w>
Main tenance</w>
G run
ATI NG</w>
sp ider</w>
PACK AGE</w>
Ch el
don ation</w>
Tr y
hydra ulic</w>
found ations</w>
ass ed</w>
WH ERE</w>
secre tly</w>
j u</w>
whist le</w>
sc ent</w>
re marks</w>
S EL
Pho enix</w>
on ey</w>
Su z
sup plying</w>
s ors</w>
fl ush</w>
demonstr ates</w>
boo kings</w>
se p
lit ter</w>
C EL
st unning</w>
fl ames</w>
d der</w>
3 .</w>
16 6</w>
rela xed</w>
An ci
trans formed</w>
M G</w>
F .</w>
Ar i</w>
mag nitude</w>
Im port
parliam ents</w>
mo date</w>
work shops</w>
d led</w>
br ass</w>
an ic</w>
2 25</w>
scand al</w>
Mi key</w>
Bab ylon</w>
re jo
ma il
M eat</w>
IS A</w>
flo at</w>
C lear
Bat man</w>
hi ps</w>
N y
K ay
- All</w>
supple mented</w>
infec tious</w>
Y ang</w>
Gw en</w>
Dra ke</w>
is le</w>
fea thers</w>
de fl
198 4</w>
ur anium</w>
secur itisation</w>
re pairs</w>
e g</w>
Sci ences</w>
im a</w>
hon g
16 4</w>
sen ator</w>
introduc tory</w>
L illy</w>
13 7</w>
Some how</w>
M ale</w>
rec tang
ici ally</w>
duc e</w>
accom modate</w>
RE POR
pal ities</w>
bar ley</w>
the dral</w>
suit case</w>
ad der</w>
Sc ope</w>
L ET</w>
ti sed</w>
st are</w>
Car la</w>
t ness</w>
p assive</w>
grad ual</w>
EE D</w>
E valuation</w>
ign ment</w>
ex terior</w>
dis believe</w>
den ed</w>
a di
ure a</w>
tremend ous</w>
an ed</w>
wid es
devi ation</w>
ag eous</w>
T N
Pl astic</w>
Li ft</w>
D uration</w>
liber al</w>
in cl.</w>
ba thing</w>
2 200</w>
v ol</w>
ran som</w>
an tum</w>
O mar</w>
B ang</w>
t ours</w>
bil lions</w>
Te acher</w>
Car men</w>
worth less</w>
tum our</w>
sulph on
ow es</w>
f ü
b aggage</w>
t man</w>
sn ea
promp tly</w>
V il
R IC
N icky</w>
Fly nn</w>
sa kes</w>
hon esty</w>
Or leans</w>
sto ve</w>
gi o</w>
Sub cutaneous</w>
Shar p</w>
P act</w>
B attle</w>
6. 4</w>
wel comes</w>
presid ential</w>
id o</w>
em ea
bli ster</w>
La un
Amaz on</w>
loo k
J av
Certific ate</w>
K ing
aff lic
Ren a
N HL</w>
Indust ries</w>
w ee</w>
ha d
deliber ately</w>
Air lines</w>
14 4</w>
cap rine</w>
Trans portation</w>
Categ ories</w>
4. 7</w>
wea knesses</w>
ov ascular</w>
off al</w>
H ad
Bo o</w>
spon sor</w>
se ated</w>
don ors</w>
as ph
Ly n
ne at</w>
L U
An gie</w>
wa ii</w>
tal s</w>
sit ter</w>
Spo ck</w>
RE S
tra ditions</w>
programm ed</w>
d oms</w>
5 0000</w>
16 1</w>
sun set</w>
regim en</w>
H im
DI D</w>
A 2</w>
lac tic</w>
ju ana</w>
gener ators</w>
er m</w>
bis cu
Stabil isation</w>
Nichol as</w>
L ei
3 37</w>
inst ein</w>
dys function</w>
vill ages</w>
ver ing</w>
prog ression</w>
conf essed</w>
A O
μ m</w>
leth al</w>
alleg edly</w>
Super visory</w>
compar ing</w>
cli p</w>
neighb ours</w>
impregn ated</w>
Sh are</w>
Lot teries</w>
projec tions</w>
hom ogen
dr illing</w>
3 ,000</w>
sun shine</w>
sc ot
compar ative</w>
amp li
p ect</w>
on aire</w>
o is</w>
id ers</w>
di m
com e
any l</w>
20. 12.2013</w>
tr icky</w>
grand son</w>
V ul
SC R</w>
P ET</w>
E ag
C AP
z a
trav els</w>
pha ses</w>
comm ands</w>
Tem per
Oper ations</w>
K ling
D aph
m uc
lub ric
ido l</w>
audi ovisual</w>
recep tor</w>
ill icit</w>
h edge</w>
fra med</w>
SI DE</w>
trans position</w>
inher itance</w>
Nov artis</w>
F all</w>
17 1</w>
vitam ins</w>
n .
li gh
1 19
trav eled</w>
ti sh
pestic ides</w>
la im
ang el
Mer ciful</w>
Al ger
19 68</w>
equival ence</w>
ak h
F ul
19 67</w>
h ides</w>
de d
vis as</w>
cha sti
PREC AU
Jo el</w>
Hist or
Har mon
t ants</w>
ren ts</w>
hom os
S N
Intr on
it ol</w>
end ang
conven tions</w>
R e</w>
Gu ang
reha b</w>
J ared</w>
F igh
stri ps</w>
con ut</w>
c emetery</w>
Ar ts</w>
A dams</w>
G lax
rhy thm</w>
func tionality</w>
biom ass</w>
JUDG MENT</w>
tw o
j ug
d rous</w>
bl er</w>
C Z</w>
2, 2</w>
super vis
sa vi
denom inated</w>
com posite</w>
Perman ent</w>
ro bots</w>
ling u
bre l</w>
any a</w>
EV ER
practic ing</w>
follow ers</w>
collap sed</w>
Intron A</w>
18 4</w>
ou termost</w>
m ally</w>
Af ter
restor ation</w>
mot ors</w>
fu gi
datab ases</w>
cre a
ch us</w>
V ING</w>
Ini tial</w>
Colom bia</w>
IN STRUC
D river</w>
fore see
Per ry</w>
8 8
ta b</w>
sa usage</w>
pro jected</w>
macro economic</w>
G ate</w>
G AR
Bo obs</w>
A TED</w>
A K
wr ath</w>
oun dings</w>
bl ades</w>
N a</w>
J on</w>
sever ity</w>
Reser ve</w>
Jeho vah</w>
E O
Sp y</w>
Mar kets</w>
pl ain
p kin</w>
buff et</w>
temp er</w>
stimul ating</w>
liqu ids</w>
cell aneous</w>
3 02</w>
on ium</w>
kid neys</w>
infin ite</w>
Ab u</w>
sor ted</w>
off spring</w>
h int</w>
Ter esa</w>
un sub</w>
Gray son</w>
En brel</w>
swal lowed</w>
dis appoint</w>
photogra pher</w>
our able</w>
ol ing</w>
id an</w>
chole sterol</w>
ac etic</w>
T ree</w>
IN TE
qu alit
bi as</w>
Iran ian</w>
ti ce</w>
thin k
sex ually</w>
s park</w>
al titude</w>
r é
fri es</w>
expres sly</w>
electro magnetic</w>
de tri
D od
w itches</w>
tat to
ac commod
pip eline</w>
perio dically</w>
Statis tical</w>
ur inary</w>
sha de</w>
infl am
C av
19 78</w>
it y
bom bing</w>
OR T</w>
qui ries</w>
Shep herd</w>
Lam ps</w>
re tail
earth quake</w>
char ter</w>
bound ary</w>
Scul ly</w>
Proble m</w>
Ban king</w>
And re</w>
sh ining</w>
semin ars</w>
e h
PRECAU TIONS</w>
IN N</w>
Fortun ately</w>
Tal king</w>
tiz ed</w>
ster ile</w>
V as
l é
distingu ish</w>
Fri end
3 a</w>
29 13</w>
17 7</w>
aff i
a fil</w>
W ill
P I</w>
m ang
kilomet res</w>
d itch</w>
sever ely</w>
glyca emic</w>
c m3</w>
H ud
Camel toe</w>
AN Y</w>
2 20
s ation</w>
ri g</w>
Star fleet</w>
Hou se
Gri ffin</w>
yach t</w>
ill es</w>
affor dable</w>
di methyl
bow ling</w>
wides pread</w>
convic tion</w>
W eight</w>
AP PROV
de x</w>
addi e</w>
stam ps</w>
dr ums</w>
c ing</w>
Ne u
Adv enture</w>
sk á</w>
inst inct</w>
inf ants</w>
d or</w>
ROP RI
EN D</w>
τ ο
n age</w>
Up date</w>
sk y
as sign</w>
F O</w>
D L</w>
0 5
seas onal</w>
lay out</w>
gest ure</w>
atter ing</w>
ast ly</w>
anc ell
L i</w>
Adver tising</w>
doub tedly</w>
ban ned</w>
Gar dens</w>
degrad ation</w>
APP ROPRI
ran ks</w>
cha sed</w>
brea th
aerop lane</w>
L AB
Ha waii</w>
regist ers</w>
Cassi e</w>
win ners</w>
g ren
benef iting</w>
Re x</w>
Li kewise</w>
AP PL
ent on</w>
Vol ume</w>
ver ses</w>
par ks</w>
work place</w>
od les</w>
ing --</w>
f ear
Di ag
13 4</w>
Wil helm</w>
Com pan
sun light</w>
prefer ably</w>
invest ing</w>
d ex
15 th</w>
sen sible</w>
X i
L iz
si ghts</w>
s lic
contem porary</w>
C Y</w>
19 79</w>
1. 0</w>
u be</w>
trans form</w>
sub missions</w>
le m</w>
deleg ations</w>
16 7</w>
us able</w>
mon ella</w>
kind ly</w>
car cases</w>
broad er</w>
B our
munici pal</w>
li ke
enjo y
appl ause</w>
Musli ms</w>
Mo d
DIS POS
18 th</w>
ó w</w>
munici pality</w>
ch erry</w>
Wh a</w>
Pen sion</w>
G ene</w>
Den ise</w>
T ast
115 1</w>
t ore</w>
interven tions</w>
co venant</w>
ans as</w>
pe er</w>
or chest
Elec tro
B ast
sto s</w>
shi fts</w>
re medi
patho genic</w>
liber alisation</w>
Tou ch</w>
IM UM</w>
B ird</w>
B V</w>
M Y
hum idity</w>
en tail</w>
co st
br ack
he imer</w>
blo ke</w>
adap ting</w>
P ir
E ven
nan ny</w>
mo tions</w>
Step han
hair cut</w>
bacter ial</w>
Cap acity</w>
cum ulative</w>
Ho od</w>
Clau de</w>
gra titude</w>
determin es</w>
Depos it</w>
17 0
so far</w>
Con tri
ul tras
standardis ation</w>
f ist</w>
Mor ris</w>
BA CK</w>
B EL
liqu idation</w>
l ick</w>
hyper tensive</w>
tex tiles</w>
rein force</w>
r ally</w>
SI GHT</w>
R un
N .</w>
High er</w>
Ce iling</w>
re constituted</w>
la v</w>
counter vailing</w>
Wh erever</w>
Wo o</w>
RE L
La ur
Balk ans</w>
и я</w>
journ alists</w>
DISPOS AL</w>
2 60</w>
un loading</w>
th en
oul d
o C</w>
g inal</w>
dehy de</w>
comp ass</w>
rec re
notic es</w>
nit rate</w>
d les</w>
arrog ant</w>
sho ve</w>
m am
in filtr
gre gation</w>
el der</w>
7 0s</w>
12 49</w>
di pine</w>
accompl ish</w>
UC ITS</w>
foresee able</w>
bo ot
au x</w>
Ju dy</w>
For ces</w>
17 4</w>
rele ases</w>
h iring</w>
S asha</w>
S AL
C ancer</w>
polic eman</w>
l ump</w>
gl as</w>
ambi ent</w>
sinc ere</w>
R ho
R est</w>
Er m</w>
Er ica</w>
B ond</w>
teen ager</w>
Ac counting</w>
sta dium</w>
min ist
evalu ating</w>
Prov isions</w>
E vent</w>
AT A</w>
B le
disp atched</w>
cryst all
author s</w>
Wh at
sh op
reti re</w>
nee ding</w>
Pr ices</w>
Green land</w>
Acti vities</w>
uti n</w>
harm less</w>
Ro sie</w>
INSTRUC TIONS</w>
00 0000</w>
slov akia</w>
psychi atric</w>
Gr ay</w>
Ch ile</w>
hil arious</w>
fic tion</w>
do l</w>
aud ited</w>
V eri
rati fication</w>
p assionate</w>
fore ig
dis c</w>
Simp son</w>
Rob bie</w>
Mon roe</w>
ev id
Fri end</w>
rem embers</w>
ill usion</w>
Per sons</w>
O h
Dru gs</w>
Consi dering</w>
[...]
