#version: 0.2
с т
р о
п о
н а
е н
р а
т и</w>
в а
к о
е р
в і
в и
р и
н а</w>
о г
н е</w>
н и
з а
в о
м о
к а
д о
с я</w>
м а
т о
т ь</w>
т а
н о
л ь
щ о</w>
т о</w>
б у
ог о</w>
т и
л а
л и
н я</w>
л и</w>
н о</w>
д а
м и</w>
м і
п ро
т е
н е
н і
р е
т е</w>
л о
р і
м у</w>
ер е
у ва
д е
д и
q u
o t
qu ot
quot ;</w>
& quot;</w>
к и</w>
ч и
з на
м ен
ч а
н і</w>
с ь</w>
л а</w>
х о
я к
ст а
ц е</w>
л і
ж е</w>
о б
г о
& a
п а
д і
. .</w>
т ь
к а</w>
ц і
п ри
п і
. ..</w>
р у
к у</w>
л е
г а
б а
ві д
н и</w>
мо ж
ть ся</w>
н ня</w>
с и
л я</w>
в е
п и
в с
л я
к і
д у
ен ня</w>
л ю
м о</w>
д о</w>
н у
б и
п ра
в и</w>
б о
м е
ш и
л о</w>
ро з
т а</w>
p o
ж и
п ере
т і
po s
pos ;</w>
&a pos;</w>
@ -
@- @</w>
ст о
П о
ч е
ш е</w>
б і
к и
т у
с о
д е</w>
з а</w>
д ля</w>
к у
л е</w>
ни й</w>
в ер
г о</w>
д и</w>
н у</w>
с а
м и
і н
ст ь</w>
ч то</w>
п е
л у
я к</w>
о р
п р
щ о
в а</w>
с е
ка за
д а</w>
ни х</w>
о д
та к</w>
о му</w>
к ла
н ого</w>
ст и
н я
ж а
с у
Т а
ува ти</w>
m p
в о</w>
Ц е</w>
ц і</w>
б о</w>
mp ;</w>
&a mp;</w>
Н а
с ь
п у
те б
д у</w>
г ра
В і
а й
е й</w>
м ог
т ри
мож е
р и</w>
є ться</w>
т у</w>
ж е
л ен
ю ть</w>
пр о</w>
л і</w>
с і
ко ри
т ы</w>
м у
ра з
м а</w>
ч и</w>
р я
щ е</w>
к ра
б е
ро би
к о</w>
ст о</w>
с по
ува ння</w>
ь ого</w>
З а
й ого</w>
Н е</w>
вс е</w>
х а
п ер
ш ь</w>
бу де</w>
ві н</w>
що б</w>
и й</w>
Та к</w>
ти ся</w>
в і</w>
ко ли</w>
в у
мен е</w>
т і</w>
т во
д і</w>
В о
э то</w>
ф і
б ы
пра в
К о
бі ль
с во
з о
ц и
В и
к ри
ч ен
ду ма
а р
теб е</w>
Н е
ст і</w>
ни м</w>
кі в</w>
пі д
р а</w>
во ни</w>
д ен
ві д</w>
ту т</w>
г ля
л ь</w>
є мо</w>
а бо</w>
ч у
ст у
з и
з у
є те</w>
т ер
но в
с каза
М о
а ле</w>
як що</w>
як і</w>
с об
В и</w>
ті в</w>
то му</w>
Т и</w>
ль ки</w>
д ь</w>
ш о
т ра
т рі
б ра
ш а
Я к
ф ай
М и</w>
с ві
i n
го во
ст е
ш і</w>
т ого</w>
мен і</w>
П ро
ї х</w>
бу ло</w>
то б
з мі
с ка
по ві
А ле</w>
й те</w>
т т
на с</w>
про сто</w>
Щ о</w>
ба чи
до по
б и</w>
д ру
Д о
ва м</w>
о т
ва ти</w>
ж ен
ст и</w>
ко н
є ш</w>
ча с</w>
Т ы</w>
Як що</w>
ра з</w>
ч ення</w>
ви й</w>
м е</w>
на й
с у</w>
ва с</w>
ч у</w>
ма є</w>
ці ї</w>
но ю</w>
п о</w>
р у</w>
но ї</w>
ч но</w>
ц е
и х</w>
ки й</w>
н ы
ж ення</w>
ко го</w>
ф ор
може те</w>
ц ього</w>
р е</w>
a m
х і
Ві н</w>
т ро
ц я</w>
о н</w>
в ся</w>
с я
П ри
б а</w>
в ы
м ер
про гра
н ь
е го</w>
ні й</w>
с лу
e n
мож на</w>
ви кори
п ла
К а
М а
во на</w>
з і</w>
Д а
п ре
с лі
бу в</w>
г і
о ю</w>
мо же</w>
ч і</w>
гово ри
л ення</w>
хо ди
рі в
ї ї</w>
тт я</w>
н к
то м</w>
ду же</w>
ч о
зна ю</w>
в у</w>
e r
мен я</w>
допо мог
ко ю</w>
з роби
t i
н ен
з во
к е</w>
ш у
Э то</w>
е к
бу ти</w>
а н
т ре
ст і
с ер
в то
роз у
ко м</w>
т ри</w>
ш у</w>
е т</w>
с е</w>
за пи
ра ме
н ь</w>
ль но</w>
го ло
П а
Д а</w>
як ий</w>
в же</w>
т ся</w>
три ма
л ю</w>
м не</w>
л ог
П ере
o n
с і</w>
за в
о ди
a n
Т е
П і
ба га
ж у
кі ль
та ко
ли во</w>
Н у</w>
с прав
Н і</w>
Х о
ст во
ну ти</w>
ко м
но му</w>
на м</w>
В а
об ра
ро б
н ю
зна й
с но</w>
та м</w>
д я
ве ли
e r</w>
с ко
ю ться</w>
am e</w>
с пи
з і
де ла
в е</w>
е шь</w>
о б</w>
ка к</w>
ч ого</w>
ц ей</w>
ч е</w>
ла с
ер і
ни ми</w>
ві к
бу дь</w>
a r
а д
м ы</w>
по трі
да ти</w>
с и</w>
Ч то</w>
О т
до в
Т о
пе р</w>
то ч
с пі
розу мі
o n</w>
с ло
Я к</w>
сту п
до б
з ви
х то</w>
ц ь
к і</w>
ні сть</w>
р ен
ни к</w>
ло ся</w>
в ого</w>
ш а</w>
вс і</w>
ж у</w>
т я
е м</w>
ви д
хо чу</w>
теб я</w>
хо че
ма н
біль ше</w>
по вер
м і</w>
с а</w>
мі с
л у</w>
ц ь</w>
o r
ря д
б ли
ли ше</w>
г у
ц ю
и м</w>
допомог ою</w>
ла ш
по ча
й но</w>
тоб і</w>
бу де
пра ви
б е</w>
лі в</w>
ст ра
ці я</w>
ві р
ни ти</w>
Б о
ро бо
в ля
i t
но ви
р і</w>
а к
потрі б
0 0</w>
Во ни</w>
зна чення</w>
ц ю</w>
в ы</w>
с ли</w>
ере з</w>
оди н</w>
н ього</w>
a t
ши х</w>
при й
но м</w>
Р о
о ста
ва н
к ро
вс і
бе з
а ль
ня м</w>
ка р
до л
Не т</w>
Б у
s t
ч а</w>
те к
б ы</w>
ро ш
М ен
щ а
ва ж
Ві д
i n</w>
г а</w>
Г о
бага то</w>
к ре
фор ма
р ю
ст рі
викори сто
би ра
г да</w>
пу нк
ві ть</w>
де й</w>
сто рі
з ь
є ї</w>
по ді
па раме
чи ти</w>
з е
по ви
но сті</w>
бу ла</w>
ши й</w>
рі з
ст ру
ді й
ці ю</w>
о трима
і в</w>
ва й</w>
лаш т
о сь</w>
r e
пра цю
но к</w>
ш ого</w>
н ні</w>
е ле
ки м</w>
пі д</w>
ро м</w>
н ку</w>
пе в
н ю</w>
е й
є ю</w>
си сте
в ста
ч ерез</w>
з б
що сь</w>
тако ж</w>
не т</w>
ю чи</w>
ч ер
ті льки</w>
ль ко</w>
О н</w>
Н а</w>
с ля</w>
бу ли</w>
& #
&# 9
на з
ли сь</w>
бу ва
і з</w>
с ере
с ла
справ ді</w>
ки х</w>
ж но</w>
да є</w>
пр я
лю дей</w>
ш е
ли ся</w>
ри ти</w>
на д
від кри
о на</w>
N ame</w>
Д об
до ро
до м
я ко
ш ен
ти сь</w>
кла д
р ы
д на
по від
кла д</w>
с па
х и
б ле
к то
т ку</w>
ви х</w>
ти в
по ка
с ку</w>
кі льки</w>
в да
Г а
ма га
щ и
як а</w>
по в
М ы</w>
ні в</w>
д ь
рі в</w>
ча сти
Во на</w>
м но
ць ому</w>
t h
за раз</w>
х и</w>
ма ю</w>
се бе</w>
н ки</w>
От же</w>
за ли
к лю
мож у</w>
р о</w>
де сь</w>
к но
о с
кі н
М і
ло сь</w>
да т
З на
Д у
по д
с т</w>
І н
ко гда</w>
o u
зна ча
зна чен
ка ми</w>
то й</w>
тоб ы</w>
о м</w>
на в
пи са
ст ро
як у
р ення</w>
ро ків</w>
х у
г и</w>
ди ви
ст а</w>
ці й</w>
мен т</w>
зви ча
тре ба</w>
раз д</w>
ти м</w>
ден ь</w>
и з</w>
Н о</w>
ті м</w>
й ти</w>
зроби ти</w>
г ру
ти ч
жи ття</w>
г е
ц я
кно п
ді а
ч тобы</w>
ні ж</w>
a l
каза ти</w>
в ни
k g
с ю
ны й</w>
мог у</w>
жи ти</w>
З а</w>
ж ди</w>
ш ли</w>
рош о</w>
г у</w>
мож ли
ti on</w>
k d
же н</w>
ї м</w>
ко ман
i l
на віть</w>
ч ому</w>
i c
О сь</w>
доб ре</w>
пере д</w>
ст ува
Д ж
з обра
ко на
по бачи
про бле
пере д
ш и</w>
В се</w>
слі д</w>
нов у</w>
Н і
Р а
Д е
ши м</w>
во ю</w>
kg m</w>
ц ен
чи та
кі сть</w>
бе з</w>
р т
від повід
ма й
пові дом
a c
дума ю</w>
ф о
ко ж
з я
ш і
ш вид
у т</w>
ні ше</w>
г ро
ла сь</w>
с ну
в но</w>
ва жа
Р е
ві до
t r
да ва
викори ста
лю ди</w>
o m
н ы</w>
є дна
ван та
да них</w>
шо в</w>
то к</w>
д ер
бы л</w>
e s
Ко ли</w>
ло ві
х ло
й сь
си ть</w>
o r</w>
ра н
са ме</w>
я з
яку ю</w>
д но</w>
Б а
ла ся</w>
о т</w>
сказа в</w>
С а
ми л
че м</w>
ч і
ви гля
ю сь</w>
l a
за га
ш ення</w>
кори стува
за й
й о
ува в</w>
д ва</w>
m en
л ся</w>
кра ї
а вто
е сть</w>
м к
к лі
мен ю</w>
я ви
може мо</w>
ва ми</w>
як у</w>
ш ко
ль ний</w>
с про
в увати</w>
д ра
мі й</w>
до м</w>
ж і
об о
те ся</w>
с дела
ко то
ф у
ви па
пу сти
те пер</w>
пі сля</w>
при клад</w>
пи та
то ді</w>
д ня</w>
н сь
с хо
ва ть</w>
о соб
ні ть</w>
мож ливо</w>
як их</w>
В ы</w>
з у</w>
у ть</w>
мі ж</w>
и е</w>
ог ра
Доб ре</w>
пере гля
ва р
ува ли</w>
лас ка</w>
по ряд
с ли
к е
не має</w>
д во
те ле
я с
ж и</w>
щ ен
e l
Мен і</w>
ль о
кіль ка</w>
г ен
х ви
мо ю</w>
чо лові
2 0
ста ви
на лашт
е сли</w>
до к</w>
o l
ні чого</w>
од ного</w>
ба жа
на ми</w>
в я
ци х</w>
во ї</w>
з десь</w>
потріб но</w>
то бо
с пра
по тім</w>
роби ти</w>
д ж
в ст
ду ть</w>
по зи
Т и
бо ль
т р</w>
но й</w>
н ка</w>
пе ра
с ле
сі в</w>
ог од
го то
з розумі
ти ме</w>
мо ся</w>
й ому</w>
в ре
по каза
зав жди</w>
- -</w>
ст ю</w>
1 0</w>
бы ть</w>
бы ло</w>
фай л</w>
ра бо
Б е
в лас
в ен
ді в</w>
в чи
т ки</w>
б ло
мож уть</w>
ти ме
вік но</w>
Т ут</w>
ма ти</w>
Ка к</w>
к то</w>
ю ся</w>
п ле
лю ди
m a
ва ння</w>
к ли
го ди
на ступ
То ж</w>
С и
че ка
всі х</w>
О на</w>
В е
со к</w>
три м
ка х</w>
у би
ча су</w>
фай ла</w>
че го</w>
c h
ж на</w>
ад ре
раз у</w>
й ся</w>
хі д
з бира
те сь</w>
з ни
ні коли</w>
б ер
ко ро
сво ю</w>
рів ню
я ть</w>
використо ву
по до
вс ё</w>
без пе
ж і</w>
до ку
Д ля</w>
ма ши
ба ть
Д же
н є</w>
ві т</w>
к ру
ці в</w>
на ти
Д і
па не
пре д
че му</w>
ти х</w>
вс е
мо я</w>
лю б
знача є</w>
лог о
с мо
Т ому</w>
П ра
са мо
па м</w>
Б і
ха й</w>
и я</w>
М не</w>
у же</w>
роз мі
ва но</w>
ви де
ль ні</w>
по точ
тро хи</w>
ль ни
к т
х у</w>
п а</w>
Те пер</w>
на д</w>
чи с
Т а</w>
сказа ти</w>
Ч ому</w>
ін форма
огод ні</w>
мог ли</w>
від пові
хло п
чи на
соб і</w>
ст во</w>
л ы
випа д
о ни</w>
ви кона
в зя
u r
по р
ері га
чен ь</w>
лен ь
я за
Да вай</w>
ро д
спи ску</w>
кори ста
па р
u n
з ву
ч ува
б ере
ці єї</w>
ді ть</w>
к ни
к ер
Ч и</w>
ло м</w>
шо ї</w>
ін стру
то ж</w>
в ши</w>
со м</w>
чи ть</w>
та ке</w>
ст у</w>
то лько</w>
o p
с пе
т ра</w>
ма ємо</w>
зе м
ці ка
мо й</w>
роз ді
н ням</w>
ка з
Ро з
Па раме
Про сто</w>
ї й</w>
Т о</w>
ч ор
e c
ві й</w>
ч ний</w>
хо ро
ог о
ці й
п и</w>
Л ю
Д якую</w>
з нову</w>
ш ля
ле г
С па
програ ми</w>
лог і
ва ли</w>
да ється</w>
ви бра
Щ об</w>
ог да</w>
до ста
К у
но е</w>
ль та
три му
ве сти</w>
Га разд</w>
т ру
3 ;</w>
&#9 3;</w>
r i
с кільки</w>
кра ще</w>
з ві
ви м</w>
ходи ть</w>
до рівню
си ла
1 ;</w>
&#9 1;</w>
мо сь</w>
до зво
в важа
в би
e t
с ен
лю би
і де
вік на</w>
біль ш</w>
сто ро
Д и
за д</w>
зна ч
ме р</w>
м ого</w>
бу ду</w>
п ли
ма лень
d i
Бу дь</w>
ш ому</w>
е е</w>
є н
буде т</w>
те ж</w>
ци м</w>
ра с
на зи
it y</w>
то р
зали ши
ш ла</w>
ві й
г и
ре ш
ма ють</w>
і сну
т но</w>
н ення</w>
ве т</w>
с мі
М и
зу льта
м ного</w>
с мер
не й</w>
ну жно</w>
може т</w>
на мага
ді ї</w>
знай ти</w>
т ен
лен о</w>
на справді</w>
мо вір
я та
ері ть</w>
чи ном</w>
фай лів</w>
лу чити</w>
і сторі
я кого</w>
ф е
и н
бы ла</w>
те р</w>
повідом лення</w>
то р</w>
пунк т</w>
Мо же
зобра ження</w>
в ра
си бо</w>
ь ю</w>
С ка
ви рі
ю т</w>
за вер
м я</w>
е тся</w>
к ва
ко ї</w>
г ти</w>
ку р
Н и
е му</w>
men t</w>
С о
п у</w>
що до</w>
ва йте</w>
ти чно</w>
слі д
Н о
е м
с ки</w>
з но</w>
l e</w>
да ні</w>
20 0
на я</w>
га р
при чи
Бо же</w>
т ко
як е</w>
по лі
раз ом</w>
про ек
голо в
трі в</w>
u s
си м
Параме три</w>
Хо рошо</w>
ві сть</w>
п ло
ны е</w>
во ди
н д
жи ть</w>
П ер
a p
Т об
во сті</w>
сві т
од на</w>
C ity</w>
о пера
кра щ
ко му</w>
ш ся</w>
ре чі</w>
діа лого
ст ва</w>
С та
се й
зб ере
ре зульта
да ння</w>
мен ти</w>
кіль кість</w>
C om
с кла
кла ві
нь ому</w>
т р
г ла
я ми</w>
ї ха
кто р</w>
Ц ей</w>
ру ч</w>
по дума
фі ль
n ame</w>
від бува
th e</w>
С мі
за пу
ст е</w>
чу до
нови ти</w>
kd e</w>
не ї</w>
зу стрі
сю ди</w>
мен тів</w>
сі б</w>
ль на</w>
зна єш</w>
хо тів</w>
про це
прав да</w>
по лу
ч ні</w>
пр и</w>
e t</w>
Е сли</w>
ре жи
ви щ
ін ших</w>
ста н
й де
еле к
вста нов
по говори
е те</w>
ь ся</w>
ве д
ли ти</w>
ві де
всі м</w>
е ще</w>
го р
нази ва
б ла
м ною</w>
по чина
ни ка</w>
ти й</w>
по га
то чно</w>
по да
ж ін
сте р</w>
сі м</w>
к с</w>
и ли</w>
повер ну
э того</w>
програ ма</w>
мі ль
на зад</w>
сто я
пови нні</w>
показа но</w>
є м
l i
но р
Д о</w>
по шу
т ка</w>
сказа ла</w>
in g</w>
Ф ай
то т</w>
те й</w>
в ла
й мовір
Com ment</w>
важ ли
да в</w>
мі г</w>
сь огодні</w>
по ло
ма лю
a d
ер а</w>
a l</w>
ми ну
за мі
Го спо
ши ми</w>
ка та
Х то</w>
я вля
об і
Й ого</w>
тво рення</w>
На м</w>
од і</w>
ро ди
хо те
но ва
э том</w>
параме три</w>
оста н
мен та
го м</w>
дорівню є</w>
п лю
ч ки</w>
ми ші</w>
зна єте</w>
Ч а
М ар
ста в
ю чи
ш та
бі р</w>
про си
o c
м ере
то ю</w>
вда лося</w>
сере д
Ва м</w>
ін тер
с користа
хі д</w>
е ё</w>
с о</w>
ш ки</w>
м ку</w>
та кий</w>
са м</w>
не н</w>
ор га
в ро
да ю</w>
вер ну
нен о</w>
дій сно</w>
ва ри
0 00</w>
во з
o o
ту р
яко му</w>
отрима ти</w>
K D
о ї</w>
a s
та кі</w>
ку н
рі м</w>
в ка
С лу
т вер
робо ти</w>
мер и
змі нити</w>
ін ші</w>
о чень</w>
б і</w>
Смі х</w>
сим во
п ля
зу пи
нь о</w>
б лі
і м
по мил
ва ш</w>
о значає</w>
Да вайте</w>
ка ти</w>
ч ка</w>
2 0</w>
Спа сибо</w>
спи сок</w>
про дов
1 9
є к
б еріть</w>
кото ры
ти по
міс це</w>
ц а</w>
С е
бу ди
ні ї</w>
ч ь</w>
фу нк
да лі</w>
e s</w>
роб ля
ст ей</w>
використо вувати</w>
ра ху
ва є</w>
ф и
в ні
п ы
хви ли
Р і
в каза
за хо
О ни</w>
ни е</w>
елек тро
тер і
На лашт
як і
та к
мо ло
во ро
и з
ко ві</w>
на писа
в тра
налашт ування</w>
ль ного</w>
во му</w>
сей час</w>
При віт</w>
и ми</w>
по мі
in f
з можете</w>
ро к</w>
бра ти</w>
Л е
Від кри
мо н
ли ч
ко лі
ко й</w>
и с
ни ма
пер ь</w>
ком п</w>
хо дя
о на
a n</w>
хо рошо</w>
га д
бу дуть</w>
ф а
мі ся
М ай
ви ди
то сь</w>
ці єю</w>
ва в</w>
до да
о х</w>
ді зна
ня ти</w>
ла н
клі ти
ї х
п ен
С у
М е
з и</w>
тра пи
тобо ю</w>
Л ад
ди ти
до сить</w>
ы ва
на л</w>
х а</w>
сту п</w>
б я</w>
ва ні</w>
Д е</w>
ни ки</w>
да ють</w>
з не
хоче ш</w>
ти в</w>
на приклад</w>
лу ч
де ся
пита ння</w>
e x
ту а
до дат
може ш</w>
Пі д
Лад но</w>
та ким</w>
фай ли</w>
фі ка
з від
за ко
ві мк
за ле
Т оді</w>
рі ї</w>
до ступ
А вто
inf o</w>
При вет</w>
не го</w>
ши ти</w>
пра ва</w>
з ер
ле т</w>
хо ті
ро ку</w>
дру г
до ла
сво ї</w>
ф ак
т ні</w>
подо ба
вс ь
до во
e d</w>
зроби в</w>
сві т</w>
с клад
роз пові
ка є</w>
на ш</w>
о к</w>
гля д</w>
боль ше</w>
змі ни</w>
то в
пане лі</w>
віде о</w>
по перед
ком па
Мо же</w>
відбува ється</w>
з в</w>
мож но</w>
д ві</w>
н ог
я в
ли й</w>
хоче те</w>
зна ходи
в ча
да р
ро ж
тво рити</w>
та ми</w>
З мі
ве сь</w>
ре да
од ну</w>
ні х</w>
ц т
тя г
н ці</w>
га разд</w>
с ніть</w>
ви со
ма в</w>
во но</w>
по ш
мі сти
ти му
на х</w>
є му</w>
на ле
Ви ба
ни будь</w>
i s</w>
єдна ння</w>
ве ден
дол жен</w>
Т і
систе ми</w>
Мо ж
ст ре
те ль
робо ту</w>
сказа л</w>
де кілька</w>
у сі
5 0</w>
роз та
зна чити</w>
Ч ор
кноп ку</w>
гро ші</w>
О тож</w>
сві ту</w>
чи т</w>
e n</w>
за кін
ні стю</w>
но ві</w>
a g
во руч</w>
щ ё</w>
м ы
ну в</w>
о н
пунк ту</w>
ш ься</w>
с к
чен о</w>
с вя
г ли
т ті</w>
ни ж
значен о</w>
бажа єте</w>
Во т</w>
e .</w>
те х
с вого</w>
по мо
ри й</w>
со н</w>
ви й
пови нен</w>
Пі сля</w>
ен ь</w>
За раз</w>
і ль
и ра
р ки</w>
По чему</w>
чи м</w>
зб еріга
мі ні
с увати</w>
с ку
існу є</w>
сві ті</w>
зу є</w>
д сь
де мо</w>
ве діть</w>
ї в</w>
сло ва</w>
ва шого</w>
жи з
да й</w>
бу д
і м</w>
ри ф
вер сі
ва л</w>
Ц я</w>
поді б
звича йно</w>
я х</w>
кіль ко
й теся</w>
сер вер
ни ть</w>
ж а</w>
ф ек
ны х</w>
к увати</w>
поча тку</w>
шо ю</w>
об ла
побачи ти</w>
по диви
C tr
т увати</w>
ші й</w>
ти ж
ма єте</w>
спо сіб</w>
с но
пер і
ди ть</w>
мо ї</w>
зна ешь</w>
вре мя</w>
Э й</w>
по мно
від но
ё м</w>
Б ог
s i
ч на</w>
ря д</w>
к си
Ctr l</w>
тво я</w>
ч ку</w>
се бя</w>
змі ню
ва ний</w>
до му</w>
сю да</w>
а лі
В ста
Та м</w>
ф ер
Фай л</w>
ш ло</w>
по чу
ст вен
ско ро
ча с
рі й</w>
Л і
ч ного</w>
ны м</w>
звича й
бачи в</w>
по ня
г де</w>
k r
во ло
ст ер
зна ти</w>
бо ро
ря док</w>
поряд ке</w>
д вер
ч те</w>
сказа ть</w>
се кун
авто ма
запи та
ч ів</w>
по м
ча ст
б у</w>
лен ий</w>
П е
ль них</w>
о те
пря мо</w>
кар ти
да ли</w>
рабо та
я м</w>
М у
д ні</w>
з ро
н на</w>
повер та
ва рі
ко льо
ро ль</w>
ма р
ші сть</w>
но мі
по вто
П о</w>
може шь</w>
ну ю</w>
зна ємо</w>
Пра в
ц а
ен ер
як им</w>
по ки</w>
бу т
по ч
за хи
за ванта
Л и
бачи ти</w>
використа ння</w>
прави льно</w>
Б о</w>
1 2</w>
пев нен
жа ть</w>
користува ча</w>
доста т
то же</w>
жа лу
справ ж
бу ть</w>
ство рити</w>
не об
ст ри
ква дра
Ч у
та ких</w>
ко ло</w>
на у
зо к</w>
ство рю
чо к</w>
е щё</w>
тобо й</w>
ти фіка
пу ска
ни ків</w>
де які</w>
випад ку</w>
В сі</w>
Ви лучити</w>
Х а
r o
ч них</w>
е ко
з доро
кт огра
ру ха
кож ного</w>
ти ся
мог ла</w>
каза в</w>
по ми
ни чего</w>
спо соб
зо всім</w>
зали ша
знай о
ви бо
ва ла</w>
ве р</w>
кон тро
ко пі
Г ар
те льно</w>
те м
ну ть</w>
над то</w>
ж д
ство рення</w>
ви тра
сві й</w>
ре б
ж ны</w>
не мо</w>
ми й</w>
х тось</w>
e l</w>
зобра жен
с кри
по тре
г ри</w>
о кре
ста ти</w>
р т</w>
ки ми</w>
Ко н
д ере
працю є</w>
и ме
ви ми</w>
бы ли</w>
н но</w>
слу ха
сло во</w>
к ування</w>
во ду</w>
З ви
но вий</w>
ма ли</w>
про ти</w>
лен і</w>
В ер
по ра
к ры
рів ня
перегля ду</w>
О д
су р
А га</w>
ло ве
чо ти
ос кільки</w>
не е</w>
К ар
при н
це м</w>
пи с</w>
за кри
ди с
жалу й
ай те</w>
мо вля
жалуй ста</w>
тек сту</w>
o f</w>
ви кли
май же</w>
ль не</w>
По казати</w>
дво х</w>
i l</w>
хо че</w>
не ць</w>
S t
ні м</w>
з ло
хоче шь</w>
нор ма
Мож ливо</w>
t t
роз ви
бу дь
се р</w>
ро ю</w>
ка жу
бли зь
На з
с лы
наз ву</w>
Зви ча
ру ч
в ні</w>
ко во</w>
ува зі</w>
люб лю</w>
каз увати</w>
є мося</w>
к ти
i t</w>
ра ми</w>
х ва
ни ці</w>
на до</w>
Щ е</w>
че й</w>
не ю</w>
по в</w>
пи ти</w>
те ль</w>
сті льки</w>
по з
ра ніше</w>
С ер
зага лі</w>
К то</w>
А н
під трим
да ть</w>
ува тися</w>
по л
ня ми</w>
лю бо
зав дання</w>
ве де
c o
пусти ти</w>
е кра
ou n
A T
Хо че
ен е
де що</w>
KD E</w>
ос нов
с ы
кер ування</w>
Дже й
пла ти
с ування</w>
му си
ува ла</w>
пер ше</w>
пы та
ви лу
не м</w>
мно й</w>
ш ка</w>
не чно</w>
ю тер
ки е</w>
ді тей</w>
по ве
у се</w>
мен та</w>
му зи
люди на</w>
гра фі
од не</w>
на ча
чи к</w>
ко е</w>
на ді
спро бу
жу р
До дати</w>
на ші</w>
д ження</w>
К и
яко ї</w>
ш ту
а б
пре кра
па ра
П ре
не будь</w>
від да
ша бло
при стро
Ду маю</w>
та ка</w>
1 5</w>
працю вати</w>
є ди
зна ла</w>
ша й</w>
та кого</w>
пі ктогра
спо ко
шу ка
у сі</w>
на пря
е ха
Ве ли
говори ть</w>
Те бе</w>
Т ре
та н
роби ть</w>
ма єш</w>
тек ст</w>
кі й</w>
ни я</w>
л ого</w>
да вно</w>
с ле</w>
параме трів</w>
орга ні
є шся</w>
від чу
б й</w>
b u
з роб
достат ньо</w>
Ду же</w>
з д
мо в
ко вий</w>
сдела ть</w>
че лове
су т
да же</w>
Може т</w>
му ж
м на
Р у
р ю</w>
Про гра
з ні
ста в</w>
дру г</w>
в до
ска же
ро го</w>
дава йте</w>
ко р
мо де
мер т
І су
Л о
х о</w>
дума в</w>
ма ло</w>
ста є</w>
ни когда</w>
ле к
по тому</w>
чолові к</w>
мо ви</w>
ре сур
с пер
да ле
t o</w>
ка же
від со
К ла
ш но</w>
Р и
ра ди</w>
l e
d o
н ра
з го
су м
3 0</w>
ша н
сво їх</w>
в клад
Г ей</w>
Ч е
тво рю
Х ри
можли вість</w>
з увати</w>
сила ння</w>
ну с</w>
змі ни
з біль
ді ти</w>
до ся
г ре
жі ть</w>
да м</w>
соб ира
По мил
ль ну</w>
ді вчи
го дня</w>
i s
н ер
на р
c on
слу ж
кі мна
А р
э тот</w>
тя гом</w>
на н
в певнен
на ших</w>
зна є</w>
ж ер
Т во
в пли
об ер
ко ль
ди н</w>
дер жа
1 00</w>
at e</w>
ча сто</w>
од на
обра ти</w>
май бут
зна в</w>
рі к</w>
ту ри</w>
Ц і</w>
в казати</w>
мо мент</w>
вка зі
ру ки</w>
ку ди</w>
б ро
в ере
говори ти</w>
у да
по зво
Л а
б ри
d e</w>
повідом лен
пі в
у спі
т ування</w>
ста лося</w>
по яс
n et</w>
звича й</w>
ог ля
ка на
до слід
чис ло</w>
по ка</w>
при я
мен ше</w>
ti on
T h
ва н</w>
допомог ти</w>
a t</w>
усі х</w>
ні я</w>
ін ший</w>
жи ва
бла го
ко жен</w>
в ник</w>
нь ої</w>
м ні</w>
от же</w>
мо к</w>
лен а</w>
во т</w>
d e
Тоб то</w>
т вій</w>
е фек
вст ре
ы й</w>
ди в
ё т</w>
те ки</w>
на гад
до ві
l t</w>
мо ви
ка я</w>
вид но</w>
Мо я</w>
ши ф
Д ру
чу ть</w>
програ му</w>
та х</w>
or g</w>
запи су</w>
A N
о триму
но логі
ак тив
да вай</w>
ль ше</w>
т ний</w>
ор у</w>
ні хто</w>
по гля
ди ні</w>
А д
нав ча
ка же</w>
ви ще</w>
ва ші</w>
щ ення</w>
по рож
м ся</w>
си туа
пле ски</w>
Помил ка</w>
U S
за про
на род
дела ть</w>
та ки</w>
ство рен
рі ч</w>
з дається</w>
г лу
кноп кою</w>
с с</w>
спо ді
по слу
o u</w>
хо ду</w>
чи й</w>
параме тр</w>
ку п
скориста тися</w>
по чему</w>
ф ей
k on
діалого ве</w>
відкри ти</w>
варі ан
міль йо
по знач
лю є</w>
подоба ється</w>
як би</w>
те перь</w>
спо ст
не на
р сь
ді я
від мі
ду м
ті й</w>
ка н
д ний</w>
ль ної</w>
енер гі
дру жи
Х і
то ра</w>
ни к
хо м</w>
вс ього</w>
буде мо</w>
запи са
Ва с</w>
s h
Ч ар
На й
об и
пробле ми</w>
еко номі
пошу ку</w>
лю вати</w>
По казувати</w>
чи лось</w>
Ти по
запи с</w>
e m</w>
э тому</w>
ту ди</w>
са ма</w>
к ля
стру к
об ме
ско лько</w>
a .</w>
бачи те</w>
про ду
за ції</w>
до дому</w>
стави ти</w>
Т ри
хо же</w>
i f
мо є</w>
a b
сто в
пере ві
ка м</w>
ди ти</w>
нра ви
v e</w>
зна ть</w>
шля х</w>
дол жны</w>
ше л</w>
вед ення</w>
соб ою</w>
се к
но чі</w>
ко ло
ти п</w>
с к</w>
кноп ки</w>
з бі
бу ду
c ri
са мо</w>
ме сте</w>
є м</w>
ч ної</w>
ба н
вирі ши
при кла
вста новити</w>
ден о</w>
п і</w>
д якую</w>
в мі
бачи мо</w>
ш риф
ці аль
сво є</w>
ди на
все гда</w>
П ро</w>
ки ну
ве чер
швид ко</w>
ча ти</w>
ска жу</w>
поряд ку</w>
o t</w>
вни з</w>
ра ді
ні би</w>
т ю
бо р
о пи
А мери
S L
ст ви
од но
ма ма</w>
ро ки</w>
огра фі
вік ні</w>
сто су
Звича йно</w>
З ем
се м
в ки</w>
ц у
мо м</w>
з дат
щ е
від творення</w>
т ере
ку ль
спі в
роби ш</w>
інформа цію</w>
на шого</w>
по ста
міс ця</w>
то ва
колі р</w>
відповід ь</w>
Наз ва</w>
ц ер
точ ки</w>
ко ха
Ті льки</w>
обо в</w>
ч не</w>
Ви кори
да ла</w>
Г де</w>
о чі
нов лення</w>
ко мі
різ них</w>
плю с</w>
в загалі</w>
ap p
про тягом</w>
s .</w>
ф от
по значено</w>
зай ма
ви н
Викори сто
луч ше</w>
викона ння</w>
рі я</w>
пере вір
до дати</w>
ma il</w>
ін шого</w>
до ю</w>
А бо</w>
ac tion</w>
теле фо
рів ень</w>
н ування</w>
cri p
b o
розта шо
мі в</w>
пі ти</w>
ла ми</w>
С творити</w>
О плески</w>
від чува
вс ем</w>
т рі</w>
ку да</w>
дола рів</w>
сере до
та бли
На ти
по ля
а на
э тим</w>
на ша</w>
T R
ви ко
тех нологі
зроби ли</w>
бе н</w>
ві та
Г ре
S h
сказа ли</w>
со лю
Пере гляд</w>
інстру ментів</w>
з вер
M E</w>
Налашт увати</w>
u s</w>
те го
ва ших</w>
раз ів</w>
за да
Мо жна</w>
t le</w>
мо з
роз роб
и ть</w>
в ну
лю дсь
ю щ
с ні</w>
мі нус</w>
ж ки</w>
ва ша</w>
ре аль
най кращ
спі ль
O R
д жу
вигля дає</w>
коман ди</w>
си н
ко ре
дру го
про чита
од ним</w>
ма с
П и
e g
запу ску</w>
r a
6 0</w>
рен ь</w>
вс ю</w>
ду р
ві в</w>
ро ду</w>
міс т</w>
за сто
з могу</w>
не с
жа ль</w>
нати ска
ко вих</w>
особ и
клі єн
кла ц
близь ко</w>
І м
під триму
В с
M A
во к</w>
К рім</w>
хоте л</w>
ви мі
ло к</w>
й де</w>
Тоб і</w>
за с
На приклад</w>
К ра
зав тра</w>
бу до
проду к
ма ми</w>
ж о
w h
За га
дій с
тиму ть</w>
не га
ді й</w>
жен о</w>
се ст
д же
вели кий</w>
ста вля
ряд ка</w>
ва на</w>
п си
ли ш
Са ме</w>
a r</w>
тоб то</w>
сті льни
прий ня
зрозумі ти</w>
жур на
поча тко
х е
од но</w>
з ве
історі ї</w>
ци и</w>
си ли</w>
потріб ні</w>
ко в</w>
. ...</w>
на че</w>
ві зь
не ться</w>
як и
рт увати</w>
тво ю</w>
но мер</w>
нати сніть</w>
к ува
пробле ма</w>
хо ча</w>
реш ті</w>
ката лог
ни ця</w>
г рош
т ы
С Ш
w or
ко ра
С ь
M L</w>
по ле</w>
ма тері
знаходи ться</w>
бага ть
По вер
К огда</w>
Ф ор
t ;</w>
ти ть</w>
Мі й</w>
се годня</w>
г лі
де ло</w>
вибо ру</w>
че з
во лю
О дин</w>
Бо г</w>
ці она
тиме ться</w>
пер ший</w>
ро й</w>
СШ А</w>
О б
i p
части на</w>
слы ша
дол жна</w>
розмі р</w>
бать ко</w>
ста ну</w>
лег ко</w>
ві що</w>
це п
за па
го ру</w>
Бе з</w>
які й</w>
х во
тра н
по ля</w>
Ні чого</w>
э н
о ці
ба чу</w>
С про
w e
ми ка
ка жу</w>
сти ти</w>
ри в</w>
сервер а</w>
од я
може м</w>
дов го</w>
г на
t o
дж ере
ча со
но в</w>
а би</w>
Л у
си ла</w>
й ду</w>
де н</w>
Ш вид
t er</w>
лю дя
ця ми</w>
тер мі
са й
чер во
про да
ймовір но</w>
про фі
об е
го ри
г рі
Да й</w>
за кон
O F</w>
помно жити</w>
ді я</w>
u kr
US A</w>
чи ли</w>
за безпе
з да
U R
дя ки</w>
TR AN
потріб на</w>
о фі
ма буть</w>
сторі нки</w>
вар то</w>
в за
по сті
По слу
най ти</w>
од ному</w>
OR S</w>
ден ь
TRAN SL
TRANSL AT
TRANSLAT ORS</w>
спра ва</w>
д ы</w>
вла сти
в клю
замі сть</w>
вс ере
Змі нити</w>
ль ним</w>
Виба чте</w>
З бере
Є вро
кро в</w>
жи м</w>
х ра
р д</w>
звід си</w>
х ро
до ступ</w>
мен и</w>
к рім</w>
й тесь</w>
ч я</w>
г ру</w>
інформа ції</w>
ста нь</w>
ви на</w>
при бли
то н</w>
Та ким</w>
поча ти</w>
важ ливо</w>
ючи сь</w>
ко го
П у
u m
ви значити</w>
Госпо ди</w>
ф е</w>
л л</w>
будь -</w>
С і
ti tle</w>
те м</w>
скри п
но сть</w>
грош ей</w>
Прав да</w>
сто м</w>
e p
ци ф
нав коло</w>
v i
ь ох</w>
споді ва
уби й
зна ли</w>
при єм
дума ла</w>
двер і</w>
Відкри ти</w>
ходи т</w>
ти му</w>
зво ю</w>
ін ше</w>
щ у
и т</w>
ф п
ста р
ва шу</w>
пі та
б ре
наз ви</w>
ку пи
гі р
д ро
гро ма
робля ть</w>
ванта ження</w>
На віть</w>
са мі</w>
різ ні</w>
у вімк
потрі бен</w>
роз гля
ли ть</w>
части ни</w>
рі д
на звою</w>
чудо во</w>
Мен е</w>
Ф ран
як ими</w>
ш ку</w>
на багато</w>
Го ло
v er
інтер фей
а л
об лич
нов е</w>
дру га</w>
ва шої</w>
Ви беріть</w>
ува нь</w>
ти пу</w>
ку т
ка тего
ма ла</w>
ля р
ле р</w>
про сто
де й
не вда
кто ра</w>
t a
ш ей</w>
жи в</w>
не ма</w>
на к
у б
голо ву</w>
ви мк
ле м</w>
клаві а
ви яви
спо р
гру пи</w>
Вс ё</w>
ра к
от ве
у ні
нь те</w>
С ко
використа но</w>
Ін стру
т ру</w>
нов ого</w>
мо ей</w>
краї ни</w>
е шься</w>
е ди
С то
ста ла</w>
мере жі</w>
сту па
хо ло
пла не
ді мо</w>
вс его</w>
пов ністю</w>
а н</w>
l o
ч ну</w>
з мен
виде л</w>
бу р
у т
робо та</w>
ра ди
бо же
автома тично</w>
про сти
прав ля
особ ли
з м</w>
хі в</w>
сер йо
л ки</w>
хвили н</w>
н ної</w>
бачи ли</w>
А л
вст ву
Налашт ування</w>
ста нови
бо ку</w>
Тре ба</w>
Програ ма</w>
тер и
ст я</w>
на шу</w>
Ре да
про сті
прий шов</w>
пе ць</w>
мо в</w>
ба чення</w>
па не</w>
не те</w>
та ку</w>
програ м</w>
ко в
ю вати</w>
раз і</w>
ни ком</w>
бра т</w>
чоти ри</w>
в i
Зна єш</w>
по ли
можли вості</w>
да н
ц у</w>
ти ки</w>
го ро
Б ер
стов п
мо г</w>
По ка
слу чилось</w>
с ма
т ків</w>
розумі ю</w>
да йте</w>
чен і</w>
ходя ть</w>
спра ви</w>
ме та
ко ш
ка нсь
г ування</w>
іде я</w>
пі з
ми сте
а мери
ща сли
й сь</w>
аб солю
По тому</w>
сь кий</w>
хлоп ці</w>
по казати</w>
За в
M a
С кільки</w>
я кою</w>
д нів</w>
важ ко</w>
Бог а</w>
де ш</w>
да ми</w>
є теся</w>
по сле
1 1</w>
ті ла</w>
використо в
Ко ро
вищ а</w>
сь ка</w>
но ді</w>
ло ка
ро бі
мен ту</w>
режи м</w>
ро ці</w>
н увати</w>
міс ці</w>
ag e</w>
е л
веде ться</w>
ком по
С прав
с від
си ль
Ко нечно</w>
сла б
ве ць</w>
ра х</w>
вні ш
По тім</w>
швид ше</w>
во м</w>
в ка</w>
буде те</w>
Д жу
я т
сдела л</w>
ви лучити</w>
ви значення</w>
ді ля
назива ється</w>
ко ле
i g
повідомлен ь</w>
па ру</w>
жиз нь</w>
во стей</w>
c ol
сере д</w>
ви бір</w>
Про шу</w>
дізна тися</w>
до сі</w>
раз и
ні ч</w>
ка лен
хоче мо</w>
се ан
Г ра
В се
la y
ці л
систе ма</w>
ре чей</w>
о чі</w>
т вари
ла дно</w>
бі зне
пога но</w>
тво й</w>
н г
но си
л ля</w>
про ти
людя м</w>
ве се
Ска жи</w>
пев но</w>
жер т
Чу до
слі в</w>
р ка</w>
з раз
Використо вувати</w>
ми х</w>
гра ти</w>
сво бо
дале ко</w>
об ще</w>
an d</w>
Чор но
шу є</w>
ходи ти</w>
Ц і
h er</w>
пробле м</w>
но сти</w>
Ш а
пі в</w>
ді ю</w>
К іль
Збере гти</w>
чи в</w>
те о
пане ль</w>
од ні
збере гти</w>
тако й</w>
про шу</w>
про то
маши ну</w>
д жен
ну є</w>
Лю ди</w>
стрі й</w>
не й
гово рю</w>
бі ля</w>
до би
да рт
4 0</w>
вели ка</w>
сту пи
Ч ер
ї з
си н</w>
к вар
дозво ля
в па
a s</w>
че с
ле й</w>
де т</w>
До зво
х ли
ф ри
ма ні
та ння</w>
пози ції</w>
фі зи
нагад ування</w>
мо ду
зі в</w>
ві ться</w>
в з
Г у
то в</w>
до ж
ди те</w>
взя ти</w>
с ува
прибли зно</w>
л ка</w>
за дово
Зна ешь</w>
y ou</w>
су нути</w>
проек ту</w>
н ува
мо сті</w>
ло г</w>
кон так
ен а</w>
відпові дає</w>
ва ше</w>
на па
Пі д</w>
Дж о
ukr .</w>
ма н</w>
г ра</w>
p p
g t</w>
я р
жі мо</w>
помо чь</w>
мі ж
жи ли</w>
э ти</w>
зво ни
ду мку</w>
UR L</w>
тво ри
ко н</w>
га є</w>
ча тку</w>
ста ли</w>
норма льно</w>
не сти</w>
налашт увати</w>
пра в</w>
ли чно</w>
знай дено</w>
it em</w>
2 5</w>
не много</w>
ме то
е з
д ж</w>
рівня ння</w>
за бра
д я</w>
зо ло
вы й</w>
Хі ба</w>
В ы
ту ра</w>
Ж и
цт ва</w>
та ти</w>
адре су</w>
кон тек
Ін тер
ча ть</w>
н б</w>
багать ох</w>
т я</w>
н г</w>
за звичай</w>
г ну
а в
спо чатку</w>
которы е</w>
О т</w>
слу ча
поговори ти</w>
все х</w>
чу в</w>
по д</w>
де м</w>
ор и</w>
на ше</w>
во й</w>
Як би</w>
s p
ру ку</w>
С пи
ін шим</w>
хоті ла</w>
C on
ш ком</w>
Не має</w>
f or</w>
ко вого</w>
ли в</w>
en c
сті в</w>
с ви
вели чез
ча є</w>
писа ти</w>
перед ба
н та
мо ва</w>
ме сто</w>
б ог
ц ы</w>
систе му</w>
й ди</w>
мно жи
люди ни</w>
Г е
ня ть</w>
наз ва</w>
зна чит</w>
ви ть</w>
тро м</w>
завер шення</w>
мо р
ска жи</w>
ни цю</w>
г но
ви кон
т рен
мо їх</w>
викона ти</w>
Ю рій</w>
С Т
u b
сво їм</w>
Ч ерез</w>
с ний</w>
по зна
з га
ба й
П ар
ня х</w>
ве н</w>
f or
є мось</w>
пра воруч</w>
об мі
Сь огодні</w>
e m
ти ти</w>
мо єї</w>
а льно</w>
рі за
нак ше</w>
ма тич
Чорно і
Б ра
говори ли</w>
ве дь</w>
k e</w>
хо ч</w>
ти те</w>
соб а
при хо
на малю
На ступ
ch or</w>
H T
чор а</w>
ця х</w>
виде ть</w>
y ur
жи тті</w>
дела ешь</w>
спост еріга
ли х</w>
дума л</w>
да в
тт є
поточ ного</w>
которы й</w>
зна ет</w>
ру жи
К ри
ті ло</w>
по сле</w>
ме н</w>
д ви
чи на</w>
тако е</w>
о д</w>
ву є</w>
щен о</w>
сві до
на с
ля х</w>
кілько х</w>
жін ка</w>
ви ду</w>
Ва ша</w>
ли м</w>
во д
ве з
yur chor</w>
пі р</w>
мі сть</w>
З ві
по ши
ни маю</w>
в ний</w>
Н у
Ма к
an d
ста н</w>
пу блі
коман ду</w>
до ведеться</w>
e d
э той</w>
ре й
пове ді
ни ка
не безпе
ву ли
ци я</w>
ста не</w>
д рі
an s
т них</w>
си льно</w>
коре кт
ін шому</w>
ль те</w>
ко ва</w>
и гра
бли ж
ско ро</w>
па ль
А ль
у м
ти ли</w>
сла ти</w>
роби в</w>
про й
нрави тся</w>
Ко ман
о й</w>
гово ря
ві йсь
що йно</w>
у го
особ ливо</w>
ця ть</w>
хо чуть</w>
пош ти</w>
і с
хоті ли</w>
на стільки</w>
лі кар
ва х</w>
y p
р ування</w>
зо вніш
во ди</w>
Те перь</w>
т на</w>
їха ти</w>
сли шком</w>
обі ця
В ведіть</w>
сто ри
по трапи
об лі
э р</w>
сле ду
з дійс
i r
де те</w>
qu er
сно ва</w>
зна л</w>
де ле</w>
З у
рі шення</w>
пі шов</w>
в ря
По жалуйста</w>
се кре
зай ня
Т у
по нима
ма тер
де та
ви д</w>
в месте</w>
ча сть</w>
фі гу
С ті
На справді</w>
части ну</w>
рі ю</w>
біль шість</w>
поча в</w>
за надто</w>
шан с</w>
пока зу</w>
о п
и д
використову ється</w>
э ту</w>
ле й
дума ти</w>
Виба ч</w>
о че
ле н</w>
допо мага
є д
чека й</w>
ми с
щ і</w>
трима ти</w>
побачи те</w>
пла н</w>
С ере
я зок</w>
на ро
ва тися</w>
К е
у яви
ча сом</w>
місти ть</w>
від ки</w>
Ч о
ін ве
тися ч</w>
по кла
мо ву</w>
лі воруч</w>
встанов лено</w>
Т огда</w>
g t;</w>
& gt;</w>
к ну
ки нути</w>
жен а</w>
Дж ор
8 0</w>
хло пець</w>
ф он</w>
ар хі
ла й
про фе
о трим
най мні</w>
на шої</w>
вза є
блі оте
чис ла</w>
Р О
дума єш</w>
тра пля
сте пен
поча ли</w>
клю ч</w>
дь те</w>
р ку</w>
проце с</w>
пра во</w>
ла х</w>
дава ння</w>
гра в
1 6</w>
ст я
дума ешь</w>
до ма</w>
в ку</w>
облич чя</w>
ль ник</w>
ди т</w>
f f
сі я</w>
л ку</w>
зав да
До дат
те ку</w>
ниж че</w>
ма х</w>
ін шими</w>
ці єн
щ у</w>
режи мі</w>
по том</w>
со л
повер х
кольо рів</w>
По ві
Нати сніть</w>
зем лі</w>
з му
h tt
C h
рів ні</w>
ло ю</w>
ко лись</w>
кліти ни</w>
ж да
програ мі</w>
пере й
з ру
фі нан
по силання</w>
запи си</w>
доку мента
мо єму</w>
То лько</w>
історі ю</w>
хоче т</w>
за бира
буди нок</w>
ч ним</w>
хо ди</w>
пере кона
вер х
сем ь
Ч ого</w>
Е к
с ні
Зна ю</w>
поді ї</w>
ни и</w>
во л
прави ла</w>
поговори ть</w>
зи ден
наступ ного</w>
зображен ь</w>
до мой</w>
З о
Дж он</w>
су час
нови х</w>
не вели
Ді а
чита ння</w>
три ва
г ло
И зви
ни те</w>
и и</w>
вказі вник</w>
ти т</w>
ка піта
цт во</w>
па ку
д ві
ціка во</w>
помил ка</w>
п лі
не можливо</w>
мільйо нів</w>
мі ста</w>
лі з
ж увати</w>
i a</w>
ф ра
мен но</w>
д ного</w>
Хо дімо</w>
ці н
у краї
s e</w>
прав ду</w>
ек спер
чолові ка</w>
сь ого</w>
ста ло</w>
проек т</w>
діалого вого</w>
ч ере
ш ування</w>
слі дов
роз мовля
ж ку</w>
ла га
ста ні</w>
ро в</w>
поло ви
кін ці</w>
к ло
Т е</w>
htt p</w>
жен щи
A n
скоро чення</w>
лен их</w>
во про
По д
Ба га
па рень</w>
a u
розу м
т огда</w>
пря мо
від же
ві т
ве чі
ак ти
Ч и
доку мента</w>
сер тифіка
п х</w>
Ки та
Й ор
функ ції</w>
да х</w>
ви роб
ва шому</w>
а ж</w>
ля ть</w>
їха в</w>
ви значен
ст ування</w>
са мого</w>
пови нна</w>
на да
зі бра
дь ми</w>
Ві д</w>
Б ар
на де
кажу ть</w>
ж од
es .</w>
піз ніше</w>
моз ку</w>
до ба
фор му
ра п
версі ї</w>
яки йсь</w>
доступ у</w>
еле ментів</w>
1 4</w>
ри ть</w>
кажу чи</w>
з ра
Н ью</w>
від різ
in g
ти ми</w>
по тер
по смо
по жалуйста</w>
ор дина
н a
еле менти</w>
хоте ла</w>
лі ні
in t
сі ї</w>
о то
ме ди
ген е
k e
ти ка
поверта є</w>
Про сти</w>
la b
а ген
Чар лі</w>
Ко лі
ї ми</w>
украї нсь
на веден
ви ти</w>
справ у</w>
пунк том</w>
дя ть</w>
quer or</w>
схо же</w>
Ча с</w>
oun t</w>
app name</w>
о у</w>
за голов
га даю</w>
Про те</w>
ё л</w>
п рі
на дає</w>
в ши
Г і
an g
на скільки</w>
в гору</w>
Пере клад</w>
ш тов
не хай</w>
зале ж
бать ка</w>
а л</w>
чи се
ту є</w>
стан дарт
по хо
и спо
взає мо
світ ло</w>
са ми</w>
рів ня</w>
по за
ле ку
г ні
ту ру</w>
кра си
дося г
К ер
отрима в</w>
но ва</w>
ш его</w>
по мер
ма ш
p re
о ри
лю дьми</w>
ком бі
зрозумі в</w>
Ф і
по доро
зб ро
встанов лення</w>
lay er</w>
ш ма
да р</w>
всере дині</w>
Не можливо</w>
шу ю</w>
шко да</w>
хви лю
ф ар
роз і
зна чить</w>
де яких</w>
ми м</w>
лен ие</w>
кілько сті</w>
у с</w>
со ло
за пов
де ву
части ні</w>
es crip
за слу
вни ка</w>
Справ ді</w>
ш кі
про води
в вести</w>
Про сти
n e
э й
контек ст
г увати</w>
в перед</w>
in t</w>
Ф у
li st
і ден
Н ор
фор ми</w>
с на</w>
ре гі
п o
м с</w>
ли ш</w>
к лу
н ків</w>
жін ки</w>
по ї
bo x</w>
ре цеп
пере да
жен ий</w>
i m
ю тся</w>
ша я</w>
тиме мо</w>
т ко</w>
t h</w>
роз в</w>
шен о</w>
по ле
ні ма
х ре
тер а</w>
ви знача
ад же</w>
О х</w>
уяви ти</w>
ряд ків</w>
в не
О й</w>
ту да</w>
систе мі</w>
пер ер
обо х</w>
міс це
м ки</w>
по нимаю</w>
до ки</w>
i d
сто ит</w>
най біль
ль ному</w>
змі н
ді ста
ба зи</w>
tion al</w>
ж ка</w>
еле мент</w>
ванта жити</w>
К і
інстру мент</w>
ми кає</w>
ву з
ва них</w>
n o
по проси
ве ли</w>
челове к</w>
стовп чи
абсолю тно</w>
N A
за ція</w>
Спи сок</w>
я та</w>
кре ма</w>
С по
Е й</w>
co m</w>
о хо
бу ді
сво єму</w>
годи н</w>
мо леку
лі к
буде ш</w>
а то
трі ш
с ме
помо щ
по слідов
мі сто</w>
відо мо</w>
відо бра
со н
м па
вибра ти</w>
про и
н т</w>
мас шта
Щ ось</w>
Х ло
il e</w>
ри ли</w>
нар ко
кі нець</w>
Ні хто</w>
ува гу</w>
си лу</w>
зустрі ча
голо с</w>
говори в</w>
роби мо</w>
ви про
бі бліоте
Пра ви
ре ши
раз и</w>
зна чно</w>
а у
Слу хай</w>
ar e</w>
чен ий</w>
зо крема</w>
бо я
че сть</w>
смер ть</w>
результа т</w>
з ору</w>
па роль</w>
опера ції</w>
відчу ття</w>
та й
по пи
ма те
де ла</w>
годи ни</w>
в ті
ува тиме</w>
сто лі
не р</w>
всь ому</w>
об чис
на шому</w>
ло му</w>
ди во
му сь</w>
ки с
зь ми</w>
ва ться</w>
Я кий</w>
сер вер</w>
жиз ни</w>
ге ро
ви ді
A l
ува нням</w>
смер ті</w>
сво єї</w>
ли шь</w>
Н А
с ком</w>
про ис
Чудо во</w>
Па м</w>
Ва ш</w>
шен і</w>
під пи
пор т</w>
мен а</w>
А в
л ы</w>
d er
ци ми</w>
лі ка
На віщо</w>
Кіль кість</w>
мага зи
кого сь</w>
зупи ни
буди нку</w>
по про
адре си</w>
ні ми</w>
лу чення</w>
зо м</w>
фот ографі
тиме те</w>
су спіль
ма ль
кни ги</w>
знайо ми
at her</w>
необ хід
Колі р</w>
1 0
со р</w>
об ере
записа ти</w>
при зве
об роб
на се
к рі
С ан
зраз ок</w>
в ь</w>
Слу шай</w>
П О
a tion</w>
сту ден
отрима ли</w>
я ти</w>
перегля д</w>
е мо
діа гра
воз можно</w>
буд увати</w>
т ли
рт ування</w>
напря мку</w>
дей стви
д ю
знай шов</w>
параме тра</w>
ко д
за ме
escrip tion</w>
фі к
говори л</w>
ви ро
Мен ю</w>
kd e.</w>
при ва
жу є</w>
s y
тр ьох</w>
со ціаль
об ъ
зроб лю</w>
за д
жа р
вій ни</w>
в міст</w>
с п
раху нок</w>
па ні</w>
го спо
То чно</w>
П ла
по па
ни ку</w>
краї ні</w>
За кри
Д жи
яз ку</w>
х айте</w>
по ту
ді вча
ви хід
У вімк
при пи
при го
лю д
с це
не до
чи х</w>
с пла
с муж
ві ру
буде шь</w>
Ти п</w>
роби те</w>
вважа ю</w>
М ер
s t</w>
тек сто
най більш</w>
квар ти
1 8</w>
пока зує</w>
н e</w>
ль ність</w>
знай шли</w>
зав дяки</w>
бо ле
ко ордина
it s</w>
с чита
роби ли</w>
да єш</w>
ві га
цер к
сво ей</w>
с фер
компо нен
ка мер
до н</w>
тво ї</w>
по ру
га ду
тиму ться</w>
со ю</w>
вре мени</w>
с ы</w>
ж те</w>
г е</w>
вер си
К рі
in do
по р</w>
У се</w>
До да
ци ю</w>
су ті</w>
гу ля
ь ю
т ря
потре бу
запи сів</w>
відмі н
lab el</w>
N e
ва ет</w>
Ма ма</w>
Зві сно</w>
тт ям</w>
те к</w>
боже ві
По перед
Ли ше</w>
реда гування</w>
ра нку</w>
полу чи
за пустити</w>
важ но</w>
Ни чего</w>
Зем лі</w>
роб лю</w>
w w
a y</w>
ре зер
по сла
пер ш</w>
на ко
Ш и
По знач
Е сть</w>
явля ється</w>
пер шого</w>
кін ця</w>
з ен
части ною</w>
хро ні
при бу
ди ха
використову є</w>
men u</w>
симво лів</w>
різ ь</w>
глі йсь
я сно</w>
ч лен
на го
А фри
бі са</w>
І сну
ко мен
По ка</w>
Ку ди</w>
Ко ри
пи сь
з дава
день ги</w>
Ба чи
ф а</w>
тра ди
на решті</w>
л л
квадра ті</w>
С ей
точ ку</w>
по значен
в ог
Ї ї</w>
комбі на
за ня
З дається</w>
те й
сь кі</w>
роз ши
об а
б ру
1 3</w>
ну ли</w>
Б ы
en t</w>
чи н
то рії</w>
тво р
по лі</w>
кси ма
в не</w>
s e
2 00</w>
ре сто
на пи
мо їм</w>
л лі</w>
O p
Во з
жи й</w>
По шу
ща стя</w>
розді лі</w>
ж ор
да л</w>
ве щ
я н
по чува
доку мент</w>
дити на</w>
г ий</w>
Хо ча</w>
Ра з
ног и</w>
не з
з му</w>
жи ве
вс ю
ви жу</w>
we ather</w>
т ного</w>
ре волю
ж одного</w>
вигля ді</w>
Не хай</w>
P o
і накше</w>
швид кість</w>
мі ї</w>
жі нок</w>
дру ку</w>
дов жи
Зна єте</w>
un it</w>
ін шу</w>
с ю</w>
міль яр
використа ти</w>
по то
жен і</w>
ви ста
ба к
Та ко
u t</w>
про ш
Д Н
че т</w>
скориста йтеся</w>
м м</w>
говори ла</w>
Чор т</w>
Е Р
В ла
ста рі
зна ють</w>
вби ти</w>
19 9
ї ть</w>
історі я</w>
ч увати</w>
о па
де мон
гі дно</w>
вы гля
Й ому</w>
пі дій
проис ходит</w>
пості йно</w>
ли ли</w>
П огля
сторо ни</w>
с цен
відсо тків</w>
Ро зу
К э
на вер
ди віться</w>
вигля д</w>
Ро змі
ри зи
па рт
од разу</w>
ми ра
ви ба
б лу
Фор ма
- -
р ы</w>
нен ий</w>
компа нії</w>
з ва
l d
поточ ний</w>
з може</w>
сум ні
при значення</w>
користува чів</w>
жа хли
Ад ре
поверну тися</w>
ма ть</w>
ко д</w>
и де
ері в</w>
відкри ття</w>
ar t
при наймні</w>
ку ю</w>
Тако ж</w>
Па не</w>
Во но</w>
фо то</w>
при ро
збира юся</w>
бі о
спі л
ме трів</w>
Е Н
Б ен
Ісу с</w>
со ро
обла сті</w>
но во
ефек тив
буде м</w>
Хоче ш</w>
коро т
відпові да
М э
пози цію</w>
оте ц</w>
ог а
ми ть</w>
ви бу
вере н</w>
вели кі</w>
шля ху</w>
си л</w>
коман да</w>
зміню вати</w>
вдо ма</w>
Га даю</w>
en er
пока з
гра ду
їха ли</w>
скла до
пере кла
нь ше</w>
ка кой</w>
йде мо</w>
К ор
па ро
за плати
жен ь</w>
бер и</w>
Д э
e b
поля гає</w>
не ц</w>
н ствен
табли ці</w>
сле до
причи на</w>
при не
по го
натиска ння</w>
дослід ження</w>
ва шій</w>
M ar
ту аль
то ри</w>
лю вання</w>
й ний</w>
мі нь</w>
за щи
ва я</w>
К ей
И ли</w>
i z
Th e</w>
секун д</w>
на бо
До ктор</w>
тако му</w>
ру ю</w>
під твер
п х
Я ка</w>
ча сто
су ди
е Я
u t
1 8
по серед
па н</w>
влас не</w>
вказа но</w>
ана лі
I N
д на</w>
es s
реб ен
р я</w>
по мог
енергі ї</w>
відріз ня
ва тиме</w>
tr ans
шо к</w>
р но</w>
про вер
при род
лі та
ді о
говори мо</w>
сві то
ко сті</w>
здоро в</w>
c h</w>
ху дож
розді лу</w>
после д
ну жна</w>
мо его</w>
малень кий</w>
са х</w>
при стрій</w>
пошу к</w>
журна лу</w>
че твер
то н
по ки
остан ній</w>
о чи
нати с
зна ете</w>
жи ве</w>
ди вля
мо и</w>
испо ль
збере ження</w>
op tional</w>
стави ть</w>
ре алі
ос нові</w>
нен і</w>
можли востей</w>
до маш
дар я</w>
гла го
пере ва
лі вою</w>
за ради</w>
ж ду</w>
За чем</w>
пі зна
по бі
но стей</w>
маши на</w>
зві сно</w>
il s</w>
0 ,
с част
прий шли</w>
Х ар
Пі в
Пошу к</w>
ч ному</w>
ти сти
пі ду</w>
ля ми</w>
ка в</w>
д жу</w>
С вя
єк т</w>
ку є</w>
запро по
ю вання</w>
у ря
тво ей</w>
нале ж
з ли
бра та</w>
автома тич
Сей час</w>
чен их</w>
ці ни</w>
програ м
ч ём</w>
т вого</w>
су сі
по й
ни ли</w>
к л</w>
бува ння</w>
те ра
лен е</w>
гли бо
г ле
ва ють</w>
По трі
l oc
щ а</w>
пра вою</w>
ко ла</w>
во обще</w>
c e</w>
степен і</w>
по ра</w>
мо зок</w>
каза ли</w>
Познач те</w>
Е го</w>
Ви бір</w>
хі ба</w>
мен и
u l
I n
сере ди
сер це</w>
по пу
нав чи
ла н</w>
засто со
чу вству
пока зувати</w>
зни к
го р</w>
є тесь</w>
ха рак
ф п</w>
сь кого</w>
си бі</w>
сво їй</w>
над звичайно</w>
на певно</w>
Ц ен
Хри ста</w>
я д
ся ть</w>
сторі нці</w>
народ ження</w>
ви раз</w>
бува є</w>
Прав ка</w>
Ди ви
хоро ший</w>
то ром</w>
но ч
відповід і</w>
в на</w>
по сила
дума єте</w>
вши сь</w>
С ю
ре ак
мере же
ви гра
типо вий</w>
стільни ці</w>
спробу вати</w>
Г ру
b s
I L</w>
ф ран
одні єї</w>
Хо чу</w>
у чи
ті сть</w>
ни в</w>
екра на</w>
ви прав
ш увати</w>
стрі ля
пе йсь
ню є</w>
м б
к но</w>
звід ки</w>
З розумі
un its</w>
ціл ком</w>
ф з
завда нь</w>
гля да
ге ть</w>
ву ю</w>
По вто
ча ми</w>
сест ра</w>
са н
Д ер
за соб
С хо
А лі
чо ї</w>
хі дно</w>
с мы
ро е</w>
за пла
enc ils</w>
каже тся</w>
Тво я</w>
g r
St encils</w>
ймовір ність</w>
й на</w>
га н
Г ра</w>
у вер
поту ж
лі нії</w>
кро ві</w>
гото вий</w>
Б ри
Є С</w>
та ю</w>
сторі нку</w>
пер шу</w>
ме жа
маши ни</w>
українсь кою</w>
те т</w>
ль ною</w>
клаві ш</w>
дума ли</w>
го в</w>
ра х
п та
зем лю</w>
відно шення</w>
Ма буть</w>
kon queror</w>
a d</w>
E MA
ту ю</w>
сь кої</w>
на стоя
з можу</w>
жа є</w>
по тен
впевнен ий</w>
б -</w>
К ро
am ount</w>
фак тично</w>
ль з
кон тра
во с
ви ходить</w>
ого во
зроби мо</w>
за ба
си на</w>
подума в</w>
бачи ла</w>
Зна чит</w>
Бага то</w>
NA ME</w>
ре а
ну жен</w>
не де
зна к</w>
жен ие</w>
електро нної</w>
д ы
вну тріш
важли ві
HT ML</w>
э й</w>
ч ник</w>
нале жать</w>
змі н</w>
го ю</w>
во ка
re c
o b
EMA IL</w>
отрима ння</w>
каза ла</w>
іде ї</w>
яс кра
рсь кі</w>
про бі
о фи
гори зо
ята ю</w>
секун ду</w>
пока жу</w>
з муси
вда ється</w>
би ти</w>
кре ди
З ву
ц ар
спо ві
от сюда</w>
ого нь</w>
не ш</w>
ми ти</w>
д ба
О соб
Де які</w>
Вста новити</w>
ec t</w>
я ті</w>
ю тер</w>
тиж ня</w>
ра я</w>
обо ло
ны ми</w>
ви вча
О ста
В у
ча ю</w>
сек су
по ртувати</w>
н ував</w>
гото ві</w>
ва д
в ведення</w>
бажа ння</w>
Мо ло
m e</w>
о хоро
на бли
міся ців</w>
заванта ження</w>
з можемо</w>
г ри
виде ла</w>
бо ра
б лю
а три
Ко жен</w>
И так</w>
Ви кона
Бі ль
Б и
про тив</w>
про по
ль ності</w>
Т ек
T E
P S</w>
роз поді
прои зо
помил ку</w>
о стро
мен ш</w>
майбут нє</w>
л лі
ан глійсь
Відкри ває</w>
al l
ми р</w>
е н</w>
допо може</w>
Ф о
спо доба
закін чи
до ктор</w>
Р А
Прости те</w>
В же</w>
та єм
но вої</w>
ме д
вір но</w>
фай лі</w>
р увати</w>
пред ставля
помил ки</w>
пер ене
зроби ла</w>
D V
і ноді</w>
ти ла</w>
різ но
налашт увань</w>
ко ву</w>
бу вати</w>
Ек спо
al l</w>
ч ё
тр я</w>
ро н</w>
жо в
дво ма</w>
Го во
k p
тех ні
с ки
за ги
в перше</w>
те х</w>
результа ти</w>
пристро ю</w>
коль ору</w>
в кла
бе ль</w>
A R</w>
ч ними</w>
у люб
с ла</w>
по к</w>
о знача
нь ою</w>
міся ць</w>
жи в
ди зай
ad er</w>
яко сь</w>
це ю</w>
те ми</w>
спа ти</w>
ем ся</w>
Чорноі ван</w>
Пере вір
о ке
нега йно</w>
над сила
ко вої</w>
ва ло</w>
О дна
З відки</w>
C an
фо ку
рабо ту</w>
при ве
еха ть</w>
де р</w>
ан ти
по е
зву к</w>
експер и
г роз
відо мий</w>
Ко м
l u
i d</w>
ї сти</w>
та кою</w>
стра ш
само м</w>
пере жи
прості р</w>
ва не</w>
со всем</w>
працю ють</w>
действи тельно</w>
виріши в</w>
KD E
G ener
цен тра
та кими</w>
о писа
ко нечно</w>
зво ро
ді ли
2 4</w>
ста рий</w>
прави л</w>
по руч</w>
в ці</w>
К О
col or</w>
9 0</w>
сь ких</w>
су пер
с ве
п лу
де кількох</w>
взя в</w>
er e</w>
тт ю</w>
насе лення</w>
навча ння</w>
жен е</w>
голо вок</w>
ува ги</w>
те му</w>
си гна
від сут
Зу пи
Д ен
В ставити</w>
Ал ло</w>
Ї х</w>
тво є</w>
с си
ин тере
диви тися</w>
Розу мі
Й ди</w>
ча сно</w>
фор му</w>
не ту</w>
мен е
завер ши
la tion</w>
k appname</w>
ar d</w>
M I
чека ти</w>
чека йте</w>
ч ог
сце на
сере дині</w>
сво й</w>
пре зиден
о де
зро ста
деся ть</w>
в хід
И н
щи ти</w>
не сколько</w>
запита ння</w>
Ф іль
Д ва</w>
А нд
ou r
і сть</w>
спа сибо</w>
пі к
о сві
о кру
ні ші</w>
до рі
За ува
поді й</w>
ер и
шу кати</w>
ст но</w>
перевір ки</w>
к ві
й с
в a
Фу нк
h t</w>
a v
та лі
пра г
кі стю</w>
З най
ac e</w>
теле фон</w>
пор ту</w>
му ля
ла бора
ку ля
кож ному</w>
дві чі</w>
Ко пі
Бу ло</w>
ти л</w>
стосу ється</w>
розви тку</w>
кора б
ек спо
в ведіть</w>
От лично</w>
Кер ування</w>
m ar
шиф рування</w>
у я
т т</w>
спра вед
при ходи
пе ча
лі сть</w>
Інстру менти</w>
т ла</w>
с нов
розпові сти</w>
н ї</w>
ме ха
за боро
ву т</w>
ви мага
До від
if t</w>
у бе
с ра
по чи
ме три
лен ого</w>
да ний</w>
відкри є</w>
Розмі р</w>
Р ай
Да лі</w>
I S
то вий</w>
по са
оста нні</w>
ни зь
мі р
де мо
З десь</w>
В А
yp e</w>
рап том</w>
про во
от кры
ж ні</w>
Дода ток</w>
1 7</w>
у ста
ст ро</w>
середо вища</w>
передба чено</w>
ка жд
іден тифіка
тиж день</w>
со об
пі шли</w>
поверну вся</w>
ме ч
клавіа тур
б но</w>
И ди</w>
розумі ння</w>
розта шування</w>
переві рити</w>
ид ти</w>
Мо й</w>
d oc
створю вати</w>
од ній</w>
кон ф
заванта жити</w>
до бра
ва шим</w>
ба зо
t ex
форма т</w>
та то</w>
при сут
при значен
по ро
перегля да
оче видно</w>
об еріть</w>
з вати</w>
ди й</w>
П ря
Воз можно</w>
bs p</w>
ні с</w>
необ хідно</w>
люди ну</w>
грома дя
відо мості</w>
ad a</w>
чи мось</w>
ти м
розумі єш</w>
музи ка</w>
гово ри</w>
р п
на шим</w>
люби ть</w>
жи те</w>
дол го</w>
Ви користа
чен а</w>
фу н
у н
тив ний</w>
лі н</w>
за пам</w>
га ла
від стань</w>
ви хо
Ду ма
яв лення</w>
т a
нача ла</w>
зале жно</w>
Op en
ша ть</w>
спо кі
с ог
ре лі
па пер
ни ць</w>
коман д</w>
Щ о
Про ба
К ру
До клад
А х</w>
і й</w>
шо сті</w>
ф ера</w>
ст ра</w>
сло вами</w>
пра во
побачи в</w>
нови н</w>
ме ся
ла я</w>
ко лиш
У о
h is</w>
їх ні</w>
сво и</w>
в дя
О беріть</w>
us er</w>
ходя ться</w>
познач ку</w>
лен ням</w>
лен ия</w>
зупи нити</w>
за кла
дол жно</w>
Э н
До сить</w>
чу є</w>
різно мані
пу сти</w>
ли ши
вы е</w>
амери кансь
Си сте
n bsp</w>
ec t
ти ться</w>
працю вав</w>
лаш то
кож ної</w>
диво ви
ди шь</w>
Доб рого</w>
у ни
сти ть</w>
спе к
про па
ого ло
на п
зі я</w>
бо м
Спро ба</w>
С поді
По смо
Ні коли</w>
Е н
Д ей
ти ка</w>
л ё
кла си
У сі</w>
Т О</w>
h a
уби ть</w>
р ь
ль ними</w>
л ли</w>
ку т</w>
ку пити</w>
ком на
ви значає</w>
По точ
Коман да</w>
В перед</w>
E n
руч ну</w>
н o</w>
сі с</w>
до з
ДН К</w>
по стави
не ймовір
на роди
Споді ва
Пре кра
Дже к</w>
Sh ift</w>
ін ша</w>
яза ні</w>
ч ування</w>
три має</w>
про ва
кольо ром</w>
к ем</w>
б ю
Бе з
s s
фай ло
ско на
поста ча
ну ла</w>
й он</w>
в ле
Існу є</w>
e y</w>
тре ть</w>
по м</w>
вер тика
мк нути</w>
мен том</w>
К ен
ш ка
роз кла
під ня
про те</w>
му шу</w>
краї н</w>
жа ти</w>
витра ти</w>
ви в
Хло п
Х тось</w>
p a
L in
поді лити</w>
мі кро
мо вою</w>
до давання</w>
від бу
ва ю</w>
призве де</w>
пев ні</w>
но шен
не бе
ме жі</w>
да ними</w>
wh at
єдна ти</w>
прекра с
л ї
По хоже</w>
Ісу са</w>
ш ёл</w>
фор м
у ж</w>
сен ь</w>
ні ме
доб ро
Дж о</w>
ши ро
сер ь
повер нути</w>
па зо
но мер
ми ло
ке р</w>
годи ну</w>
від разу</w>
Я сно</w>
су б
змі на</w>
ж ко</w>
ді м</w>
гру п
ви ни</w>
вели ку</w>
Од на</w>
Бі льше</w>
э тих</w>
шля хом</w>
на яв
матері а
к бй</w>
С ло
Ре жим</w>
Б ла
ючи й</w>
форма ті</w>
ст ями</w>
ра ньше</w>
отрима єте</w>
на бір</w>
міні стра
ком пози
Но вий</w>
0 0
які сь</w>
у жа
серйо з
пер со
ди в</w>
бі к</w>
ба ла
Пі вні
чог ось</w>
н i
ля ка
за нима
вилу чення</w>
варіан т</w>
Мен я</w>
u p
ін шої</w>
э та</w>
поговори мо</w>
зна ходяться</w>
дом лення</w>
біль шості</w>
бізне с</w>
Та й
er s</w>
сь вя
назива ють</w>
на мі
матер і</w>
ва ється</w>
Ві кно</w>
чи ни</w>
фран цу
с прий
пло хо</w>
меха ні
ката лог</w>
ві кон</w>
Can ada</w>
фо то
у час
ра да</w>
не ё</w>
з ла
е фі
дум ки</w>
ди вно</w>
ви ник
ве че
інве сти
ць о
лю сь</w>
ко ду</w>
зо па
Хри сто
Діа лого
7 0</w>
ч ність</w>
серйо зно</w>
дере ва</w>
аль бо
Пере сунути</w>
О р
Авто р</w>
чу ли</w>
у ли
тич ні</w>
стра ж
рю ва
мог ло</w>
друг ий</w>
ви йти</w>
ан ге
ад вока
ac k
у часть</w>
те ля</w>
прото ко
пока з</w>
подума ти</w>
о ши
м ний</w>
зна ем</w>
да ємо</w>
бі в</w>
а ми</w>
Con st
ш коли</w>
ува тись</w>
ре є
підтриму є</w>
про йти</w>
жи ла</w>
вір ю</w>
бо ю</w>
авто мо
спа д
лі п
код ування</w>
клад ки</w>
ка жи</w>
зо вні</w>
гото в
ба нку</w>
Бу де</w>
уби л</w>
ст ью</w>
ря ти</w>
використову ють</w>
what st
whatst his</w>
тиме ш</w>
сер ця</w>
с ка</w>
прави ло</w>
мо їй</w>
Хоче шь</w>
Увімк нути</w>
el lation</w>
прави ти</w>
й б</w>
доста точно</w>
віде о
во да</w>
О скільки</w>
i g</w>
an .</w>
ята йте</w>
невда чі</w>
мі ть</w>
ко три
до ве
вироб ни
Може те</w>
p h
ф ан
сті ть</w>
ска жімо</w>
пусти мо</w>
забезпе чення</w>
з е</w>
Діалого ве</w>
e v
I P
Const ellation</w>
чисе л</w>
ска ння</w>
симво л</w>
по ряд</w>
наступ ним</w>
ко па
клаві ші</w>
значен ь</w>
вст во</w>
а ні</w>
З нову</w>
L a
5 00</w>
у верен</w>
оста нови
ню вати</w>
кори с
кни гу</w>
ж ден
г нал</w>
с хе
ни ла</w>
на слід
мика ння</w>
адре са</w>
Мо ї</w>
e -</w>
чи сь</w>
ни сь</w>
ка жіть</w>
зві ль
ві рити</w>
важа ючи</w>
С те
Адре са</w>
чува к</w>
прий ти</w>
прав лі
отрима ємо</w>
опера цій</w>
мі сті</w>
лага ю</w>
ic e</w>
2 1</w>
кер увати</w>
к різь</w>
ві ді
а т
По ча
тво рен
т ком</w>
т ка
су д
світ ла</w>
ре че</w>
гі я</w>
вий де</w>
На ді
Ма мо</w>
циф ро
ство м</w>
об ы
ле ген
клац ан
дру зів</w>
в яз
буду т</w>
oo k</w>
as t</w>
т кою</w>
сво їми</w>
потер я
лі ва</w>
друг е</w>
говори т</w>
ві ри
викон увати</w>
Спро бу
стер е</w>
сол да
по спі
не правильно</w>
на віга
ко мента
ка й</w>
и менно</w>
ж ок</w>
еди нствен
друго й</w>
С початку</w>
Раз ве</w>
До по
Г ен
B AR</w>
і сто
т o</w>
с хи
ра н</w>
при віт</w>
подиви тися</w>
по мер</w>
обла сть</w>
н i</w>
вимк нути</w>
бачи ш</w>
Ш у
А й
інформа ція</w>
хо в
сер д
ра цію</w>
по знайоми
по за</w>
на ру
води ть</w>
вечер і</w>
r an
ar t</w>
ё шь</w>
як о</w>
чита ти</w>
ст ю
со ці
пси хо
почина ється</w>
пере тяг
намага вся</w>
зале жить</w>
верси те
в ручну</w>
хлоп чи
тако ї</w>
и мя</w>
ві зу
вер ши
to ol
m o
g e</w>
шко лу</w>
ти пови
со ра</w>
розмі ру</w>
пробле му</w>
ня є</w>
н ний</w>
ль ній</w>
зер ка
відкри то</w>
Т ри</w>
en d
ста ри
ра м</w>
пунк тів</w>
пері од</w>
ли ва</w>
залиши ти</w>
да єте</w>
П оба
w it
фак т</w>
у ро
те ці</w>
скла дається</w>
сво єю</w>
прий де</w>
по этому</w>
пи ть</w>
любо в</w>
кро к</w>
g i
ши ри
хлоп ця</w>
то рів</w>
й ні</w>
гі в</w>
ва лю
в поряд
бі д
н a</w>
коро ле
до вер
вико ну
u e</w>
тися чі</w>
са мий</w>
ресур сів</w>
об ира
жи л</w>
еле мента</w>
С ві
Інстру мент</w>
l in
яко сті</w>
цій ні</w>
ту р</w>
ст р</w>
се вдо
ряд ки</w>
ру ках</w>
пра вий</w>
коль ори</w>
гру па</w>
ву ть</w>
ви зна
бува в</w>
Е д
l ic
h el
c я</w>
C O
ле ю</w>
до від
га ми</w>
М ор
чен и
тич ний</w>
сторо ну</w>
ро сі
кори сту
дру зі</w>
вни зу</w>
ін те
єди ний</w>
ш лю
то що</w>
то ва</w>
моде ль</w>
кімна ті</w>
каталог у</w>
То й</w>
шен ь</w>
ра вно</w>
ла нд
и стори
а пара
Як і</w>
По диви
Ад же</w>
us ader</w>
ста ро
споко йся</w>
реш тою</w>
по я
ка з</w>
залиша ється</w>
за ува
ди на</w>
ви да
в кра
Т ер
Р ей
Ви брати</w>
розумі єте</w>
при мі
пред ло
одно часно</w>
л т</w>
й мо</w>
адре сою</w>
С трі
ро вать</w>
ни кто</w>
дозволя є</w>
Со н
точ ка</w>
створен о</w>
ста ть</w>
ско й</w>
причи н</w>
об гово
мог ут</w>
кар ти</w>
o г
про дол
оби два</w>
дія ти</w>
гото ва</w>
від ді
Вла сти
p ro
у явля
тан цю
с ре
нале жить</w>
взя ли</w>
бе зопа
За вер
m l</w>
ці на</w>
увімк нено</w>
с эр</w>
ря дом</w>
запу ска
В О
с ва
наді сла
міся ця</w>
м но</w>
го да</w>
випа док</w>
С ар
Пока зує</w>
чоти р
ста тті</w>
ра б
поверх ні</w>
ни шь</w>
Ф а
И Т
Да же</w>
ic Name</w>
шко лі</w>
ш айте</w>
т не</w>
ни ками</w>
льз я</w>
ко рі
за ціка
ви бі
б ля
s c
l at
doc u
хо тите</w>
ува н
тур бу
трапи лося</w>
ста ра
прин ци
g re
Gener icName</w>
технологі ї</w>
спост ере
сво его</w>
понима ешь</w>
ні ю</w>
не в
ду т</w>
О б</w>
у сім</w>
ре чо
по дру
жи во
Д жа
я н</w>
ру х</w>
п т</w>
ні кого</w>
К А
яз ково</w>
шабло н</w>
у мови</w>
сер ве
не ль</w>
катего рії</w>
дь ко</w>
ь ко</w>
сдела ла</w>
про вести</w>
в б</w>
ба бу
б ен
Зав жди</w>
єк ти</w>
ч ній</w>
тво и</w>
мате ма
га ря
ва ние</w>
інтерфей су</w>
смер ти</w>
причи ни</w>
пев ний</w>
от ношен
лю ва
д зві
г ер
По ки</w>
Дозво льте</w>
сы н</w>
реб ята</w>
потре би</w>
по шко
по пере
обе ща
ди ли</w>
гір ше</w>
ву гле
воло с
ба лан
К Д</w>
За пи
B o
то ві</w>
т ував</w>
стра те
сто лет</w>
дружи на</w>
друг ого</w>
влас ні</w>
ви пу
в лі</w>
Функ ція</w>
Кра ще</w>
фот огра
ти ку</w>
ст ву
не ймовірно</w>
ко л
безпе ки</w>
бе зу
С полу
Л он
Довід ка</w>
ята єш</w>
ята ти</w>
части н</w>
реда ктора</w>
пра кти
на си
н бй</w>
зо вут</w>
гло ба
Хо ро
По до
Мо н
wor ld
ma n</w>
єк тів</w>
ё тся</w>
хо рош
ран ці</w>
пояс нити</w>
кре с
власти вості</w>
би в</w>
Про дов
З дра
у р
проце ду
за во
Пер ший</w>
ти я</w>
мі ст
зна доби
жу ть</w>
ді б
глу з
буд то</w>
Ска сувати</w>
Ле она
А ле
Ін форма
я й
ючи х</w>
ста неться</w>
си ти</w>
піктогра ми</w>
обмі ну</w>
ло зі</w>
й д
дру зь
гала кти
ад міністра
Ч им</w>
Б ан
Q u
. .
шо у</w>
ха ти</w>
ті ї</w>
ти к</w>
сексу аль
ля ції</w>
ві р</w>
вен ь</w>
На ш</w>
А гов</w>
э м</w>
чу ю</w>
со в</w>
при в</w>
по ко
лі к</w>
ве б-</w>
щ ем</w>
хі мі
результа ті</w>
объ яс
ка д
говоря ть</w>
ви робля
Форма т</w>
э к
тим часо
по рядок</w>
ни л</w>
мину лого</w>
клац ніть</w>
и ска
Т ро
Си н
С тра
За звичай</w>
Д ю
В ар
k no
сто їть</w>
ряд ку</w>
по значення</w>
о крім</w>
ло й</w>
користува ч</w>
й шов</w>
дже р</w>
ви беріть</w>
Б ува
m e
c om
існу ють</w>
та є</w>
с причи
ради й</w>
пер шим</w>
п лення</w>
де в</w>
да ту</w>
вст ва</w>
ви кла
Авто рські</w>
і мені</w>
ф б</w>
су куп
но чь</w>
му ні
конф лік
захо плю
Ш та
Х ан
1 9</w>
ч ною</w>
фор мі</w>
та кая</w>
ра но</w>
поня л</w>
но та
з ы
S er
у мо
пра ці</w>
пові тря</w>
д жи
Спа сибі</w>
Ві таю</w>
st r
чер а</w>
цен тру</w>
слыша л</w>
під каз
пі с
по лег
кана лу</w>
ка сь</w>
де тек
Т им</w>
І ноді</w>
p e
ру к</w>
по йти</w>
к a
Швид ше</w>
Ц ього</w>
я т</w>
собира юсь</w>
са мы
результа тів</w>
пере творю
написа но</w>
на віщо</w>
ми сли
м ка</w>
ко трі</w>
ви до
k al
a y
K P
пер ша</w>
п ка</w>
од у</w>
ме й
ма тично</w>
ли ві</w>
ка р</w>
зго дом</w>
де тей</w>
без посеред
П ен
ува вся</w>
ре комен
пові до
зву чить</w>
з ор
ж дать</w>
доро ги</w>
гене ра
То ма
un der
s m
ц о</w>
філь м</w>
у є</w>
три кут
ста тисти
вули ці</w>
бать ки</w>
За хо
t s</w>
цій ний</w>
ті р</w>
розташо ва
повер не
малень кі</w>
вол ну
ви ня
Ха й</w>
Но ва</w>
На д
Ви значає</w>
ти пів</w>
спе ци
при єдна
по дат
н ї
говори те</w>
боро ть
П ри</w>
А б
тері ї</w>
ст ого</w>
си в
програ мою</w>
при зна
и зви
зі ї</w>
діа пазо
K on
ім пері
ч то
следу ющ
син хроні
но ви</w>
написа ти</w>
моло д
га зе
r it
list box</w>
пи в</w>
му ж</w>
кон кре
горизо нта
бо же</w>
ай ся</w>
tt on</w>
ін ди
чи ну</w>
піктогра му</w>
почу ття</w>
поча ток</w>
пла т
наступ ний</w>
мисте цтва</w>
к т</w>
з ня
годи н
вій ну</w>
відповід но</w>
Ска жімо</w>
p r
ши е</w>
тив ні</w>
ст ки</w>
вы м</w>
встре ча
І ди</w>
ю чі</w>
ходи в</w>
розді л</w>
перегля нути</w>
к б
зу ють</w>
де л</w>
ча си</w>
про від
по бачення</w>
опи ни
діалого вому</w>
дру же</w>
доку мен
дити ну</w>
де во
від мови
Ш е
Фай ли</w>
С хоже</w>
До ро
Г ер
1 ,
пі зно</w>
пере творення</w>
име ю</w>
гі д
вказі вника</w>
Пові домлення</w>
т ї
с могу</w>
раз о
продов жу
по ртування</w>
о жи
клацан ням</w>
зі т
захи ща
з могли</w>
ди ну</w>
вер но</w>
би т
С мо
si on</w>
чолові ків</w>
сай т</w>
підтрим ки</w>
на чина
люди ною</w>
з a
джере ла</w>
воз вра
ви ки
ближ че</w>
ар гу
Ку р
4 5</w>
ст ве</w>
смер т
прочита ти</w>
про те
п ь
мо ли
м л
з нов</w>
в веден
в o
Три ма
Па ні</w>
Б об
on e</w>
d o</w>
ї жд
успі ш
ні шим</w>
з мо
де ше
st ate</w>
1 2
ста л</w>
симво ли</w>
роз пізна
мину т</w>
ко ве</w>
кален даря</w>
зрозумі ло</w>
г нор
створю є</w>
правлі ння</w>
повто рю
по кли
мог и</w>
кін це
ко ла
говори шь</w>
га я</w>
відно сно</w>
О трима
Н И
З б
ходи ли</w>
фінан со
ст ві</w>
оброб ки</w>
Д айте</w>
u x</w>
docu men
ча й</w>
тра в
сно сти</w>
ско пі
с прави
руха ється</w>
ре м</w>
р ний</w>
От че</w>
b e</w>
X ML</w>
ходи мо</w>
тер и</w>
ро би</w>
релі гі
пу ль
на шли</w>
ко стю
е р</w>
вели ких</w>
боле е</w>
ь я</w>
ци ві
у сього</w>
те лі</w>
столі ття</w>
слуха ти</w>
пода ру
намага ється</w>
кото рая</w>
зо л</w>
дівчи на</w>
вни ків</w>
Ш ел
Н Е</w>
Ми стер</w>
повід ь</w>
по гляд</w>
голо ві</w>
боль шо
боль ни
Ф и
Б ли
a k
я тно</w>
фу т
си гнал</w>
ру ху</w>
по будо
па цієн
ня л</w>
м i
ль ку</w>
ді ння</w>
відчува ю</w>
вещ и</w>
в лю</w>
Ви со
А лан</w>
Y ou</w>
фра г
т ник</w>
со на</w>
персо на
най більше</w>
коман дного</w>
и ю</w>
збира ння</w>
Изви ни</w>
in d</w>
тем пера
работа ет</w>
під сві
произо шло</w>
помощ ь</w>
п севдо
о но</w>
наро д</w>
л ли
користува тися</w>
зрозумі ли</w>
змі г</w>
гар но</w>
бу ква
М А
st at
ou t</w>
яза ти</w>
ходи те</w>
х ма
у ч
тич на</w>
су ть</w>
ні яких</w>
ко вим</w>
йде м</w>
ди ре
д ї
гру пу</w>
бри та
С три
Госпо да</w>
яз ки</w>
ті єї</w>
ри нку</w>
при ско
почина є</w>
ле жа
ен о
бер у</w>
ар ку
Ці ка
М О
Доб рий</w>
at ch
ч ко</w>
су д</w>
ри н
проце су</w>
написа в</w>
змі нено</w>
завер шено</w>
до й</w>
граду сів</w>
авто бу
Заува жте</w>
Закри ти</w>
i a.</w>
яви ться</w>
ці ями</w>
сто лько</w>
ст ы
проти ле
по годи
очі кува
коро ля</w>
С творення</w>
i v
T P</w>
челове ка</w>
тру д
стрі в</w>
скаже ш</w>
ро сли
м я
дво є</w>
верну ться</w>
Послу шай</w>
h o
че сно</w>
трим ка</w>
ст в</w>
під руч
п ки</w>
н кою</w>
мо е</w>
ме мо</w>
ли бо</w>
дру гом</w>
весе ло</w>
бі ль</w>
Г ор
A lt</w>
тре ть
р к</w>
клю ча</w>
дово лі</w>
д жа
біль шого</w>
При пи
Д жен
ou r</w>
т ували</w>
спор ту</w>
пре ж
обме ження</w>
настоя щ
зб рою</w>
з гідно</w>
жи вуть</w>
жи вання</w>
ві с
n ot</w>
тор гі
т ну</w>
ста ють</w>
ры й</w>
поточ ної</w>
ли вий</w>
вар тість</w>
На с</w>
шен ий</w>
хо ть</w>
спі льного</w>
роз і</w>
поча ла</w>
по смі
о новлення</w>
лі за
жод них</w>
допомог а</w>
вклад ки</w>
Те де</w>
crip t</w>
ютер а</w>
щ ад
т o
ска р
ре н</w>
по ль
пар ня</w>
на хи
вечер и
Р И
or g
bu il
фер ен
сти й</w>
просто ру</w>
познач ки</w>
пита нь</w>
ме тою</w>
лы й</w>
исполь зо
в ство
По шли</w>
О те
Госпо дь</w>
in menu</w>
bu tton</w>
цен трі</w>
ца ння</w>
х ф
ні ший</w>
Реда гувати</w>
Пере д</w>
М ог
щен ия</w>
соб ой</w>
оста ви
об яза
и ем</w>
запу щено</w>
архі тек
О го</w>
Використа ння</w>
х воро
сторі нок</w>
розроб ки</w>
ра хо
пі вні
пред ме
наступ них</w>
мільйо ни</w>
мі ц
лю ся</w>
лен им</w>
З і
Власти вості</w>
і ть</w>
є вро
щ o</w>
трі шки</w>
ст ка</w>
ст ен
подума ла</w>
побачи мо</w>
мі лі
м o
ву ється</w>
С ти
oo g
с пу
пре зен
па ла
л ї</w>
з вантаження</w>
да сть</w>
будь те</w>
бан к</w>
ба р
Л ор
Зна чення</w>
Допо мож
че к</w>
сі ю</w>
су му</w>
ску ль
роз почати</w>
кож на</w>
ка лі
зі рки</w>
гру п</w>
а м</w>
Э тот</w>
ma il
m an
іде ю</w>
у сві
пристро їв</w>
н ували</w>
ком пле
кла с
йсь кий</w>
вій на</w>
вопро с</w>
вклад ці</w>
Ф е
Реда ктор</w>
tion s</w>
єк та</w>
я кась</w>
у кра
у видеть</w>
ті в
ру ши
пред став
по доб
над цять</w>
м ног
льни ка</w>
к ував</w>
допомог и</w>
ден е
Ц ю</w>
ic o
твари н</w>
робо ті</w>
по ва
но ме
не прави
Т О
С користа
Да та</w>
В І
s ol
чека є</w>
цій них</w>
спи та
ми стер</w>
карти ну</w>
ді є
Пів ден
шиф ро
то ї</w>
то вари
про між
попу ляр
но сить</w>
моду ля</w>
за знала</w>
за брати</w>
Ра с
По этому</w>
Л Ь
Зб еріга
скуль п
сер і
рі н</w>
малень ка</w>
ма ксима
клю чо
к ле
зроби ть</w>
зберіга ти</w>
жен ням</w>
електро н
до мі
ба ви
Хоче те</w>
О чень</w>
ха р
у па
сла й
са мим</w>
с кий</w>
попи ту</w>
л ла</w>
кла су</w>
жа й</w>
ді є</w>
в ування</w>
Додат кові</w>
т ыва
к ет</w>
же ле
ви тяг
ви дів</w>
вели ке</w>
адре с</w>
Чо лові
Пі шли</w>
Подо жди</w>
ти пи</w>
тво его</w>
т ній</w>
работа ть</w>
кі ло
дозво лити</w>
ди тя
викли ка
У я
х ну
скла да
сво их</w>
само е</w>
нсь кий</w>
майбут ньому</w>
за був</w>
жи ву</w>
ж ний</w>
дрі б
Зага льні</w>
sy n
i b
5 2</w>
чи сло
це в</w>
хвили ни</w>
станови ть</w>
ко роб
зу си
ер и</w>
К лі
3 00</w>
шу ється</w>
шриф т</w>
підтрим ку</w>
У и
Ку да</w>
t ype</w>
indo w</w>
те ли</w>
способ ів</w>
пови нно</w>
по значити</w>
ли к</w>
ка ль
додат кові</w>
га л
ве ду</w>
Зав тра</w>
w n</w>
є р</w>
чер гу</w>
то рі
сто со
пі доз
прий шла</w>
натиска нням</w>
мо біль
кис ню</w>
значен ням</w>
ефі цієн
до с
га лу
ви клю
бе споко
o k</w>
f il
інтерфей с</w>
єд ну
хвили ну</w>
ф у</w>
пунк ти</w>
пов но
п ять</w>
на шій</w>
за пере
дити н
д ри
д зерка
б ку</w>
З А
t e
o ff
ть ми</w>
служ би</w>
пра ці
пози ція</w>
по жа
пере ти
пе к
Типо во</w>
ці лий</w>
філь тр
т ним</w>
скаже те</w>
свя за
роз бі
по ща
пере мі
карти на</w>
атри бу
u g
th at</w>
s s</w>
чу ється</w>
філь тр</w>
с ни
профі ль</w>
при значено</w>
працю ю</w>
по всю
пере йти</w>
нен а</w>
не ба</w>
й дуть</w>
здат ність</w>
запи т</w>
ди м</w>
д ве</w>
відо ма</w>
вби в</w>
бать ків</w>
О к
Ни кто</w>
Н и</w>
Л ай
Диви сь</w>
T e
20 00</w>
щен ие</w>
ре шен
пре ступ
поня ття</w>
нсь ка</w>
м a
ду ю</w>
голо ва</w>
Ц и
О пис</w>
as e</w>
шриф ту</w>
ф б
сти ту
по хоже</w>
най краще</w>
краї нах</w>
из ве
дода ток</w>
викона но</w>
P r
ча рів
ст ь
ситуа ції</w>
коро ль</w>
кліти н</w>
з можеш</w>
же ла
до нь
виріши ли</w>
У же</w>
Т вій</w>
чудо вий</w>
увімк нути</w>
у ряд</w>
склад но</w>
с ке
рабо та</w>
за ст
жд ы</w>
використову ються</w>
ва ються</w>
М ере
Ба ть
Б ро
ц о
та н</w>
ра йо
поді ли
пов ний</w>
по трапля
ну сь</w>
на ф
моде лі</w>
ку по
вря тувати</w>
воз мож
ви воду</w>
На ша</w>
Вели кий</w>
um b
V i
ти на</w>
різ ниця</w>
пробле мы</w>
кто ре</w>
за бо
з до
до слі
вуз ла</w>
Гар рі</w>
Б ру
k m
теле м</w>
с ну</w>
с ення</w>
наз в</w>
кото рую</w>
дер ь
вищ і</w>
в ранці</w>
в ку
Одна к</w>
M o
ча х</w>
сог ла
пу га
про ходить</w>
по рівня
нас чет</w>
н с</w>
зако н</w>
вий шов</w>
вигля да
Ф ло
Ско лько</w>
чор т</w>
спостере ження</w>
пік се
поточ ну</w>
поперед нього</w>
па кун
о ружи
наступ ному</w>
ма тір</w>
ли вість</w>
кур с</w>
к ері
зо ва
допомог у</w>
дода но</w>
де ць</w>
впевнен і</w>
Послу хай</w>
На поле
Д ра
kr usader</w>
f f</w>
тя ть</w>
спе ціаль
працю вали</w>
полови ну</w>
мен я
лі цен
кра й
до р</w>
де шь</w>
д ка</w>
Ц е
Р я
ti p</w>
kp layer</w>
h t
яку сь</w>
ту ють</w>
сто й</w>
лен ь</w>
за ви
дорівню вати</w>
в чора</w>
in c
фз н</w>
фан та
фай лами</w>
ство рили</w>
способ ом</w>
реш т</w>
му жи
кон ку
е волю
джере ло</w>
ви ни
бува ли</w>
Тек ст</w>
Р обо
О це</w>
c o</w>
am b
чи ла</w>
то чок</w>
се н</w>
на ста
ка нал</w>
за проси
дум ка</w>
в ця</w>
Мо жно</w>
Й о
Експо ртувати</w>
y th
en t
U n
чу ти</w>
т кни
с прия
по колі
мі н
ло ї</w>
ло со
демо кра
ар мі
Потрі бно</w>
Пере йти</w>
І ван</w>
ess age</w>
a m</w>
сі ль
прямо кут
пристро ї</w>
прекра сно</w>
отрим ува
можли вих</w>
зви нува
дю й
дру зя
дела ет</w>
волос ся</w>
використову ючи</w>
Роз ді
О стан
Изви ните</w>
m on
an t
D escription</w>
ї жу</w>
чи ки</w>
ча р
типо ві</w>
стя ться</w>
най важливі
н ню</w>
му ль
мог а</w>
карти ни</w>
зна ння</w>
д ог
Во обще</w>
D I
ін де
у знать</w>
прий няти</w>
при дат
параме тра
ми ло</w>
ле жить</w>
клад ка</w>
кажд ый</w>
же м</w>
ві стю</w>
буква льно</w>
Т ор
Може ш</w>
M ic
у жи
сервер і</w>
об ма
не ді
міся ці</w>
вклад ку</w>
ви бира
Та ту</w>
Се р</w>
Алі са</w>
p la
ш ем</w>
тич них</w>
систе м</w>
с вяз
ра д</w>
плу та
од ер
мо ра
вы х</w>
види шь</w>
версі я</w>
Ім портувати</w>
ці алі
те ром</w>
ре кла
продов ж</w>
приєм но</w>
по бе
п ти
на ли</w>
ла йно</w>
кро во
звер та
вечі р</w>
варіан тів</w>
В лас
ur e</w>
u p</w>
c e
сти ль</w>
пе лю
наз ыва
ме жду</w>
клаві шу</w>
жа ю</w>
відпові дають</w>
вро де</w>
версі ю</w>
Інформа ція</w>
k mail</w>
ar s</w>
тиж нів</w>
т ної</w>
ри сти
натис нути</w>
на гаду
ку па
еЯ нбй</w>
де ль
гра є</w>
ви га
в .</w>
Уо л
Бри та
s et
успі шно</w>
став ки</w>
середо вище</w>
роз би
одні єю</w>
вы бра
бага то
ав то</w>
Х и
Сер вер</w>
И з</w>
di tion</w>
іде аль
еха ли</w>
е зно</w>
го дно</w>
від стані</w>
вни ки</w>
Типо вий</w>
Параме тр</w>
З ні
in listbox</w>
200 9</w>
поми ра
пере твори
не льзя</w>
мо єю</w>
ку х
кру то</w>
знай дете</w>
задово лення</w>
дума ть</w>
С тій</w>
Н А</w>
ці йно</w>
т e
сті ше</w>
спро би</w>
со тні</w>
со р
син те
по ме
во зьми</w>
ве сі
Кори стува
З обра
ї жі</w>
чи те</w>
ча м</w>
стра шно</w>
ст ву</w>
пер ші</w>
місти ти</w>
кі всь
ко смо
каталог ів</w>
запита ти</w>
за хво
гра ни
ви пи
ва га</w>
ба ми</w>
Ф ре
f ile</w>
1 7
стра х</w>
р ь</w>
про кля
по над</w>
об а</w>
лі всь
йсь ка</w>
з ло</w>
дж і</w>
дер жи
впли в</w>
Чер т</w>
i k
h e
M P
G P
2 3</w>
ф й</w>
соб ствен
ресур си</w>
продов жувати</w>
про шую</w>
поведі нку</w>
об рази
здава лося</w>
бла ки
Пі дру
До л
Дж ере
фор ма</w>
ф ро
т ни
ря ть</w>
над силання</w>
міс цях</w>
лю ють</w>
зав годно</w>
з гад
виде ли</w>
Вста нов
w s</w>
чотир ьох</w>
чен ням</w>
у стро
те лю</w>
н ками</w>
йде ш</w>
зустрі чі</w>
да льше</w>
бли з
Ф рен
С ла
Л ей
Авто матично</w>
ята єте</w>
хлоп ців</w>
т ува
с них</w>
пусти ли</w>
поми лок</w>
от ца</w>
оста ль
од ру
оби дві</w>
ні кому</w>
ноч ью</w>
ко ли
з ванта
жи вий</w>
дере во</w>
д ней</w>
вирі шити</w>
Про бле
Б об</w>
Ін ші</w>
con dition</w>
3 2</w>
ін ду
і гри</w>
ш ті</w>
ча ро
телефо ну</w>
теле й</w>
ст вер
проси мо</w>
ну жны</w>
нап ру
на дати</w>
мі стяться</w>
знайо м
зи ка</w>
ви сло
а ку
К А</w>
Бог у</w>
s u
S S
то вано</w>
ро т</w>
про зо
пер шому</w>
о сті</w>
кре м
ко вими</w>
ки да
йде т</w>
и те</w>
збира ється</w>
з можуть</w>
де ра
гар ний</w>
а м
Па нель</w>
stat us</w>
po r
el l</w>
2 2</w>
руха тися</w>
продов ж
по си
кімна ту</w>
кно пок</w>
ки шені</w>
ди сь</w>
держа в
ві а
По лі
Наді слати</w>
Ж а
увер ена</w>
само му</w>
при ся
пра к
по кри
нови ни</w>
на дій
логі ї</w>
коха ння</w>
кора бель</w>
к ували</w>
голов ного</w>
го рі</w>
гар на</w>
во е</w>
Філь тр</w>
Од ного</w>
Д О
Біль шість</w>
d escription</w>
Lin ux</w>
та кие</w>
рів но
ру й
по хи
на ціона
мо н</w>
кімна ти</w>
де тся</w>
влас ний</w>
При й
ta tion</w>
ec ast</w>
чен ні</w>
у с
се кс</w>
с кін
реда ктор</w>
отриму ємо</w>
мерт вий</w>
лег ше</w>
каже ш</w>
зву ку</w>
зво ню</w>
На де
Ж ін
w indow</w>
t s.</w>
є мне</w>
сподіва юся</w>
рі с</w>
роз па
ри м</w>
пові рити</w>
основ ному</w>
намалю ю</w>
н e
г і</w>
бу фера</w>
Х ва
ця м</w>
ф і</w>
тя м</w>
те п
та ту</w>
сь огод
случа е</w>
на шей</w>
м пі
м e
жур нал</w>
вы хо
op tion</w>
цен тр</w>
фор м</w>
три те</w>
термі на
плати ти</w>
обер та
над ця
гото в</w>
від би
Бачи ш</w>
tool tip</w>
r e</w>
oг o</w>
G oog
обчис лення</w>
ма м</w>
компози цій</w>
зі брати</w>
за чем</w>
елек три
дис ка</w>
ден ия</w>
дела л</w>
графі к</w>
вы бо
вважа ють</w>
бібліоте ки</w>
Ну жно</w>
for ecast</w>
і стори
чолові ки</w>
х ливо</w>
рів няти</w>
розташо вано</w>
ре гу
пі шла</w>
пе й
німе ць
май ся</w>
комі рки</w>
залиши ться</w>
дене г</w>
вмі сту</w>
бю дже
Х у
Прави льно</w>
Джор дж</w>
C U
ё р
ши ть</w>
швид кості</w>
ступ у</w>
ска я</w>
режи му</w>
при зво
о нов
ні ш
мил ли
ма тиме</w>
ма на</w>
м пх</w>
лай н</w>
з обов</w>
дума є</w>
д ву
горо д</w>
вре шті</w>
До в
l y</w>
і гра
фо н
са му</w>
с са
с ків</w>
ней ро
м рі
зву ть</w>
диви ться</w>
вибра ного</w>
С пі
DV D</w>
1 4
щи ть</w>
чен ие</w>
уні ка
уні версите
та ції</w>
сь ку</w>
спи ском</w>
піктогра м</w>
пусти ть</w>
почу ти</w>
поч немо</w>
е тесь</w>
Ш лях</w>
Рі з
Вста новлення</w>
ww w
th is</w>
ща я</w>
ри ла</w>
пыта лся</w>
помно жене</w>
побачи ли</w>
о пис</w>
ни ться</w>
ку ють</w>
дос від</w>
ве ро
ван EMAIL</w>
Чорноі ванEMAIL</w>
Т Е
На до</w>
Л О
Амери ки</w>
усі ма</w>
сли ти</w>
серве ром</w>
сеан су</w>
різ ними</w>
під приєм
прі ори
профі лю</w>
поня ть</w>
за лі</w>
дума й</w>
го рі
г ли</w>
вста нови
взя ть</w>
а тю
Копі ювати</w>
a k</w>
їха ла</w>
тя т</w>
сторі н</w>
розмі рів</w>
р ці</w>
про ник
поч ти</w>
подіб ні</w>
на роду</w>
мов лення</w>
зроста ння</w>
звичай ний</w>
Та кі</w>
t ac
s el
ч ності</w>
тво їх</w>
су є</w>
скаже шь</w>
ри м
по сту
пер вый</w>
ла м
дов го
дж о
д увати</w>
Б ере
s er
p и
a in</w>
тка ни
справж ній</w>
ра к</w>
п i
отриму є</w>
на ч
н ках</w>
лі я</w>
ко муні
здоро во</w>
голо ви</w>
гли би
во сь
ве л</w>
в будо
Л ін
- Я</w>
у йти</w>
су ще
ска во</w>
с й
рас сказать</w>
подо з
ні єю</w>
клієн тів</w>
к o
зроб лено</w>
жод ної</w>
е та
до ме</w>
го вари
Підру чник</w>
Но мер</w>
a in
смы сле</w>
пі ді
профе сі
продов жити</w>
про пу
по йду</w>
мо их</w>
лікар ні</w>
дивля чись</w>
гля нути</w>
відповід ного</w>
вере й</w>
Змі на</w>
p ut</w>
шо вши</w>
у чени
у мер</w>
тран с
то во</w>
тем ря
спра ши
поза ду</w>
найкращ ий</w>
ли ла</w>
кро ви</w>
конку рен
клю чів</w>
кла цання</w>
з віт</w>
жін ку</w>
де ть</w>
всере дину</w>
Схо вати</w>
or t
інстру менту</w>
чувству ю</w>
у творю
то вого</w>
те а
ри нок</w>
ко ми
змі ну</w>
жен ні</w>
до свід
від від
води ти</w>
ви хід</w>
Д ере
world .</w>
oo l</w>
функ ціона
ті к</w>
с не</w>
р при
підтриму ється</w>
під писа
пі де</w>
потріб не</w>
послу г</w>
пока же</w>
лог и</w>
еха л</w>
вимі рю
бло к</w>
Ч его</w>
Р Е
ke y
J o
чу ють</w>
чу ття</w>
тор го
сті й
серед нє</w>
при ш
потріб ний</w>
па н
но чи</w>
мільяр дів</w>
кор до
ко тро
захи сту</w>
з ь</w>
грома дсь
всі й</w>
види мся</w>
бы стро</w>
Ле г
В И
А к
розу м</w>
пре де
наведен о</w>
мі тки</w>
мо им</w>
ме трі
ли ста</w>
кла сти</w>
збере жено</w>
вий шло</w>
У х</w>
По м
si a</w>
s k
an iz
і є
у ме
потребу є</w>
ні ться</w>
на лашто
ко ефіцієн
зберіга ння</w>
залиши в</w>
га ран
в ходу</w>
Л А
i o</w>
чи ка</w>
те ро
схо жі</w>
стра н
світ ло
н нями</w>
ки та
д верей</w>
влас ну</w>
ва ч</w>
бер е</w>
Зобра ження</w>
Бла го
Євро пейсь
m s</w>
l t;</w>
& lt;</w>
чу ла</w>
фі кс</w>
усві дом
у весь</w>
тич ного</w>
тво єї</w>
схо жий</w>
струк тури</w>
с ъ
с х
ру ка</w>
помог а
ни з
ли ст</w>
кож ній</w>
ко вано</w>
зру й
жи ттям</w>
дя т</w>
доро гу</w>
вигля дати</w>
вели ким</w>
безпосеред ньо</w>
Са н</w>
Па па</w>
Дума ешь</w>
Ва ше</w>
I D</w>
ін тере
у вій
спе кти
пев не</w>
нсь кого</w>
ма му</w>
за кли
жор сто
дви га
ву ють</w>
в пі
в ночі</w>
в вечері</w>
Ста н
Е ле
i x</w>
documen tation</w>
T a
яз ниці</w>
ф и</w>
скри нь
си х</w>
сен с</w>
рі єн
кож ну</w>
клю чі</w>
зустрі ч</w>
з верну
же ло</w>
використов ува
ва шей</w>
Сю ди</w>
Ба жа
Q t</w>
і сти
яза но</w>
ті я</w>
под вій
пев ного</w>
оп ти
не залеж
му сить</w>
лі нія</w>
допомага є</w>
д o
гла за</w>
ві сім</w>
ви на
б ки</w>
Пря мо</w>
стри бу
с пере
с ної</w>
рас ска
опера цію</w>
од ной</w>
наз вати</w>
ка де
й л
за старі
жи ттє
дума ємо</w>
до клад
ге н</w>
вклю ча
ви ди</w>
Ка та
Ві зь
loc k</w>
er t
eg er</w>
H O
хлоп чик</w>
у хо
раз говари
о пла
мето д</w>
ли н</w>
лен ні</w>
контекст ного</w>
ко ва
з ыва
д вад
Перевір ка</w>
Па ри
Нати скання</w>
Дже с
В загалі</w>
Б ет</w>
CU PS</w>
C al
штов х
ш пи
ту рі</w>
пі демо</w>
почина ють</w>
не му</w>
не можли
ку бі
краї на</w>
к ви
дити ни</w>
да ет</w>
відно си
в огонь</w>
бо ї
Може шь</w>
Гре гор</w>
u c
чи ться</w>
ч ный</w>
способ и</w>
лен но</w>
купи в</w>
зміню ється</w>
га н</w>
вилу чено</w>
би ли</w>
Пер ша</w>
На зад</w>
Дж он
Ви йти</w>
Бе н</w>
те лів</w>
суб ти
ста ту
систе м
сеан с</w>
са мих</w>
н ого
зупи ня
дис к</w>
дж увати</w>
во зь
вимк нено</w>
ба зу</w>
Ка кой</w>
an n
3 5</w>
прости й</w>
про ро
прия тель</w>
па ра</w>
не ті</w>
міс ць</w>
ми на
кар т</w>
за побі
відпові в</w>
біль ший</w>
Ло с</w>
Е ще</w>
Ва ші</w>
W e</w>
Goog le</w>
7 5</w>
1 000</w>
эн к</w>
ш ру
х ня</w>
рі ч
па ки</w>
ля є</w>
заголов ка</w>
доку ментів</w>
в тек
Х м</w>
По дивіться</w>
Пере й
З доро
З біль
Інтер нет</w>
ь о
у явлення</w>
то на</w>
сторо ні</w>
с му
раху нка</w>
рабо ты</w>
наді слати</w>
мі стер</w>
мен ї</w>
кращ ий</w>
клавіа тури</w>
и б</w>
від чи
ві ку</w>
О че
На решті</w>
ou p</w>
T r
S tr
200 8</w>
тиж ні</w>
сен сі</w>
подіб не</w>
по води
місти ться</w>
лог у</w>
копі ювання</w>
зі рок</w>
з вони</w>
друго му</w>
вка зує</w>
бага т
Г ля
Амери ка</w>
M at
як раз</w>
шен но</w>
ча сі</w>
ч ою</w>
ситуа цію</w>
ра р
при свя
плане ти</w>
пере дати</w>
об и</w>
назива ємо</w>
ку пу
зна мен
змо зі</w>
гори т
Сере д</w>
О бере
З е
Але кс</w>
in d
ць ка</w>
успі ху</w>
у свідо
то л
ти ск</w>
те ка</w>
со ня
ска же</w>
потрапи ти</w>
по на
по вста
пер шої</w>
органі за
ми ла</w>
зрозумі ла</w>
забира й</w>
з буд
ду х</w>
до сто
двер ь</w>
ге о
г ря
Чер во
Ко ж
За бира
Ім порт</w>
m essage</w>
інформа цією</w>
ча стіше</w>
фут бо
ста лось</w>
ст ку</w>
со вер
свя щен
роби ці</w>
ра до
при пуска
остан нього</w>
обла дна
мо менту</w>
ми ль</w>
ли цьо
кни га</w>
за ва
kd e
2 ,
хо дження</w>
функ цію</w>
у ник
стоя ти</w>
сти му
сти ло</w>
с пря
после дний</w>
на казати</w>
ль ный</w>
ко рен
й не</w>
збі рки</w>
за робля
з ей</w>
дове лося</w>
вір туаль
від творю
втра тив</w>
вда лось</w>
Посмо три</w>
Не вже</w>
Наде юсь</w>
u .</w>
kd es
i e</w>
яс увати</w>
чи мо</w>
ти лі
так си
ст ера</w>
си в</w>
розумі ти</w>
при ходить</w>
лі ки</w>
з бо
ду ші</w>
га ти</w>
вико нав
вез ти</w>
Май кл</w>
За мі
Ін дії</w>
et e</w>
I P</w>
шабло нів</w>
теле ві
тво єму</w>
реб ё
по яви
по лів</w>
по кра
ня ли</w>
набо ру</w>
набли жа
н ком</w>
ми ли</w>
ме та</w>
ла м</w>
копі ї</w>
же тся</w>
Со ю
ч ёт</w>
фільтр ування</w>
ста тей</w>
с можешь</w>
най ближ
мо рсь
ж бур
дума ють</w>
від хи
амери кан
а реш
Т А
Л И
З найти</w>
Бог ом</w>
Б ре
цій на</w>
функ цій</w>
сті ни</w>
ситуа ція</w>
за головок</w>
дру гу</w>
дра й
відповід ний</w>
би ть</w>
Ф ак
Сере д
Ма н
A d
щ і
чу єш</w>
то сті</w>
ство рив</w>
ст ься</w>
сви да
ра д
пусти в</w>
пер спекти
о це</w>
но вою</w>
на ходи
музи ку</w>
ли ша
ко шту
збіль шення</w>
за ну
дина мі
від ві
ве де</w>
важли ві</w>
біль ша</w>
Не ма</w>
Н Е
І м</w>
re al</w>
l d</w>
int eger</w>
aniz er</w>
W h
що дня</w>
ці ну</w>
точ ці</w>
стра хо
скрип т</w>
пи су</w>
пев них</w>
па дає</w>
на стро
лі ї</w>
ли ми</w>
збі га
дода вати</w>
вибра ний</w>
бі й
Скориста йтеся</w>
К лю
p ar
a f
чер т</w>
ча ння</w>
т ками</w>
спіль но
рі ть</w>
прийня ття</w>
кори сть</w>
кана лів</w>
звід ти</w>
з ліва</w>
жор ст
дру кувати</w>
до скона
ві льний</w>
ви н</w>
ве чора</w>
Хлоп ці</w>
Тво й</w>
Роз роб
Не го</w>
Здра вству
p er
подиви мося</w>
обер тання</w>
ма льо
го д</w>
ва ния</w>
Ціка во</w>
Ні меч
Не корект
g ht</w>
con f
ст ях</w>
соб ра
рар хі
ра м
під вищ
об ся
мен ь
из мени
електро ни</w>
до хід</w>
в пора
би тися</w>
безпе ці</w>
Чар ли</w>
Ста н</w>
В В
ic k
U N
D I</w>
2 5
інстру к
ін теле
ч ше</w>
ці он
тю рь
сто к</w>
со ю
ро ман
рабо те</w>
ни зу</w>
нагад увань</w>
нав паки</w>
на ви
межа ми</w>
лю ба</w>
документа цію</w>
га ні
г ей</w>
ви нен</w>
верну лся</w>
би й</w>
Я по
Ш о
С казав</w>
Пе тру
Оче видно</w>
Н О
Ма кс</w>
S cript</w>
став ка</w>
пом ню</w>
пере сування</w>
не тся</w>
міль йон</w>
ма мо</w>
ки сень</w>
кален да
иде я</w>
и г
гнор увати</w>
візь му</w>
верну ть</w>
вели кого</w>
y s
u k</w>
часо в</w>
ц ом</w>
стан дар
полу ча
мі сіс</w>
мо ре</w>
жен у</w>
ди ску</w>
говори ш</w>
відо мо
во ль
вид жу</w>
біль шу</w>
Л Е
До ку
el l
R e
4 00</w>
францу зь
тре тій</w>
со м
розпізна вання</w>
реда кто
пові льно</w>
пла сти
но стью</w>
н ного</w>
міні атю
ко ви
ка ра
зні мок</w>
ди ться</w>
ви ра
б хф
По р
В ін
d re
G r
6 5</w>
у тром</w>
сы на</w>
ск ры
с прямо
с бе
ру ші
розмі ри</w>
мину лому</w>
кото рой</w>
зас му
зага льної</w>
доро ж
до розі</w>
де який</w>
гі ї</w>
вста в
ви ступа
вважа є</w>
Та ке</w>
С ен
es t</w>
A S
іс нування</w>
фп н</w>
ро ві</w>
од ружи
нен их</w>
на ши</w>
кро вь</w>
котри й</w>
контак тів</w>
за ми</w>
жа л</w>
д ю</w>
г ла</w>
бізне су</w>
О снов
На вер
oo t</w>
on g
чи л</w>
ці о
тт є</w>
сь ко</w>
смі шно</w>
си лою</w>
семь я</w>
секун ди</w>
с публі
ру йте</w>
поши рен
помер ти</w>
ні ша</w>
но сі
н ера</w>
м ми</w>
ка кая</w>
жен и
енергі ю</w>
до ві</w>
грав ців</w>
відповід ні</w>
від пу
вла ди</w>
ва йся</w>
ва вся</w>
Христо с</w>
То м</w>
С пе
В микає</w>
Бува й</w>
Є ги
t er
ю че</w>
щ ий</w>
ше е</w>
су пере
су ль
протиле ж
поми ля
п я
об о</w>
на шел</w>
мо ві</w>
лі с</w>
ли л</w>
корі нь</w>
заціка в
заст ря
жа хливо</w>
доку менти</w>
вибра ні</w>
бере мо</w>
ба р</w>
Зрозумі ло</w>
Ди віться</w>
s h</w>
E x
ь те</w>
та р
ста ттю</w>
ст ере
с ін
поточ ній</w>
по хоро
нен ия</w>
ли вості</w>
лен у</w>
кар ту</w>
за кры
документа ції</w>
д звони
від прав
вни ма
Р обер
О чи
Май же</w>
Ка лі
За ткни
is co</w>
in st
щи е</w>
ч лен</w>
хід ний</w>
то мість</w>
те ма</w>
ста біль
се й</w>
під пис</w>
по те
п то
остан ніх</w>
ма лы
лан цю
контро ль</w>
ко мусь</w>
й к
з де
дозво льте</w>
дава ли</w>
а ні
Ви мкнути</w>
І Д</w>
S Q
I I</w>
ютер і</w>
що давно</w>
ці лі</w>
ува ч</w>
у м</w>
нен ие</w>
ма я</w>
ма лий</w>
коман дою</w>
використову єте</w>
б ка</w>
Т і</w>
Д Е
Є ди
tex t</w>
єн т</w>
чи тся</w>
уда р</w>
ста нов
спо ку
сво им</w>
ре т</w>
поз бу
подо ла
по ступи
оди ниці</w>
намага юся</w>
каже те</w>
ка кие</w>
до чь</w>
гото ви
відо крем
в сти
Сподіва юся</w>
Ра з</w>
По ч
es s</w>
ше к</w>
ти па</w>
по ставити</w>
пи ли</w>
перевір те</w>
п е</w>
кли ен
з ла</w>
во лі</w>
випад ково</w>
ви кра
безопа сности</w>
а на</w>
Я кого</w>
Хва тит</w>
Ско ро</w>
g u
0 .
інстру менти</w>
чудо ва</w>
ча ли</w>
ут ро</w>
ру р
попи т</w>
ни ца</w>
кото рого</w>
збира ємося</w>
дер жать</w>
га х</w>
ви ходу</w>
ат мо
Хо л
Се годня</w>
Г ро
Бо ж
i p</w>
e w
ю ри
шу ють</w>
ци к
т ність</w>
сті йно</w>
резер в
ре з
окре мих</w>
мен увати</w>
кур сор</w>
й ного</w>
заба ром</w>
дові ря
д i
вече ром</w>
Сті вен</w>
Са м</w>
По чина
Ла скаво</w>
v er</w>
ї демо</w>
ше мо</w>
х е</w>
три м</w>
трапля ється</w>
серд це</w>
раху нку</w>
на ка
кину ли</w>
жа ла</w>
від нов
ван ням</w>
Ч ува
Гра фі
www .</w>
rec ip
oo k
b e
M on
3 ,
які сть</w>
ці ях</w>
ц ї</w>
фп х</w>
тран спо
ти хо</w>
сь кою</w>
суспіль ства</w>
с ло</w>
різа ти</w>
р э
продук т</w>
про ми
при пу
оста ться</w>
не види
ля че</w>
ко смі
е сь</w>
в чо
Ша бло
Ко роль</w>
Ко ре
А да
євро пейсь
у ма</w>
тив них</w>
при нима
при му
при дется</w>
оди ниць</w>
о бу
м бра
ку би
жен их</w>
ви яв
в чера</w>
а х</w>
Х е
К но
Зага льне</w>
ch ec
MI ME</w>
D -</w>
ці лу
х лі
функ ція</w>
ува нні</w>
скрип ту</w>
сдела ю</w>
р б
по рівняння</w>
ли я</w>
кото рое</w>
кла с</w>
каз ыва
з о</w>
випад ків</w>
вико нує</w>
ви ру
ва ешь</w>
бо к</w>
Си м
Мі ні
Коро ле
За мість</w>
C ol
чу вство
у зя
ти н</w>
розгля немо</w>
розбі ж
перева гу</w>
ні якого</w>
ни ю</w>
над звичай
маши ні</w>
л i
игра ть</w>
залиши лося</w>
за су
енергі я</w>
ду шу</w>
ди х</w>
гру по
вы яс
вигля дають</w>
Рі вень</w>
При н
От куда</w>
Мо є</w>
Зні мок</w>
Зем ля</w>
Ви лу
es k
T o
ї де</w>
яви вся</w>
церк ви</w>
хва тит</w>
тя гу
тив но</w>
схо вища</w>
ста рі</w>
рі ння</w>
по знача
па па</w>
отрим увати</w>
о каза
мо ро
межа х</w>
кар ті</w>
йде ться</w>
зі р
зако ну</w>
за стре
живе мо</w>
еха ла</w>
ди л</w>
грав ця</w>
бер у
Э та</w>
Трима й</w>
О бо
І спа
ou n</w>
TE D</w>
шта лт</w>
тор ка
то ри
тво їм</w>
спо жива
перегля ді</w>
па ми</w>
наступ ні</w>
між народ
мі н</w>
кру г</w>
ка ли</w>
жу ється</w>
же т</w>
го ри</w>
вели кою</w>
Сар а</w>
Мі ся
Лон до
qu ot</w>
ac k</w>
ім портування</w>
те ст</w>
сю рпри
су пу
раху нки</w>
під ні
полу чить</w>
ні ших</w>
ні м
ню ю</w>
ну ль</w>
но віть</w>
навер ное</w>
мис си
мар шру
кур ва</w>
знай демо</w>
змуси ти</w>
за ра
жбур ля
дівча т</w>
да ль
випад ках</w>
б y
Си н</w>
С ек
Ка н
Д ар
co mp
W indo
їх ніх</w>
яза ння</w>
фігу ри</w>
ф аль
струк туру</w>
слыша ла</w>
следу ет</w>
пу ти</w>
пере сунути</w>
об стави
о сі</w>
но вому</w>
на соло
мо но
ло н</w>
ки сло
знай шла</w>
зем ля</w>
запро шення</w>
до каза
д огово
д ку</w>
відрізня ється</w>
ві йти</w>
ве ла</w>
бачи ть</w>
Па роль</w>
Ни ж
М ек
f re
і но
чи н</w>
трапи ться</w>
сказа но</w>
ру ками</w>
роз гор
пі сні</w>
пыта юсь</w>
подума л</w>
н ері
мисте цтво</w>
ме т</w>
и л</w>
голо вою</w>
г рі</w>
Сполу чених</w>
шриф тів</w>
фі лосо
слу ша
пра вед
п ы</w>
ні г</w>
мно ження</w>
й т</w>
завер шити</w>
ду є</w>
дра ко
во ї
По ль
Леона р
Да ні</w>
Ї м</w>
tr o
sh are</w>
k ate</w>
M y
ю .</w>
сь ому</w>
сфер і</w>
роз кри
причи ною</w>
пов зу
ну ють</w>
залиши тися</w>
за йти</w>
випро мі
благо сло
бай дуже</w>
tr y</w>
i st
i re
f t</w>
сь кому</w>
смуж ку</w>
си ді
сдела ли</w>
при д
пере шко
нати сну
на шими</w>
ли вся</w>
ки шен
ин форма
зако ха
жи мо</w>
дела й</w>
від почи
ву зол</w>
аль тер
Тро хи</w>
Та ка</w>
С права</w>
Н ью
Май к</w>
Зо ло
a h
6 00</w>
сертифіка та</w>
при дба
прави ть</w>
па нове</w>
от лично</w>
оди но
ниж ній</w>
ко вому</w>
ек спорту</w>
ву ючи</w>
взя ла</w>
Ч ем</w>
Поточ ний</w>
За пустити</w>
Викона ти</w>
Авто матич
in put</w>
O n
N oun</w>
їх ній</w>
ч ував</w>
ціка ви
ха в</w>
обі й
о сторо
ло ж
С лі
Р од
На ші</w>
Джей мс</w>
u m</w>
om e</w>
S c
є ть</w>
ша р</w>
чолові ком</w>
ч о</w>
трапи лось</w>
со ром</w>
служ бу</w>
с разу</w>
ра ння</w>
пу ск</w>
оче вид
нена ви
не давно</w>
мер а</w>
к шталт</w>
за шифро
з вантажити</w>
ві ше</w>
верх ній</w>
б н
При клад</w>
По чати</w>
По сле</w>
Д ень</w>
C isco</w>
і гро
шту ка</w>
ці лому</w>
у мира
роби ла</w>
ри на</w>
по ги
паку нок</w>
обо ро
л лю</w>
ко най
дося гти</w>
від новлення</w>
ва ется</w>
Кита й</w>
Ка піта
За сто
З ай
s ub
on y
C S
інтер нету</w>
цій ного</w>
спер шу</w>
си дить</w>
робі ть</w>
ри х</w>
порож ній</w>
папер у</w>
па ке
отриму ють</w>
невели ч
мі на
ліні ю</w>
ліка р</w>
лі зації</w>
кноп ка</w>
ки нув</w>
звер ху</w>
за сіб</w>
за гроз
жи т
екра н</w>
ди ла</w>
бі й</w>
Х а</w>
Фран ції</w>
Сер ь
Проба чте</w>
Лю дина</w>
Ві р
t ur
F re
щи к</w>
щ іль
проек тів</w>
повер нення</w>
перене сення</w>
па ци
мужи к</w>
магази н</w>
ли н
каз и</w>
ка мінь</w>
за чи
за для</w>
е ро
дівчи нка</w>
бо м</w>
Під тримка</w>
Пере прошую</w>
Л ан
Бо ль
y our</w>
ін жен
і ні
як есь</w>
ши р
у правління</w>
спро ба</w>
скоро чень</w>
ре й</w>
р ко
прибу ток</w>
от ру
нако пи
н ём</w>
ма гні
лі н
кон ферен
компа нія</w>
ка ла</w>
захи стити</w>
д ї</w>
гляда ч</w>
від ті
вi д
бля дь</w>
Пе с</w>
Мог у</w>
um n</w>
in e</w>
e w</w>
d s</w>
J av
D L</w>
іє рархі
хо дів</w>
фі р
у спе
то рія</w>
при шел</w>
поща стило</w>
по будувати</w>
но во</w>
на завжди</w>
мо ти
ме тр</w>
ма ючи</w>
ля м</w>
зберіга ються</w>
за стави
дов ж</w>
вра жа
в тру
большо й</w>
а ніж</w>
Проба ч</w>
З бира
ВВ П</w>
є т
хоче ться</w>
ходи ла</w>
фотографі ї</w>
так же</w>
сті л</w>
сторо н
рі ше</w>
ребен ка</w>
по гли
о кси
не достатньо</w>
мо ему</w>
ма в
л a</w>
де ти</w>
голов ний</w>
Сто п</w>
Голо вне</w>
s our
ї ли</w>
хо тя</w>
хвили нку</w>
уник нути</w>
слыша ть</w>
систе мою</w>
пу сте
прикла ді</w>
одя г
на пов
му м</w>
ми в</w>
майбут нього</w>
кро ли
ком позиції</w>
и ди</w>
за гу
же ж</w>
виба ч</w>
важли ве</w>
ва ши</w>
ба чать</w>
x .</w>
m atch
W or
R eg
K 3
1 .
ї д</w>
і лю
і гор</w>
хви лі</w>
уго дно</w>
ти н
тен ь</w>
специ фі
сон ця</w>
с ного</w>
про дати</w>
при нести</w>
окре мі</w>
муси ш</w>
мо му</w>
ли ться</w>
кри хі
име ет</w>
зро стає</w>
збіль ши
женщи на</w>
власти востей</w>
К ай
В кажіть</w>
ї ду</w>
яку ємо</w>
холо д
типо во</w>
по стоя
по ма
пись мен
пев ну</w>
одя г</w>
обра тно</w>
не вин
мереже ю</w>
м пи
лі ч</w>
кон цеп
ефек т</w>
да но</w>
відсо тко
впли ває</w>
бру д
без кош
Х от
Р ен
Ка жется</w>
ur i</w>
recip es</w>
pla in</w>
e di
A r
інду стрі
ючи м</w>
прі зви
поми на
писа в</w>
пакун ків</w>
носи ти</w>
н ня
му ть</w>
мог ут
мента ми</w>
ле га
краї ну</w>
користува чем</w>
ко нец</w>
ко лек
ко вою</w>
з ми</w>
ді ють</w>
га дати</w>
візь ми</w>
від прави
впевнен а</w>
ви значено</w>
ва тись</w>
ва ги</w>
а соці
Погля нь</w>
Пер ш</w>
Ко мі
Г О
А лек
e ur
S e
3 6</w>
тери торії</w>
сти лі</w>
про к
по кращ
не у
меди ци
которы х</w>
закла док</w>
забра ли</w>
з ки</w>
жа н
втра тили</w>
верну сь</w>
вважа ти</w>
важли вим</w>
бува ють</w>
За лиш
Доклад ніше</w>
Ва ж
wit h</w>
list s</w>
є си</w>
чу єте</w>
тя га
теле ско
тво е</w>
т -</w>
су міс
су ма</w>
со т
розу му</w>
полі ції</w>
не бо</w>
на при
мате матич
до води
використову ємо</w>
бо л
Ч тобы</w>
Ти хо</w>
Т Ь</w>
Про ек
Му зика</w>
Ма ксима
Ду ґ
Д ек
i m</w>
я блу
у рок</w>
та бле
стосо вно</w>
ро та</w>
повер ить</w>
на т
компле к
зе р</w>
здат ні</w>
зас нова
диви вся</w>
дела ю</w>
викли кати</w>
Ш риф
Смо три</w>
Поча тко
Зна ете</w>
В ступ</w>
en ter</w>
ar m</w>
і де</w>
ш ар
це р</w>
сь ке</w>
су ну
семь и</w>
ри мо</w>
помер ла</w>
по се
пере творити</w>
одна кові</w>
о чей</w>
о зна
ми ттє
люби в</w>
лен ої</w>
кра ю</w>
копі ювати</w>
ката стро
дія льності</w>
до пи
ди стрибу
да та</w>
вы со
в мира
авто р</w>
а стро
Х О
Ф ер
Оте ць</w>
Е мі</w>
n et
i r</w>
че р</w>
у мер
сто ять</w>
ста ми</w>
спробу йте</w>
подоро ж</w>
о ко</w>
ні як</w>
ни кам</w>
нес кін
на шла</w>
ми т
матері ал</w>
ли за
кліти на</w>
ка ють</w>
заме ча
дь ка</w>
друзь я</w>
деву шка</w>
С тен
Мі стер</w>
Е й
Г ей
at or</w>
1 5
щен ий</w>
тич не</w>
счаст ли
су ми</w>
позна коми
плане ті</w>
нарко ти
міст ять</w>
ма са</w>
йсь кі</w>
зу ється</w>
зві льни
закри ти</w>
екра ні</w>
е ду</w>
возвра ща
в хо
Чо ти
С ай
О Н</w>
i on</w>
i c</w>
- 1</w>
ь е</w>
ча сів</w>
ча са</w>
ці ле</w>
став ку</w>
ресур с</w>
ра ке
получи л</w>
пи ша
обіця в</w>
кур сора</w>
ку ро
засто сування</w>
а варі
Як е</w>
Пре д
Ми ну
j ect
am p</w>
чор ний</w>
хоте ли</w>
фанта сти
тер у</w>
спокі йно</w>
собира ешься</w>
ско е</w>
ро же
р ні</w>
приш лось</w>
потен ці
погля нути</w>
особ ен
мо ль</w>
лю ється</w>
ли п
кілько ма</w>
к Ь
друзя ми</w>
дов кола</w>
відпові сти</w>
відобра ження</w>
ал горит
К ому</w>
К ля
D A
щи на</w>
хоро ша</w>
у з</w>
те н</w>
спові щення</w>
си діти</w>
розпові м</w>
ресур су</w>
прикла дів</w>
подару нок</w>
пи шу</w>
мер е</w>
м на</w>
ка пелю
е л</w>
дру ж
гла в
ге рой</w>
ві н
во зи
ви но</w>
По ня
v inc
g et</w>
S y
єдна тися</w>
черво ний</w>
цій ної</w>
ху же</w>
сті й</w>
спа сти</w>
с ня</w>
роз повсю
при ніс</w>
пере вер
ника ких</w>
нагаду є</w>
лабора торії</w>
ку с</w>
ка бі
золо то</w>
зна ют</w>
збіль шити</w>
заплати ти</w>
з би
ві ч
вказа ного</w>
вер х</w>
Ма рія</w>
ony ms</w>
il l</w>
P h
I N</w>
ін шою</w>
я вно</w>
ча в</w>
ти фі
термі н</w>
те ло</w>
ста лася</w>
ру са
ри я</w>
поли це
переві ря
о світ
наступ ної</w>
намага ються</w>
на ведіть</w>
кі но</w>
копі ю</w>
знадоби ться</w>
змі нної</w>
за чекай</w>
з няти</w>
економі ки</w>
дізна вся</w>
ден і</w>
д ре
від дати</w>
вля ть</w>
ва шего</w>
ва ного</w>
аген т</w>
С віт
Не га
З і</w>
Гру па</w>
y e
ti es.</w>
syn onyms</w>
de v
Windo ws</w>
P yth
MA P</w>
ін шій</w>
ы м</w>
речо вини</w>
при ві
отве т
обгово рю
малень ких</w>
ле ць</w>
ку ємо</w>
ду ш
го ту
ві ці</w>
вважа ємо</w>
Пере вірити</w>
П огово
Ма ю</w>
Євро пі</w>
to p</w>
match ing</w>
le x</w>
1 6
єдна но</w>
эн ни</w>
шен а</w>
ча рд</w>
х ей</w>
філь тра</w>
ть ю</w>
се кто
с хва
поз же</w>
не ви
муси мо</w>
ми лая</w>
лі й</w>
люби т</w>
ле ді</w>
комбіна ції</w>
зміню є</w>
захи ст</w>
зага ль
дово ль
дис пле
деся т</w>
га ть</w>
використов ували</w>
важли ва</w>
в раз
в но
Тома с</w>
Ре зульта
Пробле ма</w>
b r
S M
200 7</w>
2 8</w>
т ними</w>
со б</w>
сервер ів</w>
ру кою</w>
поколі ння</w>
познач те</w>
поз ба
осві ти</w>
облі кового</w>
о сіб</w>
м п
ли цо</w>
е ль</w>
го й</w>
всю ди</w>
ви микає</w>
Те ле
За чекай</w>
Допомож іть</w>
Г ла
Б Р</w>
G N
200 4</w>
форма ту</w>
технологі й</w>
та ть</w>
сь від
само стійно</w>
с л</w>
під меню</w>
про позиції</w>
пері оду</w>
пе ти
параме тром</w>
очі кування</w>
нов ен
но -</w>
молеку ли</w>
ми ми</w>
мерт вих</w>
людсь кого</w>
люб лять</w>
зо р</w>
за не
жі но
ен і</w>
доб рий</w>
д зво
гру пі</w>
ві дій
вста вити</w>
бо й</w>
Та кий</w>
Мек си
За головок</w>
Ва ши
Б ек
Ан глі
am ar
ім порту</w>
че ски</w>
х ристи
ті єю</w>
трива лість</w>
ти е</w>
тер пі
стосу нки</w>
смо треть</w>
си дів</w>
с на
ра мки</w>
повер неться</w>
клієн та</w>
з руч
жи ва</w>
гі й</w>
влас них</w>
висо ко
використа нням</w>
в пер
а но
Встанов лює</w>
ю ча</w>
убий ство</w>
тич ної</w>
типови х</w>
та лан
серед нього</w>
са м
пси хі
посмо треть</w>
пи й</w>
паци ен
па ли
н них</w>
ма су</w>
жін кою</w>
допо в
гра віта
глибо ко</w>
Э ти</w>
Ч жу
Уя віть</w>
П А
К ого</w>
Бачи те</w>
r ic
ang u
єди на</w>
я во
шабло ну</w>
т ності</w>
спо соб</w>
спи сків</w>
со стоя
с са</w>
раху нків</w>
про повід
о тримає</w>
о преде
не при
му зе
ката лозі</w>
зага лом</w>
з мон
з мага
діагра ми</w>
га й</w>
всі ма</w>
ви най
С мер
Ви дишь</w>
Амери ці</w>
p n
or y</w>
ці лу</w>
у мов</w>
у е</w>
та ція</w>
по куп
по же
ног у</w>
нез важаючи</w>
нау ки</w>
кошту є</w>
засто сувати</w>
ді тьми</w>
до х
від у
вели кої</w>
Чжу н</w>
О пера
Е щё</w>
До ступ</w>
ac h
ы е</w>
шиф рувати</w>
швид кістю</w>
ш лу
чі па
уря ду</w>
ува ло</w>
у ча
ста нет</w>
спа ть</w>
с со
с ни</w>
с .</w>
просто рі</w>
пояс нення</w>
почу в</w>
полі це
поло вина</w>
органі зації</w>
ога да
обра но</w>
намага лися</w>
лі тери</w>
ль ніше</w>
клієн т</w>
зра ї
жі ння</w>
д ки</w>
ге р</w>
га ль
візь мемо</w>
візу аль
ве б</w>
ва ют</w>
бо юся</w>
К ін
o d
b le</w>
2 7</w>
яза ний</w>
ю чого</w>
хвилю йся</w>
туа ле
смі х</w>
смо г</w>
ри к</w>
раз ве</w>
прин тера</w>
нсь кої</w>
мен ем</w>
ко фе</w>
кла ди
йде те</w>
зо н</w>
зви к
жа ли</w>
ген і
відкри ває</w>
вби ли</w>
Ф ро
Спробу йте</w>
Ма рі
Ма лень
Користува ч</w>
И менно</w>
Е му</w>
Ваши нг
Б ей
st ar</w>
pp p</w>
o g
Sh ort
інтеле к
чу де
ті ти</w>
тив на</w>
сь о
стовп чик</w>
спів відношення</w>
с кие</w>
ру ш
ри л</w>
працю вала</w>
пока зни
ну льо
ме ста</w>
л ера</w>
жи т</w>
додат ка</w>
д ва
вда сться</w>
ва гу</w>
бо лі
ал кого
Бажа єте</w>
Анд желе
w e</w>
A u
я в</w>
фе р</w>
сон це</w>
сла в</w>
розпові в</w>
підказ ки</w>
при шла</w>
працю ємо</w>
поверну ся</w>
очи ма</w>
ни ков</w>
малень ку</w>
ку пу</w>
ка йте</w>
й них</w>
зру чно</w>
з ник</w>
да н</w>
говоря т</w>
вив чення</w>
бо ляче</w>
б лю</w>
i ma
e p</w>
шля хи</w>
чи сто
хлоп че</w>
х т</w>
стре е</w>
спостеріга ти</w>
сертифіка т</w>
сво е</w>
р Ь
про гно
отрима ла</w>
не корект
нада сть</w>
на шего</w>
лі так</w>
ло ви
кра п
й с</w>
из мен
збира єшся</w>
за хва
за л</w>
за багато</w>
з рештою</w>
дви гу
го лу
відже тів</w>
вра ження</w>
вибі рки</w>
в продовж</w>
ба х</w>
а спек
Ш ко
Ти пови
Пре зиден
По л
О новити</w>
Д во
Влас не</w>
c oun
є ць</w>
форма тування</w>
раді о
пов нова
по їхати</w>
обра ли</w>
мо не
мо вно</w>
лі ть</w>
льни ки</w>
лек тро
кварти ру</w>
име ешь</w>
зни щити</w>
зе ме
зву ки</w>
вини кає</w>
С эм</w>
С ле
Розумі єш</w>
П ого
Засто сувати</w>
i f</w>
gr oup</w>
S D</w>
ь кий</w>
шен ням</w>
стосу ються</w>
сертифіка тів</w>
с б
про вели</w>
при ду
при гла
отношен ия</w>
особи сто
ня ться</w>
нь о
не ща
ма со
лі жку</w>
запа х</w>
за р
до мови
до лу
дити ною</w>
від чувати</w>
весі лля</w>
в ців</w>
Стрі лка</w>
Наступ ний</w>
Ма м</w>
Джей м
А т
ti c
t .</w>
j ect</w>
P G
I R
GP L</w>
2 6</w>
су тні</w>
стоя в</w>
сторі нка</w>
свобо ду</w>
са нд
с может</w>
реє стра
про гуля
пона доби
ни кого</w>
ка кое</w>
к м</w>
за будь</w>
з вали</w>
доб ра</w>
д нем</w>
ве ло
Р эй</w>
Ма ємо</w>
Ж ур
wor d</w>
et c</w>
b er
200 3</w>
є сть</w>
чі тко</w>
ц ве
ха ми</w>
у н</w>
ту ра
симво лі
сві том</w>
с де
регі о
пі ля
про пор
прави льний</w>
пога ний</w>
поведі нки</w>
обладна ння</w>
ню вання</w>
нк е</w>
нескін чен
наступ не</w>
ми сс</w>
ме те</w>
люби ла</w>
кіль кістю</w>
ки мось</w>
друг их</w>
до лучення</w>
до відки</w>
до вести</w>
дж а</w>
ден а</w>
гі на
відо мі</w>
ва шими</w>
Че кай</w>
Кру то</w>
Й мовір
or e</w>
1 60</w>
0 1</w>
ше ю</w>
тер ів</w>
стра нно</w>
розви ток</w>
ра ціона
пробле мою</w>
поня ла</w>
от лич
остан ню</w>
нь мо</w>
намалю вати</w>
наде юсь</w>
ми ри
ме ти</w>
люби й</w>
кур сі</w>
компо нування</w>
йсь ких</w>
зага льний</w>
за ря
дере в</w>
д й
вказа ний</w>
Припи ни</w>
Навер ное</w>
k c
Po st
E A
у трим
тель ный</w>
табли цю</w>
ска со
самы й</w>
р .</w>
пуска ти</w>
пу стіть</w>
пе нал</w>
отриму єте</w>
о по
ні куди</w>
но час</w>
нер во
ли на</w>
л ер
діста тися</w>
д ди</w>
гра вець</w>
г лю
вод ночас</w>
вихід ні</w>
С творю
С Я</w>
По зво
Зага лом</w>
Д ві</w>
А М
Є руса
o k
di o</w>
T ex
-- --
ґ ра
щи ми</w>
циф ри</w>
тич ну</w>
ст ру</w>
сен су</w>
про ща
про гре
послу хай</w>
полі тики</w>
оста ння</w>
о з
нови м</w>
мі рі</w>
мо ні
люд ства</w>
ли стування</w>
квадра тний</w>
й ки</w>
зне ва
замі нити</w>
замі ни</w>
зайня тий</w>
за о
за кладки</w>
жен ия</w>
е пі
гли б
вер ю</w>
в казувати</w>
бер уть</w>
Ві зьми</w>
І талі
v n
col umn</w>
ab le</w>
a w
уби ли</w>
то рію</w>
тво ему</w>
стви е</w>
роз мови</w>
ра ку</w>
прия т
при їхав</w>
поперед ній</w>
подоз ре
пев ної</w>
оружи е</w>
на слі
на ре
н o
зроби ш</w>
горо да</w>
від мовля
ве ди</w>
бу к
Щ а
По л</w>
По дяки</w>
О бер
На певно</w>
Йор к</w>
Зна чить</w>
Джей к</w>
Вер но</w>
В кладка</w>
A c
ґ Щ</w>
є вре
я ний</w>
я ни</w>
ющ ий</w>
ча ла</w>
ч ками</w>
х ай
то вої</w>
тив ного</w>
та й</w>
т ках</w>
стовпчи ків</w>
сто и
сти лів</w>
со еди
с виде
під ходить</w>
пі ра
прий мати</w>
по во
паку нка</w>
описа но</w>
об су
ка п
ка н</w>
за хід
за ма
го д
воз ра
ва лись</w>
без глуз
ау ди
Чува к</w>
Ска жіть</w>
Прави ла</w>
З мен
Голо вний</w>
r .</w>
k org
i в</w>
7 52</w>
ін коли</w>
і дей</w>
як увати</w>
ше му</w>
ць кий</w>
хо дьте</w>
фото апара
стра и
си метри
с ный</w>
руха ються</w>
раз де
програ много</w>
приро ди</w>
поз дно</w>
по бли
нов ый</w>
на т</w>
мо вча
маши н</w>
кре дит</w>
кар та</w>
исполь зу
жи на</w>
дружи ну</w>
дов гий</w>
виста чає</w>
бла га
Погля ньте</w>
Кар л</w>
Ду маєш</w>
tac t</w>
ig ht</w>
Ma il</w>
інтер нет</w>
і зо
ё зно</w>
та л</w>
су дь
рас стро
пі деш</w>
проце сі</w>
пане лей</w>
об раз
ня в</w>
напи шу</w>
кращ і</w>
ка ж
зло чин
за трим
единствен ный</w>
дово льно</w>
да на</w>
вка жіть</w>
ва лен
ба ти</w>
ар мії</w>
аб стра
Я б</w>
Чолові к</w>
Ч ТО</w>
У країни</w>
Ни когда</w>
І накше</w>
il l
buil d</w>
0, 000</w>
те ли
сі м
со ве
рі сть</w>
преж де</w>
поточ ному</w>
по став
орга н</w>
ни ро
нача ть</w>
мину ле</w>
ми кати</w>
маши ны</w>
кален дар</w>
викли к</w>
в лі
Я ко
Цен тра
Жи ття</w>
Ді й
Вста вай</w>
В ай
D E
фи ль
твари ни</w>
та рі
со жа
реш та</w>
ресто ра
підтвер дження</w>
працю єте</w>
пев ним</w>
особ и</w>
ню ють</w>
найкращ их</w>
любо ві</w>
зага льні</w>
ен ы</w>
додат кових</w>
джу є</w>
ві льно</w>
влас ного</w>
біль шим</w>
бра в</w>
Ок ей</w>
Дж ей</w>
Ї й</w>
li st</w>
korg anizer</w>
i as</w>
L ex
яко мога</w>
ша л</w>
че л</w>
у правля
тор би
ру н
роди ни</w>
проміж ок</w>
при шли</w>
пред ста
пом ре
о к
наслід ки</w>
мі с</w>
контро лювати</w>
кар тки</w>
відповід них</w>
ви правити</w>
ва шою</w>
бра ли</w>
Сим во
Ве сь</w>
mp l
k recipes</w>
і мена</w>
щ ее</w>
ха ння</w>
х ий</w>
ф ф
у ф
стан нє</w>
прий має</w>
при стра
при вести</w>
пога на</w>
поверта ється</w>
окре мо</w>
мон тування</w>
ли вим</w>
ко дів</w>
кер у
кар то
й ну</w>
дума ете</w>
дета лі</w>
го ді</w>
від новити</w>
во н</w>
виправ лення</w>
в лашт
біо логі
Типо ве</w>
С О
Пока жи</w>
Де від</w>
А М</w>
ro m</w>
r oot</w>
, 000</w>
си пе
ро лі</w>
про кину
поши рю
поза бо
о ні
ни цу</w>
нес ла</w>
мо л
множи ни</w>
ме три</w>
кро в
кращ им</w>
кон цер
кла ди</w>
зберіга ється</w>
жу ють</w>
голов не</w>
від правля
ві к</w>
во дою</w>
вни ком</w>
вилу чати</w>
буді влі</w>
Т ра
Спо кі
Поба чи
Ка кого</w>
Дуґ але</w>
it e</w>
S ch
Pyth on</w>
уб ь
у в</w>
т увала</w>
ста х</w>
спра ві</w>
с ї</w>
прав у</w>
не залежно</w>
мов к
ма гі
ля ти</w>
ка Name</w>
запи шу</w>
за бува
досяг нення</w>
д ём</w>
гро шо
варіан ти</w>
Ф БР</w>
Слу ж
Пере глядач</w>
За чекайте</w>
ver s
sm b
hel p
S O
D i
ша ти</w>
тра ха
тво им</w>
сукуп ності</w>
сто н</w>
спо га
реши л</w>
про бу
призво дить</w>
при ту
по стрі
пар ни</w>
остан нім</w>
о рієн
малю вання</w>
л a
коха ю</w>
кол ле
кни г</w>
змі нні</w>
заслу го
дов ше</w>
де пре
ву ються</w>
Шел до
Про це
Повер тає</w>
Нор ма
Кур ва</w>
За пис</w>
Ді ти</w>
G e
6 4</w>
ім портувати</w>
ща ть</w>
че б
ч кою</w>
у з
тре т
с кі
ре е</w>
раз гово
прийня ли</w>
пер ших</w>
намі р</w>
на блю
ми ре</w>
ме мбра
контак ту</w>
ко ма
ка ю</w>
зустрі тися</w>
зму шує</w>
зи р
з важаючи</w>
до ка
голо м
витра т</w>
взя л</w>
Хот я</w>
Ри м
П рі
Н О</w>
Ка на
en d</w>
angu age</w>
and er</w>
Te X</w>
ш кою</w>
сти на</w>
с лі</w>
решен ие</w>
продук тив
повідо мити</w>
по тя
пері ш
н не</w>
мо то
кра що
ко л</w>
катего рій</w>
запита в</w>
доро сли
вто р
викон ува
вибра них</w>
ви вантаження</w>
в сь</w>
в воду</w>
бо юсь</w>
благо да
без ліч</w>
а гре
Прекра сно</w>
По йдем</w>
Обере жно</w>
Мо жу</w>
К ре
А ра
v al
t ar
ri Ser
or n
mail .</w>
U riSer
Lex UriSer
I X</w>
200 5</w>
ші ть</w>
ф ло
су фік
ство вать</w>
способ у</w>
смо тре
почина ючи</w>
музи ки</w>
ми шки</w>
куль тур
кри ву</w>
ж ж
дівчи ну</w>
ді тям</w>
дя дько</w>
допо мож
дол ла
до щ</w>
ви снов
вз гля
ва л
Ко ль
Йор ку</w>
Зберіга ти</w>
Ж о
g n
an t</w>
HO ME</w>
9 9</w>
їз д</w>
щен і</w>
тра х</w>
то рен
ску ю</w>
с можем</w>
с б</w>
прош лой</w>
про вів</w>
прак тично</w>
подиви мось</w>
паку нки</w>
об клади
нен ням</w>
навіга ції</w>
ли ни</w>
каль куля
зага льну</w>
за цію</w>
за споко
за важа
дола р</w>
дивови ж
гра в</w>
втра ча
вирі шення</w>
вело сипе
ва лся</w>
С кри
Па у
Ко жна</w>
В важа
Бы ло</w>
Аб солю
o w</w>
5 9</w>
член ів</w>
сти в</w>
ста рого</w>
спробу ємо</w>
сло вом</w>
ребен ок</w>
приско рення</w>
остан нє</w>
оболо нки</w>
ни т</w>
мі ткою</w>
мови ти</w>
м .</w>
комна те</w>
коман д
з вести</w>
доступ ні</w>
д огля
відмі ну</w>
ві ри</w>
вну три</w>
ве ду
а д</w>
Те бя</w>
Слу хайте</w>
Ря док</w>
От ця</w>
Наступ на</w>
Май стер</w>
Кла ц
Ді ї</w>
Да руйте</w>
Ві до
h ere</w>
ц тво
убий ства</w>
т та</w>
сусі д
су ду</w>
сторо на</w>
ству ет</w>
син такси
ри с</w>
подоба ються</w>
по может</w>
па на</w>
особи сто</w>
ор бі
не бі</w>
найкращ і</w>
на силь
мі стере</w>
льни ків</w>
ло вать</w>
кольо ро
за сі
же ли</w>
енер ге
ду ємо</w>
дистрибу ти
дж ування</w>
го ду</w>
вибра но</w>
бать ком</w>
ба та
Те ка</w>
Т ого</w>
Перевір те</w>
Мар ті
Г ан
l l</w>
kon sol
end ar</w>
d er</w>
R O
E L
шко ле</w>
чудо ві</w>
типо ве</w>
смуж ки</w>
ска сувати</w>
сек сом</w>
під німа
прикла ду</w>
помі тив</w>
пере лі
параметра ми</w>
ні шою</w>
ни ем</w>
ло бі
контак т</w>
коефіцієн т</w>
знайо мі</w>
збира юсь</w>
ж ува
доро га</w>
додат ків</w>
дава ть</w>
да вні</w>
га ють</w>
вра хо
вимага є</w>
веде те</w>
У видимся</w>
На дає</w>
Кіль ка</w>
Здравству йте</w>
Е р
Дж ер
Ві де
В клю
th o
N et
ідентифіка тор</w>
яд ра</w>
чу тли
ча й
ціка вить</w>
ужа сно</w>
тро шки</w>
типо вого</w>
та та</w>
т с</w>
сьогод ніш
сь кій</w>
сь ким</w>
слы ши
ре ць</w>
підсві чування</w>
по друга</w>
оста вить</w>
ор ен
ни ся</w>
не шь</w>
нако нец</w>
май дан
кни жки</w>
и щ
зо вано</w>
збира ються</w>
закін чення</w>
дослід жень</w>
до ктора</w>
дер а</w>
вби вство</w>
ван ні</w>
бо льно</w>
балан с</w>
Сто рі
Перей менувати</w>
Д якуємо</w>
В ен
Афри ці</w>
n o</w>
f ran
K3 b</w>
200 1</w>
чи мало</w>
ста нуть</w>
справж ня</w>
случа й</w>
ско рее</w>
с пусти
ро з</w>
ри т
ри зо
пош тою</w>
подиви тись</w>
пода ль
по воро
пере сува
пара ле
но р</w>
не мося</w>
на ль
мо роз
кро ме</w>
корот кий</w>
ка ких</w>
з гор
е по
дорі жки</w>
го н</w>
втра ти</w>
во спо
ве й
в ходить</w>
бе р</w>
ар тері
Хо ч</w>
Об ме
ou ld</w>
ь ка</w>
фун тів</w>
ту єш</w>
терміна ла</w>
т ника</w>
сі ння</w>
сх ему</w>
складо вих</w>
сай ті</w>
перекона тися</w>
па д
ні що</w>
ні шими</w>
най мен
нази вати</w>
н увала</w>
мі рою</w>
можли ві</w>
малю вати</w>
ле т
йсь кого</w>
дя чи</w>
друг им</w>
гар ні</w>
г нути</w>
віру с</w>
вій ні</w>
ве мо</w>
ва гі
бі лий</w>
бак тері
По ло
О ди
Ви лучення</w>
В о</w>
В ей
Reg ion</w>
PG P</w>
H e</w>
D O
ім пера
єди не</w>
чес кий</w>
чен ого</w>
ти нен
те періш
сі ть</w>
спро сить</w>
справж ні</w>
підтрим ка</w>
під лі
проми сло
про ста</w>
пер ено
основ них</w>
об чи
не погано</w>
мор я</w>
моду ль</w>
ме м</w>
м ного
лу м
ла д</w>
кину ла</w>
зо серед
зна ком
збро ї</w>
дума йте</w>
вы та
вла ду</w>
виробни цтва</w>
вий шла</w>
ви вчи
ва ну</w>
ва лі
бер на
У да
С е</w>
Роз та
По з
На віга
Дозво лити</w>
Г О</w>
u n</w>
i al</w>
and .</w>
a ti
K r
A R
A L
ю ме</w>
ш о</w>
хоро ші</w>
файло вої</w>
ты ся
ту йте</w>
та бу
поч не</w>
поперед ження</w>
повто р
пи столет</w>
пере мож
пере жива
паро ля</w>
па х</w>
об раз</w>
ново сти</w>
ни н</w>
наз вав</w>
н нє</w>
міні ма
моло ді</w>
мика ч</w>
мене джер</w>
маль чи
лен ими</w>
кораб лі</w>
знай ду</w>
е ла
деся ти</w>
да ло</w>
да вати</w>
відно шен
вос кре
ва ним</w>
Чоти ри</w>
Те ма</w>
Сон ця</w>
Син хроні
Нега йно</w>
М Б</w>
Заткни сь</w>
Е е</w>
ico de</w>
M L
ю є</w>
хо тят</w>
фе дера
у б</w>
ти шь</w>
т ному</w>
суспіль ство</w>
ст р
спіл кування</w>
справ ля
сво є
сва дь
розді лити</w>
попере ду</w>
побачи ш</w>
по раз
ні якої</w>
ні шу</w>
ну л</w>
не щодавно</w>
мпа н
м мі</w>
костю м</w>
конай теся</w>
зна ючи</w>
за охо
за мк
див люся</w>
ден ие</w>
дава в</w>
г г
відомо стей</w>
витра ча
викли кає</w>
ви дат
вече р</w>
автоматич ного</w>
а ну</w>
Ра зом</w>
О крім</w>
Мо ду
Крі с</w>
За хід
До кторе</w>
Від повідь</w>
І де
ri ght</w>
pre s
P D
ін тен
шма ток</w>
шко й</w>
ши в</w>
ш кіль
тя жіння</w>
ту рою</w>
т ог
схо жа</w>
пі столет</w>
про щения</w>
при хи
показа в</w>
подіб ний</w>
па х
од ної</w>
о лі
нена види
належ ним</w>
най менше</w>
мі ток</w>
купи ть</w>
куль тури</w>
кож ні</w>
за го
дівча та</w>
ді стати</w>
ді ри</w>
де т
вихід них</w>
ви ну</w>
Ч ё
Послу хайте</w>
По значити</w>
На ціона
Мі с
Л і</w>
Д И
Д А
Бу дьте</w>
Б О
po m
kd m</w>
- 2</w>
ім пор
ы х</w>
чё р
чи сто</w>
філь трів</w>
ст ї</w>
слу хай</w>
розі бра
підтрим увати</w>
під ви
ог и
люби ш</w>
компа кт
и м
за ставля
жи сь</w>
дву х</w>
віта ння</w>
во в
вкла док</w>
ви разу</w>
а ресто
Х ен
С ту
Р оби
Кей т</w>
Зупи нити</w>
За хи
За вантажити</w>
А а
st art
sp ace</w>
p l
kno de</w>
інде к
я зи
щ ак
щак EMAIL</w>
ті ли</w>
т ною</w>
спі льний</w>
согла си
синхроні зації</w>
сим па
розмі ром</w>
раді ус</w>
при воду</w>
при бира
под звони
пога ні</w>
по їхав</w>
по лю
от куда</w>
наслі док</w>
надісла но</w>
на вести</w>
мо ди
лі жко</w>
край ней</w>
закри ття</w>
зага льна</w>
з образи
жу ються</w>
ду хо
довжи ну</w>
визнача ється</w>
вер а</w>
важли вий</w>
бор г</w>
бо ці</w>
Типови м</w>
Продов жу
Про фі
Петру щакEMAIL</w>
Не у
Не відомий</w>
Н Я</w>
Калі фор
Доб рое</w>
l and</w>
e y
e f
ap e</w>
V P
U T
ін нова
ь фй</w>
штов ху
ч ной</w>
ч ная</w>
харак тери
то рі</w>
т ль
сто лом</w>
си ро
с хід
рах увати</w>
прав ди
ню ється</w>
н .</w>
ма си</w>
люби шь</w>
кі в
кур су</w>
кла сі</w>
ка са
захо п
за яви
за ду
г йб</w>
вік нами</w>
висо кий</w>
вимі р
веро ятно</w>
Швид кість</w>
Фак тично</w>
С той</w>
Повер та
Ві рно</w>
tr ue</w>
ing s</w>
et t
e x</w>
a il
чен им</w>
фу тів</w>
спра в</w>
спо кій</w>
служ ба</w>
право пису</w>
почина ємо</w>
от прави
ор е</w>
оп ять</w>
обы чно</w>
ня я</w>
ля ція</w>
зо середи
зали ш
залеж ності</w>
ді ду
від вер
вне сок</w>
вне сен
вар д</w>
б ла</w>
авто ра</w>
Мо и</w>
Ед ді</w>
Ге ть</w>
Від мі
Євро пи</w>
esk top</w>
en se</w>
amar ok</w>
ше д
шабло ни</w>
ци он
хо дь</w>
ти мо</w>
сто ли
ста тися</w>
со се
сест ри</w>
розгля дати</w>
роз лу
работа л</w>
при вет</w>
порож нім</w>
пом нишь</w>
пода льше</w>
побачи ла</w>
по гра
па діння</w>
о пі
небезпе чно</w>
не споді
на лі
ла д
ку лі</w>
зуси ль</w>
залиша тися</w>
за клю
ви кри
бу х
бере те</w>
Ши рина</w>
Ра ху
Р об
Пер ше</w>
Не на
М ей
Е л
k ppp</w>
an g</w>
Ch ar
і мі
яки мось</w>
ютер и</w>
фа бри
справж нє</w>
ска нування</w>
с начала</w>
ри н</w>
покла сти</w>
пові тря
оці нки</w>
он лайн</w>
ня ю</w>
ну ля</w>
мог лобі
лі вій</w>
ли з
кни ж
кер ує</w>
зни зи
зав тра
детек тив</w>
дерь мо</w>
вто ми
виста чить</w>
Чё рт</w>
Ві ль
vn -</w>
us t</w>
ha ve</w>
яз ків</w>
хоро шим</w>
тр ьо
тек стом</w>
та цію</w>
сюрпри з</w>
сторо ны</w>
сти ли</w>
со зда
різ ницю</w>
по дивіться</w>
об ви
на зовні</w>
мі тка</w>
й шли</w>
й ка</w>
зни зу</w>
д вій
гну ч
ві льного</w>
во стями</w>
Хан на</w>
Пі шов</w>
Пи тання</w>
Очи стити</w>
О ли
М І
Ко мента
Від повід
us sia</w>
r c</w>
успі х</w>
си га
сер и
се ли
револю ції</w>
прин це
по ступа
пла ти</w>
п э
об слу
ми те</w>
м увати</w>
ля й</w>
ло в</w>
ла ти
ку льо
котро го</w>
контро лю</w>
ка ння</w>
зовніш ній</w>
змен шити</w>
засоб и</w>
доб рого</w>
глаго лю</w>
веден о</w>
Х ви
Ре б
Л ен
За пита
Жін ка</w>
Ви гляд</w>
under F
underF DL</w>
if f
c at
200 2</w>
х увати</w>
тур бува
то вані</w>
тво их</w>
та р</w>
т ро</w>
стри б
смі я
следующ ий</w>
руха тись</w>
під хід</w>
початко вого</w>
пор тре
пи ва</w>
пере хо
мен ті</w>
ме ш
маши не</w>
лі кування</w>
кри ва</w>
камер и</w>
ка мпа
здійс нити</w>
збира вся</w>
за лу
жа рт</w>
друг ие</w>
довжи на</w>
добра ніч</w>
галакти ки</w>
виріши ла</w>
виба чте</w>
ви пити</w>
ви гу
Ю у
Шриф т</w>
У країні</w>
Сон це</w>
Ра дий</w>
Пі тер</w>
Пра цю
Поперед ження</w>
Клац ніть</w>
Дж она</w>
А у
x s
ti me</w>
r or</w>
o g</w>
G n
19 8
т e</w>
розмовля ти</w>
прості ше</w>
пра ві</w>
поста ра
основ ні</w>
нь ю</w>
народи вся</w>
мо їми</w>
мо ё</w>
м них</w>
ли те</w>
камер у</w>
и н</w>
за клад
відповіда льність</w>
від во
ву ємо</w>
во д</w>
бу вай</w>
адре сної</w>
Сла ва</w>
По ра</w>
Замі нити</w>
З рештою</w>
Ен ді</w>
Бу в</w>
tex t
ht ml</w>
I MAP</w>
3 1</w>
щасли вий</w>
что б</w>
фік со
умо вах</w>
туа лет</w>
торгі влі</w>
т ці</w>
схе ми</w>
смі ш
свя т
с кого</w>
ру ба
р пх</w>
під няти</w>
про сти</w>
пра ви</w>
почина ти</w>
повто рення</w>
одна к</w>
о публі
ня ють</w>
номе ром</w>
не се
мар ке
ма кси
м бу
комі рок</w>
вий шли</w>
в лення</w>
бі лі</w>
бу ма
О но</w>
Лю блю</w>
З робити</w>
До давання</w>
А ф
o w
En ter</w>
інди віду
чита в</w>
ци кл</w>
те ла</w>
серь езно</w>
рож дения</w>
піс ню</w>
пів ден
подиви вся</w>
пе т
парт нер
па ри</w>
оди ни
о світу</w>
на дії</w>
люди ні</w>
кор пора
ин огда</w>
зміни ться</w>
залиши вся</w>
за лі
ел .</w>
дя ться</w>
дозво лу</w>
д ді</w>
га ла</w>
вхід них</w>
вля ю</w>
б рь</w>
Ста р
При стрій</w>
При наймні</w>
О чі
Н им</w>
Кита ї</w>
Г ене
Г А
Вели ко
m in
amb a</w>
K T
ї н</w>
яко го
шо кола
чека ю</w>
фун да
то вих</w>
створен і</w>
спі льні</w>
сподоба ється</w>
при пустимо</w>
по важа
пла ні</w>
па пір</w>
обмі н</w>
обере ж
лог и
кто ром</w>
кра й</w>
зі р</w>
за дума
за бло
жи х</w>
жа в</w>
досвід у</w>
доро гая</w>
дела ете</w>
відкри тий</w>
вигля ду</w>
ви в</w>
в прова
боро тися</w>
Ц им</w>
У ор
По т
О бі
Зрозумі в</w>
Д А</w>
В Е
І з</w>
p art
ї жа</w>
і ще</w>
шу кає</w>
тя ж
тр ю</w>
сти с
сте ро
реш ту</w>
пу ть</w>
протоко л</w>
президен т</w>
полице йс
пов з</w>
пло хо
на правля
лі ву</w>
ле ди</w>
координа ти</w>
ко мер
ка ву</w>
и ди
змін них</w>
захо плення</w>
запропо нувати</w>
за ліз
ж e</w>
гре ць
ви ника
вер и
бо ків</w>
бак терії</w>
б на</w>
Х энк</w>
Сер йо
Рі чар
Мен е
Зем лю</w>
Д энни</w>
Від пові
А дам</w>
w ik
ip p
hel p</w>
er f
P i
Ne pom
I t</w>
є р
ть е</w>
ты ре</w>
тео рія</w>
т ня</w>
су пер</w>
сдела ем</w>
пусти те</w>
про сті</w>
послідов ність</w>
послу ги</w>
подіб но</w>
подума ли</w>
п po
н ё
н д</w>
мі я</w>
кіло метрів</w>
ку та</w>
кон тей
кож не</w>
иска ть</w>
зві ту</w>
жу сь</w>
диви тись</w>
г ей
все світ</w>
вибо ром</w>
ви гна
ви бачення</w>
в вімк
буде ться</w>
Лу чше</w>
Кно пка</w>
Де н</w>
І зраї
s o
kdes vn-</w>
b lock</w>
4 ,
їх ню</w>
я сь</w>
що ден
шу м</w>
ц i
хо дімо</w>
у знал</w>
студен тів</w>
справед ливо</w>
спере ча
ска жіть</w>
розді лів</w>
рен а</w>
під су
при кри
при голом
поперед ніх</w>
плати ть</w>
охоро ни</w>
останови ть</w>
о стрів</w>
о р</w>
ни й
не забаром</w>
на тура
мо ту
матер и</w>
лікар я</w>
ли сти</w>
кон струк
ко вій</w>
зроби те</w>
за тор</w>
за плута
жа х</w>
експери мент</w>
дружи ною</w>
дру зей</w>
до лю</w>
да ному</w>
горо де</w>
вияви ти</w>
вз довж</w>
вважа в</w>
вар тості</w>
ва юсь</w>
буду чи</w>
бу ль
Сте фа
Пере стань</w>
x o
n er</w>
g e
1 80</w>
шука ю</w>
ши ли</w>
уя віть</w>
теро ри
тво єю</w>
т ре</w>
сь ві
створю ють</w>
спів чуття</w>
с Э
ря ту
ро д</w>
прой шов</w>
полі ція</w>
по во</w>
л e
кімна та</w>
ка ви</w>
зем ле
звичай ного</w>
займа тися</w>
ді о</w>
дво е</w>
гра н
ге моглобі
відпові дати</w>
відже та</w>
вияв лено</w>
Ь l</w>
Мо ва</w>
Ма ши
Дій сно</w>
Г ло
В би
Ін ший</w>
z er
er man
Kon queror</w>
1 50</w>
.. ..
че ство</w>
ф ру
ти ту
творен о</w>
тво їй</w>
сте жити</w>
сло ж
систе много</w>
розумі ють</w>
про сить</w>
перевір ку</w>
пер шою</w>
о чах</w>
милли о
меся цев</w>
мерт ві</w>
мен ів</w>
ло р
ли т</w>
закін чив</w>
доб рі</w>
де вчо
да ючи</w>
ві ра</w>
ву ха</w>
ва мпи
в e
а риф
Т ру
С о</w>
Ра ди</w>
Р У</w>
Про кля
По чекай</w>
Ло ка
В ся</w>
ys in</w>
inst all
chec k</w>
c т
SQ L</w>
I F</w>
B ri
An d</w>
3 3</w>
- Да</w>
ї ти</w>
явля ються</w>
субти трів</w>
сти ка
ско ріше</w>
с пуска
розподі лу</w>
протоко лу</w>
прости м</w>
проек ти</w>
нсь кі</w>
мис лення</w>
м ё
лі тера
к уватися</w>
к са</w>
зі ю</w>
зі п
зе лений</w>
звичай них</w>
за телефо
з ну
дов г
до в</w>
д e
госпо дар
вияви ли</w>
бі т</w>
бра том</w>
амери ка
а фри
Э ли
Ф ра
Проек т</w>
По рт</w>
Остан ній</w>
М м</w>
Д и</w>
ver sion</w>
re ad</w>
er y</w>
d at
K o
якого сь</w>
шту ку</w>
ш ці</w>
ш ери
чека в</w>
тео рії</w>
те ґ
скрип тів</w>
середи ни</w>
ру ко
розумі є</w>
раз обра
раді о</w>
ра ції</w>
прива бли
надсила ти</w>
на ве
н ців</w>
ма кро
ком фор
запла нова
за в</w>
дорівню ватиме</w>
докумен ті</w>
га зу</w>
бра те</w>
З вер
Інтер фей
e c</w>
я по
цій ну</w>
ц i</w>
ха о
т рю
стар ший</w>
ста ра</w>
спі льних</w>
секре т</w>
пі нь</w>
псевдо ні
пріори те
посмо три</w>
по х
по нрави
пла нування</w>
од ні</w>
мл н</w>
мину ту</w>
мене дж
лі тер</w>
лен ою</w>
зде більшого</w>
дума ет</w>
відсут ність</w>
выгля дит</w>
втек ти</w>
воро га</w>
вигляда тиме</w>
вели чина</w>
в жи
бо ло
Фран цу
С во
Ка кая</w>
За пам</w>
Е ё</w>
Го л
Ви мк
Ім пері
c an</w>
ar d
Ne w</w>
C oun
A pp
іно зем
ча сти</w>
ч e
ува лися</w>
т ники</w>
сі сти</w>
спе ціалі
спа дного</w>
сер це
рів нова
проси в</w>
по сто
пере ста
па м
о во
на каз</w>
мерт ва</w>
масшта б</w>
ку па</w>
кон це</w>
змін ну</w>
збро є
дна я</w>
відчу ти</w>
вы пи
ви являється</w>
ви нова
ви к</w>
ба л
адміністра тора</w>
а німа
Ча н</w>
Справ ж
Систе ма</w>
О у</w>
О бли
p i
їх нього</w>
щ его</w>
чека ють</w>
хоті лося</w>
тур бо
т .</w>
справж ньому</w>
пря му
помі р
позбу тися</w>
пла ни</w>
ни на</w>
ни кому</w>
намалю вав</w>
мільяр ди</w>
ло н
каталог и</w>
использо вать</w>
изве стно</w>
забра ть</w>
забезпе чити</w>
електро н</w>
дові ряти</w>
говоря чи</w>
відкри тим</w>
во ді</w>
вигля даєш</w>
ва лися</w>
в пев
бы в
бло кування</w>
бе т</w>
Те х
Ра ніше</w>
Пі ктогра
По мі
Ком по
Велико брита
Амери кансь
en .</w>
S V
C V
ї сь</w>
інстру ментом</w>
імпері ї</w>
чер то
че стно</w>
те лями</w>
сай та</w>
ре чення</w>
ре ально</w>
про цен
прия тно</w>
при ходять</w>
при сто
пов ну</w>
по льо
по кло
ори гіна
ог ро
обі д</w>
наз вали</w>
мі к
му зы
можли ве</w>
мен у</w>
клавіатур ні</w>
збро я</w>
з нa
до чку</w>
гу р
годи на</w>
висо ту</w>
ви діля
вер са
бри д
бо лю</w>
У вага</w>
С хід
П ло
Еле мент</w>
ke y</w>
C o
яд ро</w>
ш тей
у триму
у війти</w>
те л</w>
си льний</w>
серед ній</w>
під го
пыта ется</w>
прийня в</w>
по шли</w>
пла ну</w>
пер и
остави л</w>
облі ковий</w>
не відо
н ный</w>
мере жу</w>
мень ше</w>
лі м
кі лог
й діть</w>
зо в</w>
з ба
ж ів</w>
доступ них</w>
дивля ться</w>
вби вати</w>
ва лась</w>
в ля</w>
би зне
Швид ко</w>
Мер і</w>
Збіль шити</w>
Джей ко
Вели ка</w>
Ав жеж</w>
ukr ain
f t
D T
ін фра
ін ф
яз ы
щен а</w>
ща ю</w>
фоку с</w>
у зго
тру бку</w>
типо м</w>
т ч</w>
т ників</w>
ска жуть</w>
середо вищі</w>
провер ить</w>
пред по
полі п
поли ции</w>
подіб них</w>
об різа
нарко тики</w>
на ла
на кла
н ко</w>
лі жка</w>
лі вої</w>
ль ной</w>
ли тися</w>
контро лем</w>
компа нію</w>
й она</w>
закін чується</w>
жа ет</w>
е д
диви шся</w>
го ль
верну лась</w>
Э ми</w>
Сподіва юсь</w>
Ра да</w>
О став
Мене джер</w>
Ко лись</w>
За сіб</w>
З го
Б рен
wor k</w>
under GPL</w>
op ete</w>
oo .</w>
P O
K O
чі т
част ково</w>
ч ные</w>
харак тер
фотогра ф
сті н</w>
смо три
се ла</w>
с ував</w>
рі ст</w>
про тив
про куро
по ду
окре мого</w>
не багато</w>
натис нете</w>
мо ем</w>
лі ній</w>
й ку</w>
зна нь</w>
запуска ти</w>
за был</w>
за бути</w>
з діб
дізна лися</w>
диви мось</w>
д a</w>
всі єї</w>
волну йся</w>
во станнє</w>
ве й</w>
вважа ється</w>
в ли
б н</w>
альтер на
При пустимо</w>
Особ ливо</w>
Ма єш</w>
Висо та</w>
Бли зь
Б ого
І сторі
er .</w>
coun ties.</w>
c ut</w>
чи ні</w>
че ві</w>
філь му</w>
те нан
с ное</w>
регу ляр
ре мон
ради ка
про позиція</w>
прин тер</w>
позво нить</w>
пла ту</w>
пер ері
остан ньої</w>
обо є</w>
о чере
о тож</w>
муль тиме
м б</w>
ку дись</w>
кож ним</w>
ка кого</w>
име ть</w>
зна мени
зай має</w>
з могла</w>
ж ник</w>
ду ють</w>
дрі б</w>
дизай н</w>
д ого
гі лки</w>
від творити</w>
ві ї</w>
ви жити</w>
вечер ю</w>
ва го
в ро</w>
бли ску
би л</w>
а еро
Три майся</w>
Спокі йно</w>
Сві тового</w>
Пу сть</w>
На скільки</w>
Мі стере</w>
М И</w>
Бо льше</w>
Б ля
Афри ки</w>
z e</w>
ma ke</w>
SS L</w>
2 9</w>
і гно
шука в</w>
цтво м</w>
хворо би</w>
фп хт</w>
трикут ник</w>
това р</w>
те рами</w>
тво рів</w>
та я</w>
скла дає</w>
свід чення</w>
різ ниці</w>
рас следо
пре ду
пога не</w>
повідомлен нями</w>
об разом</w>
матеріа ли</w>
которы м</w>
квадра тних</w>
ка й
золо та</w>
змі ша
зго ри</w>
запи ту</w>
же р</w>
діля нки</w>
дружи ни</w>
до чка</w>
до лі</w>
до вий</w>
д a
відкри ті</w>
вивча ти</w>
Розумі єте</w>
Па н</w>
П РО
О тримати</w>
Ма ль
За вда
Г оді</w>
f ind</w>
P P
C D
яй ця</w>
ше сти</w>
ті лі</w>
тяг ну
сцена рій</w>
стра ху</w>
сподіва юсь</w>
собира лся</w>
сло вно</w>
систе мах</w>
свідо мості</w>
поді я</w>
перей мен
обме жен
о пір</w>
о куля
нена виджу</w>
на прав
муж чина</w>
множи мо</w>
ме ч</w>
ло сть</w>
ка мі
же мо</w>
ен ие</w>
довер я
гово ря</w>
відмін ності</w>
відбува ються</w>
відбу лося</w>
від чував</w>
впа в</w>
воро гів</w>
величез ний</w>
ба ра
Пого ди</w>
Наполе он</w>
Ма с
Коль ори</w>
Кла с</w>
Звича йний</w>
umb er</w>
str ic
pre f
ic k</w>
IN G</w>
хоро шая</w>
ужи н</w>
у са</w>
тив не</w>
та бо
т к
схо вати</w>
сфер и</w>
су ка</w>
стріля ти</w>
ст ы</w>
си ній</w>
си нку</w>
се г
само ї</w>
с ких</w>
пыта лась</w>
прикла ди</w>
при швид
поши рення</w>
поведі нка</w>
по середині</w>
пись мо</w>
на дру
мі тку</w>
ля ють</w>
ло тка</w>
ко п</w>
здат на</w>
запи сувати</w>
зако ни</w>
за ли</w>
жж я</w>
до ля</w>
де тка</w>
гор нути</w>
голо су</w>
відсо ток</w>
ві тер</w>
встре титься</w>
воро та</w>
во круг</w>
вищ ий</w>
б i
а пле
а п
Ф ар
Ру ки</w>
Реда гування</w>
Но ве</w>
Може мо</w>
Го н
Ви гля
ur s
or t</w>
li b
am er
N o</w>
K Mail</w>
4 8</w>
інди ка
і ти</w>
шту ки</w>
член и</w>
че мпі
ч ь
хі рур
ха є</w>
фай лом</w>
уни что
убий ца</w>
тю ар
тен тифіка
сто та</w>
спа в</w>
со хра
свідо мість</w>
са мог
с кро
ру ці</w>
про кру
при вы
под зво
отрима ю</w>
органі з
о ру
нері в
н нях</w>
н ни</w>
муля тор</w>
кад рів</w>
к та
зада чі</w>
ду пу</w>
ди мо</w>
гу чності</w>
від кла
власти вість</w>
ви явлення</w>
вез ли</w>
в лу
Ш ар
С тюар
С першу</w>
Пу нк
Дру кувати</w>
Де ло</w>
В ну
Інтерфей с</w>
D B</w>
- Так</w>
їх ня</w>
і талі
яза них</w>
чу вст
хо тим</w>
усвідом лю
у пх</w>
у збере
ті ні</w>
тор кну
ти ну</w>
спро мож
спи ть</w>
сні г</w>
скопі ювати</w>
ск різь</w>
с ня
різномані тні</w>
різ нови
ре пети
пол ко
показа ть</w>
пока зують</w>
пере буває</w>
п ру
маль чик</w>
любо вь</w>
ли це</w>
кі не
йсь кої</w>
й о</w>
зни щи
зву кових</w>
за х</w>
за трима
за ти
за тем</w>
деше в
ва д</w>
а но</w>
Ь l
С эр</w>
Про тягом</w>
Бу ду</w>
А Т
Єги п
mon th</w>
ґ рун
єм но</w>
чи ку</w>
чер ги</w>
типови м</w>
та ком</w>
сте ження</w>
сер ди
револю ція</w>
прой шло</w>
постоя нно</w>
полови ною</w>
погля немо</w>
повто рно</w>
певнен ий</w>
п й</w>
нен ь</w>
напри кінці</w>
мисси с</w>
мед ленно</w>
ме ло
ма лі</w>
и наче</w>
зі рка</w>
за ку
ела сти
дола ри</w>
відкри вати</w>
все світу</w>
викону ється</w>
вен ти
бе к
Не й
Леона рд</w>
Кі нець</w>
Кар тер</w>
За пуск</w>
З вантажити</w>
Дру гий</w>
В ан
В i
vers ation</w>
l us</w>
install .</w>
de f
a vi
E N
інте рак
ін ститу
чор ні</w>
учас ників</w>
ува лись</w>
т тів</w>
ск ля
симво лу</w>
с вер
роз ва
роби ться</w>
ризи к</w>
результа ту</w>
пх ме</w>
про голо
припу щення</w>
по й</w>
по воду</w>
оста точ
нав колиш
ма ється</w>
ля ться</w>
кон тинен
зга дати</w>
завер шен
діапазо н</w>
ді єю</w>
джере л</w>
де хто</w>
відсо тки</w>
ві сь</w>
в хід</w>
бере мен
Шко да</w>
Фро до</w>
Та р
Во л
Ва ми</w>
І гнорувати</w>
Євро па</w>
s on</w>
l i</w>
Coun try</w>
B us</w>
шука ли</w>
ціка ве</w>
цій не</w>
холо дно</w>
тру дно</w>
тен ден
т уватися</w>
суд дя</w>
соло д
соба ка</w>
си т</w>
розкла ду</w>
ро сте</w>
при но
при кра
прав ди</w>
потрапля є</w>
подума ємо</w>
под ба
по шла</w>
пере стань</w>
па ца
обіця ю</w>
ну т</w>
ни ло</w>
нау ков
назива ються</w>
можли вістю</w>
кро ки</w>
компакт -</w>
кан ди
й ной</w>
змен шення</w>
запу ск</w>
відповід ної</w>
ві вален
бе с
англійсь кою</w>
альбо му</w>
адвока т</w>
Робо та</w>
Р обі
П ЕР
Ко ло
Ві кі
В сього</w>
Бу дь
Ав стра
H e
F ran
яза на</w>
я дер
э н</w>
ч чя</w>
фізи ки</w>
фотогра фи
то ваний</w>
сооб щение</w>
роз рахо
реаль ність</w>
пом нить</w>
подіб ного</w>
пода лі</w>
пи во</w>
пере лік</w>
окру г
о пу
на тов
моли т
ма тимемо</w>
ліцен зія</w>
любо м</w>
кори стування</w>
ко вані</w>
ка ть</w>
змі нна</w>
задово ль
жден ие</w>
дозво лив</w>
де кількома</w>
гу ю</w>
гото вы</w>
відкри в</w>
б a
ато мів</w>
а ле
У гу</w>
Стан дарт
Серйо зно</w>
С т
С пен
По мог
Н І
Мі ж</w>
Ко мпа
Ді я</w>
off ice</w>
o on</w>
E N</w>
8 -</w>
чо вен</w>
ча ло</w>
ч ці</w>
х айся</w>
у склад
трима й</w>
тео ре
та ли</w>
спи тати</w>
сле д
рів но</w>
рю вання</w>
робо чих</w>
працю вало</w>
попроси в</w>
пока зу
неде лю</w>
му жа</w>
ми ру</w>
лі сі</w>
компа ній</w>
запита є</w>
з диво
ді а</w>
ду жки</w>
де ться</w>
да вні
голов ним</w>
від будеться</w>
вдо скона
вi н</w>
біль ші</w>
біль шою</w>
ан т</w>
Те м
Т Е</w>
Стри вай</w>
Моло дець</w>
Л И</w>
И х</w>
p y
R A
M i
і р
фу р
у ра
спо рт</w>
се лі</w>
сво ё</w>
с ко</w>
роз слід
підвищ ення</w>
прикла дом</w>
при нять</w>
понима ете</w>
оке ан</w>
о ся
но с</w>
нас чёт</w>
наде я
на ції</w>
муж чи
мпан зе</w>
коро лем</w>
коман ді</w>
закін чити</w>
за ду</w>
з ы</w>
електро нів</w>
дзві нок</w>
гра м</w>
го ра</w>
г не
війсь ка</w>
ві ль
вла да</w>
благо ві
Шабло н</w>
Ц РУ</w>
Та то</w>
Сі дай</w>
Сти ль</w>
С ем</w>
Продов жити</w>
З бі
До ста
Вер сія</w>
r y</w>
qu ant
la r</w>
k s</w>
Jo h
F S</w>
я на</w>
щи ну</w>
че н</w>
тив ної</w>
спа сибі</w>
скаже мо</w>
сест ру</w>
сем ью</w>
са д</w>
рі г</w>
роз мову</w>
ресто ран</w>
про стого</w>
при кры
потенці ал</w>
под дер
по тря
п но</w>
ор і</w>
ней тра
написа ння</w>
написа ла</w>
навчи тися</w>
н ф
ми р
май стер
компонен т</w>
кни зі</w>
й ство</w>
зіт к
забра в</w>
е в</w>
допо міг</w>
до кази</w>
ди ни</w>
дела ла</w>
да ну</w>
галу зі</w>
вугле цю</w>
впоряд кування</w>
ви р
ви знати</w>
в бу
божеві льний</w>
боже во
б рен
альбо м</w>
Те о
Прости й</w>
Моду ль</w>
Максима льна</w>
Е ди
Джес сі</w>
Де від
Ін ша</w>
tro l</w>
le ase</w>
c op
a h</w>
UN IX</w>
MI DI</w>
K S
ч ували</w>
ціка ві</w>
ходи л</w>
фор те
умер ла</w>
ті ю</w>
ту ї
су ють</w>
су ттє
страте гі
спа ла</w>
слай дів</w>
ско р
розпові дав</w>
ра ти</w>
попро бу
пове зло</w>
п л
п pи
остан ньому</w>
оста лось</w>
намага ючись</w>
най гір
на далі</w>
на ва
малю нок</w>
лі ю</w>
л ла
ко но
кни жку</w>
клі ма
и ро
зб ре
зако но
за чекайте</w>
выбо р</w>
ву гі
в зу
актив ного</w>
Э ТО</w>
Шу кати</w>
Т ен
Пере глянути</w>
Е Я
До н</w>
Де хто</w>
w at
us r</w>
si ze</w>
f rom</w>
T im
L anguage</w>
IS O</w>
I ma
яс о</w>
чеб то</w>
фай лах</w>
тво ё</w>
су прово
стре ля
солда т</w>
сер ва
свида ние</w>
програм ування</w>
покращ ення</w>
поді ю</w>
погля нь</w>
особ а</w>
ног ами</w>
нер ухо
напря м
мови в</w>
лиш ком</w>
ка зує</w>
змен ши
записа но</w>
замі нено</w>
зада ч</w>
за я
долла ров</w>
дозво лить</w>
двад цять</w>
да т</w>
ві ру</w>
вті к</w>
буді вни
бай тів</w>
автобу с</w>
Ч И
У ей
С тов
О К</w>
Ні би</w>
Нор ве
Ми сс</w>
К од
За будь</w>
Вели кого</w>
В Ы</w>
s ec
mp layer</w>
m in</w>
ap h
T и</w>
PD F</w>
і мя</w>
ші ст
шири ну</w>
чу ються</w>
хоче тся</w>
тяг нути</w>
тт ями</w>
то кси
т ый</w>
стандарт не</w>
спробу ю</w>
спи ну</w>
смо три</w>
сво ими</w>
розумі ємо</w>
робі т</w>
р ё
підоз рю
пре вра
по тік</w>
по рт
по купа
пло дис
на томість</w>
на став</w>
на пів
на ляка
мо на
м рії</w>
м Э
ле кар
л кою</w>
кон су
кері вни
катего рію</w>
к ла</w>
зустрі в</w>
зміни ли</w>
змі нить</w>
за ло
діли мо</w>
допо можу</w>
дела ем</w>
д .</w>
ган т
виня тком</w>
ви рази</w>
вели чини</w>
вважа ли</w>
бра ть</w>
Щ и
Ш ер
Ф ін
С лы
Й демо</w>
Завда ння</w>
Ви бра
por t</w>
k st
c e.</w>
at -</w>
M an
F il
ї сть</w>
шука ють</w>
шля хів</w>
ціка ва</w>
худож ник</w>
філь три</w>
фаль ши
твер дження</w>
та ет</w>
суди ни</w>
столі тті</w>
стари х</w>
розви ваються</w>
редакто рі</w>
прой шли</w>
по чка</w>
по сте
па в</w>
особли вий</w>
о хра
нен е</w>
нача л</w>
напря мок</w>
мі сте
му ю</w>
масшта бу</w>
ко тра</w>
зроб лені</w>
за ряд</w>
за реє
дія льність</w>
деся тко
голо д
га даєш</w>
відхи лення</w>
встре ти
вля є</w>
взаємо дії</w>
ва ємо</w>
ан ї</w>
Че сно</w>
Слу ха
Про фе
Па в
Лу ка
Вер х
В вімк
Б У
us e</w>
ta ke</w>
D o</w>
шриф ти</w>
ше ш</w>
чер га</w>
че т
хро мо
ходя чи</w>
стовпчи ка</w>
сто ле
стан ції</w>
спита в</w>
со тень</w>
си ну</w>
с ро
росли ни</w>
пі ло
про тя
пред ставить</w>
познайоми тися</w>
по ходить</w>
от каза
од них</w>
не се</w>
не мов</w>
наяв ність</w>
найкращ им</w>
на ци
льни ком</w>
кре п
користува чі</w>
клу б</w>
йде шь</w>
ин тер
зе ль</w>
засоб у</w>
донь ка</w>
ди во</w>
відповід ну</w>
ві на</w>
всь кий</w>
ви гото
вели кими</w>
без робі
Шта тів</w>
По ш
Клі єнт</w>
З роби</w>
До й
u re
m y
kal arm</w>
en g
C ar
інтер пре
чу сь</w>
че пи
ч ю</w>
ч ня</w>
су бо
сти ки</w>
склад ні</w>
робо тою</w>
реак ції</w>
рас сказал</w>
рази ти</w>
підпи су</w>
пів ночі</w>
потрапи в</w>
послідов ності</w>
пов на</w>
плане ту</w>
не сен
моло дий</w>
ман д
м ма</w>
кро й</w>
ко п
клац нути</w>
и дет</w>
за зна
за ареш
га дав</w>
г ни
Чар ль
С порож
П ё</w>
П ай
Неу жели</w>
Мі сіс</w>
Ма к</w>
Лю бо
Д жим</w>
y ah
t on</w>
sel ect</w>
W at
R ob
O k
N ot
1 -</w>
і ді
ё д</w>
ю тером</w>
щу є</w>
ці н</w>
це лу
уч нів</w>
това ри</w>
с ним</w>
ру ка
ри лись</w>
президен та</w>
початко вий</w>
помі тили</w>
подола ти</w>
по кін
пи ро
пере мог
пар нем</w>
означа ет</w>
носі й</w>
най ду</w>
ми лий</w>
кори до
ко де
и спор
засоб ів</w>
за н
жи ми</w>
жи ві</w>
ду ш</w>
до ло
дире ктор</w>
диви сь</w>
гру ди</w>
голо воло
годи ти</w>
гал ере
вуз лів</w>
влас ної</w>
бы стрее</w>
бог а</w>
бала чки</w>
С ім</w>
С я
Ко лум
Вікі пе
Б ор
Абсолю тно</w>
І діть</w>
yah oo.</w>
th em</w>
ou ch
m y</w>
kon tact</w>
d ing</w>
at h
A C
є ра</w>
щ ів</w>
щ оби</w>
швид ко
собира ется</w>
слуха є</w>
са ду</w>
роз поча
роб у</w>
рецеп т</w>
прине су</w>
прид ётся</w>
по цілу
оди нці</w>
назива ю</w>
на лаш
май стер</w>
кур се</w>
кра м
й ним</w>
и мени</w>
зро би</w>
звичай ні</w>
займа ється</w>
заверши лася</w>
емо ції</w>
ек с
ей т</w>
дис ків</w>
ген у</w>
відже т</w>
в лашто
в верх</w>
Цен тр</w>
Ф р
У ні
Р ад
Побачи мося</w>
По їхали</w>
Н i</w>
За лиши
За вантаження</w>
Жур нал</w>
Г и
В С
ta b</w>
di stric
c la
as h</w>
ar y</w>
чен ия</w>
фар бо
служ б</w>
про позицію</w>
пло ща</w>
пла та</w>
перегляда ч</w>
от цом</w>
налашто вано</w>
на сколько</w>
ло в
кращ ого</w>
корис ним</w>
зміни в</w>
зд огада
за мок</w>
за дія
за гля
за будьте</w>
друго е</w>
дов зі</w>
демон стру
де ка
га ра
га з</w>
вс ки</w>
ви рівню
ве дь
ва ку
ва ди</w>
беспоко и
Х ут
У би
Типо ва</w>
С ак
Поперед ній</w>
По рож
По значення</w>
К л
Ин огда</w>
За спокойся</w>
Ві дій
І р
un icode</w>
o p</w>
distric ts.</w>
di gi
S A</w>
CV S</w>
2 .
ї на</w>
і н</w>
я ні</w>
ща ться</w>
ту ється</w>
сі ме
спо н
со ві</w>
сле дить</w>
расска зыва
про пуска
при шёл</w>
подоро жі</w>
пере бува
особи сті
о зброє
но ві
на по
на ди
н ну</w>
ло сті</w>
лен ому</w>
короле ва</w>
квадра т</w>
ка ким</w>
знай де</w>
здат ний</w>
зао щад
за муж</w>
демон стра
голо сом</w>
від няти</w>
во до
в те
боль шая</w>
архі ву</w>
Хол мс</w>
С у</w>
Полі ція</w>
Повто рю
По лагаю</w>
Ни к</w>
Ка тего
Зо всім</w>
Д я
В А</w>
Бра й
n ot
i an
g o</w>
H a
F I
чи ми</w>
чере па
цін ність</w>
ціка вий</w>
ці я
та ту
сто лі</w>
самог уб
с ная</w>
роз слаб
посту пово</w>
помі ч
пожа ловать</w>
по жерт
па ні
нсь ких</w>
не доступ
напря му</w>
на мальо
мо вами</w>
мину тку</w>
лі т
людсь ких</w>
ли сто
ко ня</w>
истори я</w>
ис чез
зву чит</w>
збира єтеся</w>
заслу жива
за м
за були</w>
жо ден</w>
додат ки</w>
де ц</w>
годин ник</w>
відобра жа
вы стре
втра тити</w>
б т</w>
Серь езно</w>
Пом нишь</w>
По ле</w>
По зи
Ка жуть</w>
Змен шити</w>
Го ризо
Ви кли
Англі ї</w>
i an</w>
as s
Post Script</w>
5 5</w>
є н</w>
ю щие</w>
ч ін
ці лого</w>
труд но
то ро
сма к</w>
ру п
ру ет</w>
рез юме</w>
ра ді</w>
продук ти</w>
при люд
при зем
пра вій</w>
потребу ють</w>
поточ ні</w>
по тра
перегляда ча</w>
пев ному</w>
пев на</w>
обере те</w>
о знайоми
ня ет</w>
ни цы</w>
на пуга
на пар
ми ра</w>
лі зація</w>
ль ці</w>
луч ший</w>
к i
й ці</w>
діа гно
геро я</w>
відпові дей</w>
від гу
вря тував</w>
вопро сы</w>
вби вства</w>
в виду</w>
Я ку</w>
Я ким</w>
Ш он</w>
Та к
Ро сі
Пере хід</w>
Пере гля
О бе
Ми сси
Дер жи</w>
Візь міть</w>
В огонь</w>
se ar
b y</w>
W e
D at
2 -</w>
і мовір
шкі ри</w>
чё рт</w>
чо мусь</w>
ходя т</w>
філь ми</w>
ф ф</w>
т ный</w>
т .
створен а</w>
ста те
сре д
с фор
рів нів</w>
рен ия</w>
ре д</w>
пусти ла</w>
провід ник</w>
причи ну</w>
прекра сна</w>
пре м</w>
послед ние</w>
познакоми ться</w>
пере вищ
о ч
о ле
ми ни
ма мою</w>
ль ное</w>
логі чно</w>
ле дь</w>
л o
кух ні</w>
ка т</w>
ка піля
к нув</w>
и зу
зні мку</w>
за хід</w>
же те</w>
дов ба
да не</w>
гра ли</w>
выхо д
вы пить</w>
все му</w>
вин ува
величез ні</w>
величез на</w>
в друг</w>
в amount</w>
бра тів</w>
багать ма</w>
а раб
Т вої</w>
Т Б</w>
Стов п
П ога
П ан
Коро т
Кори стування</w>
Зав дяки</w>
За ле
Гене ра
В зя
А ген
y .</w>
s ch
b eg
b a
P E
An d
3 60</w>
істо ти</w>
я ти
ши мпанзе</w>
чи тися</w>
ча л</w>
ці ла</w>
цар ство</w>
фінан сування</w>
сь є</w>
стави ли</w>
спо в
сла ва</w>
симво лом</w>
с Я
рі д</w>
розроб ників</w>
работа ю</w>
ра ун
піді р
підтриму ються</w>
підтриму ють</w>
початко вих</w>
посила нь</w>
поперед ньо</w>
понадоби тся</w>
показ уватиме</w>
позна чите</w>
подозре ва
по та
плодис менти</w>
пита н</w>
пер шій</w>
обере жно</w>
нь ся</w>
на дають</w>
лі вого</w>
л ло</w>
контро ли
к ки</w>
защи тить</w>
зага льних</w>
да ної</w>
глиб ше</w>
га л</w>
вс як
ви явля
ве демо</w>
бі гти</w>
больни це</w>
аналі зу</w>
ак цен
Типо ві</w>
С казала</w>
Рі чард</w>
Рай ан</w>
Пока з</w>
По ли
П РИ
На в
Дру га</w>
Гі т
Г а</w>
Бар бі</w>
rit ain</w>
mar k</w>
gre at-</w>
fran ce.</w>
c re
b ritain</w>
K Char
4 9</w>
ы вать</w>
ходи м</w>
ф ом</w>
у сю</w>
тя жело</w>
технологі я</w>
сти х</w>
розі р
рап тово</w>
про шло</w>
припи нити</w>
пред ставити</w>
потеря л</w>
покла в</w>
побудо ви</w>
побли зу</w>
пи ше</w>
отрима єш</w>
орга ни
обся г</w>
об робля
ня ється</w>
ни з</w>
неде ли</w>
не ром</w>
не приєм
мо рі</w>
кон вер
клі ні
кар бо
к ен
ер у</w>
дов ого</w>
дела ют</w>
грі хи</w>
ву йте</w>
ви лі
версі й</w>
Яко сь</w>
Э л
Фран ція</w>
У спі
Т ран
Спо ко
С віт</w>
Пі дій
Ме та
Кита ю</w>
Ймовір но</w>
Де сь</w>
Ба чу</w>
Б ай
Автоматич не</w>
Ін шими</w>
us er
il ipp
en e</w>
e a</w>
F ac
ё н</w>
шта т</w>
шко лы</w>
шко ла</w>
ш ів</w>
чер зі</w>
це ві</w>
у видел</w>
тив ним</w>
тель ства</w>
студен ти</w>
стои ло</w>
сто лу</w>
спіл ку
спро бу</w>
сигна лу</w>
свобо ди</w>
с прийняття</w>
розпові дати</w>
ри си</w>
пх н</w>
процеду ри</w>
при над
прекра сний</w>
прав ого</w>
постави в</w>
поспі ша
поня тия</w>
позво лить</w>
под робиці</w>
погля ньте</w>
перекона ти</w>
перекла ду</w>
перегля дати</w>
пек ло</w>
отримува ча</w>
оголо шення</w>
обяза тельно</w>
ну вши</w>
на трі
міс цем</w>
ма ту
ма р</w>
ма ло
ль ми</w>
ли мо</w>
л ком</w>
комбіна цію</w>
клавіатур них</w>
ки н</w>
карти ні</w>
капіта н</w>
к ци
й ної</w>
зві л</w>
за гро
жен ого</w>
жа нт</w>
дозво лено</w>
г o
відкри йте</w>
ві льні</w>
возь му</w>
висо ти</w>
бхф ь</w>
ау діо
атри бути</w>
а каде
а а
Та н
Та бли
Р эй
Під каз
Норма льно</w>
Мас шта
Джере ло</w>
І ден
por t
n am
lat ex</w>
A mar
індивіду аль
інде кс</w>
ч ке</w>
уби в</w>
три н</w>
тво ря
сто ї
спі й
смі ття</w>
с лї
реаль ному</w>
ре спублі
продов жує</w>
програ мами</w>
посмо трим</w>
пого джу
пере клад</w>
от печа
опера ція</w>
оди ницю</w>
на дання</w>
н ту</w>
малень кого</w>
компонен тів</w>
комна ту</w>
ко ней</w>
кля нусь</w>
и ма</w>
зи н</w>
за би
же ю</w>
ду ша</w>
ди ску
джен тль
детек ти
глаго лю
гаду ю</w>
відпові ла</w>
вто рой</w>
встанови ли</w>
вели чину</w>
буди нки</w>
бо ль</w>
безу мовно</w>
а посто
Хоро ший</w>
С коро
Под робиці</w>
Некорект ний</w>
За м
Еди нствен
Гар на</w>
s a</w>
r a</w>
Short cut</w>
Ser ver
ін туї
ыва ет</w>
чи ною</w>
ч не
фотографі й</w>
у част
у ез
ти ни</w>
т i
сти лю</w>
став лення</w>
сер жан
семь е</w>
с кон
розши рення</w>
роди тели</w>
ри ш</w>
при сла
поч нуть</w>
поперед ньої</w>
поло ження</w>
под твер
пере ходу</w>
но вано</w>
не по
не а
ма си
ля цію</w>
лю б</w>
кі но
контра ст
кон центра
к ек
интере сно</w>
закінчи ться</w>
зага льного</w>
жен ии</w>
е ль
деся тилі
графі чного</w>
г .</w>
відноси ни</w>
ві чно</w>
выгля дишь</w>
ву д</w>
вод ню</w>
вив чити</w>
вибра не</w>
вертика льно</w>
ве дуть</w>
бать ківсь
ба з</w>
аналі з</w>
Чу єш</w>
Це за
Френ к</w>
То т</w>
Т И</w>
Слу шайте</w>
Ро сії</w>
При не
На у
К ни
К ем
Дэ ни
Дек стер</w>
Де ла
Ві л
Ве се
Авто ри</w>
А вра
ti an</w>
text box</w>
t al
k i
ilipp in
il ot</w>
ha el</w>
eb ook</w>
ch ang
Mat th
C D</w>
A kon
1 3
ю чу</w>
ь т</w>
ша ет</w>
чувству ешь</w>
ціл кови
хви льо
у слышать</w>
струк тура</w>
соба ки</w>
слыша ли</w>
сен ь
с Ь
рів не</w>
рі б
розум ний</w>
ро ками</w>
результа том</w>
пу та
про від</w>
приго тування</w>
преступ ления</w>
пош ту</w>
полі ти
по стра
пле вать</w>
пей за
ответ ствен
обо ж
о поз
ня ла</w>
на шою</w>
мультиме дій
молеку л</w>
ме ст
ма тери
ло рд</w>
копі ю
к City</w>
змі ст</w>
за ві
жи р
ду хов
довід ку</w>
держа ви</w>
дар ю</w>
ге ографі
вибу х
ви разів</w>
бо ки</w>
б o
Шта тах</w>
Шел дон</w>
Х ай
С э
Розта шування</w>
Про дол
Помог ите</w>
Ката лог</w>
Да вно</w>
Все світ</w>
Ви являється</w>
Бо л
Бать ко</w>
А Н
ne w</w>
k opete</w>
інвести ції</w>
ща ми</w>
шта м
тро н</w>
та кій</w>
страш ного</w>
сторо не</w>
сан тиме
під гото
про стя
про мі
при їхали</w>
при соеди
потріб них</w>
поверну лися</w>
пере слід
оці нку</w>
ос мо
о цен
нес ення</w>
невда ло</w>
нав чити</w>
на бира
ма тимуть</w>
людсь кої</w>
ли стів</w>
куп увати</w>
ку ра
координа т</w>
к a</w>
изве ст
знамен ник</w>
закін чили</w>
за між</w>
журна лі
ді ло</w>
до чер
диха ння</w>
ди ш</w>
ди тя</w>
ден ий</w>
дево чка</w>
гі дро
гар не</w>
ві в
возмож ность</w>
во ю
бра ттє</w>
б би</w>
Ста рий</w>
С Ь</w>
Повто рити</w>
По діб
Отрима ння</w>
Дол жно</w>
Ви н
ti n</w>
pro vinc
n a</w>
lin e</w>
k tt
h f
enc e</w>
C H
B u
чі й</w>
чу ємо</w>
ца ми</w>
ц и</w>
уб т</w>
у шла</w>
у сьому</w>
три ває</w>
тич ним</w>
стоя ли</w>
сто ю</w>
спо ну
соба к</w>
сер тифі
ри т</w>
рецеп та</w>
проек том</w>
проводи ти</w>
при звести</w>
пор та
показа ли</w>
поговори м</w>
повто рити</w>
по їхали</w>
пар та
оці нити</w>
объяс нить</w>
нови на</w>
необхід ні</w>
наступ ну</w>
му суль
ме ш</w>
матема тики</w>
ле тів</w>
компонен та</w>
заголов ків</w>
жен ы</w>
експо ртувати</w>
до мі</w>
да ча</w>
викли ку</w>
вигля дав</w>
вечери нку</w>
важли вих</w>
буді ве
ба зі</w>
б л
Т рі
Під сві
По лу
Ма ти</w>
Ка кие</w>
ИТ Ь</w>
За лиш</w>
Додат ково</w>
Доб ро</w>
Дже к
Ва жко</w>
В міст</w>
vi ew</w>
provinc es.</w>
l it
La TeX</w>
IP -</w>
Gn u
7 2</w>
200 6</w>
єди ним</w>
ці ї
ці а
хво рий</w>
ф Ь
у ль
у диви
трима ння</w>
тре бу
су ємо</w>
сту р
сти скання</w>
спла ти</w>
сер дя</w>
с City</w>
розши рю
ро сти</w>
ри те</w>
реши ла</w>
про ходять</w>
пої ду</w>
по рівню
п ят
ото чення</w>
не которые</w>
на певне</w>
можли востями</w>
моди фіка
мо сти</w>
ло тку</w>
каже мо</w>
ка м
зо вані</w>
з ди
графі ку</w>
графі ка</w>
голов ному</w>
вс ей</w>
во лю</w>
вимі ру</w>
ванта жі
в ня</w>
ато ми</w>
абстра кт
Ч ис
Створю є</w>
Ста рк</w>
Про чита
По том</w>
Пере мкнути</w>
Наступ ного</w>
Му ад</w>
М мм</w>
М Е
Ко д</w>
Зву чить</w>
Все світу</w>
Вер тика
Бу д
А мінь</w>
wh it
trans action</w>
ph ilippin
philippin es.</w>
p d</w>
op ert
k sp
digi K
conf ig</w>
C P</w>
шу ть</w>
цій ним</w>
циф р</w>
х і</w>
х ого</w>
фз т</w>
трьо ма</w>
трима ю</w>
три вог
това рів</w>
сту пити</w>
ска сування</w>
світо вої</w>
связ и</w>
с си</w>
роз ду
рен о</w>
раді стю</w>
проси ти</w>
про слу
прий дуть</w>
прий ду</w>
праці вників</w>
пошко джен
пол ностью</w>
поверх ню</w>
поверне мося</w>
пов но</w>
пере сувати</w>
пере микання</w>
опти мі
обеща ю</w>
ну ж
наси чен
намага ємося</w>
на столько</w>
на га
ми Name</w>
ль ная</w>
лог а</w>
ки та</w>
ке шу</w>
истори и</w>
и ду</w>
за то
д жено</w>
гра ді
го ті
га в</w>
візу алі
вро бі
вля ти</w>
висло в
ве сти
важ че</w>
Э того</w>
Сю да</w>
С лишком</w>
Роз ши
Реб ята</w>
При чина</w>
По дож
Обме ження</w>
Ко то
В ре
В поряд
Бі жи</w>
Б рази
А на
v .</w>
l ate</w>
k office</w>
d ate</w>
2 50</w>
і ди</w>
щасли ві</w>
ше ль</w>
хоте лось</w>
фі ї</w>
тексто вого</w>
т ства</w>
су мі
ст ень</w>
сло жно</w>
само т
с ми
розподі л</w>
ро ма
регі стру</w>
підтрим кою</w>
пріори тет</w>
пору шення</w>
получи тся</w>
по треба</w>
опи су</w>
ни ні</w>
нен им</w>
не зви
мі ю</w>
мог ра
ме ць</w>
л з</w>
кри вої</w>
зна чи
зміни лося</w>
зго ден</w>
жерт ва</w>
женщи ны</w>
вы йти</w>
вча сно</w>
впли ву</w>
вказа ні</w>
ви мовля
в вій
ба б
армі я</w>
Ц у
Хри стї</w>
Ро уз</w>
Пі з
Не бе
Наполе она</w>
Мо й
Йор ка</w>
Де сять</w>
Д вер
Викона ння</w>
t ch
smb 4
ra p</w>
ou t
m ander</w>
b in</w>
P AT
ґ а
інвести цій</w>
цо в</w>
фунда мента
ты е</w>
транспо рт
тель ная</w>
т ство</w>
т ло</w>
стовпчи ку</w>
сига ре
с чет</w>
рід ко</w>
род ження</w>
проси ла</w>
про ни
прин терів</w>
пра зд
потре б</w>
поділи тися</w>
ну ємо</w>
нен ько</w>
не великий</w>
наді ш
мер и</w>
ме га
люби ти</w>
клю чем</w>
из бави
діля нку</w>
друзь ями</w>
до трим
де с</w>
д ро</w>
голо ве</w>
відповід ність</w>
вы ра
ви від</w>
ви вести</w>
бро сить</w>
бо рт</w>
бо г</w>
Тек сто
Сторі нка</w>
Пере завантажити</w>
П лю
На мага
Мере жа</w>
К лас
З гідно</w>
Е мі
Ді дько</w>
Віде о</w>
Від да
Бо же
Аф гані
А м
p g</w>
ou th</w>
o s</w>
lo g</w>
Q Shortcut</w>
L I
DT D</w>
8 00</w>
4 2</w>
3 4</w>
інте гра
щ увати</w>
чі ть</w>
черво ним</w>
ч ное</w>
фі я</w>
фб н</w>
у доволь
трима в</w>
тер тя</w>
спи ски</w>
со впа
сно вок</w>
с уватися</w>
с да
рі шень</w>
ребё нка</w>
рам ках</w>
ра нок</w>
прода жу</w>
програ ва
пре пара
пояс нює</w>
поч неться</w>
по ез
пло щу</w>
папер и</w>
обстави н</w>
о писати</w>
ня й</w>
не правда</w>
лей ні</w>
ку льки</w>
зуси лля</w>
зло чи
зла ма
зем пля
же ш</w>
ефек ти</w>
електрон ною</w>
ек вівален
діа ман
ду ра
гі поте
вы игра
вчи тися</w>
висо та</w>
вибу ху</w>
ве ле
ва ду</w>
біль шої</w>
бо й
бажа є</w>
американ ців</w>
ал ге
Францу зь
Ре че</w>
Р І
Мисси с</w>
М орган</w>
М И
Доку мент</w>
Дозво ль</w>
Д обра
Г рі
В ене
Ба бу
Б ло
w a
oun d</w>
ob ject</w>
c li
al s</w>
F TP</w>
E X</w>
їжд жа
ї ла</w>
інструк ції</w>
ѕ о</w>
яко їсь</w>
яви лися</w>
шабло на</w>
че тыре</w>
уні верса
ува жно</w>
ту ри
тре тя</w>
сті ну</w>
стра да
сти к</w>
спробу є</w>
спо дар
со зна
скаже т</w>
сер ці</w>
с льо
рів ний</w>
рів нем</w>
ру с
роз важа
працю єш</w>
працю ватиме</w>
пр ы
подоро ж
по говорю</w>
перети на
па дають</w>
офи ци
одна ково</w>
обслу го
о коло</w>
ни цею</w>
наді ю</w>
н з</w>
моло дих</w>
мил ый</w>
мере ть</w>
ма тимете</w>
лю ються</w>
кри тері
кош тів</w>
контекст ному</w>
контекст не</w>
звичай на</w>
е т
віри те</w>
відрізня ються</w>
во ды</w>
вле ка
вимірю вання</w>
використов уватиме</w>
бороть би</w>
асоці а
Ча стота</w>
Смер ть</w>
Збира ння</w>
Завер шити</w>
Е лі
Дже ку</w>
Горизо нта
Все гда</w>
l er</w>
k w
iv an</w>
es ti
an c
VP N</w>
HT TP</w>
5 6</w>
ім пуль
ш тор
ш люб
чер та</w>
ч вер
цін ності</w>
ці ль</w>
хлоп цем</w>
уби вать</w>
сдела ет</w>
сво ем</w>
ре в
разобра ться</w>
піс ня</w>
предло жение</w>
послед нее</w>
попро сить</w>
пом ре</w>
по ла
пе на
ос нову</w>
одна жды</w>
ні .</w>
нахи л</w>
нау ка</w>
мовк ни</w>
малень ким</w>
май стра</w>
ль ка</w>
ли ве</w>
кана ли</w>
й ш
й н</w>
зро бі
заува жте</w>
жд ый</w>
ду ж
деся тки</w>
д жі
гра ми</w>
ві ки</w>
встанов лювати</w>
ви грати</w>
в прави</w>
бог а
а ре
Си ла</w>
Про ща
При ся
По рядок</w>
Міся ць</w>
Ма ри
Ка рен</w>
К лер</w>
Залиш те</w>
Джей н</w>
Від творити</w>
Вну тріш
Ви ко
do wn</w>
d esktop</w>
al se</w>
P ar
P G</w>
Mic ro
E X
є ри</w>
ё те</w>
я ч</w>
ш ками</w>
цт ві</w>
холо ди
х ування</w>
у во
ти ро
су мас
стандарт ний</w>
сре ди</w>
спо жи
слу чится</w>
сла ви</w>
різномані тних</w>
ре чами</w>
поча т
послу шай</w>
пора ди</w>
подзво нити</w>
по лем</w>
по значає</w>
пи ла</w>
печа т
переда чі</w>
от туда</w>
от вет</w>
об ще
нес част
не обов</w>
наближа ється</w>
міль йона</w>
мы й</w>
му дро
ми ро
мен шим</w>
ме діа</w>
ма л</w>
лі тати</w>
лен і
лен ию</w>
кра щими</w>
кра су
звик ли</w>
з на</w>
ду мок</w>
допомага ють</w>
до ходу</w>
де лу</w>
віри ш</w>
вхід ні</w>
втра чено</w>
включа ючи</w>
ви ходять</w>
ви сна
ви готов
вен а</w>
ва ними</w>
боя ться</w>
бло ки</w>
безкош тов
а да
Розроб ник</w>
Ді лейні</w>
Дэ вид</w>
Де б</w>
wh en</w>
tr ouch
trouch tch
smb4 k</w>
ksp read</w>
at h</w>
E r
DI R</w>
C urs
B SD</w>
і спа
єд нує</w>
шта ни</w>
шлю б</w>
челове ком</w>
ходи ш</w>
ули це</w>
тро є</w>
тель ство</w>
сто п</w>
стави в</w>
со т</w>
сво ему</w>
реак ція</w>
ре тельно</w>
ра бів</w>
пусте лі</w>
псевдо нім</w>
подо жди</w>
по ри
о чок</w>
не закон
не ві
на перед</w>
на гля
муси в</w>
миллио нов</w>
ми лі</w>
ля ю</w>
ль ные</w>
ли ця</w>
ли ну</w>
креди ту</w>
зу би</w>
звіль нити</w>
да ру
го стей</w>
випромі нювання</w>
вин огра
ви що
ви ли</w>
в горі</w>
боже ствен
а пе
Но ві</w>
Ма є</w>
М ЕН
Л я
Л ин
За ради</w>
Ду р
Во ло
Б р
Ав стрі
Іден тифіка
st em</w>
re gi
on s.</w>
l o</w>
i e
hf ou
eur op
c v
b il
Ch ri
9 5</w>
ята й</w>
як ів</w>
щ их</w>
чу вства</w>
ци ей</w>
ху й</w>
христи я
типо ву</w>
тер і</w>
су во
спо кою</w>
склад ності</w>
рі чний</w>
реши ли</w>
підруч ника</w>
під лозі</w>
півні ч</w>
психо логі
продук тів</w>
преду пре
попроси ти</w>
попроси ла</w>
поверну тись</w>
пері оди
перева ги</w>
па кет</w>
огля д</w>
о свобо
ну жда
номер и</w>
міні ст
мороз и
мно ж
ма ри
л лер</w>
кі стки</w>
ку ті</w>
користува чам</w>
кон фі
зра д
запов нення</w>
за була</w>
жерт в</w>
до но
до звіл</w>
гор ло</w>
глуз ду</w>
выбо ра</w>
влас ника</w>
випа дання</w>
викона йте</w>
в водити</w>
больни цу</w>
бо ре
бе жать</w>
ба на
Ш тати</w>
С копіювати</w>
Ре бек
Піз ніше</w>
Проце с</w>
Подиви ся</w>
Обі ця
Комента р</w>
К И</w>
Заува ження</w>
Забира йся</w>
Ді вчи
До ступ
Де тек
Від новити</w>
Ва шого</w>
Бо жий</w>
Б л
А ла
u l</w>
st er</w>
quant ap
quantap lus</w>
p s</w>
om e
n umber</w>
O ut
Matth ias</w>
La uri</w>
KChar select</w>
I M
і т
ча ет</w>
ф т</w>
ту ємо</w>
ту ман
то вно</w>
та на</w>
сту ть</w>
спі вробі
сні да
си вний</w>
с фера</w>
роз мова</w>
піксе лів</w>
проси л</w>
при несла</w>
похо дження</w>
посла в</w>
по ю</w>
перей ма
па тру
отрима но</w>
н ство</w>
мен ший</w>
малы ш</w>
ло е</w>
кру г
кишен ь
кві ти</w>
кан ців</w>
и сто
зібра но</w>
зовніш ніх</w>
зму шений</w>
запропо нував</w>
запобі гти</w>
за яв
з ку</w>
джо у
гі пер
від дав</w>
ві шим</w>
вказа ним</w>
вибра ли</w>
ви сновок</w>
вважа єш</w>
в с</w>
в кою</w>
в двічі</w>
бо вать</w>
бло ків</w>
аргу мент</w>
акти ві
Хо тів</w>
Т я
Рі к</w>
Послу шайте</w>
По нима
Пере микач</w>
Ло к
Клю ч</w>
Й діть</w>
Зву к</w>
Е м</w>
Го тово</w>
Відмі нно</w>
Ве б-</w>
w rap</w>
ou se</w>
konsol e</w>
iv an
di t</w>
c amer
S p
AS C
5 0
єдна ні</w>
ш ке</w>
ці лих</w>
ф ін
у спад
то рами</w>
ти нг</w>
табле тки</w>
сцен у</w>
сп лю</w>
с ували</w>
роз ча
ро сті</w>
ре гуля
про ба
подат ків</w>
перемог ти</w>
пар ней</w>
п лю</w>
п p
о прилюд
нота тки</w>
ни ць
ни мо</w>
не деле</w>
наф ти</w>
мо менти</w>
мето ди</w>
мере жа</w>
ме трах</w>
ма лого</w>
лог ів</w>
лен ии</w>
ле тіти</w>
л o</w>
ки тай
и с</w>
зни щення</w>
застосо вувати</w>
заванта жено</w>
з ду
ен но</w>
е дем</w>
ді лення</w>
ди яво
д же</w>
громадя н</w>
ген о
вопро сов</w>
вибра ну</w>
вважа єте</w>
ва ючи</w>
бо йо
близ ко</w>
бан ківсь
ар хи
анге л</w>
акти во
У верен</w>
Спорож нити</w>
Ска й
Ре спублі
О би
К бй</w>
Допомож и</w>
Г м</w>
Ва у</w>
w ill</w>
oc k</w>
el op
de v</w>
au lt</w>
S amba</w>
IR C</w>
F or
4 0
ін фек
ін сти
ше р</w>
у споко
ть я</w>
ть cя</w>
тексто вий</w>
сь віт
схе ма</w>
стра шенно</w>
сте г
спіл куватися</w>
смуж ці</w>
с ке</w>
ры е</w>
розроб ник</w>
прода вати</w>
про сла
постави ли</w>
подіб на</w>
пога ного</w>
пові трі</w>
пере хід</w>
пере мика
пер шими</w>
пер ен
пар тії</w>
па лі
но зав
неде ль</w>
не прият
напа д</w>
н ерів</w>
му с</w>
мог и
ми мо</w>
ме шка
лі теру</w>
лі вий</w>
люб ви</w>
ль оду</w>
ли шень</w>
лен ы</w>
кори сно</w>
кораб ля</w>
компа нии</w>
зворо т
залиши ли</w>
за н</w>
жи вет</w>
до дає</w>
ди стан
д цять</w>
д ення</w>
г нення</w>
відчу в</w>
ві мо</w>
вы бира
воло ді
в ступи
в вели</w>
бажа ю</w>
ар хів</w>
ар терії</w>
автоматич не</w>
Хо ло
Спробу й</w>
Сою з</w>
Пот тер</w>
Од ним</w>
О новлення</w>
Н И</w>
Мі німа
Мі ж
Лор д</w>
Л І
Ка ждый</w>
К И
Здоро во</w>
Ж ар
До міні
Джей сон</w>
Ат лан
whit e-</w>
u k
trouchtch ak</w>
s o</w>
r g
pe trouchtchak</w>
ivan petrouchtchak</w>
bu g
ac c
G erman
D CO
ґ П
ї ди</w>
іс нува
іде єю</w>
і сла
ютер ів</w>
ша х
ш па
чор на</w>
церк ві</w>
ут бу
уби ти</w>
у тра</w>
у мереть</w>
това них</w>
те ше
т ти</w>
слу шать</w>
секун дах</w>
сдела ешь</w>
с могла</w>
пік л
програ мне</w>
проводи ть</w>
про сте</w>
прихо вані</w>
прибу тку</w>
при віта
помі тити</w>
повід і</w>
по лювання</w>
по кон
по кинути</w>
пережи вай</w>
пар ла
одя гу</w>
наго роду</w>
н City</w>
людсь кі</w>
люби ли</w>
запи тів</w>
зали шу</w>
за ї
за хочете</w>
за ть</w>
з мом</w>
жи вих</w>
е .</w>
дизай ну</w>
го ря
глаголю чи</w>
вя тся</w>
вы пол
вказа них</w>
вирі шувати</w>
бло ку</w>
Хо ди</w>
С клад
С кла
Раху нок</w>
Пере записати</w>
Оте ц</w>
От лич
Кэ трин</w>
К стати</w>
Ви значення</w>
Алек санд
А ну</w>
x ml</w>
start ed</w>
kd e-</w>
f e
es si
an ia</w>
a ve</w>
P re
My Mon
Jav a
German y</w>
An ne
A 1</w>
20 10</w>
- А</w>
їх нє</w>
є вро</w>
ю а
че стве</w>
треть ого</w>
то ру</w>
стрі ло
сти ска
спо лу
си ни</w>
рід кі
роз поряд
раді сть</w>
прости х</w>
прок сі</w>
про бував</w>
попа сть</w>
пода рок</w>
по шел</w>
об ре
о пуска
о дол
не прочита
не возможно</w>
находи тся</w>
найбіль ший</w>
мё рт
мы с
мон тувати</w>
меся ца</w>
мерт в</w>
ма ння</w>
лі дер
ле с
купо л</w>
купи ла</w>
користу єтеся</w>
к віт
истори ю</w>
застосо вано</w>
е дет</w>
до р
да ч</w>
гу б
грі ш
вы з
вни ку</w>
ва єш</w>
бу ток</w>
адвока та</w>
ав тентифіка
Тво є</w>
Са лли</w>
Річар де</w>
Р У
Про то
К рок</w>
Експо рт</w>
Д a
Г рін</w>
Відкри йте</w>
Від дай</w>
Ан то
А каде
Ін дія</w>
y c
w as</w>
pre -</w>
off ic
K MyMon
ї дять</w>
і діо
я ли</w>
щ им</w>
ше сть</w>
чоти ри
чес кие</w>
у сло
ту єте</w>
темря ві</w>
т ё
спра вою</w>
слыши шь</w>
серед ньому</w>
се ми</w>
рі шу
розши рен
робо чого</w>
рецеп тів</w>
реа гу
ра за</w>
пта хів</w>
про яс
пра вої</w>
почина ються</w>
постача ння</w>
поки дь
по лагаю</w>
по всяк
паль ці</w>
о пер
ника кого</w>
не змін
міс цями</w>
ме тро
ли чи
коро лівсь
корен е
зем лї</w>
жін ками</w>
да ют</w>
га ло
від ки
влас ності</w>
використов ував</w>
вигляда ло</w>
вер та
бо лить</w>
ба сей
актив ний</w>
Ш ан
Три ва
Те ха
Прекра ти</w>
Особ и
О фі
О ОН</w>
Ма л
Л У
За ли
Джу ні
В з
Існу ють</w>
ug ene</w>
t y</w>
k ile</w>
g o
ex i</w>
et er</w>
b ab
app s</w>
Mar ie</w>
Ma hfou
M c
Anne -</w>
шко ди</w>
ша хра
у то
ть ся
три чі</w>
тре м
со вий</w>
си нд
ра ш
процеду ру</w>
при к
презен тації</w>
порівня но</w>
порівня нні</w>
поперед ньому</w>
поді лено</w>
пов ре
по ехать</w>
об говорити</w>
ні ка</w>
не знач
на чебто</w>
механі зм</w>
ме діа
малень ке</w>
ма дам</w>
ль ю</w>
ль йо
коро тко
консу льта
ком пен
колі на</w>
к ти</w>
зіт кну
зображен о</w>
зміни вся</w>
займа вся</w>
зага д
дізна тись</w>
ди пло
дж ува
да ного</w>
відповід ності</w>
внима ние</w>
випад ки</w>
визнача ти</w>
вибра ної</w>
вибра в</w>
вер и</w>
в зро
бух гал
бра к</w>
ар ен
То чка</w>
Те дді</w>
П o
О бра
На при
Гово ри</w>
Бо сто
on g</w>
iz e</w>
b et
Open PGP</w>
ї деш</w>
явля ется</w>
щ и</w>
шука ємо</w>
ш тра
чита ю</w>
черво ні</w>
ца ть</w>
уби ла</w>
у ю</w>
у кла
ти .</w>
тво ри</w>
сцен і</w>
сті ні</w>
сти м</w>
спро стити</w>
смерт ю</w>
си льна</w>
с м</w>
с вет</w>
ря ду</w>
роз ри
роз ма
робо чий</w>
під логу</w>
під лег
під ва
помер ли</w>
подума ть</w>
пода р
пла тять</w>
пита нням</w>
перетяг ування</w>
ня Name</w>
ну ться</w>
ног а</w>
но са</w>
налашт уван
на шёл</w>
му жем</w>
мен ші</w>
ма мой</w>
ла т</w>
кі т</w>
кош ти</w>
компонен ти</w>
ко ї
зображен ні</w>
зо ну</w>
зна ки</w>
зві тів</w>
збі рку</w>
захища ти</w>
заборо нено</w>
дом ого</w>
дава ла</w>
гра ють</w>
відмін ностей</w>
виробни цтво</w>
викона є</w>
визначен і</w>
вибу х</w>
ви нна</w>
бы вает</w>
Ша нов
Пен і</w>
За кладки</w>
Во зьми</w>
Во да</w>
Аль бер
v el</w>
kd ep
iff 3</w>
e Name</w>
c a
P ro
Mic hael</w>
H i</w>
ґП ґЩ</w>
ґ о</w>
яви лася</w>
ю ще</w>
э та
части нок</w>
части нки</w>
ц ере
ф ос
у яв
у роки</w>
турбу є</w>
трет є</w>
то ву</w>
то ве</w>
тив ну</w>
тер о</w>
с працює</w>
роз о
приєдна тися</w>
при дет</w>
пото ку</w>
помощ и</w>
поверну лася</w>
пло щі</w>
пи ско
ну ло</w>
нсь ку</w>
но утбу
нен т</w>
не легко</w>
не ве
найкращ а</w>
нав проти</w>
моло да</w>
моду лів</w>
лю ємо</w>
лы е</w>
кре слити</w>
контек сті</w>
кон фігу
каза л</w>
йсь кою</w>
име л</w>
зі зна
зе н</w>
зберіга є</w>
закри то</w>
з ради
живо т
живе ш</w>
жерт ву</w>
ду рень</w>
дру к</w>
допо ки</w>
де ль</w>
ген и</w>
відда лених</w>
все ми</w>
вс ї</w>
воро г</w>
бро сил</w>
большо е</w>
б рі
Я н
У ай
Те д</w>
Ма кси
Код ування</w>
Кла рк</w>
До маш
Бі ллі</w>
Історі я</w>
t u
p g
k pres
h im</w>
di ff</w>
Q Str
19 7
є ру</w>
ю щая</w>
щен ь</w>
щасли вим</w>
швид кого</w>
чен е</w>
чека ємо</w>
часто к</w>
ц ий</w>
хлопчи ка</w>
фак торі
фак ти</w>
утворю ють</w>
у творення</w>
те стування</w>
так .</w>
ст увати</w>
справж нім</w>
сем ь</w>
се т</w>
розмовля в</w>
розбіж ність</w>
ро да</w>
ра й</w>
під крес
повнова ження</w>
поверта тися</w>
по рівняти</w>
перети ну</w>
огля ду</w>
ни тися</w>
написа ли</w>
матема ти
ма то
люби те</w>
лек ції</w>
лег ка</w>
коро лі
кон ца</w>
кла сно</w>
зер у
зако ном</w>
ефек ту</w>
діли ться</w>
дівчи ною</w>
ді лити</w>
доро ге</w>
допомог ли</w>
дозволя ють</w>
до мом</w>
двер има</w>
горизонта льно</w>
відобра жає</w>
вста новіть</w>
вог ню</w>
вигра в</w>
ви я</w>
бре х
бере з
армі ю</w>
Ш о</w>
У бира
Спен сер</w>
Си на</w>
Поча ток</w>
Ор гані
К ел
И дем</w>
Ж ен
Добра ніч</w>
Ва н</w>
Бу дет</w>
v a</w>
ub e</w>
trans late</w>
kno w</w>
it al
g mail.</w>
N o
3 х</w>
інтер неті</w>
я щи
эк спер
щ т</w>
число м</w>
хід ні</w>
ходи шь</w>
хо д</w>
х м</w>
у х
тра ге
то дї</w>
створен ий</w>
стандарт ного</w>
ст рі</w>
ст рувати</w>
спро бував</w>
слу хайте</w>
слу ги</w>
сим пто
си льні</w>
си деть</w>
розташо вані</w>
робля чи</w>
реаль ного</w>
рас сказала</w>
під клю
про веден
приро да</w>
при ви
пере су
облич ч
о х
о су
о плески</w>
най голов
місце вих</w>
мі зувати</w>
можли вим</w>
ма мы</w>
лікар ню</w>
лю вали</w>
ль одя
кре а
кото ром</w>
к -</w>
й у
й Ь</w>
збіга ється</w>
зага льному</w>
жерт вы</w>
жа лю
ек земпля
ду хом</w>
доро го</w>
допов нення</w>
дов гі</w>
до чека
до ва</w>
го тель</w>
від ні
вмі стом</w>
влас ність</w>
вказа ну</w>
висо ко</w>
визнача ють</w>
видо бування</w>
бі лиз
бі йся</w>
бо и
Подиви сь</w>
Па п</w>
П ог
Од не</w>
Зу стрі
Ген ри</w>
Афри ка</w>
ur r
sour ce
kpres enter</w>
f i
er t</w>
ec tion</w>
d r
avi d</w>
ad dre
4 -</w>
ї ни</w>
ющ их</w>
ю чої</w>
ш ува
чи лся</w>
черто вски</w>
цен тром</w>
ха ла</w>
фраг мент</w>
форма тів</w>
у твори
у лы
то ли
телеві зор</w>
тек сту
танцю вати</w>
сі д
сумні ву</w>
сумас шед
сто л</w>
спо рт
с кори
ро му</w>
реш ти</w>
ра діа
пу р
профі лів</w>
про ц
про пустити</w>
при ни
при зупи
пра цю</w>
поточ не</w>
покра щити</w>
пля ть</w>
пере гово
пар к</w>
о чо
о холо
но вій</w>
муси те</w>
лек три
лежа в</w>
ку й</w>
кро ком</w>
користува чеві</w>
кори чне
камер а</w>
ис клю
заня ття</w>
за была</w>
жиз нью</w>
жа ться</w>
жа л
доводи ться</w>
джу ють</w>
гі д</w>
го род
глю ко
глаго ла
ві я</w>
вули цях</w>
влі во</w>
влас ним</w>
витра чати</w>
виника ють</w>
вечі рку</w>
вели кій</w>
би то</w>
бе д
Щи ро</w>
Хо тите</w>
Те й
Сло во</w>
Оста ння</w>
О брати</w>
Не ймовірно</w>
Наступ не</w>
Лі воруч</w>
Вста новіть</w>
Бер и</w>
Бе зу
Б э
А плодисменти</w>
Єруса ли
regi ons.</w>
li ke</w>
ima ge</w>
al og</w>
і ї</w>
чи сла
цен тів</w>
ху д
уго ду</w>
у ехать</w>
су к
стер и
спіл кува
спа са
складо ві</w>
се стро
се л</w>
розді ли</w>
роди на</w>
пів день</w>
прізви ще</w>
пропо ную</w>
прине сли</w>
приве ло</w>
потрапи ли</w>
позначен і</w>
по жи
по ба
п ружи
отриму ю</w>
об щем</w>
ня т</w>
ню ва
номер а</w>
не плохо</w>
не лі</w>
нази вали</w>
лі сти
лен д</w>
леген і</w>
лег че</w>
кі нь</w>
крово но
краси во</w>
коман ди
й .</w>
зе л</w>
здійс нювати</w>
збира ти</w>
залиши лися</w>
загаль но
за робити</w>
за беру</w>
з зовні</w>
жар туєш</w>
ж да</w>
ду ха</w>
дозво лю</w>
д ли
встанов лені</w>
вра жає</w>
випро бування</w>
вещ ей</w>
в ним</w>
бак сів</w>
а мі
Ч і
То ні</w>
Т И
Со ло
Систе мні</w>
Подож дите</w>
Пере творити</w>
Здоро в</w>
Доб ри
Де кілька</w>
Гре й
Га ва
Бі лл</w>
Бо юсь</w>
p u
g er</w>
b re
L DA
3 7</w>
щасли ва</w>
шу ємо</w>
шту к</w>
шен ие</w>
черво ного</w>
хо джу</w>
форм увати</w>
у страи
стра жда
ство рить</w>
ст ям</w>
спів праці</w>
спі вати</w>
состоя нии</w>
совер шенно</w>
сла ву</w>
скасо вано</w>
ска ми</w>
са мій</w>
ро на</w>
ро ком</w>
пі дуть</w>
пі ано</w>
прий ом</w>
поча лося</w>
по ти
по неді
па тен
наді я</w>
на но
ма ля
м бо
лі ків</w>
люд ство</w>
льни ку</w>
кто рів</w>
кон тексту</w>
зворо тній</w>
заголов ки</w>
ета пі</w>
ері ї</w>
ед р</w>
ді т</w>
допо можуть</w>
до щ
да к</w>
гла д
ги и</w>
виробля ти</w>
ви род
ви пуска
вер ить</w>
вби в
бра кує</w>
безпе чно</w>
У ра</w>
Програ вач</w>
При ємно</w>
Па ра
Ма рії</w>
Лондо ні</w>
Де ль
Вер нути</w>
В решті</w>
Бу ла</w>
set t
k er</w>
R a
Pr opert
P lease</w>
P age</w>
Fre e
існу ючий</w>
єт на
є ги
яза не</w>
чор ної</w>
чолові че</w>
ці ною</w>
хлі б</w>
форм ування</w>
точ ками</w>
сти сну
сте н</w>
ста ється</w>
спе ктор</w>
слу шай</w>
ск ло</w>
роз чаро
ри су
раз до</w>
підня в</w>
пі й
представля є</w>
посмі ха
полі цію</w>
по серед</w>
по гро
писа но</w>
п ку</w>
оболо нка</w>
о ран
о ка</w>
о зер
ні де</w>
нена че</w>
не за
не вже</w>
н єм</w>
ма лих</w>
люби л</w>
ль д</w>
л с</w>
кон со
ко дом</w>
катего рі
зображен ням</w>
звони л</w>
зве ться</w>
заня т</w>
з ли</w>
го на
га даєте</w>
ву єте</w>
вклю чає</w>
ви чер
верх нього</w>
вби ває</w>
ван ы</w>
в место</w>
бо сс</w>
арку ша</w>
Трива лість</w>
Ста тисти
Сполу чені</w>
СТ О
Ра д</w>
Р э
По нял</w>
По думайте</w>
Пи тер</w>
Коро лівсь
За пов
Бі блі
І с
ti me
ra m</w>
g e.</w>
ad i</w>
M e
L e
L A
D avid</w>
Curs or</w>
я ла</w>
щ н</w>
че ш</w>
ціка віше</w>
ці лі
харак тер</w>
ха я</w>
форму лу</w>
уя ви</w>
у твер
у ся</w>
у знает</w>
тер ти</w>
тa к</w>
стви я</w>
стар та
спо ру
сол дати</w>
слуха в</w>
скла сти</w>
синтакси су</w>
си мо</w>
серь ёзно</w>
связ ь</w>
ри ться</w>
ри ми</w>
пі шло</w>
пу теше
поня тно</w>
плохо й</w>
плане та</w>
писа ть</w>
пере конайтеся</w>
па у
ос нови</w>
опа сности</w>
окре ма</w>
огро м
ог а</w>
обо их</w>
на пі
мно жити</w>
матері ї</w>
м -</w>
лі су</w>
ко ваний</w>
кла сів</w>
к увала</w>
заги нув</w>
женщи ну</w>
диха ти</w>
дзвони в</w>
д ёт</w>
д з
гі гант
го сти
встанов лює</w>
впа ла</w>
ви тя
ви са
ва кци
в микання</w>
бува ла</w>
бро н
бе йс
а том</w>
а не
При ятно</w>
Пра воруч</w>
О стро
Кож ного</w>
Е лектро
Ан дер
А й</w>
l an
kst ars</w>
buil t</w>
Tex t</w>
T ype</w>
Nepom uk</w>
KMyMon ey</w>
K W
D N
ін дій
чи стий</w>
че ст
хоро ших</w>
тру п</w>
ти тся</w>
тек сті</w>
те че</w>
сцена рі
спо живання</w>
спа н
слу жити</w>
сло вник</w>
с нути</w>
с кинути</w>
рі т</w>
розмі стити</w>
робо чої</w>
при па
при носить</w>
полу чилось</w>
полу чили</w>
по ряту
по де
пли ток</w>
перевір ка</w>
пере ходить</w>
пер а</w>
ні сін
нсь ке</w>
ни куда</w>
не доста
н яка</w>
молеку ляр
м бй</w>
лы х</w>
л ка
кро ків</w>
зо на</w>
збі г</w>
залиши лось</w>
зада чу</w>
за ново</w>
ер і</w>
дитин стві</w>
диви лися</w>
ди нозав
дела ли</w>
д i</w>
графі ки</w>
гото во</w>
відо мих</w>
відда леного</w>
від ступу</w>
втоми вся</w>
вклад ка</w>
ва юся</w>
ва ем</w>
бу вши</w>
бре хня</w>
арку ш</w>
Що йно</w>
Х э
Х ей
Ф ей
Т рен
Са ма</w>
Ра бо
По думай</w>
По ве
О к</w>
Ло у
Зо вніш
Вигля дає</w>
Ве дь</w>
В ра
В каза
Б рю
Єди не</w>
y Name</w>
k a
int erf
Th at</w>
PAT H</w>
G L</w>
Cal if
ASC II</w>
іс нувати</w>
і с</w>
є ре
ща х</w>
фі в</w>
ф ю
ту ф
типо ва</w>
те лям</w>
спе кт
соціаль ні</w>
скла ду</w>
ска н
се ля
ру с</w>
реєстра ції</w>
ра на</w>
прош лом</w>
при ла
пра вому</w>
пої зд
подума йте</w>
по чити</w>
по бачу</w>
обчи слити</w>
но чок</w>
нен ор
нен ого</w>
нару жи</w>
най дем</w>
навер х</w>
множи на</w>
ми стера</w>
меся ц</w>
м Ь
л i</w>
конферен ції</w>
ко ди</w>
клю чи</w>
ка би
к ван
зво нить</w>
запи ти</w>
займа ються</w>
за дати</w>
жерт ви</w>
до шки</w>
ди ктора</w>
де фі
гор мо
вули цю</w>
все світі</w>
вияви в</w>
Ч А
Т ере
Ру шій</w>
Р ене
По верну
Обли ш</w>
О гляд</w>
Л ар
Е фек
І сла
te x</w>
source for
il e.</w>
cop y</w>
as on</w>
P C
19 6
1 20</w>
яко мусь</w>
шан си</w>
те чение</w>
сме шно</w>
се ло</w>
рів на</w>
роз робля
рим ля
ра спо
прода ж</w>
пробі ли</w>
пош та</w>
поч ну</w>
погли на
пита ти</w>
писа ли</w>
пе ро
офі с</w>
остро ва</w>
оста вля
низь кий</w>
не мся</w>
мініатю р</w>
мы ш
моду лі</w>
матеріа лу</w>
ма мі</w>
м рія</w>
лі є</w>
лі чи
ль е</w>
ло ша
лл Ь</w>
л д</w>
купи ли</w>
колиш ній</w>
ко мами</w>
кліти ну</w>
й шла</w>
знай деш</w>
за ряд
з ування</w>
з су
жа ешь</w>
е сте
діагра му</w>
дру гую</w>
дивови жно</w>
диви мося</w>
га дай</w>
відчува єш</w>
відповід ним</w>
ви ті
ва ної</w>
в ри
бої шся</w>
боя тися</w>
божеві лля</w>
бо л</w>
б ні</w>
ариф ме
а ва
Я с
Ш ей
Ха ус</w>
Фран ци
Пер ене
Ниж че</w>
На томість</w>
М ін
Лю к</w>
Кро ме</w>
Кон нор</w>
К У
Зву чит</w>
З ни
Вилу чає</w>
Бо юся</w>
АТ Ф</w>
Італі ї</w>
orn ia</w>
k b
ian -</w>
g h
d ay</w>
con f</w>
X -</w>
Calif ornia</w>
Akon adi</w>
історі й</w>
і гнорувати</w>
швид кий</w>
церк ву</w>
увер ены</w>
у види
точ ніше</w>
тко й</w>
та кую</w>
т ва</w>
сі мей
сі -</w>
су ється</w>
соціаль них</w>
сеан сів</w>
світло вих</w>
са мая</w>
ру шій</w>
релігі ї</w>
при їхала</w>
пра по
похо ж</w>
пом ру</w>
позна чок</w>
по бо
пере записати</w>
пе нали</w>
па ли</w>
от правля
от носи
оста ваться</w>
окуля ри</w>
одер жи
ографі ї</w>
ног ах</w>
не о
найбіль ших</w>
мо чка</w>
мен i</w>
ля ет</w>
люби мо</w>
кульо к</w>
зник ли</w>
жен им</w>
еле ментами</w>
е ба
ді всь
доб ро</w>
до не
гу чність</w>
гря з
від ста
впли вають</w>
во стях</w>
ви живання</w>
важ на</w>
в ё
бер г</w>
Э д
Че твер
Ч Е
Фе дера
Ф рі
Су пер
Ско тт</w>
С А
Розді л</w>
Робер т</w>
Ро й</w>
Поточ на</w>
Не відома</w>
Му шу</w>
Ж Е
Е ль
До нні</w>
До дає</w>
Г ран
Г ли
Від сут
Ві добра
Во н</w>
В чора</w>
sourcefor ge.</w>
p а
g er
er n
H o
Fac ebook</w>
C R
4 6</w>
їз дити</w>
чисе льник</w>
ч ле
х нути</w>
фор д</w>
факторі ал</w>
ф з</w>
університе ту</w>
ті нь</w>
тр ь</w>
точ кою</w>
тео рію</w>
сі й</w>
сфер у</w>
сум но</w>
спа ла
соро мно</w>
с ходить</w>
розумі нні</w>
роз бира
реалі зації</w>
прий ма
почу ли</w>
попроси ли</w>
показ ник</w>
пока рання</w>
пла чу</w>
пи л</w>
охо плю
ог і
обгово рення</w>
о логі
наведен ням</w>
нав ряд</w>
музи кан
мног их</w>
ме жу</w>
м y</w>
любо й</w>
льни ця</w>
лы м</w>
лай на</w>
капіта л</w>
знай дуть</w>
залиша ються</w>
заклад ку</w>
за мер
ж e
дюй м</w>
до мог
до мену</w>
держав них</w>
гу берна
гра ю</w>
голо ду</w>
гад ки</w>
вы ми</w>
вс який</w>
вирі с</w>
в чені</w>
в по
бут ы
бо с</w>
Трима йте</w>
Се ба
Посмо трите</w>
По вний</w>
Па вел</w>
Навіга ція</w>
На ведіть</w>
Мар та</w>
Ла ти
Ком п</w>
Зага льна</w>
Добри день</w>
Гля нь</w>
Від пусти</w>
Бе т
Б Е
tho do
t -</w>
s l
on e
camer oon</w>
T S</w>
3 9</w>
0 2</w>
щи ро</w>
шма тки</w>
че ская</w>
ч ніше</w>
філь мів</w>
ф Ь</w>
ты м</w>
те ць</w>
те сто
сучас ного</w>
стов бу
способ ами</w>
сом не
соба ку</w>
скульп тури</w>
систем ному</w>
роз пі
робо тів</w>
про дав</w>
придба ти</w>
початко ві</w>
потріб ну</w>
получи ла</w>
по прошу</w>
пли тки</w>
неможли ве</w>
не чего</w>
наз вемо</w>
наго рі</w>
на много</w>
на всегда</w>
н .
ли ні</w>
комі к
ка ємо</w>
зустрі лися</w>
зупини тися</w>
захо ди</w>
з дале
до ви
деву шку</w>
да мо</w>
да дуть</w>
глаго ле</w>
га ю</w>
вік ном</w>
ву зь
використову ю</w>
ве т
вдя чний</w>
ва єте</w>
ва ли
афри кансь
Х ор
Х ер
У вер
Т э
С тру
Поперед ня</w>
О у
Не погано</w>
Мі тка</w>
Лю ба</w>
Знай дено</w>
З в</w>
Дру к</w>
Все го</w>
В ЕР
Боль шо
А ж</w>
wh at</w>
ukrain ian-</w>
so ft</w>
on ia</w>
di r</w>
b ook</w>
P er
KD ev
B r
9 2</w>
6 0
- Що</w>
іді от</w>
явля ться</w>
э ль</w>
чека ли</w>
хі ше</w>
хви лює</w>
у шел</w>
у ла
тюрь ме</w>
ты х</w>
ткани ни</w>
теп ло</w>
теа тр</w>
та ємо</w>
сту пінь</w>
страте гія</w>
станови тся</w>
солда тів</w>
со ва</w>
сигна ли</w>
се мей
рі о
розу мні</w>
ро де</w>
пі сень</w>
пу сть</w>
про вела</w>
при та
при гні
пояс ню</w>
потеря ла</w>
под якувати</w>
побачи ть</w>
пли в</w>
пе чін
па ска
па д</w>
от клю
оке ану</w>
нови ми</w>
но стями</w>
нега тивний</w>
на голо
матеріа лів</w>
ліп ше</w>
ло м
ле жит</w>
кут ник</w>
кращ а</w>
копі й</w>
кон стан
календа рів</w>
и к</w>
зупи ну</w>
зрозумі єте</w>
захо дів</w>
з йо
з див
жден ия</w>
ді дька</w>
дра вляю</w>
допомож и</w>
дода мо</w>
деву шки</w>
відсо тках</w>
від правити</w>
ві зи
вмі ння</w>
влас ник</w>
вкра в</w>
в лаш
бі лого</w>
благо род
безкош товно</w>
бе зна
ау діо</w>
атрибу тів</w>
атрибу т</w>
Чарль з</w>
Т ло</w>
Розумі ю</w>
Рене сан
Пів ночі</w>
Профі ль</w>
При мітка</w>
Пер ер
О бла
Кэ ро
Е ллі
Ду ха</w>
Джо у
Да н
В низ</w>
Бо жа</w>
thodo x.</w>
th ere</w>
r ussia</w>
or thodox.</w>
ol ph
h e</w>
f r.</w>
f alse</w>
d on</w>
conf ig
c er
b er</w>
L I</w>
D o
Con trol</w>
іні ціалі
ю чою</w>
фай ла
твари на</w>
сі рого</w>
сти ка</w>
ст ці</w>
спі ра
справед ли
сен іт
с не
розібра тися</w>
реаль ності</w>
рас ста
продук ту</w>
поя ви</w>
пода чі</w>
пов не</w>
по при</w>
пита в</w>
отрима ють</w>
особли вого</w>
обира ти</w>
нсь кою</w>
нова я</w>
но .</w>
не вір
на брид
н ди
ми я</w>
м ю
лан дії</w>
конфлік т</w>
иг ры</w>
здат ності</w>
збіль шується</w>
заня ться</w>
за пев
дій шов</w>
досяг нути</w>
доступ ним</w>
див люсь</w>
держа ться</w>
го раздо</w>
від ступ</w>
ві рив</w>
ві льна</w>
вугі лля</w>
втра тила</w>
вимі ряти</w>
ве льми</w>
вби ла</w>
бро са
астро номі
аль ний</w>
Чи ка
То мми</w>
Р ут</w>
Не много</w>
Короле ва</w>
Захо дь</w>
Д эй
Д i
Бу р
Бож ого</w>
Ін дій
v o
v al</w>
net work</w>
A P
2, 5</w>
єди ною</w>
ё н
я зу
щи ни</w>
щен ні</w>
чо в
чита ла</w>
часто ту</w>
хи жа
філь мі</w>
трикут ника</w>
тимчасо вий</w>
тер е</w>
та ри
стоя ла</w>
спо кої</w>
с п</w>
с -</w>
ря ми</w>
розви ну
роб ка</w>
проси ли</w>
пропо нує</w>
пробі лів</w>
приголом ш
при ко
предме т</w>
полі тику</w>
по хід
перене сти</w>
па ти</w>
ні чний</w>
ну єш</w>
набли зи
мину ло</w>
лицьо вих</w>
ле жать</w>
ку са
ку йте</w>
комі рку</w>
коль цо</w>
ко к
капіта лу</w>
зо ю</w>
зні мки</w>
зну ща
захо че</w>
за буду</w>
за бруд
за блу
дета лей</w>
д с</w>
го л</w>
гну ли</w>
газе ти</w>
відношен ню</w>
викли ків</w>
ви ванта
варіан та</w>
важли вими</w>
в жива
би ла</w>
аль на</w>
Що до</w>
Хут ко</w>
Т од
Су пер</w>
Со л
Служ ба</w>
Плю с</w>
О то
Ин тере
И б</w>
Захо дьте</w>
З від
З вантаження</w>
Г у</w>
В сім</w>
Ін коли</w>
sk i</w>
la tions</w>
g et
f o
Micro soft</w>
Mi ke</w>
F -</w>
C la
8 5</w>
5 4</w>
- Ти</w>
інтелек туаль
щ айся</w>
чо сті</w>
чис лі</w>
х ер
фі оле
ти ску</w>
ти ра
спе ц
сло в</w>
ска х</w>
са жи
с ыва
с че
с ходи
с ные</w>
різ ному</w>
прочита йте</w>
пра це
пого ди</w>
по буд
пев ною</w>
пе чи
пе ди
парт нер</w>
параметра х</w>
оши ба
очі кувати</w>
о кис
ні шого</w>
ні чим</w>
ня ються</w>
на друкувати</w>
міні стр</w>
му д
моне ти</w>
мен ты</w>
мар но</w>
м ування</w>
любо в
ль є
кож ний</w>
ко руп
ки нь</w>
испо л
и сти
зні м
задово ленням</w>
за мовлення</w>
з да</w>
з будо
ефек тів</w>
енер го
дові ри</w>
дис ци
го телі</w>
га м
г ня</w>
відчува єте</w>
відчува ють</w>
відже ти</w>
відбува лося</w>
від нови
внесен і</w>
випу ску</w>
вибира ти</w>
важ кий</w>
в кри
буль ба
буди нків</w>
бли жа
благо дар
а ра
Ска жу</w>
С ог
Ро к
Ре ш
Ни каких</w>
Не вда
На о
Мож ливі</w>
Л А</w>
Капіта не</w>
За кін
Диви ся</w>
Ви рівняти</w>
Ве лич
В ог
Бен е</w>
Бе сс</w>
А ман
А ль</w>
Ін ше</w>
wat ers</w>
s s.</w>
s er</w>
kon versation</w>
ec e</w>
cli ent</w>
an i
LDA P</w>
K M
Amar ok</w>
0 -</w>
інтер в</w>
ючи ми</w>
э мо
шири на</w>
ши ла</w>
ша ла</w>
ш ний</w>
че ской</w>
хар чування</w>
фро н
трен ування</w>
т i</w>
стрі лки</w>
сою зни
со рок</w>
сер цем</w>
с хід</w>
с сі</w>
розум но</w>
решен ия</w>
рецеп ти</w>
підій шов</w>
пря мої</w>
про ві
почина єте</w>
позво ню</w>
позво нил</w>
пові ль
по сі
пе с</w>
па й</w>
особ у</w>
ну дно</w>
нат х
на в</w>
му сять</w>
лі т</w>
людсь ке</w>
купи л</w>
куль тура</w>
комента р</w>
кажд ого</w>
йсь ку</w>
зна чний</w>
зна ходження</w>
згад ував</w>
зай няти</w>
забра л</w>
за ка
за бы
з роблять</w>
е го
до вих</w>
дере ві</w>
галакти к</w>
вст в</w>
вну трь</w>
вказа ної</w>
визначен ий</w>
ви бачи
величез ну</w>
боя вся</w>
б рю
б ра</w>
аген та</w>
а та
Япо нії</w>
Э й
Скри пт</w>
С начала</w>
С ма
Президен т</w>
Ні яких</w>
Н У
Ка же</w>
Зго дом</w>
Ди вно</w>
Д вад
Г оди
Ви пад
Вi н</w>
В казати</w>
Бу ли</w>
Боб би</w>
Бе ль
Ісу се</w>
Інтер нету</w>
pp pd</w>
oo d</w>
n or
kd iff3</w>
k o
d u
V er
K or
H P</w>
1 L
ґ а</w>
яз и</w>
явля є</w>
штей н</w>
ша є</w>
ш три
чере ви
чен ими</w>
ч лена</w>
ць кого</w>
убе диться</w>
у знала</w>
тю р
тради ції</w>
тер пи
тель ные</w>
тво ем</w>
стри ба
спо рож
спа сен
со труд
силь нее</w>
сиді ли</w>
си ном</w>
сві та
ро ках</w>
реда гувати</w>
райо ні</w>
ра ну</w>
прок сі-</w>
пробле мами</w>
про демон
при брати</w>
пої демо</w>
помощ ью</w>
полі тика</w>
по єдна
пері о
перспекти ви</w>
перетяг ніть</w>
па ву
остро ві</w>
особи сті</w>
од ном</w>
ну єте</w>
нен ь
намага юсь</w>
на одинці</w>
му т</w>
мер но</w>
ма лим</w>
лю вав</w>
лока льний</w>
л ками</w>
ку ється</w>
ку ла
квар та
ка кую</w>
к за
зобрази ти</w>
зо ни</w>
знайо мий</w>
земе ль</w>
здоро в
зга дав</w>
завда нням</w>
за хочешь</w>
жда л</w>
ж ере
економі ка</w>
доро го
допомага ти</w>
дов кі
див не</w>
джу ється</w>
групо ю</w>
гото вить</w>
го ре</w>
г ек
ві тру</w>
выяс нить</w>
вклю чено</w>
вирі за
ви знач
ви дом</w>
венти ля
бюдже ту</w>
бур г
боле з
Ь СЯ</w>
Ф ан
У чи
Сь ю
Со ня
Са мо
На що</w>
Л О</w>
Додат ки</w>
Детек тив</w>
Гово ря
Го товий</w>
Інтер неті</w>
Європейсь кий</w>
t e</w>
p y</w>
i н
c ь</w>
K E</w>
I C
Gnu PG</w>
G o</w>
C op
B e
9 6</w>
5 8</w>
3 8</w>
інтен сив
іде ально</w>
шу ючи</w>
шу ються</w>
чувство вать</w>
ча я</w>
ціка вим</w>
хра м</w>
фай лі
у гроз
у гро
тыва я</w>
те ту</w>
ступ ен
статисти ку</w>
справж нього</w>
сло вника</w>
склада ються</w>
симво лами</w>
с фе
ру д
розгля нути</w>
роз сі
р них</w>
підпи сування</w>
пря му</w>
проце си</w>
профі лі</w>
праг не</w>
пома ран
п т
офи с</w>
особисті сть</w>
о новити</w>
о кон
насиль ства</w>
нар хі
намага тися</w>
най вищ
на помина
мі ри</w>
му дрі
мо на</w>
лё г
лока льних</w>
ле две</w>
ка ком</w>
зустрі ти</w>
зовніш ні</w>
зни кає</w>
знева джування</w>
зем лею</w>
за сну
з божево
живе те</w>
жен нями</w>
експо нен
ек спор
еволю ції</w>
дру гій</w>
довжи ни</w>
довер ять</w>
джере лом</w>
грі х</w>
груп ування</w>
ги ми</w>
гад ування</w>
га дайте</w>
г ги</w>
відкри ли</w>
вы ше</w>
вы ле
втру ча
ви ходити</w>
ви п</w>
в нести</w>
бо в
безпе ку</w>
ба за</w>
аль ні</w>
автомо бі
Э мили</w>
Т вою</w>
Роз слаб
Рас скажи</w>
Пар ень</w>
На ше</w>
На д</w>
ИТ Е</w>
За бери</w>
Ж ор
Доб рый</w>
Голо с</w>
Бі бліоте
А зії</w>
sub ject
se e</w>
pn c</w>
om mander</w>
interf ace</w>
ep e
c r
am e
Propert yName</w>
O S</w>
KDE DIR</w>
4 4</w>
їх ньої</w>
і му
і мен</w>
част ку</w>
ці ан
циві лізації</w>
хоро ше</w>
хви льку</w>
форте піано</w>
усі єї</w>
у ку
у вір
то ни</w>
тися чу</w>
счаст лив</w>
став лю</w>
слуха ю</w>
слу га</w>
рен ий</w>
регі стр</w>
реаль ний</w>
ре форм</w>
під хо
пусти л</w>
приві ле
працю ва
почу вство
пох му
попро бовать</w>
поки нув</w>
показни ки</w>
погля ду</w>
повсяк ден
поверну сь</w>
по пыта
по нравится</w>
по л</w>
по йдем</w>
пер име
офі ційно</w>
ни це</w>
невелич кий</w>
наяв ності</w>
найкращ ого</w>
ма ме</w>
ли ца</w>
ку пи</w>
кро сво
концер т</w>
клієн ти</w>
й шло</w>
ид ёт</w>
зупини вся</w>
звичай не</w>
запов нити</w>
за ходить</w>
за ставить</w>
за робі
з заду</w>
женщи н</w>
дівчи ни</w>
друго ї</w>
дра би
ди вні</w>
да нням</w>
гру зо
го сті</w>
го ды</w>
гля немо</w>
г н
г ия</w>
відчува ла</w>
вс якому</w>
воро ги</w>
вещ ь</w>
автомо біль</w>
Ц ер
Хі д</w>
Хви ли
Тво и</w>
Результа т</w>
Поль щі</w>
Пові р</w>
Пере ві
Па нове</w>
Отрима но</w>
О ці
Ну мо</w>
Мо ск
Маши на</w>
Да ле
world -</w>
tar io</w>
k ing</w>
g in</w>
SO MA
SOMA LI</w>
On tario</w>
Java Script</w>
7 -</w>
ѕ Я</w>
шу му</w>
член ом</w>
ч a
хромо со
уча сті</w>
університе ті</w>
уб ью</w>
тяг ніть</w>
тич ному</w>
темпера тури</w>
тем но</w>
телеско па</w>
сь те</w>
спільно ти</w>
смы сл</w>
сло м</w>
склад на</w>
сер де
се ль</w>
с клад</w>
ру чку</w>
розташова ну</w>
ро ман</w>
ри ка
ре л</w>
прозо рість</w>
програ мі
пре до
почина ю</w>
поча тком</w>
порож ні</w>
побачи мося</w>
перер вано</w>
пар ку</w>
оці нка</w>
особли ві</w>
означа ло</w>
ні г
не лега
настоящ ий</w>
наслід ків</w>
навчи вся</w>
ми ті</w>
метрі ї</w>
ме жа</w>
малю ю</w>
м ь
л Э
ко ваних</w>
ки дати</w>
ки -</w>
зму шені</w>
запи сом</w>
занима ться</w>
заги нули</w>
забра ла</w>
з ляка
ем ый</w>
досяг ли</w>
двига ться</w>
да ються</w>
гео метри
відкри вається</w>
ві сім
вось ми</w>
воло сы</w>
вклю чити</w>
вка зують</w>
вирі шує</w>
випро бува
виник нути</w>
використовува тиметься</w>
версі єю</w>
вели коле
важли вою</w>
бабу ся</w>
ба ро
б ф
б лі</w>
адре са
Э нб</w>
Швид кий</w>
Ці лком</w>
С У
С И
Рі зд
Пі демо</w>
Поня тно</w>
Повер ь</w>
По йд
Леонар до</w>
Лай но</w>
Ка кое</w>
Зага льний</w>
За ванта
З НА
Гар но</w>
Вы гля
Ви бира
Ва шу</w>
subject s.</w>
st art</w>
re g
ra dio</w>
no w</w>
m ul
cla ss.</w>
Wh at</w>
S S</w>
P A
F F</w>
E R</w>
E R
C EL
єм ні</w>
шука єте</w>
ша ю</w>
чу до</w>
чор них</w>
це ль</w>
хо роб
утрим увати</w>
у г
ті л</w>
тер піти</w>
тенан т</w>
сьо нд
суще ствует</w>
су ю</w>
ступа є</w>
ста вся</w>
ст ри</w>
спові ль
слы шу</w>
скоро тити</w>
середи ну</w>
с ї
рука ви
розпові ла</w>
під сум
пі ї</w>
пі нг
при думати</w>
пра пор
пої сти</w>
послу гу</w>
поли ция</w>
пол не</w>
пое зд
пов ного</w>
по пы
пере хре
пере пи
пере кон
пере важно</w>
пе чен
п н</w>
офі сі</w>
основ ний</w>
орга ни</w>
оран же
обра ного</w>
об ду
о тра
о ну
несподі вано</w>
не шься</w>
не су</w>
не поко
найважливі ше</w>
на щад
на бра
мі тли
малю к</w>
ля ється</w>
лока льного</w>
кращо ю</w>
конфі ден
ключо вих</w>
каса ется</w>
зе лен
звер ніться</w>
зай ме</w>
за хочеш</w>
дя дь
дода йте</w>
довго стро
доб у</w>
до ру</w>
диви тесь</w>
де кла
да ре
д ный</w>
голо дний</w>
геро єм</w>
відкри тих</w>
ві рить</w>
вра жений</w>
використа нні</w>
виконав ців</w>
вибра тися</w>
ви веден
верси тет</w>
верну лись</w>
бі блі
бере ш</w>
ба к</w>
алгорит м</w>
Ш і
Ча сом</w>
Уи л
Та кого</w>
Слі д</w>
С коре
Р ей</w>
Підказ ка</w>
Про ста</w>
По силання</w>
Пере творення</w>
П К</w>
Мі с</w>
Моло д
Мар к</w>
Ле ді</w>
Кар ла</w>
Ка сл</w>
Ди н</w>
Джи вс</w>
Джере ми</w>
Д У
Ввімк нути</w>
Важ ливо</w>
Бу ти</w>
Бу демо</w>
Без пе
Ін те
Іде я</w>
st em
ou p
k s
e u.</w>
c тa
Y e
Th is</w>
And ri
і спи
я то
шта ту</w>
чудо вим</w>
чи лась</w>
хоро шие</w>
хви ль</w>
фотографі ю</w>
усвідо мив</w>
увій шов</w>
тан це
та ль
сучас них</w>
степен я</w>
спостеріга ємо</w>
спа л</w>
рі чки</w>
ряд ком</w>
ру хо
росли н</w>
під ста
при бут
прави льні</w>
поточ них</w>
поперед ні</w>
полови ни</w>
позво лю</w>
под ходя
повер не</w>
по єднання</w>
по гір
пита ю</w>
пере т
пацієн тів</w>
особисто сті</w>
нор мі</w>
но шу</w>
не далеко</w>
намага лася</w>
называ ется</w>
нав ли
ма ну</w>
людсь кий</w>
космо с</w>
кор дон</w>
ко мах</w>
калькуля тор</w>
зор я
зе леним</w>
залиш те</w>
зага льне</w>
з я</w>
з будувати</w>
з a</w>
ж ніше</w>
е ла</w>
ді ан
до триму
дер жива
ген ів</w>
га м</w>
ві рять</w>
ві зеру
впер вые</w>
вмі є</w>
ви микання</w>
веде т</w>
важли ву</w>
ва лася</w>
бит ви</w>
авто ри
Э ч
Ш ість</w>
Роз кажи</w>
Ра п
Р яд
Про вер
За лиша
Дже ка</w>
Д І
Госпо д
Га ла
В пер
Інтер вал</w>
trans lations</w>
olph in</w>
offic ial</w>
kdep r
k mpl
europ a.</w>
eur -</w>
ed it
ag e
W a
LexUriSer v</w>
LexUriSer v.</w>
E d
D oc
CEL EX</w>
Andri y</w>
9 ,
3 200
3200 1L
32001L 00
32001L00 59</w>
0 5</w>
- 3</w>
ґ В</w>
існу ючих</w>
ш ник</w>
ш ер
числа ми</w>
ц ї
у бира
ті стю</w>
тыся ч</w>
технологі ю</w>
темпера тура</w>
тель ной</w>
тек ст
табли ць</w>
сь кими</w>
су м</w>
стрі чки</w>
створю ємо</w>
ст ять</w>
сприй мати</w>
со ре</w>
ску п
сере дня</w>
сервер и</w>
с наружи</w>
рі дини</w>
розслід ування</w>
роз чи
рас скажу</w>
р ри</w>
пі клу
проце сора</w>
приходи ли</w>
примі щення</w>
при че
при сутні</w>
при ступи
при роду</w>
получа ется</w>
поли цию</w>
подума й</w>
поверне шся</w>
пла нет</w>
перетворю ється</w>
от де
основ ного</w>
ну йте</w>
нена вижу</w>
на сіння</w>
на поля
н ному</w>
мо р</w>
мен ы</w>
матер ью</w>
ма ску</w>
м рп
лі ні</w>
лі д</w>
лю ци
ле та</w>
копі я</w>
капелю х</w>
ка фе</w>
ймовір ності</w>
й ною</w>
ис править</w>
зай шов</w>
заво д</w>
жахли вий</w>
жар тую</w>
доро гою</w>
доро гой</w>
докумен ты</w>
диха є</w>
дисци плі
дево чки</w>
д не</w>
д o</w>
гу мані
голов на</w>
га юся</w>
г вин
відчува є</w>
вчи телів</w>
встре чу</w>
вста вай</w>
во ля</w>
ви ступ</w>
ви нні</w>
вз ры
ва ешься</w>
в люб
бі ле</w>
бі л</w>
бе спо
б e</w>
Э м</w>
Ш А
Фра нк
Ф рэ
С тей
С но
С ем
Погля ньмо</w>
По йду</w>
По будувати</w>
Па ку
Не ль
Кон тро
Капіта н</w>
За жди</w>
Гар ний</w>
Вікіпе дії</w>
Ви різати</w>
Вар ша
Б лагаю</w>
ti c</w>
i j
h ome</w>
ag er</w>
Vi de
F esti
9 -</w>
20 12</w>
є ння</w>
я гід</w>
ь ку</w>
ша г</w>
часто ти</w>
хи е</w>
ф ла
учени ки</w>
у у</w>
у сюди</w>
у си
табу ляції</w>
стату с</w>
спога ди</w>
склад ніше</w>
сай тів</w>
с э
розбіж ності</w>
рекомен дуємо</w>
расска зы
ра ю</w>
р кою</w>
пря ма</w>
поя с</w>
посла ння</w>
поді лене</w>
по кро
пер вым</w>
пе чер
пе ть</w>
па л</w>
очере дь</w>
от цу</w>
оста точно</w>
органі зація</w>
опера ции</w>
ознайоми тися</w>
обме жень</w>
нсь кій</w>
но чку</w>
наз вами</w>
нада вати</w>
над ходить</w>
н ник</w>
мы сли</w>
малень кая</w>
лі зм</w>
ло ток</w>
ли вими</w>
ле тить</w>
кілог ра
контра кт</w>
компа нією</w>
комента рі</w>
ко р</w>
кноп ками</w>
и гра</w>
зо ваний</w>
за нять</w>
з ка</w>
жи р</w>
жахли ва</w>
ж ність</w>
економі чний</w>
доро гий</w>
де якими</w>
двер и</w>
да чі</w>
гра ма</w>
голо си</w>
гла з</w>
відповід не</w>
ві кон
во рд</w>
виба ча
верх ньому</w>
в печат
бу т</w>
бре ху
бо к
ба нки</w>
акти вів</w>
Чис ло</w>
Ча к</w>
Фр энк</w>
У і
Свя того</w>
Позво ль</w>
Пи ти</w>
На та
Лю сі</w>
Кл эр</w>
Ка лен
Біль ш</w>
y le</w>
s et</w>
pr int</w>
p ub
p age</w>
ol d</w>
k t
de part
an ia.</w>
SM S</w>
S T
K I
K G
іні ціа
єдна нь</w>
ята є</w>
чудо ве</w>
че ское</w>
циві ліза
ца р</w>
худож ника</w>
хоро ш</w>
хма ри</w>
фор мою</w>
українсь ку</w>
укра л</w>
ува га</w>
у чні</w>
у ей</w>
у див
ту пи
сь е</w>
суну то</w>
страж дання</w>
ста дії</w>
справж ню</w>
со во</w>
случа йно</w>
скринь ка</w>
силь ніше</w>
си я</w>
сертифі кати</w>
сек су</w>
с нима
роз кі
роди телей</w>
работа ли</w>
р a
про ка
про вина</w>
пошу ках</w>
попро ща
полу м</w>
повідом те</w>
повно екра
по могу</w>
пла тье</w>
пла ны</w>
писа ла</w>
пер вая</w>
пацієн та</w>
п ью
озна ки</w>
оди ниця</w>
обличч ям</w>
об ли
необ ходимо</w>
необ ходи
не велика</w>
найбіль ша</w>
н ере
музе ї</w>
моти ва
моно полі
мані пу
м o</w>
куп лю</w>
ку єте</w>
кращ их</w>
комбіна цій</w>
й Ь
ис ку
и ла</w>
зор і</w>
зо ні</w>
зна ходить</w>
за пові
за мисли
за зд
за быть</w>
жит ло</w>
ді сть</w>
дур ний</w>
ду ше
домі вки</w>
дока зів</w>
див ний</w>
держа ва</w>
гро ши
геро ї
ві ші</w>
ві ст</w>
вы пу
висо ка</w>
взаємо зв</w>
вечі рка</w>
ве зу</w>
вби вця</w>
бо р</w>
ак цій</w>
а те
а р</w>
Ш ве
Хоро шая</w>
Уей ворд</w>
Спе ціаль
Симво л</w>
Сек ре
Се кун
С кинути</w>
С делай</w>
Ра дя
Од ну</w>
Між народ
Компо нент</w>
Ко у
Кла ра</w>
К им</w>
Графі чний</w>
Все м</w>
z ip</w>
w id
tr i
th ing</w>
ol e</w>
o s
l and.</w>
kmpl ot</w>
app lic
Qu ery</w>
GN U</w>
4 3</w>
---- ----
я рд</w>
що року</w>
щ ей</w>
ш льо
чер го
че ю</w>
цій ними</w>
ха х</w>
форма льний</w>
у ходить</w>
у смі
у ри
треть ому</w>
то ну</w>
ти лся</w>
те мою</w>
талан т</w>
та йте</w>
т ная</w>
су зір</w>
сту пів</w>
стави мо</w>
собира емся</w>
соб ы
с кру
ребё нок</w>
проце сів</w>
профе сор</w>
прой шла</w>
про мовля
про жи
почу ла</w>
поло тно</w>
поло тна</w>
подиви ся</w>
под роби
пере бування</w>
пар ти
основ на</w>
ос нова
окре мому</w>
одна кову</w>
обі ду</w>
об нару
наста нови</w>
накопи чува
ма ти
ма не</w>
ле гене
конфлік тів</w>
карти нки</w>
карти н</w>
кар ток</w>
йо к</w>
зі грати</w>
зробі ть</w>
зло чин</w>
заплати ть</w>
залиша ти</w>
за пі
за пре
за пози
з ти</w>
з важа
з бу
жен ой</w>
ж них</w>
еко логі
ду ється</w>
до шці</w>
див ним</w>
ди я</w>
двад ця
да ться</w>
голо вы</w>
віс сю</w>
відсут ній</w>
воспо мина
воро т</w>
вмі ю</w>
виник ли</w>
викону ють</w>
ви те</w>
вери шь</w>
ве кто
ва ти
ва ною</w>
ба н</w>
аргу менти</w>
ана ли
Черво ний</w>
Уо лт</w>
При бли
Понима ешь</w>
Поз дравляю</w>
Поба чимось</w>
На род</w>
Мэ ри</w>
Ме ган</w>
М І</w>
Зберіга є</w>
З ор
До ки</w>
Д ай
Гар ри</w>
Во ро
Використо вуйте</w>
Вели кі</w>
men u.</w>
ist an.</w>
ho st
f l
d el
d b</w>
b el
all y</w>
J on
3 -</w>
- 5</w>
інве сто
і гнор
яви лося</w>
фай л
ф ено
тя жко</w>
турбува тися</w>
три вимір
тив ність</w>
те пло
таєм ниці</w>
т вір</w>
сумні вно</w>
су фікс</w>
сторі ччя</w>
сподіва вся</w>
смо к
ска жите</w>
синте зу</w>
с мс</w>
рі дний</w>
раз руши
раз ре
работа ла</w>
ра ція</w>
ра ду</w>
пі ані
про яви
при їхати</w>
полу чше</w>
покли ка
по ціл
по кое</w>
но ти</w>
но сія</w>
ни ке</w>
натисну тою</w>
настоящ ему</w>
н ётся</w>
мен ее</w>
ме ту</w>
короб ку</w>
кліма ту</w>
ка ме
ка бе
к ь
зник не</w>
знаходи мося</w>
зміню ються</w>
звичай ним</w>
зада ча</w>
за бу
економі чного</w>
е у
е ліп
дій шли</w>
діагра м</w>
ду чи</w>
доросли х</w>
де вя
гру бо</w>
гер ц
галере ї</w>
відмін ність</w>
вы р
вкра й</w>
вищ ем</w>
вилу ча
ви дається</w>
в прав</w>
біо логії</w>
бли ска
би вся</w>
б ь
американсь ких</w>
америка нці</w>
ак три
Шабло ни</w>
Цен тру</w>
Франци ско</w>
Уол тер</w>
Скай лер</w>
Ра нее</w>
Програ ми</w>
Повер нути</w>
Пе тр</w>
Пари жі</w>
П ін
Мі сто</w>
Лу ї
Лон дон</w>
Кля нусь</w>
За надто</w>
Е рі
Ди ре
Джи ммі</w>
Джес си</w>
Де в</w>
x -</w>
sear ch</w>
r ysin</w>
o б
help .</w>
ex p
b g</w>
ack er</w>
St re
S m
P -</w>
Jav a</w>
J e
DCO P</w>
B lu
2 х</w>
інсти нк
і ро
що найменше</w>
щи ли</w>
чу тки</w>
чи ї</w>
чи я</w>
ходи ло</w>
счита ет</w>
схо вище</w>
ство рила</w>
смо тря</w>
си вно</w>
сде лку</w>
світ лі</w>
своє рід
свобо да</w>
с со</w>
с с
с ной</w>
с могли</w>
с бу
ри ско
ре д
піктогра мою</w>
підтвер дити</w>
прибу тко
при думав</w>
при вер
представ лення</w>
прави лами</w>
поточ ним</w>
пора хувати</w>
пор но</w>
попроси л</w>
помі ча
поз бави
подіб ну</w>
подо ж
по між</w>
пла ч</w>
пи сь</w>
пере моги</w>
пере йдемо</w>
пе льку</w>
п с</w>
п a
ос новою</w>
ожи да
одружи тися</w>
о тут</w>
о прав
о пові
ню ємо</w>
ну дь
необхід ності</w>
нен ні</w>
не мось</w>
на шем</w>
місце вості</w>
му ра
молеку ла</w>
лег кий</w>
лан дія</w>
лан д</w>
ла ду</w>
л ль
кінце вому</w>
коле дж</w>
кa зa
к ня
й ними</w>
здоро вий</w>
збере жені</w>
запроси ти</w>
запита нь</w>
за п
з д</w>
жа йте</w>
ж ной</w>
дізна ється</w>
до кто
ди и</w>
д ува
гар мо
га ння</w>
вір і</w>
від рі
втор гнення</w>
вияви лося</w>
ви ведення</w>
вере сня</w>
бре хати</w>
бог у</w>
бо ру</w>
актив ність</w>
Чика го</w>
Фло рен
Уи ль
Т А</w>
Синхроні зувати</w>
Се стра</w>
Роз в</w>
П ле
П И
О бы
Не льзя</w>
Не зважаючи</w>
Май я</w>
Коро ля</w>
Ко ха
Ду х</w>
Ген даль
Г риф
Бу деш</w>
Брита нії</w>
Бр эн
Аген т</w>
А зія</w>
А .
Ім портування</w>
vi sia</w>
u lar</w>
o ff</w>
l ook</w>
kdepr int</w>
ic h</w>
U ID</w>
Kr usader</w>
F r
істо т</w>
ѕ Ж</w>
яскра вість</w>
я са</w>
юа ней</w>
щу ється</w>
шко дити</w>
шан сів</w>
чи р
чен у</w>
цій ною</w>
ци аль
х рі
форму ли</w>
ф ле
узбере жжя</w>
уда лось</w>
ува тимуть</w>
три во
три вати</w>
ти ло</w>
та ла
сто сува
сто ла</w>
ста я</w>
ста ття</w>
спа ли</w>
соціаль ної</w>
со з
сніда нок</w>
сла жда
синте за
си те</w>
сержан те</w>
се ку
с вари
піра мі
піктогра ма</w>
підій ти</w>
психо па
про кида
призначен ий</w>
потрапи ла</w>
поги б
по твор
перегляда чі</w>
от кро
ор а</w>
о пы
небе сах</w>
нахи лу</w>
на казав</w>
на ві
моло дець</w>
мо мента</w>
ми и</w>
ме ж</w>
магази ні</w>
ма я
лю док</w>
ли хо
ку ти</w>
кру ги</w>
кроли ків</w>
котри х</w>
короб ки</w>
коро тко</w>
кон ден
ко пи
ко не
ко му
к ції</w>
к на</w>
и дем</w>
и гру</w>
знай ден
захво рювання</w>
закли на
жов тий</w>
ен ия</w>
діапазо ну</w>
дя дька</w>
дорі жок</w>
дода ємо</w>
дов га</w>
дзерка ло</w>
день ко</w>
де ром</w>
давні х</w>
д них</w>
д y
го ди</w>
г a
вы шел</w>
впі й
воло діє</w>
вирівню вання</w>
вер нется</w>
ва шему</w>
ва шем</w>
бай т</w>
б р
акти ви</w>
автентифіка ції</w>
а так
Шар ло
Споко йной</w>
Сою зу</w>
С А</w>
Піктогра ма</w>
Пове ді
Пау за</w>
Пай нс</w>
Остав ь</w>
Нена виджу</w>
Не типовий</w>
Мину лого</w>
Ле о</w>
Ко ллі
Ка л
Ка жу</w>
Дой ль</w>
Ар хі
Ї х
Ідентифіка тор</w>
Єруса лим</w>
yp ro
w ay</w>
w ant</w>
ti ve</w>
syn c</w>
po з
ma t</w>
lo w</w>
la s</w>
in a.</w>
ex t</w>
T L
P a
O N
4 7</w>
інтер не
ін валі
ігра шки</w>
э тими</w>
чита ть</w>
ці нні</w>
цик лу</w>
ха ли</w>
ті лом</w>
тери торію</w>
тер я
теле бачення</w>
сті ль
стур бо
ступ ені</w>
створен ні</w>
сподоба лося</w>
сер п
ру хи</w>
ре чь</w>
ре ч
пі сок</w>
пі дете</w>
пі вто
про ведення</w>
прийня то</w>
при вів</w>
повста ння</w>
по со
пла ва
пере вести</w>
п й
осві та</w>
одна ковий</w>
ня Comment</w>
ну мо</w>
нра вятся</w>
нев довзі</w>
назива є</w>
над ли
на право</w>
на ми
міц но</w>
мо к
много е</w>
мето дів</w>
ме кси
ме ж
маршру т</w>
ма три
ле ст
кра са
контак ти</w>
кольо рами</w>
ка мер</w>
зь є</w>
зо ву</w>
змі ц
земле тру
зд ог
зад ницу</w>
за мку</w>
за зир
ді ру</w>
доступ ний</w>
ди ва
дж ували</w>
де тьми</w>
да тися</w>
гі та
г ни</w>
вчи тель</w>
вто м
вол нова
во день</w>
виснов ку</w>
використа в</w>
ви раз
вен и</w>
вели кому</w>
в пи
бід них</w>
бібліоте ку</w>
бі лки</w>
ба нк
ба зується</w>
авто но
Че стер</w>
Ча сто</w>
Хло пець</w>
Хар ріс</w>
Сі дайте</w>
Пі ду</w>
Поли ция</w>
Одна жды</w>
Од но
О сторо
Наз ви</w>
Ма лювати</w>
К ров</w>
Жін ки</w>
Гро ші</w>
Гре гора</w>
Ан глійсь
u e
sett ings</w>
on s</w>
men ts.</w>
m er
m at
l es</w>
ing .</w>
gr aph
g ot</w>
depart ments.</w>
M S</w>
G u
D e
ї дуть</w>
яви ще</w>
я щик</w>
щи л</w>
чудо ву</w>
чита ли</w>
чи ста</w>
четвер о</w>
цере мо
фи р
трима тися</w>
то нів</w>
те сту</w>
тво рив</w>
счита ешь</w>
сува є</w>
спи ра
си нів</w>
си дять</w>
серед ньої</w>
се на
само лет</w>
с ній</w>
с ною</w>
рі ла</w>
роз шу
роз буди
роди ну</w>
робо чі</w>
работа ешь</w>
під ко
пі р
продовж ував</w>
припи ни</w>
прав дою</w>
пра вами</w>
початко вої</w>
потря са
помира є</w>
погля ди</w>
повер х</w>
побачи вши</w>
по и
переймен ування</w>
паль ців</w>
оста нется</w>
органі зм</w>
одна кових</w>
но вую</w>
на ти</w>
ме шь</w>
мб т</w>
малень кою</w>
ма є
лу ка
лен и</w>
ла зь</w>
ку ча</w>
кру п
кори сні</w>
кон чено</w>
ком пью
ко мою</w>
ко алі
каза лось</w>
звіль нення</w>
за крі
жін кам</w>
жу ю</w>
економі ці</w>
діагра мі</w>
ді ра</w>
доступ на</w>
до вище</w>
диви лася</w>
дета льно</w>
д яку
геро їв</w>
г р
відсут ності</w>
відо ме</w>
від пустити</w>
ві ша</w>
втра чати</w>
вла сть</w>
вигля дали</w>
вигля дала</w>
веро ят
бі лих</w>
беру сь</w>
ав ті
а віа
Ш ери
Півден на</w>
О станови
О Т
Мі ке
Мар га
Ма ло</w>
М ю
Л из
Л и</w>
К І
Завер шує</w>
Дер жись</w>
Девід е</w>
Ге о
Г ри
Ви від</w>
Б ю
Б А
t x
org .</w>
d y</w>
b ack</w>
ab out</w>
R G
L ong
G PS</w>
Er ror</w>
D ani
Cal endar</w>
Al l</w>
6 3</w>
6 ,
інтере с</w>
євро пей
я ть
щу ю</w>
що разу</w>
шпи гу
чин ності</w>
ц e</w>
хо ває</w>
хи ба</w>
функ ціон
уб людок</w>
тяг не</w>
тро ци
темпера туру</w>
тель ное</w>
те мно
т ной</w>
т лі</w>
стільни цю</w>
стар ших</w>
споко йно</w>
слід кувати</w>
слай д</w>
слаб ься</w>
си лы</w>
с ник</w>
робо т</w>
ро стуть</w>
реши ть</w>
резерв ної</w>
рас кры
про йде</w>
пред стави
потя г</w>
подо ждать</w>
поверне мось</w>
пле т</w>
пись ма</w>
пере могу</w>
остро ви</w>
ос нова</w>
опо ру</w>
опини вся</w>
окре мий</w>
одно час
од ною</w>
ну тися</w>
ну ся</w>
ново е</w>
неправи льний</w>
нада но</w>
на тя
на полег
на вантаження</w>
менедж ера</w>
мен шою</w>
мен ша</w>
м эм</w>
лікар ю</w>
ли ще</w>
ка мен
к во
йсь кому</w>
зу ю</w>
зни ження</w>
знач не</w>
зи ти</w>
зверну тися</w>
захо пити</w>
зас нов
запроси в</w>
заплати ли</w>
жи вим</w>
експо ртування</w>
дох нуть</w>
доку пи</w>
дозво лили</w>
довід ника</w>
дові ру</w>
до каз</w>
див .</w>
ди а
демокра тії</w>
двигу н</w>
дав ній</w>
да ху</w>
годи ні</w>
г нув</w>
війсь кових</w>
віді р
відео -</w>
вс якого</w>
во сто
ви щ</w>
взу ття</w>
веде ш</w>
важливі ше</w>
в води
бі л
буду щее</w>
авто рсь
Хи ба</w>
У країна</w>
Стюар т</w>
СТ А
С ы
С Е
Од нією</w>
Некорект на</w>
Каліфор нії</w>
Ка ле
За хід</w>
Дра й
Дов жина</w>
Ва ль
Б ц</w>
rec t
is t</w>
i ve</w>
h ard</w>
S u
M S
I B
D C
3 D</w>
єдну ються</w>
яза тися</w>
юри ди
э ро
ша х</w>
ш ував</w>
чор ного</w>
чека ла</w>
часто та</w>
част ью</w>
хі мії</w>
х нув</w>
узя ти</w>
у видимся</w>
ті ль
ту бер
те ках</w>
сі х</w>
сту ю</w>
стис нення</w>
ста рый</w>
ст ром</w>
справ люсь</w>
ро дом</w>
реак цію</w>
призве ло</w>
преж нему</w>
подат ки</w>
пові р</w>
по ку
плю вати</w>
пере біль
паль то</w>
одна ковими</w>
обра в</w>
ни х
недо оці
нд рю</w>
на трапи
міст ера</w>
мо дер
м те</w>
ле з
кра са</w>
компа ні
ко лу</w>
ко ді</w>
кла си</w>
й н
интере со
измен ить</w>
зовніш нього</w>
зву кові</w>
запроси ли</w>
ж ей</w>
дя м</w>
домаш ній</w>
до чі
до сти
до низу</w>
де кора
гроши ма</w>
гля нь</w>
вір ний</w>
від почити</w>
ві с</w>
вы шла</w>
встре чи</w>
во єн
використову йте</w>
використа ли</w>
ви тон
взя то</w>
в ме
в ло
боя гу
блага ю</w>
Ц e</w>
У спокойся</w>
Ся дь</w>
Сан та</w>
Ри му</w>
Р оби</w>
Прибли зно</w>
Поч ти</w>
Пор ту
П ей
Ме то
Мар кус</w>
К ли
Здра сту
З робіть</w>
З робимо</w>
Ді б</w>
Доклад ніші</w>
Дере к</w>
Да в
Гра вець</w>
Від со
Вре мя</w>
Би лл</w>
Ан ти
Ісу сї</w>
s ome
s a
k sy
j ong
g in
a tional</w>
T I
R es
Open VPN</w>
M E
G L
C A</w>
ї ті</w>
яскра вості</w>
част ка</w>
убий стве</w>
у дар
у видела</w>
сь ма</w>
су дити</w>
слі ди</w>
сила х</w>
свида ния</w>
роз пи
регі она
ра спро
підказ ку</w>
під писати</w>
продов ження</w>
прий о
при стре
при ма
при г
прави льне</w>
пош ёл</w>
пока жи</w>
под звоню</w>
повторю вати</w>
поворо т</w>
по стро
по обіця
пи ш
пер вое</w>
офи се</w>
обме жено</w>
німе мо</w>
ни ни</w>
наступ на</w>
най частіше</w>
на стане</w>
мл рд</w>
медици н
маль чика</w>
ль ным</w>
ло тере
ли сті
кур сів</w>
кри ти
користу ються</w>
ком пь
коло нки</w>
кну ла</w>
к o</w>
зо вий</w>
зда тен</w>
зацікав лені</w>
заванта жувати</w>
же ство</w>
ж ності</w>
ер у
дочер и</w>
д City</w>
го мо
ві рою</w>
все світ
впа де</w>
волну ет</w>
витра тити</w>
виде о</w>
ви віль
ван ной</w>
в ходять</w>
в віч
бор ту</w>
боль шие</w>
беремен на</w>
бай ду
ауди торії</w>
ана логі
актив них</w>
а таки</w>
Эли с</w>
Ш ля
Че кайте</w>
Систе мних</w>
С хе
С тре
С муж
Результа ти</w>
Ребек ка</w>
По ехали</w>
Ні ме
Кла віа
К рей
К рас
Интере сно</w>
Знай діть</w>
Ж одних</w>
Джейм се</w>
Візь мемо</w>
Відо мості</w>
Ве ро
В то
В низу</w>
В казує</w>
Будь -</w>
Бага то
А раб
ypro vinc
yprovinc e.</w>
pn g</w>
ot o
oc k
ital yprovince.</w>
ip edi
gre ece</w>
fil ter</w>
def ault</w>
Ye ah</w>
Ta b</w>
R E
Mahfou f</w>
J PE
200 6
ш ували</w>
ш на</w>
цер ков
це ло
фон д</w>
ф она</w>
уго да</w>
у фп</w>
трудно щі</w>
трима ли</w>
транспо рт</w>
т лу
сти ла</w>
ст ін
со верши
смо трю</w>
си муля
серйоз ні</w>
серед ню</w>
се ктор</w>
свід чить</w>
с ними</w>
ря че</w>
ро сту</w>
під си
пх т</w>
прости те</w>
програ мах</w>
прий мають</w>
при пустити</w>
при гадую</w>
пра ця</w>
почува юся</w>
пострі л</w>
попа л</w>
по ди
переда но</w>
пере са
пе т</w>
паль цем</w>
па р</w>
п лы
обеща л</w>
о коли
ну ме
мі стах</w>
мон д</w>
ми ю</w>
манд рів
кін ців</w>
кур си</w>
ку ючи</w>
ку ме
конфлік ту</w>
ка мені</w>
иде аль
зітк нення</w>
зна ком</w>
змуси в</w>
зда тися</w>
збре хав</w>
запита ла</w>
за хочу</w>
за клад</w>
жи ттє</w>
жи телів</w>
жи во</w>
ж ва
е ром</w>
ду б
де б
го тувати</w>
ге лі
відмі нно</w>
відкри того</w>
відві дати</w>
ви шука
вечери нка</w>
ва лось</w>
бороть бу</w>
бог ів</w>
бизне с</w>
би о
би на</w>
безу м
б с
б л</w>
а лу</w>
а вари
Ха на</w>
Ф он
Сті йте</w>
Со всем</w>
С ме
С ке
По яс
По пробу
По ді
Німеч чині</w>
Міс це</w>
Лу ч
Збі рка</w>
Е ліс</w>
Джейко б</w>
В гору</w>
Авра а
w are</w>
v en
us a.</w>
p lay
key word</w>
et o
en s</w>
an s</w>
af ter</w>
E th
C r
- Что</w>
ши сь</w>
хлі ба</w>
хи рур
хва тает</w>
файло вих</w>
уби вал</w>
у бй</w>
тюрь му</w>
тур ні</w>
то вим</w>
термі нал</w>
сы нок</w>
сцена рії</w>
сцен и</w>
сту пом</w>
сто л
ста ном</w>
со ве</w>
си льним</w>
секу нд
роз різ
ри са</w>
режи мів</w>
прокля ття</w>
принци п</w>
прин ц</w>
прик ро</w>
при ехал</w>
поча лася</w>
понеді лок</w>
поверх ня</w>
поверну то</w>
пла ка
перед бачити</w>
пер вой</w>
п са</w>
п лен
о щу
ні я
не уда
не рами</w>
не відомий</w>
навер ху</w>
на гору</w>
ме тро</w>
лі така</w>
лі вому</w>
ли вою</w>
кубі чних</w>
кре м</w>
кни жок</w>
кис нем</w>
кварти ра</w>
кар ь
к л
зупи нки</w>
зо вана</w>
значен нями</w>
заціка ви
забезпе чує</w>
за ста
за кля
за вести</w>
з рі
жу ючи</w>
жи ться</w>
ж одна</w>
ді ла</w>
друго ю</w>
драй вер</w>
диви ся</w>
дере в
гру н
годин ни
глу по</w>
віта льні</w>
відчува ється</w>
відвід ува
від коли</w>
висо кі</w>
виді лення</w>
верши ні</w>
в ну</w>
бу с</w>
бог и</w>
бог и
ба м</w>
ак ції</w>
а к</w>
Я у
Че лове
Ча стина</w>
Ч ен
Х ре
Фор ма</w>
Ту р
Серь ёзно</w>
Са у
Ре комен
Під твер
Прото кол</w>
Пра ва</w>
Кон текст
Е лена</w>
Е ве
В чи
Бля дь</w>
Близь ко</w>
z i
user s.</w>
sh ould</w>
s w
per c
p d
ot e</w>
l ook
in i
en ti
comp ile.</w>
c ap
bu m</w>
Vi ew</w>
R em
Mc Bri
K ar
F 1</w>
CD DB</w>
6 .
інтерфей сом</w>
э лектро
ше те</w>
ша ми</w>
ш не</w>
чу вство</w>
ч тo</w>
ч кой</w>
хо сь</w>
фотографі я</w>
фотоапара та</w>
ту не
трен иро
това ру</w>
то ні</w>
ти вся</w>
т вере
сі тки</w>
ствен но</w>
спи ною</w>
спа ль
со ч
следо вало</w>
складо вої</w>
склад них</w>
си р</w>
с ця</w>
с працювало</w>
розум на</w>
роз клад</w>
ро у</w>
пта хи</w>
профе сси
прото нів</w>
прокину вся</w>
продовжу ють</w>
приду рок</w>
при крі
при ехала</w>
при вели</w>
президен том</w>
предме ти</w>
потуж ність</w>
повідомлен ням</w>
поверну в</w>
передба чає</w>
органі зму</w>
о три
о пусти
носи в</w>
но вой</w>
не очікува
не знайо
не вро
намага єтеся</w>
на стрій</w>
муль ти
моло ко</w>
мо бі
ми тець</w>
ме д</w>
мб л
літа ють</w>
кін ці
кроли ка</w>
кри зи</w>
кра пки</w>
контро лює</w>
кок тей
ко ні</w>
ко ка
к ей
й oгo</w>
зроби ло</w>
зміню ють</w>
зи ра
зву кового</w>
запу щен
з бага
ен ько</w>
емо цій</w>
ды ха
доб рим</w>
до к
дистрибути ва</w>
дефі ци
гру пами</w>
г роб
г р</w>
відмови тися</w>
відді л</w>
від сила
ві ро
ву єш</w>
воспо ль
влас но
вда рив</w>
ва ете</w>
в чити</w>
в ував</w>
в ce</w>
бу ю</w>
ба с
б ний</w>
а бо
Х ью
Свя тий</w>
С пів
С Ь
Ра зу
Під ні
Продовжу й</w>
Поведі нка</w>
Оста нні</w>
Ми лая</w>
К ло
К ві
За тримка</w>
За кон</w>
Ж одного</w>
Двер і</w>
Двад цять</w>
Бі ля</w>
Ба за</w>
І І</w>
pr int
kno wn</w>
el d</w>
ect ure
e k</w>
e Comment</w>
digiK am</w>
d i</w>
d a</w>
c up
V ir
R ec
Fran ce</w>
Bo x</w>
6 2</w>
5 7</w>
ї ж</w>
ѕ Ж
щу ють</w>
чор ну</w>
чи вся</w>
футбо л</w>
форма льних</w>
фар би</w>
ф ре
уго ди</w>
то не</w>
тич ною</w>
титу л</w>
счита ю</w>
схи льні</w>
су хо
сті на</w>
стви ем</w>
соціаль ного</w>
совер шен
смі тник</w>
смотре л</w>
сен т</w>
се сть</w>
се к</w>
рі чна</w>
ру хом</w>
рсь кий</w>
розповсю дження</w>
роз лучення</w>
роз казати</w>
роди в</w>
підня тися</w>
про хання</w>
пред лага
пре зер
початко ву</w>
понрави лось</w>
позначен их</w>
по люб
переві ряти</w>
пере ко
пере давання</w>
пане ллю</w>
па гор
оши б
от ре
особи сте</w>
особен но</w>
обра ний</w>
облі кових</w>
ну й</w>
но ж</w>
ни ках</w>
ни вся</w>
нен ою</w>
не мовля
мину лої</w>
мен ить</w>
малень кими</w>
ма тиму</w>
ма ни</w>
лі тера</w>
людя х</w>
ли це
ли стя</w>
л тон</w>
л ке</w>
користува чами</w>
комуні ка
комента рів</w>
ком позицію</w>
кап су
ка толи
йсь ке</w>
зроб лена</w>
зник ла</w>
знач на</w>
змі в</w>
защи ща
зай ме
за піз
журна лів</w>
же сто
жбурля нь</w>
ж одному</w>
ж дет</w>
ж де</w>
ефектив но</w>
ек ва
драко на</w>
допомож іть</w>
довкі лля</w>
доб ру</w>
д роб
д ни</w>
графі чний</w>
год ня
го телю</w>
глу бо
гемоглобі ну</w>
відно син</w>
встре ча</w>
вмі єш</w>
вказа ному</w>
винова т</w>
визна чили</w>
ви моги</w>
ве та</w>
в право</w>
би ться</w>
бата ре
асоці ю
актив ності</w>
Ха н</w>
У час
Табли ця</w>
Скоро чення</w>
С тро
Р ан
О лі
Над силання</w>
Н Я
Май ка</w>
Ма лий</w>
М ного</w>
Копі ювання</w>
К ва
До нова
Джу діт</w>
Голо вна</w>
Га даєш</w>
Від стань</w>
Великобрита нії</w>
Ім пера
st op
pref ecture
prefecture s.</w>
nam .</w>
h an</w>
con t
P N
M ag
Dani el</w>
ї сти
ят десят</w>
ши ї</w>
ши ю</w>
чи нити</w>
часо вий</w>
ц п
фізи чно</w>
фігу ра</w>
трима ють</w>
торби нки</w>
то ном</w>
тич ними</w>
т ська</w>
су ці
ст еріга
сльо зи</w>
служ бо
світо ві</w>
ря тувати</w>
росі яни</w>
пунк тами</w>
про шла</w>
про мову</w>
про живання</w>
пра пор</w>
пошу ки</w>
поширен і
пораз ки</w>
помо г</w>
пока ж
по ступу</w>
пля шку</w>
пла кати</w>
перетяг уванням</w>
пере кри
парт нера</w>
очі кував</w>
офі цер
отве тить</w>
особли вих</w>
опи ра
обере жні</w>
ну ється</w>
ни ш</w>
нер и</w>
не сли</w>
не мину
не важливо</w>
наркоти ками</w>
най прості
на руч
моз г</w>
мобіль ний</w>
ма т</w>
м п</w>
м ні
ліз му</w>
лі та</w>
лю ючи</w>
лю ю</w>
листо па
ли цем</w>
ли и</w>
лен ість</w>
ле ц</w>
купу ють</w>
корис ною</w>
копа ти</w>
ком пі
ко та</w>
ко вана</w>
календа рі</w>
каза ть</w>
к сьонд
й п</w>
иска л</w>
избави ться</w>
зміни ла</w>
зво нок</w>
заспоко ї
економі ку</w>
діля нка</w>
дійс ності</w>
доказа ть</w>
деву шек</w>
дво их</w>
д ну</w>
гро м
гра ф</w>
відповіда льності</w>
відкри ється</w>
відда лений</w>
від клю
втру чання</w>
вз ор
в Name</w>
безглуз до</w>
бать ку</w>
базо ю</w>
ам бі
аеро порту</w>
Эн ди</w>
Э р
Чи сто</w>
Фа ри
Ти м
Те ст</w>
Тай лер</w>
Скоре е</w>
Робі н</w>
Півні чна</w>
При клади</w>
Об чис
О с
О блі
Не об
М У</w>
Кон гре
Кла си
Ка ль
За мовкни</w>
За ліз
Г ек
Верх ній</w>
Вели ке</w>
trans lat
rit e</w>
ol a</w>
n ing</w>
j ust</w>
ip er</w>
e ver
St ep
O b
My SQL</w>
In ter
3 .
- Це</w>
- 4</w>
їх німи</w>
ігно ру
єдну ється</w>
ща к</w>
шен и
чолові чий</w>
чита л</w>
цій ному</w>
ці лей</w>
ці ально</w>
ци она
церк ва</w>
худож ників</w>
хре ст</w>
хлоп чина</w>
хвилю йтеся</w>
фут боль
у су
ту й</w>
ти ш</w>
так сі</w>
табли ця</w>
ся т</w>
суспіль стві</w>
спі льне</w>
спро б</w>
сле ды</w>
сер а</w>
секре та
свобо д
с ню</w>
рі чного</w>
роз кажу</w>
роз від
ри бу</w>
резер вування</w>
ра мку</w>
піані но</w>
пі зні
приско рю
приро ді</w>
при ходити</w>
при нял</w>
при везли</w>
предло жил</w>
помі тно</w>
повзу нок</w>
по їзд</w>
по страж
пен сію</w>
пе й</w>
паца н</w>
па с</w>
па п</w>
пi д
об рази</w>
ней тро
не знайом
написа л</w>
нави чки</w>
нав ре
м нение</w>
ль да</w>
лож ь</w>
ку тку</w>
ку пів
контроли ровать</w>
комі р
ко тре</w>
кви ток</w>
кви тки</w>
запла чу</w>
задово лений</w>
зав дан
за мож
з ет</w>
журна лі</w>
діли тися</w>
дур ні</w>
дослі дити</w>
дол ж
деся ти
гор тання</w>
го тів
го л
вір ш</w>
вы шло</w>
встав те</w>
вказі вником</w>
в ували</w>
в мика
бібліоте ці</w>
бюдже т</w>
бор гу</w>
боль шую</w>
бит ва</w>
бажа єш</w>
алге б
Чудо ва</w>
Уда чи</w>
Убира йся</w>
Сно у</w>
С ін
Ра ді
Пе нал</w>
Не забаром</w>
На че</w>
На разі</w>
Мо ні
Марті н</w>
Ма єте</w>
Кон так
Зале жно</w>
Ей н
Дру го
Г ай
Вашинг тон</w>
В інтер
wik i</w>
w er
re s
ou ch</w>
ne ed</w>
l ar
j o
er ror</w>
c urr
as tian</w>
Ta к</w>
P ol
N or
B C</w>
App le</w>
8 6</w>
4 1</w>
199 0</w>
. г.</w>
- Ты</w>
єм ний</w>
я тся</w>
ши нство</w>
цій ній</w>
хе р</w>
ува лася</w>
у йду</w>
тимчасо во</w>
т ні
т ньо</w>
т ке</w>
сіме й</w>
сы ла
сту дії</w>
справж ніх</w>
склад ний</w>
се зон</w>
сво я</w>
само ті</w>
само й</w>
рі ш</w>
розташова ної</w>
ри со
пси хи
пря мий</w>
про ходити</w>
про ки
про из
про він
принима ть</w>
прий шло</w>
призначен і</w>
при був</w>
предло жить</w>
пре фікс</w>
праг нуть</w>
попере дити</w>
помога ть</w>
подо би</w>
повідом ляє</w>
по їз
по чки</w>
по н
по кину
плати ли</w>
передба чува
пере міг</w>
пер шо
пер вого</w>
пен ди
па сажи
осталь ных</w>
осталь ные</w>
остави ла</w>
особи стого</w>
об на
нї хто</w>
но к
ника кой</w>
ни ну</w>
неймовір на</w>
не пода
не медленно</w>
не бажа
намі ри</w>
наз ві</w>
на ступи
на до
на грі
множи ні</w>
мно е</w>
меш канців</w>
мета даних</w>
мереже вого</w>
лі трів</w>
лока льні</w>
ло р</w>
ло ві</w>
краї ною</w>
кра ді
кош тов
ко мо
квадра ту</w>
капіта не</w>
й дите</w>
и ться</w>
и су
зустріча ється</w>
знім ків</w>
змага ння</w>
захва ті</w>
зане поко
залиши лася</w>
загро жує</w>
за моро
за бор
з ма</w>
з ма
жив лення</w>
жер тво
жахли ві</w>
ен те
единствен ная</w>
друзя м</w>
допомог ла</w>
дитин ства</w>
дво рі</w>
гі н</w>
гі дь</w>
г o</w>
віри мо</w>
вір те</w>
відчува ємо</w>
відпові ли</w>
від різа
вы йдет</w>
вста в</w>
вс ём</w>
врахо вуючи</w>
влас ному</w>
вкра ли</w>
висо ким</w>
випад кові</w>
вибо ри</w>
бі г</w>
бать кові</w>
ба ре</w>
ба й</w>
б не</w>
ар ти
англійсь ку</w>
ан гі
а га</w>
Цер к
Ти ся
Початко вий</w>
О стрів</w>
Ні що</w>
Мо л
Ме д
Коро лі
И дите</w>
З окрема</w>
З дава
Емі лі</w>
Гре й</w>
Го това</w>
Ва лен
Бува йте</w>
Бек ет</w>
Бар ба
wik ipedi
wikipedi a.</w>
oun d
od y</w>
li c</w>
ktt s</w>
h u
el lic
c y
at ra</w>
ar th</w>
Y ou
KO rg
IN DI</w>
H ar
CS V</w>
AL SA</w>
0 6</w>
- --</w>
я ті
шкі ра</w>
чолові кові</w>
ці ную</w>
фінансо вої</w>
фі на
у сування</w>
тлу ма
техні ки</w>
тер пля
тексто вих</w>
сь ки</w>
схо жим</w>
стере о
сожа лению</w>
сери але</w>
с пле
с нять</w>
руші я</w>
розмовля ли</w>
роз дра
рит м</w>
ри ба
регіо ну</w>
р спу
р на</w>
піксе лях</w>
підоз рі
проц віта
при ез
порож нє</w>
получи шь</w>
позначен ий</w>
под ро
по тро
по су
по жив
пле чі</w>
пере ви
одно час</w>
об разо
о ра
ні к
ну то</w>
норма льний</w>
нова ний</w>
не відомо</w>
нау ку</w>
на пис</w>
на ме
мультимедій них</w>
му є</w>
ма й</w>
лі на</w>
ло па
лен ню</w>
ко ну</w>
ке до
зібра в</w>
зі а
зни ця</w>
зне вад
змі ніть</w>
зло тих</w>
залиши тись</w>
зако нів</w>
за чі
ер е</w>
дог ори</w>
до кторе</w>
до дав</w>
де лом</w>
два най
да ції</w>
відсут ня</w>
відда м</w>
від кину
вы ро
вугле ць</w>
вос хи
вимага ють</w>
взя вши</w>
вер хі
вби вають</w>
ва нием</w>
бу н
аналі зувати</w>
ана то
альтер нати
Шелдо не</w>
Увімк ніть</w>
Тен ет</w>
Су б
Сле ду
Сві товий</w>
С ви
Під пис</w>
Прочита йте</w>
Прокля ття</w>
По моги</w>
Обе щаю</w>
М С</w>
И ису
Звер ніть</w>
Ен джі</w>
Ди во
Дей в</w>
Д жен</w>
Ви рі
В одночас</w>
Бібліоте ка</w>
Єди ний</w>
or .</w>
m on</w>
k o</w>
it h</w>
is ch
in ter</w>
d om
b ot
S ub
JPE G</w>
In di
Gener al</w>
D ev
інтер вал</w>
індустрі ї</w>
є много</w>
яз ковий</w>
ш ні</w>
чита є</w>
ци лі
хорош ее</w>
хворо ба</w>
фігу р</w>
улюб лених</w>
узго дження</w>
у вижу</w>
ті кати</w>
т огра
сь віт</w>
схо вищі</w>
спробу й</w>
спа льні</w>
соці алі
сол н
ситуа ции</w>
свя та</w>
с можете</w>
різ ко</w>
розумі ли</w>
розпові дає</w>
роз кладки</w>
робо то
ри би</w>
ре .</w>
ра чи
піктогра мами</w>
підруч ник</w>
пів дні</w>
пі до
прямокут ник</w>
процеду ра</w>
про сну
про дає</w>
присут ності</w>
потріб ного</w>
по бери</w>
пля жі</w>
перей діть</w>
пере пов
пе вен</w>
оста нов
об винува
ні сеніт
ня то</w>
ня тися</w>
нейро нів</w>
не достаточно</w>
на разі</w>
на гра
н ця</w>
моде ма</w>
моде лей</w>
мо щ
миттє во</w>
маши ною</w>
ли вих</w>
ку лю</w>
кров ью</w>
кори сті</w>
коло ні
коло н
кар тку</w>
иску с
зня в</w>
зни кають</w>
знач ні</w>
зву ковий</w>
збро єю</w>
ж діть</w>
еле ментом</w>
дозво ль</w>
деся тків</w>
де пози
га ли</w>
від ь
вчи теля</w>
верши ни</w>
вед ме
в ру
в род
в ного</w>
в бра
бої ться</w>
бороть бі</w>
бороть ба</w>
бом ба</w>
а нота
Э М
Ч ЕН
Ра ньше</w>
Р он</w>
Підсві чування</w>
Продол жай</w>
Поч немо</w>
Подиви мося</w>
Поверта йся</w>
По рт
Пер стень</w>
П РА
О ска
Ма ґ
Ма те
Лі ні
И м</w>
За боро
Ж И
Дру зі</w>
Г ад
Впер ёд</w>
І раку</w>
wor ds</w>
vi et
viet nam.</w>
ur l</w>
tool s</w>
ric h</w>
jong g</w>
h as</w>
g g</w>
et s</w>
co p</w>
ay .</w>
You T
Sh ape</w>
P iper</w>
I tal
C a
5 ,
їх ньому</w>
яви тися</w>
шльо нд
ше ф</w>
ш ш</w>
чі сть</w>
ціка вих</w>
хорош его</w>
хао с</w>
х им</w>
фа хі
уда ру</w>
у перед
ть мя
трима йте</w>
тран спорту</w>
тe бe</w>
т кну
су п</w>
су мку</w>
страте гії</w>
старо му</w>
спад ному</w>
слу жить</w>
скрип ти</w>
ско ль
світ лом</w>
свідо мо</w>
све те</w>
сЭ рей</w>
с ливо</w>
с ким</w>
ру хайся</w>
роби тимемо</w>
ро ли
револю цію</w>
пыта ешься</w>
прогре с</w>
присут ність</w>
при во
портре т</w>
поперед нє</w>
пози тивний</w>
повзу нка</w>
по чекати</w>
по хва
перемі щення</w>
па тог
от че</w>
от дать</w>
особли ве</w>
оберта ється</w>
напа ли</w>
на хо
на ведення</w>
мо ём</w>
мо нету</w>
ли лися</w>
ли .</w>
ку ймо</w>
коле джу</w>
ко лі</w>
кліти нки</w>
квіт ня</w>
кварти ре</w>
к стати</w>
к г</w>
использо вал</w>
из де
и ях</w>
зі ро
зберіга ча</w>
заува жити</w>
застави л</w>
залиши ла</w>
з г
з ваний</w>
жу ємо</w>
ж ного</w>
еле мента
е ц</w>
діапазо ні</w>
дум ыва
допомог ло</w>
деву шкой</w>
де к
д ним</w>
візь ме</w>
ві льне</w>
ві ком</w>
выхо д</w>
вы клю
встанов лених</w>
вре мена</w>
вре мен
вказа ною</w>
виклю чно</w>
ви руши
ви разом</w>
ве е</w>
в ший</w>
в прав
в зло
бід ності</w>
бло кувати</w>
бан ди
ато ма</w>
ан на</w>
ак т</w>
Ща сти</w>
Розслаб ся</w>
Розроб ники</w>
Ре волю
По кла
Пари ж</w>
П ері
Оли вер</w>
Обіця ю</w>
О фи
Наступ ні</w>
На бір</w>
Лег ше</w>
Л Я
Кра си
Коман ди</w>
З не
Доро гая</w>
До слід
Га м
Ві йна</w>
Во ль
Вар то</w>
Андер сон</w>
Амери ку</w>
Аль фа</w>
А три
А Ц
І са
tr ol
pa in</w>
ou s</w>
k en</w>
in i</w>
en n
X .</w>
R o
L O
KP layer</w>
7 20</w>
ї дь</w>
ієрархі ї</w>
існува ло</w>
інстру мента</w>
ющ его</w>
ща ти</w>
чи ло</w>
ча т</w>
ча ется</w>
хо зя
уявля єш</w>
уста нови</w>
уста нов
узя в</w>
у ся
т тер
сучас ні</w>
су ді</w>
сті мо</w>
станови ще</w>
ста м</w>
спа с</w>
скопі ю
склад ним</w>
сер жант</w>
рів ним</w>
розгля даємо</w>
регіо ні</w>
реалі зовано</w>
раху ємо</w>
прозо рості</w>
продол жать</w>
про явля
про я
приві з</w>
при скори
помаран че
повно цін
по чер
переда чу</w>
откры ть</w>
ог ид
о знайом
о зва
нсь ким</w>
нова ні</w>
но н</w>
неща сний</w>
небезпе ці</w>
не чко</w>
на ї
на ля
н га</w>
ми т</w>
мето ду</w>
лі таку</w>
ль я</w>
ку ку
кон стру
ко ши
кварти ри</w>
ка ло
ка зок</w>
к ру</w>
й ному</w>
и щу</w>
зу б
зайня тися</w>
за мо
за лучити</w>
епо хи</w>
е скі
доро г
додат кову</w>
дого вір</w>
диспле я</w>
ди ло</w>
дель фі
груп па</w>
грав ці</w>
голо со
го но
гла ві</w>
га р</w>
відо мі
відда вати</w>
вра ть</w>
вні стю</w>
викону ються</w>
вибо р
введен о</w>
валю ту</w>
важли вість</w>
ва йтесь</w>
в ёл</w>
в ный</w>
бас сей
бак сов</w>
атрибу та</w>
автомо би
Яс кра
Ч ж
У эй
Ти пи</w>
Т ЬСЯ</w>
Сер тифіка
Посмо трим</w>
Очі кування</w>
На ведення</w>
Ма кедо
Жа ль</w>
Е рік</w>
Гру пи</w>
Га їті</w>
Ву зол</w>
Використо вується</w>
В будо
Бра во</w>
Бе зьє</w>
Бан к</w>
А лі</w>
w ar
re pub
ot her</w>
op er
ma tion</w>
loc al</w>
le y</w>
j uk</w>
f ol
cv s</w>
b ur
as k
YouT ube</w>
V al
S E
Pi ed</w>
M l
L P
J am
імпері я</w>
ідентифіка тором</w>
і оні
ят надцять</w>
ши те</w>
[...]
