#version: 0.2
t h
o s
a p
ap os
& apos
i n
&apos ;
o u</w>
a n
o u
e r
th e</w>
y ou</w>
a t</w>
in g</w>
t o</w>
e a
e r</w>
i s</w>
l l</w>
o n
e d</w>
o n</w>
a r
m e</w>
o r
&apos; s</w>
e n
v e</w>
n o
i t</w>
an d</w>
o f</w>
s t
h a
i n</w>
T h
l i
e n</w>
w h
r e
er e</w>
a n</w>
e s</w>
i t
o r</w>
th at</w>
&apos; t</w>
w a
s t</w>
th e
r o
t i
r i
l l
W h
. .</w>
e t</w>
r e</w>
g h
Y ou</w>
ou r</w>
b e
a c
. ..</w>
o o
s e</w>
a y</w>
l e</w>
k e</w>
o t
l d</w>
d i
q u
h e</w>
gh t</w>
o m
e v
no w</w>
f or</w>
ou t</w>
a t
b e</w>
s e
ar e</w>
h i
ha ve</w>
th is</w>
u t</w>
no t</w>
l y</w>
c a
n d</w>
y our</w>
on e</w>
s i
m y</w>
o me</w>
qu ot
a b
quot ;</w>
& quot;</w>
w e</w>
&apos; m</w>
it h</w>
w i
u n
&apos; re</w>
o w</w>
u st</w>
m a
r ea
d o</w>
wa s</w>
w ith</w>
t a
g o
c e</w>
d o
e s
Wh at</w>
s h
k now</w>
I t</w>
e y</w>
s a
e ll</w>
c h</w>
W e</w>
c an</w>
A nd</w>
u r
th ing</w>
wh at</w>
ou ld</w>
r a
a ll</w>
l a
c h
n e
f i
en t</w>
th er</w>
d on</w>
@ -
@- @</w>
the y</w>
t o
e l
s u
l o
h ere</w>
m i
H e</w>
wi ll</w>
t er</w>
a l
d e
hi m</w>
o p
j ust</w>
l ea
w an
g o</w>
w or
k ing</w>
u p</w>
g et</w>
li ke</w>
N o</w>
Th e</w>
ri ght</w>
th in
the m</w>
f or
t s</w>
t r
i d</w>
&apos; ll</w>
s o</w>
e c
d s</w>
g i
ll y</w>
f u
ab out</w>
u s</w>
th ere</w>
ro m</w>
oo d</w>
ea r
e e
g u
er s</w>
d e</w>
ti on</w>
f rom</w>
t h</w>
s p
f a
a s</w>
w n</w>
Th at</w>
ea h</w>
ev er</w>
n o</w>
ac k</w>
om e
d y</w>
b ut</w>
a s
wh o</w>
p ro
a g
wa y</w>
v er
l e
h er</w>
c on
t t
oo k</w>
c k</w>
i r</w>
a l</w>
r y</w>
c om
os e</w>
go t</w>
y s</w>
O h</w>
i f</w>
e x
B ut</w>
n a</w>
in d</w>
Y eah</w>
b o
wan t</w>
k ay</w>
u se</w>
&apos; ve</w>
h is</w>
m e
thin k</w>
t ed</w>
S o</w>
v i
s ome
p l
&apos ;</w>
m or
ap p
m o
c ome</w>
es s</w>
on g</w>
m an</w>
k i
d n</w>
se e</w>
k s</w>
b ack</w>
ti me</w>
ou r
a m
Th is</w>
c i
o f
at e</w>
G o
g e</w>
w ere</w>
go ing</w>
g on
st i
p e
g h</w>
s he</w>
v er</w>
gon na</w>
n i
in e</w>
di d</w>
Th ey</w>
ea r</w>
a h</w>
b y</w>
u s
wh en</w>
& #
&# 9
d ay</w>
be en</w>
o l
w ould</w>
g s</w>
g ood</w>
ha s</w>
i s
t e
ev er
an y</w>
W ell</w>
g e
the ir</w>
ha d</w>
p er
H ey</w>
ne ed</w>
r u
op le</w>
an y
t y</w>
y ing</w>
ou nd</w>
ou n
a m</w>
f e</w>
s ay</w>
p re
i r
do wn</w>
se l
sa id</w>
Go d</w>
mor e</w>
en d</w>
p o
H ow</w>
t er
h ow</w>
p ar
ca use</w>
d ing</w>
c k
pe ople</w>
ac e</w>
s on</w>
C ome</w>
m b
s ome</w>
ou gh</w>
on s</w>
ta ke</w>
I f</w>
Y es</w>
S he</w>
c o
th en</w>
d er</w>
a d</w>
O kay</w>
o ther</w>
m u
t u
d er
Wh y</w>
t w
h app
A ll
L et</w>
b u
be li
wh i
c ould</w>
Th ere</w>
ar d</w>
m p
t ing</w>
All ah</w>
f e
o t</w>
ma ke</w>
ea d</w>
ta l
lea se</w>
some thing</w>
th ose</w>
wh ere</w>
A ll</w>
os t</w>
i l
m ent</w>
a in</w>
rea lly</w>
a f
an k</w>
o ver</w>
l et</w>
di dn</w>
n a
to o</w>
D on</w>
M a
&apos; d</w>
ea n</w>
on ly</w>
t ell</w>
or ry</w>
o ld</w>
ou s</w>
D o</w>
v ing</w>
for e</w>
an t</w>
sh ould</w>
s ha
h el
M y</w>
s c
m on
c e
C h
a d
ou ght</w>
tt le</w>
n ever</w>
fu l</w>
v es</w>
i ght</w>
p i
b l
it y</w>
t ur
of f</w>
sel f</w>
ee p</w>
ver y</w>
t e</w>
ev en</w>
do ing</w>
a lly</w>
b i
li ttle</w>
f ri
an ce</w>
ever y
b r
ll ed</w>
in to</w>
o m</w>
bo dy</w>
gi ve</w>
n ing</w>
or d</w>
l ook</w>
N ow</w>
m ean</w>
g re
o kay</w>
d u
g r
k ed</w>
B e
h ear
fi r
s ed</w>
lo ve</w>
c l
th an</w>
w r
g a
be fore</w>
tw o</w>
m in
tr u
p p
li fe</w>
c u
ab le</w>
f ind</w>
Wh ere</w>
d a
su re</w>
re e</w>
b le</w>
w e
L i
d ed</w>
J ust</w>
mb er</w>
1 ;</w>
&#9 1;</w>
mu ch</w>
hel p</w>
3 ;</w>
&#9 3;</w>
v en</w>
e ve</w>
Wh o</w>
p h
S h
s s</w>
wh y</w>
j o
w s</w>
ec t</w>
ne w</w>
whi ch</w>
A re</w>
a way</w>
an g
en ce</w>
s h</w>
the se</w>
ou l
- -</w>
be cause</w>
d r
l oo
it e</w>
p a
e l</w>
I s</w>
sha ll</w>
s orry</w>
wor k</w>
k no
h u
ear s</w>
L ord</w>
t ter</w>
v ed</w>
i l</w>
p u
it i
si de</w>
sti ll</w>
G et</w>
c hi
m ar
beli eve</w>
f t</w>
happ en
y e</w>
s er
w ell</w>
L ook</w>
st ar
t ra
fir st</w>
ag ain</w>
an d
m s</w>
s o
u p
ma de</w>
si on</w>
t ri
r .</w>
st er</w>
Y our</w>
A n
ca ll</w>
o w
a tion</w>
any thing</w>
d ea
thin gs</w>
Th ank</w>
s en
t ly</w>
gi r
un der
y be</w>
ni ght</w>
an s</w>
f in
b a
Th en</w>
rea dy</w>
oul dn</w>
b ro
g er</w>
wa ys</w>
f f
af ter</w>
di s
pl ace</w>
ll ing</w>
p ri
st and</w>
re c
G o</w>
o p</w>
N ot</w>
Wh en</w>
l ong</w>
y our
na me</w>
n ed</w>
com p
s hi
st r
ti ons</w>
c king</w>
O n
m en</w>
ca me</w>
h ome</w>
h ea
to ld</w>
en ts</w>
e ll
e st
oo l</w>
th ought</w>
it s</w>
m ust</w>
s in
w on</w>
c ar
S t
m at
tal k</w>
la st</w>
P lease</w>
S u
ag e</w>
th r
y ears</w>
be tter</w>
s w
l es</w>
I n
p ut</w>
p os
wor ld</w>
m er
m ost</w>
b ab
tt ing</w>
m an
st a
I n</w>
ou se</w>
W a
li ve</w>
C an</w>
ar ound</w>
G ood</w>
or y</w>
gu ys</w>
o wn</w>
e st</w>
M r.</w>
ki ll</w>
ar y</w>
th er
d one</w>
H a
p lease</w>
ee l</w>
m ay</w>
es n</w>
do es</w>
e ly</w>
p t</w>
p r
k es</w>
o le</w>
k ind</w>
k eep</w>
i ce</w>
gu y</w>
ro w</w>
no thing</w>
or t</w>
me mber</w>
se e
gre at</w>
st u
tr y</w>
fa ther</w>
si r</w>
T a
com ing</w>
R e
al ways</w>
y es</w>
w ar
b rea
lo t</w>
D id</w>
thr ough</w>
ll s</w>
every thing</w>
si g
fri end</w>
h ead</w>
s ing</w>
s ur
lea ve</w>
a u
i m
c our
in gs</w>
ever y</w>
ot t
wr ong</w>
mi s
ou s
tur n</w>
v en
st en</w>
do esn</w>
c ha
0 0</w>
c oun
d ead</w>
u h</w>
c rea
l u
s n</w>
h ouse</w>
wi th
to p</w>
d d
le ft</w>
an ks</w>
t en
st op</w>
happen ed</w>
w om
H is</w>
f eel</w>
o ll
mon ey</w>
l t</w>
g en
l s</w>
h ear</w>
i m</w>
h ell</w>
be ing</w>
fa mi
at ed</w>
o b
under stand</w>
u r</w>
gir l</w>
mi ght</w>
p la
f ound</w>
sh it</w>
ac t</w>
us ed</w>
fu cking</w>
F or</w>
j u
an other</w>
in ter
U n
c lea
m any</w>
e sti
s ent</w>
n ess</w>
s l
c re
S e
M ar
c er
ell o</w>
m es</w>
A l
wan ted</w>
z e</w>
E x
con t
an i
su pp
b ad</w>
tu re</w>
c or
H ere</w>
as k</w>
J o
n u
some one</w>
beli ev
s es</w>
t or</w>
tu ally</w>
h an
a in
an ge</w>
di e</w>
n er</w>
c ra
b le
M i
ge ther</w>
N o
min u
g ott
un i
tal king</w>
cour se</w>
i ve</w>
el se</w>
i ll</w>
com m
loo king</w>
sa me</w>
ca l</w>
ea ch</w>
st e
T o</w>
ro om</w>
to gether</w>
bi g</w>
n y</w>
l ess</w>
On e</w>
ha t
en ough</w>
be st</w>
Be cause</w>
th ree</w>
g ra
c are</w>
h ur
d en
in k</w>
en ds</w>
wa it</w>
sa w</w>
Wa it</w>
re member</w>
w er</w>
c r
H ello</w>
fami ly</w>
i mp
Ma ybe</w>
ca r</w>
c y</w>
st ay</w>
ff er
se en</w>
e en</w>
s ch
or s</w>
tr ying</w>
in t</w>
ge tting</w>
in s</w>
f ine</w>
U h</w>
at t
R ight</w>
mo ve</w>
sp ec
l ed</w>
os s</w>
your self</w>
or i
f f</w>
S ome
to day</w>
ta in</w>
ti ve</w>
is n</w>
c es</w>
as s</w>
ot h</w>
rea l</w>
b ea
mo ther</w>
w ent</w>
in g
s y
m ind</w>
al ready</w>
qu i
r ed</w>
p s</w>
ti l</w>
sh ow</w>
sa ying</w>
shi p</w>
y eah</w>
c ur
c an
whi le</w>
n s</w>
ag ain
ti mes</w>
k e
pro ble
again st</w>
d ge</w>
d ri
hear d</w>
bo y</w>
k en</w>
ki lled</w>
wa t
al so</w>
op e</w>
t ook</w>
A r
D o
ca lled</w>
i de
with out</w>
in v
v e
h ar
O ur</w>
da ys</w>
ne x
l ing</w>
de ed</w>
m y
a li
tt y</w>
l at
s et</w>
bro ther</w>
Th e
E ver
S top</w>
th ers</w>
nex t</w>
u gh
f ace</w>
d es
y et</w>
ti on
w ee
D i
h on
f oll
ri ed</w>
or t
l and</w>
wa sn</w>
k new</w>
br ing</w>
a v
m ed</w>
Ta ke</w>
wa l
Ha ve</w>
se con
jo b</w>
Ever y
fu ck</w>
or e</w>
R ea
ck ed</w>
b us
N e
am n</w>
gott a</w>
ch o
wor d</w>
h and</w>
it ing</w>
w ard</w>
up on</w>
s y</w>
ear th</w>
M o
wan na</w>
S orry</w>
F u
er i
t on
di ffer
h old</w>
qu esti
ac k
hat ever</w>
P ro
h e
wh ole</w>
sh ed</w>
A s</w>
hear t</w>
su ch</w>
ne e
ide a</w>
g one</w>
li ght</w>
s ol
H i</w>
C a
iti on</w>
l li
P e
it ch</w>
re s</w>
u m</w>
m a</w>
b it</w>
t ea
un til</w>
pl an
g g
t es</w>
Th anks</w>
b ur
i ther</w>
h un
ce pt</w>
t en</w>
tru th</w>
c ap
d ent</w>
si ble</w>
m m</w>
st ory</w>
bab y</w>
sel ves</w>
d es</w>
h ard</w>
mat ter</w>
me et</w>
b ra
un to</w>
b oth</w>
O r</w>
pro mi
ea k</w>
ac tually</w>
ex p
l ost</w>
ou t
a go</w>
O f</w>
ma ybe</w>
L a
re ly</w>
re p
ni ce</w>
c ri
re st</w>
al one</w>
b or
z y</w>
kno ws</w>
fe w</w>
tru e</w>
po li
C on
any one</w>
proble m</w>
y ed</w>
i c
ru n</w>
an g</w>
fri ends</w>
star t</w>
wa ter</w>
in ess</w>
y ear</w>
wi fe</w>
wom an</w>
os ed</w>
par t</w>
T ell</w>
de st
ch ar
ga ve</w>
m en
ar k</w>
e yes</w>
u e</w>
sch ool</w>
pre tty</w>
D e
on es</w>
w ouldn</w>
c la
E n
e at</w>
a r</w>
el s</w>
S a
mor ning</w>
h er
w ing</w>
ec k</w>
m es
t om
re sp
I N
L e
Li ke</w>
on ce</w>
at ch</w>
in ed</w>
p ing</w>
l dr
dea th</w>
fi ght</w>
f l
D ad</w>
l on
O K</w>
th y</w>
my self</w>
tw een</w>
d re
ph one</w>
c tion</w>
s k
es s
gu ess</w>
ldr en</w>
r on
ch ange</w>
ca se</w>
G ive</w>
per son</w>
of fi
G re
p le</w>
r an
han ds</w>
C ar
ev il</w>
c use</w>
en ti
of f
H im</w>
oo t</w>
e f</w>
Se e</w>
ch ing</w>
or row</w>
i g
do or</w>
our s</w>
is h</w>
d ra
i d
sa ys</w>
F a
st s</w>
J u
it u
u ti
be tween</w>
s on
c ks</w>
com es</w>
pro t
er y</w>
an sw
un der</w>
d ro
me ans</w>
li e</w>
hu h</w>
th ough</w>
fa r</w>
l ate</w>
t ers</w>
po wer</w>
op en</w>
spec i
G u
pl ay</w>
wan ts</w>
clea r</w>
rea d</w>
a ll
c ed</w>
S ay</w>
fi re</w>
h ope</w>
it ed</w>
c ou
ac tly</w>
ac h
secon d</w>
hur t</w>
pre s
M u
Q u
so on</w>
en e
o h</w>
en g
th s</w>
wor ry</w>
r un
st an
r ing</w>
p er</w>
l ine</w>
at ing</w>
ha ven</w>
in side</w>
ous ly</w>
A h</w>
R o
wor king</w>
F i
ir d</w>
sa ve</w>
li sten</w>
d ad</w>
br ought</w>
Li sten</w>
at es</w>
happ y</w>
c ity</w>
every one</w>
i se</w>
J es
g ar
da ugh
happ en</w>
bab ly</w>
no r</w>
de ci
F or
o o</w>
de e
f un
c en
Rea lly</w>
h ind</w>
L o
st ra
bl ood</w>
chi ldren</w>
m om
k id</w>
t ou
l f</w>
c le</w>
ti c</w>
m p</w>
sin ce</w>
m ing</w>
f ter</w>
cra zy</w>
po int</w>
dea l</w>
m ine</w>
c ouldn</w>
d in
ther e
ch ed</w>
S ir</w>
ton ight</w>
S p
p e</w>
thin king</w>
p as
li ty</w>
differ ent</w>
er e
o c
d rea
tr an
B u
minu tes</w>
st ed</w>
st ri
f fi
be hind</w>
lea r
uti ful</w>
gi ven</w>
in d
w on
ma g
me di
o a</w>
nu mber</w>
am ong</w>
ou ble</w>
P re
W ill</w>
ow ed</w>
The se</w>
c t</w>
ta king</w>
M e
s it</w>
ec ted</w>
Wh i
ha ving</w>
c ol
at h</w>
h it</w>
f ear</w>
ch ance</w>
bus iness</w>
t re
ta in
m ur
a w
ma kes</w>
in st
b ed</w>
tur ned</w>
Jo h
as ked</w>
cl ose</w>
f lo
be come</w>
R i
C om
di es</w>
f ac
believ ers</w>
tr ust</w>
oun g</w>
ki ds</w>
A b
fi ve</w>
sa fe</w>
stu ff</w>
tom orrow</w>
daugh ter</w>
p ay</w>
a live</w>
wi sh</w>
th ou</w>
w hatever</w>
ser i
ra id</w>
sh ot</w>
ar i
An y
C l
Ch ri
imp ort
Fu ck</w>
fa v
to wn</w>
d ers</w>
lat er</w>
supp osed</w>
O n</w>
v o
oun ds</w>
k er</w>
lea st</w>
ar t</w>
i gh
g la
No thing</w>
st re
d ding</w>
ar ed</w>
y a</w>
n or
s ou
D ay</w>
d ev
t on</w>
wh om</w>
bu il
rea son</w>
M om</w>
r en
bea utiful</w>
ma king</w>
W ith</w>
loo ks</w>
b ri
ea sy</w>
gu n</w>
H el
o ver
dr ink</w>
ex actly</w>
u n</w>
l an
th ank</w>
Th ose</w>
c ess</w>
di ed</w>
e m</w>
se cre
in deed</w>
promi se</w>
mo m</w>
cl u
Ex cuse</w>
el e
comp le
ck y</w>
hi gh</w>
sp eak</w>
b ar
c tor</w>
su b
fa st</w>
ge ts</w>
z ed</w>
pro bably</w>
al s</w>
ch es</w>
c ut</w>
can not</w>
er ed</w>
h os
te st</w>
par t
T w
ca tion</w>
H ar
fu ll</w>
wat ch</w>
G r
chi ld</w>
cont ro
ea l</w>
be g
an ts</w>
af raid</w>
L u
A t</w>
y er</w>
pl an</w>
fe el
f re
c ent</w>
ch ang
h and
b and</w>
minu te</w>
any more</w>
or der</w>
T H
brea k</w>
h or
f ron
co ll
import ant</w>
el come</w>
0 00</w>
f our</w>
k ey</w>
at u
ha lf</w>
e ful</w>
questi on</w>
g y</w>
poli ce</w>
Jes us</w>
gh ts</w>
f ree</w>
hu man</w>
s la
IN G</w>
wa iting</w>
in t
p ed</w>
per i
mom ent</w>
B o
en ing</w>
m er</w>
m et</w>
st ing</w>
ma d</w>
N i
H old</w>
foll ow</w>
h ours</w>
B i
d ly</w>
P ar
te ly</w>
ch eck</w>
b ook</w>
dest ro
M is
P er
ir s</w>
wal k</w>
j ect</w>
1 0</w>
m ents</w>
fu n</w>
ti ll</w>
s ma
C hi
c er</w>
la r</w>
wom en</w>
an e</w>
par ty</w>
u l
your s</w>
E ven</w>
star ted</w>
M e</w>
ga me</w>
sl eep</w>
lo ck</w>
z ing</w>
d en</w>
F F
s end</w>
am es</w>
kno wn</w>
sig n</w>
in for
c op
u ght</w>
w er
o thers</w>
ta ken</w>
S ha
hi m
ap s</w>
S i
de li
in ce</w>
si ster</w>
re turn</w>
y oung</w>
tri ed</w>
ar en</w>
w it
fron t</w>
go es</w>
gi ving</w>
in a</w>
st e</w>
tea m</w>
re la
A c
do m</w>
M on
s k</w>
mi lli
su rely</w>
sa ge</w>
ma l</w>
b ir
N a
li es</w>
nee ds</w>
te lling</w>
h ey</w>
answ er</w>
sh o
ex cept</w>
un ch</w>
ne ws</w>
di rec
l ose</w>
wa r</w>
t able</w>
p ra
s .</w>
oo d
A mer
o ever</w>
in ing</w>
the e</w>
f ood</w>
on d</w>
b itch</w>
B e</w>
Whi ch</w>
M es
p uni
li ves</w>
him self</w>
h us
Hel p</w>
f act</w>
u lt</w>
ti es</w>
for get</w>
oo ks</w>
B a
Su re</w>
f ect</w>
ca lly</w>
K eep</w>
out side</w>
D u
wor ds</w>
it al</w>
c li
d ang
ou th</w>
h o
sen se</w>
gu i
Sh it</w>
Joh n</w>
R a
p lea
un g</w>
ll er</w>
T i
ac ti
the m
ot s</w>
wee k</w>
Ne w</w>
mis sion</w>
e ts</w>
si ve</w>
W ow</w>
t or
sy ste
ac h</w>
T o
C ap
si c</w>
al most</w>
fi le</w>
in i
us h</w>
run ning</w>
mon ths</w>
e ither</w>
U m</w>
contro l</w>
O R
ha te</w>
crea ted</w>
them selves</w>
e ld</w>
, 000</w>
ma tion</w>
B ro
J e
A fter</w>
lo gi
qu ite</w>
par ents</w>
re v
tr ouble</w>
pi c
p en
li ving</w>
s ci
p ea
gir ls</w>
sh ment</w>
p ur
g ed</w>
B ar
os es</w>
St ay</w>
t y
coun try</w>
ou d</w>
d dy</w>
Ch ar
Tw o</w>
so ci
b li
e mp
a head</w>
tain ly</w>
hus band</w>
ch e
sin g
s ear
ta l</w>
pa st</w>
tion al</w>
D r.</w>
P ut</w>
G en
der ed</w>
M er
Wh oa</w>
fi ed</w>
kno w
J a
W ould</w>
B y</w>
cou ple</w>
gen er
b er
gr ound</w>
bo ys</w>
t un
f all</w>
Gre at</w>
i ll
ven s</w>
fu lly</w>
mi ss</w>
le dge</w>
at or</w>
w in</w>
g es</w>
N ice</w>
c ool</w>
tran s
b all</w>
b la
S ome</w>
gu e</w>
l ow</w>
l er</w>
i es</w>
rea li
d ou
ec tion</w>
tou ch</w>
al ong</w>
ha m
some body</w>
sol u
in es</w>
Mo ve</w>
la w</w>
A d
c s</w>
D a
g ro
resp on
fu ck
f er
pp ed</w>
hea vens</w>
si x</w>
wor ks</w>
it ting</w>
ca l
G e
tr ac
m it</w>
Sh ut</w>
ser v
sc ared</w>
Go t</w>
i mag
mar ried</w>
ear ing</w>
coun t</w>
p or
D av
e ce</w>
stan ding</w>
g ers</w>
h our</w>
in e
dri ve</w>
w ea
S te
il ed</w>
happen s</w>
o s</w>
feel ing</w>
L ea
en tly</w>
P o
re ce
Every thing</w>
inter est
In deed</w>
sp ir
ab i
r or</w>
cu l
d amn</w>
F rom</w>
A g
sma ll</w>
e w</w>
Mis s</w>
ab o
vi c
k ee
f y</w>
up id</w>
offi ce</w>
er ing</w>
comp any</w>
W al
every body</w>
e t
puni shment</w>
con cer
ad dy</w>
h ol
prot ect</w>
sh oot</w>
A N
lea ving</w>
at ely</w>
con si
vi ce</w>
sen ger</w>
h y
n e</w>
d ar
st upid</w>
pos sible</w>
d a</w>
ch er</w>
mi sta
for m</w>
M an</w>
2 0</w>
do g</w>
ri gh
r ac
as king</w>
b ye</w>
milli on</w>
si mp
see ms</w>
Pe ople</w>
m ee
fi gu
On ly</w>
we ap
ear ly</w>
t le</w>
c ess
h ot</w>
t rea
f oo
el t</w>
H uh</w>
war ds</w>
syste m</w>
un k</w>
h aps</w>
pla in</w>
c lo
si ck</w>
fu ture</w>
co ver</w>
secre t</w>
d ate</w>
per son
V i
f la
si des</w>
bu y</w>
li st</w>
c ro
b s</w>
us ing</w>
t le
ma gi
s ound</w>
ver ed</w>
pro vi
g ri
st ru
sou l</w>
sig ns</w>
B ye</w>
J ack</w>
P r
s ons</w>
re li
fa ult</w>
Do es</w>
ti e</w>
m ate</w>
cho ice</w>
pa ti
des er
st op
M or
bu ll
M r
ar s</w>
ex i
pl ac
S am</w>
n ey</w>
p en</w>
sh ing</w>
seri ous</w>
happen ing</w>
ex t</w>
cer tainly</w>
an a</w>
Some thing</w>
Cap tain</w>
ri ble</w>
en s</w>
t ro
e g
pi ck</w>
a tions</w>
te mp
mo ving</w>
th anks</w>
p ap
bor n</w>
know ledge</w>
- -
l os
dd en</w>
w in
str ong</w>
s m
li sh</w>
iti es</w>
il s</w>
speci al</w>
de f
H o
P i
en jo
g rea
B ook</w>
l ey</w>
lo ved</w>
t a</w>
app o
figu re</w>
V ery</w>
dre ss</w>
h a</w>
H on
D amn</w>
tu res</w>
F r
s we
W or
M m</w>
ar m</w>
fi gh
K a
re ma
e a</w>
fun ny</w>
mes sage</w>
cont in
S ar
go d</w>
sur pri
s sed</w>
sur vi
v al
c a</w>
n one</w>
I s
s ort</w>
f it</w>
see m</w>
n ment</w>
lon ger</w>
F ir
su c
b lo
s ea
gr ou
di sc
E ar
H e
lea d</w>
hos p
e ye</w>
pu bli
cl os
se cur
N ever</w>
me mor
Dav id</w>
ha th</w>
t ar
il li
b t</w>
fi eld</w>
p ass</w>
op er
H ur
c ing</w>
sh ouldn</w>
d ance</w>
ce p
n ers</w>
drea m</w>
do ctor</w>
fe et</w>
la tions</w>
fa ith</w>
si dent</w>
ge st</w>
Ma ke</w>
ca lling</w>
sa ved</w>
m oun
am p
believ ed</w>
Fa ther</w>
pla ying</w>
per fect</w>
sh ut</w>
pi ece</w>
lu ck</w>
hear ts</w>
T ur
th ous
sp o
chang ed</w>
H mm</w>
s s
g ger</w>
con ne
W hatever</w>
a ma
si ons</w>
ow ing</w>
d ru
for ever</w>
ro ad</w>
wi se</w>
infor mation</w>
de si
e ther</w>
la dy</w>
fa ir</w>
lear n</w>
ta kes</w>
ec tive</w>
di st
ta tion</w>
W i
t ot
3 0</w>
pea ce</w>
s li
dd le</w>
f er</w>
for th</w>
any way</w>
i ly</w>
e ment</w>
M oses</w>
clea n</w>
stra ight</w>
mee ting</w>
vi ll
pr in
ap pro
B l
C o
l a</w>
go ver
pro du
ex c
a ir</w>
be at</w>
di sp
E very</w>
Fi re</w>
H er
ar ri
buil ding</w>
M ost</w>
c atch</w>
N or
ur ing</w>
F ine</w>
H i
H u
wor th</w>
l ar
wor ked</w>
Ca use</w>
mer cy</w>
C ould</w>
A R
n ear</w>
see ing</w>
co ld</w>
gla d</w>
Y O
bl ack</w>
won der
d ear</w>
l ev
Fir st</w>
wr ite</w>
y e
enti re</w>
gu ar
er al</w>
W as</w>
any body</w>
n al</w>
secur ity</w>
z z
some where</w>
C ha
fi l
li c
loo ked</w>
th i
b oss</w>
es cap
de fin
questi ons</w>
T r
ri de</w>
sp i
Every one</w>
En g
wa ke</w>
er ous</w>
T ru
Y a
a st</w>
Mr s.</w>
v ely</w>
h op
f elt</w>
Re member</w>
fin ally</w>
dee ds</w>
Is ra
S o
Some one</w>
mis sing</w>
mb ers</w>
B r
in f
Hur ry</w>
A n</w>
1 9
g l
si on
wee ks</w>
din ner</w>
s qu
t ary</w>
sing le</w>
sc re
re co
st or
ha m</w>
A u
sw ear</w>
ha ir</w>
m outh</w>
b ack
nee ded</w>
ke pt</w>
2 0
ma ge</w>
ste p</w>
l ying</w>
no ti
ne ither</w>
n er
M an
E R
gr and
hosp ital</w>
ni e</w>
di c
vo ice</w>
s even</w>
P u
ki dding</w>
l ay</w>
th ro
o k</w>
m on</w>
ck et</w>
atu re</w>
r oss</w>
O pen</w>
A le
at ur
righ te
M ay</w>
la w
sear ch</w>
c oo
5 0</w>
sk y</w>
s mar
An y</w>
st ate</w>
ham mad</w>
un ity</w>
est er
o logi
li st
hi gh
pre sent</w>
Mu hammad</w>
ap e</w>
mi li
x i
sti c</w>
l th</w>
bo x</w>
di o</w>
d ition</w>
sp end</w>
u su
we ird</w>
t ory</w>
lu cky</w>
W elcome</w>
OR D</w>
tle men</w>
ex peri
gh ty</w>
b oo
d ark</w>
E l
att ack</w>
C or
C all</w>
vi r
b et</w>
Isra el</w>
pos ition</w>
ci dent</w>
s itu
wh ose</w>
si l
K ing</w>
g n
C ol
r an</w>
H er</w>
ex plain</w>
car eful</w>
cla ss</w>
an ds</w>
re ward</w>
with in</w>
Lea ve</w>
ec u
R u
n am
wor se</w>
en ed</w>
h ood</w>
j a
L ORD</w>
ra ther</w>
pa in
ce ll
hon ey</w>
ci r
W atch</w>
wh ite</w>
p ain</w>
ser ve</w>
re fu
it es</w>
p ath</w>
mu sic</w>
swe et</w>
dang erous</w>
att le</w>
gh t
wer en</w>
H ell</w>
tra v
b b
lo gy</w>
s ac
promi sed</w>
sta irs</w>
f ol
mur der</w>
Th ree</w>
pu ll</w>
f ly</w>
- I</w>
mista ke</w>
su n</w>
ver se</w>
K no
F in
bo ard</w>
comm and</w>
k y</w>
b om
&apos; am</w>
st ers</w>
P a
au th
m b</w>
sp ace</w>
grou p</w>
Mes senger</w>
fe e</w>
w elcome</w>
en d
No body</w>
bu ddy</w>
vi ously</w>
la tion</w>
v ers</w>
at ten
ic a</w>
do w
for tun
mo vi
sh are</w>
fi sh</w>
mo ved</w>
k a</w>
at a</w>
app ed</w>
k in</w>
sw ee
wat ching</w>
pic ture</w>
on g
S c
e qu
en a</w>
on ed</w>
w ers</w>
for give</w>
en ter</w>
hi de</w>
Ac tually</w>
vi ew</w>
hand le</w>
ev id
mon th</w>
me ant</w>
gott en</w>
evid ence</w>
B ra
C la
se a</w>
en se</w>
ea ting</w>
ca ught</w>
ba g</w>
au l</w>
ex am
ba r</w>
K i
po or</w>
w ear</w>
sh es</w>
t in
D addy</w>
is ed</w>
ck ly</w>
th row</w>
dro p</w>
d ying</w>
solu tely</w>
Y e
v ate</w>
figh ting</w>
it ely</w>
wor ship</w>
be lon
b ear</w>
wor ried</w>
ur ed</w>
G a
re qu
no body</w>
g un
li ed</w>
E R</w>
Chri st</w>
ot e</w>
L ooks</w>
ki lling</w>
I sn</w>
1 2</w>
Ear th</w>
s our
rev ea
ama zing</w>
rep ort</w>
h om
pr os
ca mer
vi de
magi c</w>
op p
T om
re ci
ac ross</w>
ch ec
cer tain</w>
gr ap
Su rely</w>
i c</w>
f ell</w>
wit ness</w>
pr acti
h ot
en ty</w>
at s</w>
dou bt</w>
situ ation</w>
dr ed</w>
ci ous</w>
S an
wr it
c ru
S er
amp ;</w>
& amp;</w>
cu re</w>
E d
cor ding</w>
com pu
YO U</w>
F e
Every body</w>
s word</w>
1 5</w>
abo ve</w>
ene my</w>
th re
rea ch</w>
or k</w>
ph et</w>
any where</w>
s ong</w>
M ary</w>
S ec
mis sed</w>
ti red</w>
hea ven</w>
f ur
ea th</w>
hi story</w>
G ra
inst ead</w>
si ght</w>
be came</w>
bro ke</w>
m ach
Mi cha
Ch e
se x</w>
eng th</w>
ta ins</w>
in ted</w>
R es
gover nment</w>
en e</w>
b it
ter rible</w>
v an
off er</w>
ta ge</w>
sp ea
pre ss</w>
bir th
ri fi
L au
in ten
gi ves</w>
e mb
ec ting</w>
comple tely</w>
Ma ster</w>
resp ect</w>
st ard</w>
s ounds</w>
i a</w>
ea se</w>
st y</w>
d g
bra in</w>
E A
ci ful</w>
y le</w>
ester day</w>
sen gers</w>
ori es</w>
se ll</w>
B ab
M at
su m
La st</w>
Ab out</w>
g in
Th ink</w>
on y</w>
c ell</w>
destro y</w>
In di
pa id</w>
s ki
Qu i
ty pe</w>
B ri
M c
st o
w ed</w>
f ru
we dding</w>
jo in</w>
ter ed</w>
h h</w>
h mm</w>
inv ol
F ran
d uring</w>
v y</w>
bo at</w>
t ree</w>
C al
deci ded</w>
ci al</w>
w ind
fin ish</w>
st ood</w>
of fee</w>
un t</w>
plan e</w>
mi ddle</w>
i den
han g</w>
some times</w>
p at
ag es</w>
Ag ent</w>
te ch
simp le</w>
g ni
Ma j
S how</w>
t t</w>
flo or</w>
wh oever</w>
s mo
for ward</w>
R un</w>
O k</w>
char ge</w>
fin i
i e</w>
bus y</w>
bro ken</w>
t wi
gi on</w>
exp ect</w>
Pe ter</w>
pr oud</w>
ing ing</w>
F re
won der</w>
or g
b ly</w>
H en
J os
li ce</w>
ac ked</w>
sol di
Sh ould</w>
o be
b as
n es
D an
M other</w>
destro yed</w>
Ya h
wh ether</w>
wa ll</w>
Micha el</w>
to wards</w>
com for
Y ork</w>
r is</w>
i ld</w>
ch an
secon ds</w>
i re</w>
. ...</w>
bl es
O ver</w>
V eri
ki e</w>
ju sti
th es</w>
H a</w>
t ment</w>
tra in</w>
a ir
sl ee
ang er</w>
thin ks</w>
revea led</w>
pre par
dr in
B ring</w>
pas sed</w>
there in</w>
mi le</w>
for e
hun dred</w>
ha n</w>
f rea
par ti
as su
s n
dd amn</w>
qu e</w>
pro per
G er
f an
m ea
thous and</w>
publi c</w>
G ar
ca st</w>
R ob
ec ts</w>
your selves</w>
B ack</w>
e p
dee p</w>
co vered</w>
fi x</w>
Di dn</w>
i di
di ffi
for ce</w>
smar t</w>
birth day</w>
imag ine</w>
an ing</w>
sh ort</w>
ar ea</w>
j our
el ec
Veri ly</w>
Amer i
r ound</w>
On ce</w>
h i</w>
is su
P ri
ar my</w>
le g
el li
stre et</w>
mo on</w>
pri son</w>
e f
qui et</w>
ver ily</w>
nor mal</w>
gir l
ang els</w>
vic ti
ra in</w>
rec ord</w>
lo ves</w>
ma ster</w>
in no
Ti me</w>
we h</w>
1 00</w>
oun ded</w>
Fr ank</w>
k i</w>
see k</w>
am a</w>
pro gra
ow er</w>
tur ns</w>
&apos; Cause</w>
rece i
Yah weh</w>
s ses</w>
ec i
t each</w>
fe ll
dis app
ki ller</w>
iti ve</w>
r ent</w>
sti ck</w>
In ter
co de</w>
vi ol
e ge</w>
c o</w>
B ur
pp ing</w>
ev ening</w>
stop ped</w>
s itting</w>
S ince</w>
st ea
st ation</w>
M r</w>
do ll
S y
str ange</w>
0 ,000</w>
cu lt</w>
J er
pro f
her o</w>
man ag
ma le</w>
Cl ark</w>
crea te</w>
v ac
e ight</w>
mar ry</w>
Chri st
qui ck</w>
en t
Bi g</w>
fav or</w>
D ar
fi g
Al right</w>
app reci
ri es</w>
ac cept</w>
af f
p sy
an k
wind ow</w>
si bi
oun t</w>
vi sion</w>
it ted</w>
tal ked</w>
su g
R us
ta ste</w>
os sible</w>
P hi
M ore</w>
e d
t ors</w>
es ome</w>
mi les</w>
st ore</w>
pro ve</w>
st at
ea si
un less</w>
go ld</w>
id ance</w>
y ers</w>
ea fter</w>
or ity</w>
Ameri can</w>
gi ft</w>
li ar</w>
g ry</w>
oo m</w>
li ved</w>
tot ally</w>
defin itely</w>
cal m</w>
r t</w>
k it
A L
g ate</w>
ci ent</w>
reco gni
k in
co p</w>
sp ent</w>
po wer
vi s
p ose</w>
ac cident</w>
vide o</w>
ar ti
clo thes</w>
cont act</w>
ge l</w>
ma s</w>
ne igh
A m</w>
den y</w>
ri age</w>
bl ow</w>
sa ke</w>
in ning</w>
gu ard</w>
an n
af ter
ri ch</w>
person al</w>
fre e
ca lls</w>
sig ned</w>
k ness</w>
O N</w>
Ho ly</w>
it or</w>
bo y
a str
c offee</w>
v an</w>
us es</w>
en ding</w>
gg ing</w>
com pe
t ective</w>
gu il
ig n</w>
du e</w>
du de</w>
Per haps</w>
f ra
e du
bu ild</w>
O oh</w>
y esterday</w>
g an</w>
d ence</w>
M mm</w>
m ess</w>
ac ks</w>
inv esti
st om
O N
supp ort</w>
buil t</w>
for got</w>
ac tion</w>
sh op</w>
Ge or
H ea
fa i
fini shed</w>
con ver
sta r</w>
p op
com man
reali ze</w>
mi es</w>
r a</w>
hur ry</w>
- You</w>
li er</w>
gen tlemen</w>
A N</w>
pos se
Gu ys</w>
v al</w>
wh oa</w>
c ard</w>
T ry</w>
Gen eral</w>
or din
se ment</w>
n et</w>
se at</w>
as sh
na tion</w>
c le
ha sn</w>
cop s</w>
A m
plan et</w>
e u
aw are</w>
k ers</w>
girl friend</w>
ck er</w>
im medi
en ly</w>
g row</w>
Ni ck</w>
dow n
qui ckly</w>
l y
ear ed</w>
- What</w>
re su
man i
do ers</w>
en ded</w>
or ts</w>
g ood
cho ose</w>
car e
x ed</w>
cri me</w>
th ird</w>
ra ise</w>
bur n</w>
Mi ke</w>
rela tion
ac count</w>
tru ck</w>
p tion</w>
app y</w>
cor rec
c ted</w>
1 1</w>
c ry</w>
escap e</w>
U s</w>
mi d
Any thing</w>
Amer ica</w>
gh ter</w>
S it</w>
sa fe
Un cle</w>
comple te</w>
sc ri
TH E</w>
ru les</w>
To day</w>
gu idance</w>
Lo ve</w>
ga tion</w>
Char lie</w>
f al
proble ms</w>
ba stard</w>
w ind</w>
S on</w>
s in</w>
Ch eck</w>
sa tion</w>
w earing</w>
hon or</w>
ser vice</w>
k o</w>
lev el</w>
Pre sident</w>
righte ous</w>
oo ds</w>
sh oo
h ole</w>
atten tion</w>
G i
hun gry</w>
e ff
la ugh
as si
ki ss</w>
nam ed</w>
f oot</w>
n ature</w>
man kind</w>
C an
r ace</w>
de ta
wh ere
L A
tr ack</w>
B er
o d
u re</w>
mu l
con v
appo inted</w>
rec or
en er
weap on</w>
K e
Be fore</w>
sm ell</w>
ap ologi
b ank</w>
su it</w>
B en</w>
Sc ot
ro ck</w>
Pro phet</w>
ju dge</w>
fav or
A s
belon gs</w>
fi les</w>
Jo e</w>
ang ry</w>
F ri
qu ar
in ation</w>
d are</w>
s wi
diffi cult</w>
our selves</w>
fe els</w>
wal king</w>
The ir</w>
movi e</w>
mi ghty</w>
n atur
d an
as soci
ar ms</w>
hol ding</w>
O U
ph ot
T u
f ool</w>
Ch u
N ext</w>
Ale x</w>
ta ught</w>
g on</w>
H ow
foll owing</w>
tur ning</w>
si ze</w>
gr atu
ali ty</w>
to m</w>
sin s</w>
al right</w>
pap er</w>
st er
mi ly</w>
u g
A T</w>
tru ly</w>
mach ine</w>
str ength</w>
lo cked</w>
O li
n ames</w>
mar k
go ds</w>
tri p</w>
gi e</w>
con f
tt e</w>
there fore</w>
gr at
S till</w>
kno wing</w>
d ents</w>
ad dress</w>
ne cess
er ror</w>
su per
m ous</w>
M us
justi ce</w>
d ata</w>
min i
il ing</w>
bro thers</w>
y ond</w>
T V</w>
tre at</w>
B I</w>
for d</w>
ag ree</w>
Tur n</w>
gg ed</w>
fa iled</w>
ne l</w>
gen cy</w>
p ort</w>
sh ar
car ry</w>
lear ned</w>
sp e
interest ing</w>
ra ised</w>
tr a</w>
Some body</w>
t ch</w>
Some times</w>
plac es</w>
plea sure</w>
W e
ver s
ki d
est y</w>
p is
ri sk</w>
stu ck</w>
boy friend</w>
power ful</w>
g y
pro ject</w>
Du de</w>
enjo y</w>
B ea
w ood</w>
bl ue</w>
deci sion</w>
b oun
star ting</w>
du ty</w>
S A
a di
ke ys</w>
compu ter</w>
pati ent</w>
e mer
m ans</w>
ag re
hon est</w>
R ed</w>
th rea
hel ped</w>
d ings</w>
T om</w>
H y
en ces</w>
Wal ter</w>
cour t</w>
c at
bl ind</w>
differ ence</w>
fuck er</w>
er t</w>
me mb
in crea
weap ons</w>
b ought</w>
l o</w>
av a
Christ mas</w>
est s</w>
en ny</w>
ac cep
wor st</w>
tar get</w>
li kes</w>
den s</w>
ac y</w>
part ner</w>
clea r
vi ous</w>
ff er</w>
f oc
pre sen
di v
con fir
sac rifi
d on
st one</w>
mar riage</w>
T y
P at
or ders</w>
interest ed</w>
sa d</w>
ap art</w>
sl ow</w>
as sa
pri vate</w>
k ind
L it
o l</w>
Hen ry</w>
s of
mo ther
rea ding</w>
and a</w>
D on
pl es</w>
T al
s un
ga r</w>
b on
m os
C H
camer a</w>
drea ms</w>
ar r
contin ue</w>
p al
i on</w>
ener gy</w>
J ames</w>
Bro ther</w>
y l
O r
Ma x</w>
f an</w>
memor y</w>
Eng lish</w>
sibi lity</w>
dev el
vi sit</w>
tor ment</w>
su sp
S T
ro ll</w>
foll owed</w>
ex cuse</w>
b attle</w>
Any way</w>
ear t</w>
T e
A ah</w>
col or</w>
in ts</w>
k ni
imp ossible</w>
P har
ter r
re si
bla me</w>
E N
op s</w>
cu te</w>
dr unk</w>
O ut</w>
T oo</w>
e ty</w>
c ele
mat ch</w>
coll ege</w>
d iti
o d</w>
ma ls</w>
M a</w>
i ci
S hi
gui de</w>
T ra
S un
o we</w>
Le e</w>
appreci ate</w>
ac cording</w>
per haps</w>
p un
no on</w>
beg inning</w>
E m
fi lled</w>
list ening</w>
T er
G ood
spir it</w>
invol ved</w>
r ying</w>
supp ose</w>
rema in</w>
fa thers</w>
V ic
idi ot</w>
t ough</w>
re turned</w>
itu de</w>
A pp
y si
sp ee
For get</w>
re ve
wa ste</w>
c ate</w>
A bra
prepar ed</w>
D ra
di vi
ol u
or ted</w>
H appy</w>
t end</w>
S am
kee ping</w>
of ten</w>
E li
cri min
hi ding</w>
sc rea
ear lier</w>
ma j
Th ere
Mer ciful</w>
dis believe</w>
J ane</w>
K ill</w>
p ot
wonder ful</w>
i ces</w>
A T
b ene
F ive</w>
inno cent</w>
F ind</w>
th ful</w>
all owed</w>
ll a</w>
Hon ey</w>
ma il</w>
am pi
b us</w>
l es
serv ants</w>
astr ay</w>
y al</w>
assh ole</w>
S eri
bi gger</w>
Be li
hea ds</w>
P aul</w>
relation ship</w>
ar a</w>
ti s
be yond</w>
dra w</w>
l in</w>
ter min
gratu lations</w>
hot el</w>
Y o</w>
S at
k ing
Sar ah</w>
wh er
beg in</w>
b ooks</w>
disc us
sc ene</w>
dd enly</w>
writ ten</w>
hear ing</w>
he ld</w>
fuck in</w>
reli gion</w>
pri ce</w>
bi e</w>
pra yer</w>
cre w</w>
C u
hel ping</w>
fig ured</w>
Rus si
har m</w>
fu l
cre di
ur ch</w>
bom b</w>
hu ge</w>
se par
M om
ex pl
sp l
se x
li a</w>
P l
gre en</w>
ven ess</w>
sci ence</w>
s lo
immedi ately</w>
star s</w>
ri d</w>
ac i
tea cher</w>
gun s</w>
be sides</w>
surpri se</w>
part ment</w>
dis believers</w>
Th us</w>
qu it</w>
Qu een</w>
favor ite</w>
it self</w>
l ord</w>
Rea dy</w>
exam ple</w>
th in</w>
c y
de m
R O
b er</w>
ag ent</w>
men tion</w>
clu b</w>
emp ty</w>
p al</w>
fin al</w>
E L
rec tion</w>
desi re</w>
ar gu
C ity</w>
we st</w>
v ity</w>
survi ve</w>
consi der</w>
comm uni
w ro
Geor ge</w>
brea k
mi c</w>
C lea
li k
e th</w>
D is
ti cal</w>
wr iting</w>
le tter</w>
every where</w>
S ee
ap ar
B rea
Abra ham</w>
ev en
w ine</w>
as h</w>
D ani
o ke</w>
lan gu
E r
jo ke</w>
E u
ar ra
Gr and
s sing</w>
la dies</w>
o id</w>
pr ay</w>
f le
experi ence</w>
wi lling</w>
go ddamn</w>
D ean</w>
ri ver</w>
ra ge</w>
inst ru
fur ther</w>
fi ll</w>
lo cation</w>
d el
li ked</w>
Sha ll</w>
ea st</w>
b en
gui ded</w>
J ac
im pres
st le</w>
ee ding</w>
for gi
fac es</w>
K or
M il
st eal</w>
pp er</w>
W ere</w>
m ot
jo y</w>
dang er</w>
sh owed</w>
ad mit</w>
st ole</w>
T ri
natur al</w>
lo ad</w>
om s</w>
Y et</w>
cra p</w>
ac ting</w>
F BI</w>
an e
den i
de p
H as</w>
re min
ani mals</w>
in j
lo b
W at
opp ort
pro of</w>
a c</w>
cr oss</w>
un cle</w>
f light</w>
ph ysi
deser ve</w>
tu al</w>
Phar a
clos er</w>
L o</w>
c es
in clu
du ce</w>
ac cess</w>
guil ty</w>
dri ving</w>
be long</w>
wro te</w>
l d
be l</w>
s ever
b unch</w>
P ap
doll ars</w>
M s.</w>
cl osed</w>
ou gh
ti ght</w>
st ories</w>
offi cer</w>
oo dy</w>
su ffer
abi lity</w>
W ant</w>
bo dies</w>
oll ow</w>
E S</w>
on el</w>
Phara oh</w>
pre gn
ar ds</w>
tri bu
d ouble</w>
re gi
pur pose</w>
pu tting</w>
es h</w>
z en</w>
v a</w>
n ine</w>
b re
w ol
im my</w>
la u
Joh n
seri ously</w>
s sion</w>
S ch
tt a</w>
- No</w>
l unch</w>
l eep</w>
b ad
H ang</w>
slee ping</w>
o e</w>
sp ot</w>
O ffi
N one</w>
g as</w>
L on
lar ge</w>
gr ace</w>
t in</w>
spe ed</w>
cell ent</w>
te a</w>
f ar
ju mp</w>
vill age</w>
on ing</w>
as on</w>
Lit tle</w>
re sc
y ou
V er
E D</w>
b ot
ti cs</w>
Su ch</w>
H ad</w>
er o</w>
ki ck</w>
th eart</w>
comm on</w>
na tional</w>
Bab y</w>
ess or</w>
der ing</w>
c at</w>
ja il</w>
Ye p</w>
v ous</w>
ir ed</w>
c os
y ö
C ra
fe ed</w>
Tr ust</w>
shi ps</w>
respon sible</w>
Chi ef</w>
est ab
deci de</w>
li m
ang ing</w>
s a</w>
s an
S tu
gra b</w>
N u
p ush</w>
sour ce</w>
progra m</w>
un believers</w>
s is</w>
as y</w>
J ap
Ex actly</w>
W H
li ghts</w>
ca tions</w>
ar rest</w>
sta ying</w>
spea king</w>
Sh h</w>
as se
v ampi
dg ment</w>
c tions</w>
d am</w>
o ws</w>
y an</w>
z ation</w>
ther wise</w>
los ing</w>
con fu
int ro
grat eful</w>
org ani
y o</w>
twi ce</w>
S ta
w eak</w>
feel ings</w>
ten ant</w>
ci vi
ter m</w>
sk in</w>
under standing</w>
hi dden</w>
se qu
M E</w>
pi cked</w>
cr os
pa ir</w>
con fi
apar tment</w>
comp ani
ori gin
cl es</w>
wea lth</w>
fi c</w>
f at</w>
4 0</w>
grea test</w>
ene mies</w>
s ca
mb le</w>
ra dio</w>
pain ful</w>
all ow</w>
En ough</w>
ne ck</w>
lo cal</w>
w itch</w>
nu mbers</w>
hor se</w>
A p
s or
recei ved</w>
i mage</w>
G H
lo vely</w>
eri ff</w>
str on
Un til</w>
e mo
v a
re gre
forgi veness</w>
st ant</w>
H an
- Yeah</w>
ex per
os en</w>
foo t
A no
le gs</w>
b al
fu cked</w>
stu dy</w>
moun tains</w>
s ite</w>
ck en</w>
te sti
pl ans</w>
cir cu
mon ster</w>
in y</w>
ad van
Har ry</w>
T ea
s wa
al ty</w>
k ne
Her eafter</w>
Do ctor</w>
ca sh</w>
ani mal</w>
R ec
E mily</w>
ab solutely</w>
aw esome</w>
Th ou</w>
Ad am</w>
t it
d ry</w>
Seri ously</w>
cele br
in te
ch en</w>
b ird</w>
Ano ther</w>
mat ters</w>
tra ining</w>
ri se</w>
kee ps</w>
Ex cept</w>
re gu
p ack</w>
le g</w>
o grap
de cl
T O</w>
con su
ru le</w>
her self</w>
ca used</w>
M ur
mili tary</w>
ici de</w>
su ddenly</w>
equ al</w>
ver sion</w>
spo ke</w>
t ab
exp ected</w>
ca mp
devel op
tr act</w>
n on</w>
eu tenant</w>
N O
di r
br ings</w>
val ue</w>
inter est</w>
1 0
sa l
J immy</w>
b illi
E asy</w>
sh e
hop ing</w>
g er
bull shit</w>
brea th</w>
Do esn</w>
Dan ny</w>
c lock</w>
in ci
b an
pro cess</w>
b ott
Ar en</w>
sci enti
bu tt
ba lls</w>
mar k</w>
ec es</w>
des cri
dar kness</w>
cr ying</w>
up set</w>
necess ary</w>
hea vy</w>
g ing</w>
en ever</w>
drin king</w>
char ac
De tective</w>
gla ss</w>
Con gratulations</w>
contin u
se l</w>
ll en</w>
de st</w>
cop y</w>
re memb
law yer</w>
li an</w>
S en
se i
hea d
g in</w>
uni verse</w>
M ag
Lau ghter</w>
O b
sp read</w>
ur y</w>
de gre
se tt
adi se</w>
S al
W il
rece ive</w>
lea der</w>
war ning</w>
k a
ro pe</w>
j e
I S</w>
s mile</w>
po is
F our</w>
S im
suc cess
O w</w>
s le
so ever</w>
lea ves</w>
J im</w>
wonder ing</w>
ten ed</w>
in credi
la b</w>
S el
t oo
I T</w>
Wi th
grea ter</w>
on er</w>
sho es</w>
fre sh</w>
ec tor</w>
ti ves</w>
A tt
F l
sig nal</w>
ph o
Dani el</w>
ri di
v el
kni fe</w>
S H
ob by</w>
se cure</w>
p ol
usu ally</w>
Fu cking</w>
FF FF
l ines</w>
an ti
br inging</w>
l oss</w>
l in
is land</w>
el ev
es p
ma p</w>
ing ton</w>
op ened</w>
emp lo
j ected</w>
G ri
wit nes
p an
mp ed</w>
se es</w>
D ro
we ight</w>
victi m</w>
mi l
gh ost</w>
stre ss</w>
st ance</w>
c ost</w>
hea ded</w>
concer ning</w>
c ine</w>
clear ly</w>
pres sure</w>
opport unity</w>
d y
ig nor
arri ved</w>
di an</w>
an gel</w>
tion ed</w>
j i</w>
g en</w>
U ni
beli ef</w>
K im</w>
pregn ant</w>
S ur
wee k
langu age</w>
g t</w>
cap tain</w>
beg an</w>
per mission</w>
ba se</w>
ous es</w>
C op
I N</w>
comfor table</w>
cha ll
cur se</w>
ba th
proper ty</w>
u ty</w>
F ren
m bo
fir ed</w>
di sa
smo ke</w>
pi eces</w>
deli ver</w>
dru g</w>
B ill</w>
y p
f ate</w>
Ju d
w ly</w>
ter y</w>
There fore</w>
susp ect</w>
on to</w>
st age</w>
pre sident</w>
noti ce</w>
Sat an</w>
usu al</w>
F ollow</w>
conver sation</w>
br o</w>
s ane</w>
mark et</w>
pu lled</w>
Lon don</w>
tri es</w>
par ts</w>
Maj esty</w>
B en
ex tra</w>
v ari
per cent</w>
cha sti
b ow</w>
al y
wal ked</w>
shoo ting</w>
en cy</w>
practi ce</w>
sp ort</w>
pla yed</w>
h ello</w>
Wh oever</w>
si bly</w>
elli g
S ol
dru gs</w>
ach el</w>
el ess</w>
A sk</w>
i st</w>
after noon</w>
rela x</w>
obe y</w>
cla im</w>
Un der
rea ched</w>
do ws</w>
cor ner</w>
m o</w>
cha mp
Res ur
ad vice</w>
war n</w>
oul s</w>
Sa ve</w>
me at</w>
bri dge</w>
ac king</w>
I D</w>
dir ty</w>
s old</w>
ex tre
ali d</w>
surpri sed</w>
fl ying</w>
e .</w>
is m</w>
With out</w>
per for
fa ster</w>
Wh ite</w>
An g
tre es</w>
B la
dar ling</w>
trav el</w>
qu een</w>
L ou
ma in</w>
ad d</w>
p a</w>
emer gency</w>
ge ant</w>
be er</w>
C am
apologi ze</w>
te en</w>
tech no
c us</w>
ar ro
bi g
king dom</w>
exi st</w>
v ol
tur ed</w>
St and</w>
Po lice</w>
pic tures</w>
tri al</w>
ea l
a st
c up</w>
L is
ni ght
d ow</w>
se y</w>
Be tter</w>
plan ning</w>
com b
A l</w>
at e
do ors</w>
Scot t</w>
Resur rection</w>
lau gh</w>
simp ly</w>
bot tom</w>
medi cal</w>
war m</w>
th ou
chi ef</w>
R achel</w>
ther ed</w>
hu mans</w>
S ounds</w>
ma s
R os
Re la
gre ss</w>
mur dered</w>
te lls</w>
i dea
di ck</w>
t ori
ser ved</w>
A li
mon y</w>
ur an</w>
d ust</w>
tr ate</w>
sho ws</w>
emb arra
t ext</w>
neigh b
ca mp</w>
up stairs</w>
f o
I L
ar re
. S
2 5</w>
yö u</w>
recogni ze</w>
de l</w>
M ama</w>
ra di
b on</w>
Al ways</w>
Mom my</w>
li ties</w>
Oli ver</w>
fer ence</w>
Un ited</w>
con dition</w>
ven ge</w>
p ants</w>
cor ru
d om
Bo b</w>
ch osen</w>
Pro bably</w>
w are</w>
fl ow</w>
ab ri
H ouse</w>
g ames</w>
brea king</w>
b ru
C oun
safe ty</w>
re search</w>
ine se</w>
d it</w>
comm unity</w>
T ha
st yle</w>
U S
g ain</w>
s ouls</w>
lik ely</w>
ex ecu
do gs</w>
ob viously</w>
Bl ack</w>
fa mous</w>
N A</w>
ce ed</w>
W ise</w>
sum mer</w>
m or</w>
foc us</w>
p es</w>
li gh
Be sides</w>
gr an
dev ice</w>
soldi ers</w>
ch urch</w>
th ir
sion al</w>
ini on</w>
ck ets</w>
G l
spee ch</w>
r ou
f ought</w>
reali zed</w>
bo ther</w>
U p</w>
see med</w>
il able</w>
en ter
dri ver</w>
d evil</w>
d am
l ts</w>
tt ers</w>
ner vous</w>
cur rent</w>
do cu
Fren ch</w>
bir th</w>
l ds</w>
&apos; S</w>
chec ked</w>
fil m</w>
G ir
c ated</w>
R om
L ong</w>
cro w
serv ant</w>
per f
ha dn</w>
C O
s ev
K en
Cal m</w>
t i</w>
bl oody</w>
e k</w>
W r
Clea r</w>
to ward</w>
ca ke</w>
c ts</w>
le st</w>
stu dent</w>
believ ing</w>
jour ney</w>
i us</w>
e x</w>
Ch inese</w>
U R
&apos; all</w>
su ffer</w>
chang es</w>
n ose</w>
pop u
sen ding</w>
D am
sh oul
m per
reve lations</w>
Ab solutely</w>
stor m</w>
b lock</w>
St ar
pa y
hur ts</w>
fir m</w>
ch ee
b at
Un less</w>
P ea
d addy</w>
crea tion</w>
secre ts</w>
m i</w>
Di rec
my st
cul ous</w>
Li fe</w>
tri ck</w>
bur ning</w>
t ee
ri ous</w>
A S
moun tain</w>
be ha
n on
auth ority</w>
brea the</w>
est ly</w>
H igh
s na
oper ation</w>
in n</w>
r ough</w>
ti al</w>
L y
sp ring</w>
plac ed</w>
st and
sp ell</w>
T or
ol der</w>
ous ness</w>
f li
stri ke</w>
os oever</w>
2 4</w>
shi rt</w>
ch u
di a</w>
Tru th</w>
Nor th</w>
ri s
re lease</w>
Li eutenant</w>
fa ke</w>
pri son
o es</w>
mi rac
la use</w>
h o</w>
le tting</w>
vers ity</w>
ar on</w>
men tal</w>
d i</w>
as leep</w>
H ol
fe male</w>
M al
La dies</w>
vir us</w>
there of</w>
di so
su per</w>
a de</w>
fin ding</w>
U se</w>
n ur
en sive</w>
bea uty</w>
po wers</w>
nor th</w>
Pu ll</w>
I .
Com p
un e</w>
r on</w>
stu dents</w>
sa ving</w>
I sa
Br it
l ess
in her
bull et</w>
z a
b a</w>
Cla ire</w>
A f
in sane</w>
la id</w>
wor thy</w>
sha me</w>
C rea
hea ding</w>
answ ered</w>
I C
re ck
p ack
Ri ch
mu m</w>
ch ose</w>
St re
Pre tty</w>
Indi a</w>
Gu ess</w>
v in</w>
li ter
g le</w>
A fri
swee theart</w>
he at</w>
issu e</w>
ava ilable</w>
h oo
memor ies</w>
Ch ris</w>
W illi
Rela x</w>
Y oung</w>
W ar
vi a</w>
sy n
i .
Tal k</w>
St ates</w>
car s</w>
R ay</w>
prof es
div or
correc t</w>
Hi gh</w>
1 6</w>
part ners</w>
in de
o il</w>
b ag
c ers</w>
compe t
Ro ger</w>
star ts</w>
cle an
Pro f
lic ated</w>
h at</w>
S outh</w>
I T
pho to</w>
C ool</w>
in ven
e h</w>
ag ed</w>
par k</w>
bath room</w>
W in
Q uran</w>
la d</w>
big gest</w>
me mbers</w>
H al
H or
C ut</w>
B on
b ite</w>
wi ves</w>
or ed</w>
fl esh</w>
Bi lly</w>
du mb</w>
ste ps</w>
z a</w>
re gar
No ah</w>
p age</w>
O u
conne ction</w>
5 00</w>
os h</w>
o on</w>
re move</w>
f ro
Th om
M AN</w>
ac hi
soldi er</w>
sacrifi ce</w>
at temp
Good bye</w>
ll e</w>
r ap
hy po
Pr in
wi s
gr and</w>
Si x</w>
S in
sol ve</w>
ju st
Wh oo</w>
K ar
no where</w>
Par is</w>
fan ta
st ry</w>
bir ds</w>
Mes sengers</w>
maj or</w>
deli vered</w>
ton gue</w>
h ouses</w>
mani fe
dro pped</w>
sta yed</w>
in du
mi r
1 4</w>
spl it</w>
exc ited</w>
ck les</w>
Mar k</w>
2 00</w>
be d
ac c
b ing</w>
R E
B oth</w>
on om
easi er</w>
I sla
B oss</w>
ordin ary</w>
fa il</w>
ro of</w>
b ones</w>
Mat t</w>
fol ks</w>
J on
Com m
all ey</w>
1 3</w>
Whi le</w>
for gotten</w>
ea s</w>
Ag ain</w>
wi de</w>
int ellig
O R</w>
For giving</w>
E gy
mother fucker</w>
Tom orrow</w>
re qui
thre w</w>
1 8</w>
idea s</w>
po ints</w>
sug ge
be hold</w>
ing ly</w>
th less</w>
I I</w>
thre at</w>
some how</w>
it a</w>
gra de</w>
An na</w>
te e</w>
pres ence</w>
respon sibility</w>
D en
Bar ry</w>
x es</w>
Gr ace</w>
L in
val u
T on
J en
sa ges</w>
expl os
hea lth</w>
Bo y</w>
pu re</w>
for bi
Dro p</w>
u se
i. e.</w>
wi ld</w>
l ated</w>
ani c</w>
C er
ad ed</w>
E at</w>
B obby</w>
wr ong
gro wn</w>
a i</w>
tee th</w>
V al
E ver</w>
pe at</w>
o logy</w>
concer ned</w>
wi lls</w>
at ors</w>
vi e
sou th</w>
pos sibly</w>
be g</w>
P en
su ffi
wa lls</w>
ep h</w>
techno logy</w>
F F</w>
st rea
chasti sement</w>
S tr
s si
ridi culous</w>
ch ea
b es</w>
provi de</w>
chi cken</w>
aw ful</w>
E ri
h ou
U N
I S
sin gs</w>
nu ts</w>
lo ose</w>
direc tion</w>
deni ed</w>
M ust</w>
be st
S ti
me an
w re
m my</w>
m el
sh a</w>
How ever</w>
fami lies</w>
pos ed</w>
l t
V E</w>
ig n
si cally</w>
comm it</w>
L oo
tou ched</w>
op tion</w>
l ots</w>
kid n
week end</w>
bas ed</w>
dre ssed</w>
ou tta</w>
g a</w>
dre w</w>
H un
wh om
st ol
diso be
El ena</w>
Wa ke</w>
Any one</w>
sy mbo
e li
be ll</w>
z i
cu stom
B lu
app ing</w>
u al</w>
Pap a</w>
b ound</w>
a side</w>
sever al</w>
break fast</w>
off ering</w>
e tte</w>
answ ers</w>
thous ands</w>
pa ying</w>
cha ir</w>
plea sed</w>
thou ghts</w>
gener al</w>
ann oun
Mus li
AN D</w>
tech ni
ear ned</w>
Tom my</w>
Mor ning</w>
bu ried</w>
Col onel</w>
att acked</w>
fa lling</w>
ac coun
K ir
gra du
D own</w>
pres sion</w>
stron ger</w>
e qui
am ount</w>
cli ent</w>
terr ori
w oods</w>
sil ver</w>
Wor ld</w>
no te</w>
la s</w>
fortun ately</w>
Jos eph</w>
bu l
M ini
Cl ose</w>
Chri sti
de t
n early</w>
ev ent</w>
d an</w>
h anging</w>
un just</w>
elec tri
tra l</w>
gre w</w>
i do
di ence</w>
fami liar</w>
kin ds</w>
Kno wing</w>
j ects</w>
W on</w>
et c</w>
C ur
s m</w>
ju d
h ost</w>
fac i
i or</w>
cre dit</w>
comp la
fru it</w>
ll ow</w>
les son</w>
for ced</w>
trans gre
noti ced</w>
dest ru
ef for
f ty</w>
ac ts</w>
Beli eve</w>
E N</w>
wor shi
Sa me</w>
wol f</w>
L at
lo e</w>
ci an</w>
gu est</w>
be comes</w>
app ear</w>
M in
gg le</w>
Par adise</w>
s --</w>
con sci
Sh oot</w>
c in
La dy</w>
6 0</w>
kit chen</w>
Ste ve</w>
th u
sug gest</w>
for mer</w>
L or
B ru
li f
y ard</w>
har d
Sar a</w>
fal se</w>
bra ve</w>
ne w
th a</w>
or dered</w>
John ny</w>
I m
w hat
C ro
th us</w>
cu lar</w>
cap able</w>
a ds</w>
recor ds</w>
ch o</w>
Pr ince</w>
st af
regre t</w>
mul ti
sev ere</w>
T ony</w>
lo wer</w>
Ch ina</w>
Prof essor</w>
re sta
S end</w>
ho ly</w>
o x
resta ur
vic tory</w>
d we
comp li
.S .</w>
investi gation</w>
gra ve</w>
M ac
sch edu
fer red</w>
ta il</w>
soci al</w>
sel ess</w>
r ate</w>
the ory</w>
eci ally</w>
M y
pre fer</w>
gl ory</w>
comp licated</w>
ri e</w>
re venge</w>
ce l</w>
pro ph
resc ue</w>
Na me</w>
ar med</w>
N ope</w>
Chi ldren</w>
inv ited</w>
W est</w>
s at
l oud</w>
Offi cer</w>
I A</w>
r ings</w>
pl ant</w>
le m</w>
tru sted</w>
re comp
pl enty</w>
free dom</w>
co ven
D el
ver t</w>
bl es</w>
or ter</w>
l thy</w>
d ness</w>
bott le</w>
j ack
da mage</w>
cen se</w>
conne cted</w>
P ark</w>
Je ws</w>
prot ection</w>
fortun e</w>
ear n</w>
j er
wis dom</w>
SA W</w>
stre ets</w>
tra p</w>
comm itted</w>
p ool</w>
li br
Ser geant</w>
0 s</w>
ver ses</w>
vi or</w>
comman ded</w>
billi on</w>
it ation</w>
a ld</w>
Ri ck</w>
ous in</w>
iden ti
happ iness</w>
re be
P la
p hi
Be hold</w>
esp ecially</w>
el ing</w>
assu me</w>
vampi re</w>
o b</w>
j eal
men tioned</w>
mea sure</w>
si mi
el a</w>
consi dered</w>
an na</w>
Th ings</w>
Ja ke</w>
ve ment</w>
stol en</w>
che mi
P al
crimin al</w>
T en</w>
ri vers</w>
cou rage</w>
Em ma</w>
gi c</w>
fi re
lob al</w>
c ities</w>
car ds</w>
l ab
st an</w>
on al</w>
f lu
af ford</w>
z er</w>
laugh ing</w>
p ost</w>
mes sengers</w>
crea m</w>
dist in
st on</w>
pl us</w>
be tra
D r
bur ned</w>
- Yes</w>
f oun
mes senger</w>
su icide</w>
av oid</w>
V in
W ay</w>
stru c
si a</w>
G or
origin al</w>
A aron</w>
cen ter</w>
ga ther</w>
R A
D NA</w>
K u
ga tive</w>
ab ly</w>
L an
sh el
b un
Rich ard</w>
guar ds</w>
Un to</w>
Be st</w>
1 7</w>
fi xed</w>
dis covered</w>
accep ted</w>
Wh ether</w>
Cop y</w>
agre ed</w>
desi res</w>
J ason</w>
Sh e
pro per</w>
fin ger</w>
ru in</w>
kno ck</w>
high er</w>
stan ds</w>
manife st</w>
ma in
chang ing</w>
c on</w>
D ev
D ec
li fe
f on
bar ely</w>
dist ance</w>
S k
In st
spo ken</w>
a tive</w>
U S</w>
B ad</w>
en vi
ro bb
Che ers</w>
tra de</w>
cri p
ur ity</w>
S we
m itted</w>
g am
s er</w>
ex pla
pre tend</w>
y oun
arre sted</w>
th ur</w>
believ es</w>
car es</w>
rec ently</w>
U gh</w>
Ch loe</w>
an cient</w>
tot al</w>
hun t</w>
disp u
t ape</w>
sh owing</w>
v el</w>
provi ded</w>
pl u
pre ci
dis gu
witnes ses</w>
S on
re mind</w>
hor rible</w>
fa lls</w>
pra ise</w>
ell ow</w>
disapp eared</w>
ru ined</w>
sh ower</w>
ne t
har der</w>
ch est</w>
Y u
deta ils</w>
gar den</w>
fa llen</w>
c ook</w>
ter ms</w>
ni ghts</w>
fell ow</w>
sc ar
it able</w>
brea d</w>
be low</w>
tin y</w>
rea lity</w>
A ye</w>
pres sed</w>
care er</w>
A w</w>
comp as
gro wing</w>
ch ers</w>
ac u
E ast</w>
crea tures</w>
mil k</w>
ec tly</w>
phot ograp
Qui ck</w>
Fre e
discus s</w>
S ig
per ate</w>
lea ds</w>
T ar
Pat ri
Do c</w>
B ec
ic o</w>
ur a</w>
pun ish</w>
F la
ve hi
under stood</w>
s me
bene fit</w>
Jac ob</w>
J ack
er a</w>
re lea
or es</w>
mur der
20 0
staf f</w>
D eath</w>
K now</w>
manag er</w>
easi ly</w>
Am anda</w>
ver ing</w>
frea k</w>
oc ean</w>
Ta e</w>
dea ling</w>
D .</w>
M os
hand some</w>
p ers</w>
Chu ck</w>
r ange</w>
dis ease</w>
an o</w>
dan cing</w>
y or</w>
sh i</w>
ill eg
in si
run s</w>
me aning</w>
flo wers</w>
Stre et</w>
L E
m ming</w>
ni fi
fin ds</w>
sen s
b ear
S an</w>
wh osoever</w>
me ly</w>
ex cellent</w>
peri od</w>
coven ant</w>
sub ject</w>
sha lt</w>
r ant</w>
b ac
associ ate</w>
medi a</w>
Le x</w>
sa tis
h ome
B A
incredi ble</w>
ev in</w>
di str
suffer ing</w>
mat es</w>
ren der</w>
re l</w>
ge ment</w>
conv in
c tors</w>
ob vious</w>
b in</w>
li on</w>
sha ke</w>
So on</w>
v o</w>
v ation</w>
con du
gr ant</w>
c ousin</w>
tra ffi
b right</w>
mo ves</w>
in iti
the tic</w>
no ise</w>
a k</w>
Car l</w>
ug ly</w>
mo del</w>
wr on
ac ted</w>
c iti
. A
lli ant</w>
C oll
r i</w>
St art</w>
Ar thur</w>
on i
S et</w>
N ay</w>
Russi an</w>
po t</w>
re spec
se lling</w>
de mon</w>
charac ter</w>
Pea ce</w>
ac he</w>
requ est</w>
ci l</w>
v ent</w>
ju dgment</w>
re jected</w>
un it</w>
so li
me ter</w>
d le</w>
K ate</w>
swee tie</w>
appo int
S il
intro duce</w>
ari es</w>
an cy</w>
Sp eci
li c</w>
hom es</w>
f ea
sour ces</w>
pri est</w>
de partment</w>
gg y</w>
op ening</w>
mp s</w>
ex change</w>
ce lls</w>
a do
lo y
enti al</w>
bu cks</w>
g ay</w>
ec onom
Sh eriff</w>
wa sh</w>
thro at</w>
good ness</w>
wh enever</w>
ni a</w>
Prin cess</w>
I ta
forbi dden</w>
ane se</w>
Al so</w>
se ction</w>
da r</w>
de ce
W om
circu m
th o
ti cket</w>
mat eri
gen ius</w>
sc r
K at
wea ther</w>
Ch o
tr ou
ti cally</w>
for est</w>
su e</w>
j un
Su b
con ven
ch i</w>
con c
V o
ti dings</w>
estab li
O ld</w>
Ne ither</w>
di stri
sur r
po cket</w>
su ck</w>
pl ate</w>
sh ape</w>
di g</w>
sle pt</w>
restaur ant</w>
ell s</w>
dr a</w>
b its</w>
ang ed</w>
sh y</w>
l ot
Pe te</w>
war ned</w>
regu lar</w>
Mar tin</w>
Al though</w>
ta sk</w>
z ero</w>
sla ve</w>
exp lo
C oo
ca ses</w>
app ar
Ch an
pap ers</w>
h ow
war ri
exp ecting</w>
u sa
stat ement</w>
sh u
perf ectly</w>
li ft</w>
increa se</w>
for ces</w>
bles sed</w>
ha ll</w>
sp y</w>
ll ers</w>
eff ect</w>
t ity</w>
plan ned</w>
olu tion</w>
des k</w>
Ton ight</w>
argu ment</w>
e ter
G ro
D ou
App lause</w>
mes sages</w>
n t</w>
af fair</w>
op inion</w>
op hi
gi ant</w>
at trac
gar dens</w>
bo t</w>
wat ched</w>
sc ary</w>
tur y</w>
on line</w>
wi cked</w>
lat ely</w>
solu tion</w>
victi ms</w>
L O
c ome
soci ety</w>
le ts</w>
h en
bu t
S I
R EA
mi se</w>
r at</w>
ha st</w>
dis ci
K evin</w>
sh ine</w>
fin gers</w>
con tract</w>
Nu mber</w>
success ful</w>
rea sons</w>
neigh bor
envi ron
b in
pu l
prin ts</w>
da tion</w>
vi sible</w>
mi ser
Willi am</w>
ga thered</w>
b ath</w>
wher ever</w>
f arm</w>
fa shi
A t
prin cess</w>
in ha
oc cu
viol ence</w>
mo tion</w>
l un
f ts</w>
medi cine</w>
f ed</w>
b each</w>
a ke</w>
pat ter
to w
ter ri
care fully</w>
b id</w>
M any</w>
in su
speci ally</w>
Com man
sc are</w>
re m
suc cess</w>
s wor
g ang</w>
de termin
tr apped</w>
A ma
inter ru
in sur
gl ori
w ound</w>
C ri
r ab
P S</w>
hu mili
direc t</w>
w ings</w>
pre p
m eal</w>
c ried</w>
A ir</w>
li ps</w>
car ried</w>
op tions</w>
mp ing</w>
sp are</w>
Su per
Com ing</w>
si lly</w>
cra sh</w>
c H
Mu l
Mi ghty</w>
ri ghts</w>
ob ject</w>
du re</w>
R I
f its</w>
Maj or</w>
rema ins</w>
Ste p</w>
br an
G O
th or
se ttle</w>
hor ses</w>
po p</w>
b one</w>
fe at</w>
se tting</w>
prep are</w>
good bye</w>
B al
p ment</w>
E ach</w>
M en</w>
a k
pol y
off ered</w>
g ent</w>
jo bs</w>
en ess</w>
el ds</w>
Thom as</w>
r ay</w>
x ing</w>
y o
direc tly</w>
ber t</w>
b acks</w>
ben eath</w>
Sa id</w>
sh ots</w>
m us
eng ine
confu sed</w>
ge ous</w>
di am
Sim on</w>
Bri an</w>
B at
hou se
d ating</w>
def ense</w>
con sequ
AL L</w>
en ge</w>
D or
vill e</w>
S m
j a</w>
Phi l</w>
Jap anese</w>
su dden</w>
sea son</w>
pos itive</w>
hi red</w>
H it</w>
D un
resu lts</w>
hun ting</w>
en tered</w>
w ha
disapp ear</w>
Pre viously</w>
p ly</w>
lon ely</w>
al ted</w>
dest iny</w>
brea thing</w>
R an
Ed die</w>
thi ef</w>
dre ds</w>
de bt</w>
Mo lly</w>
J an
Re be
sing ing</w>
crea ture</w>
usa lem</w>
R am
B or
pati ence</w>
ind a</w>
Wa r</w>
1 8
w l</w>
dis believed</w>
ac tions</w>
f ying</w>
bl ing</w>
S even</w>
Jer usalem</w>
w et</w>
cu rious</w>
cr iti
Sh er
our th</w>
m ance</w>
fai thful</w>
Per fect</w>
guar an
b i</w>
re fl
inv ite</w>
Direc tor</w>
&apos; T</w>
sur face</w>
butt on</w>
le tters</w>
Indi an</w>
s at</w>
ab and
v ote</w>
l den</w>
Al most</w>
ba sically</w>
jeal ous</w>
it ter</w>
hu man
concer n</w>
cH FFFF
K o
resu lt</w>
celebr ate</w>
cen tury</w>
r y
ow ers</w>
fun ction</w>
cHFFFF FF</w>
sh er</w>
our ed</w>
bur den</w>
v is</w>
la us</w>
dro w
D ri
Car eful</w>
ex act</w>
gu es</w>
cr y
car rying</w>
el ed</w>
e dge</w>
d or</w>
boun ty</w>
pr ince</w>
daugh ters</w>
app ears</w>
fav our</w>
z ens</w>
bea st</w>
ow ner</w>
il a</w>
U p
Ac cording</w>
Gen tlemen</w>
scre wed</w>
go ti
civi li
Rob ert</w>
cl ou
Ste fan</w>
bl eeding</w>
For give</w>
&apos; an</w>
wi shes</w>
ski lls</w>
arro g
na tions</w>
appoint ment</w>
Dam on</w>
a wake</w>
bles sings</w>
simi lar</w>
iti ons</w>
bi ke</w>
m ers</w>
issu es</w>
grand father</w>
Ger man</w>
v es
ea king</w>
S crip
L ar
D es
ob li
de c
Sec re
air port</w>
S wee
I R
sp ar
s i</w>
bag s</w>
appro ach</w>
slo wly</w>
pla yer</w>
ma r</w>
Egy pt</w>
escap ed</w>
gran ted</w>
dou b
c ow</w>
y ne</w>
produ ce</w>
J o</w>
dist ur
- l</w>
Q ur</w>
bor der</w>
4 8</w>
fri end
parti cular</w>
sh own</w>
p us
inter view</w>
u m
kind a</w>
ang le</w>
D ear</w>
C IA</w>
D O
prot ecting</w>
per form</w>
ster n</w>
so oner</w>
z o</w>
recomp ense</w>
t les</w>
ad a</w>
V ir
Eng land</w>
ap er</w>
ci a</w>
Si ster</w>
ll et</w>
pr int</w>
gh s</w>
Jes se</w>
provi sion</w>
tra ined</w>
down stairs</w>
Jo on</w>
jo ined</w>
inclu ding</w>
L I
Ap par
sen ds</w>
oo th</w>
lan ds</w>
wa ited</w>
bor ing</w>
C lu
degre es</w>
sear ching</w>
can cer</w>
ag ents</w>
ch a</w>
wron ged</w>
gu ests</w>
con diti
W on
Su n</w>
H A
C y
H ope</w>
scre en</w>
fol k</w>
exp ensive</w>
ce ment</w>
der al</w>
Da ve</w>
se ly</w>
phot os</w>
cur ren
T ran
Fri day</w>
w a</w>
su spi
be side</w>
S tra
S aul</w>
lo aded</w>
libr ary</w>
har dly</w>
A w
z e
tri gger</w>
foot ball</w>
chall enge</w>
M ight</w>
Lu cy</w>
C ali
A ri
la ws</w>
fi cation</w>
at ory</w>
s ni
in k
ra p</w>
gener ation</w>
d well</w>
ti ed</w>
screa ming</w>
bra ins</w>
back up</w>
ver age</w>
t ele
Le ft</w>
st ones</w>
separ ate</w>
sof t</w>
su gar</w>
refu ge</w>
milli ons</w>
movi es</w>
v est</w>
offi cial</w>
u seless</w>
lea ding</w>
N ah</w>
un known</w>
or ting</w>
leg al</w>
pri de</w>
Qui et</w>
pack age</w>
ha u
Appar ently</w>
wi re</w>
su res</w>
gu es
Jud ah</w>
Mag gie</w>
I mp
sha dow</w>
r ush</w>
pla y
am i</w>
Comman der</w>
fa il
advan tage</w>
neighbor hood</w>
cor n</w>
- It</w>
do in</w>
cha se</w>
est ing</w>
an aly
J ere
na ked</w>
g or
ac e
deser t</w>
cur sed</w>
trea ted</w>
ev ed</w>
ba be</w>
stru ck</w>
mirac le</w>
kne es</w>
Wa sh
Afri ca</w>
N ight</w>
Any body</w>
tru thful</w>
z z</w>
ther ing</w>
Pi ck</w>
coun ter</w>
le e</w>
be coming</w>
A lice</w>
to wer</w>
pre cious</w>
min ds</w>
los ers</w>
lo g</w>
intellig ence</w>
drin ks</w>
tt er
law ful</w>
O c
w el
bur y</w>
wor lds</w>
g ery</w>
Al i</w>
ro oms</w>
re peat</w>
re ject</w>
pi g</w>
gener ations</w>
TH AT</w>
C our
hi ll</w>
de feat</w>
is es</w>
g ates</w>
R yan</w>
A in</w>
illeg al</w>
go in</w>
ee z</w>
crow d</w>
camer as</w>
S qu
H an</w>
U .S.</w>
E vi
su spec
qu ali
S atur
Be th</w>
sa l</w>
profes sional</w>
e y
a se</w>
om on</w>
i sts</w>
Ty ler</w>
J in</w>
sel ected</w>
ic ans</w>
Cl ar
appro ach
speci es</w>
o therwise</w>
ki cked</w>
de ca
ab bed</w>
us er</w>
ou l</w>
destru ction</w>
bl u
L Y</w>
E specially</w>
D I
sk i</w>
O F</w>
person ally</w>
re moved</w>
dis c</w>
what soever</w>
app li
O therwise</w>
s &apos;</w>
bu tt</w>
Char les</w>
offi ci
E lli
Ale x
lo a
ac tive</w>
stan ces</w>
mer ciful</w>
U C
F er
Eu rope</w>
zz a</w>
prin ci
P ra
ri ce</w>
el and</w>
J or
Inter net</w>
n ings</w>
man age</w>
co at</w>
Cer tainly</w>
s and
pre ten
pois on</w>
Gra b</w>
Fe li
Bru ce</w>
believ able</w>
E l</w>
s an</w>
mu d</w>
for giving</w>
al ter
gla sses</w>
even tually</w>
ta ined</w>
ste in</w>
mar ks</w>
sw itch</w>
hi re</w>
te sts</w>
Ju li
de sign</w>
ro man
ex ten
ER E</w>
A my</w>
3 00</w>
j am
char ity</w>
pis sed</w>
i an</w>
M ex
Be ing</w>
m ood</w>
for med</w>
Wash ington</w>
traffi c</w>
An dy</w>
pu lling</w>
Fin ally</w>
ri er</w>
na sty</w>
Sol omon</w>
D ead</w>
trea sure</w>
thr one</w>
sla ugh
pi e</w>
l ers</w>
fun eral</w>
pas sing</w>
ha ll
vol un
refu se</w>
in divi
hea lthy</w>
z es</w>
w an</w>
m mer</w>
B O
i ds</w>
bl ack
liter ally</w>
ther ine</w>
net work</w>
da wn</w>
stom ach</w>
pe l</w>
ma tic</w>
sch oo
er ci
O ri
w oke</w>
ma ma</w>
lear ning</w>
extre mely</w>
St ate</w>
relea sed</w>
J ones</w>
In v
C en
ta lly</w>
T ed</w>
ph y</w>
k u</w>
c attle</w>
mar y</w>
Mini ster</w>
on a</w>
manag ed</w>
ali en</w>
y ellow</w>
go al</w>
t ex
indivi du
eng ine</w>
sy mp
ri st</w>
ne goti
ell e</w>
See ms</w>
H ome</w>
E S
p ha
eg gs</w>
fu el</w>
ad v
K ur
F ar
Car ter</w>
t ears</w>
p ted</w>
B an
non sense</w>
f r
Th ought</w>
me l</w>
ther ap
st en
def end</w>
char ges</w>
ac qu
D an</w>
z u
S ma
righte ousness</w>
s ant</w>
ph ones</w>
mo l
rou te</w>
mista kes</w>
me ters</w>
hun dreds</w>
exc iting</w>
E than</w>
rep orts</w>
9 0</w>
pra yers</w>
op pos
oo h</w>
mi e</w>
a tic</w>
Th ough</w>
re pu
scre w</w>
oun ding</w>
os ter</w>
com par
S ean</w>
O hh</w>
ox y
Z e
whi sp
ble w</w>
sex y</w>
pro gress</w>
it ors</w>
deta il</w>
coun tries</w>
con stru
ci gar
bu ying</w>
R ose</w>
En joy</w>
conf es
Vic tori
sei zed</w>
ther n</w>
G on
stat us</w>
ma id</w>
Sec urity</w>
bri lliant</w>
temp le</w>
pi cking</w>
la sting</w>
ci es</w>
L ev
poli tical</w>
a wa
E ither</w>
offi cers</w>
ma sk</w>
al arm</w>
V eg
P an
Jer ry</w>
sig n
pot ential</w>
s eal</w>
cr ack</w>
Go ddamn</w>
z one</w>
syste ms</w>
ch op
physi cal</w>
S ear
Pro mise</w>
tea ching</w>
st ence</w>
oc cur
An sw
j ah</w>
rev eal</w>
pain ting</w>
v ey</w>
sc en
proper ly</w>
inv est
E d</w>
cy cle</w>
compet ition</w>
Go ing</w>
str ate</w>
Patri ck</w>
ma lly</w>
for ms</w>
t ent</w>
p h</w>
Scrip ture</w>
swi m</w>
ea ten</w>
d ates</w>
beha vior</w>
St an
R ome</w>
n ear
d al</w>
wa ve</w>
ki lls</w>
Bu ll
ro le</w>
Gre en</w>
in o</w>
aband oned</w>
B ir
mor tal</w>
Kno wer</w>
I ts</w>
z om
ten ing</w>
st ro
Sp ir
ob se
Gar dens</w>
- Oh</w>
x i</w>
re lated</w>
n is</w>
an der</w>
sa ith</w>
ev ents</w>
d less</w>
W A
Isa ac</w>
sol ved</w>
pa int</w>
aci ous</w>
ac es</w>
d d</w>
W oo</w>
la un
ill u
vi ces</w>
vehi cle</w>
s now</w>
hol ds</w>
dro ve</w>
Loo king</w>
ph a</w>
pal ace</w>
N or</w>
B os
is ing</w>
ad mon
H ear
C D</w>
th ri
ck le</w>
Musli ms</w>
use ful</w>
divor ce</w>
Brit ish</w>
ti p</w>
fri gh
co ho
chec king</w>
J ung</w>
star ds</w>
m ou
di ct</w>
requ ired</w>
clou ds</w>
be loved</w>
cha in</w>
the irs</w>
a id</w>
sion ate</w>
ra m</w>
co ck</w>
cla im
H ong</w>
st able</w>
ic s</w>
bea ting</w>
a i
stea ling</w>
s mi
ott a</w>
in cident</w>
ex it</w>
H o</w>
t --</w>
v ain</w>
stra tion</w>
bu g</w>
t ear</w>
r are</w>
i ved</w>
murder er</w>
mb led</w>
de signed</w>
E un</w>
Ar my</w>
temp or
shoul der</w>
h y</w>
con cen
te en
ta r</w>
re presen
an ce
Tru e</w>
H our</w>
Fran k
ir on</w>
Ha ven</w>
as ha
Vic tor</w>
K ang</w>
D V
youn ger</w>
uni or</w>
psy cho
an ni
P os
C re
gi ous</w>
Re g
Er ror</w>
n ar
g li
de tective</w>
Victori a</w>
M um</w>
y n</w>
ag er</w>
L ana</w>
0 0
hypo cr
ca stle</w>
C li
t at
oc ca
Wh ose</w>
ro b
iden tity</w>
effor t</w>
An nie</w>
war ner</w>
survi ved</w>
- We</w>
wh ore</w>
thro wn</w>
sur ve
re comm
R on
ci p
comfor t</w>
li cense</w>
tal ent</w>
respon se</w>
E T</w>
H ands</w>
insur ance</w>
de th</w>
convin ced</w>
ari ly</w>
Car ol
po w
l ink</w>
do ctors</w>
con clu
mid st</w>
fin an
dra gon</w>
S C
in ner</w>
ha ted</w>
1 9</w>
ot ed</w>
h m</w>
ch y</w>
8 0</w>
p ir
cor e</w>
speci fic</w>
lo ving</w>
du ced</w>
star ing</w>
J i
cep tion</w>
K ri
si sters</w>
sett led</w>
ac tual</w>
P as
re sur
l i</w>
Y ou
I sl
str anger</w>
ta ll</w>
re call</w>
sen t
pp y</w>
fa irs</w>
di g
ba sement</w>
H and</w>
ou ts</w>
Cali for
high ly</w>
mis es</w>
we th</w>
Lu ke</w>
st in</w>
or ney</w>
jack et</w>
L ight</w>
bl ed</w>
por tion</w>
man ner</w>
jer k</w>
te mper
h ook</w>
blo wn</w>
Fr ance</w>
A sh
in dic
Mex ico</w>
z ard</w>
sur gery</w>
ro cks</w>
p ounds</w>
p in
4 5</w>
yl or</w>
wr ath</w>
tle man</w>
it ty</w>
M A
F un
st in
m are</w>
J enny</w>
p unch</w>
itu te</w>
flo wer</w>
cho col
Speci al</w>
u d</w>
elec tr
best owed</w>
San ta</w>
Na z
viol ent</w>
t our</w>
ser ver</w>
enti rely</w>
Amer icans</w>
sen ti
se ed</w>
mon key</w>
Sp eak</w>
schedu le</w>
char ged</w>
K ing
D .
Sun day</w>
des p
c ti
Lis a</w>
K laus</w>
mo der
rememb ered</w>
H oll
E .
ra l</w>
ad or
squ are</w>
j ec
ex erci
ev es</w>
rea son
establi shed</w>
Sec ond</w>
tr ace</w>
th ank
hel ps</w>
Ma dam</w>
gui des</w>
e m
Fi le</w>
wor k
d ele
l and
O w
Li ly</w>
High ness</w>
E h</w>
win ter</w>
win ning</w>
sla ves</w>
co inci
psy chi
Answ er</w>
t ap
abi de</w>
fan cy</w>
betra yed</w>
Lu ci
exi sts</w>
cha sing</w>
Tea m</w>
Po or</w>
lo ver</w>
infor m</w>
fac tory</w>
K ong</w>
mb ling</w>
in spir
deli cious</w>
consci ous</w>
B el
la unch</w>
u mb
pl at
di ent</w>
Blu e</w>
Ad d</w>
sa v
f ourth</w>
de b
bad ly</w>
di sh</w>
Califor nia</w>
grou ps</w>
ci ans</w>
beg ins</w>
mir ror</w>
Un fortunately</w>
Ha ll
Bea utiful</w>
ti le</w>
roman tic</w>
on e
- That</w>
trea tment</w>
la ke</w>
S pi
tro ops</w>
ill ance</w>
wi ll
Swe et</w>
Jap an</w>
ang ers</w>
Ja e</w>
Grand ma</w>
wh e
emplo ye
bri de</w>
sh op
edu cation</w>
arti st</w>
sc ore</w>
chi ld
bal ance</w>
Sch ool</w>
shi ft</w>
fail ure</w>
direc tor</w>
where in</w>
re jo
jo king</w>
bl ess</w>
bed room</w>
al though</w>
Dr ink</w>
nur se</w>
Pl us</w>
&apos; clock</w>
spec tor</w>
see king</w>
S now</w>
tw enty</w>
sat elli
fal se
H am
un able</w>
ca uses</w>
M ir
cu sto
vir tu
suffi cient</w>
prot ected</w>
direc tory</w>
bull ets</w>
F ight</w>
it z</w>
bab ies</w>
Jack son</w>
Go ver
ne u
Jes si
z zy</w>
thr ough
it ory</w>
in er</w>
friend ship</w>
Y i</w>
H ank</w>
ri ding</w>
bi ll</w>
Eri c</w>
sex ual</w>
s no
k o
fanta stic</w>
v ani
son gs</w>
ex plan
equi pment</w>
chea p</w>
T an
y u
par don</w>
c he</w>
asha med</w>
t ched</w>
conv ince</w>
supp ly</w>
ex tra
fru its</w>
W ord</w>
Mus a</w>
poly the
S car
L E</w>
tr ance</w>
e z</w>
ea ter</w>
W ol
S ea
nu clear</w>
J ay</w>
Dra gon</w>
en g</w>
conne ct</w>
il et</w>
de mo
vac ation</w>
shar p</w>
sa u
acti v
t is</w>
p et</w>
fi f
tr ay</w>
lea ders</w>
bor row</w>
terrori st</w>
prison er</w>
b ble</w>
al coho
ab un
li ght
bu m</w>
ad vi
su al</w>
igh s</w>
Bon nie</w>
trans fer</w>
estab lish</w>
attemp t</w>
Rea l</w>
R en
Inst ead</w>
st ered</w>
hon estly</w>
cul ture</w>
chan ces</w>
F o
ra tion</w>
popu lar</w>
myst ery</w>
gen tleman</w>
be ings</w>
puni shed</w>
itu al</w>
coll ap
co ck
an no
E T
wh eel</w>
ad ven
x y</w>
quar ters</w>
r ance</w>
e fully</w>
sent ence</w>
n eath</w>
el ve</w>
ea ted</w>
t ank</w>
sur render</w>
Wat er</w>
H ob
eng aged</w>
en try</w>
war rant</w>
ho li
fre qu
br and</w>
P lay</w>
en ced</w>
Satur day</w>
sca le</w>
guar dian</w>
da y
Pro t
volun te
de man
Lou is</w>
un its</w>
pi lot</w>
crimin als</w>
Grand pa</w>
mom ents</w>
mes sed</w>
as n</w>
B oo
L ot</w>
thro wing</w>
sho ck</w>
n os
en dly</w>
pus sy</w>
appar ently</w>
comm it
W E</w>
a th
R ev
tit le</w>
an tly</w>
S .
K ind</w>
symbo l</w>
gh os
exi stence</w>
cor por
trac king</w>
pu ts</w>
is s</w>
environ ment</w>
doll ar</w>
b y
sto ck</w>
how ever</w>
of s</w>
lot te</w>
ba ll
a unt</w>
tre ss</w>
k ins</w>
sh eep</w>
lim its</w>
human ity</w>
he li
ca ve</w>
j i
Ex cellent</w>
str ing</w>
k ings</w>
fl at</w>
b at</w>
S ong</w>
sil ent</w>
posse ss</w>
es c
t ful</w>
mon d</w>
gre e
dea f</w>
be th</w>
assi stant</w>
su s</w>
stop ping</w>
m at</w>
A men</w>
A hh</w>
ch at</w>
cer e
I mag
whom ever</w>
a a
O ther</w>
K ING</w>
Hon or</w>
remin der</w>
par ties</w>
inf ected</w>
L .
Fin n</w>
De partment</w>
exper t</w>
W ouldn</w>
cl ue</w>
cl ever</w>
sch e
pro fit</w>
gri d</w>
tw are</w>
s car</w>
oxy gen</w>
hur ting</w>
hear t
qu ality</w>
au ght</w>
struc ture</w>
cra ft</w>
sc hi
R a</w>
su cks</w>
s and</w>
pis s</w>
ign ore</w>
f abri
ear th
degre e</w>
b al</w>
inv alid</w>
.A .</w>
ma ss</w>
investi g
des perate</w>
b an</w>
S oo</w>
p it</w>
ti ckets</w>
al ert</w>
pro phet</w>
mi d</w>
Gra y
C ouldn</w>
C os
wi lled</w>
no ble</w>
sac red</w>
d der</w>
li ct</w>
A unt</w>
A po
P D</w>
- Hey</w>
sh or
p il
bu d
mp le</w>
de pen
abo de</w>
trac ks</w>
to ilet</w>
diti onal</w>
chee se</w>
V e
h ap
M ine</w>
t itude</w>
sou p</w>
se ts</w>
it e
si an</w>
pro to
faci lity</w>
ve th</w>
r ose</w>
l ack</w>
V a
D E
win dows</w>
ba stards</w>
V an</w>
S low</w>
g ard</w>
Tw enty</w>
Ta ylor</w>
hos ts</w>
hon our</w>
tra sh</w>
li p</w>
e ye
li ber
7 0</w>
ti mate</w>
rem ote</w>
re place</w>
pi lls</w>
H im
wat ers</w>
ong st</w>
am ongst</w>
tal ks</w>
k u
custo dy</w>
me tal</w>
appro pri
gri eve</w>
Mer cy</w>
ru de</w>
dep ends</w>
ab s</w>
S tri
ev ers</w>
den ti
K E</w>
pro ved</w>
inf lu
he ed</w>
resp ond</w>
lo an</w>
rebe lli
is y</w>
en ted</w>
clos ing</w>
arri ve</w>
N av
surve illance</w>
sur ed</w>
coun ting</w>
T ro
l er
produ ct</w>
guaran tee</w>
confi dence</w>
bi le</w>
Th row</w>
Sig ns</w>
Char lotte</w>
ru bb
refu sed</w>
cli mb</w>
s u</w>
par king</w>
do zen</w>
T ex
F red</w>
En ter</w>
A i
p anic</w>
determin ed</w>
confir med</w>
am bul
2 1</w>
hypocr ites</w>
Clu b</w>
lo s</w>
str ate
oppos ite</w>
ee ds</w>
Lu cky</w>
A h
s lu
h oo</w>
coll ect</w>
chocol ate</w>
G otta</w>
G abri
apos tles</w>
Ju dgment</w>
Bra vo</w>
ser t</w>
materi al</w>
dri ven</w>
ambul ance</w>
w ow</w>
mos tly</w>
h its</w>
Spir it</w>
na p</w>
int end</w>
disgu sting</w>
cor p
pre vent</w>
or ph
false hood</w>
M in</w>
E s
ve ge
co ach</w>
be lt</w>
St .</w>
pla ys</w>
disa ster</w>
3 5</w>
dest ination</w>
S O
Ang el
ne gative</w>
kidn apped</w>
all e
Oli via</w>
os ing</w>
sc at
ca go</w>
M el
B loo
tun nel</w>
ss ors</w>
ff s</w>
ar gue</w>
P h
sta ys</w>
los er</w>
l ap
cle aning</w>
cir cle</w>
Gu y</w>
G un
pe e</w>
d ated</w>
sp ending</w>
Car rie</w>
p ag
Ar abi
2 5
se c</w>
dra g</w>
cros sed</w>
co ordin
pre vious</w>
curren tly</w>
bles sing</w>
b age</w>
au tom
suffer ed</w>
patter n</w>
k ar
Tea cher</w>
writ er</w>
under neath</w>
pati ents</w>
ga z
explos ion</w>
Mon day</w>
au to
Ge tting</w>
D r</w>
2 3</w>
S ou
p in</w>
g lobal</w>
ca b</w>
b o</w>
sh eriff</w>
rep orted</w>
pro file</w>
less ons</w>
hi d</w>
sli p</w>
g osh</w>
ex pression</w>
as sure</w>
Sear ch</w>
K an
supp orted</w>
imag es</w>
b att
Chi cago</w>
win ner</w>
han ded</w>
fortun ate</w>
de mon
H ead</w>
D A
mo vement</w>
fore ign</w>
col n</w>
S P
od d</w>
frea king</w>
dis appointed</w>
NO W</w>
t z</w>
myst eri
ad mi
K yle</w>
through out</w>
gro w
fin ger
uni form</w>
r o</w>
inven ted</w>
g t
confir m</w>
W anna</w>
re sources</w>
hu g</w>
Y e</w>
L a</w>
Gir l</w>
F il
pu shed</w>
her e
deser ves</w>
ur s</w>
i sion</w>
fac ts</w>
eg g</w>
Mar cus</w>
Jere my</w>
stu dying</w>
pre dic
smo king</w>
dis belief</w>
ch ap
gar age</w>
tri be</w>
thin e</w>
si x
sens itive</w>
impres sive</w>
fri endly</w>
ag gre
st al
mo de</w>
ma les</w>
T ot
H it
H ear</w>
conven i
He h</w>
2 2</w>
ta x</w>
night mare</w>
- Okay</w>
pro ce
S to
or ing</w>
Na than</w>
y a
un ning</w>
g oo
explan ation</w>
J i</w>
F eel</w>
in spi
S ophi
life time</w>
dg ing</w>
T im
Brea k</w>
H op
del u
Lin coln</w>
LA U
strea m</w>
m in</w>
adv ance</w>
T I
ghos ts</w>
dra wn</w>
co vering</w>
Lo is</w>
K id</w>
cl oud</w>
threa tened</w>
an ish</w>
Su pp
mat h</w>
S us
warri or</w>
qu est</w>
gh tly</w>
ex posed</w>
c i</w>
Le on
ann ah</w>
wi l
sh ared</w>
comm and
cla ssi
ach ed</w>
tribu te</w>
n i</w>
me th
h itting</w>
ge on</w>
f earing</w>
ber g</w>
N E
s om</w>
kind ness</w>
it ched</w>
il ey</w>
ful filled</w>
G la
coll ea
circum stances</w>
K y
it er</w>
b last</w>
wa sting</w>
ste m</w>
ke th</w>
i gh</w>
develop ed</w>
Isla mic</w>
o ath</w>
new sp
impres sed</w>
A C
fa ir
ck ers</w>
agre ement</w>
1 5
ir man</w>
con tain
stand ard</w>
s ought</w>
rec ent</w>
ha l
coinci dence</w>
y ment</w>
shel ter</w>
re hear
oo p</w>
m ons</w>
Me et</w>
to ast</w>
regar ding</w>
or ities</w>
kit a</w>
Cen tral</w>
qui e
en tion</w>
Z o
P .
How ard</w>
v at
f at
d ant</w>
hat es</w>
grand mother</w>
N at
Mi ch
E ight</w>
re ti
quar ter</w>
li qu
g lo
du mp</w>
cu tting</w>
coo king</w>
af fairs</w>
Qui ckly</w>
some day</w>
poli cy</w>
pl ug
c ting</w>
Rob in</w>
Gor don</w>
su its</w>
v ul
sme lls</w>
di rt</w>
camp a
W oe</w>
testi fy</w>
rep ent
on ic</w>
ki es</w>
high est</w>
Sta r</w>
Co ach</w>
en trance</w>
compani es</w>
brea ks</w>
W it
Mon ey</w>
D est
A pri
screa m</w>
Na tional</w>
Be en</w>
tribu tion</w>
ke t
Hal f</w>
. I.
survi v
ri sing</w>
prison ers</w>
Beli evers</w>
ri sh</w>
perfor mance</w>
elev ator</w>
cont ent</w>
Ou t
H om
ser ving</w>
pi zza</w>
li mit</w>
dra wing</w>
Hon estly</w>
H ou
ad ul
Al an</w>
au dience</w>
tou ching</w>
pas sion</w>
G oo
E nd</w>
sea led</w>
rep lied</w>
champ ion</w>
P ath</w>
f u</w>
drow ned</w>
bur nt</w>
arrog ant</w>
R el
- He</w>
pre me</w>
wea kness</w>
surr ounded</w>
p id</w>
for mation</w>
fon t
consequ ences</w>
be half</w>
app eared</w>
Sp eaking</w>
Jor dan</w>
Di vision</w>
e tt
Wa yne</w>
Apri l</w>
h s</w>
g oods</w>
rec ru
hea l</w>
h in
cho ices</w>
S up
fla g</w>
dem and</w>
wrong doers</w>
corru ption</w>
sp on
ari an</w>
Mor gan</w>
H m</w>
re ss</w>
li ars</w>
ca u
c ca</w>
M ason</w>
FFFF 00</w>
c and
acti vity</w>
spea ks</w>
ly n</w>
emo tional</w>
st am
des cen
apos tle</w>
an t
a de
M as
experi ment</w>
cri mes</w>
brea sts</w>
app le</w>
Kor ea</w>
Ja mie</w>
requi res</w>
os p
seri es</w>
ologi cal</w>
mon sters</w>
f ran
g ru
valu able</w>
sig nifi
figh ter</w>
br a</w>
ra d</w>
itu tion</w>
Sh ar
Evi l</w>
on ds</w>
fell as</w>
ar ly</w>
F ree</w>
hun g</w>
ck ey</w>
ba se
a verage</w>
a than</w>
th at
Ne ed</w>
J ess</w>
Isl and</w>
mid night</w>
font color</w>
spir its</w>
logi cal</w>
kno cked</w>
ex pe
Jos h</w>
E mp
wor kers</w>
ot ted</w>
b earing</w>
Sen ator</w>
testi mony</w>
p le
lo yal</w>
hun ter</w>
gri ev
gri ef</w>
Ed ward</w>
dem ons</w>
ca ls</w>
T ING</w>
S E
sp orts</w>
rep ent</w>
de cent</w>
appo int</w>
s ar
r en</w>
off ense</w>
ere k</w>
co l</w>
Christi an</w>
deci sions</w>
le ment</w>
No ble</w>
Ka tie</w>
A la
te dly</w>
repu tation</w>
n an
ju mped</w>
appropri ate</w>
C r
y in</w>
gues sing</w>
bon d
abi lities</w>
Mar ia</w>
stop s</w>
sten ance</w>
d st</w>
sta ke</w>
sna ke</w>
sh ore</w>
sand wi
inspir ed</w>
ga ll
Sp anish</w>
R ead</w>
Gabri el</w>
Bl ood</w>
mat ely</w>
e go</w>
Ro ck</w>
DV D</w>
mas sive</w>
foll ows</w>
fi elds</w>
T it
G ary</w>
T ER</w>
Al pha</w>
w ins</w>
pros trate</w>
leg end</w>
stan tly</w>
s en</w>
ran e</w>
gen e
beli ever</w>
H O
Bu dd
tr ed</w>
sil ence</w>
serv ation</w>
distri bu
crea ting</w>
att itude</w>
EL L</w>
v alley</w>
tor ture</w>
s man</w>
ro yal</w>
bi es</w>
Tru ly</w>
E a
Dri ve</w>
posse ssed</w>
per ation</w>
S E</w>
Mar i
y ards</w>
uni que</w>
ad ded</w>
Ob viously</w>
Imag ine</w>
pro ofs</w>
pre scri
foo tage</w>
Ro y</w>
M ind</w>
n ity</w>
blo cks</w>
D erek</w>
te sted</w>
te l</w>
her oes</w>
ha i</w>
E Y</w>
sk u
m ity</w>
con ference</w>
pea ce
p y</w>
do l
cr ush</w>
co ward</w>
back ground</w>
b ang</w>
se um</w>
polythe ists</w>
ou ting</w>
or a</w>
inter pre
Ne w
n ut</w>
cro wn</w>
M E
e pi
de ter
ch er
Hea ven</w>
ef s</w>
Su e</w>
F ear</w>
wa ves</w>
sen ior</w>
pa thetic</w>
in ting</w>
K ent</w>
t ons</w>
P op</w>
soli d</w>
est ed</w>
di a
Wor k</w>
N O</w>
Lat er</w>
ta tions</w>
shop ping</w>
ba sic</w>
Ha w
D ark</w>
ca s</w>
Free ze</w>
ca ble</w>
ter ing</w>
st al</w>
Y ear</w>
uni on</w>
con stant</w>
an ces</w>
tra il</w>
sub mit</w>
ro bot</w>
mu si
fi shing</w>
K aren</w>
C A
BA R</w>
pas sword</w>
l ec
bro ad
tro l</w>
too ls</w>
continu es</w>
an i</w>
vo ices</w>
sh ap
pro mises</w>
Ke lly</w>
sa le</w>
g ear</w>
ex clu
Gon na</w>
mis si
inter national</w>
exper im
condu ct</w>
D om
tab les</w>
sig nature</w>
f ears</w>
Mu sic</w>
LAU GH
ol es</w>
ear ance</w>
Wh enever</w>
moder n</w>
mo thers</w>
ev ol
Car ol</w>
sof tware</w>
pu shing</w>
inst in
comple x</w>
clea red</w>
Gir ls</w>
der man</w>
wan ting</w>
deli very</w>
ab lo</w>
P or
Carol ine</w>
ke y
ju ice</w>
inj ured</w>
do ll</w>
B ran
A pos
plea sant</w>
ne st</w>
ea ts</w>
al u
wi pe</w>
suc ceed</w>
fe deral</w>
ro ot</w>
reve lation</w>
chi e</w>
be gging</w>
au lt</w>
WH AT</w>
th ed</w>
ri p</w>
dispu te</w>
Mo on</w>
war ded</w>
list ened</w>
j inn</w>
c ant</w>
b and
a o</w>
Rebe cca</w>
Ch ange</w>
Bo ys</w>
no tes</w>
mes sing</w>
p unk</w>
Sh ouldn</w>
Isla m</w>
An ne</w>
satelli te</w>
es y</w>
ep y</w>
re turning</w>
pri ze</w>
ta ges</w>
sh r
ser vices</w>
p ity</w>
l ength</w>
ab or
I r
Gar den</w>
&apos; s
popu lation</w>
plan ts</w>
Ori gin
Go d
wa sted</w>
w ere
min us</w>
cap ture</w>
Lis bon</w>
Cra zy</w>
&apos; II</w>
tra itor</w>
elev ision</w>
dee ply</w>
W asn</w>
Mes sage</w>
D one</w>
An drew</w>
un usual</w>
tr unk</w>
mb ly</w>
in sta
Ste ph
Sm ith</w>
ta g</w>
embarra ssing</w>
P ower</w>
safe ly</w>
im m
hol es</w>
chall eng
Tex as</w>
Mr s</w>
L ING</w>
Di sp
su stenance</w>
d els</w>
claim ed</w>
cap tured</w>
Pro ject</w>
exerci se</w>
eli min
bor ed</w>
J une</w>
A y
A dd
&apos; mon</w>
go lden</w>
cli ents</w>
T O
P lan
For ce</w>
tur ing</w>
ri a</w>
mi xed</w>
as ed</w>
st ori
gener ous</w>
k ah</w>
en cer</w>
b ond</w>
per ce
mor s</w>
gt ;</w>
Vin cent</w>
& gt;</w>
ma gaz
hi p</w>
1 0,000</w>
ma ker</w>
f eeding</w>
Stra ight</w>
some time</w>
mur ders</w>
ab les</w>
solu te</w>
shi eld</w>
gi fts</w>
Ca sey</w>
Att ention</w>
f lat
ac le</w>
sh h</w>
sel fish</w>
instru ctions</w>
eff ects</w>
docu ment</w>
cl ay</w>
Sup er</w>
St ark</w>
ti fi
sea s</w>
re stra
pay ment</w>
p lot</w>
mis sion
ance st
pri ests</w>
co ast</w>
bl ood
sma ller</w>
ni gg
inha bit
in ger</w>
child hood</w>
tion ally</w>
rec ite</w>
la h</w>
citi zens</w>
ON E</w>
Gu ar
GH T</w>
G R
ti vely</w>
pres sing</w>
na tive</w>
bar s</w>
T im</w>
is on</w>
M i</w>
syn c</w>
repent ance</w>
ido ls</w>
Mi ster</w>
lat ing</w>
ev acu
de ck</w>
be e</w>
rema ined</w>
gar bage</w>
w ounded</w>
vampi res</w>
stri ct</w>
mu st
gra m</w>
f ence</w>
col m</w>
as ks</w>
ter ror</w>
De fin
O ff</w>
B ren
l ace</w>
C ru
tra dition</w>
oun ce</w>
hu a</w>
criti cal</w>
Stu pid</w>
Ma ya</w>
t re</w>
proph ets</w>
moun t</w>
fuck ers</w>
att end</w>
a like</w>
D evil</w>
fac ing</w>
B E
d ful</w>
te sting</w>
pos sibility</w>
en tal</w>
Gr ou
sh ell</w>
per man
cru el</w>
Wh it
Mul der</w>
Mal colm</w>
At lan
accoun ts</w>
S la
Re move</w>
P ot
za beth</w>
gor geous</w>
disp lay</w>
w ounds</w>
cre e
be e
Ita lian</w>
stru ggle</w>
pri se</w>
d or
con spir
ver i
ke ts</w>
ga la
de par
Th ir
tri cks</w>
si ghs</w>
mol ecu
di ag
att orney</w>
Wal k</w>
recor ded</w>
in ch</w>
car bon</w>
Le o</w>
su peri
Wr ong</w>
wal ks</w>
na ught</w>
light ning</w>
f lies</w>
Apos tle</w>
conc eal</w>
coll ection</w>
ap o
P ur
D ea
te ch</w>
re vi
ma yor</w>
ca ge</w>
ab led</w>
Ni kita</w>
H all</w>
1 ,000</w>
pro pos
ar ch
Bull shit</w>
zz le</w>
se ssion</w>
re gard</w>
fra me</w>
Sel ect</w>
A B
p on
M Y</w>
organi zation</w>
ll o</w>
lat est</w>
gg ling</w>
descri be</w>
ac ity</w>
Mur phy</w>
re y</w>
ki ssed</w>
campa ign</w>
Par don</w>
M it
robb ery</w>
o a
conf ess</w>
clos et</w>
Under stand</w>
Th y</w>
Gr ant</w>
F ound</w>
Comm and</w>
y outh</w>
am s</w>
M P
u mp
fla sh</w>
f are</w>
ack er</w>
f old</w>
at mos
c tu
av o
prof essor</w>
main tain</w>
il er</w>
e b</w>
conditi ons</w>
Aw esome</w>
ro lling</w>
r inging</w>
di gging</w>
b os
ag ement</w>
V en
H annah</w>
rea ction</w>
mi x</w>
m it
l or
j u</w>
guil t</w>
Th r
D a</w>
Bos ton</w>
B o</w>
tempor ary</w>
ro ads</w>
po e
a to</w>
I .</w>
w ling</w>
trav eling</w>
st es</w>
pu ri
ex hau
sin ners</w>
gu ts</w>
ava il</w>
ar ran
str eng
heli cop
de cre
consi dering</w>
Comp any</w>
regi ster</w>
ous y</w>
infor med</w>
da mag
we l</w>
er ce</w>
Qu ite</w>
H ot</w>
Con si
suspi cious</w>
rememb rance</w>
ne ls</w>
assa ult</w>
Y up</w>
W ea
Mar ty</w>
Him self</w>
pa irs</w>
de pos
cap ital</w>
W O
T S</w>
Eli zabeth</w>
sig nment</w>
g ust</w>
cos tu
T ou
Fu ll</w>
we b
m med</w>
c tive</w>
M ount</w>
to ler
thank ful</w>
ne ck
foo lish</w>
alcoho l</w>
He e</w>
B un
s sions</w>
can dy</w>
aff lic
Je ff</w>
o tic</w>
Gray son</w>
th am</w>
ph ra
neighb or</w>
ac ci
ha sten</w>
h u</w>
base ball</w>
P lea
miser able</w>
mini ster</w>
ma dam</w>
d oom</w>
vers ary</w>
for bid</w>
con trac
com mer
as ses</w>
st a</w>
mi gr
fav ors</w>
mani pu
drea ming</w>
ob serve</w>
h ers</w>
cal cu
bit ches</w>
tea ms</w>
rec ited</w>
p rom</w>
g al</w>
blo wing</w>
bea ten</w>
P rep
scienti sts</w>
ea ble</w>
divi ded</w>
S ab
thr en</w>
en i
cul arly</w>
cla s
P ush</w>
Con rad</w>
ran dom</w>
os si
dis grace</w>
A mb
ro ws</w>
ma l
home work</w>
reli gious</w>
he m</w>
extra ordinary</w>
cu e</w>
Sam my</w>
man u
mi cro
lan ding</w>
as cri
C i
stu b
stor ed</w>
reason able</w>
n es</w>
k et</w>
j o</w>
id en</w>
Hy un</w>
Ab by</w>
A ware</w>
19 9
tea chers</w>
t ool</w>
mor al</w>
me d
Wh er
Tr ying</w>
Sin gh</w>
C atch</w>
wol ves</w>
un seen</w>
N ine</w>
Ju lia</w>
Bl ack
ini c</w>
do ck</w>
dam ned</w>
d un
R ever
Prep are</w>
P ablo</w>
Lo s</w>
pi pe</w>
m ly</w>
b anks</w>
Mil es</w>
9 11</w>
th or</w>
gra ss</w>
di um</w>
assa s
an don</w>
win ds</w>
fai ry</w>
Uni versity</w>
d at
L inda</w>
A .
- How</w>
wit ches</w>
mer ely</w>
ex am</w>
Mat the
Gre g
f led</w>
cri sis</w>
cen tu
Y a</w>
B U
sa il</w>
rea ching</w>
p han</w>
hu mble</w>
communi cations</w>
pu ty</w>
i ms</w>
her o
a .
Fran kie</w>
t elevision</w>
od ds</w>
f eared</w>
tran sl
ti er</w>
laugh s</w>
cre epy</w>
chan nel</w>
Ha y
sw ing</w>
qu ake</w>
men u</w>
ac tor</w>
R on</w>
F le
p ti
i ah</w>
chi ck</w>
ag ency</w>
In spector</w>
wa llet</w>
t ant</w>
or da
lt ;</w>
in i</w>
fi cent</w>
di men
de fi
Pa ki
& lt;</w>
offici ally</w>
arti cle</w>
al i</w>
4 00</w>
pi le</w>
d oo
an xi
K en</w>
wh el
up s</w>
sor cer
scienti st</w>
re dly</w>
Th rough</w>
S part
Jon athan</w>
D ong</w>
do or
con tain</w>
att acks</w>
V ol
T op</w>
y --</w>
whom soever</w>
rac ing</w>
TH IS</w>
Lo ck</w>
B ay</w>
y i
ro t</w>
resc u
i ze</w>
bus h</w>
b ears</w>
C E
pi ous</w>
appli cation</w>
S cu
E ve</w>
w o
un grateful</w>
na il</w>
imag ined</w>
es a</w>
OU T</w>
Ki ds</w>
Al one</w>
y l</w>
foll owers</w>
ch eating</w>
&apos; t
re stri
h eck</w>
cha n</w>
S ci
C in
1 7
o de</w>
be tray</w>
be have</w>
Wom en</w>
F an
1 6
fac ed</w>
bi lls</w>
Lar ry</w>
Gr and</w>
Ch a</w>
speci fi
posse ssion</w>
hea vi
IN G
Clar ke</w>
separ ated</w>
fai thless</w>
B re
occur red</w>
embarra ssed</w>
develop ment</w>
U R</w>
See ing</w>
Rom an</w>
satis fied</w>
questi oned</w>
li ver</w>
inde pen
1 2
wher eas</w>
resp ite</w>
nor mally</w>
incredi bly</w>
ee se</w>
c ats</w>
be gun</w>
Eu ro
C ount</w>
tra u
correc ted</w>
ca kes</w>
Ali son</w>
ti ming</w>
pla stic</w>
W y
Ger many</w>
ta le</w>
pros ecu
it em</w>
finan cial</w>
enter ing</w>
an ti</w>
Wal ker</w>
P ho
bat tery</w>
some place</w>
chi ll</w>
Tu es
Sp encer</w>
Jo ey</w>
wi lt</w>
we ed</w>
vari ous</w>
he ight</w>
bla de</w>
bad ge</w>
S hel
foc used</w>
ain t</w>
Z i
M oun
recogni zed</w>
pur su
on ent</w>
mo s</w>
V an
Al mighty</w>
requi re</w>
p ink</w>
chi p</w>
A bi
s mu
preten ding</w>
L D</w>
D O</w>
Con tin
rec t</w>
interru pt</w>
mi schi
imp act</w>
comple ted</w>
b ust</w>
S imp
M en
Fla sh</w>
3 2</w>
pra yed</w>
pen alty</w>
dri ll</w>
Han na</w>
H ot
D S</w>
Al li
par ent</w>
ea sed</w>
cli mb
St or
Fa ith</w>
sa mple</w>
qu es</w>
hop es</w>
f s</w>
R .</w>
squ ad</w>
ow ns</w>
jour na
decl are</w>
Ri ver</w>
wi shed</w>
un a</w>
j ury</w>
every day</w>
ani e</w>
Ma kes</w>
Con trol</w>
suc c
m un
kno weth</w>
hel per</w>
fi ghts</w>
emo tions</w>
def eated</w>
Un der</w>
G il
E ven
scienti fic</w>
app ly</w>
answ ering</w>
produ ced</w>
pre ce
h es
c is</w>
Ex alted</w>
Defin itely</w>
vi le
u x</w>
stri p</w>
me ch
e e</w>
bre thren</w>
swi mming</w>
sku ll</w>
pro te
n ea
hi b
di stress</w>
bene fits</w>
S wi
ck in</w>
Jessi ca</w>
fashi on</w>
d ous</w>
bu ll</w>
S lo
Mi ller</w>
Fa mily</w>
t one</w>
m ere</w>
P O
multi ple</w>
est ate</w>
dro pping</w>
W en
K ra
C over</w>
schoo ls</w>
cos ts</w>
under ground</w>
thi ck</w>
ten s</w>
p here</w>
over come</w>
on y
fle w</w>
dom in
d ary</w>
G lad</w>
y wood</w>
un ities</w>
quie tly</w>
ori z
loy alty</w>
co w
ac compli
C ole</w>
lev els</w>
inhabit ants</w>
i al</w>
di vision</w>
communi cation</w>
come th</w>
col um
bo xes</w>
b by</w>
S ac
Ju mp</w>
19 8
in visible</w>
hosp it
extre me</w>
ell a</w>
Gu ard</w>
temper ature</w>
pro ceed</w>
individu al</w>
dec ree</w>
Kur t</w>
F OR</w>
st eel</w>
s ounded</w>
j ection</w>
ca using</w>
supp lies</w>
j ay</w>
ee ded</w>
ca bin</w>
Har old</w>
Eli jah</w>
Ber lin</w>
vie ws</w>
proto col</w>
ni ck
mar ked</w>
inte l</w>
ce ly</w>
R oom</w>
ur gent</w>
in king</w>
hos tage</w>
auth ori
T old</w>
B ene
sti ce</w>
reck oning</w>
con ce
adven ture</w>
X i
P raise</w>
Ma c</w>
plea ses</w>
par an
el der</w>
lim ited</w>
T ill</w>
B ell</w>
there by</w>
star ving</w>
l an</w>
enjo yed</w>
econom y</w>
dra gged</w>
D A</w>
v ot
ri f
ow ned</w>
cou ch</w>
as signment</w>
L i</w>
J unior</w>
zom bie</w>
secre tly</w>
ro e</w>
rela tives</w>
lan ded</w>
go d
fir ing</w>
d oth</w>
cha os</w>
ur ation</w>
s sive</w>
n n</w>
f ted</w>
compani on</w>
tw elve</w>
magi cal</w>
identi fy</w>
du ction</w>
bus in
bri ef</w>
ad ult</w>
Z a
T H</w>
S ing
C ou
Bat man</w>
rea u</w>
pi ll
mach ines</w>
l dly</w>
ir o</w>
ignor ant</w>
bo ar
a b</w>
Ch ap
constru ction</w>
b are</w>
I ra
C E</w>
op ens</w>
comman der</w>
ad es</w>
Mar s</w>
p our</w>
fif th</w>
To dd</w>
K r
u tter
ta li
pal m</w>
p itch</w>
gre ed</w>
bri ef
wa ge</w>
ge tt
S ign</w>
coun sel</w>
auth orities</w>
N ar
Bi ble</w>
p y
indu stry</w>
bra him</w>
Bur n</w>
some thin</w>
r out
poli tics</w>
ham med</w>
Brea the</w>
1 st</w>
sho e</w>
reli ef</w>
ee k</w>
W ester
ro l</w>
es ar</w>
ven ue</w>
loa ding</w>
har m
expla ined</w>
cha sed</w>
S ighs</w>
M O
t an</w>
survi val</w>
ll ings</w>
flo wing</w>
ac cur
H I
Grou p</w>
hap ly</w>
M S</w>
tra ge
sti cks</w>
pri ck</w>
mag ne
da me</w>
atmos phere</w>
arr anged</w>
Mer ry</w>
D eal</w>
Chu ckles</w>
to y</w>
tat too</w>
parti cularly</w>
k ward</w>
boo ts</w>
oper ations</w>
o ck</w>
in cl
clean ed</w>
S ad
E X
Don ald</w>
Coo per</w>
Bro wn</w>
vir gin</w>
mis sions</w>
m .</w>
fa sc
Wh ere
R ad
2 7</w>
thir sty</w>
it ar</w>
di ction</w>
Bu ddy</w>
v ault</w>
p ages</w>
mat ed</w>
ag ing</w>
I an</w>
sp s</w>
in go</w>
gen tle</w>
diam ond</w>
brea ch</w>
bla h</w>
B E</w>
vac cine</w>
pas sionate</w>
os o</w>
inter ro
e house</w>
ap ology</w>
Ha ving</w>
sla in</w>
pri vile
o k
gh ani
ell er</w>
deser ved</w>
del ay</w>
cour t
as signed</w>
P lu
Fa iled</w>
swe at</w>
men ted</w>
ex tin
ar eas</w>
Se ung</w>
I brahim</w>
2 nd</w>
v in
therap y</w>
so le
sc or
re tri
Kno ck</w>
y u</w>
tra tion</w>
tion ary</w>
p acked</w>
ort ers</w>
f s
bre e
a im</w>
H ard</w>
G U
u tter</w>
Veg as</w>
cla ims</w>
centu ries</w>
you --</w>
sm ooth</w>
admon ition</w>
ac ed</w>
Y oon</w>
Th ur
N ol
G ran
G O</w>
Dou g</w>
rifi c</w>
d ged</w>
sti cs</w>
sea ts</w>
hel p
cla ss
cere mony</w>
YO UR</w>
To gether</w>
Kor ean</w>
speci fied</w>
sa lt</w>
holi day</w>
ha tred</w>
tri ump
sel s</w>
j in
fell a</w>
descri ption</w>
abo ard</w>
G lobal</w>
Christi ans</w>
Ch er
si ck
c end</w>
bro wn</w>
am b
O ver
t an
refl ect</w>
pla yers</w>
ow n
hal f
gon s</w>
ces sion</w>
ag ne</w>
Th or
Sher lock</w>
stor age</w>
dea ler</w>
confi dent</w>
C .</w>
re gion</w>
ancest ors</w>
Sus an</w>
Hol mes</w>
B ank</w>
B ad
re lev
proce dure</w>
pos t
increa sed</w>
V ER</w>
ven ge
hi stori
gra vity</w>
N ancy</w>
Jo o</w>
B us
suspec ts</w>
smi ling</w>
s or</w>
li ke
ff ed</w>
du mped</w>
dist ant</w>
de dic
d ants</w>
con qu
boo m</w>
advan ced</w>
Go ld</w>
m ples</w>
ber ry</w>
Wom an</w>
Nav y</w>
K ara</w>
remin ded</w>
it ance</w>
ab andon</w>
S l
Ly dia</w>
mar ch</w>
ba it</w>
Mo hammed</w>
house hold</w>
Qu inn</w>
Bro dy</w>
ss a</w>
mo ti
fa st
docu ments</w>
diam onds</w>
de cor
con tains</w>
b ay</w>
Arabi c</w>
ye lling</w>
ti a</w>
imag ination</w>
foo ls</w>
awa its</w>
pi cal</w>
peri meter</w>
pas ses</w>
dra ma</w>
da ily</w>
Ye on</w>
N ate</w>
1 .
uni versity</w>
un comfortable</w>
ty pes</w>
custom ers</w>
consi der
au dio</w>
U r
ER ING</w>
Cro w
un ts</w>
s kill</w>
Russi a</w>
Lu cas</w>
scr atch</w>
over whel
f ans</w>
al a</w>
T en
N a</w>
Ju lie</w>
wor ries</w>
w rap</w>
practi cally</w>
ba sti
ari o</w>
an ne</w>
ali st</w>
Under stood</w>
P ay</w>
ten der</w>
qui re</w>
fol der</w>
chemi cal</w>
Tues day</w>
T ina</w>
ta xi</w>
neighb ors</w>
inten ded</w>
champ i
car ed</w>
ab ase</w>
Y o
Mar gar
ne ph
j et</w>
c ere</w>
Har vey</w>
off spring</w>
m ouse</w>
hop ed</w>
Sa ys</w>
Gre ek</w>
Fa ster</w>
stu died</w>
st ates</w>
resi st</w>
ev i
dis co
attrac tive</w>
Mar shall</w>
Ju dge</w>
B ee
. .
wa ter
s orrow</w>
ri son</w>
pp ers</w>
mom my</w>
be lly</w>
Ni k
Kir a</w>
threa tening</w>
comman ds</w>
ac comp
A ra
1 3
mi ster</w>
Di ck</w>
D ON</w>
ran som</w>
orda ined</w>
der son</w>
Sophi e</w>
Ch urch</w>
1 4
our ing</w>
grand ma</w>
enter tain
corp se</w>
Sk y
1 ,
u el</w>
buil dings</w>
Wal t</w>
I C</w>
str angers</w>
Mo ther
s day</w>
ph er
pe ts</w>
neck lace</w>
m pl
gra in</w>
d man</w>
coun cil</w>
S tation</w>
K iss</w>
u pper</w>
so il</w>
si de
sear ched</w>
scri pt</w>
plug in</w>
it ate</w>
fi fty</w>
en dure</w>
ele ph
sc o</w>
me te
cha mber</w>
K han</w>
Du ke</w>
A P
mysteri ous</w>
electri city</w>
comb at</w>
St ea
Te ch
P in
hon ored</w>
er r
ab solute</w>
R E</w>
el ection</w>
e igh
bom bs</w>
S ing</w>
s ab
pe op
m our
jun gle</w>
jo int</w>
influ ence</w>
i ry</w>
ffi cient</w>
desp ite</w>
approach ing</w>
H oo
lic ate</w>
inher itance</w>
S par
F ra
the ma
ter ia</w>
sti on</w>
pri ority</w>
d --</w>
W all</w>
Ma yor</w>
La ke</w>
Gre g</w>
Fa ir</w>
y -</w>
rep orter</w>
de fault</w>
v it
re fer
ol ate</w>
li ze</w>
el er
dri ves</w>
Secre tary</w>
stub born</w>
sha dows</w>
experi enced</w>
con tr
con dem
bu sted</w>
T rac
Li ve</w>
strate gy</w>
meth od</w>
ca p</w>
Ro ad</w>
P ass</w>
O .
D ate</w>
ti vity</w>
sibi lities</w>
lea k</w>
crea tes</w>
Ne il</w>
F ace
C lear
Bl es
vi sual</w>
pr on
for mat</w>
ex alted</w>
Mon roe</w>
Can not</w>
Angel es</w>
AR E</w>
so a
sin cere</w>
near by</w>
inv a
he ir</w>
lar ger</w>
gen e</w>
King dom</w>
sn eak</w>
ha bit</w>
gro ws</w>
ele ment</w>
C at
wor ldly</w>
t ness</w>
r ar
pe t
ma y
lu c
i er</w>
ff y</w>
dee per</w>
dea lt</w>
d in</w>
yl an</w>
grow th</w>
eter nal</w>
- The</w>
stea dy</w>
recor ding</w>
re st
os ity</w>
An gel</w>
v ou
tal s</w>
inv itation</w>
e ur</w>
dea ths</w>
cu ts</w>
v ast</w>
sa fer</w>
r ank</w>
immedi ate</w>
eff ective</w>
Dar ling</w>
Ben jam
tran sp
per si
idi ots</w>
helicop ter</w>
dis cover</w>
decl ared</w>
Won der
th ouse</w>
W ill
L ou</w>
C ass</w>
C as
squ ee
Z u
ur i</w>
stea d
mo bile</w>
any time</w>
an c
al li
Ma y
thin g
rema ining</w>
obse ssed</w>
ha ck</w>
ch eat</w>
To by</w>
ro om
inte gr
ha ir
cigar ette</w>
att ached</w>
al tar</w>
Tar get</w>
T re
Mon a</w>
rea l
inher it</w>
confes sion</w>
Wil son</w>
Jos hua</w>
D uring</w>
A z
rejo ice</w>
per sons</w>
exp ec
bo dy
Fun ny</w>
F al
un tie</w>
in ti
fla me</w>
compu ters</w>
bu tter</w>
br ac
Par ty</w>
La ura</w>
In side</w>
Cal eb</w>
sp in</w>
sandwi ch</w>
re store</w>
mp tion</w>
eng agement</w>
dr ank</w>
do o</w>
Hi de</w>
stre tch</w>
sin k</w>
prot ector</w>
lar gest</w>
kee per</w>
frigh tened</w>
fasc in
W ard</w>
R ag
M AR
B itch</w>
so lar</w>
plan es</w>
ki llers</w>
inten tion</w>
Hit ler</w>
wa it
swor e</w>
Cho i</w>
pow der</w>
mot or
ba il</w>
achi eve</w>
Da isy</w>
shar ing</w>
se t
r ounds</w>
kne e</w>
fro zen</w>
civi l</w>
re ver
re tribution</w>
par a
en counter</w>
C rane</w>
C enter</w>
sli de</w>
f ever</w>
after wards</w>
John son</w>
D ylan</w>
tur al</w>
sig ning</w>
scri p
remin ds</w>
nee dy</w>
lo cated</w>
inten se</w>
exc uses</w>
down town</w>
acc used</w>
Fri ends</w>
A L</w>
tran sport</w>
compani ons</w>
St one</w>
S ally</w>
Per cy</w>
I ron</w>
I --</w>
De f
seri al</w>
o we
jo ining</w>
cou ra
compar ed</w>
H E</w>
Do g</w>
D e</w>
Cor por
worshi pped</w>
mischi ef</w>
ach es</w>
terr itory</w>
lea n</w>
el derman</w>
bur g</w>
Sha w</w>
S pe
Po int</w>
Ama zing</w>
trea ting</w>
su b</w>
newsp aper</w>
mon itor</w>
ar m
valu es</w>
ru mors</w>
differ ently</w>
a shes</w>
J .</w>
D C</w>
2 8</w>
sl ay</w>
os a</w>
l u</w>
g ut</w>
enjo ying</w>
T wi
T R
Au stra
trans ferred</w>
plan ets</w>
ar ts</w>
Te ddy</w>
T emp
vac y</w>
t ings</w>
mo di
el son</w>
aw kward</w>
Un able</w>
N am</w>
Em per
p ound</w>
hor n</w>
Ra j</w>
trage dy</w>
olu me</w>
ob jects</w>
ll u
inv oke</w>
in ev
hun ger</w>
f ear
Th er
Reg ina</w>
Hob o</w>
Gi b
E van</w>
wa shed</w>
slaugh ter</w>
mean time</w>
fil thy</w>
f n
can di
arch it
Se basti
Mich elle</w>
L ance</w>
Fran cis</w>
vis ited</w>
col ors</w>
su m</w>
sli pped</w>
ini qu
M itch</w>
Ju lian</w>
un aware</w>
pre ven
per ish</w>
occa sion</w>
lif ted</w>
k ly</w>
in justice</w>
esc ort</w>
clos est</w>
P au
Hu man</w>
B ang</w>
te th</w>
s orts</w>
disci pl
cla sses</w>
L ane</w>
Budd ha</w>
3 0
wor ker</w>
tt ered</w>
sh ort
oa ths</w>
inter nal</w>
dwe lling</w>
communi cate</w>
com ment</w>
anno ying</w>
Swee theart</w>
Fi f
D ana</w>
A k
swa llow</w>
pr o</w>
per su
h on</w>
g an
ful fi
wh is
na ils</w>
m ma</w>
grap h</w>
fle e</w>
e ments</w>
divor ced</w>
Emper or</w>
ru b</w>
o lation</w>
ne gl
mb s</w>
inst ance</w>
g ang
der ness</w>
S n
Ne ws</w>
H earing</w>
Gl ory</w>
Crea te</w>
sa tions</w>
k est</w>
impres sion</w>
Th ird</w>
San dy</w>
S leep</w>
M ING</w>
L A</w>
D s</w>
2 6</w>
sli ghtly</w>
rob bed</w>
ni fer</w>
h r
Thr one</w>
Me gan</w>
Ma king</w>
Jac kie</w>
w oe</w>
ves sel</w>
tor n</w>
sel ection</w>
o the
com in</w>
St d</w>
Sh u
ye ong</w>
ner ve</w>
l ou
disa gre
d ney</w>
co in</w>
assu med</w>
Se a</w>
N ed</w>
Ca esar</w>
- And</w>
wor e</w>
re cover</w>
per pe
la bel</w>
it an</w>
fs 48</w>
fn Hobo</w>
S crew</w>
S av
Ra y
D ance</w>
Cha irman</w>
2 .
z ar
to xi
sk in
re present</w>
r hy
pri me</w>
neph ew</w>
help ful</w>
gy m</w>
Qu it</w>
Musli m</w>
HA VE</w>
threa ten</w>
plan ted</w>
insi st</w>
c ease</w>
bo wl</w>
bit ter</w>
W u</w>
O ft</w>
rep ly</w>
ma dness</w>
fur n
el ine</w>
b ands</w>
Ter ry</w>
Mu ch</w>
Margar et</w>
Jen nifer</w>
Fran ci
- Come</w>
vide os</w>
re turns</w>
mista ken</w>
fre sh
con science</w>
br ush</w>
Tha mud</w>
Ta king</w>
NO T</w>
too th</w>
stri ve</w>
re verse</w>
o v</w>
ali ens</w>
Hel en</w>
vul ner
stu dio</w>
ly mp
Ju stice</w>
Den nis</w>
sh out</w>
pra ying</w>
fin est</w>
custom er</w>
Pri me</w>
Face book</w>
pros t
j unk</w>
di sh
deter mine</w>
J ean</w>
GR UN
rea ches</w>
la p</w>
gr oss</w>
en or
di gn
con gre
ar chi
W es
S S</w>
H ill</w>
G host</w>
s ence</w>
or phan</w>
igh ts</w>
Par ker</w>
Benjam in</w>
7 5</w>
rout ine</w>
bur ns</w>
Y esterday</w>
Russi ans</w>
Ma de</w>
wr apped</w>
si es</w>
re mark
out fit</w>
disc re
Matthe w</w>
E v
x on</w>
un believable</w>
pul se</w>
on a
ess a</w>
disci ples</w>
ab road</w>
Steph en</w>
M I
Le w
Ha il</w>
relev ant</w>
par adise</w>
g ori
Son ny</w>
E mer
sei ze</w>
just ly</w>
f red</w>
ex press</w>
e th
der i
Mar ch</w>
D rea
A sia</w>
st ent</w>
r d</w>
eng age</w>
can cel</w>
Vi ol
Mi ami</w>
Gover nor</w>
stu re</w>
s can</w>
la me</w>
in fi
associ ates</w>
app earance</w>
ag ers</w>
SC REA
I di
H .I.
F ace</w>
rab bit</w>
lu m</w>
Ra dio</w>
Ka therine</w>
th m</w>
st om</w>
K in
Hou ston</w>
Goo gle</w>
An th
inj ury</w>
cer tifi
b oot</w>
assi stance</w>
Co de</w>
den tial</w>
d ag
con ta
associ ated</w>
D ouble</w>
thir ty</w>
t wa
pl ess</w>
corru pt</w>
bur st</w>
ac cu
W ells</w>
Al ready</w>
t u</w>
sh ow
no thin</w>
contro lled</w>
L es
Ga me</w>
B oom</w>
- Where</w>
yl on</w>
tal kin</w>
se cu
re th</w>
bran ch</w>
S A</w>
Ro yal</w>
O p
Jen na</w>
D re
Ba be</w>
p re</w>
interest s</w>
ghani stan</w>
fli p</w>
et ings</w>
as sy</w>
ar ing</w>
S mar
A vat
&apos; RE</w>
y ce</w>
re sting</w>
or able</w>
conf lict</w>
bear d</w>
Pl ace</w>
venge ance</w>
pap er
ver ted</w>
sk a</w>
scat tered</w>
sc ent</w>
s ke
re ment</w>
p sy</w>
p ledge</w>
Cla ss</w>
Ar t</w>
utter ly</w>
ri pped</w>
ne ur
for mu
f rac
damag ed</w>
coun ter
anni versary</w>
ali zed</w>
ac ade
T ook</w>
Cha se</w>
Bloo dy</w>
Alex ander</w>
hon ey
ha b</w>
gen tly</w>
char ming</w>
K enny</w>
G AS
Cha n</w>
Ch en</w>
C ir
t ance</w>
pri vacy</w>
mar ine</w>
ki l
ki cking</w>
exp an
citi zen</w>
cap acity</w>
ome o</w>
g age</w>
ali ze</w>
Go tham</w>
Ear l</w>
st ling</w>
signifi cant</w>
r ats</w>
mi r</w>
cr yp
be ans</w>
Origin al</w>
K ee
Holl ywood</w>
A ir
xi mum</w>
sp reading</w>
hear s</w>
decre ed</w>
Y ING</w>
R al
Dav is</w>
Ca stle</w>
we b</w>
ta lity</w>
sh ri
s p</w>
im pro
har vest</w>
explos i
af fect</w>
S pr
Con ne
Au gust</w>
All ow</w>
un fortunately</w>
sp r
sel ect</w>
pa ys</w>
di ans</w>
Tur ns</w>
Mar ie</w>
tar gets</w>
men tary</w>
lli es</w>
c ence</w>
bo iling</w>
E. L.
E le
Bi shop</w>
transgre ssors</w>
ti ger</w>
si cs</w>
ff in</w>
con test</w>
W hat
Ch o</w>
ul timate</w>
out put</w>
Mon t
Avat ar</w>
Af ghanistan</w>
secre tary</w>
pi ano</w>
nu mer
go dd
K er
J eez</w>
Br o</w>
un ited</w>
grand pa</w>
glori ous</w>
enjo yment</w>
comp en
ad dition</w>
Mi d
M ee
L ine</w>
ca mel</w>
b out</w>
P LA
ta ils</w>
swor n</w>
sta tions</w>
pa ths</w>
gr abbed</w>
ed itor</w>
Lew is</w>
L ES</w>
won dered</w>
mu seum</w>
fu nd</w>
ele ments</w>
belon ged</w>
at ched</w>
ar row</w>
all ows</w>
Hot el</w>
tow ns</w>
to pi
ste pped</w>
intellig ent</w>
cat ching</w>
bra tion</w>
at us</w>
Sy l
Ra ther</w>
Pro ph
J ill</w>
CE O</w>
up date</w>
law yers</w>
jud gement</w>
Nol an</w>
L L</w>
ro b</w>
magaz ine</w>
li p
esti mate</w>
diffi cul
ad mini
UC K
stra igh
smar ter</w>
sc an
poli ti
emb race</w>
con st
S. H.I.
An dre
An d
- Why</w>
vis iting</w>
requ ested</w>
pur se</w>
min g
mar tial</w>
k er
dea dly</w>
&apos; M</w>
radi ation</w>
la ying</w>
dra matic</w>
compas sion</w>
beli ed</w>
Thir ty</w>
Lau rel</w>
ugh ty</w>
rela tive</w>
inclu de</w>
avo i
assh oles</w>
US T</w>
N i</w>
up right</w>
tun e</w>
griev ous</w>
ett es</w>
distin ct</w>
R omeo</w>
Ky ung</w>
terrori sts</w>
ta p</w>
st abbed</w>
pro ces
half way</w>
en ses</w>
bo ats</w>
ali e</w>
J un
spec t
pro vo
b or</w>
t less</w>
pos itions</w>
mat ure</w>
li zed</w>
fi anc
dro ps</w>
Y ang</w>
Clea n</w>
B ear</w>
Anth ony</w>
A ni
sch ol
effor ts</w>
P ope</w>
person ality</w>
nu mb
ge th</w>
brea st</w>
All en</w>
rev olution</w>
lo cate</w>
ju mping</w>
hard ship</w>
ev il
con cept</w>
D ru
web site</w>
go at</w>
bl ind
Oc to
K ab
H al</w>
Di e</w>
C le
Bu y</w>
terri fied</w>
t os
sha de</w>
re view</w>
ot t</w>
lu x
ll in</w>
ev iden
chi ps</w>
bea sts</w>
Wonder ful</w>
tis sue</w>
ma thema
d ges</w>
cen tral</w>
bu d</w>
Gl ori
rea ds</w>
it ches</w>
investi gate</w>
hos tages</w>
defin ed</w>
classi fied</w>
bar rier</w>
Val ent
S.H.I. E.L.
S ki
Lu thor</w>
5 ,000</w>
under cover</w>
free ze</w>
ar mor</w>
ap ers</w>
Am ong</w>
per spec
mus cle</w>
m mm</w>
ee d
earth quake</w>
dev i
continu ed</w>
Thur sday</w>
Sebasti an</w>
Re turn</w>
O P
Mon othe
B ol
fun c
flo ating</w>
fav ours</w>
du ck</w>
costu me</w>
ble ed</w>
Wh om</w>
N an
Har ris</w>
Cha mp
C ross</w>
sp er
r anks</w>
pos ted</w>
ough ly</w>
mat ches</w>
it ching</w>
ga thering</w>
fle et</w>
exhau sted</w>
e mail</w>
bor ro
R am</w>
Inter esting</w>
sh ark</w>
rif le</w>
rep ay</w>
la mp</w>
ju n</w>
concer t</w>
S ang</w>
Ri cky</w>
P ol
L ost</w>
Fin ch</w>
sen ses</w>
pla gue</w>
photograp h</w>
dat abase</w>
St an</w>
Ni cho
Fin ish</w>
Ser vice</w>
Mi ddle</w>
stead fast</w>
produ ction</w>
ot a</w>
du le</w>
at t</w>
pas sengers</w>
employe es</w>
Tot ally</w>
Consi der</w>
un expected</w>
tr y
ther eafter</w>
sp ect</w>
qu e
clas sic</w>
ag en
ad mitted</w>
a x</w>
Me di
Ma u
Ca therine</w>
un ted</w>
tr ated</w>
r ape</w>
pas sport</w>
lo ck
des pair</w>
c tly</w>
C at</w>
stro ke</w>
si vely</w>
ac us</w>
thi eves</w>
st eri
si e</w>
owe en</w>
hy dro
coun ts</w>
Un h</w>
Ou ch</w>
Cam er
to ys</w>
sequ ence</w>
re treat</w>
hea ling</w>
free zing</w>
fi es</w>
cro o
Pri vate</w>
Ph one</w>
L ots</w>
vi gi
t us</w>
mou ths</w>
ear l</w>
co m</w>
N ina</w>
C assi
A ga
t resp
ri ches</w>
fashi oned</w>
Moun tain</w>
pre y</w>
manag ement</w>
foun dation</w>
assu redly</w>
The a</w>
nea rest</w>
lab or</w>
gene tic</w>
dro wn</w>
drea med</w>
coordin ates</w>
S and
Mor ty</w>
Ju ly</w>
Fl or
un fortunate</w>
tu m</w>
symp a
sha king</w>
peace ful</w>
os er</w>
bi an</w>
Afri can</w>
st ain</w>
pap a</w>
orph ans</w>
engine er</w>
ee ts</w>
argu ments</w>
Tim es</w>
Monothe ism</w>
se ct</w>
pen is</w>
jud ges</w>
ido lat
ex cep
dis k</w>
blo ws</w>
be ef</w>
Un known</w>
Super man</w>
La w</w>
su cker</w>
stu dies</w>
sh outing</w>
sa s</w>
pro pose</w>
grat itude</w>
el ders</w>
cli ck</w>
Fl ori
C oul
pre va
kil ome
G osh</w>
ta stes</w>
sp it</w>
l it</w>
ec tors</w>
con stantly</w>
com pre
co des</w>
cli mate</w>
cer tain
ab use</w>
a ti
La ur
sau ce</w>
l ted</w>
ga tions</w>
do c</w>
chu ckles</w>
Tra vis</w>
Some where</w>
S mo
relation ships</w>
loo p</w>
lap top</w>
dest ined</w>
chec k
ch op</w>
Ti ger</w>
-- I</w>
p acking</w>
he els</w>
ham mer</w>
concen trate</w>
charac ters</w>
Z ero</w>
Inv alid</w>
ski p</w>
ex trac
al lies</w>
ab du
W o
F lo
Coun ty</w>
six th</w>
must n</w>
l end</w>
for given</w>
b end</w>
Da le</w>
Cour t</w>
Cor rect</w>
Bra d</w>
3 rd</w>
mar rying</w>
ma ke
dev ils</w>
cr acy</w>
Hall oween</w>
G PS</w>
C .
A M
un like</w>
tw ins</w>
re d
figh ters</w>
Y u</w>
Y ours</w>
G E</w>
Bu il
wi d
ro tt
re plac
li ction</w>
accep table</w>
Sam uel</w>
Mi a</w>
K ha
B .
th eater</w>
sna p</w>
psy cho</w>
la yed</w>
in fin
hand led</w>
gi es</w>
chap ter</w>
ab om
O scar</w>
Lat in</w>
F all</w>
tra ve
ra in
ki ssing</w>
concer ns</w>
assas sin
R ig
v ated</w>
th is
phi los
ite ms</w>
gen u
even th</w>
differ ences</w>
co s</w>
che er
bea ts</w>
Tor ah</w>
Ma gi
IL L</w>
r ts</w>
devel op</w>
arr ange</w>
Sti ck</w>
Man ny</w>
Ira q</w>
tr o</w>
st are</w>
questi oning</w>
necess arily</w>
fri ed</w>
f east</w>
Con nor</w>
Ch ang</w>
9 9</w>
were wolf</w>
magi cian</w>
hi lls</w>
gh ting</w>
gam bling</w>
assu ming</w>
6 00</w>
pha se</w>
i ge</w>
at ri
ari a</w>
Un believable</w>
Me li
ER S</w>
sh ining</w>
in ju
S wa
Franci sco</w>
F ort
C K</w>
oper ating</w>
li sts</w>
h oriz
al ties</w>
Ma d
C AN</w>
k es
Se p
G ot
ren dered</w>
p atch</w>
heavi ly</w>
gett in</w>
colum n</w>
a tional</w>
Or der</w>
M un
In to</w>
Con t
- All</w>
sla p</w>
ini a</w>
h en</w>
chea ted</w>
can e</w>
b ani
O lymp
B oo</w>
rescu ed</w>
champ agne</w>
Ma dame</w>
warri ors</w>
mission er</w>
div ine</w>
char m</w>
bar a</w>
Ron nie</w>
whe els</w>
su ally</w>
so le</w>
lea gue</w>
gover nor</w>
ca sin
S po
P o</w>
Ang ela</w>
tt ering</w>
to ps</w>
re con
miser y</w>
ignor ed</w>
el er</w>
acc eler
U hh</w>
S ort</w>
P y
Do ing</w>
B om
4 2</w>
ctu ary</w>
F itz</w>
E in
superi or</w>
leg acy</w>
insu lt</w>
fe males</w>
exi sted</w>
comp ound</w>
D eep</w>
y ton</w>
s -</w>
oun d
acqu ain
To k
T oo
Luci fer</w>
sp rings</w>
pros per
i i</w>
execu ted</w>
en vel
distri ct</w>
clo thing</w>
Wen dy</w>
Paki stan</w>
Mar tha</w>
- Thank</w>
we ir
ti re</w>
pir ate</w>
in put</w>
foot steps</w>
cra shed</w>
Wor king</w>
Bo y
to x
mp er</w>
gradu ate</w>
ab sence</w>
Secre t</w>
S T</w>
Je wish</w>
Je w</w>
E yes</w>
Bles sed</w>
surviv ors</w>
str ings</w>
person nel</w>
p .
investig ating</w>
bas is</w>
Wa ll
Sh in</w>
L am
B ack
1 50</w>
wil derness</w>
senti ally</w>
jo kes</w>
c ents</w>
Ro b</w>
Alli son</w>
wor rying</w>
tre men
rea r</w>
re bel</w>
poli ce
on ship</w>
min or</w>
en cing</w>
Per son
K NOW</w>
App le</w>
2 ,000</w>
won t</w>
stre ssed</w>
prepar ing</w>
peop les</w>
j an
ful fill</w>
cry stal</w>
Nicho las</w>
Go dd
Crea tor</w>
v alid</w>
sh ma
ol a</w>
loy d</w>
happ ily</w>
gala xy</w>
dev ices</w>
cir cus</w>
aw a</w>
EN T</w>
fi sh
fi res</w>
fav our
den tally</w>
comb ination</w>
b ore</w>
T A
Sh o
As sh
&apos; I</w>
ser ves</w>
pl ying</w>
pe st</w>
deman ds</w>
c el
U P</w>
O l
Feli city</w>
wor thless</w>
witnes sed</w>
ter ies</w>
recei ving</w>
mot el</w>
loo kin</w>
in tru
high way</w>
a x
M ot
M .
G RO
twa in</w>
t its</w>
sub jected</w>
sacrifi ced</w>
sa les</w>
quali fied</w>
lo cker</w>
li ck</w>
G run
E V
sal vation</w>
s ack</w>
oc us</w>
g ins</w>
ch ef</w>
Re peat</w>
R ab
Fa st</w>
ո ւ
to e</w>
propos al</w>
lun gs</w>
la y
j ack</w>
go lf</w>
gh ted</w>
explo de</w>
en ch</w>
bo thering</w>
bl in
Sy n
I ris</w>
Coun cil</w>
4 7</w>
she et</w>
r os
perspec tive</w>
no od
nee dle</w>
chec ks</w>
S aint</w>
Be hind</w>
A ct</w>
mp y</w>
mb o</w>
for ty</w>
ff ing</w>
S e</w>
war ehouse</w>
techni cally</w>
ski es</w>
pri mary</w>
pl ates</w>
pat rol</w>
n in</w>
i f
fir mly</w>
fanta sy</w>
es ses</w>
en der</w>
bar n</w>
ast ro
S no
G lee</w>
G ET</w>
tit les</w>
sho cked</w>
ra ising</w>
am u
Th ank
A d</w>
- Let</w>
ul ous</w>
publi shed</w>
presen ts</w>
W IT
Me aning</w>
Li ving</w>
- Don</w>
w ary</w>
vulner able</w>
under wear</w>
t ate</w>
mirac les</w>
invest ment</w>
gh ing</w>
fair ly</w>
elec tro
camp us</w>
back wards</w>
bab y
Lor en
Jon ah</w>
Go lden</w>
v i</w>
t ane
suspi ci
shor tly</w>
pil gri
me tho
fe sti
Wol f</w>
V ide
U l
Elli ot</w>
Ash ley</w>
just --</w>
inf o</w>
hu l</w>
gh test</w>
expla ins</w>
ear y</w>
an ony
aff liction</w>
Re x</w>
Me mor
por n</w>
pl om
pi gs</w>
ph en
mp et</w>
arro ws</w>
announ ce</w>
Si x
Hun ter</w>
C H</w>
perman ent</w>
paper work</w>
mu tual</w>
destro ying</w>
best ow</w>
Vi k
Flori da</w>
up side</w>
threa ts</w>
ss in</w>
inspi ration</w>
din os
compla in</w>
cha ins</w>
achi ev
The e</w>
Ad mi
- Who</w>
triump h</w>
sin ger</w>
sh itty</w>
por tal</w>
k it</w>
ga ined</w>
employe e</w>
che ster</w>
certain ty</w>
v et</w>
s words</w>
remark able</w>
ou ter</w>
man ners</w>
m n</w>
gu itar</w>
en sure</w>
Scu lly</w>
P at</w>
J on</w>
Ita ly</w>
recomm end</w>
p ort
m ac
le gen
dign ity</w>
at oes</w>
Leon ard</w>
Bla ke</w>
pu mp</w>
pre ferred</w>
ni gh</w>
Bab ylon</w>
re warded</w>
op ti
fra ud</w>
D aw
si eur</w>
ra dar</w>
g as
di son</w>
cru shed</w>
a me</w>
T ara</w>
IC E</w>
E m</w>
Can ada</w>
&apos; m
squ ir
pi ed</w>
parti cip
go o</w>
fe tch</w>
dom inion</w>
app lause</w>
C offee</w>
Ar k</w>
vis or</w>
spir itual</w>
shoul ders</w>
os hi
g us</w>
eter nity</w>
c ans</w>
ado pted</w>
Ta ste</w>
P an</w>
J ang</w>
E ag
C old</w>
t to</w>
sugge sting</w>
er o
T am
wh o
under stands</w>
rep orting</w>
mor on</w>
che er</w>
bl on
P op
Lo vely</w>
Dec e
CH UCK
pois oned</w>
oper ate</w>
mo tive</w>
logi es</w>
im prove</w>
ha bit
fu g
Y an
Ju stin</w>
Jo in</w>
wi ped</w>
produ cts</w>
insta lled</w>
ha r</w>
c unt</w>
admi re</w>
ac cent</w>
Sma ll</w>
R iley</w>
Lea gue</w>
Gen er
Ba stard</w>
str ated</w>
ro cket</w>
righ tly</w>
reco vered</w>
mis understanding</w>
enor mous</w>
emp ire</w>
dea d
be y</w>
a le</w>
T a</w>
Elli e</w>
Car los</w>
- Good</w>
t acti
sa mples</w>
for t</w>
abun dance</w>
G ab
D E</w>
tra ditional</w>
tor tured</w>
butt er
bo w
E mb
3 6</w>
s by</w>
itu re</w>
inter f
h hh</w>
formu la</w>
com a</w>
War ning</w>
T ower</w>
Comp le
sin cer
sick ness</w>
glori fy</w>
ex pos
e well</w>
di al</w>
W ha
Vir g
Ca r</w>
C ON
th an
princi pal</w>
perce ive</w>
om i</w>
nes ses</w>
fac tion</w>
ch ess</w>
blo cked</w>
aff ected</w>
Rel ease</w>
R oss</w>
Pu bli
Ni cky</w>
Ge e</w>
se i</w>
rebelli ous</w>
n ate</w>
jud ged</w>
dev oted</w>
Fo x</w>
Egy pti
war nings</w>
wan dering</w>
inter net</w>
appro ve</w>
all er
I ce</w>
Coul son</w>
19 7
th al</w>
str an
re pair</w>
pp et</w>
off er
jin ns</w>
bond men</w>
ad ap
Z oe</w>
Octo ber</w>
O pp
O H</w>
where with</w>
quot e</w>
less ly</w>
hel pers</w>
gu ish</w>
commer cial</w>
ch in</w>
Wr ite</w>
Hor se
ro lled</w>
or ange</w>
na r</w>
j am</w>
f loo
Tok yo</w>
TH ING</w>
Ow en</w>
Meli ssa</w>
Ho lly</w>
Clear ly</w>
shoo ter</w>
on i</w>
n am</w>
li sted</w>
in di
dre ssing</w>
depos it</w>
coun sel
contro ls</w>
T .</w>
wor m</w>
perfor med</w>
gr ounds</w>
exi can</w>
defin ition</w>
dea ls</w>
de ton
K S</w>
Ger mans</w>
clo wn</w>
bo o</w>
arri val</w>
R ap
Qu e
Offi ce</w>
OU N
Li z</w>
B y
19 6
rea ct</w>
humili ating</w>
cal yp
auth enti
ascri be</w>
Wester n</w>
Ma gic</w>
H osp
Bu reau</w>
10 0,000</w>
tri gg
inf ection</w>
h op</w>
el u
dan cer</w>
coun ty</w>
analy sis</w>
ac id</w>
Smar t</w>
P ow
I P</w>
G us</w>
B run
re ference</w>
lo vers</w>
ea ger</w>
dedic ated</w>
clos ely</w>
c us
P ic
Man ager</w>
F ish</w>
D ele
Bu t
un happy</w>
r ina</w>
inten tions</w>
ill ness</w>
cru ci
cl inic</w>
certifi cate</w>
an o
Flor ence</w>
F ar</w>
Bar bie</w>
Al bert</w>
ti ps</w>
th y
specifi cally</w>
poe try</w>
p oo
k un</w>
he h</w>
broad cast</w>
M o</w>
L ower</w>
Gu n</w>
E M
swa ll
re ign</w>
nam ent</w>
kno cking</w>
eviden ces</w>
b ent</w>
ar mies</w>
al bum</w>
La wr
tu b</w>
sin ful</w>
se cts</w>
s nu
pro mot
lo cks</w>
in ches</w>
frequ ency</w>
collap se</w>
ca uti
bu gs</w>
asse mbly</w>
ad ver
D own
Bene ficent</w>
tele phone</w>
tal ented</w>
sta b</w>
sp ake</w>
kidn apping</w>
ir a</w>
intro duced</w>
in ity</w>
ignor ance</w>
evil doers</w>
b ounds</w>
Wher ever</w>
Mu mmy</w>
I -</w>
Bec ky</w>
trou bles</w>
psychi c</w>
poli te</w>
indu stri
consci ousness</w>
conne ctions</w>
bro ad</w>
arri ves</w>
V ar
Mar cel</w>
As su
wre tched</w>
sen ten
re tired</w>
presen ted</w>
po ver
pa tion</w>
p ting</w>
mi stress</w>
mag nifi
hi c</w>
con gratulations</w>
att acking</w>
W ed
N ur
Idi ot</w>
F ro
Du tch</w>
z oo</w>
sum mon
ser geant</w>
po ckets</w>
l ting</w>
discus sion</w>
Z oom</w>
WO MAN</w>
W er
U M
Tran s
P enny</w>
Feli x</w>
Bro ok
8 00</w>
the me</w>
ru mor</w>
li d</w>
exp ose</w>
di ve</w>
crea tive</w>
T ED</w>
S ound</w>
Be tween</w>
Be ll
wat ches</w>
mul titude</w>
laun dry</w>
en dar</w>
dre sses</w>
commit ment</w>
Sh ane</w>
Ne gative</w>
Loren zo</w>
v ar
trea sures</w>
pi es</w>
om ing</w>
hel pless</w>
collea gues</w>
ci sm</w>
ab bing</w>
Spart acus</w>
Pa ige</w>
Mar y
In iti
En ter
B lan
Al fred</w>
.A .
tri bes</w>
po em</w>
hel met</w>
ever lasting</w>
ca lf</w>
accur ate</w>
Nor man</w>
A .</w>
virtu ous</w>
t down</w>
suspec ted</w>
sp ac
resur rection</w>
medi cation</w>
la ds</w>
gra ves</w>
en er</w>
Lawr ence</w>
H as
Da e</w>
Ch ec
v ard</w>
pre su
pover ty</w>
manu fac
lo w
hor se
econom ic</w>
conspir acy</w>
aci fic</w>
a y
Crow ley</w>
w ears</w>
vani shed</w>
su sta
sha l</w>
opp onent</w>
natur ally</w>
magne tic</w>
inter ven
gr ay</w>
figu res</w>
disp os
Ty pe</w>
Th i
Str ange</w>
O i</w>
Mother fucker</w>
Mon key</w>
D y
u l</w>
su p
re sort</w>
our able</w>
ec tions</w>
Stri ke</w>
Cl ay</w>
o xi
inv ent</w>
identi fied</w>
for getting</w>
fac tor</w>
apologi es</w>
Wat son</w>
Su preme</w>
S pl
Ri ch</w>
M exican</w>
Guar dian</w>
Do or</w>
5 0
re placed</w>
re infor
org an
mean ing
ma ils</w>
en for
G one</w>
F ocus</w>
Bra d
- Well</w>
w oo
reck on</w>
rap ed</w>
provi des</w>
la m</w>
interpre tation</w>
fu r</w>
can c
bud dies</w>
bl ank
bi lity</w>
L ang
Bar bara</w>
Ar row</w>
will ingly</w>
tom b</w>
pu ppy</w>
pro ven</w>
ge e</w>
P ort
Fri end</w>
y ell</w>
th east</w>
g i</w>
dd ington</w>
Ro cky</w>
N elson</w>
Del hi</w>
Ch i</w>
B ig
trou bled</w>
tri c</w>
tra gic</w>
tom s</w>
tar ge
st or</w>
reli eved</w>
rea s
cu ffs</w>
ch ron
bar gain</w>
as set</w>
activ ities</w>
Sel f</w>
N A
Ki ck</w>
Fan ta
un ting</w>
trav eled</w>
lik eness</w>
f oul</w>
disobe y</w>
di ary</w>
be es</w>
W AN
Q U
Mu mb
Lu c
Ka i</w>
sp a
regi stered</w>
proper ties</w>
lec ture</w>
in mates</w>
import antly</w>
foo led</w>
es sentially</w>
comp ass</w>
bi a</w>
Star ting</w>
S ni
H ector</w>
C e
A ble</w>
k ened</w>
i se
execu te</w>
cow boy</w>
command ment</w>
air craft</w>
Virg inia</w>
U .
LAUGH ING</w>
Dun ham</w>
Cho ose</w>
B ha
trac ked</w>
th ea
r itual</w>
pain ted</w>
missi le</w>
l ings</w>
it i</w>
gener ate</w>
g loves</w>
ev alu
P un
en vy</w>
boo k
S O</w>
K it
or e
electri c</w>
accompli shed</w>
Uni on</w>
De li
An derson</w>
4 th</w>
se ctor</w>
pas sage</w>
min ent</w>
assi st</w>
announ ced</w>
Bar ney</w>
ter son</w>
prescri bed</w>
je wel
i ce
hu mor</w>
hoo ked</w>
d oms</w>
an ci
W ish</w>
F light</w>
ve il</w>
sp er</w>
organi zed</w>
in th</w>
g lu
disco very</w>
direc tions</w>
Vi ew</w>
R and
Hear d</w>
For ever</w>
B .</w>
in sol
dece ive</w>
cl an</w>
Nat alie</w>
rott en</w>
pi ll</w>
mo ck</w>
hun ters</w>
har sh</w>
fran kly</w>
de sig
Up on</w>
P H
K A
tremen dous</w>
termin al</w>
stri kes</w>
reali se</w>
off s</w>
ne th</w>
doo med</w>
disagre e</w>
depar ted</w>
conveni ent</w>
St even</w>
Sp ace</w>
t our
r ene
pur suit</w>
pre t
p ean</w>
mo le</w>
indepen dent</w>
fla mes</w>
deca des</w>
appro val</w>
Y oo</w>
Ral ph</w>
Ni co
D in
- Are</w>
paran oid</w>
os pel</w>
i o</w>
eleph ant</w>
an ch
F ood</w>
Admi ral</w>
fascin ating</w>
f ting</w>
S cor
Qu esti
Mi key</w>
tal es</w>
sil k</w>
rela tions</w>
mo on
ll ville</w>
equ als</w>
ab sor
stron gest</w>
head quarters</w>
di plom
ath le
R ol
Hop efully</w>
ve mber</w>
physi cs</w>
ot gun</w>
cros sing</w>
Where fore</w>
S crea
P ad
O .</w>
F u</w>
Ex p
v ow</w>
inva sion</w>
di ce</w>
c off
blank et</w>
Wed nes
W ang</w>
Se o</w>
v olume</w>
su itable</w>
rebelli on</w>
iniqu ity</w>
electri cal</w>
car go</w>
beha vi
De p
3 7</w>
un conscious</w>
t ore</w>
ra ining</w>
e --</w>
au dition</w>
afflic ted</w>
Hosp ital</w>
G I
tori ous</w>
te mber</w>
ni c</w>
ma ll</w>
correc tly</w>
coo ked</w>
contr ary</w>
bo lt</w>
ap h
ain a</w>
G al
D Y</w>
vi e</w>
st ly</w>
r us</w>
negoti ate</w>
ne cks</w>
ll est</w>
app er</w>
Su mmer</w>
F on
occu pied</w>
hea led</w>
fun ds</w>
fi a</w>
dig ital</w>
d u</w>
ca la
bor ne</w>
St ev
Lo ck
I m</w>
H ood</w>
Di ego</w>
v ine</w>
sti cking</w>
pur pos
pro motion</w>
hr er</w>
for ged</w>
at tribute</w>
W ind
Some how</w>
Fe deral</w>
C had</w>
5 5</w>
so c
sche me</w>
ner ship</w>
mu n</w>
mother fuckers</w>
mech ani
gu m</w>
gg les</w>
fi st</w>
ev olution</w>
d ome</w>
ca li
announ cement</w>
advi se</w>
Wil lie</w>
R est
No vember</w>
trau ma</w>
sa lad</w>
ri dge</w>
ra w</w>
preci se</w>
ght ful</w>
ful ness</w>
for en
den ed</w>
cont ents</w>
alter native</w>
adul ts</w>
ac ces
Re public</w>
Greg or</w>
v ag
s giving</w>
prin ces</w>
mar es</w>
hom icide</w>
Sep tember</w>
O D</w>
vi sions</w>
ve ments</w>
tou ches</w>
tion ing</w>
offer ings</w>
emo tion</w>
doub ts</w>
dag ger</w>
ca su
au r</w>
W an
Swee tie</w>
S u</w>
Ru by</w>
E r</w>
Bro thers</w>
Be lle</w>
virtu e</w>
twi sted</w>
resi dence</w>
p ad
l ac
j ective</w>
en ligh
cont acts</w>
aggre ssive</w>
Wit ness</w>
Un it</w>
H and
Gre etings</w>
stor es</w>
soc cer</w>
rea r
ra tional</w>
proph ec
ep is
e yed</w>
ali g
Sti les</w>
Jo b</w>
Indi ans</w>
Euro pean</w>
Brook lyn</w>
- So</w>
terri bly</w>
success fully</w>
ni cely</w>
gr acious</w>
expe lled</w>
civili zation</w>
casin o</w>
bi ological</w>
Y ay</w>
philos op
lor ds</w>
il or</w>
head ache</w>
activ ated</w>
Sa fe</w>
Gri mm</w>
to es</w>
susp ended</w>
gover n
fla v
corpor ate</w>
M ea
Har vard</w>
vi er</w>
ow ners</w>
out come</w>
instru ction</w>
g room</w>
en compas
di ffer</w>
ca ine</w>
advi sed</w>
ac o</w>
I rish</w>
- This</w>
pa int
offici als</w>
hall u
guar ded</w>
du g</w>
co al</w>
Imp ossible</w>
z el</w>
wan der</w>
san ctuary</w>
ni bal</w>
na vi
k man</w>
deb ate</w>
bl oo
WA S</w>
W arr
S U
Pr os
P il
Juli ette</w>
se th</w>
liqu or</w>
le ans</w>
inte ll
g atory</w>
dr un
confir ming</w>
civili ans</w>
Vi et
S of
P acific</w>
J UST</w>
Assh ole</w>
xi e</w>
vac u
un ty</w>
the less</w>
pre serve</w>
j in</w>
im press</w>
illi an</w>
fl ood</w>
engine ering</w>
de er</w>
cha mp</w>
car t</w>
ach ing</w>
W arri
Veg a</w>
Me an
Ein stein</w>
ul ts</w>
patter ns</w>
is co</w>
des pi
d ote</w>
col our</w>
cl ing</w>
bro w
at om
as sured</w>
Li onel</w>
z i</w>
po inted</w>
i g</w>
develop ing</w>
cele bration</w>
W is
SH E</w>
Mumb ai</w>
Dece mber</w>
ro ots</w>
resi stance</w>
pen ny</w>
gar ments</w>
favour ite</w>
eni x</w>
dele te</w>
coo perate</w>
clu bs</w>
ca de
V alley</w>
Pal mer</w>
P orter</w>
H ERE</w>
Coll ins</w>
B ang
- Hi</w>
tru cks</w>
deli ber
bu cket</w>
En able</w>
Au th
wa y
w i</w>
twi st</w>
ton gues</w>
to s</w>
sp otted</w>
phen om
hop efully</w>
er man</w>
divi de</w>
ad ditional</w>
Ki lling</w>
I mage</w>
3 1</w>
u ts</w>
ter nal</w>
techni que</w>
sing ly</w>
sa lu
na ughty</w>
ma il
it ated</w>
fre ely</w>
flu id</w>
desi red</w>
d son</w>
cop ies</w>
Plea sure</w>
wor n</w>
u h
t ories</w>
st atu
ra de</w>
honey moon</w>
ha tt
collea gue</w>
T rea
Ros ie</w>
Ray mond</w>
Col om
pati ently</w>
musi cal</w>
ma ximum</w>
k h
im mortal</w>
gra tion</w>
descri bed</w>
confu sion</w>
ang led</w>
a ye</w>
So vi
Re ddington</w>
ha cked</w>
gra des</w>
frea ked</w>
dwe llers</w>
cigar ettes</w>
S our
S mur
Re min
O ops</w>
El ec
Dest ro
Austra lia</w>
ss ment</w>
pro claim</w>
po inting</w>
langu ages</w>
gri p</w>
fig uration</w>
ex ception</w>
de part</w>
bac teria</w>
b ank
ap ti
Ta i
S witch</w>
S coo
F oo
F .
sw eep</w>
ill e</w>
e se</w>
cli ff</w>
Wa iting</w>
L ex
K ey</w>
Frank lin</w>
ter i
surpri ses</w>
s ity</w>
s ites</w>
hom eless</w>
explosi ves</w>
e over</w>
cu stom</w>
compas sionate</w>
com promised</w>
boar ding</w>
Sil ver</w>
R y
N on
Contin ue</w>
t att
pol is</w>
ne tt</w>
man ual</w>
iti ous</w>
interf ere</w>
g ot
c ating</w>
bo ld</w>
bi o
Vide o</w>
Gra ham</w>
F ur
C LA
wre ck</w>
ri sts</w>
os is</w>
metho ds</w>
mb er
grea tly</w>
gi a</w>
el et</w>
climb ing</w>
assa ssin</w>
Se th</w>
K id
2 9</w>
tun nels</w>
sub mitted</w>
per vert</w>
nar row</w>
execu tion</w>
cauti ous</w>
app lied</w>
Sy stem</w>
Kat rina</w>
5 0,000</w>
ta sted</w>
sub stance</w>
ph ine</w>
h ee
a tically</w>
Y i
Su ddenly</w>
Sp ain</w>
Sac red</w>
Mar ine</w>
Ma x
sal ary</w>
mete or</w>
mea sures</w>
g ur
der ship</w>
coo kies</w>
In clu
Ab u</w>
k n
f itting</w>
cau tion</w>
ca sting</w>
Y ea</w>
T rev
Sun ny</w>
te m
or bit</w>
m and
la dder</w>
bear er</w>
S li
Mi ck</w>
M ach
Fa lls</w>
A me
&apos; s--</w>
war s</w>
spo il</w>
pro jects</w>
po le</w>
k night</w>
hor ror</w>
elimin ate</w>
W h</w>
Sh in
S co
Mo ving</w>
Inter national</w>
Fi fty</w>
Bri dge</w>
4 0
v est
schedu led</w>
i le</w>
eri c</w>
en coura
chi ck
Jer sey</w>
J O
De v</w>
Camer on</w>
we igh</w>
un lea
to wel</w>
temp er</w>
swi ft</w>
st ur
pi ety</w>
id ers</w>
finger prints</w>
fi led</w>
compe te</w>
co vers</w>
bott les</w>
T ext</w>
Spe ed</w>
Ro ll</w>
Re port</w>
E C
pre d
lar ly</w>
gre et</w>
fore fathers</w>
f oster</w>
dis abled</w>
descen dants</w>
celebr ating</w>
am mo</w>
al together</w>
Phi lli
P sy
N Y
De puty</w>
B Y</w>
An ton
ris ks</w>
in ter</w>
hand ling</w>
d ose</w>
coll ar</w>
atu res</w>
Wh osoever</w>
Ra ise</w>
R i</w>
wa king</w>
l ousy</w>
furn iture</w>
cu p
Sma llville</w>
Kr yp
E den</w>
there with</w>
sub jects</w>
str ay</w>
practi cing</w>
pi ck
pan el</w>
ol dest</w>
lt an</w>
k y
hy bri
h n</w>
ca de</w>
Lau ghs</w>
un fair</w>
symbo ls</w>
su preme</w>
par ked</w>
oo s</w>
ma x</w>
ha unted</w>
di et</w>
consu me</w>
bran ches</w>
Z ack</w>
Phi list
Cur tis</w>
- Do</w>
squee ze</w>
re dee
pur sue</w>
iti mate</w>
hatt an</w>
fi cial</w>
deli cate</w>
conc ea
con vic
bra ss</w>
Sur prise</w>
Sil ence</w>
F ly</w>
Be at</w>
w oo</w>
w eep</w>
volunte er</w>
screa ms</w>
ro s</w>
ro mance</w>
pros per</w>
li cation</w>
j unior</w>
gn ition</w>
S.H.I.E.L. D.</w>
Re gi
Out side</w>
O x
B enny</w>
where of</w>
ti me
sti ff</w>
puri fy</w>
p ene
ott on</w>
n it
mee tings</w>
grand son</w>
commit tee</w>
bon ds</w>
WIT H</w>
Uni verse</w>
S au
M OR
sh eets</w>
s ore</w>
predic table</w>
m us</w>
lob by</w>
inv o
dev o
conv ey</w>
app eal</w>
an nu
Ra j
D esp
wi ck
war ming</w>
sh it
re stored</w>
fra g
experim ents</w>
consequ ence</w>
Free dom</w>
Del ta</w>
C isco</w>
we igh
off ers</w>
laugh ter</w>
her eafter</w>
happ ier</w>
app et
ac tress</w>
sto l</w>
ri an</w>
re l
preci sely</w>
posse ssions</w>
ni ece</w>
in come</w>
far mer</w>
ex tend</w>
end ant</w>
d ome
cr acked</w>
chemi stry</w>
be fall</w>
P ING</w>
F ly
C el
- She</w>
sen ator</w>
plu g</w>
mi a</w>
m ote</w>
issu ed</w>
for sa
fi xing</w>
fa me</w>
anxi ous</w>
ador able</w>
Yan ke
Se oul</w>
R ain</w>
Nor a</w>
Don nie</w>
An n</w>
vill ages</w>
sw itched</w>
ste p
shap ed</w>
pp le</w>
mo dels</w>
lo ads</w>
la yer</w>
ki ly</w>
in ations</w>
idolat ers</w>
dra gons</w>
confir mation</w>
cen cy</w>
cat eg
anci ents</w>
J in
E va</w>
Cro wn</w>
Att ack</w>
tri als</w>
lin ks</w>
g ated</w>
disp er
dece ived</w>
chi cks</w>
calyp se</w>
Str ong</w>
Ne t
G ru
sur ing</w>
pat ri
eri a</w>
S ali
R eese</w>
Jo y</w>
IN E</w>
Gre en
B low</w>
z ations</w>
strea ms</w>
night mares</w>
k ung</w>
jewel ry</w>
inst ant</w>
eng ines</w>
dr o</w>
dish on
V ince</w>
Tw itter</w>
Tu be</w>
S mile</w>
Rus sell</w>
Pal ace</w>
La w
D inner</w>
An gie</w>
A a
A M</w>
tu de</w>
spi der</w>
or i</w>
on ica</w>
ear ning</w>
al ine</w>
Rever end</w>
Li ber
H eart</w>
G il</w>
wha le</w>
skin ny</w>
see ks</w>
ro d</w>
promi sing</w>
p oured</w>
l ined</w>
instin ct</w>
fast est</w>
Pa ti
J an</w>
Fil es</w>
Emp ire</w>
ves sels</w>
st ink</w>
plat form</w>
numb ered</w>
li sm</w>
dep th</w>
a ward</w>
Wednes day</w>
TH ERE</w>
3 3</w>
vis itor</w>
tw in</w>
t anks</w>
sc um</w>
g gs</w>
e mper
br at</w>
ari ous</w>
R est</w>
7 th</w>
ti fied</w>
su ite</w>
pe an
m me</w>
he a</w>
fa iling</w>
day light</w>
ce des</w>
be gged</w>
Trev or</w>
Pow er
A cade
ve ster</w>
st ack</w>
rece ption</w>
par aly
ko v</w>
import ance</w>
fo x</w>
exam ples</w>
des cend</w>
decl ar
cro ps</w>
car ries</w>
bl ank</w>
R unning</w>
Mi ckey</w>
Cour se</w>
A th
t .</w>
si re</w>
righte ously</w>
qu an
do s</w>
diti ons</w>
dis appoint</w>
de light</w>
bud get</w>
Stan ley</w>
Rob er
L and</w>
Kor an</w>
Got cha</w>
B ingo</w>
6 5</w>
whis key</w>
we e</w>
wa shing</w>
ur ge</w>
materi als</w>
distr acted</w>
cl oth</w>
ar ena</w>
V ice</w>
Sy dney</w>
M .</w>
B oun
B ag
trea ty</w>
th west</w>
sugge sted</w>
sc ra
ow l</w>
obe dient</w>
mor t
li eutenant</w>
fun dam
en coun
ac les</w>
Ar ound</w>
- They</w>
won ders</w>
whi p</w>
sub way</w>
str o</w>
sc ape</w>
rev ol
r ors</w>
occu r</w>
ma sters</w>
la ys</w>
l oses</w>
in gre
goo dly</w>
el se
bu mp</w>
S al</w>
Rebe kah</w>
G ide
Ch and
vie wed</w>
tr ating</w>
ti mately</w>
th read</w>
ru led</w>
re pro
p ace</w>
M ec
Desp ite</w>
Be tty</w>
B ot
B et</w>
B each</w>
tru st
some what</w>
shr ink</w>
me tap
man n</w>
liqu id</w>
laugh ed</w>
im mor
he e</w>
gi le</w>
ge ments</w>
distur b</w>
compre h
c ope</w>
asse ts</w>
S i</w>
P .</w>
Man hattan</w>
Go ds</w>
to p
su it
make up</w>
den ying</w>
jour nal</w>
inst all</w>
illu sion</w>
hon orable</w>
coun ted</w>
bla med</w>
billi ons</w>
batt le
b en</w>
S W
K ung</w>
Gr acious</w>
Fanta stic</w>
wi dow</w>
in able</w>
hos tile</w>
disobe yed</w>
Y EA
Rag nar</w>
Co dy</w>
whe el
w rist</w>
vill ain</w>
sno w
qu et</w>
kilome ters</w>
exclu sive</w>
entertain ment</w>
en ting</w>
busin ess
Wor ship</w>
Willi ams</w>
V ill
D ir
trea ch
plea d</w>
p per
no vel</w>
argu ing</w>
U T
Sen ior</w>
P art</w>
Hi story</w>
Gl en
Gide on</w>
G am
E ye</w>
th under</w>
symp toms</w>
re tt</w>
p ent</w>
my th</w>
le d
l ene</w>
ket ball</w>
gr en
distr action</w>
chi efs</w>
auth or</w>
Win ter</w>
Sl ee
Ran dy</w>
Bra z
with draw</w>
sa ma</w>
mon t</w>
min ation</w>
is er</w>
deca de</w>
be lls</w>
be ds</w>
a do</w>
P ir
Me tro
F ort</w>
whi stle</w>
where fore</w>
prot ective</w>
phra se</w>
lin ked</w>
la zy</w>
k ra
di shes</w>
bas ket</w>
TH EY</w>
Ha wa
E ll
A sh</w>
sp ots</w>
shar es</w>
prophec y</w>
os e
near er</w>
ne ys</w>
inj a</w>
con s</w>
Fi re
6 4</w>
su ff
su cked</w>
sp ite</w>
sc ores</w>
retri eve</w>
respec ted</w>
real m</w>
org ans</w>
hen na</w>
gra ms</w>
ex tent</w>
dis gr
cal endar</w>
be ware</w>
arran gement</w>
app a</w>
Si las</w>
Li u</w>
J av
wom b</w>
sun set</w>
room mate</w>
resur rec
par able</w>
lea dership</w>
imm une</w>
i k
cr ack
Vo ices</w>
sl ut</w>
sign als</w>
boo ze</w>
at er
am bush</w>
W est
S id</w>
Pro ble
Pre ss</w>
xi mately</w>
the ft</w>
pursu ed</w>
cont ext</w>
Z ach</w>
Tou ch</w>
T ess</w>
Proph ets</w>
A I
re late</w>
re duce</w>
mi ll</w>
lan e</w>
l ining</w>
anti cip
V .</w>
U sually</w>
Pr inci
P RO
Hel ena</w>
wan g</w>
re members</w>
maj esty</w>
li ghter</w>
journa list</w>
fell ows</w>
et ary</w>
cul pr
appro ved</w>
anti dote</w>
P age</w>
Lea der</w>
J ared</w>
Eag le</w>
C ell</w>
streng th
sp li
sp ared</w>
scen ario</w>
s have</w>
inten ance</w>
der ly</w>
comp are</w>
ac cor
We ap
Pho enix</w>
Bran don</w>
ti de</w>
t ine</w>
so ber</w>
pow ered</w>
per mitted</w>
organi c</w>
ologi st</w>
mini mum</w>
mes sy</w>
m its</w>
gg in</w>
fri dge</w>
bea m</w>
ar i</w>
a u</w>
O thers</w>
N AS
Che ster</w>
Af ter
z er
ex or
cul tural</w>
con tained</w>
bar ren</w>
ani a</w>
U sed</w>
Sol di
P on
On eness</w>
CH E
w ns</w>
over night</w>
ou tra
mo b</w>
fra med</w>
Tha i</w>
Mon ica</w>
Gover nment</w>
GAS PS</w>
z ra</w>
min ded</w>
me dal</w>
logi st</w>
imp ul
hi de
expl ore</w>
contro lling</w>
compla int</w>
canc eled</w>
borro wed</w>
Won der</w>
W ong</w>
Mos que</w>
Gib bs</w>
Fly nn</w>
Don na</w>
A ction</w>
é e</w>
vo id</w>
succ eeded</w>
s eventh</w>
respon ding</w>
reli able</w>
nee d
frea ks</w>
flo ck</w>
fil ming</w>
don e
co ws</w>
cho osing</w>
app re
Or leans</w>
Fre ya</w>
Dele te</w>
D ata</w>
3 8</w>
vou ch
tis m</w>
su cking</w>
sla tion</w>
si zed</w>
s sy</w>
pher d</w>
l ust</w>
is a</w>
ga il</w>
discipl ine</w>
c ines</w>
Lou ise</w>
L ay</w>
E .</w>
D ol
Bro ad
&apos; LL</w>
z ar</w>
y .</w>
un ite</w>
li ons</w>
emb assy</w>
clear ance</w>
ca ll
Warr en</w>
Spi der</w>
C R
9 5</w>
sub st
reco very</w>
po llu
ma ster
de pressed</w>
con vi
ce iling</w>
Su m
P ack</w>
L en
L EA
Jud gement</w>
trans mission</w>
tou gh
qu a
increa ses</w>
ha il</w>
go s</w>
fla gs</w>
f ers</w>
drea dful</w>
bu gger</w>
b outs</w>
as m</w>
SCREA MING</w>
O per
u ary</w>
tu be</w>
pir ates</w>
op enly</w>
mis fortune</w>
Tech ni
S me
Remin der</w>
Po li
Li br
C ops</w>
3 ,000</w>
sun rise</w>
rebe ls</w>
min al</w>
ha w
er ase</w>
du ties</w>
SI GH
Ja i</w>
Hy ung</w>
C P
Be lla</w>
BO TH</w>
yö ur</w>
ru p
p m</w>
har med</w>
chop per</w>
cess or</w>
bar rel</w>
Ver onica</w>
Valent ine</w>
C amp
vehi cles</w>
ty pical</w>
sp he
sacrifi ces</w>
ru pt</w>
emper or</w>
confu sing</w>
ad ding</w>
Mar ley</w>
Fre ddy</w>
Com passionate</w>
B less</w>
A venue</w>
ter rific</w>
sol o</w>
sni per</w>
sl ey</w>
physi cally</w>
it ement</w>
dev our</w>
dec eased</w>
cir cles</w>
b bles</w>
Abi gail</w>
A sian</w>
su re
psy chop
min es</w>
de ity</w>
accomp lish</w>
Les lie</w>
D R
Cont act</w>
Ca tho
Bu ild</w>
temp t</w>
stre t
pu zzle</w>
ea ses</w>
disobe dient</w>
consu med</w>
con tra
Wh e
Ter esa</w>
F ol
Col in</w>
vis itors</w>
perfor ming</w>
mon it
din er</w>
cre te</w>
comm unities</w>
boo ked</w>
anony mous</w>
an a
Wa de</w>
Sha me</w>
Pla y
F ir</w>
zom bies</w>
wa kes</w>
tra ding</w>
ten sion</w>
po et</w>
mu lation</w>
lli e</w>
l n</w>
exi sting</w>
ex tract</w>
com mo
Prot ect</w>
K een</w>
Isa be
For e
Bus iness</w>
&apos; re
sp ray</w>
per mit</w>
enfor cement</w>
demo cracy</w>
de ities</w>
cu ri
con ten
bu bble</w>
Slo wly</w>
Nur se</w>
Li v</w>
th ly</w>
ra ft</w>
indu l
h l</w>
fon t</w>
det ected</w>
cur ed</w>
ch ant</w>
bur ger</w>
beli e</w>
aff ection</w>
You Tube</w>
Simp le</w>
RI GHT</w>
Good night</w>
F ord</w>
Da mi
ri g</w>
pre si
in o
ic on</w>
g g</w>
fa int</w>
d able</w>
ab sur
Wy att</w>
Pi per</w>
Mean while</w>
F at
wa days</w>
val ry</w>
v ital</w>
ta xes</w>
re solve</w>
olu tionary</w>
mo dule</w>
ligh tly</w>
li t
lat ter</w>
inter face</w>
gree dy</w>
ex pi
eri es</w>
deci des</w>
d itch</w>
avoi ding</w>
ING ING</w>
I van</w>
Han nibal</w>
F oun
F at</w>
Cra ig</w>
Ay at</w>
stat ue</w>
star t
secur ed</w>
na ive</w>
m ant</w>
ki ah</w>
gradu ation</w>
f el
ear ls</w>
den tal</w>
P oo
L S</w>
I F</w>
B ron
Acade my</w>
- lt</w>
- Get</w>
tt on</w>
tra iler</w>
stre tched</w>
see ds</w>
ro o
ri son
privile ge</w>
j ar</w>
ir ing</w>
inev itable</w>
fi lling</w>
end less</w>
char i
cen tre</w>
boun ties</w>
ap es</w>
Wor lds</w>
O peration</w>
G im
Braz il</w>
A dri
z or</w>
surpri sing</w>
qu is
pi llow</w>
mus cles</w>
lux ury</w>
in ge</w>
esti mated</w>
eri e</w>
dra wer</w>
discus sed</w>
congre gation</w>
blon de</w>
as hi
any ways</w>
adver ti
Van essa</w>
I. D.</w>
Cin dy</w>
BU T</w>
v able</w>
th a
situ ations</w>
peri al</w>
infi dels</w>
individu als</w>
civi lian</w>
ar ity</w>
Sa i
Re i
Chi ld</w>
wea lthy</w>
to --</w>
thu mb</w>
the sis</w>
sma sh</w>
sh in</w>
reti rement</w>
pack ages</w>
orph an
li est</w>
im a</w>
convin cing</w>
blo g</w>
arr ay</w>
ap p</w>
an tha</w>
Mir anda</w>
H at
20 ,000</w>
z ie</w>
v ine
tru sts</w>
ser o</w>
paint ings</w>
mas sage</w>
co caine</w>
attrac ted</w>
a wait</w>
Un seen</w>
Sim mons</w>
Mos cow</w>
Ju n</w>
Jan uary</w>
Her r</w>
Cla u
- But</w>
where on</w>
v als</w>
tow n
ten se</w>
sur geon</w>
scre wing</w>
s ang</w>
pres sive</w>
o ce
h or</w>
comm itting</w>
champi onship</w>
bea uti
Sam antha</w>
Sa ying</w>
R ing</w>
OU LD</w>
H ook</w>
Def ense</w>
C BI</w>
t el
so da</w>
slaugh tered</w>
scri be</w>
scar ing</w>
sa kes</w>
ridi cu
inju ries</w>
far mers</w>
ea u</w>
deni al</w>
deb ts</w>
d ity</w>
con fron
cand le</w>
Syl vester</w>
Rand all</w>
N ever
wor ld
rob ots</w>
mee ts</w>
liber ty</w>
kind ly</w>
i um</w>
gra sp</w>
for ming</w>
festi val</w>
dep lo
bom bing</w>
bas ketball</w>
Wi thin</w>
Sea ttle</w>
Ma k
B all
pur ple</w>
no te
ni gger</w>
li sh
inde x</w>
f ond</w>
cap tive</w>
be ts</w>
arran gements</w>
a while</w>
An na
Ali cia</w>
ro ast</w>
inst itution</w>
exten sion</w>
en courage</w>
bo ards</w>
Wh a</w>
W ood
Pl an</w>
Li st</w>
Fu ckin</w>
F is
B ooks</w>
wi zard</w>
ve ins</w>
therap ist</w>
ta s
t ack
regar ds</w>
ra i
oc ate</w>
ma ss
insi sted</w>
in ary</w>
gi l</w>
Scot ty</w>
P A</w>
LE T</w>
L as
H il
Fe els</w>
2 000</w>
ti lity</w>
sw ea
st y
pen gu
obe yed</w>
na mic</w>
magnifi cent</w>
m our</w>
lea f</w>
distr act</w>
dev ast
compla ining</w>
coff in</w>
bl is</w>
Se x</w>
P it
Ju les</w>
Ea stern</w>
Cou ple</w>
Chi cken</w>
z u</w>
ul a</w>
sea ted</w>
s its</w>
ra h</w>
ow es</w>
ot y
mon keys</w>
li k</w>
i deal</w>
guar dians</w>
for mal</w>
compli ment</w>
ba ld</w>
O llie</w>
Li am</w>
G u</w>
Car men</w>
CHUCK LES</w>
A untie</w>
tru sting</w>
th ra
tal ents</w>
sti cated</w>
sle w</w>
rac es</w>
po d</w>
molecu les</w>
m elt</w>
Publi c</w>
Mis sion</w>
Emer gency</w>
wat ch
un justly</w>
ru ler</w>
r s</w>
p an</w>
in st</w>
g ossi
fl u</w>
fin ed</w>
cho oses</w>
bb ing</w>
alli ance</w>
Philist ines</w>
N uh</w>
J ar
Even tually</w>
3 4</w>
ter n</w>
s ophi
rememb ering</w>
pag ans</w>
on ents</w>
obe dience</w>
lea ther</w>
hall way</w>
ea bouts</w>
da tions</w>
coo peration</w>
arri ving</w>
ab ulous</w>
Y es
Pot ter</w>
M ack</w>
K itty</w>
In done
Har rison</w>
B au
sk ins</w>
sc and
per secu
court esy</w>
cont acted</w>
N ot
M illi
Li ght
F R
Coll ege</w>
us ers</w>
topi c</w>
tain ing</w>
t s
sho ve</w>
sh otgun</w>
preven ted</w>
pas senger</w>
n u</w>
me th</w>
ma m
ll i</w>
instin cts</w>
hallu cin
fi erce</w>
class room</w>
as sing</w>
Wall ace</w>
Thom p
Shel don</w>
Mis sing</w>
In t
F OR
yi eld</w>
tt ed</w>
th under
recon ci
re se
mass ac
in cu
hand ful</w>
ex al
dri ed</w>
cryp ted</w>
authori zed</w>
attemp ted</w>
In du
G rea
Brea k
1 000</w>
sun shine</w>
soa p</w>
pro c
por k</w>
k top</w>
integr ity</w>
int ent</w>
initi al</w>
her d</w>
han dy</w>
a is
W ELL</w>
Sci ence</w>
H app
E zra</w>
C ow
Ar jun</w>
represen ts</w>
progra ms</w>
practi cal</w>
p ee
ograp hy</w>
mp kin</w>
else where</w>
distur bing</w>
cor ri
condem ned</w>
Plan et</w>
L ing</w>
Di strict</w>
&apos; t--</w>
st eak</w>
so o</w>
inclu ded</w>
in spec
fil ter</w>
dwe llings</w>
blu e
as y
Y usu
Su ltan</w>
Stea dy</w>
Reg gie</w>
Ma h
Com missioner</w>
Ar gh</w>
fa ils</w>
def ending</w>
bla sphe
Su c
Sh u</w>
Sa sha</w>
S ever
No .</w>
N I
For ward</w>
CO ME</w>
worshi pping</w>
vi cious</w>
ver sus</w>
toxi c</w>
so cks</w>
prote in</w>
pl un
nigg a</w>
mot or</w>
l ing
fil ms</w>
equ ation</w>
ed ness</w>
direc ted</w>
dep end</w>
coll ected</w>
ch ro
bo thered</w>
b is
abun dant</w>
T an</w>
Scot land</w>
Sco field</w>
sugge stion</w>
pra ises</w>
pl ed</w>
n ah</w>
min i</w>
du des</w>
du cing</w>
collap sed</w>
co ins</w>
Sk ye</w>
Corpor al</w>
Ca me</w>
B ong</w>
n ell</w>
me t
forsa ken</w>
drea m
dol ph
cl ari
b ean</w>
U sing</w>
TH ER</w>
T op
Lea ving</w>
Inclu ding</w>
v ince</w>
trac es</w>
ste pping</w>
rubb ish</w>
rejo ic
po ker</w>
in tri
for gives</w>
drow ning</w>
cha tter</w>
S D</w>
Mer cedes</w>
Fi ghting</w>
Ch un</w>
sub mission</w>
mar ty
imp rison
ad dic
Ri chie</w>
Phi lip</w>
N ote</w>
L .A.</w>
ur o</w>
surr ounding</w>
ri sky</w>
motor cycle</w>
me tery</w>
ma intenance</w>
che ering</w>
be falls</w>
Lo gan</w>
D all
B R
Ar ti
vo y
thir st</w>
ta tive</w>
sp ear</w>
se c
lun atic</w>
humili ated</w>
en chan
diag nos
devo tion</w>
conveni ence</w>
chee k</w>
Non sense</w>
Mo osa</w>
I shma
wh oso</w>
we stern</w>
sp inning</w>
sen tial</w>
re duced</w>
numer ous</w>
dru m</w>
ast oni
Li ar</w>
L ind
Hom eland</w>
Di g</w>
D ash</w>
Col umb
resurrec ted</w>
op ar
difficul ty</w>
cros s
ben ch</w>
b our
S ung</w>
Rob bie</w>
R ou
ON G</w>
E pis
4 3</w>
tour nament</w>
there from</w>
s om
pa le</w>
ll ery</w>
lea p</w>
hy p
eli te</w>
conclu sion</w>
ce ments</w>
bri ck</w>
be tting</w>
at tain</w>
V el
V O
T ab
S wit
NAS A</w>
H ic
C are</w>
7 2</w>
whisp ering</w>
sta ti
reti re</w>
psychi at
jo y
gree ting</w>
b ind</w>
acci dentally</w>
ab sent</w>
a we</w>
Opp a</w>
Mon sieur</w>
Ed it</w>
Di ffer
A U
5 2</w>
ig ned</w>
hear ted</w>
hat ch</w>
h int</w>
gi g</w>
fat al</w>
cu ps</w>
con figuration</w>
car pet</w>
bon us</w>
Yusu f</w>
We b</w>
Sa w</w>
Ishma el</w>
F ron
Co ast</w>
Chan nel</w>
ro lls</w>
ot ting</w>
ob served</w>
ni m</w>
mi st</w>
ff le</w>
exten ded</w>
da le</w>
b iting</w>
Tro y</w>
S or
Rom ans</w>
N ev
H us
Go ld
Gla ss</w>
Aga inst</w>
- Just</w>
sn ea
regre ts</w>
princi ple</w>
photograp hs</w>
dis order</w>
bo xing</w>
Re si
Mec ca</w>
LI KE</w>
Kir k</w>
Gran ny</w>
E E
Cam p</w>
3 .
sp ill</w>
inf ra
humili ation</w>
de pri
candi date</w>
b ending</w>
I k</w>
Dun can</w>
Di ana</w>
Car ry</w>
Bar nes</w>
A hem</w>
9 th</w>
whisp er</w>
wa gon</w>
val ent</w>
t oss</w>
reci pe</w>
man sion</w>
le en</w>
la ser</w>
kit ty</w>
hee dless</w>
g low</w>
fl ee
be llies</w>
Mis si
Mi lls</w>
C C
zz ie</w>
swall owed</w>
st ler</w>
ru g</w>
ro pes</w>
reco gnition</w>
re solved</w>
pos sibilities</w>
hes itate</w>
Me i</w>
x er</w>
techni cal</w>
st abi
par as
ona ire</w>
neu ro
g ence</w>
fu se</w>
ee ta</w>
col onel</w>
ca m
abdu cted</w>
Wi ld</w>
Vi c</w>
O mar</w>
Magi strate</w>
J as
IN K</w>
Ge henna</w>
G ates</w>
Ca sti
A G
part ition</w>
ner ves</w>
multi p
mo vements</w>
lat es</w>
invol ve</w>
fore ig
envel ope</w>
do pe</w>
con sent</w>
bu ff
bru tal</w>
ar do</w>
absur d</w>
V ampi
R Y</w>
trav els</w>
thu si
te x</w>
s light</w>
radi us</w>
p it
nood les</w>
in der</w>
equ ally</w>
confes sed</w>
cl oses</w>
cala mity</w>
body guard</w>
W u
R as
Pr ay</w>
Pla ying</w>
G ur
the l</w>
ta ke
super natural</w>
summon ed</w>
st ine</w>
sex u
ri ses</w>
ph arm
pal ms</w>
oun ced</w>
ori gin</w>
no t
logi c</w>
lo west</w>
hard ware</w>
gu lar</w>
gener ator</w>
exam ine</w>
appet ite</w>
Kri sh
Hear er</w>
Gri ffin</w>
G ang</w>
Dall as</w>
tri cky</w>
tion als</w>
ta b</w>
super hero</w>
sper m</w>
spec u
schol ar
re vo
per fu
p earls</w>
kid do</w>
kee pers</w>
inci ble</w>
hon ourable</w>
expla ining</w>
exc itement</w>
electr onic</w>
co ke</w>
bor ders</w>
arti sts</w>
Tu cker</w>
Mat ty</w>
I i
C ab
Bu ll</w>
ti ous</w>
pet ition</w>
pen it
mor gue</w>
min ate</w>
me ster</w>
glo be</w>
es sential</w>
edu cated</w>
dr one</w>
con crete</w>
bi ology</w>
Sou thern</w>
Sha ke</w>
P AR
Le ster</w>
Juli et</w>
Eu gene</w>
Cor ps</w>
Cal vin</w>
8 th</w>
us s</w>
u ph
spea ker</w>
sa vior</w>
sa fed</w>
pa ired</w>
gradu ated</w>
for ma
compe lled</w>
Squ are</w>
P earl</w>
L ec
Ja de</w>
Gi ven</w>
Ber n
A iden</w>
wor ms</w>
sli ce</w>
rehear sal</w>
rar ely</w>
r r
on ey</w>
lli van</w>
foo ling</w>
des sert</w>
T own</w>
Sh ang
Nico le</w>
Ba ker</w>
B attle</w>
B B
A way</w>
t reason</w>
pur chase</w>
no tion</w>
ess ence</w>
ca use
bac hel
ant ine</w>
ang es</w>
al gori
ach i</w>
Re ed</w>
Mi li
Metro polis</w>
L ess</w>
B all</w>
Ai goo</w>
wr ites</w>
wi red</w>
stea m</w>
ro de</w>
par ade</w>
kid nap</w>
il and</w>
hi l
fore head</w>
at om</w>
YEA H</w>
Vin ci</w>
Ter r
D al
A gency</w>
w oul
the ories</w>
stru ggling</w>
ru ining</w>
re lla</w>
pro ves</w>
pre cin
ob jective</w>
int act</w>
guaran te
ga ining</w>
f ry</w>
credi ble</w>
cra wling</w>
ck ling</w>
casu alties</w>
am ate
Re d
Ra hul</w>
Mar k
Kar an</w>
Haw k</w>
GO T</w>
E M</w>
Comm uni
Bur t</w>
Bla ine</w>
2 ,
sion ally</w>
sett lement</w>
recogni se</w>
mi ah</w>
mat ching</w>
in ks</w>
gro cer
flo at</w>
en thusi
cra wl</w>
col li
a. m.</w>
Wor ds</w>
W N</w>
Tal king</w>
Ke y
Her cu
Hea d
Col or</w>
Bo x</w>
Ame lia</w>
z on</w>
vi an</w>
thri lled</w>
tab let</w>
surviv or</w>
stri ving</w>
men tation</w>
le th</w>
hus bands</w>
gui shed</w>
com mission</w>
al ind</w>
a e
R ound</w>
M am
K i</w>
vouch safed</w>
vo y</w>
p ad</w>
or ism</w>
lo ve
lan te</w>
inst itu
hea der</w>
gg led</w>
enjo ined</w>
desig ner</w>
air plane</w>
Ba ek</w>
vege tables</w>
tap es</w>
pro mp
pot ato</w>
me --</w>
in son</w>
har dest</w>
h ou</w>
ga p</w>
fini shing</w>
emplo yed</w>
desi st</w>
bra ke</w>
a im
Y un</w>
Ro hit</w>
H ad
For gi
Ex ecu
presen tation</w>
p ani
loo k
li king</w>
lat or</w>
go ose</w>
fu ss</w>
evol ved</w>
croo ked</w>
com promise</w>
clu es</w>
bre ed</w>
b bie</w>
al ms</w>
R ac
Per ry</w>
Mar co</w>
L am</w>
Ap preci
- A</w>
wrong doing</w>
stat ements</w>
missi les</w>
magi cians</w>
ma kers</w>
je opar
in fil
gg age</w>
ent it
all o
Ru th</w>
Princi pal</w>
P uni
Gim me</w>
Dis c</w>
Buil ding</w>
Be th
Ba sically</w>
sur rendered</w>
su l
str ong
sta ir
r at
inter cession</w>
in timate</w>
guar ding</w>
en sed</w>
bla ming</w>
a mi
Li e</w>
Imp ort</w>
I l</w>
E sp
Bea st</w>
Ari a</w>
suspici on</w>
supp er</w>
shel f</w>
scen es</w>
ra lly</w>
p ec
cor ners</w>
bar ri
appli cations</w>
acu lar</w>
ac cuse</w>
W OR
Sar ge</w>
O k
O O
Hal t</w>
ա ն
n ay</w>
it --</w>
inv iting</w>
ce lled</w>
aw fully</w>
V is
Ma dison</w>
Li ft</w>
Fi ona</w>
E igh
D eci
Bun ny</w>
sl er</w>
sc ars</w>
pan ties</w>
hop eless</w>
genu ine</w>
ge ly</w>
con tribu
bo ws</w>
acqu ired</w>
S S
PLA YING</w>
Kar l</w>
I blis</w>
For ty</w>
D ee
Ca o</w>
C al</w>
y en</w>
wher eabouts</w>
vo ws</w>
tor ch</w>
ro y
ro gue</w>
mea ls</w>
far ther</w>
coo kie</w>
chu ck</w>
cand les</w>
bar be
achi eved</w>
Trac y</w>
Ta xi</w>
S in</w>
R ain
El sa</w>
Atlan tic</w>
ur al</w>
sp ies</w>
se duce</w>
re union</w>
ra ined</w>
por tra
police man</w>
le thal</w>
ju ana</w>
flo ors</w>
e ign
circu it</w>
brief case</w>
W ent</w>
Tur ner</w>
Sovi et</w>
P M</w>
ven ly</w>
s cal
pa th
oty pe</w>
ing --</w>
fra gile</w>
fli r
el ected</w>
de puty</w>
conqu er</w>
cli p</w>
bli ss</w>
a venge</w>
Y ong</w>
We ird</w>
Kab ir</w>
D ex
Bri lliant</w>
5 th</w>
ye on</w>
y ang</w>
vari able</w>
to ken</w>
si mili
scar es</w>
ra ti
nick name</w>
gr unts</w>
fug itive</w>
di al
d war
command ments</w>
W itch</w>
Un believers</w>
Proble m</w>
M and
K ay</w>
Disp lay</w>
A ki
x ies</w>
sc ul
pro hib
pot atoes</w>
batt les</w>
ang les</w>
T ate</w>
P am</w>
Na omi</w>
Me dic
AR S</w>
4 4</w>
v om
st unt</w>
sm oo
sh itting</w>
sc u
rela tion</w>
re fer</w>
pi er
oper and</w>
lu ggage</w>
eign ty</w>
car ing</w>
bree ze</w>
bre w</w>
Rig sby</w>
Mor eover</w>
vi olation</w>
po o</w>
mar ke
fro g</w>
epis ode</w>
car to
auto psy</w>
Mit ch
Lev el</w>
I ll
ul timately</w>
t ments</w>
s itter</w>
ru m</w>
mon k</w>
mo cked</w>
min ated</w>
lu re</w>
infin ite</w>
hon esty</w>
fun ctions</w>
de fine</w>
c ord</w>
bi o</w>
appro ximately</w>
Me d
- Not</w>
un lawful</w>
trust worthy</w>
ten nis</w>
re serve</w>
opport unities</w>
nee ding</w>
li ve
l ever
heart beat</w>
ha ste</w>
fri es</w>
che w</w>
archi ve</w>
ar ose</w>
SP EA
Re y
P P
Mar vin</w>
M ain</w>
K I
Jessi e</w>
Fe bru
Au stin</w>
An ti
war t</w>
s cal</w>
p ouring</w>
men tor</w>
lab or
la mb</w>
ele g
dra in</w>
che ers</w>
can o</w>
battle field</w>
au to</w>
T ough</w>
Mar ines</w>
Catho lic</w>
wid th</w>
vo d
si ah</w>
p reach</w>
mi sh</w>
m itting</w>
here by</w>
fu sion</w>
distribu tion</w>
bu ck</w>
autom atically</w>
ar se</w>
W ind</w>
Some day</w>
Sha itan</w>
L AN
Ju dy</w>
Febru ary</w>
Ba se</w>
v or
transgre ssion</w>
slee ps</w>
ru ins</w>
re wards</w>
ob s</w>
in tu
cor n
brac elet</w>
ar mor
appre h
Viol et</w>
Tw elve</w>
Se ol</w>
M US
G ong</w>
Bir th
B as
7 00</w>
0 1</w>
vi ch</w>
sa y
po tion</w>
mar i
is ol
is --</w>
hi o</w>
fi ction</w>
f ing</w>
dri vers</w>
disc lose</w>
coll ecting</w>
blo cking</w>
bin ding</w>
ar e
ali bi</w>
a urs</w>
St and
N igh
L enny</w>
K .</w>
Int ellig
Gu ards</w>
Ed itor</w>
Add ons</w>
tro phy</w>
ser um</w>
psychiat rist</w>
o thy</w>
na lly</w>
lo cations</w>
ligh ting</w>
inven tion</w>
interro gation</w>
id ly</w>
bac on</w>
b ers</w>
al ter</w>
ado pt</w>
Y ears</w>
L ad
Fort un
DE A</w>
te ous</w>
pi stol</w>
maj ority</w>
laun ched</w>
indic ate</w>
imp ati
ev ing</w>
den cy</w>
cree p</w>
ber ries</w>
as sign</w>
W inst
GRO AN
Cu te</w>
Com pu
B lock</w>
A las</w>
- Is</w>
w en</w>
ti res</w>
sha ken</w>
re sts</w>
lo g
j an</w>
g al
evacu ate</w>
dome stic</w>
disgu ise</w>
The m</w>
Su llivan</w>
Su gar</w>
Re por
Har per</w>
Dor othy</w>
An ju
vari ety</w>
tri ple</w>
sp aces</w>
serv ers</w>
reck less</w>
phenom en
peri o
om a</w>
k le</w>
f i</w>
car av
bu lly</w>
Naz i</w>
N er
N SA</w>
M ing</w>
Ki lled</w>
Kan sas</w>
C ry
Ara b</w>
2 50</w>
y man</w>
wick edness</w>
un likely</w>
u a</w>
stin ks</w>
pu p
preva il</w>
oxi de</w>
lli on</w>
it lin</w>
hydro gen</w>
ga sps</w>
du mmy</w>
dis like</w>
def endant</w>
bl an
Thomp son</w>
Lo ad</w>
G ospel</w>
wh ir
ra il
our se</w>
op posed</w>
n acle</w>
inclu des</w>
gen es</w>
crea se</w>
bra kes</w>
back yard</w>
W oody</w>
U N</w>
T es
St u</w>
M M
Le g
I g
Hercu les</w>
Hea ds</w>
B ond</w>
zz o</w>
resu me</w>
pro posed</w>
po or
off ended</w>
o cks</w>
mu sh
mb a</w>
bur dens</w>
Winst on</w>
Th ous
Th inking</w>
P ack
I ran</w>
G y
Ex plain</w>
tur key</w>
terri fying</w>
sl it</w>
sincer ely</w>
sha w</w>
respec ts</w>
py ra
pre dict</w>
pe tty</w>
mi l</w>
lli ed</w>
hor ns</w>
esti c</w>
ca bin
bla zing</w>
Shang hai</w>
P hy
Hea ther</w>
F I
Af raid</w>
sugge sts</w>
shoo ts</w>
m r</w>
gu ide
doub tedly</w>
det ect</w>
b ah</w>
as under</w>
any a</w>
Tha iland</w>
stand ards</w>
st all</w>
ru shing</w>
re servation</w>
ob servation</w>
o ven</w>
f o</w>
ec tives</w>
dis respect</w>
di se</w>
ck ery</w>
boo th</w>
bb er</w>
Wer en</w>
U h
Lev ites</w>
Jo han
Fi gu
F lu
De mo
B ird</w>
vie wing</w>
tra ins</w>
po int
pe es</w>
ob tain</w>
kni ves</w>
ju dging</w>
inher ited</w>
hun ted</w>
distur bed</w>
cher ry</w>
astr onom
accep ting</w>
Thank sgiving</w>
T ree</w>
P a</w>
J a</w>
Gr ay</w>
GRUN TING</w>
F A
A II</w>
ti sh</w>
temp tation</w>
suit case</w>
st ir</w>
rubb er</w>
refer ring</w>
mer chan
in car
do t</w>
can non</w>
c oul
T .
P lat
In formation</w>
- There</w>
v ali
un stable</w>
thr ust</w>
ob st
ni es</w>
fir st
a qu
a --</w>
T Y</w>
Sa la
R ise</w>
N atur
C ob
A ang</w>
u t
ti ck</w>
st ated</w>
prof its</w>
por ch</w>
hon oured</w>
hin der</w>
f ounded</w>
f eeds</w>
ca s
W ing</w>
N ag
Fre sh</w>
Fif teen</w>
vi l</w>
scholar ship</w>
mea sured</w>
me chan
li hood</w>
ge sture</w>
fer ences</w>
at i</w>
anch or</w>
agen da</w>
Pro gram</w>
Pr int</w>
Port land</w>
N ob
I gn
Fi x</w>
E i
Con gress</w>
As sa
z y
ver dict</w>
stra yed</w>
sn ack</w>
shi rts</w>
schoo l
r oses</w>
i zed</w>
grea tness</w>
f fe
di me</w>
cop y
conver sations</w>
cess ors</w>
Vi cky</w>
Je ong</w>
GO D</w>
G eez</w>
v ents</w>
ski rt</w>
short cut</w>
se lls</w>
re source</w>
pro b
fulfi l</w>
fa ults</w>
en crypted</w>
ell i</w>
bat teries</w>
We b
S ecu
F it
too th
recomp ensed</w>
m aps</w>
la in</w>
gener ally</w>
ci st</w>
c tic</w>
butt ons</w>
bee p</w>
b acked</w>
Z om
Si de</w>
Mur der</w>
Es ther</w>
C up</w>
- Can</w>
vel ous</w>
so ver
sca les</w>
sc out</w>
pos iti
p oop</w>
overwhel med</w>
k een</w>
instru ment</w>
i cy</w>
gi veth</w>
cri pt</w>
ann on</w>
Y ES</w>
W AR
R anger</w>
Ever lasting</w>
D ur
D J</w>
Bu zz</w>
Anju ta</w>
under estimate</w>
tri cked</w>
sta tic</w>
pri or</w>
op pressed</w>
en stein</w>
en did</w>
dra ws</w>
dea v
cell or</w>
aller gic</w>
al o</w>
abor ate</w>
Rol and</w>
Differ ent</w>
Chi ll</w>
B ased</w>
wom bs</w>
sun light</w>
set up</w>
se mester</w>
satis faction</w>
sa iling</w>
lo gue</w>
ha ve
gi ons</w>
gang ster</w>
fu rious</w>
e fficient</w>
char t</w>
achiev ement</w>
Z T</w>
Y S</w>
S cre
R ow
P ost</w>
H ER</w>
Bur ning</w>
y ah</w>
stri ctly</w>
p o</w>
ink le</w>
for k</w>
fa ll
du res</w>
cri es</w>
consi stent</w>
conf lic
chemi cals</w>
ball oon</w>
Vo ice</w>
Ru le</w>
Jere miah</w>
Ca se</w>
20 th</w>
spi re</w>
s .
ri bs</w>
re ls</w>
obli gation</w>
la sh</w>
er ased</w>
cou ches</w>
car tel</w>
be ers</w>
acade my</w>
Wind ow</w>
W ee
Sour ce</w>
Dex ter</w>
Ch ef</w>
Ba iley</w>
Ap pro
A na</w>
ven ture</w>
ss man</w>
sin ned</w>
post p
politi cians</w>
ne at</w>
ma dman</w>
ex ag
encoun tered</w>
dis missed</w>
asse mble</w>
We i</w>
Temp le</w>
Sh aron</w>
Krish na</w>
F i</w>
Eri ca</w>
Epis ode</w>
Brun o</w>
vod ka</w>
tea m
stu ffed</w>
sn eaking</w>
san ity</w>
pro test</w>
obse ssion</w>
mo to</w>
kid ney</w>
i ous</w>
ga ze</w>
f ee
exper ts</w>
dispu ted</w>
de z
cell ar</w>
ac knowledge</w>
a war
T ele
S om
Mos tly</w>
Ga ther</w>
F ill</w>
Can adi
Andre a</w>
strong ly</w>
sophi sticated</w>
pop s</w>
op ing</w>
mi gration</w>
hospit als</w>
h obby</w>
for tress</w>
fla sh
compu l
compen sation</w>
ar es</w>
ani an</w>
SIGH S</w>
S wan</w>
L loyd</w>
Jo an</w>
J en</w>
Geor gia</w>
Fa i
vi le</w>
sa yin</w>
princi ples</w>
parti cles</w>
ma ids</w>
lo cking</w>
le tt</w>
ge ons</w>
fe der
ex pel</w>
der er</w>
ch ur
bl er</w>
approach ed</w>
am bi
a j</w>
Sy ria</w>
Secu re</w>
Ri o</w>
P E
Mar t
Be yond</w>
pi cks</w>
interru pting</w>
in c
ignor ing</w>
hu mi
fo g</w>
faci al</w>
concen tration</w>
U L
Su fficient</w>
Lo cal</w>
Che on</w>
Atlan ta</w>
w it</w>
terr orism</w>
str ous</w>
rep orters</w>
precin ct</w>
pop ped</w>
mas ks</w>
e ks</w>
curi osity</w>
com ic</w>
Viet nam</w>
Su ck</w>
Pro per
New ton</w>
Mo ore</w>
H ind
E vel
Chri stop
A na
y on
sm ith</w>
sav ings</w>
prot ectors</w>
me ds</w>
ma h</w>
inno cence</w>
hi bit</w>
fun ding</w>
fu s</w>
expl or
enjo in</w>
cop per</w>
contain ing</w>
challeng es</w>
au gh
acti vate</w>
Hawa ii</w>
G all
Fe eling</w>
Es co
Ch in
19 5
un necessary</w>
tru mpet</w>
trans gress</w>
sp ing</w>
par all
ou tw
origin ally</w>
la be
know le
experi ences</w>
expec tations</w>
cru cial</w>
bri be</w>
as s
archit ec
T each</w>
So ci
S na
S ev
Questi on</w>
Pri ya</w>
Pen alty</w>
O hio</w>
Fr ost</w>
Egypti an</w>
E llen</w>
Char ge</w>
Att orney</w>
4 6</w>
ther hood</w>
the --</w>
sp ying</w>
increa sing</w>
id le</w>
ha cker</w>
down load</w>
cry ption</w>
coo ler</w>
comb ined</w>
boun ce</w>
a verse</w>
Ver a</w>
Pro vi
Nor thern</w>
N ell</w>
Ga la
Evel yn</w>
Da ys</w>
B ar</w>
- Hello</w>
transl ate</w>
shar ks</w>
restri cted</w>
re tali
p ond</w>
men tally</w>
medi um</w>
ki cks</w>
eigh th</w>
di dst</w>
di ac</w>
deta iled</w>
d die</w>
ce metery</w>
ac ey</w>
Warri or</w>
Me dia</w>
Mar shal</w>
In grid</w>
Horse man</w>
wea k
vi al</w>
veri fy</w>
sma shed</w>
si ghts</w>
regar ded</w>
re cl
questi on
puri fied</w>
p ect</w>
oo kie</w>
min dful</w>
ju ris
du ll</w>
compet ent</w>
com pati
arrog ance</w>
Sh ort</w>
Prot ector</w>
Even ing</w>
4 1</w>
vis its</w>
sp ot
rem n
re form</w>
mother fucking</w>
don key</w>
do zens</w>
cat astro
but cher</w>
br is</w>
bit ten</w>
Ro dri
Pat ty</w>
LAUGH S</w>
H unt</w>
Gil bert</w>
Esco bar</w>
Da wn</w>
Birth day</w>
wheel chair</w>
thro ws</w>
st ash</w>
sme lled</w>
sha me
purpos es</w>
pri ces</w>
pilgri mage</w>
o ve</w>
gg ers</w>
fre ed</w>
f abulous</w>
exp enses</w>
dra gging</w>
do c
dee pest</w>
cra tic</w>
boo bs</w>
ac company</w>
Ve er</w>
Sh re
RO M</w>
K night</w>
K al
Chand ler</w>
C lo
C au
C and
tex ts</w>
sympa thy</w>
scr at
mat ched</w>
l ance</w>
it ating</w>
equi valent</w>
co on</w>
clean er</w>
car riage</w>
cal cul
ain s</w>
Un like</w>
Sub titles</w>
Star ling</w>
Pe terson</w>
Bren da</w>
Ber nie</w>
wi ld
wa ges</w>
tea ches</w>
stam p</w>
spi lled</w>
replac ement</w>
produ cing</w>
merchan dise</w>
m eless</w>
list ens</w>
k en
horiz on</w>
expos ure</w>
explo ded</w>
claim ing</w>
c ly</w>
Th or</w>
Mul ti
L earn</w>
J .
Gu i
D i</w>
Chap ter</w>
6 th</w>
w eary</w>
van ity</w>
st ages</w>
shi pment</w>
sh ells</w>
sc ru
ro ad
ri on</w>
rhy thm</w>
or al</w>
meaning less</w>
li se</w>
fi cations</w>
emplo yment</w>
da w
cha mbers</w>
alle gi
admon i
Sal at</w>
Re li
P eri
Je ff
Ja sper</w>
Fortun ately</w>
Cy rus</w>
Ca mi
Ca be</w>
4 .
y i</w>
ti mer</w>
ra ys</w>
pi pes</w>
le ton</w>
ja zz</w>
hol ders</w>
fianc é</w>
extrac tion</w>
disobe dience</w>
depen ding</w>
cam els</w>
bani shed</w>
appreci ated</w>
abom ination</w>
The o</w>
S ection</w>
Ly n
For est</w>
youn gest</w>
v els</w>
sum mon</w>
ss or</w>
sa les
righ tful</w>
progra mmed</w>
par d
lear nt</w>
gall ery</w>
fl ush</w>
dow ed</w>
di ly</w>
dele ted</w>
ch s</w>
ac tic</w>
UR L</w>
Lan ni
H ag
A stri
wa l</w>
un do</w>
th en
teen ager</w>
sc roll</w>
photograp her</w>
or tation</w>
oce ans</w>
n an</w>
la wn</w>
ir r
hard t</w>
gun shot</w>
bea con</w>
O VER</w>
Cassi e</w>
C os</w>
Ar rest</w>
ten tion</w>
t fully</w>
star ve</w>
spo on</w>
leg itimate</w>
ine ty</w>
in sight</w>
im per
h .</w>
fire works</w>
embarra ss</w>
co di
at eral</w>
app ea
Y uri</w>
Y ellow</w>
Sa k
Op tions</w>
Ken ne
Je ffer
J up
E x</w>
Bu l
un s</w>
un belief</w>
sp here</w>
ris ked</w>
promot ed</w>
lever age</w>
hospit ality</w>
en deav
crow ded</w>
cell ency</w>
bl os
autom atic</w>
asy lum</w>
ari c</w>
Y ah</w>
WAN T</w>
Ti e</w>
Jo ker</w>
Gar rett</w>
F ourth</w>
Ca ll
wa x</w>
vi br
u te</w>
thy self</w>
survi ving</w>
pi on</w>
industri al</w>
dez vous</w>
cl er
amb ition</w>
W oo
Sha dow</w>
MUS IC</w>
Fu n</w>
Adri an</w>
A re
toler ate</w>
t any</w>
supp orting</w>
stra in</w>
sp in
resi dents</w>
qui cker</w>
provi ding</w>
ll ah</w>
gr ounded</w>
ett i</w>
deni ers</w>
co ded</w>
V ER
Techni cally</w>
H os
G and
El i</w>
E w</w>
Dra w</w>
D. C.</w>
AB OUT</w>
ta h</w>
sy r
ra scal</w>
pu lls</w>
m sy</w>
it ten</w>
incl ined</w>
conne cting</w>
b anging</w>
Screa ming</w>
N G</w>
HI M</w>
D om</w>
Be ware</w>
Anton io</w>
4 9</w>
u lar</w>
po l</w>
perfu me</w>
particip ate</w>
par ole</w>
oper ator</w>
mel o
declar ation</w>
consu lt</w>
char ging</w>
bi dding</w>
au d
all owing</w>
Twi ce</w>
Le on</w>
G ina</w>
Fe der
ver sal</w>
ve ter
under water</w>
trac ed</w>
sub tle</w>
streng then</w>
stra it
re build</w>
ra sh</w>
produ ctive</w>
plea sing</w>
inv est</w>
entit led</w>
du p
c one</w>
bl in</w>
bis cu
ap ples</w>
a fore
W ILL</w>
Sc out</w>
N ZT</w>
Ed gar</w>
B ob
thin k
tem plate</w>
sti r
shu ttle</w>
prost itute</w>
mort gage</w>
k ok</w>
jam med</w>
hoo ker</w>
fig uring</w>
exp and</w>
am oun
S ky</w>
L in</w>
IN D</w>
F rea
De mon</w>
Dar cy</w>
1 1
0 .
ü hrer</w>
z ers</w>
recru it</w>
p eak</w>
os hi</w>
isol ated</w>
hair cut</w>
e i
contain er</w>
Z ak
N ING</w>
H iro</w>
Fl int</w>
Bur ke</w>
Astri d</w>
sab ot
s men</w>
s burg</w>
refl ection</w>
oper ational</w>
key board</w>
hu mbled</w>
har a</w>
ha st
en ters</w>
e migr
dep ths</w>
business man</w>
au ction</w>
Ma in
M ad</w>
G ate</w>
C T
Ad alind</w>
zz i</w>
under stand
stal king</w>
sa dness</w>
s ors</w>
parti al</w>
pa use</w>
or dering</w>
no wadays</w>
mi gh
in spector</w>
grap es</w>
dic ate</w>
d aries</w>
con jec
comp os
bl ink</w>
ba ked</w>
b is</w>
TH INK</w>
Power ful</w>
J ong</w>
Intellig ence</w>
Glen n</w>
ES T</w>
- Right</w>
ri des</w>
requ ests</w>
re ll</w>
re f
p ine</w>
n ap
mis ses</w>
k an</w>
hil arious</w>
for cing</w>
exc es
est ee
con front</w>
cho ke</w>
bun ker</w>
W ally</w>
N ation</w>
Luc kily</w>
J our
Hu dson</w>
G H</w>
E du
Brit tany</w>
B our
A bo
wa s
t arian</w>
sorcer y</w>
sk ele
pun ched</w>
profes sion</w>
pro bab
per ately</w>
newsp apers</w>
go als</w>
ff les</w>
con ve
ch ever</w>
approach es</w>
ank le</w>
ag a</w>
Win chester</w>
U H</w>
Sa me
S eal</w>
S ON</w>
Phi li
Libr ary</w>
L u</w>
L ab
Hay ley</w>
Ga be</w>
Eli as</w>
D ER</w>
B ow</w>
A S</w>
wh ores</w>
trave lling</w>
stri es</w>
pp i</w>
pen cil</w>
nan ny</w>
mb les</w>
humi lity</w>
execu tive</w>
es h
e ster</w>
differ ed</w>
boun daries</w>
back pack</w>
a ding</w>
Hy dra</w>
Be i
Ar abs</w>
A mber</w>
A greed</w>
tur tle</w>
trans form</w>
ple a</w>
it ori
dou bled</w>
corru pted</w>
bu yer</w>
Ta ur
Li ke
En zo</w>
wal ker</w>
ur a
ti les</w>
t cher</w>
ser pent</w>
re t
philosop hy</w>
mis lead</w>
for sake</w>
cur tain</w>
cra w
co ding</w>
cla ws</w>
ch ard</w>
ca m</w>
anni hi
ad vis
Sp read</w>
Ri de</w>
P ort</w>
O bey</w>
De bbie</w>
An ton</w>
AT T
y ea</w>
tro it</w>
ta lion</w>
t earing</w>
si ege</w>
r ates</w>
multi ply</w>
mer ry</w>
mb ur
m u</w>
gossi p</w>
di ving</w>
di version</w>
asse mbled</w>
ama zed</w>
Tot al</w>
Si ze</w>
Sab bath</w>
S mi
E st
Dar yl</w>
Cli ck</w>
A bel</w>
wa ger</w>
un lock</w>
sy l
sh ops</w>
requ ited</w>
rea ctor</w>
prot otype</w>
offi ces</w>
lo fty</w>
l n
kno ts</w>
j acked</w>
instru cted</w>
f ossi
den ies</w>
con gratu
Wi lly</w>
Rab bit</w>
No ti
Me era</w>
Lau ghing</w>
D N</w>
As si
wi ck</w>
ti se</w>
tar ried</w>
ta s</w>
sti cally</w>
presu me</w>
pregn ancy</w>
negl ected</w>
mis deeds</w>
los ses</w>
ja w</w>
it is</w>
in sects</w>
dis believing</w>
den se</w>
convic ted</w>
chick ens</w>
carav an</w>
av in</w>
any on</w>
Z hang</w>
Squ ad</w>
Oc ean</w>
L e</w>
I M
Christ ine</w>
Broad way</w>
Bor n</w>
- My</w>
zar re</w>
vic torious</w>
st les</w>
sp ark</w>
sol ving</w>
sett ings</w>
sa int</w>
pos ts</w>
mo dest</w>
ll ey</w>
im men
g ator</w>
exam s</w>
e ffi
dream t</w>
discus sing</w>
culpr it</w>
consu lt
at tract</w>
ar ise</w>
Sali h</w>
R even
Pri son</w>
Pi er
Jon as</w>
Hu go</w>
F av
tr yin</w>
tr acker</w>
shame ful</w>
re tar
os y
orphan age</w>
j ing</w>
gr ants</w>
flo ws</w>
cou sins</w>
cou ples</w>
ani um</w>
al ong
ad just</w>
a ka</w>
Scar ed</w>
O z</w>
N y
Lit er
I ON</w>
G N
Frank enstein</w>
F ig
Di ane</w>
C how</w>
B li
3 0,000</w>
1 20</w>
wi res</w>
wi g</w>
thi c</w>
tab er
sur ance</w>
su bur
speci alist</w>
pri m
opti mi
note book</w>
na do</w>
mer cen
instru ments</w>
di c</w>
camp ing</w>
allegi ance</w>
W id
Sal em</w>
O ka
Mes siah</w>
Mari o</w>
Li ghts</w>
Lex i</w>
In coming</w>
Dep ends</w>
Au dio</w>
A gh</w>
9 8
wh eat</w>
that --</w>
sin ner</w>
s ung</w>
re fre
over take</w>
ou ri
inspi re</w>
god fearing</w>
ev a</w>
ess ly</w>
enti ce</w>
dic t
d ong</w>
corri dor</w>
and --</w>
accep ts</w>
a sted</w>
Th ing</w>
S a</w>
Ro han</w>
Medi cal</w>
Hi lls</w>
GO OD</w>
Fi sher</w>
F et
Drea m</w>
B on</w>
5 1</w>
ty ran
tor pe
to wers</w>
ti est</w>
st oned</w>
spo iled</w>
respon ded</w>
psycho logical</w>
ki sh</w>
ge es</w>
cho ir</w>
betra yal</w>
assa ul
ad versity</w>
Po well</w>
O KA
L ead</w>
Ign ore</w>
Fron t</w>
F IL
De troit</w>
D rac
Bu d
Ad ams</w>
A ge</w>
si p</w>
sha ttered</w>
s orted</w>
ra ins</w>
over took</w>
nor thern</w>
ni cer</w>
lif ting</w>
inter views</w>
ing ed</w>
harm less</w>
gl ance</w>
explos ive</w>
en mity</w>
dom ain</w>
decl ine</w>
counsel or</w>
bb a</w>
after ward</w>
Ra ven</w>
Hu d</w>
H ell
Cla us</w>
Can cel</w>
sub si
sp oo
shi th
sh owers</w>
sett ling</w>
scat ter</w>
scand al</w>
ris king</w>
psychop ath</w>
lo ft</w>
ga u
ev al</w>
cock tail</w>
busin esses</w>
at tribu
am p</w>
aggre ssion</w>
T su
T han</w>
Stan ding</w>
O tto</w>
M R
Kno w
Glori a</w>
Ca itlin</w>
wi e</w>
vot es</w>
un clean</w>
tr aps</w>
stra w</w>
satis fy</w>
publi cly</w>
pron ounce</w>
perman ently</w>
mu t
marke ting</w>
lock down</w>
justi fied</w>
Philli p</w>
Li cense</w>
Eng ine</w>
Chan el</w>
Bot tom</w>
ti cking</w>
st ead</w>
ro of
ri cane</w>
pic nic</w>
mu te</w>
m n
m me
la den</w>
juris diction</w>
it age</w>
in stantly</w>
id a</w>
gi ble</w>
foun tain</w>
en ie</w>
ea gle</w>
dea lers</w>
coun try
coo per
contin ent</w>
ban ana</w>
atten ded</w>
Scar lett</w>
OKA Y</w>
Mili tary</w>
L ong
L ena</w>
Jup iter</w>
Fi eld</w>
Di am
shu tting</w>
ri al</w>
pro gre
part nership</w>
pa wn</w>
over seas</w>
holi days</w>
gla s</w>
fl ank</w>
evi dent</w>
de e</w>
bu gging</w>
at er</w>
Su it</w>
In depen
Hea lth</w>
Gre y</w>
Cor p</w>
8 5</w>
zi er</w>
world wide</w>
sti cal</w>
ss ful</w>
r oughly</w>
o i</w>
iden tical</w>
i ed</w>
gu el</w>
fa x</w>
exag ger
ever ly</w>
despi se</w>
chi l
boo ty</w>
anxi ety</w>
acquain ted</w>
a z
Pra yer</w>
Par t
Ea ster</w>
B a</w>
AT OR</w>
wait ress</w>
sw eater</w>
sp ells</w>
sc umb
sa r</w>
pan cakes</w>
lon g
impati ent</w>
en berg</w>
e u</w>
dis eases</w>
be fore
Z ion</w>
V it
S ex
K appa</w>
Frank ly</w>
Christop her</w>
Camp bell</w>
Any ways</w>
- Go</w>
van ish</w>
vag ina</w>
termin ated</w>
t ow</w>
reli eve</w>
produ ces</w>
per ception</w>
mos que</w>
k ka</w>
h k</w>
gues sed</w>
gam ble</w>
fir ma
fe es</w>
f our
ear ns</w>
cu bits</w>
cra shing</w>
bun ny</w>
bro ok</w>
ap ing</w>
Weap ons</w>
War n</w>
Tra vel</w>
T E
Spl it</w>
P U
Mi ll
Mar ion</w>
H amp
yo υ</w>
va tive</w>
tt i</w>
sever ed</w>
s oo
no w
massac re</w>
l st</w>
kes pea
je ans</w>
hero in</w>
fe wer</w>
fabri cated</w>
experi encing</w>
dd ling</w>
ca sts</w>
bi zarre</w>
b apti
W es</w>
V as
Ros e
Me h
M el</w>
L ate</w>
Ki ller</w>
C L
Bu d</w>
Bra sero</w>
Br ought</w>
Ar m
Ac ti
subst itute</w>
solu tions</w>
shi pping</w>
sh iny</w>
r att
pur chased</w>
prosecu tor</w>
pil ots</w>
p acks</w>
murder ers</w>
hol der</w>
gui le</w>
fa mine</w>
des olate</w>
denti st</w>
chan nels</w>
b acking</w>
annu al</w>
Ski p</w>
Plu gin</w>
P ink</w>
Mom ma</w>
Mil ton</w>
M ON
Hu mans</w>
Fin al</w>
trea ts</w>
temp ted</w>
strength ened</w>
spect acular</w>
sp ouses</w>
ob tained</w>
o g
govern ments</w>
do g
co ats</w>
bo wed</w>
admini stration</w>
Tr ack</w>
S word</w>
R .
Qu ar
Ow ner</w>
Naz is</w>
L ow</w>
Ga sps</w>
G i</w>
Ar chi
A ce</w>
x 0
woo den</w>
un t
stu pi
sh ook</w>
ph an
monit oring</w>
mon ks</w>
medi c</w>
k ar</w>
inten ds</w>
h ob
fe ds</w>
ec tively</w>
cr an
celebr ity</w>
ca ller</w>
a vert</w>
Comp ani
w els</w>
u to</w>
sto ck
sna kes</w>
she e</w>
s it
ja b</w>
inf lic
ha les</w>
grap hic</w>
fea tures</w>
do er</w>
de mic</w>
cha irman</w>
appar ent</w>
a z</w>
Ze us</w>
Sha kespea
Sh ot</w>
Laur en</w>
Kenne dy</w>
Jeff rey</w>
J et</w>
Ha e</w>
Godd ess</w>
volunte ers</w>
umb rella</w>
ren dezvous</w>
r ated</w>
oper a</w>
el even</w>
deli ver
col ony</w>
clea ring</w>
appo inting</w>
Wan ted</w>
Ter rible</w>
Ri ver
Lo cation</w>
Ha man</w>
D ue</w>
Can dy</w>
Bro w
Ar tie</w>
zi p</w>
whi lst</w>
tex ting</w>
tatt oos</w>
str a</w>
spac es
sorcer er</w>
sli ghtest</w>
rest less</w>
phi a</w>
ose dly</w>
k an
gala xies</w>
el op
don t</w>
deman ding</w>
deliber ately</w>
ck i</w>
cabin et</w>
bar king</w>
aff ects</w>
a g</w>
Pen n
H ans</w>
Eri k</w>
Dou glas</w>
Cl ara</w>
whisp ers</w>
sk y
sat an</w>
recomm en
re z</w>
pe pper</w>
mail box</w>
li b
just -</w>
is ms</w>
imm unity</w>
im proved</w>
hau l</w>
har mony</w>
f it
distin ction</w>
d ine</w>
ar ch</w>
apologi se</w>
afore time</w>
J ing</w>
HO W</w>
H .
Ell is</w>
E phra
ն ե
wa ll
vacu um</w>
v as</w>
up grade</w>
tru th
tane ously</w>
rain bow</w>
pi p
min t</w>
h ut</w>
for ni
fear ful</w>
ent in</w>
deser ted</w>
challeng ing</w>
cap it
c ot
bu ys</w>
alter nate</w>
May day</w>
Ha st</w>
Grun ts</w>
Gr ac
G ON
Emp ty</w>
C ain</w>
Ben nett</w>
B ac
Au tom
A long</w>
war ran
thre sh
str ating</w>
sp ends</w>
re mo
pri v
pr ank</w>
pean ut</w>
overwhel ming</w>
ort on</w>
oo ps</w>
ma keth</w>
l eng
in sert</w>
in complete</w>
fea ture</w>
en han
dimen sion</w>
di ents</w>
curren cy</w>
coun tless</w>
bra in
b bed</w>
Sing ap
Mini stry</w>
M u</w>
K il
J u</w>
B am
Amb assa
6 6</w>
win ners</w>
vill agers</w>
vani a</w>
un g
trigg ered</w>
t -</w>
stri king</w>
squ ared</w>
roo kie</w>
refu ses</w>
rea cher</w>
provi sions</w>
mar kets</w>
jeal ousy</w>
hos t
fianc ée</w>
es en</w>
es --</w>
en tation</w>
concea led</w>
co a
ali sts</w>
Tri sh</w>
Swi ss</w>
Gu il
B ow
sub stan
sel f
revea ls</w>
rela xed</w>
out si
haw k</w>
exal t</w>
din al</w>
des perately</w>
co verage</w>
cap tivity</w>
bar b
bachel or</w>
a ster
Ta li
Lec ter</w>
K ane</w>
wee ping</w>
vest ock</w>
teen age</w>
t ana</w>
stan i</w>
sp reads</w>
sou thern</w>
sn atch</w>
pu ppet</w>
pre viously</w>
o live</w>
hun ch</w>
h it
ga ins</w>
enti ally</w>
du m</w>
d -</w>
br in
S is</w>
Re memb
Re gar
Pi ece</w>
Casti el</w>
Boun ty</w>
Bang kok</w>
v oted</w>
respon sibilities</w>
recomm ended</w>
re ferred</w>
ma ti
like wise</w>
know ingly</w>
g lee</w>
en able</w>
demon stration</w>
butter fly</w>
bl end</w>
ar ight</w>
amoun ts</w>
am ent</w>
Wea ver</w>
Vic tory</w>
Stev ie</w>
Spo ck</w>
S ir
Nor mally</w>
Le ts</w>
Im pressive</w>
Go ku</w>
Every where</w>
Dam mit</w>
Cur rent</w>
you -</w>
wa ist</w>
r ack</w>
publi sh</w>
ou ted</w>
mani ac</w>
ma li
leg ally</w>
la l</w>
de signs</w>
as cen
am bu
along side</w>
ad ju
a h
Mitch ell</w>
Mar ry</w>
Cra p</w>
x us</w>
ss er</w>
sever ely</w>
san c
s way</w>
s killed</w>
rep eated</w>
produ cer</w>
off ensive</w>
hi des</w>
he ights</w>
ex ternal</w>
dro me</w>
cur y</w>
compar ison</w>
col ored</w>
can celled</w>
W an</w>
Por tu
Or g
Mel anie</w>
H wi</w>
F oster</w>
Ex cellency</w>
Dar hk</w>
ti ful</w>
ten th</w>
tain ment</w>
t sy</w>
s ly</w>
o y</w>
mech anic</w>
le f
la del
ladel phia</w>
infor mant</w>
h oods</w>
ex hib
environ mental</w>
emer ge</w>
di p</w>
deli ghted</w>
beli efs</w>
beha ved</w>
archit ect</w>
ad ren
Z ali
Wi zard</w>
W ear</w>
Se ttle</w>
Pe ggy</w>
Mi ca
Mc Kin
L as</w>
Bri ck</w>
A tom</w>
swa mp</w>
sole mn</w>
ski pped</w>
sav age</w>
ra ging</w>
pois oning</w>
perce ived</w>
n osed</w>
me ta</w>
man eu
lo veth</w>
la yers</w>
justi fy</w>
inde cency</w>
ha bits</w>
gi an</w>
fin als</w>
epi c</w>
behavi our</w>
Ha mil
For ces</w>
F lying</w>
Compu ter</w>
Car son</w>
Add ress</w>
20 15</w>
2 1st</w>
stur b
sta kes</w>
sa ves</w>
run ner</w>
ru shed</w>
ri x</w>
pro found</w>
prescri ption</w>
pop ul
mour n</w>
m th</w>
godd ess</w>
gli mp
flo cks</w>
fif teen</w>
emo tionally</w>
disp layed</w>
din ing</w>
conce ived</w>
compen s
b ass</w>
apo calypse</w>
al pha</w>
acci dents</w>
T T
Reven ge</w>
Ob ama</w>
H EL
Gre ece</w>
D oo
AT E</w>
vac cines</w>
taber nacle</w>
swe pt</w>
serv ations</w>
ro be</w>
ren ted</w>
pill ars</w>
kne el</w>
ing le</w>
ho ckey</w>
hi ps</w>
exper tise</w>
expe dition</w>
ag ony</w>
ad dict</w>
Vik tor</w>
Mi dian</w>
Mar ga
Ke ys</w>
Br yce</w>
we d
trave lled</w>
ru thless</w>
rati o</w>
pu mpkin</w>
na iled</w>
manipu late</w>
exp ense</w>
evacu ation</w>
car ved</w>
bull et
bad ass</w>
b r</w>
Zali mun</w>
Wal king</w>
Inter pol</w>
Fa iry</w>
uh --</w>
ti mel
th on</w>
shi p
sev enty</w>
re less</w>
ra des</w>
quar antine</w>
proces sing</w>
k not</w>
fi x
et to</w>
climb ed</w>
circum ci
abi ding</w>
See k</w>
Pro ceed</w>
P yo</w>
M A</w>
Li b
F ru
Den ise</w>
Dami en</w>
Appreci ate</w>
20 12</w>
- Thanks</w>
we ll
v id</w>
point less</w>
per cen
p. m.</w>
ol ine</w>
ini an</w>
hea p</w>
fri ger
dra ft</w>
dinos aurs</w>
dinos aur</w>
de gra
cl one</w>
ali zation</w>
U g
Sp are</w>
Sophi a</w>
Sa fe
Puni shment</w>
Pi erce</w>
Dre w</w>
D er
Co ke</w>
v ar</w>
thi cal</w>
s well</w>
repro ach</w>
re served</w>
ran ch</w>
quar ter
opp ose</w>
mu g</w>
legen ds</w>
la sted</w>
inter cep
imp ort</w>
hybri d</w>
hi p
har bor</w>
ec oming</w>
di zzy</w>
de fy</w>
cu ff</w>
bed ded</w>
T est</w>
S id
Pe pper</w>
H EA
Don ny</w>
De e</w>
An j
Ambassa dor</w>
A im</w>
with hold</w>
ta way</w>
sho cking</w>
revi ve</w>
rap idly</w>
qu ez</w>
probab i
pro por
ot ing</w>
noti fy</w>
no lds</w>
mel ted</w>
in appropriate</w>
ho g</w>
escap ing</w>
es is</w>
de pression</w>
cor oner</w>
cli cks</w>
cha ste</w>
at oms</w>
Stu art</w>
Spr ing</w>
L and
Ca lling</w>
C ash</w>
Ber ry</w>
Ala ska</w>
sw ine</w>
salu te</w>
s ers</w>
preten ded</w>
pre mi
op position</w>
mi cs</w>
inter ference</w>
hy dr
fundam ental</w>
ex emp
dre l</w>
d ain</w>
coll abor
b ites</w>
Ri pper</w>
Rev e
Phili pp
Ma la
Like wise</w>
K it</w>
Hu gh</w>
Destro y</w>
C iti
Bea uty</w>
wr ought</w>
wh ence</w>
tra ded</w>
supp orters</w>
san cti
sa ints</w>
ru ling</w>
ri ot</w>
prosper ity</w>
p reaching</w>
na tion
n inja</w>
invol vement</w>
gru dge</w>
electr ons</w>
desp ised</w>
deli vering</w>
bos ses</w>
Son ia</w>
Qu entin</w>
P R
K ni
Jos e
Hea vy</w>
Gen e</w>
GRUN TS</w>
Ephra im</w>
Bor is</w>
Bla de</w>
B ones</w>
B AR
Auth enti
stri pped</w>
rac ed</w>
pos ter
or g</w>
nam ents</w>
mun ition</w>
mechan ism</w>
mari juana</w>
lou der</w>
legen dary</w>
ju dg
it ations</w>
interru pted</w>
in cur
hou sing</w>
hor ri
hi ring</w>
ele ts</w>
di ous</w>
corp ses</w>
cha irs</w>
Shakespea re</w>
Sch mid
S er</w>
Rey nolds</w>
Pre ci
G IR
El vis</w>
tru m</w>
tran spar
syl vania</w>
pill ar</w>
or n</w>
lo o</w>
histori c</w>
ex its</w>
en abled</w>
dead line</w>
co ven</w>
an or</w>
amu sement</w>
War den</w>
Mi ka
M s</w>
Lor i</w>
Ju an</w>
Har t
De t
Canadi an</w>
B lo
Au to
sta ined</w>
qu itting</w>
prot ects</w>
prin ter</w>
of t</w>
li vestock</w>
gre en
flir ting</w>
engine ers</w>
dis appointment</w>
d w
atri c</w>
assassin ation</w>
Vir gil</w>
Vi jay</w>
US E</w>
Sen ate</w>
Hamil ton</w>
Dest iny</w>
B il
A mar
z an</w>
war mth</w>
volunte ered</w>
uni forms</w>
ti ble</w>
slee py</w>
ri val</w>
par l
magaz ines</w>
ki sses</w>
guide th</w>
girl friends</w>
faci lities</w>
compla ints</w>
challeng ed</w>
a thy</w>
Wis dom</w>
Stor m</w>
Singap ore</w>
Sc y
Q i
Mon ty</w>
K ru
G ali
Er nie</w>
Do cu
Con gre
Bur rows</w>
AN N
10 th</w>
sea ls</w>
ri pe</w>
ph e
ne ts</w>
ma ze</w>
j ac
fu cks</w>
for ge</w>
flav or</w>
far ewell</w>
dru ms</w>
destro ys</w>
de layed</w>
d as</w>
clean se</w>
barbe cue</w>
arti cles</w>
Zo ey</w>
Wh ew</w>
Tr ouble</w>
T ea</w>
T at
Sher man</w>
S cr
Rec ord</w>
Phi ladelphia</w>
P and
J am
H ush</w>
F oll
Cry stal</w>
Aw w</w>
As soci
u k</w>
sc ot
ri ck</w>
re de
r itu
psycho tic</w>
plug ins</w>
org an</w>
mur dering</w>
mu late</w>
mour ning</w>
hi ke</w>
frag ments</w>
fi er</w>
fa de</w>
exp end</w>
comm ents</w>
bi c</w>
ar tery</w>
accoun ted</w>
acc using</w>
ac ing</w>
Y our
W S</w>
Super girl</w>
S kit
Pri ce</w>
Je di</w>
Dra ke</w>
DA Y</w>
Car ly</w>
B it</w>
Ar i</w>
transp ortation</w>
pur ity</w>
mar ker</w>
invest ed</w>
fi e</w>
eleg ant</w>
cell phone</w>
ali ties</w>
ac commo
W el
Mor ris</w>
L ut</w>
K al</w>
G G
Fle tcher</w>
Don o
ó n</w>
u es</w>
trans ition</w>
thor ough</w>
t z
ste w</w>
smo ked</w>
ru pees</w>
ridicu le</w>
qui ck
persu ade</w>
over ride</w>
mul ti</w>
mol ten</w>
ly ri
le mon</w>
l ur
inten tionally</w>
intell ec
g om
es sion</w>
en trusted</w>
do lls</w>
c ough</w>
V I
U mm</w>
Re mind</w>
Mil k</w>
M ass</w>
IS H</w>
Ele anor</w>
Da y
A unty</w>
teen agers</w>
ta ller</w>
sti cky</w>
pu rifi
profes sion
pos itory</w>
pl otted</w>
ob jec
lon gest</w>
l on</w>
gen t
fru strated</w>
dri ft</w>
deman ded</w>
d us</w>
WA Y</w>
W oods</w>
There in</w>
P A
Mil o</w>
Ku mar</w>
Jo anna</w>
Je ho
Daw son</w>
Brit ain</w>
B everly</w>
Ar chie</w>
9 8</w>
ta sty</w>
ta gon</w>
senti mental</w>
s miles</w>
m acy</w>
ido l</w>
her itage</w>
go ats</w>
fi rear
dan ced</w>
am bas
ab used</w>
Rec om
P RE
O re
Mu seum</w>
Kryp ton
Go l
F. B.
D river</w>
Bec ca</w>
A be</w>
3 9</w>
x im
wha ck</w>
vigi lante</w>
tox ic
st ere
sm ite</w>
sli pping</w>
shi fts</w>
sh orter</w>
sc rap
qu n</w>
p lo
organi ze</w>
o city</w>
ma iled</w>
ini ons</w>
har t</w>
f fe</w>
deri ck</w>
cur ve</w>
aff lict</w>
ad mir
a an</w>
Sav age</w>
Sa die</w>
Li zzie</w>
Lang ley</w>
L yle</w>
H ill
Gi ving</w>
Fu l
Du ck</w>
st ings</w>
sh u</w>
refu gees</w>
reali stic</w>
quali ties</w>
prosecu tion</w>
neighb our</w>
incl ine</w>
fru strate</w>
er ran
dispos al</w>
disapp ears</w>
di ck
cro p</w>
car rier</w>
blo w
blin ded</w>
ambas sa
Wh ole</w>
TI ON</w>
Su z
Ri p</w>
Pos sibly</w>
Nik ki</w>
Jan et</w>
wha les</w>
ssi ppi</w>
smi led</w>
sci ssors</w>
sa lo
regar dless</w>
pl otting</w>
pa ste</w>
on tal</w>
m uni
ll es</w>
gu ed</w>
go dly</w>
equi pped</w>
dou che</w>
continu ing</w>
ad ds</w>
SO ME
N au
Man dy</w>
M im</w>
Light ning</w>
Jeffer son</w>
Inv esti
Inter nal</w>
F older</w>
Ev ans</w>
DO OR</w>
Bo dy</w>
Bo ard</w>
Apo llo</w>
&apos; And</w>
z ona</w>
week ends</w>
v age</w>
us ury</w>
tou rist</w>
t ball</w>
re pri
on ous</w>
n arr
lic it</w>
lea sh</w>
la sts</w>
l ung</w>
k h</w>
is ance</w>
invol ves</w>
in qu
histori cal</w>
extin ct</w>
des ktop</w>
confi dential</w>
c otton</w>
atten ding</w>
Ta i</w>
Scoo by</w>
S kin
Pir ate</w>
Net work</w>
Missi ssippi</w>
Mi guel</w>
In credible</w>
Hic cup</w>
Hen dri
Esp hen
Er in</w>
Dor is</w>
D oom</w>
. ....</w>
shi re</w>
robb ing</w>
re mor
re friger
politi cian</w>
molecu le</w>
lo ca
ke tt</w>
imp le
gi fted</w>
emplo yer</w>
chil dish</w>
believ eth</w>
ba llet</w>
architec ture</w>
app r
Wat ching</w>
T rain</w>
Smo ke</w>
Sing le</w>
Pu re</w>
Pro ve</w>
Mee ting</w>
L ot
K yo
Esphen i</w>
E la
Do e</w>
Car la</w>
Apo logies</w>
20 13</w>
un armed</w>
snu ck</w>
she pherd</w>
pu r</w>
prohib ited</w>
pr ou
pot ent</w>
phenomen on</w>
perf ection</w>
p ane</w>
mechani cal</w>
insol ent</w>
f art</w>
e ties</w>
dw elt</w>
dar kest</w>
cr acking</w>
conven tion</w>
con serv
attemp ting</w>
Whit ney</w>
T able</w>
Sever al</w>
R oll
R ama</w>
Maj estic</w>
K un
He li
GON NA</w>
Comple tely</w>
Ama zon</w>
&apos; VE</w>
u ms</w>
tin o</w>
thor oughly</w>
targe ting</w>
simili tude</w>
sha ft</w>
sc ope</w>
rubb ing</w>
pis sing</w>
o ons</w>
mo bi
me mo</w>
lon ged</w>
li cen
in ser
he irs</w>
ha lt</w>
grand daughter</w>
fer ti
elec tions</w>
el aborate</w>
doub ted</w>
disc ount</w>
dia log</w>
di oxide</w>
convi ction</w>
ba e</w>
b atch</w>
ali sm</w>
al oud</w>
Z ha
Sh ue</w>
N ature</w>
Col or
C V
B A</w>
A x
A aa
tr un
tex ted</w>
sp ine</w>
sof tly</w>
sexu ally</w>
sc our
rep ea
re mot
quan tum</w>
mu mmy</w>
ma iden</w>
ise worthy</w>
ing ham</w>
ine a</w>
ha iry</w>
ha cking</w>
h oll
gi cal</w>
g love</w>
determin ation</w>
cru ise</w>
cr it
cha ble</w>
but --</w>
bro oke</w>
brief ing</w>
bal an
b hai</w>
atom ic</w>
a. m</w>
V ul
San ti
Sa ving</w>
Rec k
Re qu
R av
Grand father</w>
Foun dation</w>
DI ST
Ch oc
Cam era</w>
Bren dan</w>
Brad ley</w>
Ali f</w>
A y</w>
transgre ssed</w>
ro ts</w>
re set</w>
re paid</w>
on ies</w>
mo ckery</w>
in qui
h t</w>
gra ve
fin ance</w>
esc ope</w>
e ing</w>
cos mic</w>
con y</w>
ci ally</w>
chee ks</w>
bi kes</w>
algori thm</w>
al titude</w>
al tered</w>
ai b</w>
Wi fe</w>
Wh oso</w>
T ong</w>
Shar p</w>
Same er</w>
S INGING</w>
R ho
Pau la</w>
Mach ine</w>
Ma k</w>
K im
Im perial</w>
Gu sta
Ch eese</w>
C live</w>
AN G</w>
ու մ</w>
war dly</w>
war den</w>
tacti cs</w>
sau sage</w>
re igned</w>
pen ding</w>
os h
oper ative</w>
mon u
li mb</w>
k m</w>
j ecting</w>
invol ving</w>
inter cept</w>
her bs</w>
gu l
gren ade</w>
dis believes</w>
delu ded</w>
ck e
ch ri
Supp ose</w>
Schmid t</w>
Hi dden</w>
Fi sh
Dar win</w>
Dan i</w>
Cra w
Cir cle</w>
C DC</w>
Ba gh
AC K</w>
6 .
v ines</w>
regi stration</w>
pre served</w>
po lar</w>
kh off</w>
j it</w>
ha ts</w>
ge t
for gave</w>
dy namic</w>
drun ken</w>
b ark</w>
am ends</w>
ab i</w>
Wor ks</w>
Tur key</w>
Thous ands</w>
Ta ke
Me ans</w>
M L</w>
Lan gu
K on
G ames</w>
Da ily</w>
C RO
wea ker</w>
vi c</w>
techni ques</w>
tane ous</w>
su ici
sh orts</w>
sc oun
sc oo
radi cal</w>
pos ter</w>
op h
on ics</w>
no isy</w>
live lihood</w>
hy per
hea ted</w>
g ey</w>
fur y</w>
fai ries</w>
d ough</w>
cy cles</w>
cap tains</w>
bed time</w>
bag gage</w>
ax e</w>
Win dows</w>
Ven us</w>
Scy lla</w>
Good ness</w>
Bla ze</w>
wre stling</w>
wel fare</w>
treach erous</w>
to ll</w>
t ying</w>
str ung</w>
slo wer</w>
si mul
pre p</w>
power less</w>
m end</w>
imprison ed</w>
ha l</w>
fol ded</w>
en na</w>
d ean</w>
cur tains</w>
co t</w>
auto graph</w>
att ach
P opp
Nan ny</w>
G as</w>
A chi
ա կ
thro ats</w>
t ney</w>
super st
q i</w>
prin ted</w>
pen s</w>
lo gs</w>
liter ature</w>
li ation</w>
jun kie</w>
in ous</w>
i est</w>
hor ny</w>
h ollow</w>
h eel</w>
frea ky</w>
disc ourse</w>
de ception</w>
compati ble</w>
c unning</w>
ani el</w>
ac tors</w>
a ven
W in</w>
W ell
UR E</w>
T ang</w>
SE E</w>
S EA
Pas sword</w>
P hot
N ana</w>
N aina</w>
In no
Im medi
He o</w>
G in
De fault</w>
A live</w>
sw eating</w>
s nor
rac ks</w>
q T</w>
off end</w>
labor atory</w>
it ous</w>
er up
disapp earing</w>
ci als</w>
chasti se</w>
bom ber</w>
amate ur</w>
al es</w>
ador ned</w>
accep tance</w>
ac hu
WH ERE</w>
W ood</w>
T as
Si re</w>
Ser vices</w>
Ser ve</w>
Jo lly</w>
D au
Con su
trans formed</w>
scrip tures</w>
respec tful</w>
predic ted</w>
pick up</w>
n y
n arra
godd am
di ver
cou p</w>
char ds</w>
black mail</w>
an om
al ee</w>
ais le</w>
ad dresses</w>
Nor mal</w>
I f
Cla yton</w>
BA CK</w>
z ure</w>
w ool</w>
un pleasant</w>
u res</w>
stra p</w>
sn atched</w>
scul p
scri bed</w>
ro ar</w>
re land</w>
ra tions</w>
pro vince</w>
op pression</w>
in cense</w>
gr ats</w>
glo wing</w>
el ena</w>
conver t</w>
bot t</w>
as cend</w>
an ten
ad i</w>
Ye e</w>
Stan ford</w>
Sp end</w>
Se en</w>
Ma e</w>
M ani
Inst itute</w>
Ger ry</w>
De b</w>
Anna lise</w>
Ab du
A ss</w>
A ar
9 .
vir tual</w>
un doubtedly</w>
sugge sti
suffi ce</w>
shi elds</w>
sh ers</w>
ris en</w>
reali sed</w>
re hab</w>
parall el</w>
ol ds</w>
mar velous</w>
li zing</w>
it ably</w>
ingre dients</w>
gar den
dis able</w>
cu m</w>
bo il</w>
bi as</w>
band its</w>
ap i
a the
WH O</w>
Taur at</w>
Sur vi
Stor y
Santi ago</w>
R an</w>
Me tro</w>
Lo g</w>
IT T
God wary</w>
EN T
D ag
8 6</w>
zer land</w>
y ama</w>
wi shing</w>
wa h</w>
timel ine</w>
ti gh
te m</w>
tab ly</w>
stor ms</w>
st ag
senten ced</w>
sens ors</w>
sa ilor</w>
re t</w>
ot e
li o</w>
ing -</w>
gar ment</w>
fresh man</w>
foo ds</w>
exi le</w>
enter tain</w>
du ed</w>
dece i
cri cket</w>
consult ant</w>
con sum
compreh end</w>
coll ateral</w>
ci pation</w>
ce de</w>
bo d</w>
bl ur
ban ned</w>
Vill age</w>
Sno w
Pr acti
K el
Ear ly</w>
C ease</w>
Bu ck
B I
Any where</w>
5 7</w>
tri ps</w>
tou rists</w>
thresh old</w>
sla very</w>
ri gged</w>
p ples</w>
p eek</w>
ob sc
neu tra
mis led</w>
mi ze</w>
lu mp</w>
itu des</w>
in coming</w>
ge m</w>
ex otic</w>
di verse</w>
di li
contro ver
co con
charac teri
candi dates</w>
bl ings</w>
ath on</w>
Y oun
UR I</w>
Th under</w>
K a</w>
H oo</w>
Dono van</w>
Cap it
Ari zona</w>
9 00</w>
4 ,000</w>
&apos; The</w>
z oom</w>
yo ga</w>
tea se</w>
tacti cal</w>
ra il</w>
psycho logy</w>
p iti
ol o</w>
min ary</w>
le man</w>
hu mbly</w>
fru it
foren sics</w>
en cryption</w>
col s</w>
clear s</w>
cat ches</w>
b ine</w>
au n</w>
am munition</w>
accoun table</w>
Z one</w>
Swit zerland</w>
S ca
Pro claim</w>
N ee
L O</w>
Har ri
Dev a</w>
Brea king</w>
Ani mal</w>
un lucky</w>
tow els</w>
tos sed</w>
sta dium</w>
satelli tes</w>
robb ers</w>
no logy</w>
need les</w>
mat ing</w>
ma sturb
m m
k nu
hero ic</w>
frigh ten</w>
fi ling</w>
f a</w>
e fly</w>
d ash</w>
ci ency</w>
calcu late</w>
c ator</w>
arti ficial</w>
Ver ses</w>
Tan ner</w>
So cial</w>
Rob inson</w>
O S</w>
K ne
Hor n</w>
El even</w>
Da h
B it
A va</w>
zu ki</w>
wa ving</w>
w w
trav ag
ra zor</w>
progra mming</w>
pro claimed</w>
metap hor</w>
fr ank</w>
du mb
dis charge</w>
di cks</w>
de sign
ca fe</w>
bun tu</w>
at ro
ar ming</w>
a ur
Sky ler</w>
R id
My stic</w>
Memor y</w>
Fon t</w>
Figu re</w>
Eng ine
B ush</w>
Any time</w>
y ach
viol ated</w>
uni versal</w>
ty rant</w>
ta gs</w>
st ering</w>
squ ea
she er</w>
re sear
pursu ing</w>
persi st</w>
no ted</w>
la i
ir onic</w>
ill a</w>
hea v
har dened</w>
hand cuffs</w>
h ose</w>
guarante ed</w>
g ee
elimin ated</w>
du el</w>
compe l</w>
bo wling</w>
bi shop</w>
beg gar</w>
acc ord</w>
Sp ence</w>
Sp ec
Per mission</w>
McKin ley</w>
Leon ardo</w>
J r</w>
Fit z
D EA
Ch ing</w>
B S</w>
u c
tu mor</w>
susp en
suffi ces</w>
sub marine</w>
ster dam</w>
st unning</w>
sm ote</w>
sal mon</w>
requ esting</w>
proce dures</w>
pas sports</w>
mis understood</w>
mar ching</w>
lo ans</w>
j us
f lights</w>
depar ture</w>
const itu
car ni
bl ond</w>
be wit
aph ne</w>
a waiting</w>
Sme lls</w>
ST O
S ookie</w>
Ra di
R yu</w>
Mi chi
L ee
Gu idance</w>
Do o</w>
Des cri
Con cen
20 11</w>
tur n
stra w
sn apped</w>
s our</w>
rece p
rea der</w>
rac ist</w>
r ents</w>
plat oon</w>
no ises</w>
modi fied</w>
mis sive</w>
min ing</w>
may est</w>
gro ans</w>
gen s</w>
fabri c</w>
ec lip
d ots</w>
comple tion</w>
categ ory</w>
cat a
ca ves</w>
ca valry</w>
blind ly</w>
bi cycle</w>
bal cony</w>
ar dly</w>
ack ers</w>
Yanke e</w>
Y oshi
Ta kes</w>
Sur render</w>
Res ear
R ita</w>
P. D.</w>
Ox ford</w>
N ap
K is
Ju de</w>
Du sty</w>
Cri xus</w>
ur ban</w>
transgre ssing</w>
trans action</w>
success ors</w>
sa iled</w>
ri der</w>
rede mption</w>
pre cau
o ks</w>
ma d
le x</w>
je wels</w>
j ar
inter course</w>
ex pres
ed it</w>
dre y</w>
distin guished</w>
contrac ts</w>
bo am</w>
attemp ts</w>
assas sins</w>
as sed</w>
an es
ac eful</w>
Pati ence</w>
O urs</w>
Mer lyn</w>
Mary am</w>
Indone sia</w>
Di xon</w>
Cru z</w>
Cri me</w>
Ca p</w>
C o</w>
Budd hi
wrong fully</w>
wa iter</w>
w ood
vol cano</w>
vi ral</w>
tran slation</w>
too l
struc tures</w>
st ery</w>
sc ored</w>
represen tative</w>
pro position</w>
pip eline</w>
par ted</w>
mathema tics</w>
l k</w>
is lands</w>
gui ding</w>
frea kin</w>
f ling</w>
err and</w>
end ured</w>
de tention</w>
cos mos</w>
ap ed</w>
St rea
Soci ety</w>
Sla de</w>
Mon ster</w>
Hon our</w>
H N</w>
F ührer</w>
Bir khoff</w>
Ben net</w>
B and</w>
An dro
. 25
&apos; you</w>
un u
stan ts</w>
spli tting</w>
reinfor cements</w>
mi ll
main ly</w>
magi strate</w>
lot tery</w>
lo ch</w>
insu lted</w>
grap hy</w>
gr unting</w>
gi o</w>
firma tive</w>
dun geon</w>
don ation</w>
discre tion</w>
demon strate</w>
cap tives</w>
break down</w>
b ou
at tic</w>
asse ssment</w>
a spir
U ser</w>
TI ME</w>
St atus</w>
Sha wn</w>
Sch u
Re quest</w>
Po d</w>
Liber ty</w>
Ka thy</w>
Hu m
H ye</w>
Gl en</w>
Ex pl
D ID</w>
Con f
Ca ve</w>
Ar ctic</w>
termin ate</w>
ta ker</w>
super visor</w>
so dium</w>
robb er</w>
rejoic ing</w>
pron ounced</w>
jour ne
identi fication</w>
hot ter</w>
fea thers</w>
fe it</w>
du ct</w>
disp atch</w>
den tly</w>
de pressing</w>
corpor ation</w>
ch et</w>
bur gh</w>
ban ker</w>
accomp lice</w>
There upon</w>
Stand ard</w>
Sh or
San dra</w>
SW AT</w>
R it
P ER
Ma lik</w>
L ose</w>
G au
G ang
Bern ard</w>
Au gu
Ar yan</w>
12 th</w>
z oo
un locked</w>
smar test</w>
regu lations</w>
proto cols</w>
probabi lity</w>
pre ference</w>
outra geous</w>
nur ses</w>
ni sh</w>
ma sc
ll ation</w>
hot test</w>
exces sive</w>
establi shment</w>
er r</w>
col ours</w>
brea d
an guish</w>
accor dance</w>
Up stairs</w>
Ti mo
Se er</w>
Ru fus</w>
Pre m</w>
P el
Mu t
H op</w>
F ury</w>
F ROM</w>
ES S</w>
worshi pers</w>
swee ts</w>
sou ven
si m</w>
shri mp</w>
sandwi ches</w>
retar ded</w>
pu zz
or u</w>
op inions</w>
nam ite</w>
mi ce</w>
lay out</w>
do x</w>
de bris</w>
break through</w>
att ach</w>
an im
Sur pri
Ru sty</w>
Ros alee</w>
Pi zza</w>
P om
Lan ding</w>
L abs</w>
Isabe lle</w>
Ga ve</w>
G wen</w>
F ell
D ing</w>
Char ming</w>
Ar mies</w>
Am sterdam</w>
Al ert</w>
A D</w>
20 0,000</w>
up dates</w>
tre pr
targe ted</w>
sof a</w>
si cal</w>
sen deth</w>
scour ge</w>
safe st</w>
regu larly</w>
rea cting</w>
qu ad
pp el
po ke</w>
parti cle</w>
p us</w>
nur sing</w>
m is</w>
inspec tion</w>
han gs</w>
ha y</w>
flat tered</w>
ex ceed</w>
el iness</w>
disp osed</w>
consider ation</w>
co wards</w>
argu ed</w>
app ers</w>
an as</w>
ag s</w>
adul tery</w>
Wher eas</w>
Tr ent</w>
Sna ke</w>
Pe t
O m
N ear</w>
Mica h</w>
Mak kah</w>
F as
Dis able</w>
Cos ta</w>
B anks</w>
&apos; ll
un predictable</w>
ti pped</w>
sw er
simp li
separ ation</w>
sei zure</w>
scrip ture</w>
scar f</w>
remn ant</w>
recru ited</w>
re consider</w>
r and
pi er</w>
pa ins</w>
op y</w>
off rey</w>
of the</w>
nu t
nu cle
mu stard</w>
mor r
mel ting</w>
me ga</w>
lo dge</w>
lo cals</w>
go wn</w>
ex travag
electr on</w>
dru gged</w>
d ge
criti ci
confir ms</w>
com rade</w>
a p</w>
T W
St eel</w>
P han
Ob jection</w>
No where</w>
Mo ab</w>
Li li
L un
En er
Dav ina</w>
Cher ry</w>
C hel
Arm strong</w>
0 x</w>
y les</w>
sm ack</w>
slo ppy</w>
ro tting</w>
po inter</w>
mer maid</w>
k ens</w>
hand writing</w>
fea ther</w>
elu jah</w>
disapp earance</w>
a far</w>
Ste wart</w>
San tana</w>
Rec ently</w>
Pen tagon</w>
OUN D</w>
L s</w>
F loyd</w>
Dom in
D aphne</w>
Ab bott</w>
z zing</w>
trepr ene
thri ll</w>
st itch</w>
spl ant</w>
speci fy</w>
speci alty</w>
sn acks</w>
shap es</w>
pro ving</w>
percen tage</w>
pen sion</w>
ni ck</w>
ner d</w>
h anged</w>
ga de</w>
end uring</w>
ea stern</w>
difficul ties</w>
cre d
cr appy</w>
c enti
Y ama
Wat er
Nik laus</w>
Na th
L ola</w>
H ir
Gu lf</w>
A H</w>
- Here</w>
trav eler</w>
swa p</w>
slee ve</w>
sl ack</w>
ser vi
s ow</w>
ru lers</w>
redee m</w>
pon der</w>
out break</w>
om es</w>
o x</w>
mi cros
don or</w>
di m</w>
dece it</w>
cruci fied</w>
cr acks</w>
contrac tor</w>
con cu
can n
brea ker</w>
br on
be lts</w>
b ats</w>
ali zing</w>
ag ri
Stu ff</w>
Pe dro</w>
Ne bu
Hu mp
H EY</w>
G .
Ac cept</w>
AN D
9 3</w>
5 .
20 14</w>
20 10</w>
&apos; a
y ear
ti more</w>
thin kin</w>
spaces hip</w>
sales man</w>
relea sing</w>
ra j</w>
pan ting</w>
night fall</w>
ne wly</w>
na me
multip lied</w>
mir rors</w>
life style</w>
l ant</w>
je lly</w>
in ely</w>
im minent</w>
h ence</w>
g ents</w>
e di
dd led</w>
cul ti
corru p
conc us
clo ak</w>
c ates</w>
ari um</w>
alcoho lic</w>
Sau di</w>
P ing</w>
P ere
N on</w>
ING S</w>
Her o</w>
Fre ddie</w>
Fif th</w>
Enter prise</w>
Ban shee</w>
200 8</w>
19 th</w>
ul u</w>
si ghted</w>
s ch</w>
rec y
re solution</w>
pu ke</w>
pre mises</w>
p act</w>
n ever
mo cking</w>
l en
ha unt</w>
glu e</w>
gg ins</w>
func tioning</w>
fabri cate</w>
fa ti
dor m</w>
cri sy</w>
champi ons</w>
ce st</w>
blo ck
ace uti
ac knowle
a version</w>
a ly</w>
Z ac
So oner</w>
S ang
Li on</w>
G E
Ad mit</w>
AR D</w>
10 1</w>
. com</w>
war mer</w>
thing --</w>
t chen</w>
spi cy</w>
sh ew</w>
schol ars</w>
regi ons</w>
pi g
oun ge</w>
o ids</w>
i si
hom ecoming</w>
forbi ds</w>
ev ils</w>
eter nally</w>
en ne</w>
com b</w>
char ts</w>
can st</w>
bro ker</w>
W right</w>
Vampi re</w>
S tru
Res cue</w>
Lu is</w>
Li zzy</w>
Know ledge</w>
Indu stries</w>
Gr oss</w>
Cas san
Car lo</w>
Break fast</w>
As sy
Al vin</w>
Ag ents</w>
Ac cess</w>
- Wait</w>
&apos; aun</w>
teen th</w>
rebe lled</w>
pu b</w>
po x</w>
land lord</w>
immen se</w>
ha h</w>
gre y</w>
g lob
disci ple</w>
dis appointing</w>
co tics</w>
cla ir</w>
ch or
bo thers</w>
as es</w>
Yu an</w>
Y or
Y ea
Poo ja</w>
P ain</w>
Never theless</w>
I reland</w>
F ini
E lla</w>
Dar kness</w>
Coun try</w>
Ch ee
Be e</w>
Bar on</w>
Ang els</w>
AN TING</w>
8 0s</w>
6 0
sha h</w>
ro aring</w>
or naments</w>
on going</w>
nu mb</w>
m oth</w>
m itter</w>
l ent</w>
ir relevant</w>
impro vement</w>
han na</w>
di cation</w>
def ence</w>
dd in</w>
cu z</w>
confu se</w>
com rades</w>
chro mos
bu rial</w>
agen cies</w>
ab y
a spect</w>
V al</w>
US A</w>
T in
S wear</w>
S CO
Resi stance</w>
NY PD</w>
Mar riage</w>
Ma ddy</w>
Ir ving</w>
Ga il</w>
Cr os
A ur
9 7</w>
15 th</w>
v on</w>
this --</w>
sma llest</w>
qu er
pret tier</w>
peace fully</w>
occur s</w>
men to</w>
le tte</w>
la i</w>
j our</w>
hy steri
hor mon
gr o</w>
fin s</w>
ec raft</w>
dimen sions</w>
cour ses</w>
ade qu
T h</w>
Sta ff</w>
Que ens</w>
Person al</w>
NA ME</w>
Jer ome</w>
Di vine</w>
Cli mb</w>
Chan cellor</w>
As se
A ha</w>
trou bling</w>
ti m</w>
symbo lic</w>
sl ate</w>
sea sons</w>
re quite</w>
p als</w>
op pres
net works</w>
mor tals</w>
indepen dence</w>
hea venly</w>
h ell
flo wn</w>
fil th</w>
en dang
dev ised</w>
delu sion</w>
d read</w>
cock ro
ch man</w>
Thor ne</w>
T ried</w>
R e</w>
Pier re</w>
Mau rice</w>
L ED</w>
Kee ping</w>
Cy ri
Bu tter
Be er</w>
And re</w>
A C</w>
20 s</w>
ven om</w>
v ap
tas ks</w>
si blings</w>
sch o
re p</w>
re location</w>
quar rel</w>
pi c</w>
ood le</w>
o v
memor ial</w>
inf ant</w>
en dowed</w>
dimen sional</w>
cho king</w>
ad just
a verted</w>
V la
V augh
SH O
Preci sely</w>
Pap er</w>
P ole</w>
Ly la</w>
How dy</w>
G avin</w>
Cu stom
C ry</w>
Au drey</w>
Anj ali</w>
- Really</w>
- Did</w>
ա յ
writ able</w>
v owed</w>
sl apped</w>
re sident</w>
prin ting</w>
pi x
oo doo</w>
inv ites</w>
ine z</w>
immor tality</w>
han ding</w>
for gets</w>
exam ined</w>
em bedded</w>
comm its</w>
c row</w>
belon g
ba i</w>
ac quire</w>
Gro ot</w>
Greg ory</w>
Con stan
x ter</w>
wa st</w>
ver ge</w>
tru ce</w>
trans mitter</w>
ste er</w>
sla m</w>
scre e
s ket
run way</w>
restaur ants</w>
ren e</w>
remin ding</w>
re fle
priv ately</w>
presen tly</w>
preci sion</w>
pla in
pi mp</w>
pe di
pay ments</w>
nee dn</w>
moun ted</w>
im er</w>
home town</w>
exam ination</w>
et t</w>
ed ges</w>
crea tor</w>
comman ding</w>
cla p</w>
camp s</w>
bri cks</w>
be having</w>
be et
assaul ted</w>
amb itious</w>
Xi ao</w>
Vaugh n</w>
Sp ee
Gun s</w>
Ch ance</w>
BE E
B hu
Au to</w>
A sa
A jay</w>
st itches</w>
slu mber</w>
ri bb
radi o
pu rely</w>
provo ke</w>
mysteri es</w>
li me</w>
leg it</w>
hide ous</w>
ha el</w>
frequ ently</w>
de z</w>
cru el
brea thed</w>
br ed</w>
bar red</w>
addic ted</w>
The od
Re mote</w>
Person ally</w>
F li
EN CE</w>
Dev on</w>
Bal timore</w>
B ite</w>
ye th</w>
tur f</w>
trans formation</w>
tran splant</w>
tough er</w>
sun ny</w>
star board</w>
sc rap</w>
sa m</w>
ro ller</w>
profession als</w>
pani cked</w>
out standing</w>
li zer</w>
k at
inv incible</w>
initi ative</w>
indic ates</w>
hypo crisy</w>
har ness</w>
gom ery</w>
f ren
disp en
cul tures</w>
cl ini
bo ost</w>
bar tender</w>
ari ans</w>
Wh is
Sy mbo
O ff
Ke ith</w>
J ab
H ome
G ren
Fa ir
Di e
Cor a</w>
Ar ri
tro op</w>
tra iner</w>
ti atus</w>
tex t
stati stics</w>
s ma</w>
rep eating</w>
re el</w>
prim itive</w>
pois onous</w>
obli ged</w>
no bles</w>
gu ing</w>
gradu ally</w>
glimp se</w>
def en
che aper</w>
ca sual</w>
attrac tion</w>
arti llery</w>
ab ort</w>
Y un
Whi sp
S D
Penn sylvania</w>
O live</w>
N AR
Mart inez</w>
Has san</w>
F ool</w>
Ed ith</w>
Colom bia</w>
CV S</w>
A di
ver n</w>
vel ing</w>
u sage</w>
sur f</w>
spo ils</w>
shi pped</w>
sha n</w>
sh ines</w>
se ctions</w>
s op
o ak</w>
inti mid
inter ior</w>
hi ll
h ound</w>
gri m</w>
func tional</w>
f oe</w>
dia be
di stressed</w>
d ared</w>
congratu late</w>
con stra
calcul ated</w>
be sto
Sh i</w>
Sam ar
PH ONE</w>
Mc Gee</w>
Ka y
Ela ine</w>
ET A</w>
A SA
voy age</w>
vir gins</w>
un finished</w>
ul ty</w>
rec rea
r ang</w>
pyra mid</w>
om en</w>
n it</w>
inv aded</w>
intro duction</w>
hom eland</w>
foo lish
ev eland</w>
en ame</w>
diag nosed</w>
cr o</w>
codi le</w>
ax is</w>
awar eness</w>
ador nment</w>
Si lly</w>
SPEA KING</w>
Rememb rance</w>
Rec or
P E</w>
Ja i
Fet ch</w>
Far ewell</w>
Dis gu
Η e</w>
ven ti
se ssions</w>
qu ila</w>
pri c
negl ect</w>
moti vated</w>
lon ging</w>
li zard</w>
l ens</w>
j j</w>
inspir ing</w>
hand ler</w>
ha sty</w>
grave yard</w>
f eed
exclu sively</w>
epi demic</w>
docu mentary</w>
disc ri
cour ts</w>
ci l
cha ined</w>
ch est
baby sitter</w>
b lea
an ed</w>
a tives</w>
S .</w>
R un
Pen gu
P unch</w>
N am
Mar is
M ori
He brew</w>
Ham mer</w>
Fig ured</w>
Fi ra
Chec king</w>
Assi stant</w>
Ang us</w>
vill ains</w>
vege tarian</w>
un acceptable</w>
thu gs</w>
t read</w>
st abbing</w>
si ded</w>
se mi</w>
se g
restra in</w>
recei pt</w>
pros trating</w>
pred ators</w>
prece ded</w>
pay back</w>
os ex
organi zations</w>
obe ys</w>
mon ies</w>
ma iling</w>
ma iden
happ iest</w>
em be
d ang</w>
custom s</w>
che th</w>
bur gers</w>
ba de</w>
b ited</w>
b il
a ah</w>
Zha o</w>
Ver non</w>
U F
Tu ck</w>
T T</w>
T .A.
Story brooke</w>
Mo loch</w>
Ma th
M P</w>
Jen kins</w>
Dir ty</w>
D anger</w>
D .A.</w>
Cre ek</w>
Cassan dra</w>
Bur k
Bu tch</w>
Ah hh</w>
5 3</w>
z ards</w>
ti l
stal ker</w>
sha llow</w>
re born</w>
practi ced</w>
pi cally</w>
persu a
nu tr
mi x
li ath</w>
i ster</w>
gun fire</w>
det ectives</w>
denti fied</w>
dd ings</w>
clo thed</w>
cl ed</w>
civili zed</w>
brac elets</w>
bl ey</w>
bewit ched</w>
authori zation</w>
Spar row</w>
Ru dy</w>
R hea</w>
Org ani
Lo ki</w>
H ate</w>
G P</w>
Dec lan</w>
CLA I
C OU
y de</w>
wa its</w>
vom it</w>
tra ditions</w>
ther mal</w>
ste th</w>
sta tioned</w>
sen sible</w>
ritu als</w>
q D</w>
par achu
nan do</w>
ligh ten</w>
ir ony</w>
inter cessors</w>
hea l
gri ll</w>
fri ggin</w>
def ensive</w>
dee med</w>
belong ings</w>
analy ze</w>
accoun tant</w>
Supp ort</w>
S over
OU R</w>
Naz ar
Kit chen</w>
Dom inic</w>
Color ado</w>
Cl oud</w>
Br yan</w>
Be gin</w>
Aa ah</w>
18 th</w>
wal kers</w>
ver tical</w>
tre mble</w>
stin king</w>
spee ding</w>
slo wing</w>
s ounding</w>
ri ddle</w>
remot ely</w>
pat ron</w>
ne west</w>
less er</w>
les bian</w>
kin dred</w>
ki llings</w>
in fla
im provi
ha mbur
g ating</w>
encompas ses</w>
en treprene
do cks</w>
cus hi
contain ment</w>
conjec ture</w>
con voy</w>
bee ping</w>
ad diction</w>
W inter
V IP</w>
Su spect</w>
R ow</w>
Pl enty</w>
Nar uto</w>
Jas mine</w>
Hy o</w>
Fin ding</w>
Fe ed</w>
E mili
Di ck
Dan te</w>
Bell a
y r
worshi ppers</w>
spon sor</w>
sl ander</w>
sar ca
s ance</w>
pin ned</w>
pengu ins</w>
p ounding</w>
na vy</w>
mor row</w>
mathema tical</w>
lab s</w>
la mps</w>
ju mps</w>
hon ors</w>
he im</w>
harm doers</w>
grand parents</w>
gener ated</w>
experim ental</w>
e cho</w>
dro be</w>
distribu te</w>
Whe eler</w>
Timo thy</w>
Te ch</w>
Soldi ers</w>
Shel by</w>
Pho to</w>
P ossible</w>
Mer lin</w>
K am
J ACK</w>
Ex tre
E cho</w>
C T</w>
An tar
7 .
writ ers</w>
vi be</w>
ske tch</w>
ro wing</w>
rea d
ra se</w>
pun c
pin ch</w>
neighb our
ing ers</w>
gra d</w>
foot prints</w>
eth ood</w>
con te
cler k</w>
cheer leader</w>
char itable</w>
car eless</w>
bl ers</w>
aci as</w>
T un
St one
Sal vat
Re publi
Na k</w>
Marga ux</w>
M ER
L ink</w>
K illian</w>
Ja vier</w>
H Y
H E
D M
D ING</w>
Cin der
CHE ERING</w>
Ba al</w>
5 6</w>
t ents</w>
t apped</w>
si ans</w>
ri pping</w>
organ ism</w>
m ang
look out</w>
kni ghts</w>
ha ble</w>
gl y
gh etti</w>
fear less</w>
electro magnetic</w>
dun no</w>
discre et</w>
delu sional</w>
de co
con dol
com ms</w>
blu ffing</w>
be fell</w>
ba ke</w>
ar chy</w>
an dra</w>
adren aline</w>
a w</w>
Tra de</w>
Sin clair</w>
Rev olution</w>
L U
Har dly</w>
Grac ie</w>
EV ER
Disp atch</w>
8 8</w>
ν e</w>
ur u</w>
ur ine</w>
stru ction</w>
stri pes</w>
sen sation</w>
recei ves</w>
p able</w>
ori e</w>
ll y
k am
journa lists</w>
inci dents</w>
foun dations</w>
ex cess</w>
even teen</w>
dr ones</w>
do eth</w>
din a</w>
di versity</w>
des cent</w>
clo wns</w>
ci de</w>
boy friends</w>
al do</w>
acces sible</w>
UC K</w>
Tali ban</w>
Ro gers</w>
Pre sent</w>
Pas cal</w>
Nor th
N eal</w>
Ka i
Jo ab</w>
G inger</w>
Cu ba</w>
ñ or</w>
w ri
ve in</w>
tur er</w>
tel escope</w>
sh re
sav ages</w>
ren tal</w>
recommen dation</w>
p ony</w>
met res</w>
memb rane</w>
iti onal</w>
inter cede</w>
fal sely</w>
embarra ssment</w>
dri ve
dis charged</w>
direc tive</w>
d r</w>
bu zz</w>
ben der</w>
ab u
Ser ver</w>
Ram on</w>
P C</w>
Mont gomery</w>
M ouse</w>
K le
J obs</w>
Bei jing</w>
Bagh dad</w>
Authenti cation</w>
Air port</w>
A ad</w>
0 2
tri llion</w>
ti an</w>
supp orts</w>
sum mit</w>
stea ls</w>
sig nation</w>
sho vel</w>
psy ch</w>
pro pag
portra it</w>
perio ds</w>
pag an</w>
origin ated</w>
opp ers</w>
man tle</w>
mag net</w>
institu tions</w>
ha y
gen y</w>
g u</w>
fore most</w>
fl er</w>
fer ry</w>
fa g
el dest</w>
du cks</w>
dr en
disgr aced</w>
cur few</w>
ch ores</w>
car ve</w>
bu mped</w>
bl oom</w>
as a</w>
acade mic</w>
a sh
Y an</w>
U kra
T ank</w>
S tal
Pra iseworthy</w>
Naz ir</w>
Ha yes</w>
G ad
Fore ign</w>
Do gs</w>
Char le
A ddy</w>
5 8</w>
.S .
vot ing</w>
tin i</w>
supp osedly</w>
suggesti ons</w>
su shi</w>
su ckers</w>
stri pper</w>
st ache</w>
soli tary</w>
sme lling</w>
sc ep
persecu tion</w>
p he</w>
p es
lea ked</w>
inter n</w>
gri eved</w>
excep tional</w>
el ding</w>
e cho
dolph ins</w>
distin ctly</w>
constru cted</w>
cell ular</w>
bur dened</w>
bu reau</w>
bos om</w>
ambassa dor</w>
acquain tance</w>
ack et</w>
Z er
Sub version</w>
St ory</w>
Si ck</w>
Sec on
Mi k
Ma dri
L ang</w>
Dev ice</w>
Des ert</w>
Cami lle</w>
Bab a</w>
Ar ma
Aki ra</w>
y land</w>
tempor arily</w>
re vert</w>
re tain</w>
practi se</w>
pic s</w>
paraly zed</w>
p reacher</w>
opp a</w>
mer it</w>
maiden s</w>
mag ni
less ness</w>
land scape</w>
k at</w>
instru ctor</w>
first born</w>
du al</w>
dar n</w>
cry pt</w>
com et</w>
ch craft</w>
bu ms</w>
black out</w>
before hand</w>
au di
Yanke es</w>
Slee ping</w>
S itting</w>
Mc Donald</w>
L ara</w>
Her bie</w>
Gre eks</w>
F eng</w>
Col t</w>
CON T
C av
Bu en
AL LY</w>
4 0,000</w>
wan dered</w>
tre sses</w>
tra itors</w>
t ities</w>
su ited</w>
stru ggled</w>
sover eignty</w>
pu mping</w>
pro mote</w>
precau tions</w>
n inth</w>
migr ants</w>
mar ines</w>
in toxic
in fir
imag ining</w>
gan gs</w>
brin geth</w>
b unk</w>
ari us</w>
ama s</w>
al pha
agre es</w>
acti vi
ab out
a a</w>
Wea ther</w>
Resear ch</w>
P our</w>
P elt</w>
Nigh t
Jar vis</w>
Isa bel</w>
Immedi ately</w>
H ul
H ence</w>
Go liath</w>
Ge um</w>
Egypti ans</w>
Comm and
C ul
B oll
Au stri
Assu redly</w>
9 2</w>
7 0s</w>
- --</w>
wh ol
vis a</w>
see ming</w>
secon dary</w>
repea tedly</w>
re sign</w>
prote ins</w>
oni ons</w>
moon light</w>
lo wly</w>
la ss</w>
jan itor</w>
infra structure</w>
ha lls</w>
fl are</w>
ff any</w>
constru ct</w>
compet itive</w>
clari fy</w>
calcu lations</w>
ban king</w>
am ne
Tru mpet</w>
St acy</w>
San tos</w>
Sal t</w>
Ro cket</w>
Ri chards</w>
Pal est
Langu age</w>
L eah</w>
Fira un</w>
EX CLAI
E ne
Concen trate</w>
Ca st</w>
Ba e</w>
- Please</w>
&apos; You</w>
squir rel</w>
ru sty</w>
re sted</w>
publi city</w>
no ld</w>
moti vation</w>
li mbs</w>
k ite</w>
inflic ted</w>
go ver</w>
g han</w>
fla ming</w>
en cies</w>
eleph ants</w>
den ted</w>
dea rest</w>
cru shing</w>
cr ate</w>
bru ises</w>
Sh oo
S cro
Pro ctor</w>
IT Y</w>
H asn</w>
Gab by</w>
D oll
Craw ford</w>
C aught</w>
vit am
u ta</w>
swor d
sur ge</w>
s lot</w>
s ants</w>
rou tes</w>
pl ing</w>
p om
occu pation</w>
nigg ardly</w>
mor phine</w>
mer ge</w>
l one</w>
l iness</w>
intellec tual</w>
inj ection</w>
ing y</w>
g ate
fai th
es cor
dwar f</w>
costu mes</w>
bu bbles</w>
avoi ded</w>
Wes en</w>
Ti ffany</w>
TH EM</w>
S ad</w>
Ron ald</w>
Proper ties</w>
N Y</w>
Mit su
K ol
J ose</w>
Compani ons</w>
B lon
B last</w>
An aly
A very</w>
0 5</w>
yach t</w>
whi pped</w>
war fare</w>
w ned</w>
thou ghtful</w>
sub missive</w>
sti ble</w>
senten ces</w>
sa mur
ri ages</w>
rela tively</w>
rea u
r ites</w>
o li
molecu lar</w>
man ship</w>
l ine
jun ction</w>
jeopar di
head aches</w>
fru strating</w>
foren sic</w>
fer ring</w>
fa ther
f arms</w>
che wing</w>
ben evol
Vi cki</w>
Tes la</w>
S ell</w>
Ra ja</w>
O s
Har mon</w>
FIL E</w>
C happ
ye lled</w>
ste ms</w>
spl endid</w>
sha kes</w>
ri vals</w>
re moving</w>
quis ite</w>
perpe tual</w>
ona ut</w>
occa sions</w>
o y
mo p</w>
manu ally</w>
manag ing</w>
l acking</w>
know --</w>
k ham</w>
interven tion</w>
gr ind</w>
gr abbing</w>
dou gh
domin ant</w>
do ings</w>
disc o</w>
de lity</w>
authenti c</w>
Wor se</w>
Soldi er</w>
SCREA MS</w>
Paki stani</w>
O ak
Ii ke</w>
I l
G .</w>
Feder ation</w>
F IR
Choc olate</w>
C ec
Bu g</w>
Bau er</w>
B ean</w>
Are a</w>
war ding</w>
vir gin
vi es</w>
tu bes</w>
tt le
sur round</w>
se wer</w>
restra ining</w>
re jection</w>
re gain</w>
pros trated</w>
p anda</w>
manipu lated</w>
law suit</w>
intercep ted</w>
in sanity</w>
hear ken</w>
g eek</w>
fe st</w>
extin ction</w>
er als</w>
e mails</w>
devast ated</w>
dev oured</w>
comp onent</w>
c it
c ends</w>
brea ths</w>
bra very</w>
at tained</w>
assu mption</w>
WH EN</w>
T hat
Sm ell</w>
Ros si</w>
P oll
P atch</w>
P am
Michi gan</w>
Mi stress</w>
Mc Car
Le ban
LO OK</w>
K om
Jo el</w>
G T
Fre derick</w>
F ancy</w>
Cl eveland</w>
Burk hardt</w>
Arabi a</w>
AN Y</w>
y ak
viol ate</w>
there on</w>
testi fied</w>
spi ke</w>
pros tration</w>
pper y</w>
play ground</w>
physi cian</w>
perf ected</w>
p. m</w>
on ia</w>
of fl
lip stick</w>
in distinct</w>
i ans</w>
hyp noti
hi cs</w>
gla di
g loo
for ests</w>
dow ns</w>
destru ctive</w>
cha p</w>
ces ses</w>
ad ore</w>
a .</w>
Ve ge
V on</w>
T y</w>
R ace</w>
Phi lly</w>
Le ila</w>
Lanni ster</w>
J or</w>
DR A</w>
Aur ora</w>
Ar nold</w>
Apo logi
w and</w>
under world</w>
ug a</w>
ser y</w>
scoun drel</w>
ri ans</w>
revea ling</w>
rehear se</w>
pp in</w>
or che
na tives</w>
mer ci
imp ose</w>
imp os
go l</w>
foreig ners</w>
el bow</w>
cri pple</w>
cap su
c yl
bu r</w>
ag i</w>
adven tures</w>
ab ad</w>
Val erie</w>
R ory</w>
Ly nn</w>
Leban on</w>
Kri st
I t
F ang</w>
Cl yde</w>
Capit ol</w>
Bea u
Ab bie</w>
7 6</w>
up load</w>
thi a</w>
ta x
straigh ten</w>
statu tes</w>
sp an</w>
sen i
scot ch</w>
pre caution</w>
por ts</w>
pa sture</w>
over ing</w>
nu n</w>
neighbour hood</w>
negoti ating</w>
necess ity</w>
mi cha
master piece</w>
lyri cs</w>
li ans</w>
la ir</w>
invest ors</w>
humili ate</w>
fa sting</w>
easi est</w>
d ost</w>
cra b</w>
conclu ded</w>
con dom</w>
ch ants</w>
bu ffer</w>
athle te</w>
appreci ation</w>
adverti sing</w>
adap t</w>
Vi sh
V ene
Sp on
Sh ow
Sad ly</w>
Mil an</w>
L ila</w>
IS P
Eli se</w>
Cur ren
Chi p</w>
Carol ina</w>
C A</w>
B ooth</w>
An cient</w>
AN K</w>
.. ..
work shop</w>
to ck</w>
the st</w>
star ters</w>
ro w
ro asted</w>
ri am</w>
p ecu
over board</w>
mo le
ll as</w>
ligh tened</w>
inha bited</w>
foc using</w>
favor ites</w>
fag got</w>
fa ked</w>
exor cism</w>
ev ic
encompas sed</w>
disc er
de tte</w>
coo lest</w>
chop ped</w>
chee se
belon ging</w>
belon geth</w>
admoni shed</w>
WH Y</w>
W ash</w>
Safe ty</w>
Ra gh
Pre s
P ha
O FF
Mur ray</w>
M ere
Le ela</w>
I --I</w>
Har bor</w>
H ollow</w>
Fer rar
Do yle</w>
Direc tory</w>
D ot
CO 2</w>
C am</w>
Bha i
9 6</w>
6 ,000</w>
3 0s</w>
wor kin</w>
war ners</w>
war drobe</w>
vege tation</w>
val ve</w>
than king</w>
side ways</w>
s sic</w>
ran king</w>
mom en
min ating</w>
masc us</w>
li zation</w>
lab our</w>
j eez</w>
inven tory</w>
inno vation</w>
fle xi
est e</w>
ear ances</w>
dan cers</w>
d ith</w>
confi sc
chari ots</w>
associ ation</w>
U K</w>
Sha ggy</w>
Plea sed</w>
P ops</w>
Ma hi</w>
K ings</w>
I b
Hor se</w>
H ut</w>
H off
Ex press</w>
Consi dering</w>
Cap e</w>
Ba tiatus</w>
B us</w>
- Look</w>
&apos;s -</w>
ut most</w>
tran qui
tor turing</w>
scho lar</w>
sca m</w>
sa il
s st</w>
re bu
pu dding</w>
pop ping</w>
mea suring</w>
me tt</w>
ma tically</w>
intell ect</w>
gla dly</w>
gener osity</w>
gar ian</w>
entertain ing</w>
diplom atic</w>
cr ates</w>
clos ure</w>
br ace</w>
au ts</w>
aster oid</w>
am using</w>
Th under
Sti fler</w>
Scor pion</w>
Pros ecu
O f
K o</w>
Ex it</w>
Dau ghter</w>
Dan cing</w>
Con st
Cla ssic</w>
C rying</w>
Ac ces
- Your</w>
we lls</w>
vir uses</w>
tr ous
tr in
straigh t
sin king</w>
sen sei</w>
rec iting</w>
re luc
over heard</w>
ordin ance</w>
obli gations</w>
mu r</w>
mor tality</w>
ju ven
i cal</w>
fun ded</w>
frigh tening</w>
el i</w>
dispu tes</w>
de x</w>
compe ting</w>
cha bod</w>
ca tional</w>
b as</w>
appr entice</w>
am ing</w>
accu sations</w>
Zac har
Z or
Vik ram</w>
T E</w>
SH OU
Pu tting</w>
O il</w>
Ma ll
Lin c</w>
K inda</w>
JO HN</w>
Hu ang</w>
G ill</w>
Ex tra</w>
Do ctors</w>
Dev elop
Bro ken</w>
Ba g</w>
6 7</w>
18 0</w>
-- it</w>
- Sorry</w>
zz ling</w>
ze kiah</w>
ton ic</w>
thi e</w>
ten ding</w>
str apped</w>
samur ai</w>
run k</w>
restra ined</w>
reli gions</w>
prepar ation</w>
postp one</w>
pla ins</w>
phi c</w>
ough s</w>
no de</w>
mi ld</w>
grea se</w>
exp ired</w>
don ate</w>
di vert</w>
design ated</w>
deli ghtful</w>
d ell</w>
con tribute</w>
comp onents</w>
bu sting</w>
billi onaire</w>
Xi a
T ig
St at
Sal ute</w>
S ach
Ro ck
Re place</w>
R ot
Ne igh
N at</w>
N and
Lu ther</w>
L LY</w>
I E
H ath</w>
Da mascus</w>
Con nie</w>
C ome
Ac cep
wre cked</w>
up dated</w>
under estimated</w>
tro ll</w>
techno logies</w>
spec ts</w>
sli ppery</w>
sa dly</w>
s unk</w>
plain ly</w>
pe sti
offl ine</w>
occa sionally</w>
musi cian</w>
mom s</w>
ir responsible</w>
hop eful</w>
fi ance</w>
ex pressed</w>
en h
elev ated</w>
do ppel
dis regard</w>
depri ved</w>
deplo yed</w>
conflic ts</w>
con fined</w>
cla w</w>
ac cess
Se tt
S and</w>
Pla za</w>
Pin ky</w>
P urity</w>
Na tions</w>
Li lly</w>
L op
I chabod</w>
I V</w>
H u</w>
Guil ty</w>
Gro ans</w>
Go es</w>
Blu r</w>
Assu ming</w>
14 th</w>
zz ar</w>
wh ining</w>
vege table</w>
u pro
tro op
tea sing</w>
swi f
sw inging</w>
succ our</w>
six ty</w>
sha des</w>
scan ner</w>
rest room</w>
rehear sed</w>
re stor
pi geon</w>
perpe tr
micha el</w>
li minary</w>
hot els</w>
gen der</w>
fossi l</w>
fo am</w>
deli vers</w>
dan tly</w>
d ung</w>
cy ber</w>
celebr ated</w>
ac ies</w>
a unty</w>
U M</w>
Ta g</w>
Pan ama</w>
P owers</w>
Or ange</w>
Inst all</w>
He zekiah</w>
G an
Ca lled</w>
CO MM
CC TV</w>
Bella my</w>
vel ocity</w>
un ned</w>
spr ink
ski rts</w>
ro y</w>
pard oned</w>
ob i</w>
medi cs</w>
m ously</w>
lux u
investig ator</w>
in cen
impul se</w>
he w</w>
h ang
ele mentary</w>
descen ded</w>
de v</w>
confron ted</w>
ck led</w>
c ke</w>
c ea
ban quet</w>
balan ced</w>
any how</w>
a man</w>
Wo ong</w>
W ah</w>
VO ICE</w>
Sub ject</w>
Re treat</w>
I II</w>
High way</w>
H .</w>
F esti
Che eri
ASA P</w>
tri pped</w>
tre mbling</w>
se ller</w>
roy alty</w>
re pel</w>
pot entially</w>
pain ter</w>
organ isms</w>
nu m</w>
man us
li ca</w>
ki los</w>
ke te
ke dness</w>
k ery</w>
iden tities</w>
habit ation</w>
g lan
fav oured</w>
e un</w>
e -</w>
door step</w>
crea tivity</w>
cr acker</w>
br ink</w>
bo lts</w>
bl unt</w>
a -</w>
Ven ice</w>
Sam aria</w>
Re u
R in</w>
Pel é</w>
M AT
J D</w>
Har ley</w>
H AL
Ar ch
tab s</w>
suspen sion</w>
sa i</w>
r r</w>
qu id</w>
puni shing</w>
prepar ations</w>
pre vents</w>
jo hn</w>
ha te
eye bro
equ ity</w>
emplo y</w>
ear rings</w>
dar ker</w>
corpor ations</w>
conve yed</w>
condol ences</w>
ali as</w>
abun dantly</w>
a hu
Pre par
N early</w>
Mi riam</w>
Me g</w>
Madri d</w>
La k
Godd am
Den ver</w>
DO WN</w>
Boo g</w>
viol in</w>
toler ance</w>
ti can</w>
tho ven</w>
swea ty</w>
ri chest</w>
refu sing</w>
rec y</w>
re signation</w>
pro be</w>
lea king</w>
inter viewed</w>
ic ed</w>
hos tility</w>
gin ger</w>
gar lic</w>
flash light</w>
feed back</w>
er ate</w>
diagnos is</w>
cruel ty</w>
co ver
cho ked</w>
cha e
cep ts</w>
bu zz
beauti fully</w>
b anged</w>
astr onaut</w>
ar a
alig nment</w>
Wh ite
UM B
Ther eafter</w>
T RA
Sp it</w>
Six ty</w>
S wan
Ros a</w>
N ec
Multi ple</w>
Her ald</w>
F ew</w>
E thi
C otton</w>
C oc
C I
B C</w>
7 7</w>
6 8</w>
13 th</w>
zi z</w>
z in</w>
w esen</w>
virgin ity</w>
tresp ass</w>
town ship</w>
th ence</w>
t l
sh ments</w>
sc oop</w>
run nin</w>
ro cking</w>
rea ctions</w>
r in
prof itable</w>
pred ator</w>
mo ons</w>
men ting</w>
me tic</w>
lo gged</w>
lef to
in quire</w>
here in</w>
he morr
gori lla</w>
glori fied</w>
el derly</w>
cor al</w>
conta gious</w>
con tempt</w>
ce ful</w>
ar bit
am ple</w>
U m
Tra ffi
Theod ore</w>
Steph anie</w>
Se ok</w>
Ran i</w>
R yu
P us
No thin</w>
Mo z
Li es</w>
K eating</w>
Gener ate</w>
Fa lling</w>
Evi dence</w>
Dal ton</w>
Cli ff</w>
Bu ck</w>
A hab</w>
8 .
tu tor</w>
trac tor</w>
tom ato</w>
sun ami</w>
scumb ag</w>
scri ption</w>
s worth</w>
p itched</w>
p her</w>
on board</w>
no torious</w>
negoti ation</w>
le gi
l ee
l NG</w>
inter fer
ha zard</w>
go on</w>
gar ten</w>
floo ded</w>
el ers</w>
eff ectively</w>
cra dle</w>
condu cting</w>
bri efly</w>
anticip ated</w>
af fi
Ze ke</w>
Wi cked</w>
Ter ri</w>
T ER
ST R
Rich mond</w>
Pi g</w>
N an</w>
Li ang</w>
Kryp ton</w>
Ju st
In tel</w>
Har der</w>
Hall elujah</w>
EN D</w>
Dar ren</w>
Cher yl</w>
Be tsy</w>
Ar cher</w>
An n
A rise</w>
- Sure</w>
whi stling</w>
un done</w>
te quila</w>
ta mper
stran ded</w>
soa ked</w>
skele ton</w>
sign atures</w>
r in</w>
[...]
