#version: 0.2
t h
i n
th e</w>
a n
t i
r e
o n</w>
e r
e n
o f</w>
o n
p o
a r
o u
in g</w>
t o</w>
e d</w>
an d</w>
r o
e r</w>
i n</w>
e s</w>
i t
o r
a l
po s
i s
a t
i s</w>
ti on</w>
o m
a t</w>
o r</w>
& a
&a pos
i c
a l</w>
e c
s t
&apos ;
a c
a n</w>
s i
e l
m en
v e</w>
p ro
o u</w>
a tion</w>
l e</w>
a s</w>
a s
T h
u r
e s
f or</w>
w h
i l
n o
e n</w>
th at</w>
t s</w>
l i
u n
y ou</w>
l y</w>
c on
u s
t r
l e
i t</w>
u l
b e</w>
s h
l o
a b
q u
ti on
e m
a d
h a
@ -
@- @</w>
om m
men t</w>
u c
a g
&apos; s</w>
d i
it h</w>
r i
a p
w ith</w>
er e</w>
o p
c e</w>
a m
e x
al l</w>
d e
ou n
o l
a y</w>
re s
c i
ar e</w>
o t
Th e</w>
b e
it y</w>
p e
b y</w>
s u
C omm
th e
f or
th is</w>
g h
t a
no t</w>
c om
e t</w>
ti c
po r
i m
n e
tion s</w>
at e</w>
v i
l d</w>
c h
m e</w>
p l
f i
ou r</w>
v er
t er
ha ve</w>
si on</w>
th er</w>
ou ld</w>
m e
2 0
p ar
ou t</w>
en t</w>
k e</w>
t ed</w>
a r</w>
b er</w>
f f
d o
ic h</w>
u ro
ur e</w>
er s</w>
E uro
wh ich</w>
d s</w>
w e</w>
ro m</w>
s e
gh t</w>
s e</w>
re c
b u
f rom</w>
g o
a i
d uc
e g
&apos; t</w>
W h
on e</w>
qu ot
w or
p er
i on</w>
w as</w>
ti ve</w>
re d</w>
t er</w>
il l</w>
quot ;</w>
& quot;</w>
t e
A r
w e
is sion</w>
. .
us t</w>
c o
g r
m a
em ber</w>
an t</w>
t ing</w>
S t
Euro pe
d ing</w>
s o</w>
Europe an</w>
an ce</w>
v er</w>
Y ou</w>
ou r
Comm ission</w>
w ill</w>
ab le</w>
t o
s t</w>
no w</w>
c l
sh all</w>
p ec
re n
20 0
d er</w>
1 9
Ar tic
c an</w>
r a
in g
o d</w>
re g
m o
ti es</w>
&apos ;</w>
d ed</w>
h i
i es</w>
N o</w>
I t</w>
r e</w>
k ing</w>
d e</w>
ac c
ar y</w>
a tions</w>
at ed</w>
at es</w>
A n
st r
h as</w>
.. .</w>
es s</w>
f in
al ly</w>
Artic le</w>
v e
y our</w>
it s</w>
men ts</w>
a y
h e
u m
por t</w>
ul ation</w>
an y</w>
d is
o ther</w>
t u
R eg
pro duc
re s</w>
el l</w>
us e</w>
on s</w>
w n</w>
d o</w>
h e</w>
f e
l l</w>
m in
tion al</w>
u s</w>
p u
p r
for m
om e</w>
t h</w>
o w</w>
m y</w>
a u
es s
or e</w>
E C</w>
sh ould</w>
i r
c er
t y</w>
as e</w>
U n
m ar
u p</w>
M ember</w>
t en
un ity</w>
d u
c e
ar d</w>
C oun
be en</w>
an g
i r</w>
com p
Reg ulation</w>
w i
ic e</w>
a v
ci l</w>
W e</w>
I n</w>
Coun cil</w>
s o
a d</w>
d er
b o
p re
bu t</w>
p res
wh at</w>
ag e</w>
the y</w>
e y</w>
in e</w>
y e
s ec
k now</w>
Th is</w>
cl u
l is
ai d</w>
th ing</w>
k s</w>
e v
&apos; m</w>
m ore</w>
su b
P ar
Comm unity</w>
i c</w>
c re
&apos; re</w>
j ec
es e</w>
th ere</w>
uc h</w>
c oun
g u
s er
g h</w>
g i
am e</w>
& #
&# 9
lo w
the ir</w>
f ac
St ates</w>
g et</w>
c h</w>
con t
Wh at</w>
c omm
li ke</w>
ab out</w>
w ould</w>
v el
al so</w>
es t</w>
i f</w>
e ment</w>
s ti
ti me</w>
o b
n a
n o</w>
l ic
s pec
ad e</w>
an s
b le</w>
d ec
l a
p en
as t</w>
a in
a f
v is
si d
m on
ou s</w>
qu i
st e
p ri
g en
ci al</w>
wi th
be t
I n
ver y</w>
t ec
o se</w>
op er
j ust</w>
h ere</w>
s el
s y
at ing</w>
for e</w>
ri ght</w>
o c
e st
D i
ing s</w>
a ti
w ere</w>
coun tr
20 1
d on</w>
g n
in to</w>
m ay</w>
wor k</w>
i ties</w>
w ay</w>
t ur
v es</w>
f ic
u t
a m</w>
p le
m ust</w>
li a
u m</w>
19 9
en ti
as s
th an</w>
su p
ac k</w>
e t
c es</w>
al s</w>
An d</w>
d ay</w>
re e</w>
mar k
in ter
Un ion</w>
M r</w>
t ly</w>
th or
ic al</w>
fi r
pro vi
or d
pl ic
re f
p h
re at
ap pro
r ou
ff ic
m an
pu b
po in
P re
lia ment</w>
on g</w>
i al</w>
t w
on ly</w>
i ght</w>
en ce</w>
l ed</w>
me as
f ol
Par liament</w>
r u
u t</w>
e l</w>
oun d</w>
th ese</w>
n ing</w>
in k</w>
v ed</w>
i d
ne w</w>
is ion</w>
wh ere</w>
wh o</w>
ta ke</w>
u res</w>
the m</w>
ar s</w>
tr ans
na tional</w>
D ec
men t
or y</w>
hi m</w>
ac h</w>
h is</w>
Th at</w>
an d
s uch</w>
form ation</w>
a use</w>
wh en</w>
an s</w>
p e</w>
om e
el y</w>
g o</w>
0 0</w>
con cer
au thor
we en</w>
un der</w>
o k</w>
b ec
v en
re l
r is
ay s</w>
v ing</w>
ha d</w>
Pre sid
por t
bet ween</w>
ne ed</w>
in clu
ap plic
e a
pl ac
a re
do wn</w>
ff ec
te e</w>
g e</w>
i ons</w>
ag r
R e
c u
i a</w>
h er</w>
il ity</w>
&apos; ll</w>
E U</w>
de vel
H e</w>
or s</w>
f o
m at
se e</w>
rec tive</w>
u e</w>
tr i
in formation</w>
a in</w>
th ose</w>
fol low
m il
per i
ol d</w>
C on
e p
em p
it e</w>
s ome</w>
tic ul
m s</w>
d y</w>
d ic
m p
s ure</w>
b as
pro pos
li c</w>
w ant</w>
c y</w>
op le</w>
l es</w>
h o
Presid ent</w>
par ticul
en ts</w>
ta in</w>
g re
i z
ser v
th ink</w>
com e</w>
o ver</w>
po lic
r y</w>
the re
ta in
m ade</w>
us ed</w>
m an</w>
ec on
n ec
si gn
ar i
I f</w>
v al
ta k
devel op
a il
lis h
ma ke</w>
meas ures</w>
un der
le g
ap p
countr ies</w>
it tee</w>
c ar
h el
fir st</w>
i g
sti tu
mark et</w>
re qui
el i
P ro
is e</w>
s ome
n a</w>
tw o</w>
C h
c al
gr am
T I
pe ople</w>
spec i
si ble</w>
t e</w>
1 .
produc ts</w>
ic es</w>
ch ang
p on
go t</w>
r on
om ic</w>
a men
3 ;</w>
&#9 3;</w>
l ing</w>
1 ;</w>
&#9 1;</w>
f u
T H
en tr
B ut</w>
p ur
fin an
t al
ha p
er al</w>
g e
c ould</w>
y ing</w>
t ure</w>
n ed</w>
t or</w>
str uc
pro ce
St ate</w>
en d</w>
ti c</w>
est ab
c ri
lo c
Di rective</w>
vi e
f un
o f
ste m</w>
C O
k ed</w>
e ffec
or der</w>
pub lic</w>
ren t</w>
re port</w>
poin t</w>
e ar
in v
N o
b i
with in</w>
ye ars</w>
a st
pro b
b ack</w>
ff e
v en</w>
c or
ar ds</w>
ea h</w>
s ur
Y eah</w>
fi ed</w>
n um
s p
E EC</w>
an k</w>
h ow</w>
1 0</w>
it ed</w>
s et</w>
tic al</w>
go od</w>
w s</w>
c our
ac ti
r it
ac t</w>
em b
follow ing</w>
res pon
jec t</w>
go ing</w>
ag re
oun t</w>
ol u
per s
sy stem</w>
pro gram
af ter</w>
e i
di d</w>
&apos; ve</w>
ad op
is h</w>
E C
Comm ittee</w>
O J</w>
g y</w>
acc ord
polic y</w>
2 .
im port
is t
com pe
e d
19 8
re ad
ye ar</w>
c ol
O h</w>
Th ey</w>
lo w</w>
bec ause</w>
i tion</w>
j o
w ell</w>
S o</w>
mo st</w>
p le</w>
s ay</w>
g an
e f
th rou
for m</w>
F or</w>
estab lish
ne x</w>
particul ar</w>
is h
k ay</w>
sh i
oper ation</w>
be fore</w>
th en</w>
Th ere</w>
c ase</w>
ex t</w>
c ur
u d
m any</w>
c ap
th ou
st an
sh e</w>
in t
in cre
ve l</w>
pro vis
is su
con di
b r
s ed</w>
par t</w>
ac h
An nex</w>
O N</w>
qu es
st s</w>
emp lo
1 0
con si
on al</w>
s a
p s</w>
o m</w>
agr ap
c le
be ing</w>
l ar
f t</w>
s ame</w>
er red</w>
accord ance</w>
im ple
fi c</w>
g on
d n</w>
f r
prob le
u p
th er
Euro pe</w>
t le</w>
ter s</w>
di rec
el l
s it
tec h
o wn</w>
gon na</w>
ul es</w>
i d</w>
l ess</w>
par agrap
pro tec
n al</w>
vie w</w>
sel f</w>
s aid</w>
o ver
ti m
a tive</w>
c lo
d ra
wh e
do es</w>
num ber</w>
Dec ision</w>
f e</w>
tri bu
por ts</w>
W ell</w>
pro c
reg ard</w>
f ul
ur ing</w>
nec ess
gh ts</w>
or gan
d at
k e
ren ce</w>
d em
is tr
si de</w>
di ffe
finan cial</w>
res ul
in te
in es</w>
plac e</w>
c an
r s</w>
is ed</w>
econ omic</w>
M ar
res pec
throu gh</w>
ev en</w>
tak en</w>
provi ded</w>
reat y</w>
w at
I N
e ach</w>
al ity</w>
we ver</w>
A N
tur al</w>
cer tain</w>
an y
cont ro
t y
al l
2 0</w>
ot h</w>
develop ment</w>
in du
i ti
pres en
an ts</w>
to o</w>
ref erred</w>
re qu
li m
ac tion</w>
fu l</w>
u ation</w>
T reaty</w>
el ec
E U
f l
in d</w>
TH E</w>
peri od</w>
o o
sup port</w>
s ch
w er</w>
necess ary</w>
k no
le t</w>
read y</w>
paragrap h</w>
ver y
in ce</w>
con s
so ci
bo dy</w>
le vel</w>
l ast</w>
m is
A s</w>
e ve</w>
e ments</w>
emplo y
comm on</w>
pos sible</w>
D e
re as
inclu ding</w>
e p</w>
pu t</w>
gr ou
with out</w>
R E
there fore</w>
vi ron
p a
l it
cont in
ain st</w>
c a
res s</w>
ir d</w>
ou t
H ow</w>
condi tions</w>
import ant</w>
o ds</w>
pr in
A c
ex am
ch ar
st u
res t</w>
A l
fic ation</w>
si ons</w>
dat a</w>
m uch</w>
ag ainst</w>
ar ly</w>
A ll</w>
ma in
as s</w>
a ve</w>
i le</w>
gi ve</w>
ar t</w>
p er</w>
l ine</w>
ab ility</w>
me ans</w>
en g
il l
1 2</w>
o ff
on d</w>
I I</w>
h um
bu d
r ules</w>
o p</w>
d ate</w>
an n
li on</w>
as es</w>
t en</w>
b en
in stitu
ti ves</w>
appro pri
st ri
some thing</w>
sti ll</w>
E n
chang e</w>
I S
R O
H o
author ities</w>
applic ation</w>
countr y</w>
so cial</w>
ic ul
of f</w>
ou se</w>
comp le
3 0</w>
b oth</w>
S he</w>
s ing</w>
ac k
serv ices</w>
re le
ci p
dec ision</w>
th ree</w>
ment al</w>
b eli
hel p</w>
av ing</w>
em s</w>
e ver</w>
d es
concer ned</w>
d es</w>
ex ce
ad di
ffic i
fi le</w>
&apos; d</w>
T E
en sure</w>
b ility</w>
olu tion</w>
re ally</w>
c ul
E x
1 5</w>
is t</w>
w ays</w>
e qu
is ation</w>
su m
con tr
i l</w>
go ver
re duc
f ur
bas is</w>
av ail
l at
at eg
l and</w>
l ong</w>
in ation</w>
fe rence</w>
s s</w>
d ure</w>
ur ity</w>
en viron
1 1</w>
ques tion</w>
ay ing</w>
d uring</w>
4 .
l ec
ac e</w>
s es</w>
h ar
H ey</w>
u al</w>
de fin
il y</w>
on g
b ro
li fe</w>
pos ition</w>
me di
op e</w>
provis ions</w>
3 .
t ell</w>
v ot
f il
Y es</w>
s m
propos al</w>
me an</w>
fin d</w>
O F</w>
lit tle</w>
al th</w>
for ce</w>
s or
co operation</w>
man ag
are a</w>
e very
Wh ere</w>
ve st
po li
o od</w>
5 0</w>
A R
u r</w>
b us
requi re
la w</w>
ai r</w>
produc t</w>
lo g
pen d
program me</w>
produc tion</w>
adop ted</w>
en cy</w>
re a
y s</w>
m en</w>
de b
wor ld</w>
lo ok</w>
s c
M E
th ird</w>
ta king</w>
it al</w>
er gy</w>
s pe
Dec ember</w>
N e
ter min
h al
gi ven</w>
s en
an ted</w>
rec ei
o le</w>
A gre
el s</w>
b l
tr ain
ri ghts</w>
un ic
c ed</w>
shi p</w>
reg ul
an im
acc ount</w>
or ig
ag es</w>
n ame</w>
in iti
m i
L et</w>
A u
ne e
tr ade</w>
al ready</w>
O kay</w>
wh y</w>
str y</w>
ch il
M o
ment ation</w>
n at
we e
t ors</w>
h y
C ome</w>
C o
r ang
t ent</w>
w a
respec t</w>
avail able</w>
ad min
ob jec
O n</w>
in ten
st and
whe ther</w>
diffe rent</w>
im um</w>
L i
am e
om s</w>
e re
O n
an ds</w>
it ted</w>
si ve</w>
bas ed</w>
d re
A d
v ari
in ion</w>
speci fic</w>
mil lion</w>
Wh y</w>
c entr
th s</w>
di dn</w>
sh o
ad ing</w>
ag ain</w>
L o
w om
con tain
Agre ement</w>
f ree</w>
ne ver</w>
pur pos
di vi
im pro
fac t</w>
me th
do m</w>
s k
e ting</w>
leg is
b a
sec ond</w>
cour se</w>
g ro
wor king</w>
emb ers</w>
sit uation</w>
appropri ate</w>
t ot
i onal</w>
agre ement</w>
f ri
t re
di es</w>
proce dure</w>
lo o
compe ti
contro l</w>
par t
con clu
do ing</w>
sub ject</w>
in dic
p i
an t
n on</w>
hum an</w>
concer ning</w>
en s</w>
D o</w>
i de</w>
ou s
protec tion</w>
u st
ar ound</w>
s ince</w>
p ati
y s
G re
beli eve</w>
C our
J o
2 5</w>
par ti
con tribu
ear ch</w>
inv ol
leg al</w>
gen eral</w>
S e
gre at</w>
in t</w>
in ess</w>
s ol
tech n
1 3</w>
an ti
an u
un e</w>
app ly</w>
h ol
vi ties</w>
1 4</w>
li ght</w>
hi gh</w>
f am
s al
G od</w>
gover n
e qui
pres ent</w>
M y</w>
f uc
hi gh
p ay
ven tion</w>
agr icul
are as</w>
le ast</w>
f a
f y</w>
ad v
as ed</w>
ri ed</w>
an other</w>
provi de</w>
al i
require ments</w>
ic k</w>
S o
ar m
19 7
bet ter</w>
ab o
st at
0 00</w>
poli tical</w>
fur ther</w>
d el
l ation</w>
rec o
F in
can not</w>
our ces</w>
train ing</w>
employ ment</w>
Un ited</w>
no ti
d r
S ec
G en
hal f</w>
1 6</w>
Ho wever</w>
vel y</w>
Cour t</w>
pro m
rele v
f ound</w>
n er</w>
1 8</w>
as k</w>
de red</w>
G er
200 6</w>
do cu
l ab
Wh en</w>
acti vities</w>
fi el
ur al</w>
proble m</w>
mat er
g l
N ow</w>
m er
n ess</w>
e very</w>
prin ci
acc ep
a tional</w>
ai r
g ation</w>
A TI
fe ty</w>
inter national</w>
F r
H aving</w>
ma in</w>
ffic ial</w>
sub m
at ely</w>
d ro
wor k
T r
ut ure</w>
p t</w>
T o</w>
sec urity</w>
sec tor</w>
ex ten
indu stry</w>
re st
ma j
en ergy</w>
6 .
tic s</w>
J u
200 4</w>
in vest
val ue</w>
A L</w>
t able</w>
c all</w>
M in
B o
admin istr
ati s
f ish
f uture</w>
d ays</w>
F e
ve red</w>
pr ice</w>
w ard</w>
de termin
us ing</w>
he alth</w>
ti l</w>
ac hi
or m
In ter
our s</w>
op inion</w>
d one</w>
grou p</w>
bu il
li ed</w>
ris k</w>
po l
ge ther</w>
l s</w>
ty pe</w>
applic able</w>
D on</w>
divi du
ha ving</w>
c us
proc ess</w>
si on
1 8
ap pe
mon ths</w>
amen d
U N
t ation</w>
l in
ec h
imple mentation</w>
ac tu
u b
cu st
p ing</w>
re presen
an ks</w>
wh ile</w>
i an</w>
w ing</w>
P E
I s</w>
J une</w>
a k
st and</w>
B r
1 2
s on</w>
trans port</w>
ben ef
wat er</w>
in f
f f</w>
comp an
un ities</w>
mat ter</w>
to gether</w>
bud get</w>
m ight</w>
to day</w>
h ic
f ar</w>
p tion</w>
am ount</w>
al ways</w>
3 1</w>
op en</w>
1 7</w>
por ted</w>
is m</w>
th ings</w>
k ind</w>
A C
O R
ing le</w>
si c</w>
5 .
en tly</w>
thou gh</w>
200 7</w>
jec ts</w>
amen ded</w>
tim es</w>
ch o
wh ole</w>
relev ant</w>
pl an
en d
ta il
ou l
us ti
b el
n ight</w>
v al</w>
200 5</w>
ag o</w>
r ate</w>
Th ese</w>
im p
m ul
sup p
sy st
F un
at t
ou gh</w>
com men
.. ..
t reat
b er
ro duc
i de
in al</w>
r ap
i ous</w>
hap pen
c ases</w>
ex is
200 3</w>
str u
I C
es ti
b al
C om
d ri
pro f
No t</w>
proble ms</w>
m es</w>
manag ement</w>
ul t</w>
ame work</w>
ve ment</w>
g et
m ember</w>
S p
ous ly</w>
an al
mon ey</w>
b ur
parti cip
M a
cle ar</w>
serv ice</w>
tot al</w>
l aid</w>
un til</w>
res earch</w>
ac tions</w>
ab ly</w>
str ic
2 1</w>
h ome</w>
e ts</w>
E S</w>
t on
ass ess
se e
techn ical</w>
ex peri
pur su
n ext</w>
S I
s uc
po wer</w>
g g
sign ed</w>
al low
sa fety</w>
abo ve</w>
at h</w>
b est</w>
c en
u es</w>
d en</w>
ma king</w>
te red</w>
J ust</w>
se qu
dis cus
lo gy</w>
CO M
qu ality</w>
c ing</w>
man u
issu e</w>
ai l</w>
w r
t or
d ou
ve hic
o kay</w>
bus iness</w>
id enti
incre ase</w>
co sts</w>
inte rest</w>
go ods</w>
b il
ad d
h and</w>
in dividu
com b
S h
treat ment</w>
si bility</w>
ar an
o l</w>
int roduc
1 7
tur n</w>
fiel d</w>
2 4</w>
pos ed</w>
establish ed</w>
a way</w>
ch ec
or ity</w>
sm all</w>
z e</w>
ad i
st ar
J anu
lo ve</w>
er y</w>
agricul tural</w>
es sion</w>
1 9</w>
c r
ou th</w>
eg r
a w
n s</w>
k ey</w>
f av
stan ces</w>
Janu ary</w>
legis lation</w>
men ting</w>
c ro
re al</w>
ter m</w>
fun c
t t
spec ial</w>
effec t</w>
tech no
am es</w>
Ju ly</w>
elec tr
he ad</w>
B e
requi red</w>
manu fac
cal led</w>
2 2</w>
p ed</w>
ci r
t em
r .</w>
consi dered</w>
d en
f re
ex clu
i fic
v ity</w>
wom en</w>
200 9</w>
ac ts</w>
mp ;</w>
&a mp;</w>
a im
pers on</w>
as soci
o d
in de
at or</w>
k es</w>
w el
in s</w>
M ay</w>
Gen eral</w>
h ouse</w>
ful l</w>
ti z
in st
EU R</w>
acc ess</w>
ter ms</w>
proc ess
sor ry</w>
fo od</w>
any thing</w>
O c
un i
ob li
b ed</w>
there of</w>
institu tions</w>
rel ated</w>
ex pres
plac ed</w>
pl es</w>
thou ght</w>
A t</w>
o s</w>
dre n</w>
tr y</w>
Ar e</w>
3 0
comm unic
ic k
A S</w>
w ards</w>
res ources</w>
200 8</w>
ut e</w>
comp any</w>
ATI ON</w>
200 0</w>
at ory</w>
exam ple</w>
mar k</w>
re commen
a z
ke ep</w>
P o
fac e</w>
Re public</w>
com ing</w>
pati ents</w>
a h</w>
I m
li es</w>
deb ate</w>
is ter</w>
tal k</w>
fr amework</w>
ro w</w>
A p
ti al</w>
rel ating</w>
resul t</w>
gen er
fo re
a k</w>
author ity</w>
H e
t a</w>
lo t</w>
du e</w>
iz ation</w>
G u
en ing</w>
Th ank</w>
di ffic
si mp
s ingle</w>
por ting</w>
syst ems</w>
fe w</w>
fi x
tu res</w>
E R
gr ap
reco gn
Mar ch</w>
N or
p ul
ne t
t om
A N</w>
establish ing</w>
ex pec
I tal
g reat
reg ional</w>
E con
bi g</w>
go ti
1 4
P ol
ci tiz
lis h</w>
d eli
g ir
is sion
o t</w>
nee ds</w>
gu aran
No v
- -</w>
200 2</w>
e ding</w>
t es</w>
consi der
iz ed</w>
Q u
chil dren</w>
B A
I s
ac y</w>
compe tent</w>
e duc
h ope</w>
in stru
y l
me eting</w>
th ers</w>
Oc to
7 .
pro g
j ud
2 3</w>
sign ific
int egr
m embers</w>
lis t</w>
con nec
pr ices</w>
fam ily</w>
at s</w>
pro jects</w>
Lo ok</w>
Octo ber</w>
pri v
ex c
resul ts</w>
m or
Y our</w>
op port
0 0
be g
ei ther</w>
po w
du res</w>
st er
M e
oul dn</w>
poin ts</w>
oo l</w>
st ate</w>
particul arly</w>
ne goti
d ence</w>
sh or
g ed</w>
g n</w>
loc al</w>
des cri
ro om</w>
D o
a ffec
th em
dec is
program mes</w>
b rea
ma x
direc tly</w>
ist ance</w>
Wh o</w>
re ference</w>
ic a</w>
pr is
200 1</w>
no thing</w>
enti al</w>
M on
y et</w>
B ul
equi p
requ est</w>
pl ay</w>
ple ase</w>
fe el</w>
G et</w>
w ar
c ha
E E
ai rs</w>
ac tive</w>
1 00</w>
Wh ere
on ce</w>
1 6
COM M
le ft</w>
jo b</w>
mon it
ho wever</w>
t est</w>
c are</w>
wor ks</w>
fin al</w>
ig n</w>
Econ omic</w>
or ies</w>
hap p
in ed</w>
sch em
con sum
O N
indu stri
l ong
t old</w>
log ical</w>
1 5
cur ren
inclu de</w>
vot e</w>
proce dures</w>
in a</w>
par ties</w>
W or
y e</w>
A s
p ass
car ried</w>
co vered</w>
or ding</w>
Comm ission
p ic
2 8</w>
compan ies</w>
oun ts</w>
lar ge</w>
de tail
t ab
D E
e ty</w>
On e</w>
W ith</w>
to ok</w>
re la
st art</w>
G over
t ro
pl an</w>
Where as</w>
d am
str ateg
at ten
199 9</w>
cer ti
rit er
contin u
201 3</w>
d om
propos als</w>
4 0</w>
inter nal</w>
res olution</w>
it ure</w>
me et</w>
reg ards</w>
n orm
trans f
ex p
at ors</w>
con stitu
1 3
O ther</w>
m g</w>
every thing</w>
AN D</w>
u h</w>
im ports</w>
Nov ember</w>
at ure</w>
it ing</w>
C an</w>
li ve</w>
reg ar
w rit
bec ome</w>
competi tion</w>
P e
effec ts</w>
9 0</w>
inv esti
d it</w>
ver s
mo ve</w>
p rec
ar rang
A D
c riter
b lo
R o
b or
P l
max imum</w>
pos i
vari ous</w>
environ ment</w>
i gh
er ing</w>
le ase</w>
ys is</w>
en ough</w>
a red</w>
min d</w>
en ces</w>
d ers</w>
ffici ent</w>
col lec
sel ves</w>
c ame</w>
gen cy</w>
m m</w>
G rou
o x
2 7</w>
2 9</w>
me dic
9 2</w>
A f
y oun
2 6</w>
pro ject</w>
sh ow</w>
reg ions</w>
per form
d ge</w>
h on
A T
t al</w>
n er
Th en</w>
O fficial</w>
t le
f our</w>
l u
e m</w>
c ra
pub lic
M rs</w>
environ mental</w>
por te
struc ture</w>
qu anti
represen ta
under stand</w>
chang es</w>
cur rent</w>
amend ments</w>
fi ve</w>
se en</w>
G ood</w>
m ission</w>
br ing</w>
ro le</w>
contin ue</w>
ut es</w>
ren g
respon sible</w>
ing dom</w>
con f
econ om
si mil
1 2.
gr anted</w>
individu al</w>
O f</w>
wr ong</w>
cap ac
comm it
b an
cir c
w in
invest ment</w>
P lease</w>
dem oc
ur o</w>
201 1</w>
ef for
pri l</w>
pers ons</w>
ter rit
es n</w>
t ;</w>
s ul
S ep
prom ot
A pril</w>
a ke</w>
pec i
be half</w>
n et</w>
as h</w>
tr a
b ru
par ty</w>
work ers</w>
our nal</w>
m ach
S T
ful ly</w>
propos ed</w>
or ing</w>
vi r
princi ple</w>
e vi
s af
addi tional</w>
acc ording</w>
y es</w>
co ver</w>
ver age</w>
lar g
le t
ai m</w>
Commission er</w>
Grou p</w>
kno wn</w>
ar ing</w>
de si
issu es</w>
en ter</w>
re ly</w>
l ad
le ave</w>
ang u
B el
ap er</w>
effec tive</w>
citiz ens</w>
Sep t
I S</w>
C entr
purpos e</w>
8 0</w>
le vel
tion ed</w>
Artic les</w>
tain ed</w>
or d</w>
g ame</w>
R es
Gover n
Sept ember</w>
gu y</w>
uc k</w>
addi tion</w>
t ar
6 0</w>
T ur
J ournal</w>
pend iture</w>
M r.</w>
S er
201 0</w>
polic ies</w>
w ish</w>
st reng
w ast
Di rec
to wards</w>
app lied</w>
actu ally</w>
reas on</w>
pursu ant</w>
agre ements</w>
we ight</w>
w on</w>
st op</w>
cor rec
decis ions</w>
assess ment</w>
H ouse</w>
t el
prog ress</w>
ta x</w>
cons ul
purpos es</w>
ti vely</w>
er r
L e
w th</w>
suc c
M ad
maj or</w>
n i
8 .
K ingdom</w>
im port</w>
nat ural</w>
an ish</w>
ann ual</w>
as h
d ly</w>
govern ment</w>
hel d</w>
ba sic</w>
ec e</w>
equip ment</w>
educ ation</w>
j ust
invol ved</w>
youn g</w>
A mer
k il
a vi
M ay
on es</w>
c ar</w>
subm itted</w>
w anted</w>
Fe bru
gu e</w>
ser ious</w>
9 .
sel ec
criter ia</w>
re stric
simil ar</w>
cap ital</w>
form s</w>
up on</w>
201 2</w>
fl u
do esn</w>
Febru ary</w>
level s</w>
po ten
Ch ris
stan ding</w>
p aid</w>
loo king</w>
g s</w>
EC U</w>
b re
clo se</w>
h ard</w>
Ger many</w>
pro per
stand ards</w>
us es</w>
direc t</w>
EU RO
capac ity</w>
appro ved</w>
pre par
objec tives</w>
p ay</w>
y l</w>
e f</w>
h ours</w>
co st</w>
s ite</w>
fri end</w>
porte ur</w>
m u
h and
al low</w>
h old</w>
co ord
c at
Br us
ac ting</w>
incre ased</w>
P or
f ail
as si
pr ac
W in
O r
is ing</w>
201 4</w>
BA R</w>
sel s</w>
P er
I II</w>
blo od</w>
ex penditure</w>
g ations</w>
ti s
grou ps</w>
Fr ance</w>
for ward</w>
he ar</w>
g lo
com es</w>
wor ds</w>
di rective</w>
s ci
gu ys</w>
ver al</w>
fac il
inten ded</w>
de f
i ded</w>
an e
s us
w n
de al</w>
F ir
do se</w>
d a
T o
happen ed</w>
Brus sels</w>
recei ved</w>
st er</w>
great er</w>
Di d</w>
pl ain
pay ment</w>
ide a</w>
U S
l angu
do c
S u
H ere</w>
j usti
ass istance</w>
C ar
fre e
ag ed</w>
0 .
ff airs</w>
tal king</w>
al e</w>
entr y</w>
w le
m y
G o</w>
anim al</w>
n am
exis ting</w>
w ent</w>
se ts</w>
ing ly</w>
ge ts</w>
i als</w>
fish ing</w>
fun ds</w>
ex port</w>
ques tions</w>
D en
fin e</w>
Comm unities</w>
gro wth</w>
in ary</w>
ati c</w>
it self</w>
vis ion</w>
o re
st oc
k er</w>
ad s</w>
anim als</w>
s po
G i
EURO PE
en ter
cri min
re t
de v
Con vention</w>
EUROPE AN</w>
B ec
appro ach</w>
tr an
pub lish
re placed</w>
fuc king</w>
dis tribu
co l</w>
defin ed</w>
char ac
m it</w>
N E
t ting</w>
amen ding</w>
b ad</w>
ten ce</w>
inclu ded</w>
c ateg
st ance</w>
cust oms</w>
I T
in ating</w>
O P
mul ti
So cial</w>
pa ren
le ar
con centr
p es</w>
EE A</w>
lat er</w>
hap ter</w>
g ot
b ri
ren ch</w>
c am
acti vity</w>
c y
priv ate</w>
p ack
vi ous</w>
t on</w>
Se e</w>
tr ying</w>
ter nal</w>
requ est
out side</w>
L L</w>
du ty</w>
so li
g es</w>
w it
t ext</w>
ag ree</w>
9 5</w>
b it</w>
d ation</w>
si a</w>
ev al
Af ter</w>
reg ulation</w>
appro val</w>
p at
o grap
el se</w>
d um
rou ght</w>
kno wle
ad ded</w>
sh it</w>
at ures</w>
c ause</w>
th ank</w>
wast e</w>
f ron
c o</w>
get ting</w>
gr ound</w>
dis e
al o
ic ally</w>
s am
peci ally</w>
re pe
B y</w>
nat ure</w>
de ad</w>
so f
fa ther</w>
ach ed</w>
signific ant</w>
ru n</w>
meas ure</w>
men tioned</w>
ess ential</w>
manufac tu
s olution</w>
tion ing</w>
se veral</w>
w an
wee k</w>
au gh
re main
import ance</w>
long er</w>
am ong</w>
oper ations</w>
ic an</w>
bel ow</w>
ma kes</w>
ro ad</w>
speci fied</w>
U L
v o
benef it</w>
mark ets</w>
experi ence</w>
an ces</w>
imp act</w>
9 3</w>
et ary</w>
ad just
es pecially</w>
9 6</w>
l ands</w>
so on</w>
r ates</w>
c op
mater ials</w>
struc tion</w>
L u
he ard</w>
w ed</w>
. e
st ay</w>
to col</w>
administr ative</w>
k ill</w>
de st
provi des</w>
ren ces</w>
cont ent</w>
re sts</w>
he ading</w>
d ar
ex change</w>
tic ally</w>
May be</w>
Govern ment</w>
h or
B ank</w>
su mp
il i
F rench</w>
y our
s atis
th in
P RO
off ice</w>
wor d</w>
st atis
su per
v ent</w>
R us
is ts</w>
O ff
s aying</w>
sec tion</w>
ci es</w>
co de</w>
3 2</w>
en s
st ain
si r</w>
sh are</w>
re ports</w>
no v
E S
ord ers</w>
sur ance</w>
t in
reg ion</w>
th y</w>
qu ite</w>
im medi
iz e</w>
mater ial</w>
cont ext</w>
id el
fix ed</w>
9 1</w>
bo dies</w>
m a</w>
as pec
av o
val ues</w>
equ al</w>
8 5</w>
some one</w>
anal ysis</w>
ch es</w>
C H
produc ers</w>
follow s</w>
w al
achi ev
stu dy</w>
reas ons</w>
pl ay
se par
sa w</w>
stand ard</w>
C ha
le ad</w>
ic s</w>
finan cing</w>
op en
Bec ause</w>
cre dit</w>
par ts</w>
o thers</w>
min imum</w>
ch em
high er</w>
en ds</w>
contain ing</w>
nee ded</w>
v ol
B ar
ol s</w>
o il</w>
ra ther</w>
O p
IN G</w>
industri al</w>
g ar</w>
tle men</w>
publish ed</w>
w ise</w>
n e</w>
comm ittee</w>
b ab
li ance</w>
bo o
9 8</w>
vi a</w>
7 5</w>
te st
rap porteur</w>
b ar
er c
h ist
tr ue</w>
si x</w>
our ce</w>
ech an
S tr
res er
supp ly</w>
cor por
re view</w>
f arm
as y</w>
t un
norm al</w>
ta x
F i
TE D</w>
li k
respon sibility</w>
al loc
vehic le</w>
m ed</w>
pr acti
lis ted</w>
jo int</w>
w as
as ing</w>
re ad</w>
wa it</w>
lim ited</w>
provis ion</w>
S y
7 0</w>
bo ard</w>
t ory</w>
D ev
h ell</w>
ment ary</w>
imple menting</w>
P r
s ent</w>
contribu tion</w>
organ is
tak es</w>
ver s</w>
b rought</w>
E N
oun ds</w>
De b
Ne w</w>
d ent</w>
m ot
er ies</w>
A fr
Den mark</w>
in e
rel ations</w>
Off ice</w>
sump tion</w>
comm er
af f</w>
as ked</w>
inte rests</w>
consi der</w>
sch ool</w>
ex tr
dec ided</w>
inte rest
A L
h un
ph one</w>
do or</w>
l ines</w>
O R</w>
b it
oc cu
it ation</w>
of ten</w>
re p
bal ance</w>
atten tion</w>
A P
st aff</w>
x im
arrang ements</w>
Tr ans
m et</w>
en cour
M embers</w>
A n</w>
h er
min utes</w>
C ol
g ar
g er</w>
an e</w>
con duc
oper ating</w>
g en</w>
gir l</w>
f ru
li gh
ab il
CO M</w>
C I
c ris
cal cul
c ou
S te
tw are</w>
an ing</w>
vi l</w>
ish ed</w>
ati ves</w>
qu ali
con fir
tem per
buil ding</w>
Bul l</w>
d ang
princi ples</w>
objec tive</w>
res sed</w>
instru ments</w>
gen tlemen</w>
s cre
stu dies</w>
docu ments</w>
a verage</w>
poten tial</w>
fic ations</w>
A S
d ings</w>
al one</w>
monit oring</w>
dra ft</w>
a ther</w>
b in
rel ation</w>
tur ing</w>
communic ation</w>
shor t</w>
he re
docu ment</w>
de signed</w>
circ um
cle arly</w>
th us</w>
r un
m om
i ds</w>
e uro</w>
your self</w>
H i</w>
tak ings</w>
3 5</w>
ta il</w>
n y</w>
agre ed</w>
S ome
Por tu
tran si
re al
g as</w>
men ted</w>
W i
ar tic
low er</w>
.... ....
char ge</w>
mat ters</w>
re member</w>
cer tain
c el
M an
m echan
techno logy</w>
- -
impro ve</w>
o s
dou b
inde pend
mon th</w>
f er
201 5</w>
O L
rang e</w>
ou ght</w>
j ur
sh e
mo tion</w>
Fir st</w>
re r</w>
certi fic
negoti ations</w>
Ital y</w>
A b
R ec
schem e</w>
ac tly</w>
f el
Fun d</w>
in surance</w>
T S</w>
sub stances</w>
regar ding</w>
wh ose</w>
s ays</w>
adop t</w>
re li
cont act</w>
f le
Au thor
strateg y</w>
3 4</w>
Bel gi
H ell
adv ant
du ties</w>
process ing</w>
n ers</w>
rel and</w>
1 1.
m ess
v ic
Dev el
net work</w>
fav our</w>
R ight</w>
i e</w>
C l
p ast</w>
e th
cen t
po p
mor ning</w>
produc ed</w>
wee ks</w>
administr ation</w>
opport unity</w>
dou ble</w>
A T</w>
an c
diffic ult</w>
under takings</w>
e x</w>
detail ed</w>
public ation</w>
investi gation</w>
econom y</w>
mo ther</w>
orig in</w>
posi tive</w>
ev ent</w>
Sec tion</w>
idel ines</w>
maj ority</w>
evi dence</w>
ste p</w>
our g</w>
I reland</w>
ch ing</w>
glo b
ne w
reduc tion</w>
lim it</w>
h ou
ma y
1 ,
di e</w>
tr u
R i
C .</w>
fi ght</w>
pl ant</w>
J ap
con sequ
me at</w>
con ver
D LL</w>
en e</w>
9 4</w>
ab les</w>
le ar</w>
r adi
presen ted</w>
g ames</w>
199 2</w>
ven ess</w>
ac ro
Devel op
mo vement</w>
con fi
territ ory</w>
d ru
gr am</w>
j u
l ack</w>
whe re
pa red</w>
s en</w>
re ach</w>
them selves</w>
su gg
de sign
Pro tocol</w>
S ub
ph ot
s le
ra tic</w>
o fficial</w>
vehic les</w>
S ch
f ec
comp on
pers onal</w>
dra wn</w>
A ffairs</w>
is tered</w>
do ws</w>
cre ate</w>
tu al</w>
l ate</w>
e ful</w>
3 3</w>
de al
lab our</w>
dem on
issu ed</w>
ste el</w>
S we
dec lar
f oc
st age</w>
wan na</w>
t ex
de l</w>
con sumption</w>
C hapter</w>
sub si
qu e</w>
comple te</w>
si ze</w>
3 6</w>
7 7</w>
9 7</w>
su gar</w>
Ger man</w>
bo ok</w>
G r
Centr al</w>
soci ety</w>
l aying</w>
su stain
chec k</w>
fore ign</w>
is ters</w>
10 .
Sp ain</w>
practi ce</w>
de ath</w>
T O</w>
A G
v oc
ex erc
W a
199 8</w>
mil k</w>
Deb ates</w>
add ress</w>
it ary</w>
meth ods</w>
in ated</w>
regul ations</w>
F or
f ish</w>
8 7</w>
I N</w>
f lo
c ut</w>
B ri
vi ol
col le
har mon
li ving</w>
effor ts</w>
he art</w>
k g</w>
cor respon
En g
th re
sof tware</w>
ob ser
sci enti
Mad am</w>
f ying</w>
centr al</w>
la ws</w>
achi eve</w>
199 4</w>
E R</w>
UN I
ap poin
organ isation</w>
benef its</w>
s em
pres sure</w>
b ers</w>
U R
Im ple
lo st</w>
guaran tee</w>
form ed</w>
ag ing</w>
ch e
ref lec
mark eting</w>
b ra
0 ,
201 6</w>
hy dro
ME N
Jo int</w>
n ice</w>
H AS</w>
stat ement</w>
o ther
U C
associ ated</w>
got ta</w>
2 5
is n</w>
su fficient</w>
cl assi
pop ulation</w>
lik ely</w>
E D</w>
cris is</w>
ch ed</w>
EC B</w>
estab lish</w>
4 5</w>
knowle dge</w>
doc tor</w>
Ch ar
v olu
S ome</w>
lad ies</w>
g ave</w>
CO N
ex per
sc ope</w>
obli gations</w>
contr act</w>
199 6</w>
ans wer</w>
V i
ex ternal</w>
bin ding</w>
perform ance</w>
ob s</w>
o w
off er</w>
ed ings</w>
bi o
concer n</w>
re turn</w>
g one</w>
199 5</w>
c le</w>
loc k</w>
8 8</w>
0 1</w>
Th ere
es si
or row</w>
O ur</w>
em er
establish ment</w>
mo di
demon str
al most</w>
m ary</w>
free dom</w>
fil es</w>
develop ing</w>
sec tors</w>
u ally</w>
b ir
commer cial</w>
i um</w>
Hell o</w>
er ous</w>
ty pes</w>
Par t</w>
al ong</w>
D E</w>
institu tion</w>
mi gr
8 9</w>
pos al</w>
inf ra
com pu
meth od</w>
bo y</w>
ON S</w>
wi fe</w>
Develop ment</w>
cust om
ad equ
rec ent</w>
199 3</w>
Th anks</w>
TH IS</w>
dra w</w>
Re port</w>
str ong</w>
wi de</w>
ex actly</w>
com par
F ur
on ic</w>
to p</w>
al ter
g t;</w>
& gt;</w>
connec tion</w>
wom an</w>
SI ON</w>
I V</w>
4 3</w>
cre ated</w>
re sid
pre pared</w>
in spec
lo y
pre vent</w>
J usti
i m</w>
stat us</w>
ic ity</w>
mom ent</w>
sh own</w>
6 8</w>
an ced</w>
sec on
devel op</w>
ch all
aw are</w>
over all</w>
cl aim
car ry</w>
determin ed</w>
6 5</w>
c ity</w>
ne g
b order</w>
orig inating</w>
hap s</w>
fuc k</w>
t ty</w>
st or
inf ec
e asy</w>
na tion
bab y</w>
ti veness</w>
wel come</w>
pl ying</w>
he ad
uc lear</w>
pre vious</w>
pow ers</w>
F rom</w>
el ess</w>
was n</w>
chil d</w>
p .
m ag
in jec
Comm on</w>
There fore</w>
me d
ti n</w>
sp ir
p aper</w>
my self</w>
kil led</w>
AD OP
ex tent</w>
E N</w>
circum stances</w>
k en</w>
respon se</w>
h ur
comp liance</w>
b on</w>
d a</w>
ea si
alo gue</w>
ver se</w>
olu tions</w>
proce edings</w>
ear ly</w>
h ot
no te</w>
ant i</w>
w on
expres sed</w>
transf er</w>
w ants</w>
ADOP TED</w>
c ent</w>
fol low</w>
4 8</w>
ye ah</w>
pe ace</w>
dise ase</w>
ec u
b an</w>
. .</w>
be au
pos e</w>
k et</w>
applic ations</w>
appro xim
develop ed</w>
k new</w>
s ound</w>
da mental</w>
diffic ul
Lu x
Is ra
199 7</w>
ar t
er ro
provi ding</w>
mo der
D is
sal es</w>
simp ly</w>
charac ter
ar m</w>
al ling</w>
reduc ed</w>
A men
sub stance</w>
th ro
h ind</w>
accep t</w>
comp ens
l am
promot e</w>
il s</w>
E very
vi ously</w>
initi ative</w>
li e</w>
is s</w>
ver i
te es</w>
re mo
b ul
con ce
vers ity</w>
in nov
every one</w>
aspec ts</w>
se tt
adop tion</w>
l er</w>
get ary</w>
pris es</w>
at ever</w>
S ince</w>
re ported</w>
Jo h
re main</w>
li er</w>
may be</w>
sen se</w>
pro por
9 9</w>
p an
Justi ce</w>
ill s</w>
sur ve
S i
ari ff</w>
im e</w>
l an
O K</w>
8 6</w>
ex tre
199 0</w>
expec ted</w>
ec h</w>
pen sion</w>
st re
comp ati
c ell
R om
T R
w ine</w>
h s</w>
pur ch
Wa it</w>
3 7</w>
k y</w>
i ble</w>
spe ak</w>
requi re</w>
consum er</w>
S outh</w>
amend ment</w>
dec ide</w>
w ar</w>
e k</w>
l led</w>
d ated</w>
ob tained</w>
j obs</w>
T w
Win dows</w>
fri ends</w>
e u
vie ws</w>
curren tly</w>
am ounts</w>
IS SION</w>
se tting</w>
f air</w>
tre ated</w>
ad ap
as sets</w>
T ake</w>
applic ant</w>
prob ably</w>
reduc e</w>
es tim
B u
conclu ded</w>
correc t</w>
m l</w>
Inter national</w>
sup ple
A gency</w>
in side</w>
pay ments</w>
sub stan
pre ci
gh out</w>
emplo ye
S or
H ar
gi ving</w>
f requ
be hind</w>
equi val
z ed</w>
thin king</w>
ph ys
ar ies</w>
eg et
on line</w>
protec t</w>
actu al</w>
st ly</w>
f all</w>
g al</w>
ra ti
in ning</w>
employ ed</w>
COMM ISSION</w>
let ter</w>
e .
gr at
saf e</w>
g ent</w>
prom ise</w>
sub paragraph</w>
re ment</w>
in ing</w>
RE G
exten sion</w>
achiev ed</w>
exce pt</w>
ex emp
der i
jud g
e ffici
spec ies</w>
tom orrow</w>
ic ro
integr ation</w>
concer ns</w>
ess es</w>
particip ation</w>
un d</w>
D anish</w>
acc ounts</w>
AN NE
happ en</w>
A m
8 2</w>
Lux emb
A gr
Gre ece</w>
pen ding</w>
b ack
in flu
conclu sion</w>
3 5
Pro duc
se ems</w>
Fin ally</w>
D one</w>
U h</w>
per fec
ch i
comp ly</w>
fru it</w>
istr ation</w>
lo ad</w>
un it</w>
under taking</w>
happ y</w>
meas u
Author ity</w>
distribu tion</w>
ari an</w>
Imple menting</w>
I R
me aning</w>
func tion</w>
P E</w>
langu age</w>
fic i
dis t
st ud
as ks</w>
pri ority</w>
allow ed</w>
6 4</w>
si an</w>
g .</w>
star ted</w>
4 9</w>
anal y
r acy</w>
ANNE X</w>
di ed</w>
T able</w>
ex pos
lo ss</w>
M ed
orig inal</w>
l or
et c</w>
Par ty</w>
ess els</w>
cro ss</w>
fi re</w>
s er</w>
any one</w>
writ ing</w>
H ave</w>
it able</w>
throu ghout</w>
co he
ar gu
reas on
go es</w>
do wn
ser ies</w>
sp ace</w>
fi g
G e
ac ci
dum ping</w>
Fin an
us ers</w>
immedi ately</w>
augh ter</w>
tr ac
8 1</w>
re form</w>
al though</w>
eli gi
n uclear</w>
J e
3 9</w>
ne l</w>
to wn</w>
contain s</w>
g ust</w>
R u
descri bed</w>
M i
s we
contr acts</w>
indic ated</w>
ev ents</w>
Luxemb ourg</w>
8 4</w>
C or
O b
ru le</w>
w ouldn</w>
D es
acro ss</w>
acc ession</w>
a king</w>
gr ad
4 2</w>
v essels</w>
in form</w>
struc tural</w>
C ase</w>
exp lo
ste ad</w>
S a
An y</w>
essi onal</w>
D uring</w>
chang ed</w>
z y</w>
P ub
es tic</w>
le ts</w>
s ource</w>
S econ
s cal
ner ship</w>
organis ations</w>
K e
an ia</w>
gu idelines</w>
in corpor
hol ding</w>
Li ke</w>
ref u
P ri
ch ance</w>
v eget
U S</w>
volu me</w>
ast er</w>
f ast</w>
author ised</w>
Presid ency</w>
cre ation</w>
ul ations</w>
wor ked</w>
h ands</w>
M al
er n</w>
7 1</w>
ti ful</w>
au tom
fron t</w>
inter pre
all s</w>
recei ve</w>
ce ment</w>
Ch ina</w>
C ap
un employment</w>
Agr icul
cul tural</w>
Min ister</w>
7 8</w>
n or</w>
dem and</w>
un less</w>
glob al</w>
b and</w>
scienti fic</w>
Au gust</w>
r ac
lim its</w>
mi x
en able</w>
ci vil</w>
fun damental</w>
author isation</w>
avo id</w>
ff s</w>
S lo
L a
pre tty</w>
4 0
s mo
wh ite</w>
pri or</w>
tur ned</w>
exce eding</w>
g ing</w>
w il
pr ise</w>
mo del</w>
Sor ry</w>
qu ar
S up
del eg
cho ice</w>
c k</w>
con struction</w>
mon etary</w>
infra structure</w>
st ates</w>
s l
dri ve</w>
m er</w>
d le</w>
representa tives</w>
4 4</w>
199 1</w>
A M
our able</w>
n es</w>
rela tion
representa tive</w>
exclu ding</w>
gen ce</w>
m id
p age</w>
com plain
res h</w>
pro gram</w>
pers on
.e .</w>
dis crimin
Ne ther
o ffic
L E
s end</w>
si gn</w>
acc oun
e ted</w>
fig ure</w>
e yes</w>
sal e</w>
sid es</w>
med ical</w>
l y
i .e.</w>
gu ess</w>
tem por
S P
ach ing</w>
7 2</w>
H el
m ing</w>
an tly</w>
bud getary</w>
S pec
Portu gal</w>
Nether lands</w>
AC P</w>
sho t</w>
ac qu
i ed</w>
Wi th
E F
4 7</w>
A I
opport unities</w>
b ank</w>
el ements</w>
istr y</w>
noti fied</w>
cl in
ail y</w>
tain ing</w>
air port</w>
fun ding</w>
20 0</w>
pol ice</w>
S C</w>
it ors</w>
pos sibility</w>
ta tions</w>
eval uation</w>
clo sed</w>
ffe red</w>
TI ES</w>
J es
bil ities</w>
re t</w>
imple mented</w>
7 9</w>
t ou
Isra el</w>
in come</w>
rec or
h en
et ings</w>
d in
es tion</w>
R I
consum ers</w>
equival ent</w>
pr o</w>
tu ally</w>
un ch</w>
ther n</w>
min ute</w>
tic es</w>
subm it</w>
succ ess
la tive</w>
Ital ian</w>
ther more</w>
shi ps</w>
jo y</w>
read ing</w>
continu ed</w>
3 8</w>
interest ed</w>
statis tics</w>
b ot
gr ant</w>
dom estic</w>
le y</w>
re ached</w>
Au stri
O r</w>
b s</w>
facil it
ris ks</w>
kno ws</w>
8 3</w>
declar ation</w>
Tur key</w>
lab or
un g
certain ly</w>
pro hi
ep ing</w>
6 6</w>
k ers</w>
is sions</w>
Pe ople</w>
Amen d
bro ther</w>
beg inning</w>
coord ination</w>
ben e
sy mp
desi gn</w>
D el
Ac c
t our
min e</w>
exce ed</w>
di alogue</w>
s .</w>
b on
B er
spe ed</w>
inclu des</w>
en cies</w>
stor age</w>
other wise</w>
S ta
h an
ter ro
L I
he av
lo ans</w>
ph arm
Afr ica</w>
condi tion</w>
or ities</w>
adequ ate</w>
in sul
M or
On ly</w>
d ations</w>
democ ratic</w>
prof essional</w>
pl ans</w>
4 6</w>
ac id</w>
C ro
quanti ties</w>
n u
t i</w>
accep ted</w>
c ot
comp ared</w>
reg n
is tics</w>
introduc tion</w>
A U
beau tiful</w>
noti ce</w>
ograp h
i p
fi gu
num bers</w>
re over</w>
pen d</w>
198 9</w>
pres s</w>
incre asing</w>
5 5</w>
independ ent</w>
vot ed</w>
1. 3.
di a</w>
F OR</w>
request ed</w>
cour t</w>
fe el
fac tors</w>
brea k</w>
medi um</w>
pl ants</w>
part ners</w>
C y
instru ment</w>
el ling</w>
in c
t op
i i</w>
g a
fish eries</w>
enti re</w>
pre sid
vis it</w>
hist ory</w>
ab sol
Ser v
si l
S uch</w>
gi ves</w>
in ci
a res</w>
ver sion</w>
B al
T ell</w>
d aily</w>
c lim
diffe rence</w>
ther ap
mo d
legis lative</w>
4 1</w>
m us
ne y</w>
li ves</w>
oper ate</w>
pl ain</w>
stu ff</w>
se a</w>
affec ted</w>
T ot
high ly</w>
en tered</w>
si bilities</w>
b ase</w>
t ely</w>
un its</w>
fe rences</w>
Th ose</w>
UL ATION</w>
democ racy</w>
Ac t</w>
s ou
te sts</w>
mess age</w>
6 7</w>
ha ven</w>
mil itary</w>
follow ed</w>
we b
ra ised</w>
medic inal</w>
dev ice</w>
com ments</w>
te am</w>
struc turing</w>
in ate</w>
an ese</w>
7 6</w>
mis sing</w>
it em</w>
H is</w>
bro ad
k in
Finan cial</w>
co m</w>
oc cur
m em
m ur
re d
car ri
tr ust</w>
certific ate</w>
introduc ed</w>
commit ment</w>
p re</w>
writ ten</w>
B ro
g er
fir ms</w>
s ession</w>
ten ance</w>
b all</w>
re ven
s qu
sustain able</w>
der o
effici ency</w>
ag ement</w>
e. g.</w>
pl as
I T</w>
conf lic
F R</w>
ar ms</w>
d ur
St op</w>
W at
tis h</w>
c li
initi al</w>
me etings</w>
detail s</w>
2 ,
op ening</w>
ve ments</w>
injec tion</w>
run ning</w>
l ying</w>
cons is
form er</w>
app lies</w>
C om</w>
colle ag
for tun
Sec urity</w>
shi p
C an
sel y</w>
d ll</w>
lo se</w>
An n
compon ents</w>
enter prises</w>
fil led</w>
compu ter</w>
ep t</w>
h it</w>
sit u
bec om
REG ULATION</w>
ste ps</w>
schem es</w>
appe ar</w>
categ ory</w>
bil lion</w>
cra ft</w>
sup posed</w>
exerc ise</w>
i on
pharm ac
vis ory</w>
As s
Tw o</w>
B ud
H am
L E</w>
electr onic</w>
le ad
paragrap hs</w>
Belgi um</w>
neg ative</w>
m itted</w>
tec tion</w>
T ra
sho ws</w>
F ol
I r
t led</w>
star ting</w>
ton ight</w>
bu y</w>
gu n</w>
d y
Amer ica</w>
6 9</w>
ton nes</w>
inde ed</w>
curren cy</w>
h im
pack age</w>
f oun
comple tely</w>
st ated</w>
Amer ican</w>
h our</w>
recommen ded</w>
sur ing</w>
re ty</w>
Wor ld</w>
C E</w>
contribu te</w>
v in
s ources</w>
y ond</w>
B i
comple ted</w>
ar ti
cri ption</w>
bu t
loo ks</w>
c ut
wat ch</w>
pos t</w>
in formed</w>
N ational</w>
log ies</w>
h op
enti rety</w>
ti vity</w>
h uh</w>
consider ation</w>
D u
contain ed</w>
determin e</w>
bl ack</w>
imple ment</w>
l a</w>
n or
su ff
Min isters</w>
scal e</w>
L at
Par ties</w>
lis ten</w>
ris e</w>
r ying</w>
eligi ble</w>
alter na
t ariff</w>
part ment</w>
struc tures</w>
Ac cor
proper ty</w>
al ist</w>
em issions</w>
un ion</w>
stoc k</w>
ha ir</w>
P C</w>
employe es</w>
He alth</w>
T ech
tr av
E l
cal ls</w>
extre m
fail ure</w>
defin ition</w>
oper ators</w>
st ra
Jes us</w>
vir us</w>
em o
fe ed</w>
ca used</w>
A t
main ly</w>
f resh</w>
ph en
E M
identi fied</w>
facil ities</w>
cl ass</w>
artic les</w>
ta tive</w>
6 2</w>
l t;</w>
& lt;</w>
E L
main tain</w>
ane an</w>
is on</w>
separ ate</w>
Med it
obli gation</w>
b le
e fficient</w>
con tain</w>
institu tional</w>
w ood</w>
un ds</w>
dang erous</w>
us h</w>
In formation</w>
Fur thermore</w>
noti fication</w>
al ed</w>
er t</w>
H i
0 6</w>
e at</w>
organ iz
agricul ture</w>
temper atures</w>
inter vention</w>
requi res</w>
E ach</w>
sa ve</w>
pol lu
b at
Eng lish</w>
conclu sions</w>
tr adi
fle x
Tot al</w>
an k
o red</w>
An y
coun ter
Accor ding</w>
comb ination</w>
ar ity</w>
terro ris
en suring</w>
k ept</w>
pass eng
se l</w>
r o</w>
I M
Pro ce
manufactu rer</w>
simp le</w>
Bo ard</w>
larg ement</w>
ti le</w>
gram me</w>
regul ar</w>
in o</w>
Medit err
it ting</w>
we ap
t asks</w>
5 1</w>
la w
b ac
extrem ely</w>
k id</w>
ar ri
W e
c ard</w>
is tic</w>
C a
ap plying</w>
E mp
p ite</w>
r ing</w>
an cy</w>
D ad</w>
inst all
qu ick
ac compan
ic y</w>
s av
be yond</w>
sub sequ
tar get</w>
ex pen
calcul ated</w>
add ressed</w>
y er</w>
initi atives</w>
Sec ret
Gi ve</w>
6 1</w>
resul ting</w>
oper ational</w>
Mediterr anean</w>
sit ting</w>
govern ments</w>
ex ecu
a head</w>
7 3</w>
Jap anese</w>
him self</w>
accep table</w>
ti l
z er
c on</w>
Fe der
V E</w>
Sp anish</w>
En viron
C F
0 5</w>
mach ines</w>
tri ed</w>
k ids</w>
m oun
E X
produc e</w>
t ask</w>
p ain
thou s
o logical</w>
dam n</w>
i gn
re structuring</w>
bo x</w>
5 2</w>
oc ca
a x
dam age</w>
re rs</w>
Be fore</w>
produc er</w>
an a</w>
difficul ties</w>
per haps</w>
der ing</w>
V er
IS I
quot a</w>
per cent
affec t</w>
m al
P R
h u
y a</w>
i ther</w>
develop ments</w>
g in</w>
att emp
H ol
li qui
5 8</w>
F ore
n on
at a</w>
198 5</w>
A B
farm ers</w>
b anks</w>
sid ers</w>
g ree</w>
L ist
prac tical</w>
is es</w>
0 2</w>
vi de
o ffici
fin ally</w>
th anks</w>
f er</w>
expos ure</w>
vic ti
7 4</w>
main tenance</w>
se ar
jec ted</w>
wh atever</w>
t ren
organ ization</w>
5 00</w>
advant age</w>
gr an
ad d</w>
am s</w>
P al
reg istered</w>
E ast</w>
streng th
in stead</w>
c ouldn</w>
reco very</w>
List en</w>
integr ated</w>
recogn ition</w>
pl us</w>
S im
In du
categ ories</w>
con ven
accord ingly</w>
g y
cl aim</w>
chec ks</w>
om en
D em
de pend
tr ad
tr af
en su
st ory</w>
L is
TE R</w>
compati ble</w>
relation ship</w>
C ust
In stitu
cou ple</w>
chem ical</w>
wa iting</w>
st ability</w>
A re
r ul
re porting</w>
di men
abil ities</w>
E ven</w>
pre jud
val id
associ ation</w>
judg ment</w>
ir y</w>
re si
S E</w>
MEN T</w>
man ner</w>
s w
in s
R el
tru th</w>
ti s</w>
ph as
par lia
plan ning</w>
f low
198 8</w>
L ord</w>
fu el</w>
ic h
el im
Rus sia</w>
198 7</w>
beg in</w>
enti tled</w>
H um
net works</w>
subsi di
phot os</w>
expec t</w>
contro ls</w>
pre ven
gl ass</w>
ach es</w>
phys ical</w>
contro lled</w>
l eng
func tions</w>
wor ry</w>
k id
a tion
un to</w>
ass es</w>
character istics</w>
5 4</w>
No thing</w>
d on
ing ing</w>
P h
prac tices</w>
b ly</w>
ho t</w>
em ed</w>
coun t</w>
bor n</w>
R ules</w>
op s</w>
p ass</w>
correspon ding</w>
Bri tish</w>
E I
comm unity</w>
6 3</w>
al ia</w>
exam ination</w>
v ation</w>
TI N
Co operation</w>
ist ent</w>
ve ter
lear n</w>
ex ports</w>
M anu
con siders</w>
sk in</w>
clin ical</w>
0 8</w>
St at
T el</w>
pl aying</w>
pro per</w>
wal k</w>
ang e</w>
to x
201 7</w>
D EC
medi a</w>
effor t</w>
TI ON</w>
prejud ice</w>
traf fic</w>
cho ose</w>
d ad</w>
off ers</w>
pi ece</w>
see m</w>
po pul
T A</w>
exc ell
voc ational</w>
r aid</w>
lat est</w>
N C
5 6</w>
discus sion</w>
pres er
Gre at</w>
ut ely</w>
descri ption</w>
sup ported</w>
se ven</w>
tr ou
W ill</w>
fu n</w>
deb t</w>
prepar ation</w>
al ities</w>
man ent</w>
h us
us er</w>
um in
T it
obser ved</w>
z z
D UC
w ers</w>
th i
Fun c
Con ference</w>
Spec ial</w>
direc tion</w>
Swe den</w>
CO UN
M il
quanti ty</w>
c au
a h
open ed</w>
consul tation</w>
ag end
F ree</w>
en largement</w>
foc us</w>
it ems</w>
deli vered</w>
Ex c
fir m</w>
mi um</w>
Re ally</w>
wh om</w>
ne igh
em phas
fo ot
Ch in
form al</w>
clim ate</w>
Joh n</w>
wat ers</w>
satis fac
compens ation</w>
loy ment</w>
r y
le ading</w>
d ates</w>
Direc tor</w>
paren cy</w>
Pol icy</w>
al led</w>
quick ly</w>
me t
En ergy</w>
de gree</w>
char ges</w>
appropri ations</w>
peri ods</w>
L O
N ot
tempor ary</w>
aim ed</w>
198 6</w>
dr ink</w>
some times</w>
S P</w>
5 3</w>
c ast
encour age</w>
s la
nam ely</w>
v a</w>
c m</w>
ap e</w>
sur face</w>
con form
ab s
e tr
mo ving</w>
hur t</w>
sy n
ex ist</w>
mo m</w>
ar ance</w>
centr e</w>
contribu tions</w>
TI C
loc ated</w>
gr ounds</w>
th eless</w>
trans actions</w>
no ted</w>
as king</w>
tra vel</w>
Mo reover</w>
lin ked</w>
li ber
Reg ulations</w>
consequ ences</w>
beli ev
eval u
ul ar</w>
langu ages</w>
cra zy</w>
af raid</w>
r ural</w>
n it
rele ase</w>
fr ing
f ra
As soci
h om
flo or</w>
succ ess</w>
Or gan
in jur
gener ally</w>
ne ws</w>
d ol
r ound</w>
. dll</w>
remain s</w>
D I
enti ty</w>
i ously</w>
en ding</w>
al co
So ci
plac es</w>
exten ded</w>
P AR
5 9</w>
test ing</w>
ou d</w>
agend a</w>
rec ently</w>
bus in
ap preci
str ong
H er
th reat
UNI TIES</w>
con c
5 7</w>
al ised</w>
k in</w>
diffe rences</w>
ear lier</w>
s olutions</w>
m ass</w>
sen si
ver theless</w>
di g
f alling</w>
percent age</w>
M ore</w>
e th</w>
at ur
U K</w>
z one</w>
se x</w>
doub t</w>
op tion</w>
emb ly</w>
pres ents</w>
mach ine</w>
res ol
di um</w>
impro vement</w>
stu ffs</w>
for get</w>
oper ator</w>
fac tor</w>
r an
respec tive</w>
d aughter</w>
Al though</w>
wi d
E ur
speci fic
quot as</w>
loc ation</w>
U N</w>
ne ar</w>
adv ance</w>
COMM UNITIES</w>
e ds</w>
sur vi
fel t</w>
en for
fi b
allow s</w>
si t</w>
rec ord</w>
d i</w>
impro ving</w>
require ment</w>
ri es</w>
regul atory</w>
Chin ese</w>
pro p
m ail</w>
ti tu
eg u
figu res</w>
exce p
3 00</w>
Ke ep</w>
scre en</w>
Austri a</w>
in ter</w>
li min
us ually</w>
Nor th</w>
30 .
he al
sec ur
a b</w>
im posed</w>
us eful</w>
re new
low ing</w>
cri me</w>
am bi
recommen dations</w>
est s</w>
l ess
c ash</w>
pa rent</w>
B ra
m outh</w>
ten der</w>
M ic
us h
F re
V ery</w>
p regn
f ab
de pos
chall eng
m b
vot ing</w>
si zed</w>
ra ise</w>
oc k</w>
ill ance</w>
dest ro
be ar</w>
competi tive</w>
0 3</w>
fa ult</w>
w in</w>
fil m</w>
ul ly</w>
mot or</w>
pri orities</w>
d ged</w>
Op inion</w>
C am
trans parency</w>
fin ance</w>
ver ing</w>
lo s
Pro gramme</w>
d ry</w>
can di
provis ional</w>
cal ling</w>
V al
bene fici
v es
Co de</w>
ke ts</w>
del eted</w>
gir ls</w>
2. 1.
fortun ately</w>
wor th</w>
W il
pollu tion</w>
ex porting</w>
where as</w>
ph ase</w>
Wh ite</w>
insul in</w>
Th e
fiel ds</w>
con ference</w>
0 7</w>
V AT</w>
S ME
y le</w>
or al</w>
pic ture</w>
H ome</w>
pol y
M AR
paren ts</w>
l ink</w>
s pre
exis tence</w>
in struc
har m
play ed</w>
ti ll</w>
H ung
pri mary</w>
we igh
it ch
p il
Un der</w>
T u
pic tures</w>
Qu estion</w>
ish ing</w>
sit es</w>
excell ent</w>
N ations</w>
discus sed</w>
collec tion</w>
E P
dru g</w>
w are</w>
0 4</w>
Gre ek</w>
cam p
an ding</w>
er ation</w>
Un i
av es</w>
Pol and</w>
vis ed</w>
buil d</w>
Con tr
u d</w>
lat ter</w>
198 4</w>
abs ence</w>
st ing</w>
Res earch</w>
hot el</w>
ex plain
S ir</w>
feel ing</w>
Exc use</w>
T V</w>
ref er</w>
therap y</w>
emer gency</w>
v il
commit ments</w>
m icro
innov ation</w>
de p
Fore ign</w>
ag g
o k
e ye</w>
serv ation</w>
F ood</w>
appoin ted</w>
electr icity</w>
id es</w>
SME s</w>
Hi gh</w>
ce re
at om</w>
sle ep</w>
pres ence</w>
w all</w>
Tr ade</w>
s pr
um n</w>
al isation</w>
confir med</w>
gro wing</w>
Agricul ture</w>
facilit ate</w>
custom ers</w>
L eg
c tion</w>
er ship</w>
alterna tive</w>
discrimin ation</w>
pati ent</w>
m ber</w>
ho sp
lic ence</w>
f la
success ful</w>
tr ading</w>
alloc ated</w>
s old</w>
web site</w>
Dem oc
adjust ment</w>
techno logies</w>
me tal</w>
198 0</w>
reason able</w>
y ed</w>
J ud
D r.</w>
reven ue</w>
k a</w>
ri c</w>
Do es</w>
alco ho
T e
p ain</w>
en ed</w>
exper ts</w>
posi tions</w>
Wh ile</w>
Inter net</w>
cle an</w>
S al
veget ables</w>
Man agement</w>
C al
cul ture</w>
test ed</w>
concentr ation</w>
Ac tion</w>
comp re
Ri ghts</w>
M c
st ood</w>
le aving</w>
trans mission</w>
M om</w>
in fring
ne ither</w>
influ ence</w>
b ar</w>
ra w</w>
or i
cohe sion</w>
ri d</w>
ro l
dic tion</w>
stoc ks</w>
id ance</w>
c er</w>
ex plain</w>
198 3</w>
pres sion</w>
substan tial</w>
po or</w>
our th</w>
l ay</w>
perfec t</w>
Proce dure</w>
migr ation</w>
sh ares</w>
g ate</w>
Centr e</w>
j our
au di
em ia</w>
vol un
fi l</w>
F uck</w>
D P</w>
B a
ad a</w>
h ab
con grat
buil t</w>
conce pt</w>
, 000</w>
approxim ately</w>
for ces</w>
saf egu
mar ried</w>
inspec tion</w>
happen s</w>
v o</w>
limin ary</w>
Ap pro
........ ........
enti ties</w>
su itable</w>
ag ents</w>
op h
it es</w>
air craft</w>
bo ys</w>
our selves</w>
ob tain</w>
val id</w>
indic ate</w>
ju dic
mar ks</w>
EC SC</w>
lat eral</w>
invol ving</w>
c as
tel ling</w>
W al
consider able</w>
o ffered</w>
cap able</w>
defin i
t m
con soli
ali ve</w>
Eur atom</w>
Func tioning</w>
car rying</w>
L on
sup porting</w>
W ould</w>
sor t</w>
l ac
j e
en ty</w>
comm itted</w>
F ri
M at
invest ments</w>
do g</w>
D O
N ice</w>
C N</w>
gl y
constitu te</w>
fun d</w>
si ght</w>
clo sely</w>
AT E</w>
W est
Amend ment</w>
dar ity</w>
Cust oms</w>
P O
compre hen
busin esses</w>
conform ity</w>
brea k
v ac
Manu fac
lic ences</w>
we red</w>
Reg ional</w>
Associ ation</w>
de tail</w>
every body</w>
P L
ist an</w>
manufac ture</w>
d ents</w>
hus band</w>
fac ts</w>
leng th</w>
er a</w>
Pro posal</w>
restric tions</w>
mu tual</w>
spir it</w>
are n</w>
pro motion</w>
198 1</w>
dec la
claim s</w>
st ation</w>
hol ders</w>
ar ily</w>
hol der</w>
PRO DUC
recei ving</w>
w w
ev ening</w>
str ai
organiz ations</w>
specific ally</w>
dro p</w>
C z
cat ch</w>
re n</w>
conduc t</w>
S U
tex tile</w>
neigh b
ograph ical</w>
G O
justi ce</w>
au th
prof it</w>
il ing</w>
ffe e</w>
z es</w>
z a</w>
vari ety</w>
eng ine</w>
e ight</w>
impro ved</w>
dur ation</w>
ho od</w>
determin ing</w>
fi x</w>
men tion</w>
ad y</w>
ann oun
al ing</w>
s tic
appe ars</w>
por ters</w>
techno logical</w>
in ser
here by</w>
on y</w>
protec ted</w>
a tically</w>
no tes</w>
temper ature</w>
reg istration</w>
Ge or
del ay</w>
ev ision</w>
ad ver
im ported</w>
S O
hi c</w>
tr ain</w>
e ar</w>
D avi
fe atures</w>
P i
dis h</w>
gre en</w>
t ol
dis pu
gran ting</w>
exam ined</w>
request s</w>
tradi tional</w>
dru gs</w>
part ner</w>
a wa
I I
tim ate</w>
sam ple</w>
A ud
cre ating</w>
c old</w>
Environ ment</w>
extr a</w>
classi fied</w>
statis tical</w>
t oms</w>
elec tions</w>
under standing</w>
re ality</w>
tion ary</w>
f low</w>
bec ame</w>
dra w
ir man</w>
l in</w>
di c</w>
im ag
hum an
be ha
comb ined</w>
adv ice</w>
on ia</w>
st op
do w</w>
ul ate</w>
se at</w>
promot ing</w>
p ap
u ti
z en</w>
pen al
deal ing</w>
fi gh
expres s</w>
Rus sian</w>
o a</w>
Ad di
plan ned</w>
fin ished</w>
O per
selec ted</w>
unic ations</w>
A R</w>
bl ue</w>
ti an</w>
en h
l and
vide o</w>
dev ices</w>
n ames</w>
c ulation</w>
f ro
ag ency</w>
P PE</w>
in ions</w>
B ur
s ex
en ge</w>
any more</w>
ag encies</w>
connec ted</w>
R em
S ure</w>
jo in</w>
T y
i or</w>
p ped</w>
tr a</w>
ke eping</w>
aim s</w>
cons istent</w>
effec tively</w>
fix ing</w>
modi fied</w>
lo an</w>
en ced</w>
competi tiveness</w>
v ine</w>
ch lor
re present</w>
S um
veter inary</w>
B en
TE R
ro c
see k</w>
D am
Sub ject</w>
st ress</w>
f at</w>
discus sions</w>
im age</w>
si vely</w>
2 9
b ing</w>
cl ari
v ere</w>
to ols</w>
li ghts</w>
pre vention</w>
op tions</w>
G oo
vo ice</w>
de ad
streng then</w>
remo ved</w>
we ar</w>
c ell</w>
th u
Sy stem</w>
Lon don</w>
3 1.
recogn ised</w>
af ter
dri ving</w>
CI L</w>
S ar
tro l</w>
erro r</w>
E D
sp ent</w>
stud ents</w>
accompan ied</w>
crimin al</w>
trou ble</w>
pro of</w>
Feder al</w>
F OR
dis orders</w>
spe aking</w>
b ig
rea ties</w>
la un
per manent</w>
justi fied</w>
p p
ap art
v an</w>
pl at
Gre en</w>
Lis bon</w>
discus s</w>
B l
A F
sear ch</w>
ir on</w>
elec omm
COUN CIL</w>
D ate</w>
conflic t</w>
com for
E uro</w>
prepar ations</w>
to m</w>
se vere</w>
purch ase</w>
reg ister</w>
V I</w>
um p</w>
guaran tees</w>
I P</w>
20 .
E ast
quali fied</w>
a x</w>
T i
en joy</w>
pro spec
hou se
198 2</w>
ing u
ord inary</w>
continu ing</w>
uni form</w>
con struc
2 4
wr ite</w>
ri gh
z ing</w>
g ain
some body</w>
m ir
Wh ich</w>
le gi
y ours</w>
ul l</w>
comple x</w>
process es</w>
at eral</w>
dero gation</w>
g ain</w>
mu sic</w>
m unity</w>
fail ed</w>
Pub lic</w>
Sa fety</w>
p sy
e di
guaran te
mechan ism</w>
ac ks</w>
S ur
gover ning</w>
tr ack</w>
def ence</w>
identi fication</w>
ves sel</w>
direc tives</w>
hist or
ell s</w>
inst ance</w>
ish es</w>
se ed</w>
L in
L OR
simp li
mis s</w>
dis tor
no on</w>
decla red</w>
no t
U se</w>
v acc
por ter</w>
beha vi
ac qui
With out</w>
H y
happen ing</w>
in ery</w>
acci dent</w>
particip ate</w>
out come</w>
b es</w>
C O</w>
E lec
be t</w>
ser ve</w>
camp ai
frequ ency</w>
ex es</w>
reduc ing</w>
p ick</w>
C R
artic le</w>
E st
de tec
des er
ag e
re in
T ime</w>
pr us</w>
N O
sec ure</w>
L ab
viol ence</w>
rep ly</w>
sec u
201 8</w>
ac ted</w>
alloc ation</w>
v it
ge ographical</w>
dis posal</w>
dra wing</w>
s is</w>
symp toms</w>
contr ary</w>
loo ked</w>
is ms</w>
d ary</w>
s ell</w>
err ing</w>
J ack</w>
he at</w>
a po
plac ing</w>
ev en
P aper</w>
sk ills</w>
a ur
absol utely</w>
N um
accoun ting</w>
a ff
an al</w>
streng th</w>
Cy prus</w>
perform ed</w>
H on
cl ick</w>
S A</w>
s un
oo t</w>
H old</w>
m emb
classi fication</w>
On ce</w>
D S</w>
ref und</w>
Davi d</w>
tou ch</w>
sam pl
M er
secur ities</w>
ass ess</w>
197 9</w>
immedi ate</w>
finan ced</w>
colleag ues</w>
co vering</w>
i bility</w>
b loc
s li
regar ded</w>
p are</w>
tot ally</w>
exce ption</w>
Fun ds</w>
s man</w>
r a</w>
M A
ye ster
Are a</w>
prin cip
T er
appe al</w>
TI ONS</w>
CF SP</w>
T ri
fe ren
conduc ted</w>
du le</w>
sch o
func tioning</w>
fi f
we ak</w>
respec tively</w>
K o
at e
ec k</w>
refu l</w>
identi fy</w>
es day</w>
j un
im possible</w>
f light</w>
yester day</w>
process ed</w>
fo od
pat ter
part nership</w>
industri es</w>
Hum an</w>
easi ly</w>
C A
jur is
Par is</w>
norm ally</w>
exam ine</w>
acc ur
deli very</w>
clo ser</w>
E very</w>
resid ence</w>
iz ing</w>
er o
sho wed</w>
des pite</w>
f it</w>
com promise</w>
particip ating</w>
D oc
un anim
en t
ISI ON</w>
injur y</w>
al ized</w>
ide as</w>
ane ous</w>
situ ations</w>
ful fil</w>
ti ts</w>
occu r</w>
e en</w>
gen e
h ate</w>
co ol</w>
st ac
Jap an</w>
recor ded</w>
v ital</w>
cop y</w>
determin ation</w>
reg ime</w>
n ia</w>
su b</w>
k ra
fe ar</w>
Fin land</w>
H ot
L oo
exemp tion</w>
East ern</w>
to ol</w>
cr uc
P RE
Secon dly</w>
ap s</w>
b o</w>
2 8
interest ing</w>
S ingle</w>
un d
up id</w>
S am
soli darity</w>
ag s</w>
Th ree</w>
introduc e</w>
Fol lowing</w>
e ded</w>
incorpor ated</w>
C he
1. 2.
ar r
Th us</w>
she et</w>
La w</w>
bir th</w>
P ur
TIN G</w>
in fl
su m</w>
at tr
proper ly</w>
C er
medic ine</w>
s ister</w>
m bo
propor tion</w>
we ather</w>
Serv ice</w>
tab led</w>
me ant</w>
surve illance</w>
re actions</w>
for ced</w>
form at</w>
erro rs</w>
individu als</w>
ex plan
exten d</w>
fu sion</w>
Cz ech</w>
d enti
Rom ania</w>
S ci
bit ch</w>
LOR D</w>
govern mental</w>
p un
3 ,
D ata</w>
tab lets</w>
S ol
op ted</w>
bi tion</w>
confi dence</w>
el ement</w>
recommen dation</w>
ha z
ple as
mark ed</w>
ver si
am a</w>
ter y</w>
cip i
Emp loyment</w>
bel ong
chall enge</w>
op inions</w>
br an
es sive</w>
wor se</w>
clo sure</w>
transi tional</w>
challeng es</w>
le ment</w>
c ast</w>
pass ed</w>
an g</w>
Afr ican</w>
as on</w>
1 50</w>
ris h</w>
Ob jec
manag ed</w>
ref ers</w>
dom in
interpre tation</w>
admin istered</w>
Se a</w>
Mo st</w>
att ack</w>
stat ements</w>
Pro tection</w>
fron ti
sm all
st ore</w>
ur gent</w>
val u
respon sibilities</w>
high est</w>
cell s</w>
M B
titu de</w>
cl es</w>
ai re</w>
tion ally</w>
signific antly</w>
s ick</w>
we ak
di ff
ru b
propos e</w>
pres cri
N L</w>
is c
monit or</w>
cal culation</w>
o to</w>
weap ons</w>
il ies</w>
offici als</w>
th ly</w>
s y</w>
estim ated</w>
P ut</w>
cro s
Y u
pre liminary</w>
co vers</w>
am ing</w>
ad dy</w>
im al</w>
W est</w>
In vest
ear th</w>
re jected</w>
hy po
de fic
manufactu rers</w>
ten ts</w>
secon ds</w>
il legal</w>
Re presen
see ing</w>
end or
tm as</w>
lear ning</w>
pu tting</w>
ac i
Do c</w>
gen u
em ic</w>
W H
design ated</w>
ad verse</w>
B e</w>
pro ve</w>
up date</w>
proper ties</w>
au d
fe der
pow der</w>
fe et</w>
bro ken</w>
speci fications</w>
M ag
ser iously</w>
Tit le</w>
comprehen sive</w>
co al</w>
g t</w>
K E
To day</w>
W el
as su
comb at</w>
techn i
ha gen</w>
l ays</w>
in after</w>
effec tiveness</w>
dr in
ou red</w>
avail ability</w>
C hi
elecomm unications</w>
spe ak
Q U
on a</w>
S E
compe tence</w>
gl ad</w>
-- --
poin ted</w>
sel ling</w>
co ated</w>
Str uc
he aring</w>
app ed</w>
tw ice</w>
Chris tmas</w>
ru p
plic ations</w>
dist ance</w>
br inging</w>
strength ening</w>
represen ted</w>
ad ic
Hel p</w>
organ ic</w>
a .
ra il
B et
2 7
pro te
or ation</w>
su ffici
cen tur
ter ri
Chris t</w>
b ound</w>
it arian</w>
I rish</w>
remain ing</w>
fra ud</w>
An al
ro oms</w>
measu red</w>
s anc
o h</w>
f arm</w>
ur ban</w>
fi es</w>
strai ght</w>
at o
qu es</w>
certific ates</w>
r ich</w>
1 6.
moder n</w>
Contr acting</w>
f ourth</w>
M iss</w>
form ul
ti e</w>
Secret ary</w>
dis charge</w>
A no
bro ad</w>
co des</w>
el led</w>
IT Y</w>
t ary</w>
r ace</w>
dec reas
th ou</w>
Cha mber</w>
cl .</w>
m un
us ual</w>
dimen sion</w>
F I
st able</w>
here inafter</w>
or ial</w>
R ap
under taken</w>
D an
0 9</w>
l uc
dest ination</w>
super vision</w>
Ad min
install ation</w>
ur ch</w>
f em
ne ed
o do
E gy
de ep</w>
St and
C ould</w>
TH OR
S T</w>
in ations</w>
sec ret</w>
po ul
car bon</w>
omen cl
he y</w>
n ical</w>
A h</w>
de emed</w>
fin ding</w>
ten ing</w>
boo ks</w>
R ob
stri al</w>
re ve
el d</w>
re presents</w>
ple ased</w>
pl om
tur ns</w>
M ul
In de
chang ing</w>
ar ising</w>
enfor cement</w>
Mor ning</w>
k i</w>
po ver
per spec
C open
s in
ag ent</w>
medic ines</w>
Mon etary</w>
F ac
s wit
Every thing</w>
pen etr
E r
bar ri
victi ms</w>
ati n</w>
op tim
al le
ti ous</w>
en ab
hu ge</w>
U kra
AU THOR
- I</w>
rec ital</w>
sol ve</w>
incre ases</w>
cere als</w>
sub jects</w>
r oun
cons ci
fun ny</w>
ex ha
P s</w>
fic ial</w>
t ack
omencl ature</w>
Copen hagen</w>
reser ve</w>
mach inery</w>
M e</w>
C re
es sions</w>
ass ist</w>
selec tion</w>
Nor way</w>
strateg ic</w>
Su ite</w>
EF TA</w>
infec ted</w>
s ory</w>
W om
tax es</w>
E ar
cri tical</w>
per mit</w>
wee k
el li
t ment</w>
b orders</w>
main tained</w>
fri end
st upid</w>
do s
M an</w>
F ish
mid dle</w>
t ree</w>
juris diction</w>
win dow</w>
valid ity</w>
sh ared</w>
ho st</w>
M any</w>
CH AP
spo t</w>
los ses</w>
tax ation</w>
ar ch
A le
pre viously</w>
ash ing</w>
Des cription</w>
v ul
M id
conclu de</w>
ti ally</w>
ess ing</w>
a qu
bu s</w>
tor al</w>
D A</w>
dise ases</w>
ar ded</w>
h a</w>
supp lied</w>
cre te</w>
acc o</w>
ox ide</w>
E duc
ick ness</w>
res ses</w>
g old</w>
s ity</w>
CHAP TER</w>
mar ily</w>
dis tin
fam ilies</w>
au l</w>
Ad opted</w>
hon ourable</w>
1 4.
ar d
S ha
subsequ ent</w>
thre sh
part ments</w>
sensi tive</w>
noti fy</w>
si bly</w>
s cri
C ur
IN AL</w>
d ance</w>
tel evision</w>
hosp ital</w>
Re ference</w>
sign s</w>
enti rely</w>
n one</w>
shor t
spre ad</w>
nation als</w>
DEC ISION</w>
amen d</w>
co ffee</w>
1 5.
transi t</w>
judic ial</w>
G DP</w>
A .
pe ti
comple tion</w>
th room</w>
thre at</w>
2 8.
ad es</w>
it or</w>
sh op</w>
food stuffs</w>
M O
at us</w>
gar ia</w>
Ma ke</w>
sh oot</w>
G o
S ho
In dia</w>
cau ght</w>
tain s</w>
spe ech</w>
z o
ut ch</w>
L ow</w>
out put</w>
M S</w>
F l
du m</w>
lin ks</w>
lic en
cruc ial</w>
re move</w>
is ely</w>
Ano ther</w>
relev ance</w>
al ization</w>
al leg
mis es</w>
compon ent</w>
Yu go
li ons</w>
J er
veri fication</w>
ra in</w>
as tic</w>
com po
pri marily</w>
a th
Ru le</w>
Bul garia</w>
US E</w>
cre d
Y or
Trans port</w>
att ached</w>
pre pare</w>
pow er
hon ey</w>
li ver</w>
plan e</w>
Addi tional</w>
P H
te en</w>
pover ty</w>
s mar
incre as
cy cle</w>
An g
bi an</w>
Reg ions</w>
bur den</w>
G ro
C i
ul ts</w>
cr y
ca reful</w>
assess ed</w>
communic ations</w>
r ail</w>
din ner</w>
stitu tion</w>
hel ped</w>
a ffairs</w>
a c</w>
C C
alcoho l</w>
man date</w>
ing er</w>
E T
mo ved</w>
197 5</w>
2 3
prohi b
hel ping</w>
under lying</w>
N i
fur n
dol l
M r
pl ate</w>
is ted</w>
Yugo sla
M ac
app a
Ap pen
s ca
Portu gu
Direc tives</w>
k m</w>
it ely</w>
of the</w>
radi o</w>
lin ed</w>
depend ent</w>
Slo v
coun ter</w>
fav ourable</w>
ri de</w>
n ine</w>
dang er</w>
D IC
cent res</w>
E d
a p</w>
tour ism</w>
selec t</w>
v is</w>
Manufac ture</w>
w ind</w>
bu tt
adver ti
un g</w>
ob serv
mis sed</w>
a i</w>
commit tees</w>
n om
Re ad</w>
approxim ation</w>
produc ing</w>
mo vi
instruc tions</w>
A ir</w>
Ch eck</w>
unic ip
sett lement</w>
ag ue</w>
ad vis
heav y</w>
gener ation</w>
allow ing</w>
li day</w>
ul ture</w>
itch en</w>
li ability</w>
Num ber</w>
EI B</w>
4 00</w>
am az
M ex
terroris m</w>
l o</w>
easi er</w>
invol ve</w>
or g
L uc
fib res</w>
C ity</w>
let ters</w>
ba g</w>
an der</w>
diffe ren
ligh ting</w>
1. 4.
for d</w>
ac ked</w>
cap e</w>
th ir
ci ties</w>
G ot</w>
gr y</w>
L oc
bur g</w>
compar ison</w>
A .</w>
Portugu ese</w>
c ru
adop ting</w>
Hot el</w>
mechan isms</w>
sus pec
hand ling</w>
p ig
Un der
t ance</w>
sh ut</w>
t ings</w>
Slo ven
hand le</w>
fin dings</w>
fo ot</w>
b ia</w>
equ ality</w>
S wit
d am</w>
P at
hy dr
O m
sequ ently</w>
M ari
p p</w>
presid ency</w>
apart ment</w>
Sh it</w>
so ft</w>
bo x
vis ual</w>
IS ATION</w>
Secon d</w>
C B</w>
deal t</w>
DE N
becom ing</w>
S .</w>
um s</w>
s pend</w>
Ham ster</w>
tor ate</w>
identi ty</w>
f are</w>
A ir
o logy</w>
di x</w>
2 6
T reaties</w>
rati o</w>
elec ted</w>
rul ing</w>
claim ed</w>
di plom
S m
dis ci
ur s</w>
mar gin</w>
UNI ON</w>
adv anced</w>
ir ing</w>
any way</w>
r ats</w>
our ing</w>
ab sor
deleg ation</w>
figh ting</w>
N ame</w>
er g
unic ation</w>
any body</w>
person nel</w>
197 8</w>
di versity</w>
plac ement</w>
I L
pos ing</w>
comp il
custom er</w>
ang le</w>
larg est</w>
tr ic
me rely</w>
int elli
comp ul
ari at</w>
cour ses</w>
F oun
al ists</w>
inten tion</w>
experi enced</w>
conver sion</w>
l ay
di ag
b om
col umn</w>
O ver</w>
O U
st one</w>
d ress</w>
ust ed</w>
In t
at ell
to b
great est</w>
x Hamster</w>
t elecommunications</w>
in cur
ref unds</w>
aspec t</w>
ar ding</w>
S k
Fish eries</w>
uni que</w>
P S</w>
beg an</w>
Aud itors</w>
s low</w>
Ann exes</w>
le v
R ome</w>
0 s</w>
ess ed</w>
wor st</w>
D utch</w>
C L
b ye</w>
char ged</w>
U m</w>
acc omm
sus pension</w>
par atus</w>
lab elling</w>
ob viously</w>
Some thing</w>
supple mentary</w>
Con trol</w>
tu red</w>
ell a</w>
supp lies</w>
bo at</w>
in ts</w>
G H
con crete</w>
lo ad
S il
st ed</w>
V ice</w>
Hung ary</w>
ster n</w>
cho sen</w>
sp here</w>
increas ingly</w>
particip ants</w>
electr ic</w>
deri v
G ar
there by</w>
b un
Cap tain</w>
inst alled</w>
dra f
2 9.
exclu ded</w>
ref ully</w>
dri ver</w>
Cro ati
Struc tural</w>
en vis
f ell</w>
c um
su e</w>
ob stac
c ore</w>
MAR KE
c ars</w>
re forms</w>
propor tion
rea u</w>
achiev ing</w>
F il
SP EC
congrat ulate</w>
pen ds</w>
sci ence</w>
M E</w>
reflec t</w>
he ar
rap id</w>
indic ators</w>
sum mer</w>
un able</w>
s wee
Leg al</w>
scho ols</w>
197 7</w>
buil dings</w>
gl uc
B N</w>
parlia mentary</w>
po t
manufac turing</w>
st yle</w>
re tail</w>
Me as
bi le</w>
tob acco</w>
charac ter</w>
ec es</w>
Th ird</w>
see king</w>
inv ited</w>
stan tly</w>
F ile</w>
deli ver</w>
collec ted</w>
c in
Yor k</w>
P en
expres sion</w>
attemp t</w>
O G
ol es
lad y</w>
pos t
St ay</w>
inv itation</w>
man age</w>
2 4.
n ation</w>
al lo
z e
vot es</w>
mur der</w>
fe ed
acc es
y ar
sti mul
S cot
play ers</w>
X X
de ep
recor ds</w>
work er</w>
in hi
mo bility</w>
passeng er</w>
collec tive</w>
d den</w>
en em
back ground</w>
tre at</w>
ce p
AUTHOR ISATION</w>
19 .
re di
consis ten
cons ists</w>
hy per
ca refully</w>
becom es</w>
com ment</w>
l uck</w>
di an</w>
S w
il st</w>
fac ing</w>
6 00</w>
gr ants</w>
v ail
con vin
S how</w>
10 7</w>
ap paratus</w>
w ishes</w>
sugg est</w>
Sh ut</w>
achi e
stan ds</w>
guarante ed</w>
sec tions</w>
Educ ation</w>
C le
US A</w>
con t</w>
hol ds</w>
Min istry</w>
man i
I AL</w>
Mr s.</w>
2 2
ili ation</w>
can cer</w>
occu p
ren ess</w>
tr ial</w>
sc en
transf erred</w>
om men
the tic</w>
o ts</w>
n ar
eng aged</w>
S C
O ver
d red</w>
vie wed</w>
L t
bil ateral</w>
ing redi
Wor king</w>
thous ands</w>
F ine</w>
I C</w>
Elec tr
Al so</w>
bal anced</w>
L ast</w>
subsi dies</w>
sy r
li ers</w>
inclu sion</w>
be ef</w>
the e</w>
res olutions</w>
dar k</w>
cre w</w>
n ings</w>
col labor
proce ed</w>
penetr ation</w>
Sh ould</w>
Com p
re action</w>
Uni versity</w>
no logy</w>
al ism</w>
po ol</w>
cu rement</w>
heal thy</w>
trans action</w>
ame ter</w>
fab r
ph os
a ward</w>
invol vement</w>
dat ab
demonstr ated</w>
mis take</w>
dy nam
gr ade</w>
respon d</w>
C o</w>
Pe ter</w>
sign al</w>
Fr amework</w>
r an</w>
inv o
er ated</w>
appreci ate</w>
re ti
organ ised</w>
res sing</w>
dem ands</w>
p ical</w>
rela tively</w>
Chris tian</w>
m .</w>
exp an
dec re
au dit</w>
ro se</w>
refu ge
pil ot</w>
explain ed</w>
larg er</w>
In dividu
c ab
tri p</w>
B rit
S en
el e
an o</w>
popul ar</w>
soli d</w>
Ab out</w>
Produc ts</w>
H en
2 7.
tex ts</w>
Op en</w>
indic ation</w>
N ever</w>
stre et</w>
mix ed</w>
W ow</w>
l en
Wom en</w>
inter medi
Belgi an</w>
pa tional</w>
no ise</w>
mat ure</w>
fac ility</w>
docu mentation</w>
sc r
fin ish</w>
p y
F o
elec tion</w>
Mar ket</w>
in d
territ ories</w>
hun dred</w>
mo bile</w>
sugg est
ex ported</w>
sh ape</w>
is land</w>
ren al</w>
Invest ment</w>
eng ine
M us
es h</w>
1 3.
prec isely</w>
ograp hic</w>
certi fication</w>
is ol
pack aging</w>
regul arly</w>
exis ts</w>
rou te</w>
sul ph
o ils</w>
defic it</w>
pos sibly</w>
b y
autom atically</w>
V e
s outh</w>
desi r
deri ved</w>
de ter
Appen dix</w>
f al
Ass embly</w>
ac tors</w>
Ne vertheless</w>
he ads</w>
appe ared</w>
Ac tually</w>
C as
offic er</w>
ay ed</w>
speci ally</w>
o gen
it als</w>
renew able</w>
sh ar
up dated</w>
ca uses</w>
Con sequently</w>
candi date</w>
Rec ommen
M icro
tar gets</w>
dig ital</w>
S atur
go al</w>
colle ge</w>
memb ership</w>
tur ning</w>
resi du
secon dary</w>
IC AL</w>
on ed</w>
fla g</w>
I ra
af let</w>
restric ted</w>
v ill
ni e</w>
excep tional</w>
cha in</w>
em ission</w>
off ering</w>
ME DIC
satisfac tory</w>
D ar
ru ption</w>
e a</w>
wil ling</w>
ob ject</w>
end ar</w>
presen tation</w>
st ant</w>
d ating</w>
equip ped</w>
pul l</w>
B ye</w>
tren d</w>
gu idance</w>
per form</w>
passeng ers</w>
inter ven
gro ss</w>
r ice</w>
be aring</w>
I cel
awa reness</w>
V I
K ore
cut ting</w>
e ties</w>
plic ation</w>
s ac
A id</w>
s aving</w>
c hapter</w>
form ing</w>
satis fied</w>
compul sory</w>
Ukra ine</w>
ro ll</w>
win ds</w>
suff ering</w>
B on
th es</w>
sho wing</w>
farm ing</w>
th es
T A
st ages</w>
20 20</w>
B oth</w>
m on</w>
I ts</w>
et e</w>
pris on</w>
constitu tes</w>
as sum
con dem
gg ing</w>
Tech nical</w>
but ter</w>
flex ibility</w>
incur red</w>
en ded</w>
sol ely</w>
S am</w>
ti me
cri tic
oper ated</w>
Per haps</w>
ap art</w>
behavi our</w>
isc al</w>
won der</w>
pl en
b lock</w>
K ing</w>
swe et</w>
certain ty</w>
rest aur
e uro
Inde ed</w>
communic ate</w>
sup ports</w>
sca red</w>
West ern</w>
consis ting</w>
h tt
pregn ant</w>
lo ro
re mind</w>
W as</w>
re place</w>
cul ar</w>
m ation</w>
no body</w>
is ter
phos ph
Lt d</w>
Swit zer
sh ouldn</w>
v ince</w>
lis ts</w>
Nor thern</w>
volun tary</w>
advant ages</w>
Me dic
sen tence</w>
St u
human itarian</w>
2 1.
B lack</w>
s ons</w>
.. ..</w>
mon o
fl at</w>
ha m
as signed</w>
desi re</w>
ma d</w>
lan tic</w>
hou ses</w>
B as
car ds</w>
F IC
i ve</w>
ill er</w>
divi ded</w>
recommen d</w>
aw arded</w>
perspec tive</w>
tel e
small er</w>
Switzer land</w>
defin e</w>
hab it
ann y</w>
k itchen</w>
centur y</w>
ex cl.</w>
Objec tive</w>
n ur
any where</w>
sam ples</w>
MEDIC INAL</w>
ist ant</w>
lo b
Swe dish</w>
ti ci
dre am</w>
T ext</w>
C at
genu ine</w>
adjust ments</w>
D F</w>
defin itely</w>
contin ues</w>
i ding</w>
at titude</w>
ha m</w>
P C
Li thu
ch e</w>
out standing</w>
gr and
10 00</w>
w age</w>
ti v
speci fy</w>
some where</w>
qu ick</w>
18 .
occur red</w>
MB ER</w>
p ath</w>
author ized</w>
p ping</w>
fo res
am ine</w>
4 ,
Gi ven</w>
me an
der ful</w>
rele ased</w>
st e</w>
vers al</w>
L ea
suc ce
got ten</w>
ch ron
Pal est
N A</w>
c are
adjust ed</w>
thous and</w>
m ol
multi ple</w>
L ad
suffici ently</w>
appoin tment</w>
confir m</w>
in y</w>
har d
sav ed</w>
decre ase</w>
stop ped</w>
IS BN</w>
Af gh
le aves</w>
In stance</w>
con sign
M IN
ti tle</w>
with draw
prom ised</w>
affec ting</w>
so dium</w>
H er</w>
de duc
O ut
r are</w>
super visory</w>
rub ber</w>
sum mary</w>
ne u
197 6</w>
sti pul
gu ide</w>
No s</w>
trans parent</w>
N on</w>
under stood</w>
mem ory</w>
dis tur
subm ission</w>
su n</w>
li t</w>
ic o</w>
Foun dation</w>
st al</w>
exp iry</w>
ven ture</w>
pi eces</w>
electr ical</w>
er i
campai gn</w>
H or
flex ible</w>
Tur k
per mitted</w>
circ ulation</w>
benefici ary</w>
co operate</w>
quali fications</w>
fo rec
perfec tly</w>
Wh atever</w>
stic k</w>
T O
con servation</w>
s ought</w>
nor th</w>
surve y</w>
p aying</w>
investi g
D R</w>
inten d</w>
s h</w>
consider ing</w>
occa sion</w>
M y
cel e
pe op
so il</w>
associ ations</w>
after noon</w>
syst em
exclu sive</w>
avi r</w>
s .
p ir
desir able</w>
umin ium</w>
vi g
U B
be at</w>
N U
V ir
17 .
bra in</w>
U p
Not e</w>
ma tic</w>
cour ts</w>
power ful</w>
3 8
mag ne
eng en</w>
ha el</w>
do ses</w>
Egy pt</w>
PE R
sus pen
ac knowle
Comm unication</w>
Sch engen</w>
ma ster</w>
col or</w>
E m
difficul ty</w>
as yl
ob vious</w>
en jo
Y ah
initi ated</w>
impro vements</w>
is o
expen ses</w>
u re
inser ted</w>
chec ked</w>
In iti
Mo ve</w>
exc essive</w>
demonstr ate</w>
ast s</w>
i ans</w>
princip al</w>
amaz ing</w>
we h</w>
sex ual</w>
st airs</w>
s ounds</w>
2 2.
m in</w>
fel low</w>
prescri bed</w>
i re</w>
we b</w>
infec tion</w>
acqu is
ten d</w>
bud sman</w>
R A
disci pl
fl ying</w>
Indu strial</w>
appe arance</w>
te aching</w>
R ed</w>
war ning</w>
w o
lo dged</w>
Yah weh</w>
independ ence</w>
prec au
der ly</w>
un employed</w>
it ec
H A
kin ds</w>
hol dings</w>
com position</w>
ass et</w>
g ri
ci vil
defini tive</w>
asyl um</w>
2 3.
Sim il
f ly</w>
yl ene</w>
rela tive</w>
S peci
thin ks</w>
Trans fer</w>
p al
Fri day</w>
complain t</w>
ke ys</w>
Min utes</w>
ess or</w>
enter prise</w>
Ste el</w>
prog res
el ine</w>
lo ved</w>
educ ational</w>
F orm
s ligh
evi l</w>
par tly</w>
Char ter</w>
em ail</w>
p ack</w>
R en
F ather</w>
N et
pro curement</w>
mat ch</w>
compar able</w>
de pends</w>
K ar
at tribu
contr acting</w>
meth odo
htt p</w>
cot ton</w>
B us
gro w</w>
Inter nal</w>
ous ness</w>
b one</w>
bot tom</w>
ash ed</w>
bo ss</w>
Pro f
omm y</w>
pro file</w>
ful filled</w>
l ap
f ts</w>
transf ers</w>
Can ada</w>
y outh</w>
st abil
hel ps</w>
Satur day</w>
pos ite</w>
vis ions</w>
ol der</w>
tri als</w>
m unicip
li abilities</w>
friend ly</w>
parti al</w>
lo ts</w>
rec ep
ic als</w>
measu rement</w>
ox y
si mul
ac her</w>
S hi
No body</w>
Croati a</w>
lab el</w>
butt on</w>
innov ative</w>
st ations</w>
ten tion</w>
tal ked</w>
With in</w>
emp ha
recei pt</w>
mar i
s co
mod els</w>
leg ally</w>
concentr ations</w>
Some times</w>
ve re
l d
Sup ple
g un
un acceptable</w>
St anding</w>
st ressed</w>
th row</w>
d il
hor iz
M u
ass ur
contro l
s pon
A gen
infring ement</w>
B s</w>
repe at</w>
tr ies</w>
fabr ics</w>
le aflet</w>
pe ac
He ad</w>
en ted</w>
j a</w>
Bo s
meth yl</w>
Par t
nu tri
ful fil
occu pational</w>
b ought</w>
wil d</w>
g est</w>
s an
Con sum
them a
co o
C AS</w>
Dam n</w>
1 30
1 20</w>
ste in</w>
de ar</w>
ATI ONS</w>
spo ke</w>
liqui d</w>
Produc t</w>
quar ter</w>
multi lateral</w>
UR E</w>
transi tion</w>
sch ed
un k</w>
Agricul tural</w>
kid ding</w>
y cl
P a
B ack</w>
wat er
cal endar</w>
ai ds</w>
fro zen</w>
hou sing</w>
im migration</w>
k n
bo vine</w>
prec ise</w>
r ad
Dec lar
where by</w>
hydro x
exclu sively</w>
techni ques</w>
C S
n ations</w>
min im
R ural</w>
protec ting</w>
sampl ing</w>
vi et</w>
lo ading</w>
pos sibilities</w>
exper t</w>
ph oto</w>
d less</w>
cle an
for th
Do wn
mis sions</w>
peop les</w>
moder n
Stand ard</w>
in direct</w>
W TO</w>
f ill</w>
di vision</w>
3 7
uti li
Fir stly</w>
Pub lic
C P
d ding</w>
t an
sh are
- You</w>
atell ite</w>
x th</w>
V E
Ch il
he pati
z y
au ton
o ro
f iscal</w>
compil ation</w>
de pending</w>
D on
B Y</w>
2 50</w>
emphas is</w>
L atin</w>
f ail</w>
head ings</w>
DE R</w>
car b
argu ment</w>
accomm od
sid y</w>
issu ing</w>
eg gs</w>
2. 2.
Om budsman</w>
um es</w>
Comm un
fa ith</w>
Gu idelines</w>
sa ke</w>
cl ou
Bra z
nam ed</w>
do gs</w>
pres sed</w>
plas tic</w>
a side</w>
ri g
laun ched</w>
2 6.
fish ery</w>
employ ers</w>
N ext</w>
So viet</w>
fac es</w>
u n</w>
ang er</w>
play er</w>
r ating</w>
dis sem
S pe
alle l</w>
rou gh</w>
in ven
se as</w>
S un
pre mium</w>
strong ly</w>
spr ing</w>
stud ent</w>
L im
sh aring</w>
s a</w>
ow ned</w>
Ex ecu
jun ction</w>
strateg ies</w>
Bu reau</w>
fe es</w>
v als</w>
ke ep
wid th</w>
barri ers</w>
ce iling</w>
smar t</w>
imag ine</w>
not ably</w>
Serv ices</w>
Every one</w>
mar g
autom atic</w>
eng ines</w>
Mal ta</w>
ans wers</w>
produc tive</w>
z i
bir ds</w>
z ones</w>
luc ky</w>
vis ible</w>
t ac
flow ers</w>
pr oud</w>
w est</w>
rail way</w>
S he
re cipi
Ty pe</w>
C ause</w>
withdraw al</w>
announ ced</w>
5 0
se where</w>
tal ks</w>
Mid dle</w>
no ver</w>
ed ly</w>
ba throom</w>
col our</w>
chlor ide</w>
won derful</w>
im pose</w>
C E
T ro
Ma j
L ar
rel ate</w>
m el
I U</w>
pos s
ak ia</w>
adverti sing</w>
necess arily</w>
ne arly</w>
fac tory</w>
labor atory</w>
S .
pleas ure</w>
cle arance</w>
im bur
AM E</w>
reli able</w>
ot ing</w>
TI VE</w>
Rem ember</w>
Ear th</w>
C all</w>
the ory</w>
St ar
31. 12.
ho le</w>
Acc ession</w>
prepar ing</w>
par k</w>
The ir</w>
real ize</w>
Turk ish</w>
fem ale</w>
s pending</w>
V II</w>
Wel come</w>
w ro
cl ause</w>
kil ling</w>
con tents</w>
cha ir</w>
T im
fam ous</w>
Bar cel
tru ly</w>
orig in
consider ations</w>
reg ret</w>
fac ed</w>
assu me</w>
sur roun
convin ced</w>
Wor k</w>
absol ute</w>
sk i</w>
ri ver</w>
es ome</w>
s per
continu ous</w>
auton om
offic es</w>
it ability</w>
Mic hael</w>
ing ton</w>
bri dge</w>
sum mit</w>
wor ried</w>
de par
ur s
Sta ff</w>
p ages</w>
P SE</w>
diag no
fu els</w>
ban king</w>
de partments</w>
op position</w>
ame ters</w>
ab ol
plas ma</w>
pl ays</w>
T S
a er
di tion</w>
et te</w>
mil lions</w>
G F</w>
manufactu red</w>
m it
Ber lin</w>
inde x</w>
represen ting</w>
comm and</w>
PRODUC T</w>
wat ching</w>
te dly</w>
val uation</w>
ill u
pro ved</w>
sy mbo
cast ing</w>
agg reg
T un
ma p</w>
repe aled</w>
subsequ ently</w>
st ar</w>
S an
repe aling</w>
b uc
ten ed</w>
clo thes</w>
appro ve</w>
f alls</w>
w oo
observ ations</w>
introduc ing</w>
M m</w>
jo in
pu ts</w>
program s</w>
he ating</w>
p ra
e dule</w>
m 2</w>
acc el
acci dents</w>
el sewhere</w>
- What</w>
we ird</w>
we ren</w>
Str ateg
sanc tions</w>
sti c</w>
h as
cam era</w>
prohib ited</w>
fo li
ex hi
so le</w>
dead line</w>
mo vements</w>
sur g
she ets</w>
en ever</w>
ar ise</w>
le ads</w>
shi ft</w>
app ing</w>
PR C</w>
allow ances</w>
acces sible</w>
B ab
dis play</w>
W ar
li ved</w>
squ are</w>
re vised</w>
gr av
Soci alist</w>
TH ER</w>
se ment</w>
econom ies</w>
h t</w>
contin uation</w>
com plic
Sum mit</w>
S c
nat ur
e ing</w>
regul ated</w>
I .
10 0
G U
F R
for th</w>
re turned</w>
terri ble</w>
tu s</w>
tren ds</w>
g am
f ast
enti ally</w>
b oun
de partment</w>
need le</w>
Organ isation</w>
Wat ch</w>
arrang ement</w>
acqui red</w>
Ma x
P aul</w>
main taining</w>
A gent</w>
ar my</w>
Mo roc
arm ed</w>
th r
do ors</w>
pris on
movi e</w>
K en
lo sing</w>
Ir an</w>
Fr ank</w>
ster dam</w>
colleag ue</w>
lo t
accep tance</w>
yar n</w>
con stant</w>
B or
am p</w>
a e</w>
mis sible</w>
S ou
st ers</w>
pris ing</w>
Fur ther</w>
re mun
allow ance</w>
L ist</w>
ing e</w>
har m</w>
tail s</w>
pursu e</w>
wh ilst</w>
fe els</w>
id ly</w>
par allel</w>
ber g</w>
remo val</w>
se t
safegu ard</w>
S S</w>
mil es</w>
ques tion
in dent</w>
Un fortunately</w>
there to</w>
p en</w>
presid ent</w>
coord inated</w>
Ex ternal</w>
satis fy</w>
Am sterdam</w>
un fortunately</w>
cont acts</w>
A sia</w>
re imbur
Su per
H a
fo rest</w>
re ferences</w>
patter n</w>
sou l</w>
ann els</w>
du ly</w>
mari time</w>
legi timate</w>
am ate
ser ved</w>
2 5.
is ions</w>
wro te</w>
er ate</w>
qui et</w>
Execu tive</w>
protec tive</w>
fe e</w>
cre di
An imal</w>
Barcel ona</w>
P ati
mar ine</w>
Euro system</w>
Declar ation</w>
nu ts</w>
invol ves</w>
mul ti</w>
m al</w>
sol di
at mo
su ffered</w>
en orm
b ourg</w>
boo king</w>
prin t</w>
gh t
lam p</w>
r is</w>
bor ne</w>
Some one</w>
wel fare</w>
f a</w>
ac king</w>
inter im</w>
inst all</w>
e .</w>
indic ations</w>
B E</w>
am p
equ ally</w>
CA P</w>
bro ke</w>
ow ner</w>
ad ult</w>
Institu te</w>
on to</w>
gly ca
am ong
thresh old</w>
dis cre
conver gence</w>
harmon ization</w>
Lad ies</w>
ro b
f air
po l</w>
deriv atives</w>
ap h
form ats</w>
fe ature</w>
encour aging</w>
ta r</w>
remain ed</w>
subsidi arity</w>
obli ged</w>
B .</w>
pr ised</w>
res istance</w>
ell ec
restric tive</w>
acti v
addi tives</w>
0 2
plac e
un t</w>
consequ ence</w>
inten ds</w>
per cent</w>
dispu te</w>
ar dis
an ian</w>
lead er</w>
cele br
in duc
y al</w>
num erous</w>
i di
Rap porteur</w>
Be sides</w>
H u
st o
gu il
il et</w>
down load</w>
gram s</w>
a .</w>
B R
citiz en</w>
ST R
bri ef
a f</w>
supp liers</w>
ingredi ents</w>
D ef
es tions</w>
in tra</w>
clu b</w>
sligh tly</w>
lead ers</w>
mo de</w>
reser ves</w>
b a</w>
el low</w>
comb ating</w>
G ra
res cu
recogn ized</w>
compati bility</w>
reli gi
8 00</w>
G l
me tab
cont am
decreas ed</w>
on going</w>
envis aged</w>
in put</w>
m ale</w>
a u</w>
MARKE TING</w>
Y ear</w>
tab les</w>
f at
bu ying</w>
in no
go d
ol ly</w>
d or
exam ples</w>
Ira q</w>
. com</w>
re aching</w>
V is
sk y</w>
among st</w>
veget able</w>
4. 4</w>
acc ess
bir th
G ames</w>
metab ol
V en
sub stitu
T om</w>
ex posed</w>
sav ings</w>
ne vertheless</w>
Au str
tur nover</w>
mo stly</w>
tar ge
hi de</w>
it ations</w>
Geor ge</w>
as sive</w>
P ress</w>
k ings</w>
wa ke</w>
Every body</w>
Stat ute</w>
rep air</w>
br ings</w>
refuge es</w>
E s
Individu als</w>
T ariff</w>
Afgh an
IN DE
us al</w>
rec ru
whe at</w>
co ck</w>
prote in</w>
t emp
ag er</w>
Amend ments</w>
st a
IS O</w>
D IS
D addy</w>
an nel</w>
Anal ysis</w>
ol f</w>
ex ed</w>
B an
sp ac
par ameters</w>
k o
suspen ded</w>
hor se</w>
TE N
Secret ariat</w>
Gre en
fam ili
Wh e
Ko so
datab ase</w>
G al
G AT
FOR M
1 1
vari able</w>
di tions</w>
han g</w>
Lithu ania</w>
Str as
R ev
gi a</w>
w eg
Direc torate</w>
consul tations</w>
trans lation</w>
ri a</w>
bus y</w>
el et</w>
rap idly</w>
amate ur</w>
Yugosla via</w>
sur name</w>
execu tion</w>
B ir
g ment</w>
equ ity</w>
cons ensu
Democ ratic</w>
DEN T</w>
en a</w>
Res olution</w>
jud ge</w>
Afghan istan</w>
Wat er</w>
Mi ke</w>
ass embly</w>
M et
pat ch</w>
sub sidy</w>
co oper
&apos; am</w>
won dering</w>
Wh oa</w>
ha emo
Ex ce
poul try</w>
prin ted</w>
organ ized</w>
Ne w
harm ful</w>
Tra ining</w>
so vere
y ers</w>
prec eding</w>
Th ir
provi ders</w>
si m
p ts</w>
obstac les</w>
D ou
ul ed</w>
acquis ition</w>
Ann ual</w>
tab let</w>
ment ally</w>
valu able</w>
spo ken</w>
ex pi
J ames</w>
D r
le ather</w>
fif th</w>
and a</w>
t les</w>
C N
w ns</w>
ti red</w>
re ci
Char lie</w>
SPEC IAL</w>
pr ic
P T</w>
Jo e</w>
pu ty</w>
in ian</w>
benefici aries</w>
victi m</w>
vi al</w>
larg ely</w>
cli ent</w>
0 3.
A l</w>
Po li
ex changes</w>
Bi g</w>
harm ac
con junction</w>
cha irman</w>
B il
ro lled</w>
INDE X</w>
under take</w>
peti tion</w>
ten sion</w>
cre am</w>
se ason</w>
st at</w>
v ous</w>
i ii</w>
adap t</w>
Brit ain</w>
rel ates</w>
argu ments</w>
PH AR
re vision</w>
R y
righ tly</w>
intelli gence</w>
gluc ose</w>
V III</w>
it a</w>
o live</w>
exten ding</w>
Admin istr
lit er
sc ene</w>
Nor weg
zer o</w>
up per</w>
destro y</w>
p ush</w>
imp air
comfor table</w>
ar di
ir t</w>
T E</w>
infl ation</w>
her it
tr uck</w>
psy cho
im plications</w>
St re
tra ffic
recogn ize</w>
de tection</w>
bre ach</w>
go od
natur ally</w>
veri fy</w>
see ds</w>
emp ty</w>
AN CE</w>
propos es</w>
L A
stre am</w>
sur prise</w>
PRE SI
supp lier</w>
vul ner
Del eg
C H</w>
distribu ted</w>
hon est</w>
respec ted</w>
Pri me</w>
C op
L it
sh oul
scen ari
e ast</w>
Gu aran
li f
M P</w>
re ments</w>
f itted</w>
lic k</w>
b low</w>
ai ry</w>
lear ned</w>
3 6
he ight</w>
exclu sion</w>
12 34</w>
F ig
C ateg
P an
Con stitution</w>
B en</w>
Stras bourg</w>
house hold</w>
bri ef</w>
c lock</w>
histor ical</w>
la unch</w>
ref erring</w>
197 3</w>
situ ated</w>
pro tocol</w>
3 2
P res
st ored</w>
me al</w>
ch urch</w>
At lantic</w>
quar ters</w>
re min
war m</w>
Cha irman</w>
ac tor</w>
cu ts</w>
Reg istration</w>
stric t</w>
s in</w>
ri age</w>
i red</w>
bel ong</w>
Bo x</w>
D ay</w>
m id</w>
Tu esday</w>
cl asses</w>
L ou
gen der</w>
frequ ently</w>
flow s</w>
sh ap
arch itec
im ages</w>
Is lands</w>
suggest ed</w>
wal king</w>
ref use</w>
Koso vo</w>
com ed</w>
an o
PRESI DENT</w>
n esses</w>
O F
port ation</w>
consensu s</w>
W ed
S R</w>
P OR
drin king</w>
E AG
big gest</w>
pay able</w>
is ations</w>
P ic
M ary</w>
F ind</w>
applic ants</w>
Dec isions</w>
T al
sch edule</w>
deli ber
t ine</w>
acqu is</w>
Norweg ian</w>
mar king</w>
gi ft</w>
U p</w>
enter ing</w>
gi e</w>
gir l
believ es</w>
territ orial</w>
monit ored</w>
ti ght</w>
establish ments</w>
d ity</w>
RO N
b ad
dist ingu
su s</w>
Lab our</w>
fe a
Pl an</w>
join tly</w>
enab ling</w>
migr ants</w>
Si gn
t age</w>
en de
Po si
MEN TS</w>
ed ge</w>
ach ers</w>
ge ar</w>
y i
I .</w>
dec line</w>
A C</w>
P UB
N AME</w>
Ma a
c a</w>
Indu stry</w>
estim ates</w>
enh ance</w>
su it</w>
exten sions</w>
mechan ical</w>
lam ps</w>
stu died</w>
p ill
T om
s port</w>
quanti tative</w>
mb H</w>
tre es</w>
bud dy</w>
S ay</w>
cen ter</w>
constitu tional</w>
l es
v or
direc ted</w>
B O
re placement</w>
resol ve</w>
bio logical</w>
ti les</w>
be ings</w>
ww w
exten sive</w>
bit r
D ra
Represen tative</w>
Sloven ia</w>
g ress</w>
di r
P harmac
th in</w>
GAT T</w>
ab use</w>
in ner</w>
De fin
ess entially</w>
indic ates</w>
Maa stric
declar ations</w>
con tested</w>
grat eful</w>
m ass
T ool</w>
ti mat
inspec tions</w>
assur ance</w>
explo itation</w>
k l
g le</w>
chec king</w>
ra ising</w>
consul ting</w>
L IS
Lat via</w>
meas uring</w>
pre dic
discus sing</w>
we aring</w>
op posed</w>
a w</w>
fr ame</w>
collabor ation</w>
ex plic
fe eding</w>
Li b
impair ment</w>
S EC
im porters</w>
Maastric ht</w>
ass ure</w>
v ar
go als</w>
st y</w>
ali gn
wi der</w>
I D</w>
R ic
ac et
weap on</w>
jec tion</w>
ma thema
resid ent</w>
De partment</w>
manag er</w>
on tal</w>
Europe ans</w>
L y
fore ver</w>
c k
art an</w>
speak ers</w>
z ation</w>
rec ycl
enorm ous</w>
he l</w>
te acher</w>
lev y</w>
Sci enti
G N
Consum er</w>
suff er</w>
explan ation</w>
Bal tic</w>
we dding</w>
nec k</w>
chem icals</w>
strong er</w>
CO 2</w>
A ut
Lea ve</w>
No ti
en se</w>
W S</w>
ag on</w>
conc iliation</w>
fav or
tox icity</w>
parlia ments</w>
bor ro
wel comed</w>
Slov akia</w>
an cing</w>
Rel ations</w>
re mot
cro ps</w>
concentr ated</w>
mo bil
ME Ps</w>
sh ops</w>
certi fied</w>
ain t</w>
mon thly</w>
k ar
exc ess</w>
neu tr
E qu
Lat est</w>
e ase</w>
acc um
Comp any</w>
glob in</w>
it y
deter i
EC R</w>
inci dence</w>
dum ped</w>
il led</w>
pl ates</w>
accommod ation</w>
or t</w>
program ming</w>
organis ms</w>
k i
ren tly</w>
be er</w>
sett ings</w>
s atellite</w>
li a</w>
ans wered</w>
ab led</w>
Loo ks</w>
Par agrap
0 9.
fe ver</w>
v ary</w>
10 3</w>
Kore a</w>
V ol
ane ously</w>
separ ately</w>
remun eration</w>
Th ink</w>
hum ans</w>
ch er</w>
li fe
bot tle</w>
it ch</w>
m ic
R ound</w>
dis aster</w>
a emia</w>
fin ds</w>
am oun
consul ted</w>
C r
radi ation</w>
ellec tual</w>
se es</w>
str ange</w>
ar rest</w>
p a</w>
t at
oc k
ur ge</w>
A 4</w>
s ports</w>
pro mp
li ances</w>
TI T
ad ults</w>
ato es</w>
G mbH</w>
reduc tions</w>
Y et</w>
Bus iness</w>
d ried</w>
ass isted</w>
ei gh
IN G
L om
e able</w>
uni versity</w>
Th om
sen ding</w>
O ffic
on el</w>
with draw</w>
dic ated</w>
V an</w>
produc tivity</w>
ill a</w>
pregn ancy</w>
investi gations</w>
RE S</w>
wh o
de pend</w>
comm unities</w>
pap ers</w>
gro wn</w>
bo y
ten ders</w>
Braz il</w>
te a</w>
care er</w>
ir a</w>
unanim ously</w>
prospec ts</w>
de struction</w>
sign ature</w>
mot or
E L</w>
P ak
In te
foun ded</w>
po wered</w>
be ach</w>
tr ans</w>
ho liday</w>
P ay
il eg
swe ar</w>
N ic
Fi ve</w>
197 4</w>
timat ely</w>
ti se</w>
di ameter</w>
resul ted</w>
destro yed</w>
ur gency</w>
Po int</w>
min or</w>
PRO V
H ur
K y
Ho ly</w>
fle et</w>
prof its</w>
F er
pub lish</w>
govern ance</w>
p ly</w>
birth day</w>
ann exed</w>
tr ail
Th urs
den om
R T</w>
trans mitted</w>
R ac
ON AL</w>
I P
y ard</w>
fin ed</w>
P u
Un less</w>
pe an</w>
l ending</w>
N at
def end</w>
and y</w>
pass ing</w>
f it
preven ting</w>
0 1.
qu iry</w>
p. m.</w>
bat tle</w>
Con tin
invest ors</w>
s wi
li able</w>
al t</w>
plen ary</w>
ex tra
depos it</w>
cli ents</w>
u um</w>
plan et</w>
Pati ents</w>
vir tu
tis sue</w>
T F
e red</w>
criter ion</w>
sp lit</w>
re views</w>
person ally</w>
Fr ank
D e</w>
nit ro
le um</w>
for war
install ations</w>
at ories</w>
u ght</w>
priv ileg
A TE
dep th</w>
p ure</w>
employe e</w>
16 0</w>
import ation</w>
id en
penal ty</w>
O D</w>
gener ated</w>
ex act</w>
recogn ise</w>
Bud gets</w>
Com b
b loo
M R
reco vered</w>
loc ked</w>
T ar
um b
po t</w>
bre ast</w>
Recommen dation</w>
f ing
es sion
o g
J ack
wor ld
wi re</w>
att acks</w>
4 14</w>
im pe
Est onia</w>
sec re
acti vely</w>
O C
ende av
oun d
elec tro
gre en
com posed</w>
employ er</w>
correc tly</w>
est er</w>
di ab
Sta tis
3 9
appa rent</w>
with drawn</w>
rol ling</w>
re viewed</w>
vis a</w>
ch ick
achie vement</w>
pre mises</w>
Un til</w>
me ters</w>
ru pt</w>
religi ous</w>
as c
5 ,
n ic
Win 32</w>
W ar</w>
sched uled</w>
law yer</w>
dre w</w>
Des pite</w>
reflec ted</w>
b es
me ets</w>
there in</w>
satisfac tion</w>
uni versal</w>
H O
doll ars</w>
concentr ate</w>
lis tening</w>
ast ro
Pr ice</w>
Joh n
whe el</w>
represen tation</w>
wid ely</w>
Moroc co</w>
place bo</w>
em a</w>
s low
resol ved</w>
Sw iss</w>
6 ,
EN ER
10 4</w>
inter net</w>
serv ants</w>
me tr
Pol ish</w>
Is n</w>
Or der</w>
contr actual</w>
Ma x</w>
su ant</w>
13 6</w>
h i</w>
f aster</w>
0 4
es cape</w>
gover ned</w>
be dro
mess ages</w>
cons ult</w>
s ad</w>
la sting</w>
foc used</w>
Con ditions</w>
Or al</w>
p air</w>
ch ers</w>
expec tations</w>
al uminium</w>
star ts</w>
ro r</w>
real istic</w>
author ization</w>
pl ause</w>
Me th
dis closure</w>
sac ri
dri vers</w>
carri ers</w>
re ject</w>
z er</w>
res ear
S of
supple ment</w>
clo thing</w>
S an</w>
Thurs day</w>
grad ually</w>
J ac
occa sions</w>
Eng land</w>
no tic
manag ing</w>
design ation</w>
enti c</w>
de fault</w>
peri o
terroris t</w>
elec t</w>
propos ing</w>
l ers</w>
girl friend</w>
d ural</w>
co ast
consider ably</w>
ok ine
p el
tle ment</w>
pursu ed</w>
or dered</w>
provi der</w>
plat form</w>
famili ar</w>
ol ing</w>
repe ated</w>
complic ated</w>
Strateg y</w>
rest ed</w>
dat ory</w>
dynam ic</w>
ash ion</w>
pa th
t ang
ro ck</w>
defini tions</w>
ou ter</w>
e tin</w>
te achers</w>
Supple ment</w>
g ers</w>
O J
p h</w>
consoli dated</w>
pre ne
coun ts</w>
bl in</w>
requ iring</w>
cal m</w>
Al ban
ra p</w>
n ity</w>
AG E</w>
access ories</w>
ol a</w>
COMM UN
il li
preser ved</w>
Scienti fic</w>
ta ste</w>
penal ties</w>
inhi bit
cle aning</w>
avi ation</w>
Pur suant</w>
tack le</w>
U .
1. 1</w>
M s</w>
peac eful</w>
A sian</w>
restric tion</w>
P ho
other ap
co p</w>
is ting</w>
ea p</w>
ex pl
assess ing</w>
ar bitr
affec ts</w>
M A</w>
le g</w>
residu es</w>
fl av
e e</w>
tre prene
big ger</w>
Wed n
cons ent</w>
O THER</w>
In dian</w>
se ats</w>
Any thing</w>
sign ing</w>
t ough</w>
b ars</w>
fal se</w>
doub ts</w>
Mar tin</w>
Li ber
Guaran tee</w>
over come</w>
war r
li ked</w>
T ry</w>
co ins</w>
simul t
ch loro
un ions</w>
tele phone</w>
believ ed</w>
n ic</w>
be an</w>
NC Bs</w>
Bos nia</w>
par tic
air ports</w>
fronti er</w>
Fig ure</w>
curren cies</w>
18 0</w>
ir s</w>
ed oms</w>
OL OG
h ang
V ER
sec toral</w>
op posite</w>
ad mit</w>
phen omen
fronti ers</w>
ch eap</w>
jour n
f rea
compo unds</w>
L a</w>
t ape</w>
run s</w>
w ave</w>
s ong</w>
f t
EAG GF</w>
d al</w>
Z e
preci ous</w>
ab road</w>
d ential</w>
vol umes</w>
stru gg
fore stry</w>
el derly</w>
carb ons</w>
an i</w>
ship ping</w>
consisten cy</w>
accur ate</w>
renew al</w>
pre feren
Com pu
them e</w>
tol er
En ter
T or
P ap
M ain</w>
ast ly</w>
sur prised</w>
AR S</w>
10 6</w>
N a
d ying</w>
B rea
go d</w>
D C</w>
traffic king</w>
harmon isation</w>
stri p</w>
ol ate</w>
in compatible</w>
bl ind</w>
sil ver</w>
ad ding</w>
e tic</w>
moder ate</w>
d in</w>
M P
eu tic</w>
t reaty</w>
expen sive</w>
rou tes</w>
every where</w>
encour aged</w>
................ ................
M F
197 2</w>
dis tric
exper tise</w>
Tech nology</w>
b b
TIC AL</w>
some what</w>
- --</w>
expan sion</w>
auth entic</w>
ai ze</w>
Poli tical</w>
sup pose</w>
n omenclature</w>
m ut
h in
sub scri
justi fy</w>
formul a</w>
H al
eu tical</w>
AC K
bran ch</w>
ref used</w>
depos its</w>
meth yl
initi ation</w>
harmon ised</w>
sett led</w>
op ens</w>
co operating</w>
D ri
W A
substan tially</w>
F our</w>
E P</w>
p ush
Public ations</w>
methodo logy</w>
I G
rest ore</w>
ograph y</w>
dis cover</w>
de als</w>
she ep</w>
AC E</w>
wit ness</w>
V ic
N T
l unch</w>
B I</w>
syr inge</w>
cut aneous</w>
ur y</w>
Ch em
E dition</w>
rec over</w>
haemo globin</w>
o we</w>
te ach</w>
ph r
con stantly</w>
ve y</w>
C Y
p tions</w>
conflic ts</w>
corpor ate</w>
na vi
break down</w>
trans l
sm ell</w>
Pl ace</w>
nation ally</w>
radi o
Du blin</w>
ambi tious</w>
evalu ated</w>
cor ner</w>
ant a</w>
wh enever</w>
weigh ted</w>
contain ers</w>
par king</w>
exc use</w>
co ast</w>
N one</w>
k iller</w>
den tal</w>
E li
Doc u
s ail
k ni
Wedn esday</w>
world wide</w>
prohi bition</w>
T ru
dis abled</w>
Fi f
pl u
sol ven
ic ide</w>
M is
sem i</w>
symbo l</w>
s ation</w>
Rec o
- No</w>
S el
S on</w>
Fre e
mo ther
jour ney</w>
iden tical</w>
collec t</w>
sec ret
cons ist</w>
adap tation</w>
Mex ico</w>
signific ance</w>
con stra
w arm
si zes</w>
H igh
rec ording</w>
pre domin
re ne
out door</w>
distin c
cour age</w>
ben z
man n</w>
Icel and</w>
Goo gle</w>
ak es</w>
2 1
de fici
appropri ation</w>
H OL
rest ra
horiz ontal</w>
offici ally</w>
D .</w>
B lo
sol ved</w>
addi tive</w>
ten ant</w>
fol d</w>
M el
0 3
Sup port</w>
G E
moun tain</w>
g an</w>
bur n</w>
as sic</w>
m ate</w>
li tion</w>
g are
ch ro
elim ination</w>
am ide</w>
Cl ass</w>
adap ted</w>
es el</w>
p ast
complain ts</w>
clo sing</w>
o v
bl ame</w>
im pression</w>
man datory</w>
reti rement</w>
lin ing</w>
C ri
G ir
uc k
RO M</w>
pre fer</w>
No .</w>
in sufficient</w>
min ority</w>
deser ve</w>
DE D</w>
h ad
adv oc
s or</w>
res ource</w>
M ol
Mon day</w>
o wn
os is</w>
v ations</w>
Bl ue</w>
Stre et</w>
H as</w>
m ac
deb ates</w>
m its</w>
AR Y</w>
di gn
anti cip
IN FORM
cir cu
cl ass
ot ech
Administr ative</w>
w ill
0, 000</w>
D om
c ute</w>
Ci vil</w>
k et
glyca emia</w>
s n
ref ri
en han
D G</w>
r ic
Fin n
v able</w>
win ter</w>
has n</w>
M AN
refri ger
r ab
l shit</w>
c at</w>
calcul ating</w>
0. 5</w>
erg ic</w>
gu ard</w>
w ines</w>
Bu il
S us
jo ined</w>
in cen
NU MBER</w>
load ed</w>
be red</w>
INFORM ATION</w>
Con sul
Ro ad</w>
reli ef</w>
e ating</w>
pos ts</w>
pres sive</w>
restaur ant</w>
po c
mar riage</w>
He ads</w>
illu str
ER DF</w>
bal ances</w>
engine ering</w>
0 7.
argu ed</w>
---- ----
Austri an</w>
elim inate</w>
ffic acy</w>
ea stern</w>
Austr alia</w>
re l</w>
Euro stat</w>
b ol
ten ces</w>
im m
re v
pan el</w>
S ource</w>
ta ught</w>
conf erred</w>
smo ke</w>
tw el
preferen tial</w>
im posing</w>
I X</w>
pack ages</w>
he sion</w>
func tional</w>
b its</w>
uc e</w>
se emed</w>
C D</w>
197 0</w>
fib re</w>
al fa</w>
M ach
proce dural</w>
constitu ted</w>
1 10</w>
on ing</w>
dos si
a thy</w>
D U
Net work</w>
poli tici
L astly</w>
gen tly</w>
Part nership</w>
min ing</w>
4. 2</w>
1. 6.
the red</w>
con vers
T en</w>
pe tro
n ar</w>
r ich
ar ities</w>
c able</w>
D NA</w>
occur s</w>
fir stly</w>
re feren
candi dates</w>
fr ag
k o</w>
R T
1 25</w>
arti ficial</w>
0 2.
H uh</w>
reser ved</w>
port foli
10 8</w>
re marks</w>
de gre
b alls</w>
L ong</w>
mus cle</w>
v on</w>
experi ences</w>
gar den</w>
m ess</w>
ac elet</w>
Ad voc
ga p</w>
ter ing</w>
H mm</w>
cam p</w>
expos ures</w>
S it</w>
se ven
am ed</w>
estim ate</w>
s wine</w>
A m</w>
sh el
int ellectual</w>
ow nership</w>
as sh
si lic
O ut</w>
EC D</w>
sou thern</w>
esti ci
ph il
lo vely</w>
ul ous</w>
consequ ently</w>
cop s</w>
har dly</w>
ph y
ex e</w>
y ellow</w>
deleg ated</w>
precau tions</w>
al y
or a</w>
comp lied</w>
prof itability</w>
communic ated</w>
D ATE</w>
t ant</w>
fair ly</w>
pro sper
objec ts</w>
8 5
sho wer</w>
free zing</w>
B est</w>
fun ded</w>
En joy</w>
depar ture</w>
vill age</w>
del ic
carri er</w>
don e
cor ruption</w>
10 5</w>
vulner able</w>
te eth</w>
gh ly</w>
f an</w>
noti fications</w>
S till</w>
e um</w>
to e</w>
pos es</w>
el a</w>
re tro
ca using</w>
ban kno
hon our</w>
con vention</w>
Ar ab</w>
mix ture</w>
Gover ning</w>
fo ods</w>
regar dless</w>
proportion ate</w>
e ous</w>
ot e</w>
favor ite</w>
il ed</w>
app liances</w>
d u</w>
decis ive</w>
to ys</w>
te en
2. 5</w>
Com ple
termin ation</w>
O ECD</w>
b ast
t ells</w>
mix tures</w>
arri ved</w>
De bian</w>
R adi
vi ation</w>
comm un
in land</w>
min isters</w>
ER S</w>
Categ ory</w>
U M</w>
Agen da</w>
comm it</w>
re tain</w>
conven i
ren tal</w>
vac uum</w>
h ec
en treprene
inv est</w>
el ev
ch annels</w>
F O
ter ly</w>
tw enty</w>
te l</w>
De puty</w>
o visual</w>
ti cip
alleg ed</w>
negoti ating</w>
ti li
enem y</w>
reser vations</w>
ir regul
resid ents</w>
w ai
sub heading</w>
h mm</w>
met res</w>
confi dential</w>
Per s
proce eding</w>
d ges</w>
B ased</w>
gun s</w>
bun al</w>
sal t</w>
ide al</w>
b low
Hen ry</w>
swit ch</w>
op ping</w>
Ma c</w>
virtu e</w>
Ro yal</w>
ass emb
a ment</w>
Vi e
rescu e</w>
g ur
constitu tion</w>
versi ties</w>
syn thetic</w>
chi ef</w>
multi annual</w>
feel ings</w>
sh ad
o log
reg istry</w>
Ro om</w>
j ack
emb ar
cohe rent</w>
ad or</w>
initi ate</w>
N omenclature</w>
I F</w>
Meas ures</w>
new sp
cha mp
liqui dity</w>
fi er</w>
sur plus</w>
am pi
Pol ice</w>
an ded</w>
pe t</w>
Acc ord
ev a</w>
u .
y m
a ks</w>
rati fication</w>
ac he</w>
den ly</w>
contribu ted</w>
le vi
contr ast</w>
az ole</w>
COMMUN ITY</w>
br and</w>
H IV</w>
stri ke</w>
1. 2</w>
&apos; Cause</w>
10 1</w>
T ex
1. 5</w>
du de</w>
contr adic
contribu ting</w>
fish er
poli tics</w>
J ord
e z</w>
dec l
in i</w>
am in</w>
negoti ated</w>
inc enti
bre eding</w>
l t</w>
at er</w>
pap er
ac ad
in adequate</w>
st aying</w>
clari fy</w>
A G</w>
ti ble</w>
negoti ation</w>
remot e</w>
U ru
sem in
uti lis
incre di
Accord ingly</w>
dre ds</w>
ast ers</w>
fir m
degre es</w>
bro w
st y
T ony</w>
T AR
targe ted</w>
l as
u red</w>
break fast</w>
f all
ma x</w>
De ath</w>
rec itals</w>
T reat
appro aches</w>
Ad visory</w>
af ford</w>
for got</w>
ce l</w>
distin ction</w>
fi re
W o
i el</w>
co verage</w>
Doc tor</w>
p um
ab and
prec ed
S Y
brea king</w>
interpre ted</w>
offic ers</w>
accompan ying</w>
t um
prin ting</w>
belong s</w>
In done
inv ite</w>
cop ies</w>
time table</w>
prof ession
pres cription</w>
extre me</w>
v an
F uc
st uck</w>
C lick</w>
st om
mag ic</w>
I ES</w>
su res</w>
anal o
Pri v
smo king</w>
inter action</w>
H an
conven tional</w>
man ual</w>
ci um</w>
Pre mium</w>
Bel ar
C ulture</w>
is k</w>
di esel</w>
leg s</w>
ro ads</w>
diff er</w>
che ese</w>
bom b</w>
u l</w>
sal ts</w>
Paragrap h</w>
er adic
week end</w>
in su
inten sive</w>
er y
er able</w>
bi e</w>
OLOG ICAL</w>
heav en</w>
eu tenant</w>
gu ests</w>
pen sions</w>
Some body</w>
gain ed</w>
L am
an nex</w>
we alth</w>
T our
com it
Speci fic</w>
Ap plication</w>
S D</w>
p o</w>
k iss</w>
construc tive</w>
1 12</w>
j er
condi tioning</w>
carri age</w>
dra g</w>
di oxide</w>
M ur
dro me</w>
belong ing</w>
S pr
ES S
min eral</w>
Democ rats</w>
ic ks</w>
re volu
ex porter</w>
ard ous</w>
en cing</w>
pharmac ist</w>
h at
con vic
Hung arian</w>
sho es</w>
S H
f on
bra ke</w>
W OR
li kes</w>
sta ke
pa .e
sy s</w>
Ste p</w>
Di dn</w>
evalu ate</w>
competi tors</w>
fuc kin</w>
herit age</w>
g all
sol vent</w>
til ity</w>
SI S</w>
J im
on de</w>
F IN
lo ves</w>
box es</w>
m ar</w>
see ks</w>
Par lia
star ch</w>
dis covered</w>
success fully</w>
enh anced</w>
l l
Tur n</w>
Uru gu
x ed</w>
wor ding</w>
R am
G R
strength ened</w>
PRODUC TS</w>
li br
In stead</w>
th ickness</w>
stric tly</w>
mat urity</w>
coord inate</w>
Tun is
N ING</w>
TIC UL
C ub
smo oth</w>
dis pen
top ic</w>
vis its</w>
ter ies</w>
assum ed</w>
M ission</w>
Hon ey</w>
em or
pu rely</w>
chron ic</w>
Lit tle</w>
fer on</w>
S har
F lo
PAR TICUL
ref usal</w>
mark eted</w>
Mo ses</w>
Al ger
f ashion</w>
re it
lay er</w>
cat ches</w>
god damn</w>
Un it</w>
r i</w>
b ird</w>
Con t
sp are</w>
great ly</w>
DO C</w>
v est</w>
ton ne</w>
ce an</w>
N AT
contain er</w>
analy ses</w>
differen ti
thou ghts</w>
bre ad</w>
5. 1</w>
r at</w>
O U</w>
ac ulture</w>
vis ited</w>
k er
ic ans</w>
Mon it
indic ating</w>
en na</w>
Mul ti
Comm er
c s</w>
with standing</w>
question n
D IR
B at
pl enty</w>
eg g</w>
descri be</w>
e fficacy</w>
at ric</w>
K ur
desi red</w>
ad just</w>
inno cent</w>
Lom é</w>
vis itors</w>
Urugu ay</w>
7 ,
st ro
re ver
her self</w>
author isations</w>
pi g</w>
ay er</w>
resi due</w>
Com petition</w>
hi dden</w>
To o</w>
st ake</w>
Comm it
Bal k
hun gry</w>
indic ator</w>
hop ing</w>
N et</w>
tox ic</w>
sle eping</w>
ob taining</w>
furn iture</w>
sl augh
ol d
F am
G ENER
B ut
extr act</w>
f ate</w>
i us</w>
low est</w>
ro ot</w>
navi gation</w>
ic y
Palest inian</w>
I B
survi ve</w>
dri ven</w>
li ft</w>
bloc ks</w>
attr active</w>
Par k</w>
pol l
T em
Le ban
un known</w>
green house</w>
decl are</w>
us al
fuc ker</w>
speci fication</w>
ner vous</w>
g a</w>
b ill</w>
W IT
keep s</w>
Col onel</w>
Exce pt</w>
subsidi ary</w>
incenti ves</w>
super vis
public ations</w>
exce eds</w>
C ho
in ev
L ED</w>
trav en
Ph ili
h at</w>
histor ic</w>
n igh
re pu
pic ked</w>
P har
Green land</w>
o di
A Y</w>
initi ally</w>
Li fe</w>
thro at</w>
mo l</w>
i o</w>
9 0
patter ns</w>
defin ing</w>
survi val</w>
on er</w>
d ust</w>
ci ent</w>
N ick</w>
F u
S hel
C iti
magne tic</w>
bran ches</w>
dissem ination</w>
M other</w>
ble eding</w>
bi d</w>
DIR EC
rea uc
surg ery</w>
Pro ject</w>
z ens</w>
en zy
cop per</w>
M en</w>
pig s</w>
d ging</w>
fre edoms</w>
invest or</w>
in directly</w>
z ap
Posi tion</w>
dos age</w>
ph er
forwar ded</w>
F arm
B ill</w>
Ric hard</w>
inten si
hel p
b ags</w>
Con ver
execu tive</w>
critic ism</w>
go v
ti er</w>
assi um</w>
acknowle dged</w>
M I
A F</w>
train ed</w>
fav or</w>
integr ity</w>
bro thers</w>
f arms</w>
lo g</w>
beau ty</w>
az ine</w>
ch annel</w>
Euro pol</w>
dr unk</w>
usal em</w>
figu red</w>
ben ch
modi fy</w>
dro pped</w>
boy friend</w>
auth or</w>
Pr in
H E
Jer usalem</w>
k .
in habit
suspec t</w>
head ed</w>
AB LE</w>
h ath</w>
bu reauc
reve aled</w>
inter face</w>
vol tage</w>
w alls</w>
g ases</w>
feder ation</w>
Monit oring</w>
et es</w>
no w
Mar k</w>
il le</w>
eth yl</w>
P hot
F OL
sy mb
Compu ter</w>
fi red</w>
p in
G R</w>
ti vation</w>
Goo d
CR R</w>
for gotten</w>
L and</w>
w an</w>
ST ATE
PARTICUL ARS</w>
A verage</w>
Sy st
m acro
er ly</w>
per ce
an gry</w>
min us</w>
S et
atmo sphere</w>
ul timately</w>
Ap plause</w>
gene tic</w>
Pre par
j ail</w>
P OL
Mad rid</w>
st ones</w>
Par ts</w>
mer ger</w>
comfor t</w>
bor g</w>
wor th
land s
1 30</w>
MIN IS
domin ant</w>
S et</w>
zap ine</w>
idel ine</w>
Isra el
ó n</w>
Ru n</w>
r at
0 8
prepar atory</w>
lan ding</w>
eng age</w>
bud gets</w>
Fol low</w>
w et</w>
Pak istan</w>
Co hesion</w>
P ACK
bac ter
Bet ter</w>
own ers</w>
10 2</w>
B oo
C ES</w>
k ne
Chi ef</w>
un fair</w>
fi able</w>
app y</w>
GENER AL</w>
kno wing</w>
10 9</w>
ser ver</w>
origin ally</w>
ac ute</w>
C ast
li p
correc ted</w>
to col
I V
gg er</w>
cl arity</w>
feder al</w>
reflec ts</w>
mic ro</w>
com pl
C lo
f ant
Par ticip
modi fication</w>
infec tions</w>
L ef
weigh ing</w>
TF EU</w>
T aking</w>
2. 1</w>
mi x</w>
ra m</w>
al es</w>
even tually</w>
En try</w>
exce eded</w>
h ex
e ars</w>
al ert</w>
fav oured</w>
IC ES</w>
ac ids</w>
0 5
sum mar
I A</w>
E ffec
s and</w>
vail ing</w>
ut ory</w>
NC B</w>
integr al</w>
a uc
- Yeah</w>
ic ked</w>
wor thy</w>
coun ting</w>
an x
rela x</w>
D .
Advoc ate</w>
sustain ability</w>
th a</w>
dimen sions</w>
Loo king</w>
coast al</w>
recipi ent</w>
we i
Pro gram</w>
o b</w>
otherap y</w>
Sun day</w>
over seas</w>
pos tal</w>
fre ely</w>
ar chi
guil ty</w>
P aci
bl onde</w>
im position</w>
C lar
in c</w>
up set</w>
in fusion</w>
su d
F ull</w>
CH RON
uni versities</w>
Thir dly</w>
cros s
U r
T el
denti ality</w>
B re
ver tical</w>
haz ardous</w>
A g
hun dreds</w>
E asy</w>
Pro c
establish es</w>
ensu res</w>
arri val</w>
www .
al ph
poten tially</w>
ab normal</w>
CHRON OLOGICAL</w>
Produc tion</w>
ef ully</w>
car di
cri mes</w>
ann ul
Sar ah</w>
Any way</w>
wel comes</w>
tain ment</w>
reat h</w>
speak er</w>
p estici
ul f</w>
de dicated</w>
th al
t ability</w>
C A</w>
petro leum</w>
fisher men</w>
ex it</w>
t g
j an</w>
complain ant</w>
al k
j ump</w>
porte urs</w>
vest ock</w>
veri fied</w>
ligh ted</w>
im porter</w>
en za</w>
IT S</w>
f ats</w>
restric t</w>
P A
w er
ine a</w>
SU B
assess ments</w>
Fin ance</w>
tun a</w>
ti gh
dero gations</w>
abo lition</w>
F A
A ar
incen tive</w>
conf ron
ad er</w>
atten d</w>
Offic er</w>
hop es</w>
twel ve</w>
ish ment</w>
ke ting</w>
Y outh</w>
D r</w>
week ly</w>
surve ys</w>
Jord an</w>
t une</w>
ser um</w>
y ards</w>
foot ball</w>
pr ud
ail and</w>
exam ining</w>
stipul ated</w>
Lo ve</w>
gh ted</w>
emb ry
inten sity</w>
lo gi
system atic</w>
f lower</w>
exc ise</w>
li days</w>
grad u
E ME
Br ing</w>
eth nic</w>
n d</w>
m assive</w>
gu est</w>
fuc ked</w>
V o
ro of</w>
ensu red</w>
D anny</w>
st ories</w>
S S
F le
appro ving</w>
tocol s</w>
mo reover</w>
B un
ob servation</w>
glo bal
discrimin atory</w>
T ai
sho oting</w>
fre ight</w>
b id
was her</w>
O ther
L and
M O</w>
hon or</w>
bas ically</w>
ol ds</w>
n t</w>
cou pl
coord in
hepati c</w>
le ep</w>
feed ing
direc tor</w>
ister ial</w>
distric t</w>
Paci fic</w>
re verse</w>
dis played</w>
Con clu
sen ior</w>
st on</w>
Th ailand</w>
. 1</w>
TE E</w>
R a
tic ket</w>
Ch ange</w>
scr ut
ang es</w>
ai red</w>
tr act</w>
m ad
notic ed</w>
dam aged</w>
liber alisation</w>
vac ation</w>
sh r
nation ality</w>
m iti
j um
adequ ately</w>
relation ships</w>
A mon
Thom as</w>
Con si
8 4
rec all</w>
el ed</w>
an n</w>
R O</w>
pre mi
ca p</w>
F BI</w>
ac compl
Y o</w>
u ph
phot ograp
dr am
com prising</w>
M AC
ren der</w>
forth coming</w>
c up</w>
t .</w>
wh oles
Ale x</w>
M aster</w>
ci a</w>
che ted</w>
kl ace</w>
FOL LO
m aize</w>
vari eties</w>
su rely</w>
public ly</w>
ab or
edi tion</w>
5. 2</w>
s ickness</w>
wh olly</w>
jo ke</w>
ty pical</w>
s car
in sp
W ash
vacc ine</w>
4. 5</w>
Appro pri
d l</w>
audi ovisual</w>
d ness</w>
consoli dation</w>
RE D</w>
pharmac eutical</w>
m o</w>
kn itted</w>
the ore
nom inal</w>
mo ves</w>
0 6.
inter oper
ca ke</w>
s ors</w>
s lo
bo ats</w>
ri d
res sion</w>
ris ing</w>
ly mp
ISI ONS</w>
bu ty
c it
c ents</w>
E l</w>
Har ry</w>
ten s</w>
al ty</w>
gov ina</w>
be am</w>
requ is
p in</w>
respec ts</w>
f lights</w>
mon y</w>
individu ally</w>
accur acy</w>
en ables</w>
dis til
n ick
M ot
ro ots</w>
st a</w>
Agre ements</w>
er as</w>
R ay</w>
S ud
se as
pharmac okine
com bus
ha h</w>
ol ine</w>
re medi
T C</w>
PO S
form ally</w>
p ers</w>
3 4
00 1</w>
in o
ber t</w>
easi est</w>
exemp tions</w>
manag ers</w>
a str
Maj or</w>
s me
sud denly</w>
Con taining</w>
Jim my</w>
Coun try</w>
ap point</w>
oc olate</w>
predomin antly</w>
chil d
aqu aculture</w>
no se</w>
tempor arily</w>
W AR
it ly</w>
men u</w>
mar ry</w>
gr ave</w>
met als</w>
drin ks</w>
Je an</w>
incorpor ating</w>
t ina</w>
Gen er
tu bes</w>
identi fying</w>
r am
loc ks</w>
MINIS TR
fab ric</w>
CO R
b ath</w>
Reg istry</w>
phil os
p as
negoti ate</w>
Ex change</w>
an dum</w>
O S</w>
cre ates</w>
Treat ment</w>
F ar
K no
COMM IT
entr ies</w>
perform ing</w>
p ine</w>
on e
k ick</w>
iz es</w>
volun te
v ast</w>
tail ed</w>
parti ally</w>
mal ware</w>
u x</w>
cro w
Feder ation</w>
ad mission</w>
Al ways</w>
hi re</w>
sampl ed</w>
qu al
econom ically</w>
sugg ests</w>
bon ds</w>
reci proc
consign ment</w>
S elect</w>
ver sions</w>
s and
pres sing</w>
min orities</w>
cy lin
cro cheted</w>
9 ,
hydro carbons</w>
cro p</w>
be gun</w>
J im</w>
brea ks</w>
Vi et
tr age
J O
ing ent</w>
7 00</w>
p ar</w>
P ot
add resses</w>
Je ws</w>
C ER
Ser bia</w>
mass age</w>
ome tr
ra tion
fo ol</w>
doub tedly</w>
bi ke</w>
b unch</w>
Po wer</w>
lim itation</w>
ro ws</w>
Wil li
Col le
CY P
2. 2</w>
for ma
C ali
Bud get</w>
an ch
def ec
cho ices</w>
est ate</w>
WIT H</w>
tour ist</w>
pos session</w>
al arm</w>
F ail
Air port</w>
th en
AD MINISTR
ev olution</w>
h ence</w>
demonstr ation</w>
her o</w>
en lar
Ch urch</w>
w ages</w>
Simil ar</w>
Gr and</w>
po ly</w>
de voted</w>
convers ation</w>
st atic</w>
ph ones</w>
lo ads</w>
sc ore</w>
dec or
b ling</w>
mo tions</w>
exerc ised</w>
occup ation</w>
L L
high light</w>
discipl ine</w>
pu p
ic ian</w>
C ry
eri ff</w>
1 15</w>
m p</w>
Prof essor</w>
gene tically</w>
pro mises</w>
soldi ers</w>
attemp ts</w>
2 -</w>
t esti
pol ye
t our</w>
Wash ington</w>
ex porters</w>
where ver</w>
li fer
comp li
succe ed</w>
doll ar</w>
sup er</w>
sp ite</w>
Other wise</w>
rap porteurs</w>
contin ent</w>
F ROM</w>
te ams</w>
correspon d</w>
pul led</w>
el ly</w>
ri dic
bl ack
en tation</w>
gener ate</w>
trad ition</w>
la h</w>
b ass
CON DI
preser ve</w>
N G
per mission</w>
den sity</w>
tr id
ann i
all ergic</w>
en counter</w>
circ le</w>
ri ding</w>
in traven
tr y
broad casting</w>
wh at
b reath</w>
In stru
Bu y</w>
fall en</w>
alcoho lic</w>
w ell
em i
hor ses</w>
r ated</w>
stake holders</w>
nor thern</w>
O thers</w>
ob by</w>
Lef t</w>
Ir on</w>
ec ological</w>
dis par
O ld</w>
ou ts</w>
avi an</w>
ed onia</w>
oun ded</w>
st ret
se y</w>
g al
stre ets</w>
en ship</w>
doc tors</w>
ar ia</w>
Si x</w>
politici ans</w>
Form er</w>
Gu idance</w>
Ale x
avo ided</w>
credi bility</w>
ad o</w>
alter n
li vestock</w>
ir respective</w>
al d</w>
sl aughter</w>
rene wed</w>
law ful</w>
scenari o</w>
ligh t
activ ated</w>
t ally</w>
ser ving</w>
Sch ool</w>
pro long
Qu een</w>
th an
du al</w>
Belar us</w>
I denti
om er</w>
Environ mental</w>
ul ated</w>
Mex ican</w>
S A
P op
portfoli o</w>
conclu des</w>
measu rements</w>
Ap pe
pre ad</w>
eligi bility</w>
sel f
ci gare
am ino</w>
abo ve
mor al</w>
peri ph
particul ars</w>
Du de</w>
col lateral</w>
foun dation</w>
In clu
ver ages</w>
Sm all</w>
T wel
comm only</w>
arri ve</w>
D K
im migrants</w>
H and
nov ation</w>
hur ry</w>
less ons</w>
Bud getary</w>
0 4.
recycl ing</w>
excep tions</w>
shor tly</w>
N GO
sovere ign
om y</w>
ear n</w>
dec ides</w>
Th rough</w>
th o
agre es</w>
N G</w>
set tle</w>
z h
0 5.
vir al</w>
analy sed</w>
pat ent</w>
des k</w>
for um</w>
Rob ert</w>
P ass
revolu tionary</w>
ran ty</w>
gr ading</w>
S ER
LI C</w>
D ro
N or</w>
bul lshit</w>
as m</w>
Pl us</w>
J on
inhabit ants</w>
lead ership</w>
C e
t s
confi dentiality</w>
Loc al</w>
win ning</w>
s word</w>
indic ative</w>
di vor
Gu ys</w>
4 4
thi az
fores een</w>
u a</w>
campai gn
Int roduc
qu e
Nat ural</w>
di versi
R ol
thro po
ner ships</w>
p is
bel t</w>
3 50</w>
car go</w>
D s</w>
con g
Imple mentation</w>
pi ed</w>
st ars</w>
migr ant</w>
condi tional</w>
U l
request ing</w>
depend ence</w>
S anta</w>
je op
a ult</w>
M a</w>
enab led</w>
recep tion</w>
rac ial</w>
do c</w>
B ible</w>
log ic</w>
NGO s</w>
un certainty</w>
N orm
CONDI TIONS</w>
extra ordinary</w>
14 0</w>
ze govina</w>
so ever</w>
ti ed</w>
viol ations</w>
tec tive</w>
hap ters</w>
Hur ry</w>
Y OU</w>
Acc ess</w>
alo g</w>
fore sts</w>
te m</w>
HOL DER</w>
inte st
termin al</w>
presen ting</w>
l or</w>
w are
b i</w>
P ack
compo und</w>
0 8.
new ly</w>
13 8</w>
si xth</w>
om a</w>
ad he
tu m</w>
gr ab</w>
hi ding</w>
firm ly</w>
ell er</w>
suc rose</w>
cy cles</w>
b right</w>
af for
Bab y</w>
D RE
re ar</w>
lim itations</w>
H ou
Geor gia</w>
Organ ization</w>
Her zegovina</w>
C ra
ke y
w ool</w>
threat ened</w>
secu red</w>
judg ments</w>
su ms</w>
Down load</w>
hot els</w>
di o</w>
bu ff
b ow</w>
c ry</w>
ve al</w>
reimbur sement</w>
detec ted</w>
m 3</w>
u g
i tions</w>
h ome
An ti
min es</w>
4. 3</w>
ol den</w>
threat s</w>
kar nar</w>
is lands</w>
intermedi ate</w>
a. k.
2 99</w>
exc iting</w>
bankno tes</w>
ju ice</w>
fail s</w>
M AN</w>
G or
boo st</w>
C ases</w>
dre ams</w>
dispu tes</w>
At omic</w>
W ord
D V
progres sive</w>
l augh
In tr
PUB LIC</w>
objec tions</w>
for give</w>
bes artan</w>
tim ely</w>
quali fy</w>
appoin ting</w>
resear chers</w>
trans national</w>
197 1</w>
sh opping</w>
cra p</w>
assh ole</w>
di ver
appa rently</w>
cr ashing</w>
preven ted</w>
justi fication</w>
dil u
PRO C
ke wise</w>
cat tle</w>
rang ing</w>
sol ar</w>
W ant</w>
tu be</w>
stand ardis
Ass ess
exha ust</w>
share holders</w>
idi ot</w>
prison ers</w>
B ang
u de</w>
nutri tion</w>
3. 1</w>
1, 000</w>
constra ints</w>
P L</w>
CI AL</w>
gr and</w>
exemp t</w>
correc tion</w>
G od
vacc ination</w>
pro jec
Finn ish</w>
Re view</w>
ad visory</w>
stat utory</w>
hy gi
feed back</w>
di et</w>
Wh o
L ot
stain less</w>
selec tive</w>
popul ations</w>
hand ic
po ker</w>
P act</w>
0 7
bur ning</w>
Fr anc
U sing</w>
pass port</w>
g ion</w>
an as</w>
Deleg ated</w>
simult aneously</w>
s can
S aint</w>
na m</w>
connec tions</w>
ti a</w>
sugg estions</w>
Max imum</w>
ag on
Noti ce</w>
Alban ia</w>
4. 1</w>
dign ity</w>
.e .
dis asters</w>
Re ady</w>
GH T</w>
1 .</w>
Medic inal</w>
est y</w>
ba thing</w>
hol m</w>
radio active</w>
ic king</w>
above mentioned</w>
wel ling</w>
th at
absor ption</w>
EME A</w>
om atic</w>
Pro b
vi able</w>
pot assium</w>
long term</w>
int eg
author ise</w>
sub s
medi um
exclu de</w>
un doubtedly</w>
d airy</w>
shoul der</w>
pill ar</w>
sus pic
civil ian</w>
bl u
T H</w>
Pol y
In surance</w>
deleg ations</w>
de rer</w>
fl esh</w>
are ly</w>
H ell</w>
Twel ve</w>
y o</w>
St art</w>
Li eutenant</w>
Cha in</w>
en si
For um</w>
help ful</w>
s na
COMMIT TEE</w>
diplom atic</w>
Char les</w>
win dows</w>
do gging</w>
secon dly</w>
con ferences</w>
OF FIC
bas es</w>
end ant</w>
Ab sol
ED F</w>
top ics</w>
sol ving</w>
mur dered</w>
1 13</w>
N either</w>
c .</w>
brea thing</w>
K i
j ac
T ali
endor sed</w>
4 8
clo s
Cor por
prin ts</w>
m ere</w>
bet a</w>
V ari
Un common</w>
Co ord
Reg ion</w>
w l</w>
fe wer</w>
coord inating</w>
ber ries</w>
Cap ital</w>
ho o
lo ose</w>
ster ly</w>
be l</w>
st en</w>
Sof tware</w>
T a
ma kers</w>
qu it</w>
p ants</w>
del ays</w>
whe els</w>
t ank</w>
autonom ous</w>
L en
fail ing</w>
b al</w>
ec o
Int egr
confir mation</w>
ash es</w>
Ne ws</w>
enem ies</w>
beg ins</w>
M mm</w>
Ex actly</w>
influ enza</w>
priv acy</w>
sovereign ty</w>
slow ly</w>
m mol</w>
I F
ear nings</w>
D R
s ly</w>
prohi bit</w>
c ils</w>
Micro soft</w>
Alger ia</w>
trav elling</w>
Col lec
ST O
Tr ust</w>
H A</w>
ra tional</w>
Dan iel</w>
12 3</w>
th y
thor ough</w>
the art</w>
ad vised</w>
rul ed</w>
neighb ouring</w>
l ord</w>
In cre
12. 2006</w>
solven cy</w>
M ON
combus tion</w>
sustain ed</w>
fil ter</w>
are r</w>
Ho liday</w>
ther ing</w>
dir ty</w>
Re ferences</w>
lap se</w>
house holds</w>
h o</w>
et al</w>
R emo
Admin istration</w>
un necessary</w>
C ari
Ve ter
ev ol
di am
. 2</w>
y right</w>
gu es</w>
W ea
5 43</w>
l ing
separ ated</w>
C ir
15 1</w>
recei ves</w>
Comm ander</w>
con fusion</w>
lish ed</w>
isol ated</w>
de grad
US D</w>
NAT O</w>
viol ation</w>
Chil dren</w>
we stern</w>
inter view</w>
Assess ment</w>
objec tion</w>
N avi
St .</w>
acqui re</w>
wal ked</w>
cl a
C la
s at</w>
g as
Po s
infl am
cy cl
ar rested</w>
calcul ate</w>
bat tery</w>
ro g
am i</w>
el ing</w>
analy tical</w>
Tali ban</w>
par liament</w>
cam eras</w>
struc tured</w>
pric ing</w>
op tional</w>
bas eline</w>
Leban on</w>
ch est</w>
Sur ve
simpli fied</w>
sh ore</w>
U F
Tunis ia</w>
J en
work place</w>
extr action</w>
ins ist</w>
infra structures</w>
Oper ator</w>
pre f
n .e.
ed it</w>
vir tually</w>
F ron
to ward</w>
Y ep</w>
ta tives</w>
gl asses</w>
Amer icans</w>
mo on</w>
l au
diab etes</w>
construc ted</w>
Res pon
brief ly</w>
RO U
rup ted</w>
or ous</w>
sh irt</w>
purch asing</w>
sh ell</w>
hor ri
high lighted</w>
acc red
de a
phen yl</w>
D ER
reser vation</w>
at er
nar row</w>
iti vely</w>
ho c</w>
F low
IN T</w>
6 0
su dden</w>
un ited</w>
atten ded</w>
w is
un a</w>
st ole</w>
pri me</w>
Gen eva</w>
r ings</w>
H C
bloo dy</w>
Mac edonia</w>
Inter governmental</w>
interoper ability</w>
quot e</w>
wh oa</w>
c ope</w>
an cient</w>
pain ting</w>
symb ols</w>
Comb ined</w>
vi ability</w>
serv ant</w>
De tails</w>
Ba sic</w>
ste al</w>
h all</w>
T ommy</w>
. exe</w>
moun ted</w>
N atur
Cer ti
strugg le</w>
Bo b</w>
administr ations</w>
Tu be</w>
separ ation</w>
char ging</w>
calcul ations</w>
EM U</w>
Con federation</w>
here to</w>
fortun ate</w>
Fun damental</w>
co a</w>
la b</w>
IN TER
re me
dec entr
real ized</w>
arrang e</w>
add ressing</w>
emphas ise</w>
S ave</w>
cal cium</w>
deep ly</w>
s our
le tin</w>
electr on
preven tive</w>
lo x
A V
r ay</w>
pi pe</w>
apo logi
M en
ari ffs</w>
l en</w>
emplo y</w>
compe te</w>
mathema tics</w>
ac le</w>
R N</w>
Fin al</w>
ban k
irregul arities</w>
1 11</w>
Im port
T est</w>
sw im
2 10</w>
pe ak</w>
ho ly</w>
For ce</w>
obser ve</w>
Amon g</w>
co ok
ch ose</w>
correspon ds</w>
compens atory</w>
af fir
ge ant</w>
cl assic</w>
fast est</w>
expen se</w>
EC H
org ans</w>
inter vals</w>
C AR
bo ards</w>
surroun ding</w>
RE N
sub jected</w>
it ment</w>
inci dent</w>
al ysis</w>
am i
1 19</w>
as cular</w>
ä n
air lines</w>
d are</w>
Sp ir
H appy</w>
si onal</w>
h y</w>
bene ficial</w>
moun ting</w>
Simil arly</w>
pursu it</w>
prosper ity</w>
&apos; all</w>
paren tly</w>
i o
car bon
Colle ge</w>
ce ase</w>
chick en</w>
O B
quali fication</w>
au t
Ad v
rein for
Sci ence</w>
A th
questionn aire</w>
en ic</w>
lot tery</w>
ATI VE</w>
N B</w>
war ranty</w>
hop ed</w>
un likely</w>
reli gion</w>
purch ased</w>
Vie w</w>
ridic ulous</w>
d ot
Vi enna</w>
N ig
20 1</w>
yi eld</w>
Jud gment</w>
Gro wth</w>
b inary</w>
rac ism</w>
audi o</w>
ten stein</w>
endor se</w>
DEC I
O oh</w>
S TE
fru its</w>
Y oun
J .</w>
tor ies</w>
in quiry</w>
nur se</w>
t te</w>
confi gur
b ones</w>
hi p</w>
Wal ter</w>
Prob ably</w>
DIREC TIVE</w>
ac knowledge</w>
Pl aying</w>
G lob
pri est</w>
stimul ate</w>
sign als</w>
Ex am
Direc t</w>
L ev
eth eless</w>
g ang
tax able</w>
col ors</w>
spir it
ill ness</w>
s par
av y</w>
ick y</w>
ag ic</w>
St ation</w>
p ays</w>
AL S</w>
poll ut
Cari b
v in</w>
comple x
av en</w>
E qui
th read</w>
phenomen on</w>
citiz enship</w>
to ilet</w>
por tion</w>
enlar ged</w>
pri ze</w>
a por
Re al</w>
prof ession</w>
a ero
Appro val</w>
P et
um ed</w>
adv ances</w>
ul a</w>
bast ard</w>
FOLLO WS</w>
Do esn</w>
thes is</w>
in formal</w>
Se veral</w>
P .
Bro w
inhibit ors</w>
h t
tion ality</w>
f en
ann ually</w>
c us</w>
per mits</w>
pro ven</w>
ES F</w>
k ins</w>
d able</w>
Amen ded</w>
trans portation</w>
Mar keting</w>
reme dy</w>
at en</w>
Pl an
19 68</w>
D an</w>
w ash</w>
el le</w>
dis count</w>
to se</w>
Si xth</w>
jo ining</w>
D ue</w>
gre w</w>
cap it
U. S.</w>
ship ment</w>
res istant</w>
rep lies</w>
mark et
evi dent</w>
ti p</w>
seven th</w>
f ice</w>
per su
conven tions</w>
Fuc king</w>
re turns</w>
f inger</w>
ori ented</w>
trans ported</w>
necess ity</w>
B .
grad ual</w>
tic kets</w>
control ling</w>
author ising</w>
scienti sts</w>
in stantly</w>
heal th
D a
collec ting</w>
al tar</w>
la ke</w>
Nor dic</w>
ul timate</w>
Indone sia</w>
ad mitted</w>
hang ing</w>
k is
Cl aire</w>
thu si
ba vir
F ax</w>
res sive</w>
y nam
rec ur
part nerships</w>
o dy</w>
tro ops</w>
soci eties</w>
S I</w>
Pro ble
Carib bean</w>
pre ferences</w>
Fr an
6. 1</w>
AS SI
feeding stuffs</w>
reg im
Per manent</w>
sus pend</w>
st en
enti eth</w>
MAC EU
oxy gen</w>
let ting</w>
i p</w>
C I</w>
finan ces</w>
connec t</w>
ogen ic</w>
hypo glycaemia</w>
plas tics</w>
Gu inea</w>
B SE</w>
1 18</w>
cap tain</w>
Un cle</w>
ste ady</w>
p lied</w>
ec o</w>
car trid
farm er</w>
or ph
provis ion
PHAR MACEU
BA T
In dic
n is</w>
bavir in</w>
DECI DED</w>
a to</w>
shar p</w>
nitro gen</w>
re y</w>
hun ting</w>
op er</w>
frequ ent</w>
Im pro
hydro gen</w>
K al
B ack
princip ally</w>
dossi er</w>
mem or
coo king</w>
A gain</w>
explain s</w>
w els</w>
as ser
kni fe</w>
Any one</w>
sem en</w>
marg ins</w>
P age</w>
r d</w>
Con grat
L et
philos oph
out lined</w>
cau tion</w>
th ri
comm od
So li
pen ing</w>
forec ast</w>
cooper ative</w>
M ain
AR TIC
W ere</w>
Bi o
sp p</w>
col ours</w>
dis appear</w>
foun dations</w>
il ings</w>
environ mentally</w>
pers ensi
h es</w>
f ought</w>
EU SR</w>
Ad am</w>
D ru
deser ves</w>
sh ame</w>
f ai
entr usted</w>
PROV ISIONS</w>
conc essions</w>
B T
In spec
v i</w>
grap es</w>
loc ations</w>
investi gate</w>
P A</w>
8 ,
re act</w>
dec ades</w>
sh ock</w>
Ju li
r us</w>
al bu
As k</w>
Del ors</w>
periph eral</w>
mod ules</w>
M ob
wi des
design ate</w>
comp lies</w>
aw esome</w>
PHARMACEU TICAL</w>
A D</w>
18 2</w>
threat ening</w>
Co al</w>
s able</w>
al ise</w>
Ma ur
deteri oration</w>
D un
d .
ax is</w>
St ock
flu oro
g rid</w>
em powered</w>
cast le</w>
Glob al</w>
prac tic
Di vision</w>
zz le</w>
simpli fication</w>
en thusi
Col om
imp lies</w>
1. 3</w>
Institu tions</w>
co efficient</w>
reason ably</w>
her o
hel lo</w>
facilit ating</w>
an te</w>
al ize</w>
t reas
Presid ents</w>
d ressed</w>
se g
am mon
B E
est ly</w>
St ability</w>
modi fications</w>
gg ed</w>
pain t</w>
real ise</w>
in comes</w>
Li ech
er o</w>
Ex port</w>
Congrat ulations</w>
d ens</w>
consci ous</w>
enti tlement</w>
as p</w>
stom ach</w>
viol ent</w>
toler ance</w>
mo dule</w>
bedro om</w>
C ou
suspec ted</w>
cros sing</w>
Soci ety</w>
tec h</w>
ad oles
ton gue</w>
od d</w>
ing ness</w>
spec tr
t one</w>
Sy ria</w>
7. 5</w>
stor m</w>
accoun ted</w>
Ar ab
T on
tex tiles</w>
cipi ents</w>
Ar t</w>
ag ged</w>
Jo se
B P</w>
Slov ak</w>
discre tion</w>
E mil
i ved</w>
dar k
De tective</w>
C ot
t ons</w>
inter governmental</w>
H S</w>
In sul
Citi zens</w>
4. 8</w>
13 9</w>
sel ler</w>
K ong</w>
Israel i</w>
H z</w>
1 17</w>
Liech tenstein</w>
Ad dress</w>
12 2</w>
il ling</w>
B S</w>
sof tw
labor atories</w>
free ze</w>
cre ative</w>
O rig
oper ates</w>
vig il
uni verse</w>
Veter inary</w>
so c
e po
de fe
dis appeared</w>
Ch ris</w>
st ating</w>
beli ef</w>
kid ney</w>
emb arr
Tr an
Fi re</w>
Scot land</w>
min ister</w>
de pri
sh alt</w>
pi pes</w>
cred its</w>
ba be</w>
F RE
B is
k ingdom</w>
vers ary</w>
sk illed</w>
coun cil</w>
L AN
H ang</w>
tra p</w>
Commission ers</w>
conce pts</w>
C .
Fail ure</w>
wides pread</w>
boo k
. sys</w>
profession als</w>
gr ain</w>
compu ters</w>
bul k</w>
TR AN
Chris ti
cont em
exis ted</w>
therap eutic</w>
gener ations</w>
produc es</w>
sub cutaneous</w>
rati fied</w>
l ingu
J am
rein forced</w>
ur b
An na</w>
up stairs</w>
shad ow</w>
z o</w>
st all
TS I</w>
neg li
S ounds</w>
B ot
de tri
Re qui
dic k</w>
T AI
subsidi aries</w>
hom es</w>
contam ination</w>
cer ning</w>
phosph ate</w>
p ace</w>
Rac hel</w>
N on
3. 2</w>
G ulf</w>
Bar ro
Mari e</w>
al and</w>
to wns</w>
ro t
m ouse</w>
prop ag
Tai wan</w>
fo ster</w>
com prise</w>
Tour ism</w>
form alities</w>
Cont act</w>
in i
acad emic</w>
si um</w>
enjo yed</w>
1 14</w>
warr ant</w>
e es</w>
am ic</w>
STR UC
pro pri
gr ound
M L</w>
repe at
dis patch</w>
Represen tatives</w>
w ound</w>
m ers</w>
y ou
occu pied</w>
i v</w>
ce ilings</w>
infring ements</w>
had n</w>
organ ism</w>
Jac ob</w>
ep id
Pl ay</w>
H un
premi ums</w>
anti virus</w>
li p</w>
cry stal</w>
Ad d</w>
Tri bunal</w>
H ong</w>
bro wn</w>
ol en</w>
L ES</w>
fa thers</w>
Surve illance</w>
in he
b all
TH AT</w>
L Y</w>
20 6</w>
be st
14 08</w>
0 000</w>
S ME</w>
BAT CH</w>
mis takes</w>
in k
h abil
con form</w>
For get</w>
Gr and
12 6</w>
s essions</w>
al ter</w>
clos est</w>
Bo ok</w>
lis her</w>
f ar
D O</w>
D I</w>
s ules</w>
cul tures</w>
commer ce</w>
4 50</w>
5. 3</w>
sal ary</w>
hy bri
K ir
it ative</w>
ad missible</w>
ch ocolate</w>
Gi b
f ed</w>
an ce
al tered</w>
10 ,000</w>
p y</w>
An ti</w>
2 20</w>
Be au
gain ing</w>
Import ant</w>
un usual</w>
L ady</w>
y pe</w>
su icide</w>
lifer ation</w>
ster o
por ary</w>
explic itly</w>
ag ging</w>
V oc
Di ffe
L au
L .</w>
bra king</w>
st ain</w>
ho p</w>
dar ling</w>
G ame</w>
st al
scrut iny</w>
ch oo
Tal k</w>
s now</w>
V olu
sensi tivity</w>
d addy</w>
blow job</w>
Balk ans</w>
ra rely</w>
C lose</w>
2 .</w>
me tal
expres sly</w>
comple mentary</w>
Z o
draf ting</w>
ce real</w>
Ar gen
over view</w>
mean time</w>
cum shot</w>
avo id
ti de</w>
ME TH
compe tences</w>
emer ging</w>
dis advant
G ri
fl uc
Ob viously</w>
Reco very</w>
restra int</w>
l on
exhi bition</w>
Whe ther</w>
injec tions</w>
ni ghts</w>
b our
softw ares</w>
gram mes</w>
pr on
com plying</w>
b is
gh o
electr on</w>
S earch</w>
Priv ate</w>
rein force</w>
dis posed</w>
wo ven</w>
K E</w>
12 8</w>
dea ths</w>
cir cul
I AS</w>
ong side</w>
ch ances</w>
De ad
Ap parently</w>
trac ted</w>
techn ically</w>
qui ries</w>
Fil m</w>
haz ard</w>
h an</w>
exha usted</w>
14 9</w>
cor n</w>
conver ted</w>
ga thered</w>
adjust ing</w>
t less</w>
paper board</w>
E le
re tained</w>
ut sch
coun ted</w>
tw entieth</w>
ur a</w>
S qu
uni fication</w>
Th er
Ste ve</w>
ech es</w>
ha ir
co sme
ti lis
AP PE
em y</w>
distor tions</w>
ci ally</w>
deli ghted</w>
pr ay</w>
h es
ac es</w>
org an</w>
comm ission</w>
Cry stal</w>
us age</w>
hygi ene</w>
poli tically</w>
hard ware</w>
U RES</w>
9 00</w>
s s
oc y
arrang ed</w>
referen dum</w>
c ited</w>
campaign s</w>
ap est</w>
ad ed</w>
ak er</w>
16 9</w>
lis ting</w>
tax pay
p an</w>
inter institutional</w>
Pro vi
Bet ween</w>
Ad just
Je wish</w>
re jection</w>
broad er</w>
im per
Pic tures</w>
mil d</w>
AI DS</w>
att acked</w>
D own</w>
M T</w>
Absol utely</w>
youn ger</w>
cha mber</w>
cal i
up dating</w>
u. int</w>
Cro ss</w>
pot atoes</w>
intraven ous</w>
concer ted</w>
cas ino</w>
A sh
Appro xim
hydr ate</w>
V A</w>
A h
tri gger</w>
vie wing</w>
ur gently</w>
su es</w>
e y
can cel
safegu ards</w>
eradic ation</w>
T ele
inf o</w>
less on</w>
inten tions</w>
ar gue</w>
will ingness</w>
proportion ality</w>
O il</w>
Under taking</w>
12 1</w>
ign ore</w>
PAR T</w>
conduc ting</w>
P RI
CON TIN
T RO
Sy n
p lo
allo y</w>
clean er</w>
n n</w>
C U
15 6</w>
17 8</w>
POL IC
inter ference</w>
fix es</w>
15 7</w>
m us</w>
han ded</w>
V C</w>
b les</w>
Le on
what soever</w>
li b
democ ra
Lim ited</w>
re mark
E .
lo s</w>
fluc tu
Youn g</w>
L s</w>
D ur
L angu
t ch</w>
B C</w>
C ut</w>
r on</w>
H ence</w>
L e</w>
hand led</w>
O l
CON TEN
bac ked</w>
ren e</w>
poc ket</w>
as sign
CI A</w>
struc k</w>
hepati tis</w>
vide os</w>
p ump</w>
al ous</w>
tim ing</w>
no where</w>
al i</w>
P ear
re construction</w>
CONTIN U
ran dom</w>
re fin
gr ati
flu id</w>
ser ves</w>
liber alization</w>
Radi o</w>
4 5
uc ks</w>
mean ing
0, 5</w>
post pon
veter in
ul ative</w>
Mar ia</w>
Al right</w>
S chem
ADMINISTR ATION</w>
4. 2004</w>
secret ary</w>
tu de</w>
C 3</w>
we l</w>
M ama</w>
Flow ers</w>
D S
mon ster</w>
re b
S tain
c ous
C lu
respon ses</w>
To ilet</w>
O lymp
im munity</w>
P M</w>
.e uro
A B</w>
requis ite</w>
trans formation</w>
i k
RE L
pub lisher</w>
i v
l un
p per</w>
den y</w>
Jud ah</w>
7 6
Ro ger</w>
fant astic</w>
exp and</w>
mon d</w>
Reg ul
Author isation</w>
ch er
b other</w>
b ell</w>
pre ference</w>
har der</w>
gain s</w>
work force</w>
den tally</w>
Cur rent</w>
Gu ideline</w>
interven e</w>
bur ied</w>
S end</w>
ES CB</w>
life time</w>
remo ving</w>
we sterly</w>
secu tion</w>
ne uro
capac ities</w>
aband oned</w>
FOR M</w>
oph ob
f itting</w>
H R</w>
dom ain</w>
in struction</w>
c ure</w>
Navi gation</w>
1 st</w>
sh an</w>
dis gu
mani fe
br ation</w>
aut umn</w>
o be
d t</w>
avo iding</w>
succe eded</w>
Bil ly</w>
tiv ated</w>
m itting</w>
av en
B U
1, 5</w>
th ur</w>
Statis tical</w>
Le vel</w>
v om
our se</w>
CL ASSI
0 6
techni que</w>
Volu me</w>
On line</w>
s k</w>
ne ts</w>
E .</w>
fol ks</w>
ti vities</w>
ho lidays</w>
bon us</w>
aw ful</w>
duc tion</w>
apologi ze</w>
F on
sc ans</w>
hol es</w>
St and</w>
libr ary</w>
decis ion
con comit
pursu ing</w>
every day</w>
P il
an dic</w>
sen sible</w>
ri bavirin</w>
ph y</w>
min ds</w>
1 16</w>
pre fer
moun tains</w>
Ph il
ox y</w>
inser t</w>
en coun
per man
Stain less</w>
un il
in tr
H a</w>
Govern ments</w>
enhan cing</w>
&apos; s
restaur ants</w>
bac king</w>
incredi ble</w>
dead lines</w>
cle aring</w>
gr ass</w>
back up</w>
17 0</w>
gr ace</w>
Mil k</w>
es cap
Po st</w>
k es
Buil ding</w>
id al</w>
experi mental</w>
investig ated</w>
reve al</w>
as leep</w>
3 3
com prises</w>
endeav our</w>
sulph ur</w>
Hy dro
John ny</w>
loy ed</w>
expec ting</w>
Icel andic</w>
ten d
ship building</w>
del ete</w>
red und
an ium</w>
T ab
some how</w>
go ds</w>
S om
Ar c
20 th</w>
ol an
be tr
an cies</w>
b arely</w>
S cre
recru itment</w>
mor tal
G all
op tical</w>
insu red</w>
bur gh</w>
a sion</w>
N ature</w>
off set</w>
it ably</w>
direc tions</w>
consci ousness</w>
br o</w>
OU T</w>
promot ed</w>
M un
disadvant aged</w>
forec asts</w>
elec toral</w>
repu tation</w>
pleas ant</w>
fl ash</w>
Free dom</w>
Ky oto</w>
t ap
subm itting</w>
cla uses</w>
per pe
conf used</w>
entr ance</w>
w ings</w>
brow ser</w>
O k</w>
utilis ation</w>
gi ble</w>
int ol
a.k. a.</w>
n ut</w>
ic on
tou ched</w>
F lu
Al liance</w>
invo ice</w>
AC H</w>
Po ker</w>
Je ho
vit ro</w>
teen th</w>
prospec t</w>
buc ks</w>
T ax
P ull</w>
comp are</w>
F ourth</w>
reven ues</w>
prof itable</w>
CON S
men s</w>
De sign</w>
bul let</w>
your selves</w>
spac es</w>
mis si
l an</w>
conver t</w>
be d
G en</w>
20 7</w>
tour na
EU A</w>
cohe rence</w>
health care</w>
Con tent</w>
ven ue</w>
cur y</w>
St ore</w>
al a</w>
SEC TION</w>
mul tin
reg ret
fun da
web sites</w>
charac ters</w>
am m
SU P
3. 5</w>
O PER
Yugosla v</w>
B obby</w>
counter fe
alterna tives</w>
reflec ting</w>
Sou thern</w>
ther mal</w>
n r</w>
be ans</w>
G ab
u me</w>
me ter</w>
empha size</w>
car cin
rev olution</w>
is tence</w>
ex pe
dis k</w>
Fam ily</w>
transl ated</w>
Not withstanding</w>
C lear</w>
2 70</w>
arti st</w>
ME AS
advis e</w>
reason ed</w>
amoun ted</w>
Gir l</w>
dep loyment</w>
aqu atic</w>
K u
A part</w>
cr ying</w>
- Yes</w>
an na</w>
Bo y</w>
rec over
2 30</w>
Is lam
exc ited</w>
cor rective</w>
18 5</w>
inven tory</w>
Ve hic
N ear
bi otech
T AL</w>
symp tom</w>
Ser iously</w>
it ate</w>
C 4</w>
brea the</w>
f asc
di fication</w>
Con stitu
W I
t anks</w>
experi ments</w>
exemp ted</w>
dis order</w>
O M
min ent</w>
adap ting</w>
pro du
Lib eral</w>
v ice</w>
id ity</w>
fit tings</w>
est er
aer op
17 7</w>
subsi dis
l i</w>
i fication</w>
st olen</w>
M s.</w>
sh ut
re payment</w>
t an</w>
Z im
s al</w>
g ay</w>
cap sules</w>
appe aring</w>
Viet nam</w>
S ev
M ommy</w>
Lou is</w>
dem anding</w>
chil led</w>
Tw enty</w>
F ru
ven s</w>
t .
kno ck</w>
intest inal</w>
lim iting</w>
A 5</w>
as ti
Introduc tion</w>
De an</w>
incorpor ate</w>
Gu ess</w>
st resses</w>
b ands</w>
Near by</w>
there after</w>
s si
righ te
li ps</w>
qu in
pic ally</w>
guarante eing</w>
o x</w>
Ar thur</w>
en tic
ang el</w>
M .</w>
illi ant</w>
in di
trans mit</w>
en tal</w>
des per
2, 5</w>
2. 3</w>
tin y</w>
A ma
autonom y</w>
pro ph
mother fucker</w>
Jack son</w>
bad ly</w>
repeat edly</w>
Pl ay
thropo i
Institu tion</w>
Th ings</w>
P lat
Medic ines</w>
forth with</w>
st ayed</w>
adop ts</w>
speci alist</w>
olan zapine</w>
Cha ir</w>
mi gh
an aemia</w>
Wor kers</w>
1 107</w>
tr ace</w>
compar ative</w>
EF SA</w>
distinc t</w>
il e
fac ial</w>
br a</w>
AP PL
CONTEN TS</w>
AR D</w>
A 3</w>
Sta r</w>
quar terly</w>
b and
K ate</w>
ar k</w>
Reg arding</w>
Mat er
audi ence</w>
wh is
V in
ep iso
Im port</w>
EX P
fil ms</w>
supple ments</w>
thresh olds</w>
licen se</w>
P la
speci alised</w>
T re
P hy
Voc ational</w>
Ch ic
ber ry</w>
sugg estion</w>
st ery</w>
issu er</w>
experi ment</w>
min al</w>
Ch er
inc in
Co ffee</w>
execu ted</w>
com ings</w>
stoc kings</w>
e u</w>
ban g</w>
pa.e u</w>
na tive</w>
cus sions</w>
WAR NING</w>
T P</w>
egr o</w>
Chem ical</w>
r ine</w>
t ancy</w>
imm une</w>
achie vements</w>
scre w</w>
prac tically</w>
on avir</w>
We b
Scot t</w>
D ING</w>
nick el</w>
ur ine</w>
ha em
N az
Parlia mentary</w>
Appropri ations</w>
psy ch
e h</w>
Al most</w>
ten ded</w>
effici ently</w>
continu ity</w>
ast e</w>
rou tine</w>
num er
ic ians</w>
la x
12 7</w>
Over all</w>
A ri
bat ch</w>
Spr ing</w>
rec alled</w>
mortal ity</w>
k W</w>
p acking</w>
Mo vement</w>
clou dy</w>
XX X</w>
Ti p</w>
Com ments</w>
y n</w>
secre ts</w>
be verages</w>
Fl at</w>
14 5</w>
integ rate</w>
7 7
con vince</w>
rat ings</w>
co at</w>
tre ating</w>
in ity</w>
bi tions</w>
Me dia</w>
dis appointed</w>
f i</w>
so oner</w>
lu x
pref erred</w>
mir ror</w>
kil o
J ane</w>
dispar ities</w>
so le
w ishing</w>
thor ou
im porting</w>
t ariffs</w>
R h
foot note</w>
NT 1</w>
De utsch
p us
max im
In v
ri gi
oper ative</w>
J ake</w>
Brow se</w>
umin ous</w>
pum ps</w>
Min imum</w>
distor tion</w>
aggreg ate</w>
mil f</w>
z inc</w>
occur ring</w>
unanim ous</w>
swee theart</w>
sacri fice</w>
ush ed</w>
G on
C enter</w>
&apos; S</w>
thro mbo
be g</w>
Tom orrow</w>
Mari time</w>
contribu tes</w>
dr yer</w>
accep ting</w>
trage dy</w>
br un
s light</w>
se c</w>
pro tocols</w>
out ta</w>
embarr ass
tor ture</w>
HA VE</w>
Ed die</w>
l ar</w>
thiaz ide</w>
rap e</w>
T op</w>
n ig
w ashing</w>
ig no
theore tical</w>
pos ted</w>
- l</w>
un changed</w>
ori entation</w>
b our</w>
bo dy
b lis
Sec ur
particip ant</w>
mo des</w>
veterin arian</w>
sti m
I FR
su peri
cr ashed</w>
IR Y</w>
G old</w>
F is
obser vers</w>
gen ous</w>
ban anas</w>
P ete</w>
Con nec
read s</w>
qu est</w>
6. 2</w>
im pressive</w>
b is</w>
5 6
k en
dec ent</w>
hear ts</w>
constitu ents</w>
tr ick</w>
prec ision</w>
Ang el
se ver
l um
simpli fy</w>
consign ments</w>
3 -</w>
Mol do
elim inated</w>
1. 4</w>
ri k</w>
har vest</w>
Car l</w>
architec ture</w>
Are n</w>
Def ence</w>
den ied</w>
coo ked</w>
CP A</w>
AS S
residu al</w>
ho ok</w>
Good bye</w>
fl our</w>
Am ount</w>
pul p</w>
sm ile</w>
independ ently</w>
global isation</w>
tribu tion</w>
fin es</w>
cat aly
201 9</w>
qu een</w>
An der
Jud ge</w>
su its</w>
bac ks</w>
A P</w>
spectr um</w>
vo id</w>
t reaties</w>
AS E</w>
g ather</w>
ev es</w>
pro mis
at ured</w>
respec ting</w>
inter nationally</w>
im med</w>
analy se</w>
L ight</w>
vic tory</w>
err al</w>
ain s</w>
AU C</w>
recipi ents</w>
inter f
dec iding</w>
o wing</w>
ati vely</w>
anni versary</w>
9 9
st am
off ences</w>
bur ned</w>
soci o</w>
ex cipients</w>
en ly</w>
R est
Gib bs</w>
cru de</w>
b icy
habil itation</w>
S G</w>
in take</w>
experi encing</w>
Dead line</w>
ar a</w>
consisten tly</w>
ann e</w>
R ot
C ul
l oud</w>
Ser ies</w>
vis e</w>
r ash</w>
purch ases</w>
S af
grap h</w>
annul ment</w>
on ian</w>
countr y
bab ies</w>
sk ill</w>
ru e</w>
har vest
obli g
cle ared</w>
CONTINU ED</w>
aud its</w>
Al low</w>
12 4</w>
P I
min isterial</w>
expres sing</w>
S even</w>
Cer tain</w>
hor mon
H ist
kid n
re insurance</w>
Pre tty</w>
legis lat
supple mented</w>
es .
an no
vi c</w>
In novation</w>
em bo
organ ise</w>
Con gress</w>
co in</w>
ist a</w>
ign ition</w>
ty res</w>
draf ted</w>
do sing</w>
15 9</w>
reli ability</w>
al ising</w>
trad ers</w>
R ou
ME MBER</w>
Spir it</w>
R ose</w>
continu ously</w>
sc rap</w>
tr agic</w>
rec ourse</w>
po unds</w>
auth entic
S imp
K ill</w>
vari ations</w>
Coun tries</w>
Con tents</w>
re tention</w>
pron oun
macro economic</w>
invest ed</w>
inter feron</w>
N uclear</w>
h ill</w>
el ds</w>
weak ness</w>
s om
es cal
12 9</w>
un cle</w>
se al</w>
imp acts</w>
PE N
TIT LE</w>
titu des</w>
L ine</w>
ES C</w>
il a</w>
Ex peri
Barro so</w>
ill ary</w>
comb ine</w>
anc er</w>
Qu ality</w>
d ay
Sc ope</w>
o g</w>
ap ers</w>
treat ments</w>
fer tilis
compens ate</w>
di ox
Cub a</w>
comple ment</w>
H ear
C S</w>
trac king</w>
perman ently</w>
B ay</w>
S ame</w>
foc using</w>
Ze aland</w>
M ust</w>
vil le</w>
ir rit
U s</w>
denom inated</w>
J an
sh oc
P y
B ol
ut most</w>
reflec tion</w>
en ess</w>
US ED</w>
DIS CONTINUED</w>
w ished</w>
ren z</w>
f in</w>
W ake</w>
rel ess</w>
N O</w>
cop yright</w>
adoles cents</w>
esti val</w>
Stock holm</w>
partic les</w>
US T</w>
dest inations</w>
fore most</w>
D al
3 18</w>
acet ate</w>
co ver
Sh all</w>
lau gh</w>
gl ory</w>
V ide
thir ds</w>
tem plate</w>
JO INT</w>
termin ated</w>
O ri
Re porting</w>
ad ly</w>
T UR
short comings</w>
Bul letin</w>
Ac ad
dic tionary</w>
v ail</w>
n g</w>
j ack</w>
ing o</w>
cell ul
Rom an</w>
ic t</w>
attribu ted</w>
F i</w>
p acked</w>
po p</w>
C ool</w>
Not es</w>
wholes ale</w>
sa ith</w>
or i</w>
S t</w>
el eg
confir ms</w>
F ro
u ps</w>
fing er
dec k</w>
carri es</w>
insp ired</w>
hydrox y
M R</w>
heav ily</w>
bo t</w>
deb ts</w>
Ba throom</w>
ø r
syn drome</w>
st an</w>
neighb ours</w>
c ats</w>
trac tors</w>
cy clo
en tail</w>
rol ls</w>
fa ke</w>
W oo
N ACE</w>
cr ash</w>
exerc ising</w>
.euro pa.eu</w>
prec lu
explan ations</w>
AI R</w>
Re pe
35 4</w>
Bri an</w>
14 8</w>
Sim on</w>
L ic
u k
lin ical</w>
em e
Is land</w>
vi an</w>
or g</w>
isol ation</w>
interven tions</w>
woo ds</w>
arti sts</w>
P eg
Ac count</w>
un desirable</w>
pir atory</w>
barri er</w>
Ar my</w>
ne ys</w>
dem ographic</w>
co ok</w>
de pression</w>
v enti
E specially</w>
dic t
att ach</w>
V it
aim ing</w>
perio dic</w>
tt es</w>
O S
op pose</w>
L A</w>
Dec ree</w>
ra ises</w>
b ite</w>
Stu dies</w>
ri an</w>
Sil ver</w>
Le ader</w>
L .
Hol der</w>
2. 3.
borro wing</w>
RE PUBLIC</w>
O x
mem bered</w>
ra tions</w>
Enter prise</w>
dis continued</w>
cust ody</w>
ass istant</w>
legi tim
M .
en rich
ac ity</w>
al ongside</w>
out set</w>
el and</w>
M eg
analo gue</w>
H op
un lawful</w>
gener ating</w>
fu r</w>
circu it</w>
wis dom</w>
Ser geant</w>
M and
stud ying</w>
saf ely</w>
g au
av a</w>
Est ab
ic op
dec ade</w>
13 5</w>
descri bes</w>
sequ ence</w>
ot a</w>
h l</w>
sp ati
dram atic</w>
Lab or
Insul in</w>
swim ming</w>
phr ase</w>
gover n</w>
G a
EX P</w>
counter party</w>
Dra ft</w>
17 2</w>
in correct</w>
associ ating</w>
17 5</w>
str ingent</w>
san itary</w>
dis missed</w>
tend ency</w>
hi red</w>
Clu b</w>
organis ational</w>
en der</w>
14 7</w>
complex ity</w>
I D
provision ally</w>
is s
C lim
d g
brun ette</w>
assu red</w>
K a
m ph
in spir
configur ation</w>
altern ate</w>
A tt
en ophob
Commun ist</w>
Fif th</w>
4 -</w>
them es</w>
DK K</w>
expan ded</w>
fing ers</w>
condem n</w>
law yers</w>
neighb our
inter n
id a</w>
00 000</w>
no vel</w>
person ality</w>
occur rence</w>
na ked</w>
movi es</w>
19 69</w>
tradi tions</w>
en do
si ves</w>
ins ane</w>
effec ted</w>
di visions</w>
lis tened</w>
soldi er</w>
F E</w>
eli hood</w>
k ie</w>
demonstr ates</w>
T AC
Rom a</w>
A M</w>
hy dra
ha med</w>
- It</w>
pl a
eth yl
acc used</w>
Willi am</w>
mo is
sus cep
ome ter</w>
foot wear</w>
shor ter</w>
po is
hi l</w>
swee tie</w>
Cle arly</w>
perio dic
B anks</w>
me als</w>
l us
de vil</w>
Be hold</w>
po o
Ri ver</w>
mo od</w>
emphas ised</w>
bot tles</w>
ar i</w>
municip al</w>
sto res</w>
apart ments</w>
Pro vince</w>
NO T</w>
S V</w>
K ev
K ING</w>
per missible</w>
condem ned</w>
cab in</w>
S W
fa x</w>
ty re</w>
p al</w>
fulfil ment</w>
e g</w>
co oling</w>
t ted</w>
s son</w>
unanim ity</w>
cul tivation</w>
ci dal</w>
T ABLE</w>
Jose ph</w>
gl om
P rec
o v</w>
migh ty</w>
prolong ed</w>
co ck
bor ing</w>
Rom anian</w>
fav our
spe eches</w>
municip alities</w>
in ine</w>
E ither</w>
ans en</w>
r um
int age</w>
e ased</w>
del ayed</w>
FIC ATION</w>
pur ity</w>
deb ated</w>
G az
An dre
ver sus</w>
be hold</w>
pro liferation</w>
Dro p</w>
in n</w>
Cha mp
re tri
human ity</w>
P .</w>
secur iti
ab dom
sp ell</w>
p ink</w>
form ulation</w>
ur ged</w>
rit onavir</w>
of i</w>
poin ting</w>
d .</w>
an don</w>
ery thropoi
li ar</w>
Mon ten
mer ch
in ely</w>
tox ic
up dates</w>
Vi ra
s pl
Electr ic</w>
fur t</w>
b ond</w>
ag ne</w>
Cali for
pre me</w>
ar ises</w>
Dri ve</w>
preser vation</w>
Rel ax</w>
F E
pup ils</w>
levi es</w>
V eg
B 3</w>
ell ers</w>
cha ired</w>
par ad
W all
CO N</w>
ro l</w>
lif ting</w>
TAI L</w>
nec klace</w>
abol ished</w>
un de
dang ers</w>
Qu estions</w>
spirit ual</w>
co decision</w>
In correct</w>
Ath ens</w>
Re ports</w>
rec ti
encoun tered</w>
mil li
neutr al</w>
stop ping</w>
mod est</w>
diagno sis</w>
win ner</w>
DV D</w>
C D
APPL IC
TE RI
A A</w>
sho ts</w>
a rest</w>
Aar on</w>
remark able</w>
14 2</w>
sec ut
ri x</w>
N u
ear th
dot ted</w>
cap abilities</w>
mu no
lib eral</w>
h all
Sm ith</w>
regul ate</w>
ong shan</w>
En ough</w>
19 0</w>
jack et</w>
emer ged</w>
dark ness</w>
Ger man
re turning</w>
A partment</w>
obstac le</w>
co w</w>
off ence</w>
open ness</w>
co c
f an
Ry an</w>
A my</w>
2 nd</w>
sh ake</w>
ra z
r he
port able</w>
K G</w>
G ot
1 31</w>
tun nel</w>
syst emic</w>
under mine</w>
19 67</w>
ometr ic</w>
Ac tivities</w>
r and
Ex cell
broad ly</w>
6 8
ste ering</w>
pass word</w>
anti bio
POLIC Y</w>
7 5
Al ter
or ange</w>
class ical</w>
c ad
ac in</w>
Moldo va</w>
philosoph y</w>
d is</w>
W rit
20 3</w>
under stand
ut ro
2 35</w>
s ing
lands cape</w>
din burgh</w>
Bo dy</w>
Mo sco
se iz
confi dent</w>
trans position</w>
o cean</w>
dra ws</w>
diplom as</w>
distil lation</w>
wor rying</w>
ic ing</w>
Dou ble</w>
vis iting</w>
l ane</w>
z ers</w>
dum b</w>
grav ity</w>
P G</w>
o le
it i</w>
Me eting</w>
rac ing</w>
differen tly</w>
ang les</w>
Res er
tribu te</w>
pre tend</w>
lik elihood</w>
Constitu tional</w>
wh ore</w>
ar ma
E mer
B eli
Proble m</w>
a j
who ever</w>
Mal ay
E dinburgh</w>
t ants</w>
obser ver</w>
gu ards</w>
genu inely</w>
age ing</w>
survi v
Ry an
Fi x
sc and
B ad</w>
Appe al</w>
ple a</w>
newsp aper</w>
ex cre
SER V
16. 11.
expi red</w>
corpor ations</w>
grap e</w>
ed ema</w>
deal er</w>
cl oud</w>
S av
M AG
EXP IRY</w>
S O</w>
stand ardi
sil ent</w>
Syst ems</w>
METH OD</w>
18 7</w>
p ills</w>
in validity</w>
ambi gu
flu or
clari fication</w>
D istr
RI P</w>
s letter</w>
ven tures</w>
trac ks</w>
ro ds</w>
LI A
fil ed</w>
ren dered</w>
ef s</w>
amoun ting</w>
B A</w>
T us
POR T</w>
cous in</w>
Indu stri
ARTIC LE</w>
ti ps</w>
nigh t
gan g</w>
T ax</w>
Am bass
defin ite</w>
cl er
re membered</w>
protec tion
eth ical</w>
odi ties</w>
m ust
ch at</w>
t es
on i
h em
gi ant</w>
edi atric</w>
T XXX</w>
d ys
Wh it
under ground</w>
S ust
E p
Cre dit</w>
Ex penditure</w>
pi e</w>
AR E</w>
Mi x
C s</w>
B ren
wh el
ro man
Ap plic
inci dents</w>
T ed</w>
Ryan air</w>
yl on</w>
shap ed</w>
N ar
Per fec
Di g
APPE AR</w>
h r</w>
speci fying</w>
spati al</w>
ra is
conf er</w>
rec k
ap p</w>
ty pically</w>
re production</w>
detec t</w>
fur thermore</w>
15 2</w>
3 47</w>
dam ages</w>
credi ble</w>
Su gar</w>
IFR S</w>
E T</w>
D G
ser i
Sud an</w>
vail able</w>
ess ence</w>
SO D</w>
sacri fic
spir its</w>
ro pe</w>
jud ges</w>
R as
sh ed</w>
remain der</w>
lin ear</w>
appro x</w>
Br acelet</w>
fil ling</w>
S em
aff air</w>
De tailed</w>
i f
fol der</w>
tr o</w>
real ised</w>
kno c
bio diversity</w>
S it
mono poly</w>
licen sing</w>
Egy p
ten dering</w>
qual itative</w>
poss ess</w>
co coa</w>
W r
Cop y</w>
un used</w>
Wea ther</w>
out line</w>
fores e
For m</w>
re placing</w>
x ili
LIS T</w>
fat ty</w>
imp aired</w>
wor n</w>
explo it</w>
Monten egro</w>
Com pe
so far</w>
Schem e</w>
T é
win d
vari ation</w>
entreprene ur
auc tion</w>
F lor
Ass istance</w>
er als</w>
tro pical</w>
se aled</w>
pestici des</w>
p d
at or
M ess
3 37</w>
ush ing</w>
A viation</w>
ynam ic</w>
dis man
an ol</w>
B SOD</w>
un fortunate</w>
inten se</w>
fi res</w>
au x</w>
4 68</w>
lab els</w>
horri ble</w>
thre w</w>
X P</w>
thorou ghly</w>
promis ing</w>
divi de</w>
Pr o</w>
5 5
n in
zh ongshan</w>
T s</w>
st ap
particip ated</w>
est ers</w>
t am
compe ting</w>
be ars</w>
A lar
ong s</w>
inst al
deb ating</w>
character istic</w>
pro test</w>
16 8</w>
ir ts</w>
bat teries</w>
PAR LIA
K in
v ag
g or
dri ves</w>
cap ability</w>
trail ers</w>
U E</w>
Le e</w>
rad ical</w>
Califor nia</w>
M ir
F it
ye arly</w>
tak e
e k
di alysis</w>
14 3</w>
ic ed</w>
con fined</w>
bra ve</w>
Ch uck</w>
A z
13 3</w>
persensi tivity</w>
st ops</w>
acc or
war n</w>
V .</w>
uni or</w>
dis ability</w>
vom iting</w>
substitu te</w>
C C</w>
low s</w>
clou ds</w>
author s</w>
Sust ain
IN I
assemb led</w>
in appropriate</w>
se gment</w>
us ea</w>
refriger ator</w>
mem ories</w>
Kev in</w>
safegu arding</w>
pre vail</w>
thir ty</w>
analy zes</w>
Re d
iti s</w>
anticip ated</w>
modern isation</w>
deteri or
AG ING</w>
compu ter
conclu ding</w>
x es</w>
sh ine</w>
pe trol</w>
u lic</w>
m ittee</w>
in dispen
ro les</w>
en ters</w>
ad ds</w>
pro vince</w>
def endant</w>
pass es</w>
f its</w>
um a</w>
distor t</w>
Val ue</w>
divor ce</w>
mis taken</w>
publish ing</w>
pollut ants</w>
ju red</w>
K at
Gu ide</w>
ES A</w>
lo go</w>
Tra in</w>
sk a</w>
reduc es</w>
J ason</w>
m bers</w>
V EL
H it
Chic ago</w>
licen sed</w>
S and
Sum mary</w>
7 2
Wor d</w>
vari ables</w>
medium sized</w>
g li
Pre liminary</w>
EU R
Bar ry</w>
al right</w>
Sho wer</w>
ME T</w>
EC E</w>
17 6</w>
train s</w>
13 7</w>
sovere ign</w>
alph a</w>
Su b</w>
30 2</w>
c ess</w>
U tili
En ti
emo tional</w>
MR Ls</w>
comm ission
I mp
fulfil ling</w>
br illiant</w>
E ven
20 2</w>
scr at
exam inations</w>
di min
Ar t.</w>
Ag ainst</w>
inhe rent</w>
ai res</w>
un ning</w>
i ety</w>
try meat</w>
on wards</w>
inter racial</w>
wan ting</w>
vari ed</w>
clari fied</w>
J EC
b age</w>
D re
EL DR</w>
ST OR
cha ir
op t</w>
acc ord</w>
di g</w>
d é
F F</w>
7 50</w>
gu ided</w>
pen sion
S ul
IM O</w>
Chi le</w>
under ing</w>
co ating</w>
A E
V an
Identi fication</w>
app le</w>
An ne</w>
valid ation</w>
v ah</w>
s i</w>
H om
ang i
best os</w>
br acelet</w>
Cl au
trail er</w>
Sh eriff</w>
Pe ace</w>
au to
assi fication</w>
sil ence</w>
mater i
Mosco w</w>
col oured</w>
16 5</w>
cris es</w>
air line</w>
si ans</w>
Li ve</w>
Ap plications</w>
val ve</w>
mer cy</w>
design ations</w>
T U
B j
Lib ya</w>
v aries</w>
sk in
wit n
17 3</w>
Man ager</w>
succ essive</w>
F resh</w>
ear ned</w>
Un sure</w>
re tail
over sight</w>
i P
do in</w>
abo lic</w>
H ans</w>
Finan cing</w>
organ ize</w>
o tic</w>
Pers on
PARLIA MENT</w>
ME DI
str ang
be ds</w>
da e</w>
14 1</w>
respon ding</w>
G B</w>
to il
supple menting</w>
op pon
as er</w>
character ised</w>
LE G
exha us
counter parties</w>
Al ice</w>
Li ving</w>
Im ports</w>
no tion</w>
Coun ty</w>
pun ishment</w>
Frank furt</w>
18 9</w>
impe tus</w>
def ense</w>
S ing
D ave</w>
An dy</w>
e ter</w>
chloro thiazide</w>
We ek</w>
don or</w>
mag azine</w>
Gr ace</w>
16 7</w>
j i</w>
celebr ate</w>
Zim bab
t ress</w>
stra in</w>
influ enced</w>
docu mented</w>
N ope</w>
orm one</w>
neigh bor
mus eum</w>
d ancing</w>
assum ing</w>
Be ing</w>
M ill
quali fying</w>
work shops</w>
li m</w>
2 80</w>
hel icop
expl ore</w>
K on
I Z
Gre ens</w>
fel ong</w>
P regn
por n</w>
explan atory</w>
t all</w>
app ren
II I
Blo od</w>
F ish</w>
pl anted</w>
pe ar
sp i
liter ally</w>
ec tor</w>
Ge e</w>
ser ial</w>
in complete</w>
Jer ry</w>
Commer cial</w>
Stu dy</w>
Is sue</w>
war nings</w>
tr usted</w>
jur y</w>
end ers</w>
comple ting</w>
Ven e
T ags</w>
Statis tics</w>
PACK AGING</w>
4 6
b risk</w>
O P</w>
L IC
cat alogue</w>
Soci alists</w>
rest oration</w>
poo rest</w>
pic king</w>
exerc ises</w>
Ar rang
Distr ict</w>
indispen sable</w>
Tech no
K ey</w>
AI D</w>
s olu
lit res</w>
con ve
be it</w>
clean ed</w>
to s</w>
er n
C ab
empha sized</w>
rest ing</w>
explic it</w>
decreas ing</w>
dis closed</w>
Co ach</w>
2. 4</w>
deduc ted</w>
grap hic</w>
Hel sin
Coord ination</w>
17 1</w>
s ch</w>
mor tg
fe ars</w>
ATI ONAL</w>
vol ati
ug ly</w>
bench mark</w>
be sides</w>
announ cement</w>
S aul</w>
Tele phone</w>
3, 5</w>
te d
o th
A O</w>
pl uses</w>
N I</w>
Fac il
PROC ED
3. 0</w>
poly mer</w>
rand om
pro files</w>
mathema tical</w>
th ylene</w>
lat ely</w>
vit amin</w>
sle pt</w>
on ym
16 2</w>
n an
mat ches</w>
metabol ism</w>
ca b</w>
c and
re conciliation</w>
bu yer</w>
utili zes</w>
o res
h us</w>
char ter</w>
s pher
ag o
Lo t</w>
E ver</w>
incorpor ation</w>
at ers</w>
De pos
res ort</w>
reg en
prote ins</w>
pres sures</w>
plan ting</w>
arm ing</w>
é s</w>
j e</w>
b led</w>
Ar ti
tack ling</w>
4 00
un limited</w>
R isk</w>
Helsin ki</w>
P ath</w>
ro ad
as se</w>
trav els</w>
16 1</w>
lia ison</w>
gen e</w>
Gl ass</w>
Par ticul
Inter pre
tain ly</w>
F ishing</w>
13 2</w>
v ampi
J HA</w>
B ayer</w>
r icul
push ed</w>
Argen tina</w>
un like</w>
m es
is ure</w>
sump tions</w>
forese eable</w>
M uch</w>
Inte rest</w>
Contin ue</w>
or n</w>
N AL</w>
Certi fic
ca res</w>
3 .</w>
re vo
im balances</w>
over whel
Pi er
lingu istic</w>
direc tors</w>
att ach
s wa
hun t</w>
C T
system atically</w>
s welling</w>
V EN
Brea k
fil ament</w>
contr actors</w>
ab eth</w>
ru de</w>
j an
gener ous</w>
af t</w>
Islam ic</w>
preci ation</w>
j i
um ption</w>
t ing
5 9
Jo ey</w>
A in</w>
1. 1.
cellul ose</w>
age ous</w>
threat en</w>
tang ible</w>
intelli gent</w>
en vel
Fi x</w>
to wer</w>
Mon ey</w>
la p</w>
Lu ke</w>
Emil y</w>
defin es</w>
laun ching</w>
D uc
substan ti
Mus eum</w>
I l
Pr inci
sw allow</w>
R on
import antly</w>
defici ency</w>
enophob ia</w>
Qu ick</w>
semin ars</w>
Har mon
to oth</w>
is co</w>
R C</w>
w ich</w>
X I</w>
re fined</w>
Instru ment</w>
bur y</w>
under going</w>
st amp</w>
GU E</w>
mer cury</w>
sli p</w>
Up on</w>
um ns</w>
quot ed</w>
decision making</w>
Ph one</w>
ister ing</w>
w ering</w>
thro wn</w>
M echan
t ling</w>
e dy</w>
ben zo
R IC
Qu ite</w>
biotech nology</w>
head quarters</w>
TO TAL</w>
tis ation</w>
ge o
er ts</w>
pri de</w>
fea sible</w>
St or
Clar k</w>
Secur ities</w>
suffici ency</w>
re habilitation</w>
cylin der</w>
can cel</w>
wit nesses</w>
fr action</w>
ro rs</w>
tle ments</w>
p H</w>
na h</w>
sub ord
s é</w>
co ach</w>
R .</w>
Qu i
Cast le</w>
Can ary</w>
Clim ate</w>
th yl</w>
sup plying</w>
rup t
attr act</w>
ast ing</w>
ast ed</w>
h r
M I</w>
lac king</w>
as sumption</w>
PL Y</w>
Mo del</w>
Oper ation</w>
defic its</w>
Swe et</w>
vis ibility</w>
O ffici
8 7
Con go</w>
rest ored</w>
N ation
15 8</w>
ter most</w>
expi re</w>
consum ed</w>
An im
16 4</w>
delic ate</w>
can cell
Gro ss</w>
ph al
go in</w>
dar ies</w>
C el
- That</w>
grou ping</w>
So dium</w>
re per
mat ching</w>
g est
En d</w>
-------- --------
n aph
gam bling</w>
ali en</w>
pl ant
Al uminium</w>
20 9</w>
sal mon</w>
benef iting</w>
Sh er
H D</w>
de tention</w>
S on
Maj esty</w>
1. 7.
sh aving</w>
col lapse</w>
as bestos</w>
Leg is
des ert</w>
Rec i
in ant</w>
wat ched</w>
E v
20. 12.
prof essor</w>
Phar ma</w>
leg ality</w>
le gen
wi ves</w>
E d</w>
main tains</w>
k top</w>
in os</w>
in jured</w>
con secu
gre y</w>
ar y
spe aks</w>
pan els</w>
rail ways</w>
ne arest</w>
formul ated</w>
J an</w>
ail s</w>
Lat er</w>
semin ar</w>
work shop</w>
in stances</w>
grad es</w>
S F</w>
discipl inary</w>
To gether</w>
x y</w>
it ty</w>
Mar ine</w>
h n</w>
un related</w>
sh ri
ti um</w>
substan tive</w>
st ays</w>
spre ading</w>
T ay
fre sh
clu bs</w>
M em
In struc
IM F</w>
10. 2003</w>
Bir th</w>
after wards</w>
Remo ve</w>
I tem</w>
inter ior</w>
equ ation</w>
cur ious</w>
Ter rit
suggest ing</w>
b ills</w>
A 00
investig ating</w>
et c.</w>
re aches</w>
ei l</w>
speci alized</w>
fat al</w>
erg ies</w>
Sar a</w>
t ful</w>
cap ture</w>
su ited</w>
Cal m</w>
assign ment</w>
preven ts</w>
at titudes</w>
T ob
el les</w>
W y
20 4</w>
Pr ince</w>
Mar shall</w>
WH AT</w>
F al
F IR
2 34</w>
mom ents</w>
defici encies</w>
Mo der
under lined</w>
m ile</w>
SUB ST
Fru it</w>
v intage</w>
ud ine</w>
s atur
inter val</w>
ass ass
I M</w>
Gr an
2 18</w>
ad ian</w>
K S</w>
scre ening</w>
writ er</w>
rec y</w>
fun eral</w>
5 000</w>
scenari os</w>
imp regn
h ormone</w>
d ine</w>
sec uring</w>
es is</w>
ph ases</w>
centur ies</w>
W all</w>
F s</w>
E Y</w>
tu p</w>
sur pluses</w>
K now</w>
16 6</w>
ar is
- Oh</w>
sear ching</w>
Le o</w>
ris t</w>
push ing</w>
memor andum</w>
Manufac tu
col our
AP PRO
te x</w>
pd f</w>
19 1</w>
be et</w>
Jeho vah</w>
psycho logical</w>
mis tak
deliber ations</w>
sub stitution</w>
hun ger</w>
1, 3</w>
v y</w>
ox id
em ann</w>
ammon ium</w>
De ar</w>
An ton
lin king</w>
CO UR
rep lied</w>
neg lec
STATE S</w>
L ac
Ar ch
T an
tis sues</w>
Z one</w>
R are</w>
4. 6</w>
stimul ating</w>
control ler</w>
ari ans</w>
Sup er</w>
as sumptions</w>
chem otherapy</w>
re strial</w>
c ess
30. 4.2004</w>
in ding</w>
fulfil s</w>
N ec
Cer tainly</w>
cred itors</w>
sc ar</w>
lish ing</w>
evalu ating</w>
Med ical</w>
Ex clu
im muno
N R
tour ists</w>
demonstr ating</w>
trac tor</w>
contr actor</w>
3 60</w>
en sive</w>
ROU TE</w>
Ni el
Car ter</w>
ten sive</w>
lic it</w>
Zimbab we</w>
V ista</w>
2 68</w>
iz ations</w>
acti vation</w>
K az
C MO</w>
read ily</w>
igno red</w>
et ting</w>
ma st
clin ically</w>
Gu ang
4 9
14 4</w>
glo ves</w>
e ks</w>
cook ies</w>
gly cer
Perfec t</w>
A ye</w>
tat too</w>
pass age</w>
consci ence</w>
appropri ately</w>
ack er</w>
Electr onic</w>
15 5</w>
li kewise</w>
integr ating</w>
cl icking</w>
Bro wn</w>
boun daries</w>
Mar tin
O DS</w>
Br un
ev ed</w>
H ep
deli ver
T URE</w>
un due</w>
ome ters</w>
en i
broad cast
Mat t</w>
op hi
pharmacokine tics</w>
fo ol
embry os</w>
there for</w>
optim al</w>
co d</w>
sk el
hur ts</w>
buty l</w>
C ere
di verse</w>
K ris
F air</w>
H ad</w>
enzy me</w>
RE ACH</w>
vis as</w>
gen ius</w>
doc k</w>
administr ator</w>
Hor iz
D or
cre at
yl ate</w>
poul trymeat</w>
bloc ked</w>
sk ins</w>
den ing</w>
under gone</w>
pul ling</w>
comm odities</w>
as hi
fea sibility</w>
Ex plan
commod ity</w>
F .
tr im
super vised</w>
mo thers</w>
co lo
RE S
Kore an</w>
fr ame
P P
mater nity</w>
Al i</w>
sion ally</w>
pen s</w>
circu its</w>
ã o</w>
A k
Pho to</w>
war ned</w>
ic he
e e
cr ack</w>
ten ds</w>
pain ful</w>
is tic
explo sion</w>
Con struction</w>
Por t</w>
ca kes</w>
15 4</w>
z u
J acqu
emb er
Pro gress</w>
sal aries</w>
l as</w>
in cl
diagno stic</w>
bio cidal</w>
at tered</w>
ar c</w>
Inter ior</w>
W aste</w>
L ake</w>
Conclu sions</w>
sec recy</w>
ox ides</w>
cle arer</w>
An dro
hy th
E x</w>
Ar men
ke en</w>
se af
initi ating</w>
descri ptions</w>
convic tion</w>
Sho ot</w>
MARKE T</w>
B 5</w>
e book</w>
H aw
s lot</w>
FIN AN
a sive</w>
3 88</w>
pl ated</w>
Sh h</w>
recommen ds</w>
8 0
termin ate</w>
13 4</w>
MEAS URES</w>
Cam bo
in sofar</w>
6 6
newsp apers</w>
F ab
pe ts</w>
v ol</w>
ul ating</w>
haz ards</w>
coun ty</w>
Pay ment</w>
2 16</w>
bor row</w>
ho sti
J un
f our
cust om</w>
alloc ations</w>
in hal
3. 3</w>
so m</w>
out break</w>
R S</w>
evalu ations</w>
ö r
valu ed</w>
thi op
b ance</w>
at re</w>
OU R</w>
S ab
ver t</w>
L ess</w>
20 5</w>
a us
phen yl
T T</w>
lo cal
chi ps</w>
good bye</w>
cor ro
Ab by</w>
tal ent</w>
T emp
ot ed</w>
cir cles</w>
jec ting</w>
choo sing</w>
ant ine</w>
ic on</w>
He ad
. The</w>
al izing</w>
30 1</w>
s ers</w>
lif ted</w>
er ie</w>
comb inations</w>
ac ter
ta p</w>
R ay
gall ery</w>
behavi or</w>
ro i
rec tion</w>
po und</w>
S au
Pro per
Pregn ancy</w>
Ex per
stro ke</w>
serv ative</w>
municip ality</w>
H ague</w>
9 99</w>
rec ession</w>
Objec tives</w>
Mil itary</w>
C oo
sp in</w>
anc illary</w>
G .</w>
acc ru
S H</w>
ES MA</w>
on om
in ch</w>
vin yl</w>
in solvency</w>
J ones</w>
Pear l</w>
ten ding</w>
surroun ded</w>
mag n
OL AF</w>
p ment</w>
legitim acy</w>
T RE
Dig ital</w>
for tune</w>
rou ghly</w>
medic ation</w>
ban ned</w>
µ g</w>
uc le
les bian</w>
tr ucks</w>
or na
neighbor hood</w>
high lights</w>
ar ose</w>
S wee
men d
accum ulation</w>
frea k</w>
18 6</w>
tle man</w>
in cl.</w>
allo ys</w>
Lis a</w>
journ alists</w>
worth iness</w>
re ward</w>
G rap
mer gers</w>
br ut
D M</w>
p ity</w>
cosme tic</w>
water way</w>
utili zation</w>
str ing</w>
liter ature</w>
fif teen</w>
accep ts</w>
it s
concomit ant</w>
L IN
CH MP</w>
jud ged</w>
Ap ple</w>
stat ute</w>
Pre viously</w>
K aren</w>
trad ed</w>
co ws</w>
wit ch</w>
sur faces</w>
J ere
pos als</w>
e ira</w>
F ord</w>
Effec ts</w>
emp tion</w>
X III</w>
An d
ab sur
15 3</w>
iz za</w>
inclu sive</w>
ho ea</w>
Con cerning</w>
19 2</w>
consecu tive</w>
L ang
se ve
plat forms</w>
mois ture</w>
metr ic</w>
ear marked</w>
bu g</w>
16.11. 2007</w>
ste am</w>
g la
d der</w>
He ading</w>
sil ly</w>
spec tac
in et</w>
align ment</w>
Ch anges</w>
sy l
ir besartan</w>
- We</w>
suc k</w>
ris on</w>
mat ory</w>
flo ors</w>
W ay</w>
Te am</w>
pers istent</w>
equival ence</w>
Vide o</w>
transf erring</w>
on i</w>
od ds</w>
earth qu
d s
cu b
col umns</w>
si x
6. 3</w>
ware house</w>
roman tic</w>
pri ests</w>
bal ancing</w>
Acad emy</w>
é e</w>
o eu
hosp itals</w>
com partment</w>
ec ho
Cho ose</w>
19 5</w>
tic o
0, 1</w>
lan es</w>
PE S</w>
Chris top
CN S</w>
o li
head ache</w>
conveni ence</w>
F our
cor relation</w>
Pro visions</w>
7 0
deriv ative</w>
p ile</w>
gho st</w>
ex ec
A RE
Trans lation</w>
wor sen
las er</w>
P ick</w>
2 40</w>
correc tions</w>
A IN
shap es</w>
propor tional</w>
distingu ish</w>
20 8</w>
Pe ter
Loc ation</w>
H ands</w>
terroris ts</w>
Gen tlemen</w>
a g</w>
G A</w>
p ist
meaning ful</w>
m s
ex changed</w>
benef ited</w>
si e</w>
p it</w>
X II</w>
re pression</w>
he res</w>
en force</w>
SUP PLY</w>
Re turn</w>
seri ousness</w>
precau tionary</w>
appreci ation</w>
Pe ti
la undering</w>
dam aging</w>
constitu ent</w>
anti bodies</w>
aff ili
inflam mation</w>
cigare ttes</w>
pul sion</w>
cap es</w>
R ail
MF Is</w>
L ily</w>
2 b</w>
17 4</w>
wh it
le isure</w>
tic k</w>
th ec
Colom bia</w>
bi om
P as
privileg es</w>
f est</w>
O ff</w>
re ts</w>
Utili ties</w>
Con c
16 3</w>
in forming</w>
cross border</w>
G lo
um b</w>
A x
sk immed</w>
mast urb
eth ylene</w>
N ight</w>
T est
M oun
multi plied</w>
al ties</w>
om et
ag as
Malay sia</w>
19 64</w>
al beit</w>
O liver</w>
absor bed</w>
R ad
Pack age</w>
taxpay ers</w>
ri e</w>
L U
sim pl
f ans</w>
en shr
au xili
st ag
silic on</w>
m ask</w>
conc ession</w>
tot alling</w>
prob ability</w>
fru str
E ric</w>
astro intestinal</w>
ou termost</w>
mu tually</w>
non member</w>
def ending</w>
oeu v
H air
18 4</w>
th ful</w>
ni um</w>
f o</w>
broad cast</w>
bank rupt
alloc ating</w>
Langu age</w>
na usea</w>
pat ri
Lo ans</w>
In fra
, 5</w>
subs cription</w>
ro tation</w>
ens en</w>
eng agement</w>
extr acts</w>
AN D
wast es</w>
u ous</w>
min imal</w>
gi fts</w>
m ill</w>
an i
Hell enic</w>
St reng
CO R</w>
s ne
P hil</w>
L S</w>
crimin als</w>
Bul g
r ush</w>
congrat ulations</w>
S mar
stipul ates</w>
ex ter
C V
Bur ma</w>
A bo
reg ion
H ank</w>
cap ita</w>
H ER
res umed</w>
associ ate</w>
g olden</w>
ear ning</w>
car ded</w>
pro ves</w>
in ject</w>
ster ing</w>
ther ine</w>
Reg ister</w>
Pre vious</w>
ste l</w>
saf er</w>
public ity</w>
c hapters</w>
V a
interf ere</w>
g aps</w>
W on
unde res
id ine</w>
3 96</w>
fi a</w>
bo iling</w>
S uc
no tices</w>
ta to</w>
ON E</w>
5 10</w>
as is</w>
inev itably</w>
as pi
W O
ingredi ent</w>
deep er</w>
F I</w>
wat ches</w>
C au
B ER
v ine
p act</w>
l ity</w>
ad venture</w>
w ron
thro wing</w>
dis plays</w>
fi ers</w>
levi ed</w>
zz iness</w>
ot ox
edi ble</w>
Spec ies</w>
&apos; clock</w>
fr ames</w>
S ti
bloc king</w>
T en
S CH
Chil d</w>
weak nesses</w>
COM P
volunte ers</w>
deduc tion</w>
Mil an</w>
3 43</w>
marg inal</w>
H us
2 11</w>
Tran si
re productive</w>
conveni ent</w>
at tain</w>
Al an</w>
3 20</w>
th ick</w>
sail ing</w>
pl ur
in er</w>
duc t</w>
ru in</w>
gar age</w>
down load
ax le</w>
induc ed</w>
inev itable</w>
Equ al</w>
D ong</w>
dis agree</w>
cancel led</w>
self employed</w>
f ted</w>
injec ted</w>
c any</w>
respon ded</w>
Y Y
H and</w>
counter vailing</w>
Jo sé</w>
2 25</w>
ati gue</w>
Conver ter</w>
cell aneous</w>
W h</w>
sour ced</w>
ar ts</w>
au er</w>
Inter im</w>
H T
vir tual</w>
ha r</w>
ref using</w>
pro vo
exp anding</w>
S even
ur anium</w>
A qu
la m</w>
c i</w>
contam inated</w>
18 3</w>
1, 4</w>
ball ast</w>
and in
chem ically</w>
ampi e</w>
may or</w>
thro p</w>
s inging</w>
plic ate</w>
eng er</w>
cartrid ge</w>
design s</w>
bel ts</w>
Pl ant</w>
thre esome</w>
fit ness</w>
wei ghts</w>
c ables</w>
Fix er</w>
4 7
perspec tives</w>
ei j
AC TIVE</w>
w aves</w>
tr ation</w>
sc op
n ail</w>
m oul
c il
fr ac
Th ough</w>
IC E</w>
tr action</w>
Qu anti
Defin itions</w>
ea red</w>
cre ampie</w>
spr ay</w>
f ting</w>
la wn</w>
it ory</w>
1 -</w>
surg ical</w>
g ating</w>
ch ase</w>
h ast</w>
Meth od</w>
Inter institutional</w>
substitu tes</w>
NG L</w>
dep lo
G as</w>
dem on</w>
Institu tional</w>
soci o
ro d</w>
o ven</w>
dic tat
D K</w>
C max</w>
mir acle</w>
Wor ks</w>
seas onal</w>
seve rely</w>
lan ded</w>
el e</w>
rang es</w>
de rers</w>
li via</w>
ab sent</w>
refuge e</w>
ell i</w>
cir cular</w>
G E</w>
loc ate</w>
fin ishing</w>
Al ph
r in
superi or</w>
ste pped</w>
av is</w>
Em ma</w>
Com ing</w>
th is
shi re</w>
low ering</w>
d ressing</w>
R D</w>
AS A</w>
a. m.</w>
exten ds</w>
L AB
fri gh
Olymp ic</w>
C 5</w>
ter race</w>
reci pe</w>
C EN
qu alities</w>
diversi fication</w>
S mo
Euro just</w>
rigi d</w>
pp ers</w>
Sp ace</w>
res piratory</w>
reciproc al</w>
accred itation</w>
vie w
om on</w>
di arr
Hal f</w>
li est</w>
explo sive</w>
d op
c ation</w>
G ET
ti tles</w>
6. 5</w>
var ying</w>
ap pl
Inv esti
spher ic</w>
prof essions</w>
injur ies</w>
he art
fo il</w>
don ors</w>
arbitr ation</w>
out look</w>
enjo ying</w>
S port</w>
Commer ce</w>
T ren
3 75</w>
down stairs</w>
OJ L</w>
J .
eg o</w>
Ni k
Inde x</w>
rela x
on ds</w>
micro grams</w>
ES S</w>
de vi
tre mend
in forma
Tus cany</w>
pain ted</w>
less er</w>
Ton ight</w>
slaugh ter
phys ically</w>
my stery</w>
hon estly</w>
am ble</w>
tr apped</w>
g olf</w>
but t</w>
Tex as</w>
17 84</w>
remin ded</w>
co inci
H all</w>
slaugh tered</w>
short age</w>
hybri d</w>
pe l</w>
consoli date</w>
V AL
25 3</w>
op athy</w>
Goo ds</w>
D ex
bedro oms</w>
0 9
ST RI
vigil ance</w>
distingu ished</w>
Po or</w>
M C</w>
electron ics</w>
po tato</w>
intermedi ary</w>
gen tleman</w>
We b</w>
sil k</w>
minim ise</w>
dro ve</w>
Fe atures</w>
kne es</w>
Rob in</w>
18 31</w>
19 58</w>
promp tly</w>
Con ven
docu mentary</w>
Er as
br ic
ac company</w>
GN P</w>
pul se</w>
n i</w>
il ia</w>
St ock</w>
R et
19 66</w>
lin en</w>
laugh ing</w>
iche ver</w>
col on
IC T</w>
l ou
br ush</w>
ali ke</w>
than king</w>
prop ylene</w>
ab el</w>
mus ical</w>
agg age</w>
B LE</w>
dem anded</w>
excep tionally</w>
alloc ate</w>
N y
Mad agas
k ill
i ary</w>
connec ting</w>
ban ces</w>
Word Press</w>
il ly</w>
i tive</w>
3 rd</w>
pre vailing</w>
l on</w>
dilu tion</w>
He ating</w>
ther ly</w>
inspec tors</w>
Wh ilst</w>
B AN
R oc
woo den</w>
sp y</w>
par a</w>
mistak enly</w>
198 0s</w>
sur prising</w>
preclu de</w>
al g
over dose</w>
d well</w>
crow d</w>
G un
F el
reper cussions</w>
2 60</w>
dol l</w>
pill ars</w>
cre ati
adver sely</w>
k s
distribu tors</w>
pro vin
comm ander</w>
pl ing</w>
magne sium</w>
Y ester
L ING</w>
A li
K r
E valuation</w>
m esh</w>
de ple
D est
lab elled</w>
gar ments</w>
distur bance</w>
N ine</w>
Fo ot
Cat al
fe atured</w>
W ol
Lar ge</w>
sin ce
i fied</w>
in tra
Con tro
mac ro</w>
enti tlements</w>
cur ricul
escap ed</w>
deli vering</w>
concentr ates</w>
S tri
Out look</w>
s ins</w>
Win throp</w>
AG RE
sp heres</w>
kin da</w>
car box
D im
t z</w>
k le</w>
happ iness</w>
air space</w>
Madagas car</w>
EP P</w>
up grade</w>
fif ty</w>
ambi tion</w>
25 1</w>
tourna ment</w>
tim ber</w>
si es</w>
frequ encies</w>
il licit</w>
dis advantage</w>
Yester day</w>
in puts</w>
S at
M erc
Any body</w>
ne ar
secut or</w>
lo ving</w>
attemp ted</w>
H ard</w>
syr up</w>
mus cles</w>
min erals</w>
h h</w>
ans wering</w>
P D</w>
N .
tic a</w>
inst alling</w>
3 A4</w>
proce eds</w>
ban ana</w>
sc ha
foc uses</w>
anx iety</w>
ag a</w>
s can</w>
handic apped</w>
fer tili
John son</w>
thri tis</w>
vacc ines</w>
ra ys</w>
co ol
direc tory</w>
bacter ia</w>
a es
H .
Ho ward</w>
gen ic</w>
Sh ort</w>
DO M</w>
1, 2</w>
lu gg
co very</w>
at ter</w>
att or
atis ation</w>
dev ast
ass ent</w>
em en</w>
St an
sex y</w>
se am
do zen</w>
ass y</w>
scre wed</w>
flo ating</w>
O cean</w>
M M</w>
Docu ment</w>
pan ties</w>
hormon es</w>
delic ious</w>
deal ers</w>
cor rupt</w>
ac r
E co
Ber n
valid ated</w>
bl an
S pen
ther to</w>
stic ks</w>
en ce
imper ative</w>
augh ters</w>
e w
dec lined</w>
claim ing</w>
arma ment</w>
Commit tees</w>
H F
Cl assification</w>
val ent</w>
ta res</w>
shi ft
ven ant</w>
sy m
lux ury</w>
x enophobia</w>
lox acin</w>
cap tive</w>
Phy s
D L</w>
on au
plan es</w>
p acks</w>
ing en</w>
distur bances</w>
5 75</w>
selec ting</w>
ref rain</w>
f ancy</w>
boo ts</w>
C ard</w>
in sec
Wo ven</w>
E CON
Co sta</w>
35 8</w>
prop yl</w>
need les</w>
win ding</w>
pi x
m ama</w>
G I</w>
Can adian</w>
ref erral</w>
Gu y</w>
liber ty</w>
Ne goti
min i</w>
Aut omatic</w>
ir o</w>
ap ples</w>
LE T</w>
s oph
Pro di</w>
carbon ate</w>
M unicip
stric ter</w>
g ates</w>
dep loyed</w>
believ able</w>
ag ons</w>
Vic tor</w>
RE QU
m aid</w>
g el
enzy mes</w>
B ag
en cry
Mor gan</w>
Alar m</w>
medi an</w>
az one</w>
AT A</w>
regim es</w>
GE T</w>
se ments</w>
lo op</w>
Bl ack
ar ks</w>
N A
mid st</w>
jeop ardis
su r</w>
Direc tors</w>
ry lic</w>
Th ought</w>
Ho t</w>
Lo s</w>
4. 2.
pis sed</w>
Pers onal</w>
Individu al</w>
remedi es</w>
or us</w>
ir re
ce ased</w>
ali as</w>
ab und
BA T</w>
s ni
cha irs</w>
Anal y
è re</w>
ing es</w>
M emor
en comp
at ro
Corpor ation</w>
Anal din</w>
S oc
ti ve
ens in</w>
func tionality</w>
D eli
C ash</w>
w ins</w>
li felong</w>
contr acted</w>
STATE MENT</w>
Phili pp
r ick</w>
mol lus
m ise</w>
intermedi aries</w>
Mul ti</w>
2 28</w>
wa ited</w>
ing s
dest ined</w>
P a</w>
resid ential</w>
rel la</w>
. COM</w>
g ne
re cip
cor rid
M as
B V</w>
3 000</w>
inspir ation</w>
dis pat
am bul
harmon ized</w>
author izing</w>
OU TER</w>
F ra
ma ker</w>
im balance</w>
Me an
Bulg arian</w>
19 9</w>
u tility</w>
cancell ation</w>
el o
a a</w>
Veg as</w>
Per sons</w>
Inclu ding</w>
ell as</w>
constitu ting</w>
sen ds</w>
reg isters</w>
impregn ated</w>
go ats</w>
regul ating</w>
en tails</w>
comm anded</w>
ch a</w>
le af</w>
c f</w>
ECON OM
An s
tu ber
deb tor</w>
S l
B y
satis fying</w>
progres sively</w>
desper ate</w>
Norm ally</w>
Facil ities</w>
man oeuv
emer ge</w>
degrad ation</w>
ag en</w>
14 6</w>
ome try</w>
incin eration</w>
I E</w>
introduc tory</w>
cum ulative</w>
as certain</w>
Val en
lin s</w>
hydra ulic</w>
th westerly</w>
fr actions</w>
P re</w>
sle ep
sc are</w>
re comb
agg ressive</w>
long it
V eget
Ste ph
sign ation</w>
euro s</w>
Vari ous</w>
er b
Ch annel</w>
in door</w>
fo ssi
accel erated</w>
Ri o</w>
phys ician</w>
b ou
an es
X VI</w>
J ensen</w>
res ume</w>
coun selling</w>
ga thering</w>
i b</w>
at lantic</w>
ab andon</w>
TE S</w>
40 4</w>
voc ation</w>
sch ol
de preciation</w>
chi p</w>
and is</w>
a o</w>
Pro tec
Mad eira</w>
tack led</w>
suscep tible</w>
su le</w>
neighbour hood</w>
depri ved</w>
Squ are</w>
K ING
19 3</w>
institu tes</w>
m ic</w>
Interpre tation</w>
Eras mus</w>
share holder</w>
pi p
Tra vel</w>
Beli eve</w>
Ab ra
or able</w>
bankrupt cy</w>
bo il
Pro jects</w>
soci ally</w>
mo vable</w>
A w</w>
encour agement</w>
M ade</w>
p on</w>
l ds</w>
form ity</w>
Le on</w>
preser ving</w>
non etheless</w>
equ ili
Andro id</w>
WH O</w>
sub headings</w>
dig it</w>
comm and
N ah</w>
Mag gie</w>
Initi ative</w>
s isters</w>
poten ti
Plan ning</w>
Govern or</w>
wat t</w>
instruc ted</w>
elim inating</w>
T im</w>
Mo z
L or
regret table</w>
d aughters</w>
S EN
sol o</w>
periodic ally</w>
pus sy</w>
ble w</w>
Compe tent</w>
standardis ation</w>
ber y</w>
representa tions</w>
recip es</w>
privileg ed</w>
terro r</w>
h its</w>
Flo rence</w>
30 5</w>
wor e</w>
recomb inant</w>
enti s</w>
18 8</w>
ge red</w>
V il
o gene
o .
Guang Dong</w>
2 a</w>
in the</w>
fix er</w>
Beau tiful</w>
sm u
c in</w>
ad dic
S ø
multin ational</w>
man kind</w>
enter tainment</w>
St al
Col or</w>
6. 6</w>
vo ices</w>
shi eld</w>
ex ac
P VC</w>
H IC
in king</w>
g in
re vi
embar go</w>
t aneous</w>
psy chi
country side</w>
Stat ement</w>
Ex tension</w>
good ness</w>
bureauc racy</w>
te ar</w>
Sol ved</w>
B B</w>
w ars</w>
fore ign
e aten</w>
dis close</w>
go at</w>
cho le
app rais
fore going</w>
ex t
car ton</w>
under line</w>
od ynamic</w>
cur se</w>
symp athy</w>
loc ally</w>
aud itors</w>
Po wer
tr e</w>
f atten
j et</w>
Ken ne
i er</w>
so red</w>
cros sed</w>
poss essing</w>
ev ac
abol ish</w>
Pre vention</w>
L DR</w>
Cri minal</w>
un install</w>
awa ke</w>
C ar</w>
sur render</w>
op ath
ap ar
l end</w>
autom ated</w>
A vailable</w>
practi tion
dis abilities</w>
mol ec
encour ages</w>
avoid ably</w>
a is</w>
out comes</w>
ver te
n age</w>
lish ment</w>
speci alists</w>
Tay lor</w>
R ab
temp le</w>
draf t
Emp loy
stre aming</w>
scan ning</w>
g eared</w>
attribu table</w>
yl er</w>
pp y</w>
di al</w>
indi genous</w>
ge ographic</w>
correspon dence</w>
Ne ed</w>
B ru
AN T</w>
im pressed</w>
Sol omon</w>
LE G</w>
I t
ud ge</w>
resi ding</w>
N EC
Consul tative</w>
whe el
d k</w>
Vir us</w>
Cam p
re tar
prof loxacin</w>
Writ ten</w>
3 D</w>
as hamed</w>
el abor
Bun des
frame works</w>
Jacqu es</w>
199 0s</w>
photograp hs</w>
ab bed</w>
v et</w>
datab ases</w>
Mat the
O pening</w>
ob s
il es</w>
Ac ting</w>
sub missions</w>
dis per
ass isting</w>
PC MAG
PCMAG .COM</w>
HO W</w>
swit ching</w>
on ium</w>
concer t</w>
at tained</w>
25 6</w>
k ling</w>
St abil
E thiop
17 82</w>
prefer ably</w>
mu ta
lon ely</w>
loc king</w>
affir med</w>
Ma king</w>
EP A</w>
40 6</w>
hydr o</w>
R IS
tr am
pe d
m as
Su rely</w>
S K
he ated</w>
contr ac
cont est</w>
SY N</w>
rac es</w>
unil ateral</w>
stat utes</w>
sou ls</w>
Equi pment</w>
soph istic
ch et</w>
Lar ry</w>
Ch annels</w>
top ical</w>
swi m</w>
o let</w>
h m</w>
Sal es</w>
si de
L B</w>
H im</w>
be ar
al ine</w>
Sel f</w>
lay ers</w>
ess en</w>
determin es</w>
ali an</w>
E A
je alous</w>
5 40</w>
. ht
under go</w>
ru ined</w>
plu g</w>
be ast</w>
w ashed</w>
pan ic</w>
P I</w>
am in
B ath</w>
fluctu ations</w>
Reco gn
MA TERI
anc ell
Eli z
pan ies</w>
hydrox ide</w>
ank a</w>
mis leading</w>
n.e. c</w>
San ter</w>
OP INI
35 7</w>
survi ved</w>
Sc andin
G AR
De ad</w>
pharmacokine tic</w>
occa sionally</w>
dis hes</w>
M B</w>
sulph ate</w>
sli de</w>
reg ation</w>
17 9</w>
AD DRE
mani fest</w>
hec tares</w>
ce pt</w>
F a
H ope</w>
reinfor cing</w>
fer ry</w>
e ability</w>
O w</w>
M UST</w>
fr ank
trav ellers</w>
ren a</w>
is er</w>
inter rupted</w>
accoun tability</w>
d res
F .</w>
near by</w>
lo gn
cer amic</w>
SO CIAL</w>
18 1</w>
3 91</w>
ot er</w>
mon t</w>
institu te</w>
hydro chloride</w>
em an</w>
am us
tom atoes</w>
imag ination</w>
emor r
COUN TR
W N</w>
Wil d</w>
P ack</w>
E g
intol er
appe ti
Prof essional</w>
Experi ence</w>
19 4</w>
cle ans
Nig er
p it
fac tual</w>
Ro ss</w>
OJ L
radi us</w>
dro ps</w>
D y
hy poten
e de</w>
contro versi
apor e</w>
PR EC
wh ichever</w>
miti gation</w>
l he</w>
es hip</w>
mut andis</w>
10 49</w>
download --
download-- saving</w>
om ed</w>
char t</w>
Excell ent</w>
see kers</w>
se wing</w>
recogn ises</w>
bureauc ratic</w>
antibio tics</w>
adequ acy</w>
muta tis</w>
fo dder</w>
Sing apore</w>
PUB LIC
&apos; The</w>
cat astro
e ternal</w>
bur nt</w>
Natur ally</w>
v apo
un expected</w>
vi r</w>
eu tic
ag grav
r age</w>
imp ly</w>
he m</w>
av ed</w>
appro aching</w>
Su n</w>
Soli darity</w>
AR C</w>
socio economic</w>
2 26</w>
mid night</w>
UC H</w>
s ongs</w>
ab uses</w>
R e</w>
es .</w>
dir t</w>
ant agon
ad mi
iz z
figh ter</w>
sulph on
perpe tr
Wal es</w>
IC AO</w>
Collec tion</w>
. 3</w>
swit ched</w>
busin ess
B I
as e
form in</w>
explain ing</w>
atmo spheric</w>
K la
tr aw
b en</w>
defe at</w>
Pal ace</w>
30. 6.
r ounds</w>
ha iry</w>
e ur</w>
Mach ine</w>
19 8</w>
k icked</w>
Alex ander</w>
26 58</w>
po ison</w>
che aper</w>
liqui ds</w>
it us</w>
O u
p raise</w>
accel er
bur dens</w>
130 8</w>
F requ
we ed</w>
reason ing</w>
TR AC
Peti tions</w>
PO SI
m i</w>
Man ual</w>
Anim als</w>
draw ings</w>
Requi rements</w>
F err
poly mers</w>
pa ediatric</w>
Pri ze</w>
5 4
nit ude</w>
Tit an</w>
R DE</w>
is y</w>
con y</w>
invo ked</w>
Per i
Mic hel
re con
C R</w>
speci fies</w>
secret ariat</w>
old est</w>
o va</w>
in ians</w>
ap it
F EC
inter actions</w>
P sy
wast ed</w>
ste ad
pas sion</w>
Integr ated</w>
k el</w>
inf ants</w>
hal t</w>
al de
ou l</w>
masturb ation</w>
e be</w>
T reas
EM S</w>
C RE
h ated</w>
friend ship</w>
O w
p m</w>
cur ve</w>
bus es</w>
an onym
X T</w>
V ar
spo use</w>
he im</w>
cri pt</w>
Initi al</w>
G ary</w>
sc ary</w>
ground water</w>
organ ising</w>
dro w
cou n</w>
promp t</w>
Rh ine</w>
sun ny</w>
stero ids</w>
shi fts</w>
cle ver</w>
E ST
0. 1</w>
m aps</w>
ir regular</w>
Fron t</w>
trad em
re mark</w>
equili bri
differenti ated</w>
L es
pip eline</w>
Pet ro
to y</w>
over night</w>
ot ensin</w>
industri alized</w>
K B
Ch ron
tr ail</w>
ta g</w>
o date</w>
P ay</w>
Max Utilities</w>
x y
pri or
32 23</w>
trans late</w>
har ass
ce ments</w>
ca ine</w>
accor ded</w>
So on</w>
rad ar</w>
F UN
ü r
oblig atory</w>
it er</w>
God damn</w>
Gar den</w>
E F</w>
advis able</w>
pro found</w>
co incidence</w>
clo th</w>
Defin ition</w>
Al l
sen sor</w>
P en</w>
Oc cu
B 4</w>
stu dio</w>
ak h
res ist</w>
o zone</w>
bl ank</w>
To k
off al</w>
mani pul
roun ded</w>
o res</w>
grand father</w>
absur d</w>
H az
prison er</w>
che ating</w>
Emer gency</w>
j am
T Y</w>
etr ies</w>
cor d</w>
Hist ory</w>
B lu
German s</w>
30 4</w>
h ose</w>
f atigue</w>
cor p
Econ om
tri angle</w>
ord in
p. m</w>
ef f</w>
e ff
Res ults</w>
arti stic</w>
R AP
dictat or
ul ty</w>
b aggage</w>
S K</w>
O t
ri er</w>
biom ass</w>
Sec tor</w>
li th
ar do</w>
toil etries</w>
cont acted</w>
ar thritis</w>
deliber ately</w>
UC ITS</w>
1. 6</w>
tw o
thou se</w>
differen tial</w>
diab etic</w>
H it</w>
2 24</w>
priv atisation</w>
p lot</w>
coordin ates</w>
ag u
OR G
so ap</w>
m ates</w>
im en</w>
extr acted</w>
cha ins</w>
PACK AGE</w>
W ine</w>
J ess
Impro vement</w>
mer its</w>
del e
rever sible</w>
Prin cip
AS E
2, 4</w>
pro ving</w>
wei gh</w>
Gener ally</w>
p itch</w>
ans k</w>
affor dable</w>
Oper ations</w>
- He</w>
dest iny</w>
comp ression</w>
ST E</w>
19 6</w>
hi therto</w>
bro ch
acces sibility</w>
Un avoidably</w>
Car di
j o</w>
CONS LEG</w>
Pri or</w>
EN TS</w>
AD E</w>
judg ement</w>
diff ering</w>
cap tured</w>
accomm odate</w>
WOR K</w>
w ling</w>
fin alised</w>
ar row</w>
Fac ebook</w>
wa x</w>
up grading</w>
eng th</w>
deliver ies</w>
R A</w>
Mo ham
C en
w w</w>
K im</w>
ten derer</w>
oun ce</w>
lot te</w>
In di
30 3</w>
arch y</w>
dis proportionate</w>
den ed</w>
dec lining</w>
kilo grams</w>
er s
Gaz a</w>
3 70</w>
o vine</w>
invest ing</w>
21 st</w>
S ize</w>
Pay ments</w>
Pan el</w>
Grou ps</w>
th ine</w>
roc ks</w>
g ies</w>
P le
Eliz abeth</w>
5 8
stri kes</w>
emer gence</w>
Che ers</w>
Luc y</w>
Go ing</w>
DE VEL
op tic</w>
butt ons</w>
C u
lip tin</w>
entreprene urs</w>
Te a</w>
F ER
u el</w>
ci v
tiv ar</w>
na sty</w>
mix ing</w>
19 65</w>
all y
Mc Gee</w>
AI L
cro wn</w>
F oc
av entis</w>
wai ver</w>
ag liptin</w>
P ra
12 60</w>
lo dging</w>
defin itively</w>
Fil es</w>
ph thal
pe red</w>
ge ous</w>
bre ed</w>
IG C</w>
tis m</w>
enfor ced</w>
S kin</w>
EE SC</w>
nit rate</w>
distribu te</w>
y p
rol ler</w>
rec tang
W i</w>
w olf</w>
t u</w>
essi vely</w>
cam ps</w>
B ad
pat ents</w>
pati ence</w>
mark er</w>
A ge</w>
san ofi</w>
sub system</w>
qui d</w>
confir ming</w>
blo wn</w>
under took</w>
C P</w>
le an</w>
d ul
5 0.
q i</w>
istr ies</w>
cigare tte</w>
buff er</w>
creat inine</w>
R evision</w>
Govern ors</w>
sun g</w>
in ches</w>
m m
ill um
Z i
S HA
PROCED URE</w>
May or</w>
Ch ec
scre aming</w>
c al</w>
a si
phys ics</w>
optim um</w>
bas ket</w>
P ST</w>
Hair dryer</w>
dec omm
sci ences</w>
k it</w>
anx ious</w>
U K
EP AR</w>
CO D</w>
C hapters</w>
program s.</w>
Un installation</w>
L aw
C ris
lat or</w>
gl ut
tremend ous</w>
s on
am ins</w>
Memor andum</w>
Le ague</w>
24. 12.
l est</w>
ger ich
alle vi
a e
S ri</w>
H aven</w>
St ud
loc k
hop efully</w>
gy m</w>
T I</w>
B T</w>
reit erated</w>
Palest ine</w>
POS AL</w>
p iss</w>
int ent</w>
s ail</w>
p assive</w>
eleg ant</w>
cat ching</w>
erythropoi etin</w>
econom ics</w>
be ts</w>
grap hy</w>
Mean while</w>
subm its</w>
ne utro
em ade</w>
OPER ATION</w>
Ca reful</w>
skin ny</w>
B o</w>
Som alia</w>
ff ed</w>
explo ited</w>
b att
E ight</w>
olog ically</w>
ter restrial</w>
ster ol</w>
interpre t</w>
grap h
S ter
F M</w>
C in
rati fy</w>
cardi ac</w>
El ena</w>
30 9</w>
ili ans</w>
coupl ing</w>
Su preme</w>
epo etin</w>
detri ment</w>
Cap e</w>
30 8</w>
w rought</w>
ef avi
epid emi
b ron
al together</w>
FI ED</w>
reti red</w>
ow ns</w>
ann exes</w>
12 55</w>
Sus an</w>
tor que</w>
stap le</w>
sever ity</w>
re financing</w>
controversi al</w>
Offici als</w>
35 5</w>
z i</w>
stri ps</w>
finan cially</w>
argu es</w>
h on</w>
Ther ap
p ick
di zziness</w>
cere mony</w>
tri g
ch asing</w>
ang ing</w>
Scre en</w>
Particip ation</w>
Lo wer</w>
H ansen</w>
z á
ob struc
K le
thr one</w>
efavi renz</w>
T op
Niel sen</w>
Coun cils</w>
Conclu sion</w>
B ou
abdom inal</w>
PHAR E</w>
warm ly</w>
pro jected</w>
corpor ation</w>
Ham burg</w>
K or
w a</w>
vi br
mom en
fossi l</w>
eutic als</w>
attemp ting</w>
Super visory</w>
C are</w>
n els</w>
ECONOM IC</w>
pra yer</w>
cri tici
s ab
appreci ated</w>
gg ling</w>
Mo dification</w>
DEVEL OP
analy sing</w>
Ven ice</w>
MO s</w>
tal e</w>
In tivar</w>
vill ages</w>
dom inate</w>
Un employment</w>
C old</w>
reven ge</w>
ific ations</w>
enhan cement</w>
diam onds</w>
Ch ech
perce ived</w>
boun dary</w>
bo arding</w>
Res ources</w>
ste pping</w>
p unch</w>
n est</w>
Mu sic</w>
Comm is</w>
35 2</w>
re actor</w>
pestici de</w>
dis bur
P O</w>
percent ages</w>
Char acter
2 23</w>
gradu ate</w>
MATERI ALS</w>
In stall
Spe aking</w>
N er
enshr ined</w>
st em
polic y
m ou
inhibit or</w>
F uture</w>
4 .</w>
3 2.
tt i</w>
acqu iring</w>
D ol
CYP 3A4</w>
C ru
ear liest</w>
to l</w>
K yle</w>
w rec
attor ney</w>
stra p</w>
Docu ments</w>
ri gen
ma ke
descri bing</w>
bas ement</w>
Bal ance</w>
poc kets</w>
fatten ing</w>
exac erb
ro id</w>
m n
k ills</w>
Pho ebe</w>
apprais al</w>
spo ts</w>
In tel
G etting</w>
Jo ined</w>
3 a</w>
tradi tionally</w>
co stly</w>
Kar l</w>
pos itively</w>
omet res</w>
av al</w>
auxili ary</w>
Sen ator</w>
Pos sible</w>
K elly</w>
seg ments</w>
ch op
w ay
log ically</w>
dr ying</w>
Orig inal</w>
us eless</w>
Cour se</w>
3 19</w>
arri ving</w>
S mi
Har vey</w>
Car oline</w>
8 81</w>
4. 7</w>
war ri
p izza</w>
incredi bly</w>
ar dian</w>
Egyp tian</w>
der ness</w>
app ell
Pat rick</w>
be in</w>
SUBST ANCE</w>
wh ich
law fully</w>
l f</w>
ch y</w>
O .</w>
Abo ve</w>
fl ashing</w>
T ou
R econ
suspic ion</w>
mon key</w>
b ble</w>
el even</w>
appe als</w>
E MENT</w>
sub str
ste aling</w>
Sustain able</w>
F red</w>
reit erate</w>
phot ography</w>
om ers</w>
clo sures</w>
P ig
accompl ished</w>
K er
I ron
H au
Fe ed</w>
Arc tic</w>
AS T</w>
ye ar
F ly
2 15</w>
z on</w>
GO ODS</w>
noti fying</w>
furn ished</w>
Car los</w>
.. ...</w>
negli gible</w>
l s
O .
Gi br
Comm and</w>
add res
scri pt</w>
ro wing</w>
OFFIC IAL</w>
ship ped</w>
rob ust</w>
child hood</w>
Who ever</w>
S EC</w>
- Hey</w>
recei pts</w>
promot es</w>
gh s</w>
ed itor</w>
e an</w>
dis advantages</w>
Cor n
- How</w>
swa p</w>
ris en</w>
detec tive</w>
cons or
T am
ly mph
liqui dation</w>
Ukra inian</w>
tri ps</w>
end ang
Dom in
postpon ed</w>
jun c
atten ding</w>
E RE
stabil isation</w>
ra d</w>
categ or
b old</w>
Mot or</w>
C at</w>
sen sors</w>
ques tioned</w>
in tim
f ence</w>
re vol
Whe el</w>
2 97</w>
targe ting</w>
in sti
L aughter</w>
re lied</w>
announ ce</w>
6. 4</w>
5 00
W ay
G am
kil ometres</w>
car c
ES T</w>
metabol ites</w>
innov ations</w>
cul osis</w>
J ur
expres ses</w>
pl un
modern ization</w>
cu r</w>
arbitr ary</w>
Spe ed</w>
wo ke</w>
ol es</w>
lis on</w>
in fin
f loo
SI BLE</w>
Pier re</w>
challeng ing</w>
Tro jan
phot o
lu bric
Mun ich</w>
p t
Pr inc
A K
E u
wast ing</w>
om y
car cases</w>
S ophi
squ ee
oun ding</w>
ap pen
T OR
Fi xed</w>
l n
di alog</w>
A LL</w>
wi reless</w>
val ence</w>
diff ers</w>
LI FE</w>
Ca tho
since rely</w>
emorr ha
cul p
Reg istr
Cy pri
s lic
pack ings</w>
mi de</w>
Cambo dia</w>
in her
ou tr
Gu ard</w>
C G</w>
C F</w>
ch ur
IC H</w>
Abra ham</w>
F C</w>
h il
for ty</w>
ab s</w>
S UCH</w>
su ite</w>
Vin cent</w>
do or
aris en</w>
ang els</w>
WA STE</w>
L än
tur b
recur rence</w>
h itting</w>
qu et</w>
dr ill</w>
character ized</w>
Dis play</w>
mortg age</w>
Philipp ines</w>
G I
FIR ST</w>
Ch ro
restric ting</w>
l é
inf ant</w>
Main tenance</w>
H F</w>
A ah</w>
dis covery</w>
En ter</w>
process or</w>
pa.e u.int</w>
ner ve</w>
frank ly</w>
OFFIC E</w>
2 22</w>
lo e</w>
le verage</w>
enthusi asm</w>
dor f</w>
6 18
3 65</w>
ta b</w>
tom atic</w>
pur se</w>
no ble</w>
B ase</w>
Ang ola</w>
3 40</w>
sophistic ated</w>
hand job</w>
G S</w>
or th
my ster
hi er
be ating</w>
Commun ity
trad es</w>
m ount</w>
dist ant</w>
diarr hoea</w>
archi ves</w>
Tru e</w>
Jes se</w>
F S</w>
lo ver</w>
cap rine</w>
sor ts</w>
m ons</w>
can e</w>
bo ot</w>
str anger</w>
per or</w>
compar ing</w>
CL U
shi pow
G BP</w>
Ban king</w>
rel uc
polye thylene</w>
St one</w>
rele ases</w>
Phot os</w>
th ed</w>
ing ham</w>
br ac
CH AIR</w>
vir gin</w>
sho e</w>
i .</w>
gang bang</w>
appeti te</w>
M ight</w>
jo ints</w>
ch ester</w>
D um
sh irts</w>
ra ft</w>
Tar get</w>
G il
19 7</w>
sm en</w>
dum p</w>
Gibr altar</w>
FRE E</w>
mat h</w>
deri ve</w>
af ore
Under standing</w>
Rus sians</w>
Let ters</w>
ro yal</w>
ni p
inter s</w>
Wh enever</w>
A 2</w>
con stru
C it
30. 12.
n m</w>
e ye
STOR AGE</w>
CH IL
t are</w>
compli ant</w>
S OL
Ex plo
4 0.
ore r</w>
pig meat</w>
ADDRE SS</w>
vi e</w>
paren tal</w>
li que
Res istance</w>
cooper atives</w>
ath le
M it
si ghts</w>
f ashi
ure a</w>
particul ate</w>
bl in
15 80</w>
Palest inians</w>
Conc iliation</w>
An th
he els</w>
ser vers</w>
o ved</w>
mag nitude</w>
lugg age</w>
wron g
po s</w>
chick ens</w>
3 38</w>
2 47</w>
om ing</w>
entrepreneur ship</w>
Wil son</w>
Ir besartan</w>
subsidis ed</w>
Ir anian</w>
s wing</w>
net working</w>
b less</w>
solu ble</w>
co s</w>
S lot</w>
Fi eld</w>
ro t</w>
hand some</w>
R and
practic able</w>
lit azone</w>
IN N</w>
satis fies</w>
equilibri um</w>
Ti er</w>
Fac ility</w>
f ers</w>
TER S</w>
6 00
stre am
gener ators</w>
po ur</w>
un certain</w>
hydro chlorothiazide</w>
Jess ica</w>
m amm
ac etic</w>
R ub
sen tences</w>
it ated</w>
discre pan
P DF</w>
perce ption</w>
continu ally</w>
Re duc
Pap a</w>
Ans wer</w>
zz o</w>
prud ential</w>
pre hen
fac to</w>
ambi ent</w>
R ick</w>
Mater ial</w>
E ve</w>
s cep
r é
Pi per</w>
J eff</w>
eth anol</w>
down stream</w>
Y ou
on set</w>
hi des</w>
Ro y</w>
draft sman</w>
author ize</w>
Re stric
Re pair</w>
Deleg ation</w>
mis sibility</w>
OC T</w>
Intel li
Gal ile
1 a</w>
stoc k
poli es</w>
org asm</w>
d ining</w>
S AF
An nie</w>
environ ments</w>
a ine</w>
Employ ers</w>
su p</w>
no b
T ak
Sal v
Ar chi
sla ve</w>
prin cess</w>
Sau di</w>
N avy</w>
om i</w>
o wed</w>
explo sives</w>
hi d</w>
Fl ash</w>
nom inated</w>
comb ining</w>
be have</w>
Stabil isation</w>
S EN</w>
Ph ase</w>
Tim es</w>
H .</w>
C li
Author ities</w>
un loading</w>
Ver ification</w>
O wn</w>
Ca es
non sense</w>
k on
val ley</w>
ge on</w>
cen sus</w>
NEC ESS
Bro ther</w>
Bor n</w>
infec tious</w>
Re form</w>
re mit</w>
po le</w>
phenomen a</w>
mon ella</w>
met formin</w>
but ter
Tro jan</w>
H D
frag ile</w>
R ather</w>
G olden</w>
................................ ................................
stret ch</w>
activ ate</w>
vot ers</w>
pro secution</w>
fru it
Char lotte</w>
D ress</w>
worsen ing</w>
sen ten
V ill
l ung</w>
et ine</w>
deep throat</w>
A TED</w>
pa ths</w>
f lies</w>
convin cing</w>
gu sts</w>
. DLL</w>
eigh th</w>
challeng ed</w>
bar ley</w>
ag glom
g ated</w>
g ars</w>
Se an</w>
S po
Com par
PUBLIC ATIONS</w>
hydrox y</w>
fil ters</w>
em ea
introduc es</w>
envel ope</w>
al istic</w>
abo ard</w>
Ac tions</w>
4 th</w>
4 32</w>
22. 12.
civ ilians</w>
Po ints</w>
NECESS ARY</w>
Gra b</w>
ben ch</w>
lac t
ann er</w>
Pil ot</w>
2 14</w>
blo g</w>
alo gues</w>
reve als</w>
y n
vi als</w>
Clau de</w>
for t</w>
bre l</w>
B our
thr ust</w>
th al</w>
le uk
coupl ed</w>
com posite</w>
att aches</w>
accum ulated</w>
IN S
venti lation</w>
cit rus</w>
TH ER
Län der</w>
3 85</w>
injur ious</w>
il ian</w>
bra ins</w>
2 21</w>
rest oring</w>
rela tives</w>
im plic
OS CE</w>
em ale</w>
Di men
pun ished</w>
mur ders</w>
afore mentioned</w>
witn essed</w>
suc ks</w>
bl ade</w>
CLASSI FICATION</w>
contem porary</w>
S itting</w>
Meas ure</w>
D ose</w>
pre requisite</w>
defec ts</w>
b ay</w>
OR E</w>
Econ omy</w>
Co oper</w>
pro xim
in ks</w>
c af
T V
P ush</w>
trans formed</w>
n ab
co al
cad mium</w>
at tracted</w>
U ser</w>
K ind</w>
recycl ed</w>
pr ince</w>
bi ds</w>
hor n</w>
P ul
3 86</w>
compar ability</w>
b ent</w>
C ole</w>
APPRO PRI
shel f</w>
loy alty</w>
ga ard</w>
3 27</w>
pr ag
p one</w>
cru el</w>
Qui et</w>
persu ade</w>
equi dae</w>
prior iti
mus h
R UL
IN TE
char ming</w>
Lin d
G PS</w>
x x
fir ing</w>
25 5</w>
sp ra
s lots</w>
ri f
om al
manu ally</w>
angi otensin</w>
T own</w>
Stand ards</w>
En brel</w>
repe ti
re viewing</w>
marg in
C M</w>
nutri tional</w>
gau ge</w>
A U</w>
15 00</w>
par ks</w>
spec imen</w>
a than</w>
Lin ux</w>
AP PROV
under stands</w>
U P
Re production</w>
Po w
Mar kets</w>
20.12. 2013</w>
read er</w>
or dering</w>
compil ed</w>
b la
Play ers</w>
hun g</w>
P er</w>
Mob ile</w>
8 8
in dem
Sub cutaneous</w>
25 8</w>
ret t</w>
m uc
V el
Ca uc
alleg edly</w>
X V</w>
Cle an</w>
shri mp</w>
partic le</w>
accoun table</w>
ac o</w>
projec tions</w>
expec ts</w>
co ke</w>
v ines</w>
t ments</w>
S AL
Bud apest</w>
B ar</w>
presid ential</w>
mat ched</w>
cre atures</w>
co caine</w>
bar gaining</w>
N ord
Ho sp
pen is</w>
jac ent</w>
b or</w>
b last</w>
Princ ess</w>
Des k</w>
gener ic</w>
f li
et a</w>
depos ited</w>
Oper ational</w>
O s
Jud ges</w>
mur derer</w>
cu red</w>
W ouldn</w>
Pe g</w>
Di al</w>
w icked</w>
ti tan
resol ving</w>
REG ARD</w>
Angel es</w>
woo d
identi fies</w>
Infra structure</w>
funda mentally</w>
des ktop</w>
conform ing</w>
2 48</w>
S COR
APPLIC ATION</w>
tu b</w>
ot ype</w>
ol o</w>
ci le</w>
Un like</w>
Pl ants</w>
EF FEC
ATI NG</w>
2 38</w>
clou dless</w>
gr ac
d est</w>
Cul tural</w>
trad er</w>
cus sion</w>
cred itor</w>
ap hy
Estab lishment</w>
privileg e</w>
M um</w>
Im ag
G lax
X IV</w>
identi fier</w>
grand mother</w>
inter rupt</w>
cas inos</w>
adap tations</w>
Mon t
water ways</w>
val ves</w>
execu ting</w>
dis continuation</w>
Na than</w>
2. 4.
chec k
kne e</w>
Pri ority</w>
19 60</w>
under cutting</w>
Fre deri
small est</w>
im s</w>
dom es
an es</w>
l .</w>
in um</w>
B eij
strong est</w>
cre ature</w>
QU AL
Proc ess</w>
Ital ia</w>
Bo ss</w>
u sion</w>
them atic</w>
in admissible</w>
hom emade</w>
adi um</w>
stim ulation</w>
contrac ep
High er</w>
Ac tive</w>
r ank</w>
fail ures</w>
ad ays</w>
PREC AU
arti s</w>
accel erate</w>
es tive</w>
ch equ
n .
dr illing</w>
ORG AN
prohib iting</w>
foot ing</w>
conf ers</w>
broad band</w>
anc a</w>
F T</w>
Bro ad
tm are</w>
la g</w>
E G
5. 5</w>
agr i</w>
nov ads</w>
pro minent</w>
form at
fla kes</w>
fl at
U su
tr unk</w>
o ke</w>
Beij ing</w>
ir relevant</w>
ins isted</w>
T yler</w>
Non etheless</w>
simult aneous</w>
champ agne</w>
H P</w>
4 3
err a</w>
at tainment</w>
ab le
Nov artis</w>
Al bert</w>
re k</w>
hyper tension</w>
ho sts</w>
enfor ce
Wi fe</w>
L AR
re af
process ors</w>
it ar</w>
To wer</w>
Seven th</w>
B uc
tr ash</w>
market able</w>
Se x</w>
SCOR M</w>
S ide</w>
P V</w>
tri bunal</w>
securiti sation</w>
s porting</w>
s enti
mo del
A men</w>
us s</w>
c m3</w>
bre aches</w>
ari ous</w>
Recommen ded</w>
L T</w>
mo tivated</w>
Wor k
re constituted</w>
man ure</w>
illustr ated</w>
adjust able</w>
accel eration</w>
V ING</w>
S ound</w>
P on
9 6
ov ascular</w>
ot age</w>
ab str
b in</w>
M D</w>
Instruc tions</w>
v ain</w>
p ag
C AT</w>
gen tle</w>
J ay</w>
H E</w>
F ar</w>
A partments</w>
Bang emann</w>
35 3</w>
hal f
Set tings</w>
Mi k
19 63</w>
un satisfactory</w>
US B</w>
IN STRUC
earthqu ake</w>
clim b</w>
DRE N</w>
warm ing</w>
re x
appro vals</w>
os ity</w>
dis armament</w>
develop s</w>
car t</w>
part session</w>
lac tic</w>
champ ion</w>
blis ter</w>
Ter ry</w>
Re public
tou ching</w>
ff in</w>
S olution</w>
lob by</w>
be ad
a fil</w>
mer it</w>
ex portation</w>
in ator</w>
ef ly</w>
Li kewise</w>
35 1</w>
top s</w>
sh eriff</w>
po lit
ach t</w>
N eg
ba thro
In dependent</w>
29 13</w>
2, 3</w>
o id</w>
mollus cs</w>
dist ress</w>
R w
CHIL DREN</w>
2 200</w>
en ergies</w>
con su
W ood</w>
Sy rian</w>
Pro vision</w>
PRECAU TIONS</w>
z el</w>
m um</w>
asti m</w>
FINAN CIAL</w>
ten nis</w>
V O
n ucle
do g
catastro p
Sim ple</w>
dis placed</w>
advoc ate</w>
Public ation</w>
Emp lo
vampi re</w>
prop he
govern or</w>
Oper ating</w>
EN G
bom bs</w>
Sur face</w>
&apos; II</w>
diam ond</w>
an ed</w>
H U
Catho lic</w>
plu gin</w>
ad jacent</w>
To wards</w>
fl ec
conver ting</w>
Met al</w>
lac tose</w>
chem istry</w>
Galile o</w>
tor ia</w>
surviv ors</w>
fer tility</w>
Labor atory</w>
mir rors</w>
ex er
b at</w>
ther m
rig orous</w>
lay out</w>
UF AC
prud ent</w>
en er
bloo d
aggreg ated</w>
R od
treas ure</w>
te ars</w>
gu m</w>
dis charges</w>
TIT U
Se ems</w>
0. 3</w>
tun g
wal ks</w>
ton nage</w>
rab bit</w>
inc ere</w>
in sight</w>
exec ute</w>
Spen cer</w>
sa u</w>
St an</w>
K ids</w>
momen tum</w>
aw ards</w>
ari um</w>
MAN UFAC
w ounds</w>
syn chron
euro pa.eu.int</w>
sup por
inter connection</w>
H il
μ m</w>
re vise</w>
col ouring</w>
Wat er
2 17</w>
C ass
j a
deliber ate</w>
SY STE
smo ked</w>
sc rap
ro s</w>
mo tional</w>
k ing
DIS POSAL</w>
assemb lies</w>
c age</w>
S co
D RO
glyca emic</w>
farm house</w>
ev al</w>
bra kes</w>
Th i
ST ATE</w>
IN E</w>
Br uce</w>
qu is
he w</w>
R ock</w>
wa ste
minim is</w>
m align
k B</w>
Manu el</w>
Horiz on</w>
acc us
W E</w>
Li ght
3 28</w>
ri vers</w>
WI TH
Bo oth</w>
sy ner
electro magnetic</w>
P hen
tuber culosis</w>
boo ked</w>
1. 0</w>
satur ated</w>
dr um</w>
Prepar ation</w>
Per u</w>
A O
ori th
in equ
com plain</w>
gri p</w>
dom inated</w>
V ES</w>
New sletter</w>
Ac counting</w>
standardi zation</w>
shel ter</w>
o edema</w>
destro ying</w>
ambul ance</w>
Im m
s ar
art z</w>
COM PE
Acc essing</w>
sup pression</w>
na ils</w>
missi le</w>
min ed</w>
der mal</w>
Smi th
Br and
re jecting</w>
accur ately</w>
L ink</w>
C AP
in herit
Vol vo</w>
Sec tions</w>
S ic
Rap id</w>
6 50</w>
z zy</w>
who le
g el</w>
Nec klace</w>
3 49</w>
di pine</w>
Pr ague</w>
f err
coun sel</w>
ag ger
Pur pose</w>
C Y</w>
Armen ia</w>
mon u
keep er</w>
IN DU
Ambass ador</w>
é r
um my</w>
pe e</w>
issu ance</w>
in visible</w>
Mar ty</w>
sign alling</w>
post pone</w>
cin ema</w>
cha mbers</w>
Be th</w>
AF O</w>
vit amins</w>
cu ps</w>
Deb ate</w>
&apos; t
un common</w>
tri be</w>
Pat ter
M L
Intr on
5 7
lin er</w>
Approxim ate</w>
Adjust ment</w>
su pr
polye ster</w>
gor geous</w>
Dou g</w>
ab stain
Sloven ian</w>
ung le</w>
K O
intra Community</w>
cong estion</w>
aerop lane</w>
M G</w>
mot ors</w>
mon ary</w>
3 84</w>
po r</w>
o ci
cre ep
Intron A</w>
tor ily</w>
gas eous</w>
J ar
scrat ch</w>
en large</w>
dro pping</w>
For give</w>
de viation</w>
Ne der
propor tions</w>
path ogenic</w>
bead .com</w>
inst inc
hypoten sion</w>
en quiries</w>
detri mental</w>
da g</w>
constru ed</w>
T ON</w>
30 7</w>
scal es</w>
plant ation</w>
Ed ward</w>
ris es</w>
es cor
com promised</w>
bl essed</w>
6 4
ur inary</w>
do s</w>
Sa har
INSTRUC TIONS</w>
En largement</w>
Bj bead.com</w>
threat ens</w>
tax i</w>
hab it</w>
com plications</w>
Vehic le</w>
Comm unications</w>
inv itations</w>
form erly</w>
Tem porary</w>
Luc as</w>
ten sions</w>
in er
char m</w>
cess ation</w>
ad ors</w>
2 12</w>
sp inning</w>
some time</w>
mar row</w>
fri dge</w>
E u</w>
Arab ia</w>
jer k</w>
gr a
dr al</w>
D at
Cha ir
Arrang ement</w>
AC TI
Adv anced</w>
ven d
str a</w>
reimbur sed</w>
progres sion</w>
o ws</w>
E ye</w>
smo o
l umin
episo des</w>
V .
Me at</w>
Hel en</w>
E sp
Comple te</w>
Certific ate</w>
- Okay</w>
titan ium</w>
form ulate</w>
chro me</w>
Sum mer</w>
Organ ic</w>
A zo
5 74</w>
standardis ed</w>
C ut
fl ags</w>
bi o</w>
po orer</w>
open ly</w>
n an</w>
inven ted</w>
competi tor</w>
T ables</w>
R .
40 2</w>
de pl
W as
Ste fan</w>
x on</w>
l ww</w>
Rail way</w>
0, 2</w>
gu t</w>
disgu sting</w>
be fore
port al</w>
Sam sung</w>
Got ta</w>
pist on</w>
cell ular</w>
HE AL
Cas ino</w>
mun ition</w>
hec tare</w>
Gor don</w>
wi pe</w>
stri king</w>
M W</w>
subscri bed</w>
s incere</w>
P ar</w>
CEN TR
m ang
fac tories</w>
em ul
IM UM</w>
Cust omer</w>
Cor rec
habit ats</w>
Th ou</w>
Sur vey</w>
C linical</w>
weak er</w>
emb roi
de d
contradic tion</w>
am po
IL O</w>
Col lins</w>
2 90</w>
197 0s</w>
pronoun ced</w>
ble ached</w>
an ie</w>
stri ve</w>
j ah</w>
chang e
N es
EM I</w>
DE M</w>
19 62</w>
z z</w>
understand able</w>
nigh tmare</w>
an th
Maur it
Electr ical</w>
s is
organiz ing</w>
ed ges</w>
Ira qi</w>
Aar hus</w>
pear l</w>
ag ers</w>
inherit ance</w>
Niger ia</w>
trac eability</w>
sub paragraphs</w>
P el
trig gered</w>
Lithu anian</w>
- The</w>
y cle</w>
b ind</w>
N ap
Kla us</w>
un stable</w>
back wards</w>
Super vis
Registr ar</w>
Han nah</w>
Cere als</w>
creati vity</w>
cer ned</w>
S L
Farm house</w>
2, 2</w>
to ast</w>
r .
farm ed</w>
Est onian</w>
2 41</w>
l is</w>
Aut om
Transi tional</w>
00 2</w>
recogn ising</w>
Mach inery</w>
sper m</w>
ic e
ex am</w>
SERV ICES</w>
num bered</w>
at t</w>
UN USED</w>
Euro pa</w>
hy de</w>
T ECH
parti tion</w>
im men
Ro s
M Hz</w>
8 9
10 th</w>
re side</w>
An drew</w>
veri fying</w>
righte ous</w>
H ay
ru b</w>
gr ay</w>
excre ted</w>
at em
me te
grad ed</w>
S ex
rob bery</w>
predic table</w>
fo stering</w>
B each</w>
rati os</w>
hyper tensive</w>
bio fuels</w>
sk ull</w>
heal ing</w>
ox etine</w>
bo om</w>
Industri es</w>
1 151</w>
retail ers</w>
po etin</w>
G RO
advoc ated</w>
Word Net</w>
u le</w>
Pr ac
Hon or</w>
phy si
loy al</w>
lab or</w>
is ons</w>
conven ed</w>
ch i</w>
Pub lished</w>
Me et</w>
COUR T</w>
per for
il legally</w>
foun ding</w>
do l</w>
di methyl
ass ault</w>
Po sted</w>
shoul ders</w>
s mil
S cho
amp li
Ex tra</w>
2 S</w>
contin ental</w>
PO L</w>
Hol bein</w>
C up</w>
institu ted</w>
elev ated</w>
divi ding</w>
G MOs</w>
10 000</w>
weigh ting</w>
Aud it</w>
ster ile</w>
iz er</w>
inv asion</w>
equ als</w>
c lic</w>
Dru gs</w>
2 95</w>
2 75</w>
lam inated</w>
c andy</w>
TECH N
TAR GET
Instru ments</w>
rac ist</w>
in quiries</w>
distur bing</w>
com m</w>
attach ment</w>
Re structuring</w>
POSI TION</w>
Dru g</w>
re actors</w>
gr ation</w>
Smar t</w>
S ports</w>
FA O</w>
Di ag
De pending</w>
recep tor</w>
p ha
inter ruption</w>
dis pose</w>
ab norm
T Y
4, 5</w>
fr an
e i</w>
Stat Bank</w>
SI GHT</w>
N eigh
Gr ant</w>
B ay
dis solved</w>
cri ed</w>
T .</w>
K n
2. 6</w>
iP od</w>
dis agreement</w>
lac tation</w>
icon duc
al liance</w>
US SR</w>
T .
P op</w>
3 25</w>
pub lik
imp ul
confron ted</w>
Consul tation</w>
f estival</w>
c enti
ME P</w>
4. 9</w>
fl u</w>
critic isms</w>
b are</w>
M ine</w>
Ethiop ia</w>
3. 4</w>
ti ce</w>
h l
ai ded</w>
Pro grammes</w>
seiz ures</w>
fl ora</w>
de puty</w>
a tics</w>
gr astim</w>
bal cony</w>
Re sid
Ju lia</w>
Addi tionally</w>
be side</w>
Sch ul
SEC UR
Natur a</w>
Hit ler</w>
D A
man ship</w>
bul lets</w>
bl ades</w>
l ump</w>
ific ent</w>
b ai
Co R</w>
fle ets</w>
ex ert</w>
coun sel
substanti ated</w>
ha i</w>
gu iding</w>
WH ICH</w>
L ong
Azo res</w>
Ang ela</w>
pos ting</w>
na p</w>
constitu ency</w>
ch ill</w>
applic ability</w>
tab ling</w>
S li
II .
DER IV
2 98</w>
uni fied</w>
laun dry</w>
ambi tions</w>
T D</w>
Po st
extre mis
aspi rations</w>
helicop ter</w>
hab its</w>
acci dental</w>
P in
NE W</w>
ha ul</w>
h ates</w>
ess a</w>
bene ath</w>
S pi
At tention</w>
spec tive</w>
aqu eous</w>
My an
Del ete</w>
the atre</w>
scho ol
past e</w>
I sa
Fi gu
mo tivation</w>
de struc
Her man</w>
dis astr
wi g</w>
t ween</w>
flo od</w>
P and
tou gh
overwhel ming</w>
jac kets</w>
dur able</w>
bb les</w>
ap i
ten th</w>
suppor tive</w>
quar antine</w>
pl ed</w>
knoc ked</w>
di o
un preced
sa uce</w>
f led</w>
extr ad
de vote</w>
appro ves</w>
Ur ban</w>
suspic ious</w>
sm ells</w>
un clear</w>
con qu
Valen cia</w>
Hy per
En dor
verte br
Multi ple</w>
stall ine</w>
si ded</w>
ou tw
accred ited</w>
.e u.int</w>
w ls</w>
proxim ity</w>
it ching</w>
S atellite</w>
ca ve</w>
S aid</w>
Be en</w>
dispu ted</w>
ancell or</w>
acci dentally</w>
T 5</w>
wel coming</w>
bul l</w>
avi er</w>
ING S</w>
vis t</w>
vir uses</w>
po e
aud iting</w>
adhe sive</w>
W on</w>
SHA LL</w>
li qu
decor ated</w>
de m</w>
Luc ky</w>
K .</w>
A venue</w>
ur ges</w>
engine er</w>
E rik</w>
in ability</w>
Who o</w>
OPINI ON</w>
regim en</w>
intoler ance</w>
ati e</w>
admin istering</w>
Christi ans</w>
uck les</w>
satisfac torily</w>
out breaks</w>
ho sting</w>
ev ing</w>
dele tion</w>
colo red</w>
anti dumping</w>
K line</w>
19 50</w>
re sh
elev ator</w>
o e</w>
be aches</w>
akh stan</w>
Ren al</w>
Man aging</w>
we re
Pro hi
G RE
CH AR
deleg ate</w>
bal lo
Vehic les</w>
mis understanding</w>
bri de</w>
scienti st</w>
K el
HEAL TH</w>
25 9</w>
remin ds</w>
gerich t</w>
agre eing</w>
E at</w>
spe eds</w>
inst ant</w>
Ju lie</w>
H ill</w>
Democ racy</w>
prec eded</w>
harvest ed</w>
gr ains</w>
Té l</w>
Kaz akhstan</w>
align ed</w>
30 6</w>
2 33</w>
solven ts</w>
ME S</w>
LE AF
Cl assic</w>
skel etal</w>
m ice</w>
ro bot</w>
f .</w>
Tok yo</w>
S D
5 a</w>
vis ing</w>
hear ings</w>
f ellas</w>
TE XT</w>
M ind</w>
Bas el</w>
refin ing</w>
d ice</w>
be e</w>
w agon</w>
cou ch</w>
ge ometry</w>
excell ence</w>
Bri dge</w>
stra w</w>
bu mp
str o</w>
p. l</w>
doub led</w>
pos able</w>
mono polies</w>
ch o</w>
bo wl</w>
B G</w>
4 25</w>
he al</w>
Uni versal</w>
12 49</w>
syn thesis</w>
mo wers</w>
fer on
c ine</w>
ar c
T ac
Exam ples</w>
sign atures</w>
she ep
rea tional</w>
pu zzle</w>
o tive</w>
l ler</w>
chole sterol</w>
a waiting</w>
op ment</w>
form ance</w>
dig its</w>
Eng ine
3 63</w>
wal let</w>
ad mir
Dis tribution</w>
r hyth
S ky</w>
Phar a
LEAF LET</w>
thi ef</w>
squ ared</w>
p neu
GO VER
den se</w>
con signed</w>
St yle</w>
M itch
J unior</w>
Ch loe</w>
not withstanding</w>
bus h</w>
ag en
S M</w>
REL ATIONS</w>
M iller</w>
B ac
9 11</w>
2 31</w>
2 13</w>
py ri
dys function</w>
clo set</w>
Imag ine</w>
gg le</w>
cr ushed</w>
mal es</w>
gro wers</w>
el ap
dec ree</w>
bacter ial</w>
K itchen</w>
g us</w>
e ans</w>
d an</w>
Matthe w</w>
K id</w>
trans form</w>
occup ations</w>
b ies</w>
KING DOM</w>
supervis or</w>
T elecommunications</w>
any l</w>
Vira feron
Deutsch e</w>
Croati an</w>
unpreced ented</w>
trans atlantic</w>
fol ders</w>
F U
6 7
tiz ation</w>
o C</w>
M IR
28. 11.
pre valence</w>
E aster</w>
motor way</w>
lat er
alg orith
al ign</w>
EE N</w>
par don</w>
lo dge</w>
broadcast ers</w>
aerop lanes</w>
Re qu
log s</w>
in valid</w>
dom ination</w>
c ence</w>
bit ter</w>
Sam uel</w>
K ra
Jon athan</w>
harmon y</w>
electron ically</w>
MF I</w>
G reat
Br y
star ing</w>
inequ alities</w>
disastr ous</w>
admin ister</w>
t ese</w>
re paid</w>
open ia</w>
compens ated</w>
Syst em
APPROPRI ATE</w>
ship ments</w>
p .</w>
meth ane</w>
deri ving</w>
cas e
ca red</w>
ass ist
Vir ility</w>
Ken ya</w>
Co ast</w>
est one</w>
epidemi ological</w>
Ne u
Commit ments</w>
A unt</w>
ta st
NO W</w>
Ben j
priv ati
pre mature</w>
over s</w>
O f
wor ries</w>
rigen dum</w>
b ust</w>
T ATION</w>
REQU I
19 57</w>
favour ite</w>
ex agger
Ac ts</w>
sal ted</w>
cl am
che es
TE N</w>
Re as
RUL ES</w>
Lin col
so wing</w>
l ens</w>
fo g</w>
fi br
ar omatic</w>
Ac ci
met abolic</w>
im eter</w>
al thy</w>
La ura</w>
red ness</w>
or ously</w>
equi voc
au to</w>
argu ing</w>
Lot to</w>
testi mony</w>
s age</w>
ne ath</w>
Lat vian</w>
L anka</w>
construc t</w>
consequ ent</w>
2 32</w>
sand wich</w>
preced ent</w>
enrich ment</w>
Bar ney</w>
2 19</w>
í a</w>
k de</w>
ing ency</w>
dis appointment</w>
dictator ship</w>
conce ived</w>
Merc k</w>
F en
A zer
6 9
3 30</w>
tum our</w>
sou p</w>
multi ply</w>
Viraferon Peg</w>
S anc
tt a</w>
E arly</w>
pack aged</w>
U g
pow ders</w>
ion ship</w>
read ers</w>
grati tude</w>
fem ales</w>
expi res</w>
c am</w>
Elec tro
Com panies</w>
2 36</w>
sk irt</w>
re jo
gen s</w>
W E
net ting</w>
jeop ardi
dec eased</w>
car tel</w>
24 54</w>
thre n</w>
de stri
cl ay</w>
cha os</w>
Mi ami</w>
stead ily</w>
re a</w>
p ac
optim istic</w>
cali bration</w>
Manufactu rer</w>
He ar</w>
t ach
ho stage</w>
cap sule</w>
a ments</w>
P is
Caes ar</w>
us able</w>
em ails</w>
co di
ab sten
R ate</w>
Pr ices</w>
Fu el</w>
2 96</w>
ha ul
eth ics</w>
In ven
Anth ony</w>
counterfe iting</w>
Pass port</w>
D avis</w>
pre amble</w>
e ball</w>
col or
vacc inated</w>
re c</w>
ly wood</w>
k al
cor ners</w>
bio diesel</w>
S M
F red
Che ap</w>
p ation</w>
journ alist</w>
emea .</w>
2 27</w>
l ur
cu e</w>
c es
d ili
Im age</w>
im poses</w>
1. 8</w>
1. 7</w>
pre dec
ign or
bed ded</w>
Sus pension</w>
par ameter</w>
coordin ator</w>
bicy cle</w>
Rec ent</w>
transf erable</w>
recon cile</w>
comprehen sible</w>
A w
z ine</w>
ogene ous</w>
albu m</w>
Sy d
Smith Kline</w>
Com pen
on ate</w>
h en</w>
bel oved</w>
Du ke</w>
BT 1</w>
w ounded</w>
su stain</w>
inter views</w>
indic es</w>
ence phal
ch en</w>
alleg ations</w>
R ain
Intr on</w>
Cle an
B lan
in ward</w>
bid den</w>
writ es</w>
stra tions</w>
sc attered</w>
ra tive</w>
ind ex
co ding</w>
Ha iti</w>
viol ated</w>
min ors</w>
im pu
distor ted</w>
assur ances</w>
a z</w>
z om
vi vo</w>
righte ousness</w>
phy to
b ati
PE T</w>
Gu atem
th west</w>
mod al</w>
inst ability</w>
in form
certi fying</w>
Kur dish</w>
sk ip
sco res</w>
dro be</w>
br ass</w>
p ins</w>
in ates</w>
rab bits</w>
e rec
decreas es</w>
coun cils</w>
Al ready</w>
ä r
ch ick</w>
Rel ease</w>
wil derness</w>
phen ol</w>
fai thful</w>
bicy cles</w>
archi ve</w>
am ple</w>
believ ing</w>
ve in</w>
re pos
hy persensitivity</w>
dic h
atten dance</w>
Ob li
N S
Ch ick
fro m
e ment
compe ten
Mul der</w>
L em
CYP 2
re g</w>
monit ors</w>
W anna</w>
fo ren
exhaus tive</w>
R an
Har d
At l
dispat ched</w>
de pressed</w>
S low</w>
identi fiable</w>
dis c</w>
n y
inv iting</w>
he aters</w>
fil ing</w>
enjo ys</w>
decentr alised</w>
Nov o
su itability</w>
se als</w>
min i
down ward</w>
Val ley</w>
SC R</w>
simil arly</w>
si le</w>
methodo logies</w>
leg acy</w>
Contin u
op es</w>
in sufficiency</w>
conf isc
ro sis</w>
ri p</w>
im er</w>
el son</w>
V ER</w>
tric ks</w>
tion s
re affirmed</w>
kis sing</w>
G ER
Ar ts</w>
3 22</w>
Op inions</w>
MIN IMUM</w>
bro mide</w>
Th ai</w>
Alph a</w>
l ations</w>
grou p
cri p
Hou se
s culp
mass ac
be es</w>
Sen ior</w>
Dri ving</w>
C on</w>
assi gn</w>
am munition</w>
Way ne</w>
N ep
Com position</w>
lit re</w>
expres sions</w>
anch or
Je ff
2 39</w>
v ague</w>
mis use</w>
fla x</w>
Spe ak</w>
ME D</w>
Ben e
ü n
sty les</w>
rel s</w>
k r
T EC
o ath</w>
S ac
Mer ry</w>
Ama zon</w>
и я</w>
out lets</w>
ann on</w>
STO RED</w>
Mal tese</w>
Lincol n</w>
lun gs</w>
funda ment
Mar cus</w>
C riter
per taining</w>
ot ro
V OL
3 10</w>
simpli fying</w>
emplo ying</w>
ed a</w>
c av
Repe at</w>
P ope</w>
F A</w>
termin als</w>
episo de</w>
de af</w>
spo kes
dis mis
as us</w>
Sh or
PE R</w>
Ma thema
se wage</w>
ques tioning</w>
pec t</w>
observ ance</w>
authentic ity</w>
S ak
Leon ard</w>
lic king</w>
4 20</w>
cover ings</w>
b .
acqu ain
Sen eg
Micro form</w>
Bo ston</w>
C able</w>
un happy</w>
tr as
strai ght
sna ke</w>
pe er</w>
S utes</w>
s ph
s burg</w>
popul ated</w>
gr inding</w>
gne e</w>
alph ab
intern ally</w>
gener ator</w>
consis ted</w>
ai c</w>
Con soli
3 13</w>
promp ted</w>
consul tant</w>
ill us</w>
dra in</w>
are rs</w>
T OR</w>
Ar m
W it
S ON</w>
3 11</w>
impro ves</w>
fl ame</w>
consul tative</w>
c ers</w>
Vene zu
He h</w>
leng thy</w>
jum ped</w>
ext ingu
a. m</w>
5 .</w>
speci mens</w>
rec apit
p ic</w>
cry stalline</w>
Pro motion</w>
Lin da</w>
Gab ri
tr ust
real ities</w>
po v</w>
orig inate</w>
off shore</w>
inflam matory</w>
CE O</w>
syr inges</w>
Me dium</w>
D ay
CF P</w>
neighb or</w>
W AL</w>
Saf e</w>
Inter action</w>
harass ment</w>
gro ws</w>
Up per</w>
N I
B 2</w>
or derly</w>
induc tion</w>
foreign ers</w>
cartrid ges</w>
Mus lim</w>
J U
rectang ular</w>
G as
CU STO
rul ings</w>
pain tings</w>
nip ples</w>
hosp it
collec tively</w>
bloc k
Mag ne
em ble</w>
ak a</w>
SPEC I
D D</w>
chro mium</w>
bl essing</w>
Air lines</w>
Ab u</w>
tol erate</w>
organiz ational</w>
le ak</w>
cardi ovascular</w>
Ro y
L earn</w>
Gu il
F arm</w>
res in</w>
embarrass ing</w>
com a</w>
ro y
re produced</w>
propri etary</w>
b lowing</w>
Star ting</w>
tr ay</w>
fin est</w>
af fixed</w>
Diffe rent</w>
0 10</w>
bar a</w>
ar able</w>
Integr ation</w>
un ded</w>
ro r
oo ts</w>
lo ser</w>
har bour</w>
dis charged</w>
Tur ning</w>
N .</w>
L ock</w>
Glax o
Cur rently</w>
26. 6.
or ly</w>
le m</w>
g es
euro pa
TARGET 2</w>
Peg Intron</w>
spec ulation</w>
char ity</w>
1 200</w>
worth while</w>
the dral</w>
phr ases</w>
le asing</w>
hic s</w>
brut al</w>
mon otherapy</w>
Dom estic</w>
Benj amin</w>
Ben ef
w ski</w>
neighb our</w>
benz ene</w>
OC Ts</w>
EM P
hand les</w>
exc essively</w>
ch ment</w>
ch icks</w>
b red</w>
Jo sh
int on</w>
cab inet</w>
ad ine</w>
po ts</w>
ne um
e b</w>
infring ed</w>
X X</w>
RE PORT</w>
Consum ers</w>
Azer bai
w ash
li me</w>
Nic hol
ele ph
An dri
engine ers</w>
eg a</w>
Shar p</w>
E M</w>
o il
ag le</w>
R is
obser ves</w>
harmon ize</w>
[...]
